<?xml version="1.0"?>
<MethodSetup Method="BDT::BDTG">
  <GeneralInfo>
    <Info name="TMVA Release" value="4.2.0 [262656]"/>
    <Info name="ROOT Release" value="5.34/25 [336409]"/>
    <Info name="Creator" value="asciandr"/>
    <Info name="Date" value="Tue Jul 25 16:48:17 2017"/>
    <Info name="Host" value="Linux lcgapp-slc6-physical1.cern.ch 2.6.32-504.1.3.el6.x86_64 #1 SMP Wed Nov 12 06:58:35 CET 2014 x86_64 x86_64 x86_64 GNU/Linux"/>
    <Info name="Dir" value="/afs/cern.ch/work/a/asciandr/ttH/ttH_shape/BDT"/>
    <Info name="Training events" value="52445"/>
    <Info name="TrainingTime" value="5.87012160e+01"/>
    <Info name="AnalysisType" value="Classification"/>
  </GeneralInfo>
  <Options>
    <Option name="V" modified="Yes">False</Option>
    <Option name="VerbosityLevel" modified="No">Default</Option>
    <Option name="VarTransform" modified="No">None</Option>
    <Option name="H" modified="Yes">False</Option>
    <Option name="CreateMVAPdfs" modified="No">False</Option>
    <Option name="IgnoreNegWeightsInTraining" modified="Yes">True</Option>
    <Option name="NTrees" modified="Yes">800</Option>
    <Option name="MaxDepth" modified="Yes">3</Option>
    <Option name="MinNodeSize" modified="Yes">1%</Option>
    <Option name="nCuts" modified="Yes">20</Option>
    <Option name="BoostType" modified="Yes">Grad</Option>
    <Option name="AdaBoostR2Loss" modified="No">quadratic</Option>
    <Option name="UseBaggedBoost" modified="Yes">True</Option>
    <Option name="Shrinkage" modified="Yes">1.000000e-01</Option>
    <Option name="AdaBoostBeta" modified="No">5.000000e-01</Option>
    <Option name="UseRandomisedTrees" modified="No">False</Option>
    <Option name="UseNvars" modified="No">3</Option>
    <Option name="UsePoissonNvars" modified="No">True</Option>
    <Option name="BaggedSampleFraction" modified="Yes">5.000000e-01</Option>
    <Option name="UseYesNoLeaf" modified="No">True</Option>
    <Option name="NegWeightTreatment" modified="No">ignorenegweightsintraining</Option>
    <Option name="Css" modified="No">1.000000e+00</Option>
    <Option name="Cts_sb" modified="No">1.000000e+00</Option>
    <Option name="Ctb_ss" modified="No">1.000000e+00</Option>
    <Option name="Cbb" modified="No">1.000000e+00</Option>
    <Option name="NodePurityLimit" modified="No">5.000000e-01</Option>
    <Option name="SeparationType" modified="No">giniindex</Option>
    <Option name="DoBoostMonitor" modified="No">False</Option>
    <Option name="UseFisherCuts" modified="No">False</Option>
    <Option name="MinLinCorrForFisher" modified="No">8.000000e-01</Option>
    <Option name="UseExclusiveVars" modified="No">False</Option>
    <Option name="DoPreselection" modified="No">False</Option>
    <Option name="SigToBkgFraction" modified="No">1.000000e+00</Option>
    <Option name="PruneMethod" modified="No">nopruning</Option>
    <Option name="PruneStrength" modified="No">0.000000e+00</Option>
    <Option name="PruningValFraction" modified="No">5.000000e-01</Option>
    <Option name="nEventsMin" modified="No">0</Option>
    <Option name="UseBaggedGrad" modified="No">False</Option>
    <Option name="GradBaggingFraction" modified="No">5.000000e-01</Option>
    <Option name="UseNTrainEvents" modified="No">0</Option>
    <Option name="NNodesMax" modified="No">0</Option>
  </Options>
  <Variables NVar="6">
    <Variable VarIndex="0" Expression="nJets_OR_T" Label="nJets_OR_T" Title="nJets_OR_T" Unit="" Internal="nJets_OR_T" Type="F" Min="0.00000000e+00" Max="1.00000000e+01"/>
    <Variable VarIndex="1" Expression="best_Z_other_Mll" Label="best_Z_other_Mll" Title="best_Z_other_Mll" Unit="" Internal="best_Z_other_Mll" Type="F" Min="1.20023701e+04" Max="1.86717425e+06"/>
    <Variable VarIndex="2" Expression="Mllll0123" Label="Mllll0123" Title="Mllll0123" Unit="" Internal="Mllll0123" Type="F" Min="1.07628227e+05" Max="2.93905175e+06"/>
    <Variable VarIndex="3" Expression="MET_RefFinal_et" Label="MET_RefFinal_et" Title="MET_RefFinal_et" Unit="" Internal="MET_RefFinal_et" Type="F" Min="5.93921852e+01" Max="1.44227825e+06"/>
    <Variable VarIndex="4" Expression="HT" Label="HT" Title="HT" Unit="" Internal="HT" Type="F" Min="6.08920859e+04" Max="3.39882925e+06"/>
    <Variable VarIndex="5" Expression="best_Z_Mll" Label="best_Z_Mll" Title="best_Z_Mll" Unit="" Internal="best_Z_Mll" Type="F" Min="8.12038281e+04" Max="1.01146156e+05"/>
  </Variables>
  <Spectators NSpec="0"/>
  <Classes NClass="2">
    <Class Name="Signal" Index="0"/>
    <Class Name="Background" Index="1"/>
  </Classes>
  <Transformations NTransformations="0"/>
  <MVAPdfs/>
  <Weights NTrees="800" AnalysisType="1">
    <BinaryTree type="DecisionTree" boostWeight="1.0000000000000000e+00" itree="0">
      <Node pos="s" depth="0" NCoef="0" IVar="3" Cut="6.8736484375000000e+04" cType="1" res="1.7713860142976046e-03" rms="4.9999687075614929e-01" purity="5.0177139043807983e-01" nType="0">
        <Node pos="l" depth="1" NCoef="0" IVar="3" Cut="4.5839187500000000e+04" cType="1" res="-2.2481560707092285e-01" rms="4.4660714268684387e-01" purity="2.7518439292907715e-01" nType="0">
          <Node pos="l" depth="2" NCoef="0" IVar="1" Cut="1.7493587500000000e+05" cType="1" res="-3.4618100523948669e-01" rms="3.6077514290809631e-01" purity="1.5381897985935211e-01" nType="0">
            <Node pos="l" depth="3" NCoef="0" IVar="-1" Cut="0.0000000000000000e+00" cType="1" res="-1.5019498765468597e-02" rms="3.2490476965904236e-01" purity="1.1995145678520203e-01" nType="-99"/>
            <Node pos="r" depth="3" NCoef="0" IVar="-1" Cut="0.0000000000000000e+00" cType="1" res="2.9160915873944759e-03" rms="4.1351532936096191e-01" purity="7.8107839822769165e-01" nType="-99"/>
          </Node>
          <Node pos="r" depth="2" NCoef="0" IVar="2" Cut="2.4941017187500000e+05" cType="1" res="2.5521817803382874e-01" rms="4.2995777726173401e-01" purity="7.5521820783615112e-01" nType="0">
            <Node pos="l" depth="3" NCoef="0" IVar="-1" Cut="0.0000000000000000e+00" cType="1" res="2.9922628891654313e-04" rms="4.9964064359664917e-01" purity="5.1895302534103394e-01" nType="-99"/>
            <Node pos="r" depth="3" NCoef="0" IVar="-1" Cut="0.0000000000000000e+00" cType="1" res="2.7123014442622662e-03" rms="3.6990967392921448e-01" purity="8.3640277385711670e-01" nType="-99"/>
          </Node>
        </Node>
        <Node pos="r" depth="1" NCoef="0" IVar="1" Cut="1.1128134375000000e+05" cType="1" res="4.6543923020362854e-01" rms="1.8266451358795166e-01" purity="9.6543926000595093e-01" nType="0">
          <Node pos="l" depth="2" NCoef="0" IVar="3" Cut="1.0324776562500000e+05" cType="1" res="4.4475966691970825e-01" rms="2.2844876348972321e-01" purity="9.4475966691970825e-01" nType="0">
            <Node pos="l" depth="3" NCoef="0" IVar="-1" Cut="0.0000000000000000e+00" cType="1" res="2.9546616133302450e-03" rms="3.1060385704040527e-01" purity="8.9182299375534058e-01" nType="-99"/>
            <Node pos="r" depth="3" NCoef="0" IVar="-1" Cut="0.0000000000000000e+00" cType="1" res="3.6337433848530054e-03" rms="1.3780082762241364e-01" purity="9.8063600063323975e-01" nType="-99"/>
          </Node>
          <Node pos="r" depth="2" NCoef="0" IVar="-1" Cut="0.0000000000000000e+00" cType="1" res="2.3814411833882332e-03" rms="1.1129251867532730e-01" purity="9.8745667934417725e-01" nType="-99"/>
        </Node>
      </Node>
    </BinaryTree>
    <BinaryTree type="DecisionTree" boostWeight="1.0000000000000000e+00" itree="1">
      <Node pos="s" depth="0" NCoef="0" IVar="3" Cut="3.3024675781250000e+04" cType="1" res="-2.5870868936181068e-02" rms="4.9583467841148376e-01" purity="4.7063875198364258e-01" nType="0">
        <Node pos="l" depth="1" NCoef="0" IVar="1" Cut="1.3643696875000000e+05" cType="1" res="-3.6147949099540710e-01" rms="3.3689275383949280e-01" purity="1.3162676990032196e-01" nType="0">
          <Node pos="l" depth="2" NCoef="0" IVar="1" Cut="1.1256450781250000e+05" cType="1" res="-4.2852732539176941e-01" rms="2.4468789994716644e-01" purity="6.3963502645492554e-02" nType="0">
            <Node pos="l" depth="3" NCoef="0" IVar="-1" Cut="0.0000000000000000e+00" cType="1" res="-4.3328449130058289e-02" rms="2.1148756146430969e-01" purity="4.6929351985454559e-02" nType="-99"/>
            <Node pos="r" depth="3" NCoef="0" IVar="-1" Cut="0.0000000000000000e+00" cType="1" res="-3.0754582257941365e-04" rms="4.9944838881492615e-01" purity="4.7652018070220947e-01" nType="-99"/>
          </Node>
          <Node pos="r" depth="2" NCoef="0" IVar="-1" Cut="0.0000000000000000e+00" cType="1" res="2.5778221897780895e-03" rms="4.3705767393112183e-01" purity="7.4168229103088379e-01" nType="-99"/>
        </Node>
        <Node pos="r" depth="1" NCoef="0" IVar="3" Cut="6.4422179687500000e+04" cType="1" res="2.8314360976219177e-01" rms="4.1051360964775085e-01" purity="7.8278690576553345e-01" nType="0">
          <Node pos="l" depth="2" NCoef="0" IVar="3" Cut="5.0957816406250000e+04" cType="1" res="3.4351270645856857e-02" rms="4.9741092324256897e-01" purity="5.3140467405319214e-01" nType="0">
            <Node pos="l" depth="3" NCoef="0" IVar="-1" Cut="0.0000000000000000e+00" cType="1" res="-1.6243918798863888e-03" rms="4.9196362495422363e-01" purity="4.1671821475028992e-01" nType="-99"/>
            <Node pos="r" depth="3" NCoef="0" IVar="-1" Cut="0.0000000000000000e+00" cType="1" res="1.9043297506868839e-03" rms="4.3630853295326233e-01" purity="7.4398249387741089e-01" nType="-99"/>
          </Node>
          <Node pos="r" depth="2" NCoef="0" IVar="3" Cut="9.4345421875000000e+04" cType="1" res="4.4989687204360962e-01" rms="2.1528489887714386e-01" purity="9.5127612352371216e-01" nType="0">
            <Node pos="l" depth="3" NCoef="0" IVar="-1" Cut="0.0000000000000000e+00" cType="1" res="2.6457495987415314e-03" rms="3.1124541163444519e-01" purity="8.9132839441299438e-01" nType="-99"/>
            <Node pos="r" depth="3" NCoef="0" IVar="-1" Cut="0.0000000000000000e+00" cType="1" res="3.9177648723125458e-03" rms="1.2791883945465088e-01" purity="9.8336482048034668e-01" nType="-99"/>
          </Node>
        </Node>
      </Node>
    </BinaryTree>
    <BinaryTree type="DecisionTree" boostWeight="1.0000000000000000e+00" itree="2">
      <Node pos="s" depth="0" NCoef="0" IVar="3" Cut="4.8659894531250000e+04" cType="1" res="1.4495667070150375e-02" rms="4.8883286118507385e-01" purity="5.0332361459732056e-01" nType="0">
        <Node pos="l" depth="1" NCoef="0" IVar="1" Cut="1.2780814843750000e+05" cType="1" res="-2.6818957924842834e-01" rms="4.0131238102912903e-01" purity="2.1043567359447479e-01" nType="0">
          <Node pos="l" depth="2" NCoef="0" IVar="3" Cut="3.7081828125000000e+04" cType="1" res="-3.3790978789329529e-01" rms="3.4128761291503906e-01" purity="1.3812147080898285e-01" nType="0">
            <Node pos="l" depth="3" NCoef="0" IVar="-1" Cut="0.0000000000000000e+00" cType="1" res="-1.9947234541177750e-02" rms="2.7185171842575073e-01" purity="8.0995373427867889e-02" nType="-99"/>
            <Node pos="r" depth="3" NCoef="0" IVar="-1" Cut="0.0000000000000000e+00" cType="1" res="-3.4488554229028523e-04" rms="4.9650382995605469e-01" purity="4.4841143488883972e-01" nType="-99"/>
          </Node>
          <Node pos="r" depth="2" NCoef="0" IVar="3" Cut="2.3376275390625000e+04" cType="1" res="2.5660145282745361e-01" rms="4.2962011694908142e-01" purity="7.5475209951400757e-01" nType="0">
            <Node pos="l" depth="3" NCoef="0" IVar="-1" Cut="0.0000000000000000e+00" cType="1" res="5.9433933347463608e-04" rms="4.9943596124649048e-01" purity="5.2906888723373413e-01" nType="-99"/>
            <Node pos="r" depth="3" NCoef="0" IVar="-1" Cut="0.0000000000000000e+00" cType="1" res="3.4042005427181721e-03" rms="3.3328884840011597e-01" purity="8.7185353040695190e-01" nType="-99"/>
          </Node>
        </Node>
        <Node pos="r" depth="1" NCoef="0" IVar="3" Cut="9.4948132812500000e+04" cType="1" res="4.0075886249542236e-01" rms="2.9498925805091858e-01" purity="9.0352785587310791e-01" nType="0">
          <Node pos="l" depth="2" NCoef="0" IVar="3" Cut="6.4036933593750000e+04" cType="1" res="3.3447039127349854e-01" rms="3.6958518624305725e-01" purity="8.3658593893051147e-01" nType="0">
            <Node pos="l" depth="3" NCoef="0" IVar="-1" Cut="0.0000000000000000e+00" cType="1" res="2.2555170580744743e-03" rms="4.4064381718635559e-01" purity="7.3611897230148315e-01" nType="-99"/>
            <Node pos="r" depth="3" NCoef="0" IVar="-1" Cut="0.0000000000000000e+00" cType="1" res="1.8491329392418265e-03" rms="2.9381212592124939e-01" purity="9.0457570552825928e-01" nType="-99"/>
          </Node>
          <Node pos="r" depth="2" NCoef="0" IVar="2" Cut="3.1171584375000000e+05" cType="1" res="4.7022280097007751e-01" rms="1.6012312471866608e-01" purity="9.7367650270462036e-01" nType="0">
            <Node pos="l" depth="3" NCoef="0" IVar="-1" Cut="0.0000000000000000e+00" cType="1" res="3.6203113850206137e-03" rms="2.2267165780067444e-01" purity="9.4768893718719482e-01" nType="-99"/>
            <Node pos="r" depth="3" NCoef="0" IVar="-1" Cut="0.0000000000000000e+00" cType="1" res="3.5033617168664932e-03" rms="1.1516477912664413e-01" purity="9.8656004667282104e-01" nType="-99"/>
          </Node>
        </Node>
      </Node>
    </BinaryTree>
    <BinaryTree type="DecisionTree" boostWeight="1.0000000000000000e+00" itree="3">
      <Node pos="s" depth="0" NCoef="0" IVar="3" Cut="5.4198226562500000e+04" cType="1" res="4.5404169941321015e-04" rms="4.8400390148162842e-01" purity="4.8530855774879456e-01" nType="0">
        <Node pos="l" depth="1" NCoef="0" IVar="1" Cut="1.4547440625000000e+05" cType="1" res="-2.5088429450988770e-01" rms="4.0528890490531921e-01" purity="2.2235645353794098e-01" nType="0">
          <Node pos="l" depth="2" NCoef="0" IVar="1" Cut="1.1363994531250000e+05" cType="1" res="-3.4675654768943787e-01" rms="3.2162111997604370e-01" purity="1.2190464138984680e-01" nType="0">
            <Node pos="l" depth="3" NCoef="0" IVar="-1" Cut="0.0000000000000000e+00" cType="1" res="-2.2041348740458488e-02" rms="2.8179973363876343e-01" purity="8.9714907109737396e-02" nType="-99"/>
            <Node pos="r" depth="3" NCoef="0" IVar="-1" Cut="0.0000000000000000e+00" cType="1" res="1.5787810552865267e-03" rms="4.8097121715545654e-01" purity="6.2936198711395264e-01" nType="-99"/>
          </Node>
          <Node pos="r" depth="2" NCoef="0" IVar="3" Cut="2.4026392578125000e+04" cType="1" res="3.3538991212844849e-01" rms="3.6912325024604797e-01" purity="8.3663552999496460e-01" nType="0">
            <Node pos="l" depth="3" NCoef="0" IVar="-1" Cut="0.0000000000000000e+00" cType="1" res="1.2510223314166069e-03" rms="4.8054668307304382e-01" purity="6.3451665639877319e-01" nType="-99"/>
            <Node pos="r" depth="3" NCoef="0" IVar="-1" Cut="0.0000000000000000e+00" cType="1" res="2.7318911161273718e-03" rms="2.5986343622207642e-01" purity="9.2714679241180420e-01" nType="-99"/>
          </Node>
        </Node>
        <Node pos="r" depth="1" NCoef="0" IVar="1" Cut="1.1145093750000000e+05" cType="1" res="4.2327266931533813e-01" rms="2.5879254937171936e-01" purity="9.2766469717025757e-01" nType="0">
          <Node pos="l" depth="2" NCoef="0" IVar="3" Cut="8.4267375000000000e+04" cType="1" res="3.7192496657371521e-01" rms="3.2873126864433289e-01" purity="8.7640547752380371e-01" nType="0">
            <Node pos="l" depth="3" NCoef="0" IVar="-1" Cut="0.0000000000000000e+00" cType="1" res="1.8420793348923326e-03" rms="4.4661888480186462e-01" purity="7.2458481788635254e-01" nType="-99"/>
            <Node pos="r" depth="3" NCoef="0" IVar="-1" Cut="0.0000000000000000e+00" cType="1" res="3.2035384792834520e-03" rms="1.7609018087387085e-01" purity="9.6794146299362183e-01" nType="-99"/>
          </Node>
          <Node pos="r" depth="2" NCoef="0" IVar="-1" Cut="0.0000000000000000e+00" cType="1" res="2.3413894232362509e-03" rms="1.2811759114265442e-01" purity="9.8329281806945801e-01" nType="-99"/>
        </Node>
      </Node>
    </BinaryTree>
    <BinaryTree type="DecisionTree" boostWeight="1.0000000000000000e+00" itree="4">
      <Node pos="s" depth="0" NCoef="0" IVar="3" Cut="4.4663660156250000e+04" cType="1" res="3.3376101404428482e-02" rms="4.8008590936660767e-01" purity="5.1378989219665527e-01" nType="0">
        <Node pos="l" depth="1" NCoef="0" IVar="1" Cut="1.3640723437500000e+05" cType="1" res="-2.6193389296531677e-01" rms="3.8876301050186157e-01" purity="1.9903248548507690e-01" nType="0">
          <Node pos="l" depth="2" NCoef="0" IVar="1" Cut="1.1255082031250000e+05" cType="1" res="-3.2052612304687500e-01" rms="3.3709308505058289e-01" purity="1.3602624833583832e-01" nType="0">
            <Node pos="l" depth="3" NCoef="0" IVar="-1" Cut="0.0000000000000000e+00" cType="1" res="-1.7989328131079674e-02" rms="2.9105985164642334e-01" purity="9.5005504786968231e-02" nType="-99"/>
            <Node pos="r" depth="3" NCoef="0" IVar="-1" Cut="0.0000000000000000e+00" cType="1" res="1.2478257995098829e-03" rms="4.5587581396102905e-01" purity="6.9965296983718872e-01" nType="-99"/>
          </Node>
          <Node pos="r" depth="2" NCoef="0" IVar="3" Cut="2.1878453125000000e+04" cType="1" res="2.5931805372238159e-01" rms="4.2725360393524170e-01" purity="7.5955259799957275e-01" nType="0">
            <Node pos="l" depth="3" NCoef="0" IVar="-1" Cut="0.0000000000000000e+00" cType="1" res="1.5441483119502664e-03" rms="4.7302603721618652e-01" purity="6.6129630804061890e-01" nType="-99"/>
            <Node pos="r" depth="3" NCoef="0" IVar="-1" Cut="0.0000000000000000e+00" cType="1" res="3.4086133819073439e-03" rms="3.7217792868614197e-01" purity="8.3403766155242920e-01" nType="-99"/>
          </Node>
        </Node>
        <Node pos="r" depth="1" NCoef="0" IVar="3" Cut="8.6962187500000000e+04" cType="1" res="3.8762822747230530e-01" rms="3.0912202596664429e-01" purity="8.9137101173400879e-01" nType="0">
          <Node pos="l" depth="2" NCoef="0" IVar="3" Cut="6.2782750000000000e+04" cType="1" res="2.8298205137252808e-01" rms="4.0998795628547668e-01" purity="7.8348398208618164e-01" nType="0">
            <Node pos="l" depth="3" NCoef="0" IVar="-1" Cut="0.0000000000000000e+00" cType="1" res="1.2786724837496877e-03" rms="4.6035188436508179e-01" purity="6.9117623567581177e-01" nType="-99"/>
            <Node pos="r" depth="3" NCoef="0" IVar="-1" Cut="0.0000000000000000e+00" cType="1" res="2.6708031073212624e-03" rms="3.1752189993858337e-01" purity="8.8620698451995850e-01" nType="-99"/>
          </Node>
          <Node pos="r" depth="2" NCoef="0" IVar="1" Cut="1.2572065625000000e+05" cType="1" res="4.7454765439033508e-01" rms="1.3659784197807312e-01" purity="9.8098224401473999e-01" nType="0">
            <Node pos="l" depth="3" NCoef="0" IVar="-1" Cut="0.0000000000000000e+00" cType="1" res="3.6747988779097795e-03" rms="1.7053891718387604e-01" purity="9.6999692916870117e-01" nType="-99"/>
            <Node pos="r" depth="3" NCoef="0" IVar="-1" Cut="0.0000000000000000e+00" cType="1" res="2.4901712313294411e-03" rms="8.3830624818801880e-02" purity="9.9292457103729248e-01" nType="-99"/>
          </Node>
        </Node>
      </Node>
    </BinaryTree>
    <BinaryTree type="DecisionTree" boostWeight="1.0000000000000000e+00" itree="5">
      <Node pos="s" depth="0" NCoef="0" IVar="3" Cut="3.7870195312500000e+04" cType="1" res="9.4350706785917282e-03" rms="4.7704699635505676e-01" purity="4.8434582352638245e-01" nType="0">
        <Node pos="l" depth="1" NCoef="0" IVar="1" Cut="1.2714367968750000e+05" cType="1" res="-2.8150373697280884e-01" rms="3.6436781287193298e-01" purity="1.6865161061286926e-01" nType="0">
          <Node pos="l" depth="2" NCoef="0" IVar="1" Cut="1.1068675000000000e+05" cType="1" res="-3.3853662014007568e-01" rms="3.0530238151550293e-01" purity="1.0562755167484283e-01" nType="0">
            <Node pos="l" depth="3" NCoef="0" IVar="-1" Cut="0.0000000000000000e+00" cType="1" res="-1.6088308766484261e-02" rms="2.8561219573020935e-01" purity="8.9672721922397614e-02" nType="-99"/>
            <Node pos="r" depth="3" NCoef="0" IVar="-1" Cut="0.0000000000000000e+00" cType="1" res="6.6000479273498058e-04" rms="4.9635291099548340e-01" purity="5.3028923273086548e-01" nType="-99"/>
          </Node>
          <Node pos="r" depth="2" NCoef="0" IVar="3" Cut="1.6315793945312500e+04" cType="1" res="2.0882949233055115e-01" rms="4.5214575529098511e-01" purity="7.1049338579177856e-01" nType="0">
            <Node pos="l" depth="3" NCoef="0" IVar="-1" Cut="0.0000000000000000e+00" cType="1" res="4.7502227243967354e-04" rms="4.9786043167114258e-01" purity="5.3248667716979980e-01" nType="-99"/>
            <Node pos="r" depth="3" NCoef="0" IVar="-1" Cut="0.0000000000000000e+00" cType="1" res="2.9163735453039408e-03" rms="4.0670949220657349e-01" purity="7.8924751281738281e-01" nType="-99"/>
          </Node>
        </Node>
        <Node pos="r" depth="1" NCoef="0" IVar="3" Cut="7.3819421875000000e+04" cType="1" res="3.2692494988441467e-01" rms="3.7130331993103027e-01" purity="8.2885020971298218e-01" nType="0">
          <Node pos="l" depth="2" NCoef="0" IVar="3" Cut="4.6427761718750000e+04" cType="1" res="1.8378515541553497e-01" rms="4.6154218912124634e-01" purity="6.7848604917526245e-01" nType="0">
            <Node pos="l" depth="3" NCoef="0" IVar="-1" Cut="0.0000000000000000e+00" cType="1" res="7.8610042919535772e-07" rms="4.9289375543594360e-01" purity="4.8151698708534241e-01" nType="-99"/>
            <Node pos="r" depth="3" NCoef="0" IVar="-1" Cut="0.0000000000000000e+00" cType="1" res="1.6948252450674772e-03" rms="4.2118057608604431e-01" purity="7.6740133762359619e-01" nType="-99"/>
          </Node>
          <Node pos="r" depth="2" NCoef="0" IVar="3" Cut="1.0808050781250000e+05" cType="1" res="4.4091728329658508e-01" rms="2.2068938612937927e-01" purity="9.4859588146209717e-01" nType="0">
            <Node pos="l" depth="3" NCoef="0" IVar="-1" Cut="0.0000000000000000e+00" cType="1" res="3.1186318956315517e-03" rms="2.9618835449218750e-01" purity="9.0274959802627563e-01" nType="-99"/>
            <Node pos="r" depth="3" NCoef="0" IVar="-1" Cut="0.0000000000000000e+00" cType="1" res="3.5099673550575972e-03" rms="1.4770229160785675e-01" purity="9.7770881652832031e-01" nType="-99"/>
          </Node>
        </Node>
      </Node>
    </BinaryTree>
    <BinaryTree type="DecisionTree" boostWeight="1.0000000000000000e+00" itree="6">
      <Node pos="s" depth="0" NCoef="0" IVar="3" Cut="4.8659894531250000e+04" cType="1" res="1.3074092566967010e-03" rms="4.7204557061195374e-01" purity="4.7354066371917725e-01" nType="0">
        <Node pos="l" depth="1" NCoef="0" IVar="1" Cut="1.7491946875000000e+05" cType="1" res="-2.6297512650489807e-01" rms="3.7421548366546631e-01" purity="1.8568797409534454e-01" nType="0">
          <Node pos="l" depth="2" NCoef="0" IVar="1" Cut="1.1269391406250000e+05" cType="1" res="-3.0670922994613647e-01" rms="3.3498162031173706e-01" purity="1.3743273913860321e-01" nType="0">
            <Node pos="l" depth="3" NCoef="0" IVar="-1" Cut="0.0000000000000000e+00" cType="1" res="-2.4100882932543755e-02" rms="2.7937674522399902e-01" purity="8.7342284619808197e-02" nType="-99"/>
            <Node pos="r" depth="3" NCoef="0" IVar="-1" Cut="0.0000000000000000e+00" cType="1" res="2.0411964505910873e-03" rms="4.7953319549560547e-01" purity="6.3696378469467163e-01" nType="-99"/>
          </Node>
          <Node pos="r" depth="2" NCoef="0" IVar="-1" Cut="0.0000000000000000e+00" cType="1" res="3.0942615121603012e-03" rms="3.9997318387031555e-01" purity="7.9989832639694214e-01" nType="-99"/>
        </Node>
        <Node pos="r" depth="1" NCoef="0" IVar="3" Cut="9.4948742187500000e+04" cType="1" res="3.9611372351646423e-01" rms="2.9375600814819336e-01" purity="9.0355783700942993e-01" nType="0">
          <Node pos="l" depth="2" NCoef="0" IVar="3" Cut="5.9660699218750000e+04" cType="1" res="3.2749411463737488e-01" rms="3.7191760540008545e-01" purity="8.3274805545806885e-01" nType="0">
            <Node pos="l" depth="3" NCoef="0" IVar="-1" Cut="0.0000000000000000e+00" cType="1" res="1.5652377624064684e-03" rms="4.6517041325569153e-01" purity="6.7984986305236816e-01" nType="-99"/>
            <Node pos="r" depth="3" NCoef="0" IVar="-1" Cut="0.0000000000000000e+00" cType="1" res="2.4879458360373974e-03" rms="3.1123948097229004e-01" purity="8.9120596647262573e-01" nType="-99"/>
          </Node>
          <Node pos="r" depth="2" NCoef="0" IVar="0" Cut="3.8095238804817200e-01" cType="1" res="4.7363215684890747e-01" rms="1.2722665071487427e-01" purity="9.8355048894882202e-01" nType="0">
            <Node pos="l" depth="3" NCoef="0" IVar="-1" Cut="0.0000000000000000e+00" cType="1" res="4.1157579980790615e-03" rms="6.8699993193149567e-02" purity="9.9526000022888184e-01" nType="-99"/>
            <Node pos="r" depth="3" NCoef="0" IVar="-1" Cut="0.0000000000000000e+00" cType="1" res="3.7384675815701485e-03" rms="1.5006715059280396e-01" purity="9.7696417570114136e-01" nType="-99"/>
          </Node>
        </Node>
      </Node>
    </BinaryTree>
    <BinaryTree type="DecisionTree" boostWeight="1.0000000000000000e+00" itree="7">
      <Node pos="s" depth="0" NCoef="0" IVar="3" Cut="3.7870195312500000e+04" cType="1" res="2.9758725315332413e-02" rms="4.6797692775726318e-01" purity="4.9825024604797363e-01" nType="0">
        <Node pos="l" depth="1" NCoef="0" IVar="1" Cut="1.7491946875000000e+05" cType="1" res="-2.9882127046585083e-01" rms="3.2734581828117371e-01" purity="1.3353091478347778e-01" nType="0">
          <Node pos="l" depth="2" NCoef="0" IVar="1" Cut="1.1998939843750000e+05" cType="1" res="-3.2142949104309082e-01" rms="3.0101129412651062e-01" purity="1.0708479583263397e-01" nType="0">
            <Node pos="l" depth="3" NCoef="0" IVar="-1" Cut="0.0000000000000000e+00" cType="1" res="-2.2684501484036446e-02" rms="2.5844618678092957e-01" purity="7.2971083223819733e-02" nType="-99"/>
            <Node pos="r" depth="3" NCoef="0" IVar="-1" Cut="0.0000000000000000e+00" cType="1" res="1.4467465225607157e-03" rms="4.8453477025032043e-01" purity="6.2435907125473022e-01" nType="-99"/>
          </Node>
          <Node pos="r" depth="2" NCoef="0" IVar="-1" Cut="0.0000000000000000e+00" cType="1" res="2.1754235494881868e-03" rms="4.7332632541656494e-01" purity="6.5874576568603516e-01" nType="-99"/>
        </Node>
        <Node pos="r" depth="1" NCoef="0" IVar="3" Cut="7.3818812500000000e+04" cType="1" res="3.4526675939559937e-01" rms="3.5097712278366089e-01" purity="8.4845983982086182e-01" nType="0">
          <Node pos="l" depth="2" NCoef="0" IVar="3" Cut="5.1561464843750000e+04" cType="1" res="2.1629674732685089e-01" rms="4.4583418965339661e-01" purity="7.0991677045822144e-01" nType="0">
            <Node pos="l" depth="3" NCoef="0" IVar="-1" Cut="0.0000000000000000e+00" cType="1" res="4.3739279499277472e-04" rms="4.9247235059738159e-01" purity="5.3273963928222656e-01" nType="-99"/>
            <Node pos="r" depth="3" NCoef="0" IVar="-1" Cut="0.0000000000000000e+00" cType="1" res="2.1495050750672817e-03" rms="3.6034139990806580e-01" purity="8.4590339660644531e-01" nType="-99"/>
          </Node>
          <Node pos="r" depth="2" NCoef="0" IVar="1" Cut="1.0342598437500000e+05" cType="1" res="4.5221328735351562e-01" rms="1.8782499432563782e-01" purity="9.6334481239318848e-01" nType="0">
            <Node pos="l" depth="3" NCoef="0" IVar="-1" Cut="0.0000000000000000e+00" cType="1" res="3.4384068567305803e-03" rms="2.3328939080238342e-01" purity="9.4212615489959717e-01" nType="-99"/>
            <Node pos="r" depth="3" NCoef="0" IVar="-1" Cut="0.0000000000000000e+00" cType="1" res="3.2271235249936581e-03" rms="1.2113603204488754e-01" purity="9.8509454727172852e-01" nType="-99"/>
          </Node>
        </Node>
      </Node>
    </BinaryTree>
    <BinaryTree type="DecisionTree" boostWeight="1.0000000000000000e+00" itree="8">
      <Node pos="s" depth="0" NCoef="0" IVar="3" Cut="6.8798242187500000e+04" cType="1" res="4.1466973721981049e-02" rms="4.6356540918350220e-01" purity="5.0685292482376099e-01" nType="0">
        <Node pos="l" depth="1" NCoef="0" IVar="3" Cut="4.2633453125000000e+04" cType="1" res="-1.5319150686264038e-01" rms="4.2717689275741577e-01" purity="2.8955927491188049e-01" nType="0">
          <Node pos="l" depth="2" NCoef="0" IVar="1" Cut="1.3642714062500000e+05" cType="1" res="-2.7360478043556213e-01" rms="3.4353491663932800e-01" purity="1.5226848423480988e-01" nType="0">
            <Node pos="l" depth="3" NCoef="0" IVar="-1" Cut="0.0000000000000000e+00" cType="1" res="-1.4195804484188557e-02" rms="2.9899033904075623e-01" purity="1.0453835874795914e-01" nType="-99"/>
            <Node pos="r" depth="3" NCoef="0" IVar="-1" Cut="0.0000000000000000e+00" cType="1" res="2.3521138355135918e-03" rms="4.6133643388748169e-01" purity="6.8925684690475464e-01" nType="-99"/>
          </Node>
          <Node pos="r" depth="2" NCoef="0" IVar="1" Cut="1.0405813281250000e+05" cType="1" res="2.3090307414531708e-01" rms="4.4082686305046082e-01" purity="7.2748976945877075e-01" nType="0">
            <Node pos="l" depth="3" NCoef="0" IVar="-1" Cut="0.0000000000000000e+00" cType="1" res="6.7275721812620759e-04" rms="4.9759817123413086e-01" purity="5.5011355876922607e-01" nType="-99"/>
            <Node pos="r" depth="3" NCoef="0" IVar="-1" Cut="0.0000000000000000e+00" cType="1" res="2.4631621781736612e-03" rms="2.3716582357883453e-01" purity="9.3924164772033691e-01" nType="-99"/>
          </Node>
        </Node>
        <Node pos="r" depth="1" NCoef="0" IVar="1" Cut="1.0168853906250000e+05" cType="1" res="4.4550934433937073e-01" rms="2.0067359507083893e-01" purity="9.5787799358367920e-01" nType="0">
          <Node pos="l" depth="2" NCoef="0" IVar="3" Cut="9.8509882812500000e+04" cType="1" res="4.0562576055526733e-01" rms="2.7308544516563416e-01" purity="9.1853988170623779e-01" nType="0">
            <Node pos="l" depth="3" NCoef="0" IVar="-1" Cut="0.0000000000000000e+00" cType="1" res="1.9162114476785064e-03" rms="3.4808748960494995e-01" purity="8.5869640111923218e-01" nType="-99"/>
            <Node pos="r" depth="3" NCoef="0" IVar="-1" Cut="0.0000000000000000e+00" cType="1" res="3.2815157901495695e-03" rms="1.8180894851684570e-01" purity="9.6576762199401855e-01" nType="-99"/>
          </Node>
          <Node pos="r" depth="2" NCoef="0" IVar="5" Cut="9.0862031250000000e+04" cType="1" res="4.7652766108512878e-01" rms="1.0672540962696075e-01" purity="9.8847198486328125e-01" nType="0">
            <Node pos="l" depth="3" NCoef="0" IVar="-1" Cut="0.0000000000000000e+00" cType="1" res="3.3730538561940193e-03" rms="1.1147122830152512e-01" purity="9.8740798234939575e-01" nType="-99"/>
            <Node pos="r" depth="3" NCoef="0" IVar="-1" Cut="0.0000000000000000e+00" cType="1" res="2.4366795551031828e-03" rms="1.0201147198677063e-01" purity="9.8948109149932861e-01" nType="-99"/>
          </Node>
        </Node>
      </Node>
    </BinaryTree>
    <BinaryTree type="DecisionTree" boostWeight="1.0000000000000000e+00" itree="9">
      <Node pos="s" depth="0" NCoef="0" IVar="3" Cut="6.8736484375000000e+04" cType="1" res="4.4613782316446304e-02" rms="4.6191212534904480e-01" purity="5.0578266382217407e-01" nType="0">
        <Node pos="l" depth="1" NCoef="0" IVar="3" Cut="4.5815871093750000e+04" cType="1" res="-1.3646176457405090e-01" rms="4.3226173520088196e-01" purity="3.0092668533325195e-01" nType="0">
          <Node pos="l" depth="2" NCoef="0" IVar="1" Cut="1.7490379687500000e+05" cType="1" res="-2.1781444549560547e-01" rms="3.8612216711044312e-01" purity="2.0486782491207123e-01" nType="0">
            <Node pos="l" depth="3" NCoef="0" IVar="-1" Cut="0.0000000000000000e+00" cType="1" res="-8.0190086737275124e-03" rms="3.5613635182380676e-01" purity="1.5884973108768463e-01" nType="-99"/>
            <Node pos="r" depth="3" NCoef="0" IVar="-1" Cut="0.0000000000000000e+00" cType="1" res="3.2304953783750534e-03" rms="3.9455854892730713e-01" purity="8.0672538280487061e-01" nType="-99"/>
          </Node>
          <Node pos="r" depth="2" NCoef="0" IVar="3" Cut="6.1071804687500000e+04" cType="1" res="2.2690969705581665e-01" rms="4.4035112857818604e-01" purity="7.2998511791229248e-01" nType="0">
            <Node pos="l" depth="3" NCoef="0" IVar="-1" Cut="0.0000000000000000e+00" cType="1" res="1.6683966387063265e-03" rms="4.7149252891540527e-01" purity="6.5627825260162354e-01" nType="-99"/>
            <Node pos="r" depth="3" NCoef="0" IVar="-1" Cut="0.0000000000000000e+00" cType="1" res="3.0002947896718979e-03" rms="3.2230368256568909e-01" purity="8.8199239969253540e-01" nType="-99"/>
          </Node>
        </Node>
        <Node pos="r" depth="1" NCoef="0" IVar="1" Cut="1.2527707812500000e+05" cType="1" res="4.4649630784988403e-01" rms="1.9474276900291443e-01" purity="9.6044385433197021e-01" nType="0">
          <Node pos="l" depth="2" NCoef="0" IVar="3" Cut="9.4349718750000000e+04" cType="1" res="4.2410430312156677e-01" rms="2.3968197405338287e-01" purity="9.3861258029937744e-01" nType="0">
            <Node pos="l" depth="3" NCoef="0" IVar="-1" Cut="0.0000000000000000e+00" cType="1" res="2.9261752497404814e-03" rms="3.2689106464385986e-01" purity="8.7821537256240845e-01" nType="-99"/>
            <Node pos="r" depth="3" NCoef="0" IVar="-1" Cut="0.0000000000000000e+00" cType="1" res="3.3991411328315735e-03" rms="1.8164996802806854e-01" purity="9.6584081649780273e-01" nType="-99"/>
          </Node>
          <Node pos="r" depth="2" NCoef="0" IVar="-1" Cut="0.0000000000000000e+00" cType="1" res="3.5376071464270353e-03" rms="9.3189552426338196e-02" purity="9.9123573303222656e-01" nType="-99"/>
        </Node>
      </Node>
    </BinaryTree>
    <BinaryTree type="DecisionTree" boostWeight="1.0000000000000000e+00" itree="10">
      <Node pos="s" depth="0" NCoef="0" IVar="3" Cut="6.8736484375000000e+04" cType="1" res="4.4218216091394424e-02" rms="4.5843434333801270e-01" purity="5.0517880916595459e-01" nType="0">
        <Node pos="l" depth="1" NCoef="0" IVar="1" Cut="1.3646770312500000e+05" cType="1" res="-1.3397631049156189e-01" rms="4.2845267057418823e-01" purity="3.0270409584045410e-01" nType="0">
          <Node pos="l" depth="2" NCoef="0" IVar="3" Cut="3.6027406250000000e+04" cType="1" res="-2.1937967836856842e-01" rms="3.8171583414077759e-01" purity="2.0476807653903961e-01" nType="0">
            <Node pos="l" depth="3" NCoef="0" IVar="-1" Cut="0.0000000000000000e+00" cType="1" res="-2.1453119814395905e-02" rms="2.6847884058952332e-01" purity="8.1262014806270599e-02" nType="-99"/>
            <Node pos="r" depth="3" NCoef="0" IVar="-1" Cut="0.0000000000000000e+00" cType="1" res="9.2226749984547496e-04" rms="4.8830038309097290e-01" purity="5.4587346315383911e-01" nType="-99"/>
          </Node>
          <Node pos="r" depth="2" NCoef="0" IVar="3" Cut="2.3416681640625000e+04" cType="1" res="3.4495329856872559e-01" rms="3.5445129871368408e-01" purity="8.5191476345062256e-01" nType="0">
            <Node pos="l" depth="3" NCoef="0" IVar="-1" Cut="0.0000000000000000e+00" cType="1" res="1.7234804108738899e-03" rms="4.7616401314735413e-01" purity="6.5169024467468262e-01" nType="-99"/>
            <Node pos="r" depth="3" NCoef="0" IVar="-1" Cut="0.0000000000000000e+00" cType="1" res="2.3118874523788691e-03" rms="2.6938369870185852e-01" purity="9.2107462882995605e-01" nType="-99"/>
          </Node>
        </Node>
        <Node pos="r" depth="1" NCoef="0" IVar="1" Cut="1.2541114062500000e+05" cType="1" res="4.4430652260780334e-01" rms="1.9621254503726959e-01" purity="9.5978176593780518e-01" nType="0">
          <Node pos="l" depth="2" NCoef="0" IVar="3" Cut="9.3491968750000000e+04" cType="1" res="4.2552247643470764e-01" rms="2.3463271558284760e-01" purity="9.4130808115005493e-01" nType="0">
            <Node pos="l" depth="3" NCoef="0" IVar="-1" Cut="0.0000000000000000e+00" cType="1" res="2.1498661953955889e-03" rms="3.2390826940536499e-01" purity="8.8084506988525391e-01" nType="-99"/>
            <Node pos="r" depth="3" NCoef="0" IVar="-1" Cut="0.0000000000000000e+00" cType="1" res="3.0976454727351665e-03" rms="1.5952567756175995e-01" purity="9.7387290000915527e-01" nType="-99"/>
          </Node>
          <Node pos="r" depth="2" NCoef="0" IVar="-1" Cut="0.0000000000000000e+00" cType="1" res="3.3562181051820517e-03" rms="1.1009965837001801e-01" purity="9.8772323131561279e-01" nType="-99"/>
        </Node>
      </Node>
    </BinaryTree>
    <BinaryTree type="DecisionTree" boostWeight="1.0000000000000000e+00" itree="11">
      <Node pos="s" depth="0" NCoef="0" IVar="3" Cut="5.4198226562500000e+04" cType="1" res="5.1368437707424164e-02" rms="4.5498117804527283e-01" purity="5.0837016105651855e-01" nType="0">
        <Node pos="l" depth="1" NCoef="0" IVar="3" Cut="3.3571207031250000e+04" cType="1" res="-1.5957346558570862e-01" rms="4.1089329123497009e-01" purity="2.6329234242439270e-01" nType="0">
          <Node pos="l" depth="2" NCoef="0" IVar="1" Cut="1.7492929687500000e+05" cType="1" res="-2.7748385071754456e-01" rms="3.1250733137130737e-01" purity="1.2433713674545288e-01" nType="0">
            <Node pos="l" depth="3" NCoef="0" IVar="-1" Cut="0.0000000000000000e+00" cType="1" res="-1.5497619286179543e-02" rms="2.7239403128623962e-01" purity="8.4737755358219147e-02" nType="-99"/>
            <Node pos="r" depth="3" NCoef="0" IVar="-1" Cut="0.0000000000000000e+00" cType="1" res="2.0577867981046438e-03" rms="4.2189517617225647e-01" purity="7.6780956983566284e-01" nType="-99"/>
          </Node>
          <Node pos="r" depth="2" NCoef="0" IVar="2" Cut="2.5277742187500000e+05" cType="1" res="1.1610752344131470e-01" rms="4.7616463899612427e-01" purity="5.8817732334136963e-01" nType="0">
            <Node pos="l" depth="3" NCoef="0" IVar="-1" Cut="0.0000000000000000e+00" cType="1" res="-3.2381452620029449e-03" rms="4.6268278360366821e-01" purity="3.3259671926498413e-01" nType="-99"/>
            <Node pos="r" depth="3" NCoef="0" IVar="-1" Cut="0.0000000000000000e+00" cType="1" res="1.1978049296885729e-03" rms="4.4012293219566345e-01" purity="7.0758527517318726e-01" nType="-99"/>
          </Node>
        </Node>
        <Node pos="r" depth="1" NCoef="0" IVar="1" Cut="1.0336036718750000e+05" cType="1" res="4.1477760672569275e-01" rms="2.5308167934417725e-01" purity="9.3058836460113525e-01" nType="0">
          <Node pos="l" depth="2" NCoef="0" IVar="3" Cut="8.9380812500000000e+04" cType="1" res="3.4874626994132996e-01" rms="3.4032168984413147e-01" purity="8.6469244956970215e-01" nType="0">
            <Node pos="l" depth="3" NCoef="0" IVar="-1" Cut="0.0000000000000000e+00" cType="1" res="2.0838386844843626e-03" rms="4.5129156112670898e-01" purity="7.1341478824615479e-01" nType="-99"/>
            <Node pos="r" depth="3" NCoef="0" IVar="-1" Cut="0.0000000000000000e+00" cType="1" res="3.4032177645713091e-03" rms="1.7102555930614471e-01" purity="9.6981847286224365e-01" nType="-99"/>
          </Node>
          <Node pos="r" depth="2" NCoef="0" IVar="1" Cut="1.4456381250000000e+05" cType="1" res="4.6828797459602356e-01" rms="1.2530584633350372e-01" purity="9.8398894071578979e-01" nType="0">
            <Node pos="l" depth="3" NCoef="0" IVar="-1" Cut="0.0000000000000000e+00" cType="1" res="2.3711135145276785e-03" rms="1.5610821545124054e-01" purity="9.7490417957305908e-01" nType="-99"/>
            <Node pos="r" depth="3" NCoef="0" IVar="-1" Cut="0.0000000000000000e+00" cType="1" res="3.2268129289150238e-03" rms="9.4168737530708313e-02" purity="9.9104297161102295e-01" nType="-99"/>
          </Node>
        </Node>
      </Node>
    </BinaryTree>
    <BinaryTree type="DecisionTree" boostWeight="1.0000000000000000e+00" itree="12">
      <Node pos="s" depth="0" NCoef="0" IVar="3" Cut="5.4312500000000000e+04" cType="1" res="4.3646331876516342e-02" rms="4.5321699976921082e-01" purity="4.9633201956748962e-01" nType="0">
        <Node pos="l" depth="1" NCoef="0" IVar="3" Cut="4.1415226562500000e+04" cType="1" res="-1.7026232182979584e-01" rms="4.0240466594696045e-01" purity="2.4452339112758636e-01" nType="0">
          <Node pos="l" depth="2" NCoef="0" IVar="1" Cut="1.7489954687500000e+05" cType="1" res="-2.3425403237342834e-01" rms="3.5355880856513977e-01" purity="1.6695900261402130e-01" nType="0">
            <Node pos="l" depth="3" NCoef="0" IVar="-1" Cut="0.0000000000000000e+00" cType="1" res="-1.2138648889958858e-02" rms="3.2364153861999512e-01" purity="1.2728117406368256e-01" nType="-99"/>
            <Node pos="r" depth="3" NCoef="0" IVar="-1" Cut="0.0000000000000000e+00" cType="1" res="2.8588830027729273e-03" rms="4.0939173102378845e-01" purity="7.8669673204421997e-01" nType="-99"/>
          </Node>
          <Node pos="r" depth="2" NCoef="0" IVar="5" Cut="8.9527148437500000e+04" cType="1" res="1.6193985939025879e-01" rms="4.7117564082145691e-01" purity="6.4718568325042725e-01" nType="0">
            <Node pos="l" depth="3" NCoef="0" IVar="-1" Cut="0.0000000000000000e+00" cType="1" res="1.1401289375498891e-03" rms="4.0604084730148315e-01" purity="7.8545528650283813e-01" nType="-99"/>
            <Node pos="r" depth="3" NCoef="0" IVar="-1" Cut="0.0000000000000000e+00" cType="1" res="1.0089972056448460e-03" rms="4.8880931735038757e-01" purity="5.5960530042648315e-01" nType="-99"/>
          </Node>
        </Node>
        <Node pos="r" depth="1" NCoef="0" IVar="1" Cut="1.0066286718750000e+05" cType="1" res="4.0746471285820007e-01" rms="2.6298791170120239e-01" purity="9.2461115121841431e-01" nType="0">
          <Node pos="l" depth="2" NCoef="0" IVar="3" Cut="8.4720101562500000e+04" cType="1" res="3.4921184182167053e-01" rms="3.3871737122535706e-01" purity="8.6636590957641602e-01" nType="0">
            <Node pos="l" depth="3" NCoef="0" IVar="-1" Cut="0.0000000000000000e+00" cType="1" res="1.6348784556612372e-03" rms="4.6208006143569946e-01" purity="6.9055783748626709e-01" nType="-99"/>
            <Node pos="r" depth="3" NCoef="0" IVar="-1" Cut="0.0000000000000000e+00" cType="1" res="2.9689653310924768e-03" rms="1.9178013503551483e-01" purity="9.6166414022445679e-01" nType="-99"/>
          </Node>
          <Node pos="r" depth="2" NCoef="0" IVar="3" Cut="1.0632571093750000e+05" cType="1" res="4.6095898747444153e-01" rms="1.4608325064182281e-01" purity="9.7809833288192749e-01" nType="0">
            <Node pos="l" depth="3" NCoef="0" IVar="-1" Cut="0.0000000000000000e+00" cType="1" res="2.9572006314992905e-03" rms="1.7697313427925110e-01" purity="9.6754670143127441e-01" nType="-99"/>
            <Node pos="r" depth="3" NCoef="0" IVar="-1" Cut="0.0000000000000000e+00" cType="1" res="3.5902322269976139e-03" rms="9.8432846367359161e-02" purity="9.9021738767623901e-01" nType="-99"/>
          </Node>
        </Node>
      </Node>
    </BinaryTree>
    <BinaryTree type="DecisionTree" boostWeight="1.0000000000000000e+00" itree="13">
      <Node pos="s" depth="0" NCoef="0" IVar="3" Cut="3.7870195312500000e+04" cType="1" res="5.1155723631381989e-02" rms="4.4895175099372864e-01" purity="5.0279480218887329e-01" nType="0">
        <Node pos="l" depth="1" NCoef="0" IVar="4" Cut="3.4037846875000000e+05" cType="1" res="-2.5392919778823853e-01" rms="3.2677191495895386e-01" purity="1.3704259693622589e-01" nType="0">
          <Node pos="l" depth="2" NCoef="0" IVar="1" Cut="1.2919725000000000e+05" cType="1" res="-2.9105055332183838e-01" rms="2.8190156817436218e-01" purity="9.5498487353324890e-02" nType="0">
            <Node pos="l" depth="3" NCoef="0" IVar="-1" Cut="0.0000000000000000e+00" cType="1" res="-2.3000150918960571e-02" rms="2.4299098551273346e-01" purity="6.3856333494186401e-02" nType="-99"/>
            <Node pos="r" depth="3" NCoef="0" IVar="-1" Cut="0.0000000000000000e+00" cType="1" res="1.7690879758447409e-03" rms="4.8503583669662476e-01" purity="6.0893493890762329e-01" nType="-99"/>
          </Node>
          <Node pos="r" depth="2" NCoef="0" IVar="1" Cut="9.4124085937500000e+04" cType="1" res="-9.5836348831653595e-02" rms="4.3844261765480042e-01" purity="3.1397101283073425e-01" nType="0">
            <Node pos="l" depth="3" NCoef="0" IVar="-1" Cut="0.0000000000000000e+00" cType="1" res="-1.0857630521059036e-02" rms="3.4929159283638000e-01" purity="1.4120256900787354e-01" nType="-99"/>
            <Node pos="r" depth="3" NCoef="0" IVar="-1" Cut="0.0000000000000000e+00" cType="1" res="1.0398330632597208e-03" rms="4.7254678606987000e-01" purity="5.1046901941299438e-01" nType="-99"/>
          </Node>
        </Node>
        <Node pos="r" depth="1" NCoef="0" IVar="3" Cut="7.3818812500000000e+04" cType="1" res="3.4182107448577881e-01" rms="3.4451696276664734e-01" purity="8.5126012563705444e-01" nType="0">
          <Node pos="l" depth="2" NCoef="0" IVar="1" Cut="1.1601652343750000e+05" cType="1" res="2.0011053979396820e-01" rms="4.4868445396423340e-01" purity="6.9478374719619751e-01" nType="0">
            <Node pos="l" depth="3" NCoef="0" IVar="-1" Cut="0.0000000000000000e+00" cType="1" res="4.5434650382958353e-04" rms="4.8665043711662292e-01" purity="5.5720639228820801e-01" nType="-99"/>
            <Node pos="r" depth="3" NCoef="0" IVar="-1" Cut="0.0000000000000000e+00" cType="1" res="2.0467399153858423e-03" rms="2.2301982343196869e-01" purity="9.4691377878189087e-01" nType="-99"/>
          </Node>
          <Node pos="r" depth="2" NCoef="0" IVar="1" Cut="1.0059082812500000e+05" cType="1" res="4.4750410318374634e-01" rms="1.7586086690425873e-01" purity="9.6795499324798584e-01" nType="0">
            <Node pos="l" depth="3" NCoef="0" IVar="-1" Cut="0.0000000000000000e+00" cType="1" res="3.3738098572939634e-03" rms="2.4143046140670776e-01" purity="9.3755936622619629e-01" nType="-99"/>
            <Node pos="r" depth="3" NCoef="0" IVar="-1" Cut="0.0000000000000000e+00" cType="1" res="2.8684569988399744e-03" rms="9.8182074725627899e-02" purity="9.9026024341583252e-01" nType="-99"/>
          </Node>
        </Node>
      </Node>
    </BinaryTree>
    <BinaryTree type="DecisionTree" boostWeight="1.0000000000000000e+00" itree="14">
      <Node pos="s" depth="0" NCoef="0" IVar="3" Cut="6.8736484375000000e+04" cType="1" res="3.9704374969005585e-02" rms="4.4684123992919922e-01" purity="4.8604118824005127e-01" nType="0">
        <Node pos="l" depth="1" NCoef="0" IVar="3" Cut="3.2759246093750000e+04" cType="1" res="-1.2006165832281113e-01" rms="4.1820052266120911e-01" purity="2.9568412899971008e-01" nType="0">
          <Node pos="l" depth="2" NCoef="0" IVar="1" Cut="1.7492929687500000e+05" cType="1" res="-2.4485248327255249e-01" rms="3.2225337624549866e-01" purity="1.3713385164737701e-01" nType="0">
            <Node pos="l" depth="3" NCoef="0" IVar="-1" Cut="0.0000000000000000e+00" cType="1" res="-1.5691302716732025e-02" rms="2.9214605689048767e-01" purity="1.0241650044918060e-01" nType="-99"/>
            <Node pos="r" depth="3" NCoef="0" IVar="-1" Cut="0.0000000000000000e+00" cType="1" res="2.0004501566290855e-03" rms="4.4577088952064514e-01" purity="7.2571796178817749e-01" nType="-99"/>
          </Node>
          <Node pos="r" depth="2" NCoef="0" IVar="1" Cut="1.3174604687500000e+05" cType="1" res="1.0967461764812469e-01" rms="4.7353422641754150e-01" purity="5.8757060766220093e-01" nType="0">
            <Node pos="l" depth="3" NCoef="0" IVar="-1" Cut="0.0000000000000000e+00" cType="1" res="-9.2384504387155175e-04" rms="4.7971576452255249e-01" purity="4.0957462787628174e-01" nType="-99"/>
            <Node pos="r" depth="3" NCoef="0" IVar="-1" Cut="0.0000000000000000e+00" cType="1" res="2.3829727433621883e-03" rms="2.0972561836242676e-01" purity="9.5416843891143799e-01" nType="-99"/>
          </Node>
        </Node>
        <Node pos="r" depth="1" NCoef="0" IVar="1" Cut="1.1128134375000000e+05" cType="1" res="4.3290075659751892e-01" rms="2.0789049565792084e-01" purity="9.5452433824539185e-01" nType="0">
          <Node pos="l" depth="2" NCoef="0" IVar="3" Cut="9.8485226562500000e+04" cType="1" res="4.0911710262298584e-01" rms="2.5266236066818237e-01" purity="9.3105280399322510e-01" nType="0">
            <Node pos="l" depth="3" NCoef="0" IVar="-1" Cut="0.0000000000000000e+00" cType="1" res="2.6783228386193514e-03" rms="3.2976493239402771e-01" purity="8.7540471553802490e-01" nType="-99"/>
            <Node pos="r" depth="3" NCoef="0" IVar="-1" Cut="0.0000000000000000e+00" cType="1" res="3.7423118483275175e-03" rms="1.7669528722763062e-01" purity="9.6773481369018555e-01" nType="-99"/>
          </Node>
          <Node pos="r" depth="2" NCoef="0" IVar="-1" Cut="0.0000000000000000e+00" cType="1" res="3.8082755636423826e-03" rms="1.3202151656150818e-01" purity="9.8222303390502930e-01" nType="-99"/>
        </Node>
      </Node>
    </BinaryTree>
    <BinaryTree type="DecisionTree" boostWeight="1.0000000000000000e+00" itree="15">
      <Node pos="s" depth="0" NCoef="0" IVar="3" Cut="6.8736484375000000e+04" cType="1" res="3.9732307195663452e-02" rms="4.4329887628555298e-01" purity="4.8293855786323547e-01" nType="0">
        <Node pos="l" depth="1" NCoef="0" IVar="3" Cut="3.2735244140625000e+04" cType="1" res="-1.1297381669282913e-01" rms="4.1626483201980591e-01" purity="2.9891476035118103e-01" nType="0">
          <Node pos="l" depth="2" NCoef="0" IVar="1" Cut="1.7490379687500000e+05" cType="1" res="-2.3141708970069885e-01" rms="3.2440504431724548e-01" purity="1.4709244668483734e-01" nType="0">
            <Node pos="l" depth="3" NCoef="0" IVar="-1" Cut="0.0000000000000000e+00" cType="1" res="-1.4779265038669109e-02" rms="2.7885121107101440e-01" purity="9.4369113445281982e-02" nType="-99"/>
            <Node pos="r" depth="3" NCoef="0" IVar="-1" Cut="0.0000000000000000e+00" cType="1" res="2.2158529609441757e-03" rms="4.0112328529357910e-01" purity="7.9793864488601685e-01" nType="-99"/>
          </Node>
          <Node pos="r" depth="2" NCoef="0" IVar="1" Cut="1.0372283593750000e+05" cType="1" res="1.1288040876388550e-01" rms="4.7460886836051941e-01" purity="5.8841806650161743e-01" nType="0">
            <Node pos="l" depth="3" NCoef="0" IVar="-1" Cut="0.0000000000000000e+00" cType="1" res="-1.2575617292895913e-03" rms="4.7774711251258850e-01" purity="3.9249619841575623e-01" nType="-99"/>
            <Node pos="r" depth="3" NCoef="0" IVar="-1" Cut="0.0000000000000000e+00" cType="1" res="1.9809314981102943e-03" rms="2.8455951809883118e-01" purity="9.0832895040512085e-01" nType="-99"/>
          </Node>
        </Node>
        <Node pos="r" depth="1" NCoef="0" IVar="1" Cut="1.0212596093750000e+05" cType="1" res="4.3103003501892090e-01" rms="2.0782370865345001e-01" purity="9.5448535680770874e-01" nType="0">
          <Node pos="l" depth="2" NCoef="0" IVar="1" Cut="8.9338210937500000e+04" cType="1" res="3.8710877299308777e-01" rms="2.8421589732170105e-01" purity="9.1064167022705078e-01" nType="0">
            <Node pos="l" depth="3" NCoef="0" IVar="-1" Cut="0.0000000000000000e+00" cType="1" res="3.3778790384531021e-03" rms="2.4257561564445496e-01" purity="9.3675273656845093e-01" nType="-99"/>
            <Node pos="r" depth="3" NCoef="0" IVar="-1" Cut="0.0000000000000000e+00" cType="1" res="1.5583403874188662e-03" rms="4.5163440704345703e-01" purity="7.1052658557891846e-01" nType="-99"/>
          </Node>
          <Node pos="r" depth="2" NCoef="0" IVar="-1" Cut="0.0000000000000000e+00" cType="1" res="2.4075799155980349e-03" rms="1.1780745536088943e-01" purity="9.8590743541717529e-01" nType="-99"/>
        </Node>
      </Node>
    </BinaryTree>
    <BinaryTree type="DecisionTree" boostWeight="1.0000000000000000e+00" itree="16">
      <Node pos="s" depth="0" NCoef="0" IVar="3" Cut="4.8721656250000000e+04" cType="1" res="7.1913033723831177e-02" rms="4.3959960341453552e-01" purity="5.1772409677505493e-01" nType="0">
        <Node pos="l" depth="1" NCoef="0" IVar="1" Cut="1.3641148437500000e+05" cType="1" res="-1.6833391785621643e-01" rms="3.8187772035598755e-01" purity="2.2094133496284485e-01" nType="0">
          <Node pos="l" depth="2" NCoef="0" IVar="1" Cut="1.1857049218750000e+05" cType="1" res="-2.2448620200157166e-01" rms="3.3855223655700684e-01" purity="1.5041813254356384e-01" nType="0">
            <Node pos="l" depth="3" NCoef="0" IVar="-1" Cut="0.0000000000000000e+00" cType="1" res="-1.3402690179646015e-02" rms="2.9822224378585815e-01" purity="1.0627820342779160e-01" nType="-99"/>
            <Node pos="r" depth="3" NCoef="0" IVar="-1" Cut="0.0000000000000000e+00" cType="1" res="9.9427846726030111e-04" rms="3.9741981029510498e-01" purity="7.9236191511154175e-01" nType="-99"/>
          </Node>
          <Node pos="r" depth="2" NCoef="0" IVar="3" Cut="1.9446181640625000e+04" cType="1" res="2.7522233128547668e-01" rms="4.1320496797561646e-01" purity="7.7801585197448730e-01" nType="0">
            <Node pos="l" depth="3" NCoef="0" IVar="-1" Cut="0.0000000000000000e+00" cType="1" res="-2.0771574054379016e-04" rms="4.9575978517532349e-01" purity="4.8216587305068970e-01" nType="-99"/>
            <Node pos="r" depth="3" NCoef="0" IVar="-1" Cut="0.0000000000000000e+00" cType="1" res="3.6720209755003452e-03" rms="3.4491842985153198e-01" purity="8.6161684989929199e-01" nType="-99"/>
          </Node>
        </Node>
        <Node pos="r" depth="1" NCoef="0" IVar="3" Cut="9.5011578125000000e+04" cType="1" res="3.9296156167984009e-01" rms="2.7642294764518738e-01" purity="9.1432297229766846e-01" nType="0">
          <Node pos="l" depth="2" NCoef="0" IVar="2" Cut="2.7978818750000000e+05" cType="1" res="3.1714770197868347e-01" rms="3.6978381872177124e-01" purity="8.3281385898590088e-01" nType="0">
            <Node pos="l" depth="3" NCoef="0" IVar="-1" Cut="0.0000000000000000e+00" cType="1" res="2.0731789991259575e-03" rms="4.4833511114120483e-01" purity="7.1505755186080933e-01" nType="-99"/>
            <Node pos="r" depth="3" NCoef="0" IVar="-1" Cut="0.0000000000000000e+00" cType="1" res="2.1826855372637510e-03" rms="3.0696114897727966e-01" purity="8.9249706268310547e-01" nType="-99"/>
          </Node>
          <Node pos="r" depth="2" NCoef="0" IVar="1" Cut="9.5065289062500000e+04" cType="1" res="4.5865207910537720e-01" rms="1.2181778252124786e-01" purity="9.8494815826416016e-01" nType="0">
            <Node pos="l" depth="3" NCoef="0" IVar="-1" Cut="0.0000000000000000e+00" cType="1" res="3.5833839792758226e-03" rms="1.5579524636268616e-01" purity="9.7509175539016724e-01" nType="-99"/>
            <Node pos="r" depth="3" NCoef="0" IVar="-1" Cut="0.0000000000000000e+00" cType="1" res="3.0721062794327736e-03" rms="8.9310921728610992e-02" purity="9.9196273088455200e-01" nType="-99"/>
          </Node>
        </Node>
      </Node>
    </BinaryTree>
    <BinaryTree type="DecisionTree" boostWeight="1.0000000000000000e+00" itree="17">
      <Node pos="s" depth="0" NCoef="0" IVar="3" Cut="5.4305199218750000e+04" cType="1" res="5.7782053947448730e-02" rms="4.3848916888237000e-01" purity="4.9776792526245117e-01" nType="0">
        <Node pos="l" depth="1" NCoef="0" IVar="3" Cut="3.6245437500000000e+04" cType="1" res="-1.5791739523410797e-01" rms="3.8682636618614197e-01" purity="2.2954548895359039e-01" nType="0">
          <Node pos="l" depth="2" NCoef="0" IVar="1" Cut="1.7491946875000000e+05" cType="1" res="-2.1742582321166992e-01" rms="3.3167800307273865e-01" purity="1.4870038628578186e-01" nType="0">
            <Node pos="l" depth="3" NCoef="0" IVar="-1" Cut="0.0000000000000000e+00" cType="1" res="-1.5590150840580463e-02" rms="3.0110654234886169e-01" purity="1.0869120061397552e-01" nType="-99"/>
            <Node pos="r" depth="3" NCoef="0" IVar="-1" Cut="0.0000000000000000e+00" cType="1" res="2.2405090276151896e-03" rms="4.3135175108909607e-01" purity="7.5159955024719238e-01" nType="-99"/>
          </Node>
          <Node pos="r" depth="2" NCoef="0" IVar="5" Cut="8.8029671875000000e+04" cType="1" res="6.7902162671089172e-02" rms="4.8535174131393433e-01" purity="5.3633236885070801e-01" nType="0">
            <Node pos="l" depth="3" NCoef="0" IVar="-1" Cut="0.0000000000000000e+00" cType="1" res="3.1857897993177176e-03" rms="4.0558859705924988e-01" purity="7.7225673198699951e-01" nType="-99"/>
            <Node pos="r" depth="3" NCoef="0" IVar="-1" Cut="0.0000000000000000e+00" cType="1" res="2.2820576850790530e-04" rms="4.8785588145256042e-01" purity="4.7805491089820862e-01" nType="-99"/>
          </Node>
        </Node>
        <Node pos="r" depth="1" NCoef="0" IVar="1" Cut="1.0383347656250000e+05" cType="1" res="4.0245974063873291e-01" rms="2.5933960080146790e-01" purity="9.2637491226196289e-01" nType="0">
          <Node pos="l" depth="2" NCoef="0" IVar="3" Cut="8.4720101562500000e+04" cType="1" res="3.3461996912956238e-01" rms="3.4616568684577942e-01" purity="8.5812383890151978e-01" nType="0">
            <Node pos="l" depth="3" NCoef="0" IVar="-1" Cut="0.0000000000000000e+00" cType="1" res="1.8283562967553735e-03" rms="4.5362663269042969e-01" purity="7.0810365676879883e-01" nType="-99"/>
            <Node pos="r" depth="3" NCoef="0" IVar="-1" Cut="0.0000000000000000e+00" cType="1" res="3.0626503285020590e-03" rms="2.0814904570579529e-01" purity="9.5448368787765503e-01" nType="-99"/>
          </Node>
          <Node pos="r" depth="2" NCoef="0" IVar="3" Cut="1.0586648437500000e+05" cType="1" res="4.5776376128196716e-01" rms="1.3261908292770386e-01" purity="9.8201429843902588e-01" nType="0">
            <Node pos="l" depth="3" NCoef="0" IVar="-1" Cut="0.0000000000000000e+00" cType="1" res="2.3852244485169649e-03" rms="1.5268835425376892e-01" purity="9.7603255510330200e-01" nType="-99"/>
            <Node pos="r" depth="3" NCoef="0" IVar="-1" Cut="0.0000000000000000e+00" cType="1" res="3.6943205632269382e-03" rms="9.5987983047962189e-02" purity="9.9070191383361816e-01" nType="-99"/>
          </Node>
        </Node>
      </Node>
    </BinaryTree>
    <BinaryTree type="DecisionTree" boostWeight="1.0000000000000000e+00" itree="18">
      <Node pos="s" depth="0" NCoef="0" IVar="3" Cut="3.7808433593750000e+04" cType="1" res="8.1229507923126221e-02" rms="4.3354612588882446e-01" purity="5.2341473102569580e-01" nType="0">
        <Node pos="l" depth="1" NCoef="0" IVar="1" Cut="1.7490379687500000e+05" cType="1" res="-1.9609054923057556e-01" rms="3.4187343716621399e-01" purity="1.6761492192745209e-01" nType="0">
          <Node pos="l" depth="2" NCoef="0" IVar="1" Cut="1.1280443750000000e+05" cType="1" res="-2.3111277818679810e-01" rms="3.0994179844856262e-01" purity="1.2139028310775757e-01" nType="0">
            <Node pos="l" depth="3" NCoef="0" IVar="-1" Cut="0.0000000000000000e+00" cType="1" res="-1.4743544161319733e-02" rms="2.5871244072914124e-01" purity="7.3926046490669250e-02" nType="-99"/>
            <Node pos="r" depth="3" NCoef="0" IVar="-1" Cut="0.0000000000000000e+00" cType="1" res="2.5234364438802004e-03" rms="4.7346141934394836e-01" purity="6.2480074167251587e-01" nType="-99"/>
          </Node>
          <Node pos="r" depth="2" NCoef="0" IVar="-1" Cut="0.0000000000000000e+00" cType="1" res="2.6619757991284132e-03" rms="3.8855120539665222e-01" purity="8.1387501955032349e-01" nType="-99"/>
        </Node>
        <Node pos="r" depth="1" NCoef="0" IVar="3" Cut="7.3762421875000000e+04" cType="1" res="3.3634054660797119e-01" rms="3.4281945228576660e-01" purity="8.5072058439254761e-01" nType="0">
          <Node pos="l" depth="2" NCoef="0" IVar="1" Cut="1.3174604687500000e+05" cType="1" res="1.8756908178329468e-01" rms="4.5240956544876099e-01" purity="6.8190729618072510e-01" nType="0">
            <Node pos="l" depth="3" NCoef="0" IVar="-1" Cut="0.0000000000000000e+00" cType="1" res="6.1764154816046357e-04" rms="4.8807865381240845e-01" purity="5.4755032062530518e-01" nType="-99"/>
            <Node pos="r" depth="3" NCoef="0" IVar="-1" Cut="0.0000000000000000e+00" cType="1" res="2.7853655628859997e-03" rms="1.8972626328468323e-01" purity="9.6242815256118774e-01" nType="-99"/>
          </Node>
          <Node pos="r" depth="2" NCoef="0" IVar="1" Cut="1.0059082812500000e+05" cType="1" res="4.3880593776702881e-01" rms="1.7820951342582703e-01" purity="9.6698963642120361e-01" nType="0">
            <Node pos="l" depth="3" NCoef="0" IVar="-1" Cut="0.0000000000000000e+00" cType="1" res="2.8455881401896477e-03" rms="2.3281125724315643e-01" purity="9.4208407402038574e-01" nType="-99"/>
            <Node pos="r" depth="3" NCoef="0" IVar="-1" Cut="0.0000000000000000e+00" cType="1" res="2.8836571145802736e-03" rms="1.0038045793771744e-01" purity="9.8980802297592163e-01" nType="-99"/>
          </Node>
        </Node>
      </Node>
    </BinaryTree>
    <BinaryTree type="DecisionTree" boostWeight="1.0000000000000000e+00" itree="19">
      <Node pos="s" depth="0" NCoef="0" IVar="3" Cut="6.8942281250000000e+04" cType="1" res="5.0436921417713165e-02" rms="4.3040376901626587e-01" purity="4.8558449745178223e-01" nType="0">
        <Node pos="l" depth="1" NCoef="0" IVar="3" Cut="3.6239308593750000e+04" cType="1" res="-1.1655137687921524e-01" rms="3.9748129248619080e-01" purity="2.7661678194999695e-01" nType="0">
          <Node pos="l" depth="2" NCoef="0" IVar="1" Cut="1.7491946875000000e+05" cType="1" res="-2.3241852223873138e-01" rms="2.9795891046524048e-01" purity="1.2007650732994080e-01" nType="0">
            <Node pos="l" depth="3" NCoef="0" IVar="-1" Cut="0.0000000000000000e+00" cType="1" res="-2.0331976935267448e-02" rms="2.6185196638107300e-01" purity="8.0554783344268799e-02" nType="-99"/>
            <Node pos="r" depth="3" NCoef="0" IVar="-1" Cut="0.0000000000000000e+00" cType="1" res="2.7019269764423370e-03" rms="4.2065337300300598e-01" purity="7.6930934190750122e-01" nType="-99"/>
          </Node>
          <Node pos="r" depth="2" NCoef="0" IVar="2" Cut="2.8271503125000000e+05" cType="1" res="1.5289327502250671e-01" rms="4.6381112933158875e-01" purity="6.4064520597457886e-01" nType="0">
            <Node pos="l" depth="3" NCoef="0" IVar="-1" Cut="0.0000000000000000e+00" cType="1" res="5.1832030294463038e-04" rms="4.8849874734878540e-01" purity="5.0969958305358887e-01" nType="-99"/>
            <Node pos="r" depth="3" NCoef="0" IVar="-1" Cut="0.0000000000000000e+00" cType="1" res="2.2207829169929028e-03" rms="4.1610112786293030e-01" purity="7.5237202644348145e-01" nType="-99"/>
          </Node>
        </Node>
        <Node pos="r" depth="1" NCoef="0" IVar="1" Cut="1.0073193750000000e+05" cType="1" res="4.2442104220390320e-01" rms="2.0970079302787781e-01" purity="9.5358496904373169e-01" nType="0">
          <Node pos="l" depth="2" NCoef="0" IVar="3" Cut="1.1901111718750000e+05" cType="1" res="3.8879543542861938e-01" rms="2.7235698699951172e-01" purity="9.1857933998107910e-01" nType="0">
            <Node pos="l" depth="3" NCoef="0" IVar="-1" Cut="0.0000000000000000e+00" cType="1" res="2.4855623487383127e-03" rms="3.7056139111518860e-01" purity="8.3502280712127686e-01" nType="-99"/>
            <Node pos="r" depth="3" NCoef="0" IVar="-1" Cut="0.0000000000000000e+00" cType="1" res="3.7258968222886324e-03" rms="1.3738685846328735e-01" purity="9.8074793815612793e-01" nType="-99"/>
          </Node>
          <Node pos="r" depth="2" NCoef="0" IVar="5" Cut="9.0679765625000000e+04" cType="1" res="4.5274382829666138e-01" rms="1.3472472131252289e-01" purity="9.8141479492187500e-01" nType="0">
            <Node pos="l" depth="3" NCoef="0" IVar="-1" Cut="0.0000000000000000e+00" cType="1" res="3.3475088421255350e-03" rms="1.6478852927684784e-01" purity="9.7184979915618896e-01" nType="-99"/>
            <Node pos="r" depth="3" NCoef="0" IVar="-1" Cut="0.0000000000000000e+00" cType="1" res="3.4407693892717361e-03" rms="9.9861614406108856e-02" purity="9.8991888761520386e-01" nType="-99"/>
          </Node>
        </Node>
      </Node>
    </BinaryTree>
    <BinaryTree type="DecisionTree" boostWeight="1.0000000000000000e+00" itree="20">
      <Node pos="s" depth="0" NCoef="0" IVar="3" Cut="3.7808433593750000e+04" cType="1" res="6.3856415450572968e-02" rms="4.2718619108200073e-01" purity="4.9839237332344055e-01" nType="0">
        <Node pos="l" depth="1" NCoef="0" IVar="1" Cut="1.2713942968750000e+05" cType="1" res="-2.2217196226119995e-01" rms="3.0135807394981384e-01" purity="1.2410839647054672e-01" nType="0">
          <Node pos="l" depth="2" NCoef="0" IVar="5" Cut="8.8766484375000000e+04" cType="1" res="-2.6531577110290527e-01" rms="2.4083566665649414e-01" purity="6.5343029797077179e-02" nType="0">
            <Node pos="l" depth="3" NCoef="0" IVar="-1" Cut="0.0000000000000000e+00" cType="1" res="-6.4584380015730858e-03" rms="3.7578311562538147e-01" purity="1.9024229049682617e-01" nType="-99"/>
            <Node pos="r" depth="3" NCoef="0" IVar="-1" Cut="0.0000000000000000e+00" cType="1" res="-3.0115734785795212e-02" rms="1.9237665832042694e-01" purity="3.9095770567655563e-02" nType="-99"/>
          </Node>
          <Node pos="r" depth="2" NCoef="0" IVar="3" Cut="1.8198347656250000e+04" cType="1" res="1.7379474639892578e-01" rms="4.6702569723129272e-01" purity="6.6344708204269409e-01" nType="0">
            <Node pos="l" depth="3" NCoef="0" IVar="-1" Cut="0.0000000000000000e+00" cType="1" res="-2.3287269286811352e-03" rms="4.8011937737464905e-01" purity="3.8673615455627441e-01" nType="-99"/>
            <Node pos="r" depth="3" NCoef="0" IVar="-1" Cut="0.0000000000000000e+00" cType="1" res="3.2081559766083956e-03" rms="4.0096014738082886e-01" purity="7.9619663953781128e-01" nType="-99"/>
          </Node>
        </Node>
        <Node pos="r" depth="1" NCoef="0" IVar="3" Cut="7.3762421875000000e+04" cType="1" res="3.2967627048492432e-01" rms="3.4783673286437988e-01" purity="8.4623241424560547e-01" nType="0">
          <Node pos="l" depth="2" NCoef="0" IVar="3" Cut="6.1777800781250000e+04" cType="1" res="1.9719548523426056e-01" rms="4.4781520962715149e-01" purity="6.9486856460571289e-01" nType="0">
            <Node pos="l" depth="3" NCoef="0" IVar="-1" Cut="0.0000000000000000e+00" cType="1" res="1.3270284980535507e-03" rms="4.7481346130371094e-01" purity="6.1703366041183472e-01" nType="-99"/>
            <Node pos="r" depth="3" NCoef="0" IVar="-1" Cut="0.0000000000000000e+00" cType="1" res="2.3756432346999645e-03" rms="3.0636745691299438e-01" purity="8.9422345161437988e-01" nType="-99"/>
          </Node>
          <Node pos="r" depth="2" NCoef="0" IVar="1" Cut="1.2527707812500000e+05" cType="1" res="4.3032845854759216e-01" rms="1.9258366525173187e-01" purity="9.6123105287551880e-01" nType="0">
            <Node pos="l" depth="3" NCoef="0" IVar="-1" Cut="0.0000000000000000e+00" cType="1" res="3.2489441800862551e-03" rms="2.3975190520286560e-01" purity="9.3839192390441895e-01" nType="-99"/>
            <Node pos="r" depth="3" NCoef="0" IVar="-1" Cut="0.0000000000000000e+00" cType="1" res="2.5548641569912434e-03" rms="9.6525326371192932e-02" purity="9.9059468507766724e-01" nType="-99"/>
          </Node>
        </Node>
      </Node>
    </BinaryTree>
    <BinaryTree type="DecisionTree" boostWeight="1.0000000000000000e+00" itree="21">
      <Node pos="s" depth="0" NCoef="0" IVar="3" Cut="6.8736484375000000e+04" cType="1" res="6.8179652094841003e-02" rms="4.2171502113342285e-01" purity="4.9744889140129089e-01" nType="0">
        <Node pos="l" depth="1" NCoef="0" IVar="3" Cut="3.6002828125000000e+04" cType="1" res="-1.0044425725936890e-01" rms="3.9333373308181763e-01" purity="2.8105041384696960e-01" nType="0">
          <Node pos="l" depth="2" NCoef="0" IVar="1" Cut="1.2722361718750000e+05" cType="1" res="-2.0796984434127808e-01" rms="3.0117946863174438e-01" purity="1.2631550431251526e-01" nType="0">
            <Node pos="l" depth="3" NCoef="0" IVar="-1" Cut="0.0000000000000000e+00" cType="1" res="-2.0934643223881721e-02" rms="2.3566494882106781e-01" purity="6.0079485177993774e-02" nType="-99"/>
            <Node pos="r" depth="3" NCoef="0" IVar="-1" Cut="0.0000000000000000e+00" cType="1" res="1.5383216086775064e-03" rms="4.5045813918113708e-01" purity="6.9873374700546265e-01" nType="-99"/>
          </Node>
          <Node pos="r" depth="2" NCoef="0" IVar="2" Cut="2.6478446875000000e+05" cType="1" res="1.4541478455066681e-01" rms="4.6278616786003113e-01" purity="6.3485443592071533e-01" nType="0">
            <Node pos="l" depth="3" NCoef="0" IVar="-1" Cut="0.0000000000000000e+00" cType="1" res="-1.6228691674768925e-03" rms="4.7243994474411011e-01" purity="3.8322839140892029e-01" nType="-99"/>
            <Node pos="r" depth="3" NCoef="0" IVar="-1" Cut="0.0000000000000000e+00" cType="1" res="2.0033603068441153e-03" rms="4.0698662400245667e-01" purity="7.6750212907791138e-01" nType="-99"/>
          </Node>
        </Node>
        <Node pos="r" depth="1" NCoef="0" IVar="1" Cut="1.2541114062500000e+05" cType="1" res="4.3224507570266724e-01" rms="1.8399180471897125e-01" purity="9.6466118097305298e-01" nType="0">
          <Node pos="l" depth="2" NCoef="0" IVar="3" Cut="9.8479007812500000e+04" cType="1" res="4.1051214933395386e-01" rms="2.2989185154438019e-01" purity="9.4347161054611206e-01" nType="0">
            <Node pos="l" depth="3" NCoef="0" IVar="-1" Cut="0.0000000000000000e+00" cType="1" res="3.3003848511725664e-03" rms="3.3220157027244568e-01" purity="8.7283259630203247e-01" nType="-99"/>
            <Node pos="r" depth="3" NCoef="0" IVar="-1" Cut="0.0000000000000000e+00" cType="1" res="2.9834276065230370e-03" rms="1.5263186395168304e-01" purity="9.7614109516143799e-01" nType="-99"/>
          </Node>
          <Node pos="r" depth="2" NCoef="0" IVar="-1" Cut="0.0000000000000000e+00" cType="1" res="3.3419961109757423e-03" rms="9.2729486525058746e-02" purity="9.9133217334747314e-01" nType="-99"/>
        </Node>
      </Node>
    </BinaryTree>
    <BinaryTree type="DecisionTree" boostWeight="1.0000000000000000e+00" itree="22">
      <Node pos="s" depth="0" NCoef="0" IVar="3" Cut="5.4398707031250000e+04" cType="1" res="8.6553208529949188e-02" rms="4.2225489020347595e-01" purity="5.1258325576782227e-01" nType="0">
        <Node pos="l" depth="1" NCoef="0" IVar="1" Cut="1.5585728125000000e+05" cType="1" res="-1.0933415591716766e-01" rms="3.8799437880516052e-01" purity="2.5068831443786621e-01" nType="0">
          <Node pos="l" depth="2" NCoef="0" IVar="1" Cut="1.0099683593750000e+05" cType="1" res="-1.5641419589519501e-01" rms="3.5953110456466675e-01" purity="1.8689277768135071e-01" nType="0">
            <Node pos="l" depth="3" NCoef="0" IVar="-1" Cut="0.0000000000000000e+00" cType="1" res="-8.9117046445608139e-03" rms="3.1665232777595520e-01" purity="1.2713596224784851e-01" nType="-99"/>
            <Node pos="r" depth="3" NCoef="0" IVar="-1" Cut="0.0000000000000000e+00" cType="1" res="1.2432788498699665e-03" rms="4.5662888884544373e-01" purity="5.5121767520904541e-01" nType="-99"/>
          </Node>
          <Node pos="r" depth="2" NCoef="0" IVar="-1" Cut="0.0000000000000000e+00" cType="1" res="2.7686732355505228e-03" rms="3.7622317671775818e-01" purity="8.2789778709411621e-01" nType="-99"/>
        </Node>
        <Node pos="r" depth="1" NCoef="0" IVar="1" Cut="1.0059082812500000e+05" cType="1" res="3.9843940734863281e-01" rms="2.5323823094367981e-01" purity="9.2956483364105225e-01" nType="0">
          <Node pos="l" depth="2" NCoef="0" IVar="3" Cut="8.4460062500000000e+04" cType="1" res="3.4966337680816650e-01" rms="3.1988766789436340e-01" purity="8.8093346357345581e-01" nType="0">
            <Node pos="l" depth="3" NCoef="0" IVar="-1" Cut="0.0000000000000000e+00" cType="1" res="1.4164395397529006e-03" rms="4.6505683660507202e-01" purity="6.7810910940170288e-01" nType="-99"/>
            <Node pos="r" depth="3" NCoef="0" IVar="-1" Cut="0.0000000000000000e+00" cType="1" res="3.3531954977661371e-03" rms="1.7621377110481262e-01" purity="9.6783405542373657e-01" nType="-99"/>
          </Node>
          <Node pos="r" depth="2" NCoef="0" IVar="3" Cut="1.0603505468750000e+05" cType="1" res="4.4479224085807800e-01" rms="1.5303367376327515e-01" purity="9.7578018903732300e-01" nType="0">
            <Node pos="l" depth="3" NCoef="0" IVar="-1" Cut="0.0000000000000000e+00" cType="1" res="2.8529092669487000e-03" rms="1.8247790634632111e-01" purity="9.6523845195770264e-01" nType="-99"/>
            <Node pos="r" depth="3" NCoef="0" IVar="-1" Cut="0.0000000000000000e+00" cType="1" res="3.7960126064717770e-03" rms="1.0172473639249802e-01" purity="9.8954683542251587e-01" nType="-99"/>
          </Node>
        </Node>
      </Node>
    </BinaryTree>
    <BinaryTree type="DecisionTree" boostWeight="1.0000000000000000e+00" itree="23">
      <Node pos="s" depth="0" NCoef="0" IVar="3" Cut="3.3086437500000000e+04" cType="1" res="7.5608298182487488e-02" rms="4.1714757680892944e-01" purity="5.0140202045440674e-01" nType="0">
        <Node pos="l" depth="1" NCoef="0" IVar="1" Cut="1.3470450000000000e+05" cType="1" res="-2.1534995734691620e-01" rms="2.7266258001327515e-01" purity="1.0403529554605484e-01" nType="0">
          <Node pos="l" depth="2" NCoef="0" IVar="1" Cut="1.0541560937500000e+05" cType="1" res="-2.5146603584289551e-01" rms="2.1589355170726776e-01" purity="5.2076499909162521e-02" nType="0">
            <Node pos="l" depth="3" NCoef="0" IVar="-1" Cut="0.0000000000000000e+00" cType="1" res="-3.4795831888914108e-02" rms="1.6826289892196655e-01" purity="2.9099637642502785e-02" nType="-99"/>
            <Node pos="r" depth="3" NCoef="0" IVar="-1" Cut="0.0000000000000000e+00" cType="1" res="9.3285116599872708e-04" rms="4.8253425955772400e-01" purity="3.9968875050544739e-01" nType="-99"/>
          </Node>
          <Node pos="r" depth="2" NCoef="0" IVar="-1" Cut="0.0000000000000000e+00" cType="1" res="1.9880593754351139e-03" rms="4.5377174019813538e-01" purity="6.9984745979309082e-01" nType="-99"/>
        </Node>
        <Node pos="r" depth="1" NCoef="0" IVar="3" Cut="6.4481515625000000e+04" cType="1" res="2.9985570907592773e-01" rms="3.6782345175743103e-01" purity="8.0766052007675171e-01" nType="0">
          <Node pos="l" depth="2" NCoef="0" IVar="3" Cut="4.0561078125000000e+04" cType="1" res="1.2283936142921448e-01" rms="4.6719667315483093e-01" purity="5.9020411968231201e-01" nType="0">
            <Node pos="l" depth="3" NCoef="0" IVar="-1" Cut="0.0000000000000000e+00" cType="1" res="-2.6624565944075584e-03" rms="4.4283184409141541e-01" purity="3.0140027403831482e-01" nType="-99"/>
            <Node pos="r" depth="3" NCoef="0" IVar="-1" Cut="0.0000000000000000e+00" cType="1" res="1.8525852356106043e-03" rms="4.5131626725196838e-01" purity="6.9453543424606323e-01" nType="-99"/>
          </Node>
          <Node pos="r" depth="2" NCoef="0" IVar="1" Cut="1.2544667187500000e+05" cType="1" res="4.1607007384300232e-01" rms="2.1619327366352081e-01" purity="9.5042455196380615e-01" nType="0">
            <Node pos="l" depth="3" NCoef="0" IVar="-1" Cut="0.0000000000000000e+00" cType="1" res="2.5734815280884504e-03" rms="2.5358796119689941e-01" purity="9.3025004863739014e-01" nType="-99"/>
            <Node pos="r" depth="3" NCoef="0" IVar="-1" Cut="0.0000000000000000e+00" cType="1" res="3.6668756511062384e-03" rms="1.1438720673322678e-01" purity="9.8673057556152344e-01" nType="-99"/>
          </Node>
        </Node>
      </Node>
    </BinaryTree>
    <BinaryTree type="DecisionTree" boostWeight="1.0000000000000000e+00" itree="24">
      <Node pos="s" depth="0" NCoef="0" IVar="3" Cut="4.4463175781250000e+04" cType="1" res="8.7017126381397247e-02" rms="4.1581246256828308e-01" purity="5.0576001405715942e-01" nType="0">
        <Node pos="l" depth="1" NCoef="0" IVar="1" Cut="1.7491946875000000e+05" cType="1" res="-1.3662871718406677e-01" rms="3.5602170228958130e-01" purity="1.9198030233383179e-01" nType="0">
          <Node pos="l" depth="2" NCoef="0" IVar="1" Cut="1.1285507812500000e+05" cType="1" res="-1.6624297201633453e-01" rms="3.3369335532188416e-01" purity="1.4817261695861816e-01" nType="0">
            <Node pos="l" depth="3" NCoef="0" IVar="-1" Cut="0.0000000000000000e+00" cType="1" res="-1.1763759888708591e-02" rms="3.0075991153717041e-01" purity="1.0787900537252426e-01" nType="-99"/>
            <Node pos="r" depth="3" NCoef="0" IVar="-1" Cut="0.0000000000000000e+00" cType="1" res="2.4377959780395031e-03" rms="4.7842180728912354e-01" purity="6.0885286331176758e-01" nType="-99"/>
          </Node>
          <Node pos="r" depth="2" NCoef="0" IVar="-1" Cut="0.0000000000000000e+00" cType="1" res="2.5344337336719036e-03" rms="3.9914819598197937e-01" purity="8.0027651786804199e-01" nType="-99"/>
        </Node>
        <Node pos="r" depth="1" NCoef="0" IVar="3" Cut="8.6753500000000000e+04" cType="1" res="3.6002814769744873e-01" rms="3.0600997805595398e-01" purity="8.8880008459091187e-01" nType="0">
          <Node pos="l" depth="2" NCoef="0" IVar="1" Cut="1.0376785937500000e+05" cType="1" res="2.5997075438499451e-01" rms="4.0786451101303101e-01" purity="7.7640497684478760e-01" nType="0">
            <Node pos="l" depth="3" NCoef="0" IVar="-1" Cut="0.0000000000000000e+00" cType="1" res="1.3081436045467854e-03" rms="4.7746837139129639e-01" purity="6.2201255559921265e-01" nType="-99"/>
            <Node pos="r" depth="3" NCoef="0" IVar="-1" Cut="0.0000000000000000e+00" cType="1" res="3.0060645658522844e-03" rms="2.0942349731922150e-01" purity="9.5315033197402954e-01" nType="-99"/>
          </Node>
          <Node pos="r" depth="2" NCoef="0" IVar="1" Cut="1.2572065625000000e+05" cType="1" res="4.3749806284904480e-01" rms="1.5359672904014587e-01" purity="9.7582256793975830e-01" nType="0">
            <Node pos="l" depth="3" NCoef="0" IVar="-1" Cut="0.0000000000000000e+00" cType="1" res="3.4313823562115431e-03" rms="1.9707198441028595e-01" purity="9.5948511362075806e-01" nType="-99"/>
            <Node pos="r" depth="3" NCoef="0" IVar="-1" Cut="0.0000000000000000e+00" cType="1" res="2.4149769451469183e-03" rms="8.6035028100013733e-02" purity="9.9254423379898071e-01" nType="-99"/>
          </Node>
        </Node>
      </Node>
    </BinaryTree>
    <BinaryTree type="DecisionTree" boostWeight="1.0000000000000000e+00" itree="25">
      <Node pos="s" depth="0" NCoef="0" IVar="3" Cut="5.4305199218750000e+04" cType="1" res="9.0114578604698181e-02" rms="4.1431814432144165e-01" purity="5.0641107559204102e-01" nType="0">
        <Node pos="l" depth="1" NCoef="0" IVar="1" Cut="1.4546562500000000e+05" cType="1" res="-1.0627188533544540e-01" rms="3.7825119495391846e-01" purity="2.3444779217243195e-01" nType="0">
          <Node pos="l" depth="2" NCoef="0" IVar="1" Cut="7.5529023437500000e+04" cType="1" res="-1.5368743240833282e-01" rms="3.4794443845748901e-01" purity="1.6629830002784729e-01" nType="0">
            <Node pos="l" depth="3" NCoef="0" IVar="-1" Cut="0.0000000000000000e+00" cType="1" res="1.1789757991209626e-03" rms="4.6000626683235168e-01" purity="3.8802871108055115e-01" nType="-99"/>
            <Node pos="r" depth="3" NCoef="0" IVar="-1" Cut="0.0000000000000000e+00" cType="1" res="-1.3667222112417221e-02" rms="2.8870525956153870e-01" purity="1.0879673063755035e-01" nType="-99"/>
          </Node>
          <Node pos="r" depth="2" NCoef="0" IVar="3" Cut="2.0791927734375000e+04" cType="1" res="2.9314520955085754e-01" rms="3.8729420304298401e-01" purity="8.0852276086807251e-01" nType="0">
            <Node pos="l" depth="3" NCoef="0" IVar="-1" Cut="0.0000000000000000e+00" cType="1" res="1.3915263116359711e-03" rms="4.6800631284713745e-01" purity="6.5103429555892944e-01" nType="-99"/>
            <Node pos="r" depth="3" NCoef="0" IVar="-1" Cut="0.0000000000000000e+00" cType="1" res="3.5527709405869246e-03" rms="3.2015478610992432e-01" purity="8.8166618347167969e-01" nType="-99"/>
          </Node>
        </Node>
        <Node pos="r" depth="1" NCoef="0" IVar="1" Cut="1.0175697656250000e+05" cType="1" res="3.9836457371711731e-01" rms="2.4692817032337189e-01" purity="9.3328714370727539e-01" nType="0">
          <Node pos="l" depth="2" NCoef="0" IVar="3" Cut="8.9479875000000000e+04" cType="1" res="3.4404194355010986e-01" rms="3.2494118809700012e-01" purity="8.7716299295425415e-01" nType="0">
            <Node pos="l" depth="3" NCoef="0" IVar="-1" Cut="0.0000000000000000e+00" cType="1" res="1.9908118993043900e-03" rms="4.2516183853149414e-01" purity="7.6145327091217041e-01" nType="-99"/>
            <Node pos="r" depth="3" NCoef="0" IVar="-1" Cut="0.0000000000000000e+00" cType="1" res="3.5092926118522882e-03" rms="1.7844909429550171e-01" purity="9.6704894304275513e-01" nType="-99"/>
          </Node>
          <Node pos="r" depth="2" NCoef="0" IVar="1" Cut="1.4224134375000000e+05" cType="1" res="4.4650971889495850e-01" rms="1.2845335900783539e-01" purity="9.8302894830703735e-01" nType="0">
            <Node pos="l" depth="3" NCoef="0" IVar="-1" Cut="0.0000000000000000e+00" cType="1" res="2.8788619674742222e-03" rms="1.5736801922321320e-01" purity="9.7419607639312744e-01" nType="-99"/>
            <Node pos="r" depth="3" NCoef="0" IVar="-1" Cut="0.0000000000000000e+00" cType="1" res="3.1233907211571932e-03" rms="1.0630054026842117e-01" purity="9.8851519823074341e-01" nType="-99"/>
          </Node>
        </Node>
      </Node>
    </BinaryTree>
    <BinaryTree type="DecisionTree" boostWeight="1.0000000000000000e+00" itree="26">
      <Node pos="s" depth="0" NCoef="0" IVar="3" Cut="3.7123617187500000e+04" cType="1" res="9.6282981336116791e-02" rms="4.1091775894165039e-01" purity="5.1249468326568604e-01" nType="0">
        <Node pos="l" depth="1" NCoef="0" IVar="1" Cut="1.3470450000000000e+05" cType="1" res="-1.3697160780429840e-01" rms="3.3588123321533203e-01" purity="1.7357116937637329e-01" nType="0">
          <Node pos="l" depth="2" NCoef="0" IVar="1" Cut="1.0541503906250000e+05" cType="1" res="-1.9849340617656708e-01" rms="2.7379894256591797e-01" purity="8.6387991905212402e-02" nType="0">
            <Node pos="l" depth="3" NCoef="0" IVar="-1" Cut="0.0000000000000000e+00" cType="1" res="-1.9623506814241409e-02" rms="2.4569073319435120e-01" purity="6.5809540450572968e-02" nType="-99"/>
            <Node pos="r" depth="3" NCoef="0" IVar="-1" Cut="0.0000000000000000e+00" cType="1" res="1.0987098794430494e-03" rms="4.8182776570320129e-01" purity="3.9636602997779846e-01" nType="-99"/>
          </Node>
          <Node pos="r" depth="2" NCoef="0" IVar="3" Cut="1.8254332031250000e+04" cType="1" res="3.0464011430740356e-01" rms="4.0289136767387390e-01" purity="7.9938375949859619e-01" nType="0">
            <Node pos="l" depth="3" NCoef="0" IVar="-1" Cut="0.0000000000000000e+00" cType="1" res="1.6027173260226846e-03" rms="4.7119280695915222e-01" purity="6.5771639347076416e-01" nType="-99"/>
            <Node pos="r" depth="3" NCoef="0" IVar="-1" Cut="0.0000000000000000e+00" cType="1" res="2.0246622152626514e-03" rms="3.3887997269630432e-01" purity="8.7312334775924683e-01" nType="-99"/>
          </Node>
        </Node>
        <Node pos="r" depth="1" NCoef="0" IVar="3" Cut="7.2431281250000000e+04" cType="1" res="3.2413861155509949e-01" rms="3.4427753090858459e-01" purity="8.4357333183288574e-01" nType="0">
          <Node pos="l" depth="2" NCoef="0" IVar="1" Cut="1.0347596093750000e+05" cType="1" res="1.8739472329616547e-01" rms="4.4908198714256287e-01" purity="6.7861288785934448e-01" nType="0">
            <Node pos="l" depth="3" NCoef="0" IVar="-1" Cut="0.0000000000000000e+00" cType="1" res="4.0030866512097418e-04" rms="4.8451459407806396e-01" purity="5.0388240814208984e-01" nType="-99"/>
            <Node pos="r" depth="3" NCoef="0" IVar="-1" Cut="0.0000000000000000e+00" cType="1" res="1.9414003472775221e-03" rms="2.7218511700630188e-01" purity="9.1740912199020386e-01" nType="-99"/>
          </Node>
          <Node pos="r" depth="2" NCoef="0" IVar="1" Cut="1.2544667187500000e+05" cType="1" res="4.2546802759170532e-01" rms="1.8107862770557404e-01" purity="9.6581172943115234e-01" nType="0">
            <Node pos="l" depth="3" NCoef="0" IVar="-1" Cut="0.0000000000000000e+00" cType="1" res="3.1042678747326136e-03" rms="2.2064664959907532e-01" purity="9.4820767641067505e-01" nType="-99"/>
            <Node pos="r" depth="3" NCoef="0" IVar="-1" Cut="0.0000000000000000e+00" cType="1" res="3.2050653826445341e-03" rms="1.0006282478570938e-01" purity="9.8987829685211182e-01" nType="-99"/>
          </Node>
        </Node>
      </Node>
    </BinaryTree>
    <BinaryTree type="DecisionTree" boostWeight="1.0000000000000000e+00" itree="27">
      <Node pos="s" depth="0" NCoef="0" IVar="3" Cut="5.4414000000000000e+04" cType="1" res="8.4114350378513336e-02" rms="4.0585738420486450e-01" purity="4.9559187889099121e-01" nType="0">
        <Node pos="l" depth="1" NCoef="0" IVar="1" Cut="1.3645210937500000e+05" cType="1" res="-9.3651399016380310e-02" rms="3.6984226107597351e-01" purity="2.4464341998100281e-01" nType="0">
          <Node pos="l" depth="2" NCoef="0" IVar="1" Cut="7.7073117187500000e+04" cType="1" res="-1.6027110815048218e-01" rms="3.2455477118492126e-01" purity="1.4933618903160095e-01" nType="0">
            <Node pos="l" depth="3" NCoef="0" IVar="-1" Cut="0.0000000000000000e+00" cType="1" res="1.1300783371552825e-03" rms="4.4391179084777832e-01" purity="3.8592103123664856e-01" nType="-99"/>
            <Node pos="r" depth="3" NCoef="0" IVar="-1" Cut="0.0000000000000000e+00" cType="1" res="-1.0956605896353722e-02" rms="2.5546091794967651e-01" purity="8.5217908024787903e-02" nType="-99"/>
          </Node>
          <Node pos="r" depth="2" NCoef="0" IVar="3" Cut="2.6323697265625000e+04" cType="1" res="3.1907033920288086e-01" rms="3.6574834585189819e-01" purity="8.3508974313735962e-01" nType="0">
            <Node pos="l" depth="3" NCoef="0" IVar="-1" Cut="0.0000000000000000e+00" cType="1" res="1.5951694222167134e-03" rms="4.6816661953926086e-01" purity="6.6225874423980713e-01" nType="-99"/>
            <Node pos="r" depth="3" NCoef="0" IVar="-1" Cut="0.0000000000000000e+00" cType="1" res="3.1489315442740917e-03" rms="2.6981270313262939e-01" purity="9.1965180635452271e-01" nType="-99"/>
          </Node>
        </Node>
        <Node pos="r" depth="1" NCoef="0" IVar="1" Cut="1.3073084375000000e+05" cType="1" res="3.9159172773361206e-01" rms="2.5266730785369873e-01" purity="9.2965173721313477e-01" nType="0">
          <Node pos="l" depth="2" NCoef="0" IVar="3" Cut="8.9583429687500000e+04" cType="1" res="3.4632855653762817e-01" rms="3.1787273287773132e-01" purity="8.8276797533035278e-01" nType="0">
            <Node pos="l" depth="3" NCoef="0" IVar="-1" Cut="0.0000000000000000e+00" cType="1" res="2.0730642136186361e-03" rms="4.2246329784393311e-01" purity="7.6422226428985596e-01" nType="-99"/>
            <Node pos="r" depth="3" NCoef="0" IVar="-1" Cut="0.0000000000000000e+00" cType="1" res="3.6475907545536757e-03" rms="1.7269501090049744e-01" purity="9.6919202804565430e-01" nType="-99"/>
          </Node>
          <Node pos="r" depth="2" NCoef="0" IVar="-1" Cut="0.0000000000000000e+00" cType="1" res="2.2577934432774782e-03" rms="1.1520487815141678e-01" purity="9.8646098375320435e-01" nType="-99"/>
        </Node>
      </Node>
    </BinaryTree>
    <BinaryTree type="DecisionTree" boostWeight="1.0000000000000000e+00" itree="28">
      <Node pos="s" depth="0" NCoef="0" IVar="3" Cut="3.7185378906250000e+04" cType="1" res="9.0087108314037323e-02" rms="4.0488731861114502e-01" purity="5.0242304801940918e-01" nType="0">
        <Node pos="l" depth="1" NCoef="0" IVar="1" Cut="1.7489954687500000e+05" cType="1" res="-1.5335969626903534e-01" rms="3.1101319193840027e-01" purity="1.4378274977207184e-01" nType="0">
          <Node pos="l" depth="2" NCoef="0" IVar="1" Cut="1.3540773437500000e+05" cType="1" res="-1.7623476684093475e-01" rms="2.8677281737327576e-01" purity="1.0672617703676224e-01" nType="0">
            <Node pos="l" depth="3" NCoef="0" IVar="-1" Cut="0.0000000000000000e+00" cType="1" res="-1.5734763815999031e-02" rms="2.5535160303115845e-01" purity="7.3631502687931061e-02" nType="-99"/>
            <Node pos="r" depth="3" NCoef="0" IVar="-1" Cut="0.0000000000000000e+00" cType="1" res="3.4666620194911957e-03" rms="4.3259459733963013e-01" purity="7.4771493673324585e-01" nType="-99"/>
          </Node>
          <Node pos="r" depth="2" NCoef="0" IVar="-1" Cut="0.0000000000000000e+00" cType="1" res="2.1082963794469833e-03" rms="4.2994031310081482e-01" purity="7.5386720895767212e-01" nType="-99"/>
        </Node>
        <Node pos="r" depth="1" NCoef="0" IVar="3" Cut="7.2482890625000000e+04" cType="1" res="3.2037138938903809e-01" rms="3.4411028027534485e-01" purity="8.4167271852493286e-01" nType="0">
          <Node pos="l" depth="2" NCoef="0" IVar="3" Cut="4.0547000000000000e+04" cType="1" res="1.8689920008182526e-01" rms="4.4542092084884644e-01" purity="6.8141812086105347e-01" nType="0">
            <Node pos="l" depth="3" NCoef="0" IVar="-1" Cut="0.0000000000000000e+00" cType="1" res="-4.3706255964934826e-03" rms="4.2794221639633179e-01" purity="2.8127735853195190e-01" nType="-99"/>
            <Node pos="r" depth="3" NCoef="0" IVar="-1" Cut="0.0000000000000000e+00" cType="1" res="1.8482710001990199e-03" rms="4.3254539370536804e-01" purity="7.2457015514373779e-01" nType="-99"/>
          </Node>
          <Node pos="r" depth="2" NCoef="0" IVar="1" Cut="1.1141539843750000e+05" cType="1" res="4.2860284447669983e-01" rms="1.6550049185752869e-01" purity="9.7162175178527832e-01" nType="0">
            <Node pos="l" depth="3" NCoef="0" IVar="-1" Cut="0.0000000000000000e+00" cType="1" res="2.7651658747345209e-03" rms="2.0187503099441528e-01" purity="9.5706671476364136e-01" nType="-99"/>
            <Node pos="r" depth="3" NCoef="0" IVar="-1" Cut="0.0000000000000000e+00" cType="1" res="2.7583788614720106e-03" rms="1.0572287440299988e-01" purity="9.8867917060852051e-01" nType="-99"/>
          </Node>
        </Node>
      </Node>
    </BinaryTree>
    <BinaryTree type="DecisionTree" boostWeight="1.0000000000000000e+00" itree="29">
      <Node pos="s" depth="0" NCoef="0" IVar="3" Cut="4.8774171875000000e+04" cType="1" res="8.1114985048770905e-02" rms="4.0542021393775940e-01" purity="4.8666486144065857e-01" nType="0">
        <Node pos="l" depth="1" NCoef="0" IVar="1" Cut="1.4167220312500000e+05" cType="1" res="-1.1257185041904449e-01" rms="3.5576322674751282e-01" purity="2.0295445621013641e-01" nType="0">
          <Node pos="l" depth="2" NCoef="0" IVar="1" Cut="6.7571664062500000e+04" cType="1" res="-1.5932773053646088e-01" rms="3.1881609559059143e-01" purity="1.3245731592178345e-01" nType="0">
            <Node pos="l" depth="3" NCoef="0" IVar="-1" Cut="0.0000000000000000e+00" cType="1" res="5.5319251259788871e-04" rms="4.4996914267539978e-01" purity="3.4596043825149536e-01" nType="-99"/>
            <Node pos="r" depth="3" NCoef="0" IVar="-1" Cut="0.0000000000000000e+00" cType="1" res="-9.5066521316766739e-03" rms="2.7130937576293945e-01" purity="9.1603919863700867e-02" nType="-99"/>
          </Node>
          <Node pos="r" depth="2" NCoef="0" IVar="3" Cut="2.3517519531250000e+04" cType="1" res="2.7276042103767395e-01" rms="4.0678742527961731e-01" purity="7.8394711017608643e-01" nType="0">
            <Node pos="l" depth="3" NCoef="0" IVar="-1" Cut="0.0000000000000000e+00" cType="1" res="1.6361633315682411e-03" rms="4.8454019427299500e-01" purity="6.2034118175506592e-01" nType="-99"/>
            <Node pos="r" depth="3" NCoef="0" IVar="-1" Cut="0.0000000000000000e+00" cType="1" res="3.5192749928683043e-03" rms="3.1939625740051270e-01" purity="8.8334774971008301e-01" nType="-99"/>
          </Node>
        </Node>
        <Node pos="r" depth="1" NCoef="0" IVar="1" Cut="1.0066286718750000e+05" cType="1" res="3.6539784073829651e-01" rms="2.8976699709892273e-01" purity="9.0307933092117310e-01" nType="0">
          <Node pos="l" depth="2" NCoef="0" IVar="3" Cut="7.5348015625000000e+04" cType="1" res="2.9046192765235901e-01" rms="3.7200585007667542e-01" purity="8.2476562261581421e-01" nType="0">
            <Node pos="l" depth="3" NCoef="0" IVar="-1" Cut="0.0000000000000000e+00" cType="1" res="1.1351008433848619e-03" rms="4.8599609732627869e-01" purity="6.0047680139541626e-01" nType="-99"/>
            <Node pos="r" depth="3" NCoef="0" IVar="-1" Cut="0.0000000000000000e+00" cType="1" res="3.4147419501096010e-03" rms="2.3527497053146362e-01" purity="9.4094496965408325e-01" nType="-99"/>
          </Node>
          <Node pos="r" depth="2" NCoef="0" IVar="3" Cut="9.5060742187500000e+04" cType="1" res="4.3375906348228455e-01" rms="1.5659013390541077e-01" purity="9.7452211380004883e-01" nType="0">
            <Node pos="l" depth="3" NCoef="0" IVar="-1" Cut="0.0000000000000000e+00" cType="1" res="2.1577386651188135e-03" rms="2.1395251154899597e-01" purity="9.5154392719268799e-01" nType="-99"/>
            <Node pos="r" depth="3" NCoef="0" IVar="-1" Cut="0.0000000000000000e+00" cType="1" res="2.9656789265573025e-03" rms="9.3561522662639618e-02" purity="9.9117428064346313e-01" nType="-99"/>
          </Node>
        </Node>
      </Node>
    </BinaryTree>
    <BinaryTree type="DecisionTree" boostWeight="1.0000000000000000e+00" itree="30">
      <Node pos="s" depth="0" NCoef="0" IVar="3" Cut="6.8798242187500000e+04" cType="1" res="9.6678234636783600e-02" rms="4.0342858433723450e-01" purity="5.0463652610778809e-01" nType="0">
        <Node pos="l" depth="1" NCoef="0" IVar="1" Cut="1.3173490625000000e+05" cType="1" res="-3.6948002874851227e-02" rms="3.9334848523139954e-01" purity="3.1314694881439209e-01" nType="0">
          <Node pos="l" depth="2" NCoef="0" IVar="3" Cut="3.9361644531250000e+04" cType="1" res="-1.0123537480831146e-01" rms="3.6378082633018494e-01" purity="2.1953807771205902e-01" nType="0">
            <Node pos="l" depth="3" NCoef="0" IVar="-1" Cut="0.0000000000000000e+00" cType="1" res="-1.5369620174169540e-02" rms="2.7554643154144287e-01" purity="8.8530771434307098e-02" nType="-99"/>
            <Node pos="r" depth="3" NCoef="0" IVar="-1" Cut="0.0000000000000000e+00" cType="1" res="8.4439467173069715e-04" rms="4.7652140259742737e-01" purity="6.1240935325622559e-01" nType="-99"/>
          </Node>
          <Node pos="r" depth="2" NCoef="0" IVar="3" Cut="2.2759089843750000e+04" cType="1" res="3.3038726449012756e-01" rms="3.5226219892501831e-01" purity="8.4802401065826416e-01" nType="0">
            <Node pos="l" depth="3" NCoef="0" IVar="-1" Cut="0.0000000000000000e+00" cType="1" res="1.5484548639506102e-03" rms="4.7382524609565735e-01" purity="6.3403350114822388e-01" nType="-99"/>
            <Node pos="r" depth="3" NCoef="0" IVar="-1" Cut="0.0000000000000000e+00" cType="1" res="3.5556964576244354e-03" rms="2.7053579688072205e-01" purity="9.1919535398483276e-01" nType="-99"/>
          </Node>
        </Node>
        <Node pos="r" depth="1" NCoef="0" IVar="1" Cut="1.0158996875000000e+05" cType="1" res="4.1373810172080994e-01" rms="1.9727392494678497e-01" purity="9.5899099111557007e-01" nType="0">
          <Node pos="l" depth="2" NCoef="0" IVar="1" Cut="8.4660773437500000e+04" cType="1" res="3.7980791926383972e-01" rms="2.6114401221275330e-01" purity="9.2533540725708008e-01" nType="0">
            <Node pos="l" depth="3" NCoef="0" IVar="-1" Cut="0.0000000000000000e+00" cType="1" res="3.0933758243918419e-03" rms="1.9788122177124023e-01" purity="9.5877259969711304e-01" nType="-99"/>
            <Node pos="r" depth="3" NCoef="0" IVar="-1" Cut="0.0000000000000000e+00" cType="1" res="1.9812036771327257e-03" rms="3.8716253638267517e-01" purity="8.1309133768081665e-01" nType="-99"/>
          </Node>
          <Node pos="r" depth="2" NCoef="0" IVar="-1" Cut="0.0000000000000000e+00" cType="1" res="3.0006028246134520e-03" rms="1.1100926995277405e-01" purity="9.8749029636383057e-01" nType="-99"/>
        </Node>
      </Node>
    </BinaryTree>
    <BinaryTree type="DecisionTree" boostWeight="1.0000000000000000e+00" itree="31">
      <Node pos="s" depth="0" NCoef="0" IVar="3" Cut="3.7922710937500000e+04" cType="1" res="9.7830265760421753e-02" rms="3.9998856186866760e-01" purity="5.0258409976959229e-01" nType="0">
        <Node pos="l" depth="1" NCoef="0" IVar="1" Cut="1.3641148437500000e+05" cType="1" res="-1.1384531855583191e-01" rms="3.3130845427513123e-01" purity="1.7796023190021515e-01" nType="0">
          <Node pos="l" depth="2" NCoef="0" IVar="1" Cut="7.7070171875000000e+04" cType="1" res="-1.6787227988243103e-01" rms="2.7985003590583801e-01" purity="9.3575209379196167e-02" nType="0">
            <Node pos="l" depth="3" NCoef="0" IVar="-1" Cut="0.0000000000000000e+00" cType="1" res="1.4866945275571197e-04" rms="4.4162493944168091e-01" purity="2.7576214075088501e-01" nType="-99"/>
            <Node pos="r" depth="3" NCoef="0" IVar="-1" Cut="0.0000000000000000e+00" cType="1" res="-2.0434929057955742e-02" rms="2.0352171361446381e-01" purity="4.9914084374904633e-02" nType="-99"/>
          </Node>
          <Node pos="r" depth="2" NCoef="0" IVar="3" Cut="1.8345910156250000e+04" cType="1" res="2.7701535820960999e-01" rms="4.0422439575195312e-01" purity="7.8844785690307617e-01" nType="0">
            <Node pos="l" depth="3" NCoef="0" IVar="-1" Cut="0.0000000000000000e+00" cType="1" res="1.7461990937590599e-03" rms="4.5889443159103394e-01" purity="6.8529266119003296e-01" nType="-99"/>
            <Node pos="r" depth="3" NCoef="0" IVar="-1" Cut="0.0000000000000000e+00" cType="1" res="3.2363182399421930e-03" rms="3.5633030533790588e-01" purity="8.4875500202178955e-01" nType="-99"/>
          </Node>
        </Node>
        <Node pos="r" depth="1" NCoef="0" IVar="3" Cut="7.3875625000000000e+04" cType="1" res="3.2208308577537537e-01" rms="3.3976835012435913e-01" purity="8.4649628400802612e-01" nType="0">
          <Node pos="l" depth="2" NCoef="0" IVar="1" Cut="1.0347596093750000e+05" cType="1" res="2.0543885231018066e-01" rms="4.3642139434814453e-01" purity="7.0301634073257446e-01" nType="0">
            <Node pos="l" depth="3" NCoef="0" IVar="-1" Cut="0.0000000000000000e+00" cType="1" res="4.9745175056159496e-04" rms="4.8302543163299561e-01" purity="5.1105409860610962e-01" nType="-99"/>
            <Node pos="r" depth="3" NCoef="0" IVar="-1" Cut="0.0000000000000000e+00" cType="1" res="2.2791626397520304e-03" rms="2.5631353259086609e-01" purity="9.2698144912719727e-01" nType="-99"/>
          </Node>
          <Node pos="r" depth="2" NCoef="0" IVar="1" Cut="1.1128134375000000e+05" cType="1" res="4.2179954051971436e-01" rms="1.7243546247482300e-01" purity="9.6915400028228760e-01" nType="0">
            <Node pos="l" depth="3" NCoef="0" IVar="-1" Cut="0.0000000000000000e+00" cType="1" res="2.7972385287284851e-03" rms="2.1311600506305695e-01" purity="9.5190411806106567e-01" nType="-99"/>
            <Node pos="r" depth="3" NCoef="0" IVar="-1" Cut="0.0000000000000000e+00" cType="1" res="1.9558491185307503e-03" rms="1.1363759636878967e-01" purity="9.8691713809967041e-01" nType="-99"/>
          </Node>
        </Node>
      </Node>
    </BinaryTree>
    <BinaryTree type="DecisionTree" boostWeight="1.0000000000000000e+00" itree="32">
      <Node pos="s" depth="0" NCoef="0" IVar="3" Cut="4.8721656250000000e+04" cType="1" res="9.4952583312988281e-02" rms="3.9828342199325562e-01" purity="4.9853742122650146e-01" nType="0">
        <Node pos="l" depth="1" NCoef="0" IVar="1" Cut="1.4167623437500000e+05" cType="1" res="-1.0424602031707764e-01" rms="3.4945067763328552e-01" purity="1.9870629906654358e-01" nType="0">
          <Node pos="l" depth="2" NCoef="0" IVar="1" Cut="7.3748492187500000e+04" cType="1" res="-1.4844185113906860e-01" rms="3.1348431110382080e-01" purity="1.2980043888092041e-01" nType="0">
            <Node pos="l" depth="3" NCoef="0" IVar="-1" Cut="0.0000000000000000e+00" cType="1" res="7.4939843034371734e-04" rms="4.3850183486938477e-01" purity="3.5054153203964233e-01" nType="-99"/>
            <Node pos="r" depth="3" NCoef="0" IVar="-1" Cut="0.0000000000000000e+00" cType="1" res="-1.4811759814620018e-02" rms="2.6142075657844543e-01" purity="8.0878242850303650e-02" nType="-99"/>
          </Node>
          <Node pos="r" depth="2" NCoef="0" IVar="3" Cut="2.3277554687500000e+04" cType="1" res="2.7242878079414368e-01" rms="4.0840893983840942e-01" purity="7.8598129749298096e-01" nType="0">
            <Node pos="l" depth="3" NCoef="0" IVar="-1" Cut="0.0000000000000000e+00" cType="1" res="1.4313369756564498e-03" rms="4.7982048988342285e-01" purity="6.4045184850692749e-01" nType="-99"/>
            <Node pos="r" depth="3" NCoef="0" IVar="-1" Cut="0.0000000000000000e+00" cType="1" res="4.1074915789067745e-03" rms="3.2263737916946411e-01" purity="8.8225245475769043e-01" nType="-99"/>
          </Node>
        </Node>
        <Node pos="r" depth="1" NCoef="0" IVar="1" Cut="1.0073193750000000e+05" cType="1" res="3.6674374341964722e-01" rms="2.8361815214157104e-01" purity="9.0763396024703979e-01" nType="0">
          <Node pos="l" depth="2" NCoef="0" IVar="3" Cut="7.9055281250000000e+04" cType="1" res="2.7845844626426697e-01" rms="3.7957125902175903e-01" purity="8.1579869985580444e-01" nType="0">
            <Node pos="l" depth="3" NCoef="0" IVar="-1" Cut="0.0000000000000000e+00" cType="1" res="1.0650237090885639e-03" rms="4.7313022613525391e-01" purity="6.4751344919204712e-01" nType="-99"/>
            <Node pos="r" depth="3" NCoef="0" IVar="-1" Cut="0.0000000000000000e+00" cType="1" res="3.3056403044611216e-03" rms="2.5933396816253662e-01" purity="9.2691349983215332e-01" nType="-99"/>
          </Node>
          <Node pos="r" depth="2" NCoef="0" IVar="3" Cut="9.5033203125000000e+04" cType="1" res="4.3494302034378052e-01" rms="1.4356131851673126e-01" purity="9.7857540845870972e-01" nType="0">
            <Node pos="l" depth="3" NCoef="0" IVar="-1" Cut="0.0000000000000000e+00" cType="1" res="2.7665016241371632e-03" rms="1.8954387307167053e-01" purity="9.6218246221542358e-01" nType="-99"/>
            <Node pos="r" depth="3" NCoef="0" IVar="-1" Cut="0.0000000000000000e+00" cType="1" res="2.4842489510774612e-03" rms="8.7944902479648590e-02" purity="9.9220848083496094e-01" nType="-99"/>
          </Node>
        </Node>
      </Node>
    </BinaryTree>
    <BinaryTree type="DecisionTree" boostWeight="1.0000000000000000e+00" itree="33">
      <Node pos="s" depth="0" NCoef="0" IVar="3" Cut="4.8774171875000000e+04" cType="1" res="1.1052350699901581e-01" rms="3.9289367198944092e-01" purity="5.2022606134414673e-01" nType="0">
        <Node pos="l" depth="1" NCoef="0" IVar="1" Cut="1.2785067187500000e+05" cType="1" res="-1.0140784829854965e-01" rms="3.4270074963569641e-01" purity="2.0128773152828217e-01" nType="0">
          <Node pos="l" depth="2" NCoef="0" IVar="1" Cut="7.8175375000000000e+04" cType="1" res="-1.5325616300106049e-01" rms="2.9703256487846375e-01" purity="1.2030246853828430e-01" nType="0">
            <Node pos="l" depth="3" NCoef="0" IVar="-1" Cut="0.0000000000000000e+00" cType="1" res="-1.9291319404146634e-05" rms="4.1975218057632446e-01" purity="3.1041660904884338e-01" nType="-99"/>
            <Node pos="r" depth="3" NCoef="0" IVar="-1" Cut="0.0000000000000000e+00" cType="1" res="-1.6296233981847763e-02" rms="2.3656257987022400e-01" purity="6.8148374557495117e-02" nType="-99"/>
          </Node>
          <Node pos="r" depth="2" NCoef="0" IVar="3" Cut="2.3483679687500000e+04" cType="1" res="2.5890669226646423e-01" rms="4.1468697786331177e-01" purity="7.6408666372299194e-01" nType="0">
            <Node pos="l" depth="3" NCoef="0" IVar="-1" Cut="0.0000000000000000e+00" cType="1" res="7.0950930239632726e-04" rms="4.9649572372436523e-01" purity="5.2948987483978271e-01" nType="-99"/>
            <Node pos="r" depth="3" NCoef="0" IVar="-1" Cut="0.0000000000000000e+00" cType="1" res="3.3394850324839354e-03" rms="3.1850048899650574e-01" purity="8.8035416603088379e-01" nType="-99"/>
          </Node>
        </Node>
        <Node pos="r" depth="1" NCoef="0" IVar="1" Cut="1.0066286718750000e+05" cType="1" res="3.7148460745811462e-01" rms="2.7644580602645874e-01" purity="9.1294986009597778e-01" nType="0">
          <Node pos="l" depth="2" NCoef="0" IVar="3" Cut="7.9113359375000000e+04" cType="1" res="2.9532676935195923e-01" rms="3.6388570070266724e-01" purity="8.3440363407135010e-01" nType="0">
            <Node pos="l" depth="3" NCoef="0" IVar="-1" Cut="0.0000000000000000e+00" cType="1" res="1.5060649020597339e-03" rms="4.5916035771369934e-01" purity="6.8733018636703491e-01" nType="-99"/>
            <Node pos="r" depth="3" NCoef="0" IVar="-1" Cut="0.0000000000000000e+00" cType="1" res="2.8041382320225239e-03" rms="2.5623720884323120e-01" purity="9.2842698097229004e-01" nType="-99"/>
          </Node>
          <Node pos="r" depth="2" NCoef="0" IVar="3" Cut="9.5060742187500000e+04" cType="1" res="4.3459030985832214e-01" rms="1.4573697745800018e-01" purity="9.7803461551666260e-01" nType="0">
            <Node pos="l" depth="3" NCoef="0" IVar="-1" Cut="0.0000000000000000e+00" cType="1" res="1.9941842183470726e-03" rms="1.7827294766902924e-01" purity="9.6688163280487061e-01" nType="-99"/>
            <Node pos="r" depth="3" NCoef="0" IVar="-1" Cut="0.0000000000000000e+00" cType="1" res="3.2697198912501335e-03" rms="9.2681586742401123e-02" purity="9.9134320020675659e-01" nType="-99"/>
          </Node>
        </Node>
      </Node>
    </BinaryTree>
    <BinaryTree type="DecisionTree" boostWeight="1.0000000000000000e+00" itree="34">
      <Node pos="s" depth="0" NCoef="0" IVar="3" Cut="4.8659894531250000e+04" cType="1" res="9.9551111459732056e-02" rms="3.9356440305709839e-01" purity="5.0111466646194458e-01" nType="0">
        <Node pos="l" depth="1" NCoef="0" IVar="1" Cut="1.3640723437500000e+05" cType="1" res="-1.0200621187686920e-01" rms="3.4214141964912415e-01" purity="1.9204555451869965e-01" nType="0">
          <Node pos="l" depth="2" NCoef="0" IVar="1" Cut="7.6937828125000000e+04" cType="1" res="-1.4430788159370422e-01" rms="3.0556514859199524e-01" purity="1.2357389926910400e-01" nType="0">
            <Node pos="l" depth="3" NCoef="0" IVar="-1" Cut="0.0000000000000000e+00" cType="1" res="5.6877790484577417e-04" rms="4.4470503926277161e-01" purity="3.4172847867012024e-01" nType="-99"/>
            <Node pos="r" depth="3" NCoef="0" IVar="-1" Cut="0.0000000000000000e+00" cType="1" res="-1.0955393314361572e-02" rms="2.3802763223648071e-01" purity="6.8114653229713440e-02" nType="-99"/>
          </Node>
          <Node pos="r" depth="2" NCoef="0" IVar="5" Cut="9.0579796875000000e+04" cType="1" res="2.5430220365524292e-01" rms="4.1782772541046143e-01" purity="7.6878476142883301e-01" nType="0">
            <Node pos="l" depth="3" NCoef="0" IVar="-1" Cut="0.0000000000000000e+00" cType="1" res="2.2839384619146585e-03" rms="3.7055155634880066e-01" purity="8.3168381452560425e-01" nType="-99"/>
            <Node pos="r" depth="3" NCoef="0" IVar="-1" Cut="0.0000000000000000e+00" cType="1" res="2.0131380297243595e-03" rms="4.7732335329055786e-01" purity="6.3894551992416382e-01" nType="-99"/>
          </Node>
        </Node>
        <Node pos="r" depth="1" NCoef="0" IVar="3" Cut="9.4948742187500000e+04" cType="1" res="3.6329677700996399e-01" rms="2.8579047322273254e-01" purity="9.0554374456405640e-01" nType="0">
          <Node pos="l" depth="2" NCoef="0" IVar="3" Cut="6.1819832031250000e+04" cType="1" res="3.0302858352661133e-01" rms="3.6527228355407715e-01" purity="8.3473646640777588e-01" nType="0">
            <Node pos="l" depth="3" NCoef="0" IVar="-1" Cut="0.0000000000000000e+00" cType="1" res="1.8060136353597045e-03" rms="4.3573135137557983e-01" purity="7.3335343599319458e-01" nType="-99"/>
            <Node pos="r" depth="3" NCoef="0" IVar="-1" Cut="0.0000000000000000e+00" cType="1" res="2.4469285272061825e-03" rms="3.0038827657699585e-01" purity="8.9865106344223022e-01" nType="-99"/>
          </Node>
          <Node pos="r" depth="2" NCoef="0" IVar="1" Cut="1.1128134375000000e+05" cType="1" res="4.2899057269096375e-01" rms="1.3036523759365082e-01" purity="9.8272544145584106e-01" nType="0">
            <Node pos="l" depth="3" NCoef="0" IVar="-1" Cut="0.0000000000000000e+00" cType="1" res="3.2097098883241415e-03" rms="1.4923982322216034e-01" purity="9.7720319032669067e-01" nType="-99"/>
            <Node pos="r" depth="3" NCoef="0" IVar="-1" Cut="0.0000000000000000e+00" cType="1" res="2.6289583183825016e-03" rms="1.0604529827833176e-01" purity="9.8862355947494507e-01" nType="-99"/>
          </Node>
        </Node>
      </Node>
    </BinaryTree>
    <BinaryTree type="DecisionTree" boostWeight="1.0000000000000000e+00" itree="35">
      <Node pos="s" depth="0" NCoef="0" IVar="3" Cut="5.4345996093750000e+04" cType="1" res="9.6900880336761475e-02" rms="3.9289420843124390e-01" purity="4.9571728706359863e-01" nType="0">
        <Node pos="l" depth="1" NCoef="0" IVar="1" Cut="1.4545448437500000e+05" cType="1" res="-5.7455804198980331e-02" rms="3.6419892311096191e-01" purity="2.5670632719993591e-01" nType="0">
          <Node pos="l" depth="2" NCoef="0" IVar="1" Cut="1.1360721875000000e+05" cType="1" res="-1.0907357931137085e-01" rms="3.3310684561729431e-01" purity="1.7585748434066772e-01" nType="0">
            <Node pos="l" depth="3" NCoef="0" IVar="-1" Cut="0.0000000000000000e+00" cType="1" res="-8.0225020647048950e-03" rms="2.9984331130981445e-01" purity="1.2702414393424988e-01" nType="-99"/>
            <Node pos="r" depth="3" NCoef="0" IVar="-1" Cut="0.0000000000000000e+00" cType="1" res="1.7685957718640566e-03" rms="4.0812832117080688e-01" purity="7.4298512935638428e-01" nType="-99"/>
          </Node>
          <Node pos="r" depth="2" NCoef="0" IVar="3" Cut="2.4177958984375000e+04" cType="1" res="3.1559413671493530e-01" rms="3.6181265115737915e-01" purity="8.4101408720016479e-01" nType="0">
            <Node pos="l" depth="3" NCoef="0" IVar="-1" Cut="0.0000000000000000e+00" cType="1" res="1.3908151304349303e-03" rms="4.7039797902107239e-01" purity="6.5789663791656494e-01" nType="-99"/>
            <Node pos="r" depth="3" NCoef="0" IVar="-1" Cut="0.0000000000000000e+00" cType="1" res="3.2952837646007538e-03" rms="2.7656665444374084e-01" purity="9.1662865877151489e-01" nType="-99"/>
          </Node>
        </Node>
        <Node pos="r" depth="1" NCoef="0" IVar="1" Cut="1.0059082812500000e+05" cType="1" res="3.6626225709915161e-01" rms="2.7954244613647461e-01" purity="9.1280519962310791e-01" nType="0">
          <Node pos="l" depth="2" NCoef="0" IVar="3" Cut="8.9516320312500000e+04" cType="1" res="3.1427738070487976e-01" rms="3.4396234154701233e-01" purity="8.5964250564575195e-01" nType="0">
            <Node pos="l" depth="3" NCoef="0" IVar="-1" Cut="0.0000000000000000e+00" cType="1" res="1.6894304426386952e-03" rms="4.2732435464859009e-01" purity="7.5873422622680664e-01" nType="-99"/>
            <Node pos="r" depth="3" NCoef="0" IVar="-1" Cut="0.0000000000000000e+00" cType="1" res="3.0261755455285311e-03" rms="2.0639984309673309e-01" purity="9.5541429519653320e-01" nType="-99"/>
          </Node>
          <Node pos="r" depth="2" NCoef="0" IVar="5" Cut="9.0623820312500000e+04" cType="1" res="4.2322278022766113e-01" rms="1.6711637377738953e-01" purity="9.7105640172958374e-01" nType="0">
            <Node pos="l" depth="3" NCoef="0" IVar="-1" Cut="0.0000000000000000e+00" cType="1" res="3.1503878999501467e-03" rms="2.0637939870357513e-01" purity="9.5492762327194214e-01" nType="-99"/>
            <Node pos="r" depth="3" NCoef="0" IVar="-1" Cut="0.0000000000000000e+00" cType="1" res="2.3116909433156252e-03" rms="1.3444766402244568e-01" purity="9.8152869939804077e-01" nType="-99"/>
          </Node>
        </Node>
      </Node>
    </BinaryTree>
    <BinaryTree type="DecisionTree" boostWeight="1.0000000000000000e+00" itree="36">
      <Node pos="s" depth="0" NCoef="0" IVar="3" Cut="6.8798242187500000e+04" cType="1" res="1.0888742655515671e-01" rms="3.9101672172546387e-01" purity="5.0779211521148682e-01" nType="0">
        <Node pos="l" depth="1" NCoef="0" IVar="1" Cut="1.4545873437500000e+05" cType="1" res="-1.6308704391121864e-02" rms="3.8553801178932190e-01" purity="3.1835785508155823e-01" nType="0">
          <Node pos="l" depth="2" NCoef="0" IVar="1" Cut="1.1363582812500000e+05" cType="1" res="-7.7896051108837128e-02" rms="3.6050772666931152e-01" purity="2.2289228439331055e-01" nType="0">
            <Node pos="l" depth="3" NCoef="0" IVar="-1" Cut="0.0000000000000000e+00" cType="1" res="-4.5723565854132175e-03" rms="3.3292329311370850e-01" purity="1.7096737027168274e-01" nType="-99"/>
            <Node pos="r" depth="3" NCoef="0" IVar="-1" Cut="0.0000000000000000e+00" cType="1" res="2.1395275834947824e-03" rms="4.0622383356094360e-01" purity="7.4711155891418457e-01" nType="-99"/>
          </Node>
          <Node pos="r" depth="2" NCoef="0" IVar="3" Cut="2.3456500000000000e+04" cType="1" res="3.4251797199249268e-01" rms="3.2647004723548889e-01" purity="8.7456947565078735e-01" nType="0">
            <Node pos="l" depth="3" NCoef="0" IVar="-1" Cut="0.0000000000000000e+00" cType="1" res="1.9162370590493083e-03" rms="4.2770040035247803e-01" purity="7.5163710117340088e-01" nType="-99"/>
            <Node pos="r" depth="3" NCoef="0" IVar="-1" Cut="0.0000000000000000e+00" cType="1" res="2.4880303535610437e-03" rms="2.5765588879585266e-01" purity="9.2788577079772949e-01" nType="-99"/>
          </Node>
        </Node>
        <Node pos="r" depth="1" NCoef="0" IVar="1" Cut="9.5234882812500000e+04" cType="1" res="4.1010484099388123e-01" rms="1.8624475598335266e-01" purity="9.6356409788131714e-01" nType="0">
          <Node pos="l" depth="2" NCoef="0" IVar="1" Cut="8.3388289062500000e+04" cType="1" res="3.8173568248748779e-01" rms="2.4264629185199738e-01" purity="9.3610751628875732e-01" nType="0">
            <Node pos="l" depth="3" NCoef="0" IVar="-1" Cut="0.0000000000000000e+00" cType="1" res="3.6406472790986300e-03" rms="1.6160772740840912e-01" purity="9.7298318147659302e-01" nType="-99"/>
            <Node pos="r" depth="3" NCoef="0" IVar="-1" Cut="0.0000000000000000e+00" cType="1" res="1.6239540418609977e-03" rms="4.5507746934890747e-01" purity="6.9731110334396362e-01" nType="-99"/>
          </Node>
          <Node pos="r" depth="2" NCoef="0" IVar="1" Cut="1.3269092187500000e+05" cType="1" res="4.2800375819206238e-01" rms="1.3636985421180725e-01" purity="9.8088717460632324e-01" nType="0">
            <Node pos="l" depth="3" NCoef="0" IVar="-1" Cut="0.0000000000000000e+00" cType="1" res="3.0050498899072409e-03" rms="1.9445255398750305e-01" purity="9.6012353897094727e-01" nType="-99"/>
            <Node pos="r" depth="3" NCoef="0" IVar="-1" Cut="0.0000000000000000e+00" cType="1" res="3.4172437153756618e-03" rms="9.8191879689693451e-02" purity="9.9026232957839966e-01" nType="-99"/>
          </Node>
        </Node>
      </Node>
    </BinaryTree>
    <BinaryTree type="DecisionTree" boostWeight="1.0000000000000000e+00" itree="37">
      <Node pos="s" depth="0" NCoef="0" IVar="3" Cut="5.4198226562500000e+04" cType="1" res="1.0171566903591156e-01" rms="3.9530810713768005e-01" purity="4.9181759357452393e-01" nType="0">
        <Node pos="l" depth="1" NCoef="0" IVar="3" Cut="2.8415541015625000e+04" cType="1" res="-4.0010765194892883e-02" rms="3.7730589509010315e-01" purity="2.6629155874252319e-01" nType="0">
          <Node pos="l" depth="2" NCoef="0" IVar="1" Cut="1.3643696875000000e+05" cType="1" res="-1.4070869982242584e-01" rms="2.7969411015510559e-01" purity="1.1381294578313828e-01" nType="0">
            <Node pos="l" depth="3" NCoef="0" IVar="-1" Cut="0.0000000000000000e+00" cType="1" res="-1.6522014513611794e-02" rms="2.4116416275501251e-01" purity="6.5585330128669739e-02" nType="-99"/>
            <Node pos="r" depth="3" NCoef="0" IVar="-1" Cut="0.0000000000000000e+00" cType="1" res="1.3437669258564711e-03" rms="4.6634405851364136e-01" purity="6.6192466020584106e-01" nType="-99"/>
          </Node>
          <Node pos="r" depth="2" NCoef="0" IVar="1" Cut="1.0373396875000000e+05" cType="1" res="1.2859077751636505e-01" rms="4.5203071832656860e-01" purity="5.2159100770950317e-01" nType="0">
            <Node pos="l" depth="3" NCoef="0" IVar="-1" Cut="0.0000000000000000e+00" cType="1" res="-1.0045286035165191e-03" rms="4.4540473818778992e-01" purity="3.0295023322105408e-01" nType="-99"/>
            <Node pos="r" depth="3" NCoef="0" IVar="-1" Cut="0.0000000000000000e+00" cType="1" res="1.8485679756850004e-03" rms="2.9929137229919434e-01" purity="8.9289140701293945e-01" nType="-99"/>
          </Node>
        </Node>
        <Node pos="r" depth="1" NCoef="0" IVar="1" Cut="1.3210354687500000e+05" cType="1" res="3.7022423744201660e-01" rms="2.6919850707054138e-01" purity="9.1908919811248779e-01" nType="0">
          <Node pos="l" depth="2" NCoef="0" IVar="3" Cut="8.4267375000000000e+04" cType="1" res="3.3639088273048401e-01" rms="3.1718799471855164e-01" purity="8.8321614265441895e-01" nType="0">
            <Node pos="l" depth="3" NCoef="0" IVar="-1" Cut="0.0000000000000000e+00" cType="1" res="1.8731735181063414e-03" rms="3.9603871107101440e-01" purity="8.0227899551391602e-01" nType="-99"/>
            <Node pos="r" depth="3" NCoef="0" IVar="-1" Cut="0.0000000000000000e+00" cType="1" res="3.1341821886599064e-03" rms="2.1722385287284851e-01" purity="9.5022755861282349e-01" nType="-99"/>
          </Node>
          <Node pos="r" depth="2" NCoef="0" IVar="-1" Cut="0.0000000000000000e+00" cType="1" res="3.7012097891420126e-03" rms="1.3025601208209991e-01" purity="9.8267102241516113e-01" nType="-99"/>
        </Node>
      </Node>
    </BinaryTree>
    <BinaryTree type="DecisionTree" boostWeight="1.0000000000000000e+00" itree="38">
      <Node pos="s" depth="0" NCoef="0" IVar="3" Cut="5.4198226562500000e+04" cType="1" res="9.6873044967651367e-02" rms="3.8672530651092529e-01" purity="4.9022939801216125e-01" nType="0">
        <Node pos="l" depth="1" NCoef="0" IVar="3" Cut="3.3560492187500000e+04" cType="1" res="-6.2947772443294525e-02" rms="3.5763606429100037e-01" purity="2.3735755681991577e-01" nType="0">
          <Node pos="l" depth="2" NCoef="0" IVar="1" Cut="1.7490379687500000e+05" cType="1" res="-1.2730401754379272e-01" rms="2.8517356514930725e-01" purity="1.2549802660942078e-01" nType="0">
            <Node pos="l" depth="3" NCoef="0" IVar="-1" Cut="0.0000000000000000e+00" cType="1" res="-1.1734939180314541e-02" rms="2.6242679357528687e-01" purity="9.0737588703632355e-02" nType="-99"/>
            <Node pos="r" depth="3" NCoef="0" IVar="-1" Cut="0.0000000000000000e+00" cType="1" res="2.0417706109583378e-03" rms="4.3383035063743591e-01" purity="7.4499422311782837e-01" nType="-99"/>
          </Node>
          <Node pos="r" depth="2" NCoef="0" IVar="2" Cut="3.4238503125000000e+05" cType="1" res="1.1168589442968369e-01" rms="4.6104639768600464e-01" purity="5.4089361429214478e-01" nType="0">
            <Node pos="l" depth="3" NCoef="0" IVar="-1" Cut="0.0000000000000000e+00" cType="1" res="5.8547069784253836e-04" rms="4.6980944275856018e-01" purity="4.4030112028121948e-01" nType="-99"/>
            <Node pos="r" depth="3" NCoef="0" IVar="-1" Cut="0.0000000000000000e+00" cType="1" res="1.1708943638950586e-03" rms="4.0184593200683594e-01" purity="7.3492890596389771e-01" nType="-99"/>
          </Node>
        </Node>
        <Node pos="r" depth="1" NCoef="0" IVar="3" Cut="1.0577060156250000e+05" cType="1" res="3.7085282802581787e-01" rms="2.6042911410331726e-01" purity="9.2372596263885498e-01" nType="0">
          <Node pos="l" depth="2" NCoef="0" IVar="3" Cut="6.1521347656250000e+04" cType="1" res="3.2593512535095215e-01" rms="3.2827189564704895e-01" purity="8.7245470285415649e-01" nType="0">
            <Node pos="l" depth="3" NCoef="0" IVar="-1" Cut="0.0000000000000000e+00" cType="1" res="1.3141930103302002e-03" rms="4.7627639770507812e-01" purity="6.3834840059280396e-01" nType="-99"/>
            <Node pos="r" depth="3" NCoef="0" IVar="-1" Cut="0.0000000000000000e+00" cType="1" res="2.6707500219345093e-03" rms="2.7384474873542786e-01" purity="9.1641902923583984e-01" nType="-99"/>
          </Node>
          <Node pos="r" depth="2" NCoef="0" IVar="0" Cut="3.8095238804817200e-01" cType="1" res="4.2426007986068726e-01" rms="1.2281827628612518e-01" purity="9.8468762636184692e-01" nType="0">
            <Node pos="l" depth="3" NCoef="0" IVar="-1" Cut="0.0000000000000000e+00" cType="1" res="3.4074657596647739e-03" rms="8.7242856621742249e-02" purity="9.9233198165893555e-01" nType="-99"/>
            <Node pos="r" depth="3" NCoef="0" IVar="-1" Cut="0.0000000000000000e+00" cType="1" res="3.2471844460815191e-03" rms="1.3699407875537872e-01" purity="9.8087900876998901e-01" nType="-99"/>
          </Node>
        </Node>
      </Node>
    </BinaryTree>
    <BinaryTree type="DecisionTree" boostWeight="1.0000000000000000e+00" itree="39">
      <Node pos="s" depth="0" NCoef="0" IVar="3" Cut="4.4570152343750000e+04" cType="1" res="1.0680878162384033e-01" rms="3.8851103186607361e-01" purity="5.0040054321289062e-01" nType="0">
        <Node pos="l" depth="1" NCoef="0" IVar="1" Cut="1.3642714062500000e+05" cType="1" res="-8.4272556006908417e-02" rms="3.3978235721588135e-01" purity="1.8819445371627808e-01" nType="0">
          <Node pos="l" depth="2" NCoef="0" IVar="1" Cut="7.7089015625000000e+04" cType="1" res="-1.2004836648702621e-01" rms="3.0878791213035583e-01" purity="1.2527841329574585e-01" nType="0">
            <Node pos="l" depth="3" NCoef="0" IVar="-1" Cut="0.0000000000000000e+00" cType="1" res="8.5546629270538688e-04" rms="4.4449752569198608e-01" purity="3.1319770216941833e-01" nType="-99"/>
            <Node pos="r" depth="3" NCoef="0" IVar="-1" Cut="0.0000000000000000e+00" cType="1" res="-1.2906694784760475e-02" rms="2.5281056761741638e-01" purity="8.0417454242706299e-02" nType="-99"/>
          </Node>
          <Node pos="r" depth="2" NCoef="0" IVar="3" Cut="2.1273216796875000e+04" cType="1" res="2.3728424310684204e-01" rms="4.2570987343788147e-01" purity="7.5369060039520264e-01" nType="0">
            <Node pos="l" depth="3" NCoef="0" IVar="-1" Cut="0.0000000000000000e+00" cType="1" res="1.2344131246209145e-03" rms="4.8300701379776001e-01" purity="6.1740171909332275e-01" nType="-99"/>
            <Node pos="r" depth="3" NCoef="0" IVar="-1" Cut="0.0000000000000000e+00" cType="1" res="3.2231695950031281e-03" rms="3.6408135294914246e-01" purity="8.4097748994827271e-01" nType="-99"/>
          </Node>
        </Node>
        <Node pos="r" depth="1" NCoef="0" IVar="3" Cut="8.6861695312500000e+04" cType="1" res="3.4116557240486145e-01" rms="3.0783545970916748e-01" purity="8.8331395387649536e-01" nType="0">
          <Node pos="l" depth="2" NCoef="0" IVar="2" Cut="3.5381728125000000e+05" cType="1" res="2.6865416765213013e-01" rms="3.9244678616523743e-01" purity="7.9263406991958618e-01" nType="0">
            <Node pos="l" depth="3" NCoef="0" IVar="-1" Cut="0.0000000000000000e+00" cType="1" res="1.7418235074728727e-03" rms="4.4447672367095947e-01" purity="6.9872361421585083e-01" nType="-99"/>
            <Node pos="r" depth="3" NCoef="0" IVar="-1" Cut="0.0000000000000000e+00" cType="1" res="1.7768996767699718e-03" rms="2.7544271945953369e-01" purity="9.1251236200332642e-01" nType="-99"/>
          </Node>
          <Node pos="r" depth="2" NCoef="0" IVar="1" Cut="9.5065289062500000e+04" cType="1" res="4.1570508480072021e-01" rms="1.5130278468132019e-01" purity="9.7653007507324219e-01" nType="0">
            <Node pos="l" depth="3" NCoef="0" IVar="-1" Cut="0.0000000000000000e+00" cType="1" res="3.0346864368766546e-03" rms="1.9649140536785126e-01" purity="9.5955568552017212e-01" nType="-99"/>
            <Node pos="r" depth="3" NCoef="0" IVar="-1" Cut="0.0000000000000000e+00" cType="1" res="3.5153820645064116e-03" rms="1.0456923395395279e-01" purity="9.8894983530044556e-01" nType="-99"/>
          </Node>
        </Node>
      </Node>
    </BinaryTree>
    <BinaryTree type="DecisionTree" boostWeight="1.0000000000000000e+00" itree="40">
      <Node pos="s" depth="0" NCoef="0" IVar="3" Cut="6.8798242187500000e+04" cType="1" res="9.3789756298065186e-02" rms="3.8409551978111267e-01" purity="4.8169726133346558e-01" nType="0">
        <Node pos="l" depth="1" NCoef="0" IVar="3" Cut="4.9173332031250000e+04" cType="1" res="-2.8542542830109596e-02" rms="3.7237077951431274e-01" purity="2.9057174921035767e-01" nType="0">
          <Node pos="l" depth="2" NCoef="0" IVar="1" Cut="1.7489954687500000e+05" cType="1" res="-8.2098275423049927e-02" rms="3.3890768885612488e-01" purity="1.9774630665779114e-01" nType="0">
            <Node pos="l" depth="3" NCoef="0" IVar="-1" Cut="0.0000000000000000e+00" cType="1" res="-5.6179692037403584e-03" rms="3.1748938560485840e-01" purity="1.4617754518985748e-01" nType="-99"/>
            <Node pos="r" depth="3" NCoef="0" IVar="-1" Cut="0.0000000000000000e+00" cType="1" res="2.5152044836431742e-03" rms="3.8295161724090576e-01" purity="8.1935495138168335e-01" nType="-99"/>
          </Node>
          <Node pos="r" depth="2" NCoef="0" IVar="2" Cut="2.4588801562500000e+05" cType="1" res="2.4987231194972992e-01" rms="4.1227337718009949e-01" purity="7.7313417196273804e-01" nType="0">
            <Node pos="l" depth="3" NCoef="0" IVar="-1" Cut="0.0000000000000000e+00" cType="1" res="5.7218392612412572e-04" rms="4.9123409390449524e-01" purity="5.4991644620895386e-01" nType="-99"/>
            <Node pos="r" depth="3" NCoef="0" IVar="-1" Cut="0.0000000000000000e+00" cType="1" res="2.3922580294311047e-03" rms="3.5796886682510376e-01" purity="8.4434294700622559e-01" nType="-99"/>
          </Node>
        </Node>
        <Node pos="r" depth="1" NCoef="0" IVar="1" Cut="1.0059082812500000e+05" cType="1" res="3.9899364113807678e-01" rms="1.9791819155216217e-01" purity="9.5853173732757568e-01" nType="0">
          <Node pos="l" depth="2" NCoef="0" IVar="1" Cut="7.9549953125000000e+04" cType="1" res="3.6927139759063721e-01" rms="2.5506108999252319e-01" purity="9.2874509096145630e-01" nType="0">
            <Node pos="l" depth="3" NCoef="0" IVar="-1" Cut="0.0000000000000000e+00" cType="1" res="3.1775312963873148e-03" rms="1.8482968211174011e-01" purity="9.6419370174407959e-01" nType="-99"/>
            <Node pos="r" depth="3" NCoef="0" IVar="-1" Cut="0.0000000000000000e+00" cType="1" res="1.9987586420029402e-03" rms="3.6894616484642029e-01" purity="8.3384573459625244e-01" nType="-99"/>
          </Node>
          <Node pos="r" depth="2" NCoef="0" IVar="-1" Cut="0.0000000000000000e+00" cType="1" res="2.9518951196223497e-03" rms="1.3797777891159058e-01" purity="9.8040592670440674e-01" nType="-99"/>
        </Node>
      </Node>
    </BinaryTree>
    <BinaryTree type="DecisionTree" boostWeight="1.0000000000000000e+00" itree="41">
      <Node pos="s" depth="0" NCoef="0" IVar="3" Cut="6.8798242187500000e+04" cType="1" res="9.6276573836803436e-02" rms="3.8193640112876892e-01" purity="4.8753044009208679e-01" nType="0">
        <Node pos="l" depth="1" NCoef="0" IVar="3" Cut="4.2629414062500000e+04" cType="1" res="-2.6980040594935417e-02" rms="3.7122970819473267e-01" purity="2.9573002457618713e-01" nType="0">
          <Node pos="l" depth="2" NCoef="0" IVar="1" Cut="9.6518140625000000e+04" cType="1" res="-1.1010845005512238e-01" rms="3.0888122320175171e-01" purity="1.4998348057270050e-01" nType="0">
            <Node pos="l" depth="3" NCoef="0" IVar="-1" Cut="0.0000000000000000e+00" cType="1" res="-1.8562307581305504e-02" rms="2.1160213649272919e-01" purity="5.0518780946731567e-02" nType="-99"/>
            <Node pos="r" depth="3" NCoef="0" IVar="-1" Cut="0.0000000000000000e+00" cType="1" res="1.5166689408943057e-03" rms="4.3976739048957825e-01" purity="4.4755181670188904e-01" nType="-99"/>
          </Node>
          <Node pos="r" depth="2" NCoef="0" IVar="5" Cut="8.9628875000000000e+04" cType="1" res="2.1999564766883850e-01" rms="4.2692658305168152e-01" purity="7.2874516248703003e-01" nType="0">
            <Node pos="l" depth="3" NCoef="0" IVar="-1" Cut="0.0000000000000000e+00" cType="1" res="1.6441736370325089e-03" rms="3.6046987771987915e-01" purity="8.3379030227661133e-01" nType="-99"/>
            <Node pos="r" depth="3" NCoef="0" IVar="-1" Cut="0.0000000000000000e+00" cType="1" res="1.6654867213219404e-03" rms="4.5543146133422852e-01" purity="6.5182960033416748e-01" nType="-99"/>
          </Node>
        </Node>
        <Node pos="r" depth="1" NCoef="0" IVar="1" Cut="1.2541114062500000e+05" cType="1" res="4.0222230553627014e-01" rms="1.8595422804355621e-01" purity="9.6361458301544189e-01" nType="0">
          <Node pos="l" depth="2" NCoef="0" IVar="3" Cut="9.8514234375000000e+04" cType="1" res="3.8335007429122925e-01" rms="2.2595979273319244e-01" purity="9.4505387544631958e-01" nType="0">
            <Node pos="l" depth="3" NCoef="0" IVar="-1" Cut="0.0000000000000000e+00" cType="1" res="2.2700494155287743e-03" rms="3.3141559362411499e-01" purity="8.7323468923568726e-01" nType="-99"/>
            <Node pos="r" depth="3" NCoef="0" IVar="-1" Cut="0.0000000000000000e+00" cType="1" res="2.7905465103685856e-03" rms="1.4804625511169434e-01" purity="9.7754836082458496e-01" nType="-99"/>
          </Node>
          <Node pos="r" depth="2" NCoef="0" IVar="-1" Cut="0.0000000000000000e+00" cType="1" res="3.3832893241196871e-03" rms="1.0693147033452988e-01" purity="9.8842978477478027e-01" nType="-99"/>
        </Node>
      </Node>
    </BinaryTree>
    <BinaryTree type="DecisionTree" boostWeight="1.0000000000000000e+00" itree="42">
      <Node pos="s" depth="0" NCoef="0" IVar="3" Cut="5.4198226562500000e+04" cType="1" res="1.2475780397653580e-01" rms="3.8222506642341614e-01" purity="5.2138841152191162e-01" nType="0">
        <Node pos="l" depth="1" NCoef="0" IVar="1" Cut="1.5585303125000000e+05" cType="1" res="-3.4182842820882797e-02" rms="3.6774411797523499e-01" purity="2.6183521747589111e-01" nType="0">
          <Node pos="l" depth="2" NCoef="0" IVar="1" Cut="1.0099504687500000e+05" cType="1" res="-7.4619583785533905e-02" rms="3.4672501683235168e-01" purity="1.9231390953063965e-01" nType="0">
            <Node pos="l" depth="3" NCoef="0" IVar="-1" Cut="0.0000000000000000e+00" cType="1" res="-8.0816652625799179e-03" rms="3.0267125368118286e-01" purity="1.2452555447816849e-01" nType="-99"/>
            <Node pos="r" depth="3" NCoef="0" IVar="-1" Cut="0.0000000000000000e+00" cType="1" res="1.0513500310480595e-03" rms="4.3990042805671692e-01" purity="5.7887214422225952e-01" nType="-99"/>
          </Node>
          <Node pos="r" depth="2" NCoef="0" IVar="-1" Cut="0.0000000000000000e+00" cType="1" res="2.4528349749743938e-03" rms="3.6610764265060425e-01" purity="8.3698862791061401e-01" nType="-99"/>
        </Node>
        <Node pos="r" depth="1" NCoef="0" IVar="1" Cut="1.1141539843750000e+05" cType="1" res="3.7784966826438904e-01" rms="2.4312020838260651e-01" purity="9.3469238281250000e-01" nType="0">
          <Node pos="l" depth="2" NCoef="0" IVar="3" Cut="8.9380812500000000e+04" cType="1" res="3.4087222814559937e-01" rms="3.0107504129409790e-01" purity="8.9534616470336914e-01" nType="0">
            <Node pos="l" depth="3" NCoef="0" IVar="-1" Cut="0.0000000000000000e+00" cType="1" res="1.8294324399903417e-03" rms="3.9550355076789856e-01" purity="8.0249017477035522e-01" nType="-99"/>
            <Node pos="r" depth="3" NCoef="0" IVar="-1" Cut="0.0000000000000000e+00" cType="1" res="2.7731135487556458e-03" rms="1.8148109316825867e-01" purity="9.6577745676040649e-01" nType="-99"/>
          </Node>
          <Node pos="r" depth="2" NCoef="0" IVar="2" Cut="4.0899796875000000e+05" cType="1" res="4.1940885782241821e-01" rms="1.4281779527664185e-01" purity="9.7891390323638916e-01" nType="0">
            <Node pos="l" depth="3" NCoef="0" IVar="-1" Cut="0.0000000000000000e+00" cType="1" res="2.7011162601411343e-03" rms="1.6290397942066193e-01" purity="9.7229427099227905e-01" nType="-99"/>
            <Node pos="r" depth="3" NCoef="0" IVar="-1" Cut="0.0000000000000000e+00" cType="1" res="2.9630383942276239e-03" rms="1.2097011506557465e-01" purity="9.8502886295318604e-01" nType="-99"/>
          </Node>
        </Node>
      </Node>
    </BinaryTree>
    <BinaryTree type="DecisionTree" boostWeight="1.0000000000000000e+00" itree="43">
      <Node pos="s" depth="0" NCoef="0" IVar="3" Cut="5.4305199218750000e+04" cType="1" res="1.1506745219230652e-01" rms="3.8214069604873657e-01" purity="5.0444751977920532e-01" nType="0">
        <Node pos="l" depth="1" NCoef="0" IVar="1" Cut="1.3640723437500000e+05" cType="1" res="-4.2722638696432114e-02" rms="3.6407816410064697e-01" purity="2.4372477829456329e-01" nType="0">
          <Node pos="l" depth="2" NCoef="0" IVar="1" Cut="1.0070298437500000e+05" cType="1" res="-8.8536784052848816e-02" rms="3.3556300401687622e-01" purity="1.6241924464702606e-01" nType="0">
            <Node pos="l" depth="3" NCoef="0" IVar="-1" Cut="0.0000000000000000e+00" cType="1" res="-6.9235991686582565e-03" rms="2.9398825764656067e-01" purity="1.1543087661266327e-01" nType="-99"/>
            <Node pos="r" depth="3" NCoef="0" IVar="-1" Cut="0.0000000000000000e+00" cType="1" res="1.3279408449307084e-03" rms="4.6824797987937927e-01" purity="5.0278639793395996e-01" nType="-99"/>
          </Node>
          <Node pos="r" depth="2" NCoef="0" IVar="5" Cut="9.0861445312500000e+04" cType="1" res="2.6884451508522034e-01" rms="3.9608159661293030e-01" purity="7.9665732383728027e-01" nType="0">
            <Node pos="l" depth="3" NCoef="0" IVar="-1" Cut="0.0000000000000000e+00" cType="1" res="2.6129467878490686e-03" rms="3.4598228335380554e-01" purity="8.5660445690155029e-01" nType="-99"/>
            <Node pos="r" depth="3" NCoef="0" IVar="-1" Cut="0.0000000000000000e+00" cType="1" res="1.6388797666877508e-03" rms="4.5958966016769409e-01" purity="6.7166846990585327e-01" nType="-99"/>
          </Node>
        </Node>
        <Node pos="r" depth="1" NCoef="0" IVar="3" Cut="1.0586648437500000e+05" cType="1" res="3.7497621774673462e-01" rms="2.4427364766597748e-01" purity="9.3390488624572754e-01" nType="0">
          <Node pos="l" depth="2" NCoef="0" IVar="1" Cut="1.0376785937500000e+05" cType="1" res="3.3301660418510437e-01" rms="3.1651619076728821e-01" purity="8.8385117053985596e-01" nType="0">
            <Node pos="l" depth="3" NCoef="0" IVar="-1" Cut="0.0000000000000000e+00" cType="1" res="2.4057831615209579e-03" rms="3.8602122664451599e-01" purity="8.1321722269058228e-01" nType="-99"/>
            <Node pos="r" depth="3" NCoef="0" IVar="-1" Cut="0.0000000000000000e+00" cType="1" res="3.0988806392997503e-03" rms="1.7244766652584076e-01" purity="9.6905267238616943e-01" nType="-99"/>
          </Node>
          <Node pos="r" depth="2" NCoef="0" IVar="2" Cut="3.2958212500000000e+05" cType="1" res="4.1932636499404907e-01" rms="1.1410852521657944e-01" purity="9.8681032657623291e-01" nType="0">
            <Node pos="l" depth="3" NCoef="0" IVar="-1" Cut="0.0000000000000000e+00" cType="1" res="3.4951951820403337e-03" rms="1.3552387058734894e-01" purity="9.8127055168151855e-01" nType="-99"/>
            <Node pos="r" depth="3" NCoef="0" IVar="-1" Cut="0.0000000000000000e+00" cType="1" res="2.8377540875226259e-03" rms="9.9614582955837250e-02" purity="9.8998177051544189e-01" nType="-99"/>
          </Node>
        </Node>
      </Node>
    </BinaryTree>
    <BinaryTree type="DecisionTree" boostWeight="1.0000000000000000e+00" itree="44">
      <Node pos="s" depth="0" NCoef="0" IVar="3" Cut="5.4398707031250000e+04" cType="1" res="9.9143750965595245e-02" rms="3.8413974642753601e-01" purity="4.8185688257217407e-01" nType="0">
        <Node pos="l" depth="1" NCoef="0" IVar="1" Cut="1.5588937500000000e+05" cType="1" res="-4.3793614953756332e-02" rms="3.6213445663452148e-01" purity="2.3927009105682373e-01" nType="0">
          <Node pos="l" depth="2" NCoef="0" IVar="1" Cut="1.0773000000000000e+05" cType="1" res="-7.7453047037124634e-02" rms="3.4313842654228210e-01" purity="1.7932270467281342e-01" nType="0">
            <Node pos="l" depth="3" NCoef="0" IVar="-1" Cut="0.0000000000000000e+00" cType="1" res="-9.3533899635076523e-03" rms="2.9544296860694885e-01" purity="1.1542931944131851e-01" nType="-99"/>
            <Node pos="r" depth="3" NCoef="0" IVar="-1" Cut="0.0000000000000000e+00" cType="1" res="2.2406005300581455e-03" rms="4.5432382822036743e-01" purity="6.5456593036651611e-01" nType="-99"/>
          </Node>
          <Node pos="r" depth="2" NCoef="0" IVar="0" Cut="2.8571429848670959e-01" cType="1" res="2.8319305181503296e-01" rms="3.7863531708717346e-01" purity="8.2163298130035400e-01" nType="0">
            <Node pos="l" depth="3" NCoef="0" IVar="-1" Cut="0.0000000000000000e+00" cType="1" res="3.0240537598729134e-03" rms="3.6619693040847778e-01" purity="8.3425229787826538e-01" nType="-99"/>
            <Node pos="r" depth="3" NCoef="0" IVar="-1" Cut="0.0000000000000000e+00" cType="1" res="3.1615342013537884e-03" rms="3.9444470405578613e-01" purity="8.0454784631729126e-01" nType="-99"/>
          </Node>
        </Node>
        <Node pos="r" depth="1" NCoef="0" IVar="3" Cut="1.0595468750000000e+05" cType="1" res="3.5412797331809998e-01" rms="2.7458071708679199e-01" purity="9.1460448503494263e-01" nType="0">
          <Node pos="l" depth="2" NCoef="0" IVar="1" Cut="1.1629306250000000e+05" cType="1" res="3.0435809493064880e-01" rms="3.4493777155876160e-01" purity="8.5732638835906982e-01" nType="0">
            <Node pos="l" depth="3" NCoef="0" IVar="-1" Cut="0.0000000000000000e+00" cType="1" res="1.6583038959652185e-03" rms="4.1010940074920654e-01" purity="7.7860242128372192e-01" nType="-99"/>
            <Node pos="r" depth="3" NCoef="0" IVar="-1" Cut="0.0000000000000000e+00" cType="1" res="3.2804610673338175e-03" rms="1.7640414834022522e-01" purity="9.6766060590744019e-01" nType="-99"/>
          </Node>
          <Node pos="r" depth="2" NCoef="0" IVar="3" Cut="1.5505628125000000e+05" cType="1" res="4.1161924600601196e-01" rms="1.3739819824695587e-01" purity="9.8076874017715454e-01" nType="0">
            <Node pos="l" depth="3" NCoef="0" IVar="-1" Cut="0.0000000000000000e+00" cType="1" res="3.2989978790283203e-03" rms="1.7721959948539734e-01" purity="9.6757775545120239e-01" nType="-99"/>
            <Node pos="r" depth="3" NCoef="0" IVar="-1" Cut="0.0000000000000000e+00" cType="1" res="3.0621623154729605e-03" rms="9.1253511607646942e-02" purity="9.9160879850387573e-01" nType="-99"/>
          </Node>
        </Node>
      </Node>
    </BinaryTree>
    <BinaryTree type="DecisionTree" boostWeight="1.0000000000000000e+00" itree="45">
      <Node pos="s" depth="0" NCoef="0" IVar="3" Cut="4.8721656250000000e+04" cType="1" res="1.2358978390693665e-01" rms="3.7715819478034973e-01" purity="5.1573079824447632e-01" nType="0">
        <Node pos="l" depth="1" NCoef="0" IVar="1" Cut="9.8448921875000000e+04" cType="1" res="-5.6261129677295685e-02" rms="3.4824696183204651e-01" purity="2.0996336638927460e-01" nType="0">
          <Node pos="l" depth="2" NCoef="0" IVar="1" Cut="7.7861335937500000e+04" cType="1" res="-1.1492411792278290e-01" rms="2.9489552974700928e-01" purity="1.1218275129795074e-01" nType="0">
            <Node pos="l" depth="3" NCoef="0" IVar="-1" Cut="0.0000000000000000e+00" cType="1" res="1.9079977646470070e-03" rms="4.6003890037536621e-01" purity="3.7964203953742981e-01" nType="-99"/>
            <Node pos="r" depth="3" NCoef="0" IVar="-1" Cut="0.0000000000000000e+00" cType="1" res="-3.1765248626470566e-02" rms="1.6069538891315460e-01" purity="2.6068646460771561e-02" nType="-99"/>
          </Node>
          <Node pos="r" depth="2" NCoef="0" IVar="3" Cut="2.3338849609375000e+04" cType="1" res="1.5846161544322968e-01" rms="4.3378251791000366e-01" purity="5.6786745786666870e-01" nType="0">
            <Node pos="l" depth="3" NCoef="0" IVar="-1" Cut="0.0000000000000000e+00" cType="1" res="2.5409346562810242e-04" rms="4.2873990535736084e-01" purity="3.7200003862380981e-01" nType="-99"/>
            <Node pos="r" depth="3" NCoef="0" IVar="-1" Cut="0.0000000000000000e+00" cType="1" res="1.7135079251602292e-03" rms="4.0374660491943359e-01" purity="7.1822208166122437e-01" nType="-99"/>
          </Node>
        </Node>
        <Node pos="r" depth="1" NCoef="0" IVar="1" Cut="1.0059082812500000e+05" cType="1" res="3.5905098915100098e-01" rms="2.6817062497138977e-01" purity="9.1604202985763550e-01" nType="0">
          <Node pos="l" depth="2" NCoef="0" IVar="3" Cut="8.4172984375000000e+04" cType="1" res="2.8530377149581909e-01" rms="3.5712665319442749e-01" purity="8.3637923002243042e-01" nType="0">
            <Node pos="l" depth="3" NCoef="0" IVar="-1" Cut="0.0000000000000000e+00" cType="1" res="1.6653211787343025e-03" rms="4.6268782019615173e-01" purity="6.6828662157058716e-01" nType="-99"/>
            <Node pos="r" depth="3" NCoef="0" IVar="-1" Cut="0.0000000000000000e+00" cType="1" res="2.8884671628475189e-03" rms="1.9728553295135498e-01" purity="9.5921146869659424e-01" nType="-99"/>
          </Node>
          <Node pos="r" depth="2" NCoef="0" IVar="0" Cut="1.3333333730697632e+00" cType="1" res="4.1619473695755005e-01" rms="1.4606544375419617e-01" purity="9.7776961326599121e-01" nType="0">
            <Node pos="l" depth="3" NCoef="0" IVar="-1" Cut="0.0000000000000000e+00" cType="1" res="2.6742785703390837e-03" rms="1.2644030153751373e-01" purity="9.8330175876617432e-01" nType="-99"/>
            <Node pos="r" depth="3" NCoef="0" IVar="-1" Cut="0.0000000000000000e+00" cType="1" res="3.3875540830194950e-03" rms="1.7699404060840607e-01" purity="9.6723550558090210e-01" nType="-99"/>
          </Node>
        </Node>
      </Node>
    </BinaryTree>
    <BinaryTree type="DecisionTree" boostWeight="1.0000000000000000e+00" itree="46">
      <Node pos="s" depth="0" NCoef="0" IVar="3" Cut="3.7185378906250000e+04" cType="1" res="9.3759074807167053e-02" rms="3.6919748783111572e-01" purity="4.7568410634994507e-01" nType="0">
        <Node pos="l" depth="1" NCoef="0" IVar="1" Cut="1.3873140625000000e+05" cType="1" res="-1.1816468089818954e-01" rms="2.6517194509506226e-01" purity="1.0993023961782455e-01" nType="0">
          <Node pos="l" depth="2" NCoef="0" IVar="1" Cut="1.1457807031250000e+05" cType="1" res="-1.4251723885536194e-01" rms="2.2465851902961731e-01" purity="6.0862638056278229e-02" nType="0">
            <Node pos="l" depth="3" NCoef="0" IVar="-1" Cut="0.0000000000000000e+00" cType="1" res="-1.9993705675005913e-02" rms="1.9087214767932892e-01" purity="3.9503790438175201e-02" nType="-99"/>
            <Node pos="r" depth="3" NCoef="0" IVar="-1" Cut="0.0000000000000000e+00" cType="1" res="2.3312920238822699e-03" rms="4.9406245350837708e-01" purity="5.0836336612701416e-01" nType="-99"/>
          </Node>
          <Node pos="r" depth="2" NCoef="0" IVar="-1" Cut="0.0000000000000000e+00" cType="1" res="2.2881759796291590e-03" rms="4.6355080604553223e-01" purity="6.8864309787750244e-01" nType="-99"/>
        </Node>
        <Node pos="r" depth="1" NCoef="0" IVar="3" Cut="7.2483031250000000e+04" cType="1" res="3.0081734061241150e-01" rms="3.3768132328987122e-01" purity="8.3304071426391602e-01" nType="0">
          <Node pos="l" depth="2" NCoef="0" IVar="2" Cut="2.4941017187500000e+05" cType="1" res="1.8536764383316040e-01" rms="4.3307504057884216e-01" purity="6.7106789350509644e-01" nType="0">
            <Node pos="l" depth="3" NCoef="0" IVar="-1" Cut="0.0000000000000000e+00" cType="1" res="-5.4801952501293272e-05" rms="4.6408751606941223e-01" purity="4.5388966798782349e-01" nType="-99"/>
            <Node pos="r" depth="3" NCoef="0" IVar="-1" Cut="0.0000000000000000e+00" cType="1" res="1.6523775411769748e-03" rms="3.9078873395919800e-01" purity="7.6699024438858032e-01" nType="-99"/>
          </Node>
          <Node pos="r" depth="2" NCoef="0" IVar="1" Cut="9.5234882812500000e+04" cType="1" res="3.9170172810554504e-01" rms="1.9337904453277588e-01" purity="9.6054917573928833e-01" nType="0">
            <Node pos="l" depth="3" NCoef="0" IVar="-1" Cut="0.0000000000000000e+00" cType="1" res="2.9582930728793144e-03" rms="2.5314795970916748e-01" purity="9.2983394861221313e-01" nType="-99"/>
            <Node pos="r" depth="3" NCoef="0" IVar="-1" Cut="0.0000000000000000e+00" cType="1" res="3.0995230190455914e-03" rms="1.2797221541404724e-01" purity="9.8326206207275391e-01" nType="-99"/>
          </Node>
        </Node>
      </Node>
    </BinaryTree>
    <BinaryTree type="DecisionTree" boostWeight="1.0000000000000000e+00" itree="47">
      <Node pos="s" depth="0" NCoef="0" IVar="3" Cut="6.8798242187500000e+04" cType="1" res="1.2024497985839844e-01" rms="3.7529996037483215e-01" purity="5.0518828630447388e-01" nType="0">
        <Node pos="l" depth="1" NCoef="0" IVar="1" Cut="1.3640723437500000e+05" cType="1" res="1.5244714915752411e-02" rms="3.7434908747673035e-01" purity="3.2534328103065491e-01" nType="0">
          <Node pos="l" depth="2" NCoef="0" IVar="1" Cut="1.1264940625000000e+05" cType="1" res="-5.0363387912511826e-02" rms="3.5006940364837646e-01" purity="2.1174462139606476e-01" nType="0">
            <Node pos="l" depth="3" NCoef="0" IVar="-1" Cut="0.0000000000000000e+00" cType="1" res="-3.1084457878023386e-03" rms="3.2308903336524963e-01" purity="1.6395190358161926e-01" nType="-99"/>
            <Node pos="r" depth="3" NCoef="0" IVar="-1" Cut="0.0000000000000000e+00" cType="1" res="2.0511317998170853e-03" rms="4.0134298801422119e-01" purity="7.5777345895767212e-01" nType="-99"/>
          </Node>
          <Node pos="r" depth="2" NCoef="0" IVar="3" Cut="3.5926214843750000e+04" cType="1" res="3.3327585458755493e-01" rms="3.2153996825218201e-01" purity="8.7600570917129517e-01" nType="0">
            <Node pos="l" depth="3" NCoef="0" IVar="-1" Cut="0.0000000000000000e+00" cType="1" res="1.6531002474948764e-03" rms="4.3045911192893982e-01" purity="7.4058508872985840e-01" nType="-99"/>
            <Node pos="r" depth="3" NCoef="0" IVar="-1" Cut="0.0000000000000000e+00" cType="1" res="1.7651389352977276e-03" rms="1.9019491970539093e-01" purity="9.6201938390731812e-01" nType="-99"/>
          </Node>
        </Node>
        <Node pos="r" depth="1" NCoef="0" IVar="1" Cut="1.2544667187500000e+05" cType="1" res="3.7889271974563599e-01" rms="2.2033891081809998e-01" purity="9.4820135831832886e-01" nType="0">
          <Node pos="l" depth="2" NCoef="0" IVar="3" Cut="9.8220000000000000e+04" cType="1" res="3.5339406132698059e-01" rms="2.6605594158172607e-01" purity="9.2228657007217407e-01" nType="0">
            <Node pos="l" depth="3" NCoef="0" IVar="-1" Cut="0.0000000000000000e+00" cType="1" res="1.8676003674045205e-03" rms="3.4152606129646301e-01" purity="8.6399626731872559e-01" nType="-99"/>
            <Node pos="r" depth="3" NCoef="0" IVar="-1" Cut="0.0000000000000000e+00" cType="1" res="3.1212896574288607e-03" rms="1.9777879118919373e-01" purity="9.5927524566650391e-01" nType="-99"/>
          </Node>
          <Node pos="r" depth="2" NCoef="0" IVar="-1" Cut="0.0000000000000000e+00" cType="1" res="2.1615738514810801e-03" rms="1.0984639823436737e-01" purity="9.8779302835464478e-01" nType="-99"/>
        </Node>
      </Node>
    </BinaryTree>
    <BinaryTree type="DecisionTree" boostWeight="1.0000000000000000e+00" itree="48">
      <Node pos="s" depth="0" NCoef="0" IVar="3" Cut="5.4198226562500000e+04" cType="1" res="1.2112211436033249e-01" rms="3.6860275268554688e-01" purity="5.0809884071350098e-01" nType="0">
        <Node pos="l" depth="1" NCoef="0" IVar="1" Cut="1.3641148437500000e+05" cType="1" res="-3.1132096424698830e-02" rms="3.5079771280288696e-01" purity="2.4700042605400085e-01" nType="0">
          <Node pos="l" depth="2" NCoef="0" IVar="1" Cut="1.0074393750000000e+05" cType="1" res="-7.6954178512096405e-02" rms="3.2162746787071228e-01" purity="1.6421304643154144e-01" nType="0">
            <Node pos="l" depth="3" NCoef="0" IVar="-1" Cut="0.0000000000000000e+00" cType="1" res="-7.8779589384794235e-03" rms="2.7864366769790649e-01" purity="1.0547892004251480e-01" nType="-99"/>
            <Node pos="r" depth="3" NCoef="0" IVar="-1" Cut="0.0000000000000000e+00" cType="1" res="9.0371014084666967e-04" rms="4.3134811520576477e-01" purity="5.5036658048629761e-01" nType="-99"/>
          </Node>
          <Node pos="r" depth="2" NCoef="0" IVar="3" Cut="2.3219601562500000e+04" cType="1" res="2.8475558757781982e-01" rms="3.7949925661087036e-01" purity="8.1771898269653320e-01" nType="0">
            <Node pos="l" depth="3" NCoef="0" IVar="-1" Cut="0.0000000000000000e+00" cType="1" res="7.6063378946855664e-04" rms="4.8944118618965149e-01" purity="5.7579928636550903e-01" nType="-99"/>
            <Node pos="r" depth="3" NCoef="0" IVar="-1" Cut="0.0000000000000000e+00" cType="1" res="3.2849556300789118e-03" rms="2.6985183358192444e-01" purity="9.2037612199783325e-01" nType="-99"/>
          </Node>
        </Node>
        <Node pos="r" depth="1" NCoef="0" IVar="1" Cut="1.2534551562500000e+05" cType="1" res="3.7154945731163025e-01" rms="2.3684091866016388e-01" purity="9.3755292892456055e-01" nType="0">
          <Node pos="l" depth="2" NCoef="0" IVar="3" Cut="8.9380812500000000e+04" cType="1" res="3.3090648055076599e-01" rms="2.9966956377029419e-01" purity="8.9502334594726562e-01" nType="0">
            <Node pos="l" depth="3" NCoef="0" IVar="-1" Cut="0.0000000000000000e+00" cType="1" res="1.8387133022770286e-03" rms="4.2353150248527527e-01" purity="7.5899672508239746e-01" nType="-99"/>
            <Node pos="r" depth="3" NCoef="0" IVar="-1" Cut="0.0000000000000000e+00" cType="1" res="3.0767945572733879e-03" rms="1.5736697614192963e-01" purity="9.7452348470687866e-01" nType="-99"/>
          </Node>
          <Node pos="r" depth="2" NCoef="0" IVar="-1" Cut="0.0000000000000000e+00" cType="1" res="2.3341090418398380e-03" rms="1.0662540793418884e-01" purity="9.8849523067474365e-01" nType="-99"/>
        </Node>
      </Node>
    </BinaryTree>
    <BinaryTree type="DecisionTree" boostWeight="1.0000000000000000e+00" itree="49">
      <Node pos="s" depth="0" NCoef="0" IVar="3" Cut="3.8014234375000000e+04" cType="1" res="1.1631494760513306e-01" rms="3.6620271205902100e-01" purity="4.9948304891586304e-01" nType="0">
        <Node pos="l" depth="1" NCoef="0" IVar="1" Cut="1.2715934375000000e+05" cType="1" res="-8.9553855359554291e-02" rms="2.8655797243118286e-01" purity="1.3215257227420807e-01" nType="0">
          <Node pos="l" depth="2" NCoef="0" IVar="1" Cut="1.1068921875000000e+05" cType="1" res="-1.2011071294546127e-01" rms="2.4552468955516815e-01" purity="7.3324978351593018e-02" nType="0">
            <Node pos="l" depth="3" NCoef="0" IVar="-1" Cut="0.0000000000000000e+00" cType="1" res="-1.7228178679943085e-02" rms="2.2696729004383087e-01" purity="5.8966279029846191e-02" nType="-99"/>
            <Node pos="r" depth="3" NCoef="0" IVar="-1" Cut="0.0000000000000000e+00" cType="1" res="3.5998176317662001e-03" rms="4.7597470879554749e-01" purity="4.9031522870063782e-01" nType="-99"/>
          </Node>
          <Node pos="r" depth="2" NCoef="0" IVar="3" Cut="1.8855833984375000e+04" cType="1" res="2.1623857319355011e-01" rms="4.4469463825225830e-01" purity="7.2085928916931152e-01" nType="0">
            <Node pos="l" depth="3" NCoef="0" IVar="-1" Cut="0.0000000000000000e+00" cType="1" res="1.8196350429207087e-03" rms="4.8960670828819275e-01" purity="6.1944097280502319e-01" nType="-99"/>
            <Node pos="r" depth="3" NCoef="0" IVar="-1" Cut="0.0000000000000000e+00" cType="1" res="2.9706212226301432e-03" rms="3.9712187647819519e-01" purity="7.9497390985488892e-01" nType="-99"/>
          </Node>
        </Node>
        <Node pos="r" depth="1" NCoef="0" IVar="3" Cut="7.3958726562500000e+04" cType="1" res="3.1285461783409119e-01" rms="3.2349380850791931e-01" purity="8.5016757249832153e-01" nType="0">
          <Node pos="l" depth="2" NCoef="0" IVar="2" Cut="2.8271503125000000e+05" cType="1" res="2.1222175657749176e-01" rms="4.2013061046600342e-01" purity="7.0774948596954346e-01" nType="0">
            <Node pos="l" depth="3" NCoef="0" IVar="-1" Cut="0.0000000000000000e+00" cType="1" res="1.0027615353465080e-03" rms="4.7177490592002869e-01" purity="5.4789811372756958e-01" nType="-99"/>
            <Node pos="r" depth="3" NCoef="0" IVar="-1" Cut="0.0000000000000000e+00" cType="1" res="1.6817701980471611e-03" rms="3.5751986503601074e-01" purity="8.1390899419784546e-01" nType="-99"/>
          </Node>
          <Node pos="r" depth="2" NCoef="0" IVar="1" Cut="1.0342598437500000e+05" cType="1" res="3.9853736758232117e-01" rms="1.6582684218883514e-01" purity="9.7142779827117920e-01" nType="0">
            <Node pos="l" depth="3" NCoef="0" IVar="-1" Cut="0.0000000000000000e+00" cType="1" res="3.4122071228921413e-03" rms="2.2859880328178406e-01" purity="9.4387680292129517e-01" nType="-99"/>
            <Node pos="r" depth="3" NCoef="0" IVar="-1" Cut="0.0000000000000000e+00" cType="1" res="2.4659759365022182e-03" rms="9.8661281168460846e-02" purity="9.9018996953964233e-01" nType="-99"/>
          </Node>
        </Node>
      </Node>
    </BinaryTree>
    <BinaryTree type="DecisionTree" boostWeight="1.0000000000000000e+00" itree="50">
      <Node pos="s" depth="0" NCoef="0" IVar="3" Cut="6.8736484375000000e+04" cType="1" res="1.3436803221702576e-01" rms="3.7538203597068787e-01" purity="5.1481920480728149e-01" nType="0">
        <Node pos="l" depth="1" NCoef="0" IVar="3" Cut="4.5805535156250000e+04" cType="1" res="1.7218252643942833e-02" rms="3.8222786784172058e-01" purity="3.0996918678283691e-01" nType="0">
          <Node pos="l" depth="2" NCoef="0" IVar="1" Cut="1.7489954687500000e+05" cType="1" res="-2.9839454218745232e-02" rms="3.5607901215553284e-01" purity="2.1234257519245148e-01" nType="0">
            <Node pos="l" depth="3" NCoef="0" IVar="-1" Cut="0.0000000000000000e+00" cType="1" res="-2.1398244425654411e-03" rms="3.4443843364715576e-01" purity="1.6952733695507050e-01" nType="-99"/>
            <Node pos="r" depth="3" NCoef="0" IVar="-1" Cut="0.0000000000000000e+00" cType="1" res="2.0125554874539375e-03" rms="3.9278888702392578e-01" purity="8.0746501684188843e-01" nType="-99"/>
          </Node>
          <Node pos="r" depth="2" NCoef="0" IVar="5" Cut="8.9608195312500000e+04" cType="1" res="2.2509433329105377e-01" rms="4.2235851287841797e-01" purity="7.4123203754425049e-01" nType="0">
            <Node pos="l" depth="3" NCoef="0" IVar="-1" Cut="0.0000000000000000e+00" cType="1" res="1.5459719579666853e-03" rms="3.3802890777587891e-01" purity="8.5976982116699219e-01" nType="-99"/>
            <Node pos="r" depth="3" NCoef="0" IVar="-1" Cut="0.0000000000000000e+00" cType="1" res="1.6608919249847531e-03" rms="4.5677772164344788e-01" purity="6.5079438686370850e-01" nType="-99"/>
          </Node>
        </Node>
        <Node pos="r" depth="1" NCoef="0" IVar="1" Cut="1.0168853906250000e+05" cType="1" res="3.9201888442039490e-01" rms="1.8148617446422577e-01" purity="9.6535170078277588e-01" nType="0">
          <Node pos="l" depth="2" NCoef="0" IVar="1" Cut="8.8895921875000000e+04" cType="1" res="3.6933612823486328e-01" rms="2.2960858047008514e-01" purity="9.4300603866577148e-01" nType="0">
            <Node pos="l" depth="3" NCoef="0" IVar="-1" Cut="0.0000000000000000e+00" cType="1" res="2.8081208001822233e-03" rms="2.0029060542583466e-01" purity="9.5743483304977417e-01" nType="-99"/>
            <Node pos="r" depth="3" NCoef="0" IVar="-1" Cut="0.0000000000000000e+00" cType="1" res="2.0287407096475363e-03" rms="3.7677976489067078e-01" purity="8.2362926006317139e-01" nType="-99"/>
          </Node>
          <Node pos="r" depth="2" NCoef="0" IVar="-1" Cut="0.0000000000000000e+00" cType="1" res="1.9739710260182619e-03" rms="1.1494848132133484e-01" purity="9.8655617237091064e-01" nType="-99"/>
        </Node>
      </Node>
    </BinaryTree>
    <BinaryTree type="DecisionTree" boostWeight="1.0000000000000000e+00" itree="51">
      <Node pos="s" depth="0" NCoef="0" IVar="3" Cut="5.4345996093750000e+04" cType="1" res="1.1073381453752518e-01" rms="3.6444997787475586e-01" purity="4.8847976326942444e-01" nType="0">
        <Node pos="l" depth="1" NCoef="0" IVar="1" Cut="1.5587295312500000e+05" cType="1" res="-3.4359131008386612e-02" rms="3.4203106164932251e-01" purity="2.3493115603923798e-01" nType="0">
          <Node pos="l" depth="2" NCoef="0" IVar="1" Cut="1.0784796875000000e+05" cType="1" res="-6.9720797240734100e-02" rms="3.2053953409194946e-01" purity="1.6872893273830414e-01" nType="0">
            <Node pos="l" depth="3" NCoef="0" IVar="-1" Cut="0.0000000000000000e+00" cType="1" res="-8.9467586949467659e-03" rms="2.7726405858993530e-01" purity="1.0401497781276703e-01" nType="-99"/>
            <Node pos="r" depth="3" NCoef="0" IVar="-1" Cut="0.0000000000000000e+00" cType="1" res="1.2344401329755783e-03" rms="4.2726886272430420e-01" purity="6.7023646831512451e-01" nType="-99"/>
          </Node>
          <Node pos="r" depth="2" NCoef="0" IVar="-1" Cut="0.0000000000000000e+00" cType="1" res="1.9848775118589401e-03" rms="3.6264666914939880e-01" purity="8.3821636438369751e-01" nType="-99"/>
        </Node>
        <Node pos="r" depth="1" NCoef="0" IVar="3" Cut="1.0590150000000000e+05" cType="1" res="3.6613363027572632e-01" rms="2.4169769883155823e-01" purity="9.3478852510452271e-01" nType="0">
          <Node pos="l" depth="2" NCoef="0" IVar="3" Cut="6.4133140625000000e+04" cType="1" res="3.3823382854461670e-01" rms="2.9540601372718811e-01" purity="8.9931297302246094e-01" nType="0">
            <Node pos="l" depth="3" NCoef="0" IVar="-1" Cut="0.0000000000000000e+00" cType="1" res="1.6591802705079317e-03" rms="4.5358857512474060e-01" purity="6.9628471136093140e-01" nType="-99"/>
            <Node pos="r" depth="3" NCoef="0" IVar="-1" Cut="0.0000000000000000e+00" cType="1" res="2.6560779660940170e-03" rms="2.3421658575534821e-01" purity="9.4060432910919189e-01" nType="-99"/>
          </Node>
          <Node pos="r" depth="2" NCoef="0" IVar="5" Cut="9.0629726562500000e+04" cType="1" res="4.0419569611549377e-01" rms="1.2865826487541199e-01" purity="9.8318576812744141e-01" nType="0">
            <Node pos="l" depth="3" NCoef="0" IVar="-1" Cut="0.0000000000000000e+00" cType="1" res="3.5141617991030216e-03" rms="1.5498638153076172e-01" purity="9.7538709640502930e-01" nType="-99"/>
            <Node pos="r" depth="3" NCoef="0" IVar="-1" Cut="0.0000000000000000e+00" cType="1" res="3.3263938967138529e-03" rms="1.0745559632778168e-01" purity="9.8833733797073364e-01" nType="-99"/>
          </Node>
        </Node>
      </Node>
    </BinaryTree>
    <BinaryTree type="DecisionTree" boostWeight="1.0000000000000000e+00" itree="52">
      <Node pos="s" depth="0" NCoef="0" IVar="3" Cut="3.7870195312500000e+04" cType="1" res="1.0827458649873734e-01" rms="3.6324715614318848e-01" purity="4.8778739571571350e-01" nType="0">
        <Node pos="l" depth="1" NCoef="0" IVar="4" Cut="4.9805131250000000e+05" cType="1" res="-8.6209848523139954e-02" rms="2.8238913416862488e-01" purity="1.3278947770595551e-01" nType="0">
          <Node pos="l" depth="2" NCoef="0" IVar="1" Cut="1.1765682812500000e+05" cType="1" res="-1.1053634434938431e-01" rms="2.5412890315055847e-01" purity="9.5902979373931885e-02" nType="0">
            <Node pos="l" depth="3" NCoef="0" IVar="-1" Cut="0.0000000000000000e+00" cType="1" res="-1.7961297184228897e-02" rms="2.0401057600975037e-01" purity="4.4944424182176590e-02" nType="-99"/>
            <Node pos="r" depth="3" NCoef="0" IVar="-1" Cut="0.0000000000000000e+00" cType="1" res="1.9660450052469969e-03" rms="4.7753536701202393e-01" purity="6.1179643869400024e-01" nType="-99"/>
          </Node>
          <Node pos="r" depth="2" NCoef="0" IVar="1" Cut="9.4999695312500000e+04" cType="1" res="1.6163714230060577e-01" rms="4.0836679935455322e-01" purity="5.0860226154327393e-01" nType="0">
            <Node pos="l" depth="3" NCoef="0" IVar="-1" Cut="0.0000000000000000e+00" cType="1" res="-7.0033239899203181e-04" rms="3.7054038047790527e-01" purity="1.7628772556781769e-01" nType="-99"/>
            <Node pos="r" depth="3" NCoef="0" IVar="-1" Cut="0.0000000000000000e+00" cType="1" res="3.3349976874887943e-03" rms="3.9142102003097534e-01" purity="7.3230129480361938e-01" nType="-99"/>
          </Node>
        </Node>
        <Node pos="r" depth="1" NCoef="0" IVar="3" Cut="7.3820312500000000e+04" cType="1" res="3.0185255408287048e-01" rms="3.2983288168907166e-01" purity="8.4113067388534546e-01" nType="0">
          <Node pos="l" depth="2" NCoef="0" IVar="1" Cut="1.0395620312500000e+05" cType="1" res="1.9610401988029480e-01" rms="4.2503285408020020e-01" purity="6.9048953056335449e-01" nType="0">
            <Node pos="l" depth="3" NCoef="0" IVar="-1" Cut="0.0000000000000000e+00" cType="1" res="8.1493362085893750e-04" rms="4.6791276335716248e-01" purity="5.3780758380889893e-01" nType="-99"/>
            <Node pos="r" depth="3" NCoef="0" IVar="-1" Cut="0.0000000000000000e+00" cType="1" res="2.5912427809089422e-03" rms="2.6613873243331909e-01" purity="9.1826117038726807e-01" nType="-99"/>
          </Node>
          <Node pos="r" depth="2" NCoef="0" IVar="1" Cut="1.1128134375000000e+05" cType="1" res="3.9041477441787720e-01" rms="1.7719252407550812e-01" purity="9.6728956699371338e-01" nType="0">
            <Node pos="l" depth="3" NCoef="0" IVar="-1" Cut="0.0000000000000000e+00" cType="1" res="3.0833669006824493e-03" rms="2.2841361165046692e-01" purity="9.4414877891540527e-01" nType="-99"/>
            <Node pos="r" depth="3" NCoef="0" IVar="-1" Cut="0.0000000000000000e+00" cType="1" res="2.0053558982908726e-03" rms="9.9668182432651520e-02" purity="9.8995733261108398e-01" nType="-99"/>
          </Node>
        </Node>
      </Node>
    </BinaryTree>
    <BinaryTree type="DecisionTree" boostWeight="1.0000000000000000e+00" itree="53">
      <Node pos="s" depth="0" NCoef="0" IVar="3" Cut="6.8736484375000000e+04" cType="1" res="1.2941791117191315e-01" rms="3.6054325103759766e-01" purity="5.1565837860107422e-01" nType="0">
        <Node pos="l" depth="1" NCoef="0" IVar="3" Cut="3.2759246093750000e+04" cType="1" res="7.2092027403414249e-04" rms="3.5869011282920837e-01" purity="2.9360884428024292e-01" nType="0">
          <Node pos="l" depth="2" NCoef="0" IVar="1" Cut="1.2714367968750000e+05" cType="1" res="-9.5586389303207397e-02" rms="2.5427493453025818e-01" purity="1.1331371217966080e-01" nType="0">
            <Node pos="l" depth="3" NCoef="0" IVar="-1" Cut="0.0000000000000000e+00" cType="1" res="-2.3231275379657745e-02" rms="1.9047106802463531e-01" purity="4.0952518582344055e-02" nType="-99"/>
            <Node pos="r" depth="3" NCoef="0" IVar="-1" Cut="0.0000000000000000e+00" cType="1" res="2.4975247215479612e-03" rms="4.4361740350723267e-01" purity="7.1676927804946899e-01" nType="-99"/>
          </Node>
          <Node pos="r" depth="2" NCoef="0" IVar="2" Cut="2.6755650000000000e+05" cType="1" res="1.6814425587654114e-01" rms="4.4245710968971252e-01" purity="6.0703891515731812e-01" nType="0">
            <Node pos="l" depth="3" NCoef="0" IVar="-1" Cut="0.0000000000000000e+00" cType="1" res="1.3418372254818678e-03" rms="4.7014725208282471e-01" purity="4.8177126049995422e-01" nType="-99"/>
            <Node pos="r" depth="3" NCoef="0" IVar="-1" Cut="0.0000000000000000e+00" cType="1" res="1.5550190582871437e-03" rms="4.0757068991661072e-01" purity="7.0690470933914185e-01" nType="-99"/>
          </Node>
        </Node>
        <Node pos="r" depth="1" NCoef="0" IVar="1" Cut="1.1128134375000000e+05" cType="1" res="3.9181914925575256e-01" rms="1.7344835400581360e-01" purity="9.6839678287506104e-01" nType="0">
          <Node pos="l" depth="2" NCoef="0" IVar="3" Cut="9.8442578125000000e+04" cType="1" res="3.7101238965988159e-01" rms="2.1978496015071869e-01" purity="9.4795560836791992e-01" nType="0">
            <Node pos="l" depth="3" NCoef="0" IVar="-1" Cut="0.0000000000000000e+00" cType="1" res="2.0173597149550915e-03" rms="3.0419284105300903e-01" purity="8.9565527439117432e-01" nType="-99"/>
            <Node pos="r" depth="3" NCoef="0" IVar="-1" Cut="0.0000000000000000e+00" cType="1" res="3.0927099287509918e-03" rms="1.3506042957305908e-01" purity="9.8138290643692017e-01" nType="-99"/>
          </Node>
          <Node pos="r" depth="2" NCoef="0" IVar="-1" Cut="0.0000000000000000e+00" cType="1" res="2.1254657767713070e-03" rms="9.7028292715549469e-02" purity="9.9049258232116699e-01" nType="-99"/>
        </Node>
      </Node>
    </BinaryTree>
    <BinaryTree type="DecisionTree" boostWeight="1.0000000000000000e+00" itree="54">
      <Node pos="s" depth="0" NCoef="0" IVar="3" Cut="6.8942281250000000e+04" cType="1" res="1.2885975837707520e-01" rms="3.6722961068153381e-01" purity="5.0721698999404907e-01" nType="0">
        <Node pos="l" depth="1" NCoef="0" IVar="1" Cut="1.0374275000000000e+05" cType="1" res="2.3346235975623131e-02" rms="3.7026673555374146e-01" purity="3.1724259257316589e-01" nType="0">
          <Node pos="l" depth="2" NCoef="0" IVar="1" Cut="8.1905015625000000e+04" cType="1" res="-6.6476188600063324e-02" rms="3.1853714585304260e-01" purity="1.6650523245334625e-01" nType="0">
            <Node pos="l" depth="3" NCoef="0" IVar="-1" Cut="0.0000000000000000e+00" cType="1" res="2.0912420004606247e-03" rms="4.3042427301406860e-01" purity="4.1816237568855286e-01" nType="-99"/>
            <Node pos="r" depth="3" NCoef="0" IVar="-1" Cut="0.0000000000000000e+00" cType="1" res="-1.5525252558290958e-02" rms="2.0589275658130646e-01" purity="5.5168993771076202e-02" nType="-99"/>
          </Node>
          <Node pos="r" depth="2" NCoef="0" IVar="3" Cut="3.6238812500000000e+04" cType="1" res="2.9474633932113647e-01" rms="3.8304439187049866e-01" purity="7.7269822359085083e-01" nType="0">
            <Node pos="l" depth="3" NCoef="0" IVar="-1" Cut="0.0000000000000000e+00" cType="1" res="2.7905609458684921e-03" rms="4.4678157567977905e-01" purity="6.3039427995681763e-01" nType="-99"/>
            <Node pos="r" depth="3" NCoef="0" IVar="-1" Cut="0.0000000000000000e+00" cType="1" res="2.1734447218477726e-03" rms="2.8255295753479004e-01" purity="9.1010957956314087e-01" nType="-99"/>
          </Node>
        </Node>
        <Node pos="r" depth="1" NCoef="0" IVar="1" Cut="1.2527707812500000e+05" cType="1" res="3.7852135300636292e-01" rms="2.0219822227954865e-01" purity="9.5672625303268433e-01" nType="0">
          <Node pos="l" depth="2" NCoef="0" IVar="3" Cut="9.3975132812500000e+04" cType="1" res="3.6010566353797913e-01" rms="2.3834180831909180e-01" purity="9.3857264518737793e-01" nType="0">
            <Node pos="l" depth="3" NCoef="0" IVar="-1" Cut="0.0000000000000000e+00" cType="1" res="1.6923890216276050e-03" rms="3.2607597112655640e-01" purity="8.7821692228317261e-01" nType="-99"/>
            <Node pos="r" depth="3" NCoef="0" IVar="-1" Cut="0.0000000000000000e+00" cType="1" res="3.3182408660650253e-03" rms="1.7571888864040375e-01" purity="9.6812784671783447e-01" nType="-99"/>
          </Node>
          <Node pos="r" depth="2" NCoef="0" IVar="-1" Cut="0.0000000000000000e+00" cType="1" res="3.0732788145542145e-03" rms="1.0955846309661865e-01" purity="9.8785406351089478e-01" nType="-99"/>
        </Node>
      </Node>
    </BinaryTree>
    <BinaryTree type="DecisionTree" boostWeight="1.0000000000000000e+00" itree="55">
      <Node pos="s" depth="0" NCoef="0" IVar="3" Cut="5.4198226562500000e+04" cType="1" res="1.2158953398466110e-01" rms="3.6397686600685120e-01" purity="4.9729281663894653e-01" nType="0">
        <Node pos="l" depth="1" NCoef="0" IVar="1" Cut="1.3875028125000000e+05" cType="1" res="-6.6207856871187687e-03" rms="3.5032528638839722e-01" purity="2.5557205080986023e-01" nType="0">
          <Node pos="l" depth="2" NCoef="0" IVar="1" Cut="7.2352546875000000e+04" cType="1" res="-6.3991881906986237e-02" rms="3.1821259856224060e-01" purity="1.4793518185615540e-01" nType="0">
            <Node pos="l" depth="3" NCoef="0" IVar="-1" Cut="0.0000000000000000e+00" cType="1" res="3.0207396484911442e-03" rms="4.4755795598030090e-01" purity="4.0488690137863159e-01" nType="-99"/>
            <Node pos="r" depth="3" NCoef="0" IVar="-1" Cut="0.0000000000000000e+00" cType="1" res="-4.6314634382724762e-03" rms="2.5823175907135010e-01" purity="8.6990825831890106e-02" nType="-99"/>
          </Node>
          <Node pos="r" depth="2" NCoef="0" IVar="3" Cut="2.0666726562500000e+04" cType="1" res="3.1131491065025330e-01" rms="3.4982502460479736e-01" purity="8.5206764936447144e-01" nType="0">
            <Node pos="l" depth="3" NCoef="0" IVar="-1" Cut="0.0000000000000000e+00" cType="1" res="1.7406182596459985e-03" rms="4.4790980219841003e-01" purity="7.0351904630661011e-01" nType="-99"/>
            <Node pos="r" depth="3" NCoef="0" IVar="-1" Cut="0.0000000000000000e+00" cType="1" res="3.1981337815523148e-03" rms="2.8645652532577515e-01" purity="9.1039556264877319e-01" nType="-99"/>
          </Node>
        </Node>
        <Node pos="r" depth="1" NCoef="0" IVar="1" Cut="1.0175697656250000e+05" cType="1" res="3.4546518325805664e-01" rms="2.6586294174194336e-01" purity="9.1937577724456787e-01" nType="0">
          <Node pos="l" depth="2" NCoef="0" IVar="3" Cut="8.9372210937500000e+04" cType="1" res="2.8675863146781921e-01" rms="3.3787766098976135e-01" purity="8.5953557491302490e-01" nType="0">
            <Node pos="l" depth="3" NCoef="0" IVar="-1" Cut="0.0000000000000000e+00" cType="1" res="1.4030395541340113e-03" rms="4.6493908762931824e-01" purity="6.7049491405487061e-01" nType="-99"/>
            <Node pos="r" depth="3" NCoef="0" IVar="-1" Cut="0.0000000000000000e+00" cType="1" res="2.9557079542428255e-03" rms="1.9621294736862183e-01" purity="9.5970904827117920e-01" nType="-99"/>
          </Node>
          <Node pos="r" depth="2" NCoef="0" IVar="5" Cut="9.0552585937500000e+04" cType="1" res="4.0063148736953735e-01" rms="1.5344336628913879e-01" purity="9.7560721635818481e-01" nType="0">
            <Node pos="l" depth="3" NCoef="0" IVar="-1" Cut="0.0000000000000000e+00" cType="1" res="2.0312215201556683e-03" rms="1.6900944709777832e-01" purity="9.7019022703170776e-01" nType="-99"/>
            <Node pos="r" depth="3" NCoef="0" IVar="-1" Cut="0.0000000000000000e+00" cType="1" res="2.2072577849030495e-03" rms="1.3791699707508087e-01" purity="9.8040676116943359e-01" nType="-99"/>
          </Node>
        </Node>
      </Node>
    </BinaryTree>
    <BinaryTree type="DecisionTree" boostWeight="1.0000000000000000e+00" itree="56">
      <Node pos="s" depth="0" NCoef="0" IVar="3" Cut="5.4198226562500000e+04" cType="1" res="1.2766933441162109e-01" rms="3.6843469738960266e-01" purity="4.9583664536476135e-01" nType="0">
        <Node pos="l" depth="1" NCoef="0" IVar="1" Cut="1.2716917968750000e+05" cType="1" res="9.3763824552297592e-03" rms="3.6392390727996826e-01" purity="2.6701724529266357e-01" nType="0">
          <Node pos="l" depth="2" NCoef="0" IVar="1" Cut="7.7805593750000000e+04" cType="1" res="-3.6841448396444321e-02" rms="3.3706685900688171e-01" purity="1.7712254822254181e-01" nType="0">
            <Node pos="l" depth="3" NCoef="0" IVar="-1" Cut="0.0000000000000000e+00" cType="1" res="2.9924584086984396e-03" rms="4.5739552378654480e-01" purity="4.7405907511711121e-01" nType="-99"/>
            <Node pos="r" depth="3" NCoef="0" IVar="-1" Cut="0.0000000000000000e+00" cType="1" res="-1.1314904317259789e-02" rms="2.3718713223934174e-01" purity="7.6009072363376617e-02" nType="-99"/>
          </Node>
          <Node pos="r" depth="2" NCoef="0" IVar="3" Cut="1.5589989257812500e+04" cType="1" res="2.8376743197441101e-01" rms="3.9527192711830139e-01" purity="8.0071407556533813e-01" nType="0">
            <Node pos="l" depth="3" NCoef="0" IVar="-1" Cut="0.0000000000000000e+00" cType="1" res="3.1600418151356280e-04" rms="4.9457439780235291e-01" purity="5.1260876655578613e-01" nType="-99"/>
            <Node pos="r" depth="3" NCoef="0" IVar="-1" Cut="0.0000000000000000e+00" cType="1" res="2.2004595957696438e-03" rms="3.5534447431564331e-01" purity="8.5143947601318359e-01" nType="-99"/>
          </Node>
        </Node>
        <Node pos="r" depth="1" NCoef="0" IVar="1" Cut="1.0066286718750000e+05" cType="1" res="3.4914204478263855e-01" rms="2.5822517275810242e-01" purity="9.2424142360687256e-01" nType="0">
          <Node pos="l" depth="2" NCoef="0" IVar="3" Cut="8.4280875000000000e+04" cType="1" res="2.8293254971504211e-01" rms="3.4304785728454590e-01" purity="8.5498398542404175e-01" nType="0">
            <Node pos="l" depth="3" NCoef="0" IVar="-1" Cut="0.0000000000000000e+00" cType="1" res="1.5621219063177705e-03" rms="4.6240004897117615e-01" purity="6.7999148368835449e-01" nType="-99"/>
            <Node pos="r" depth="3" NCoef="0" IVar="-1" Cut="0.0000000000000000e+00" cType="1" res="2.7105335611850023e-03" rms="2.1056474745273590e-01" purity="9.5321929454803467e-01" nType="-99"/>
          </Node>
          <Node pos="r" depth="2" NCoef="0" IVar="2" Cut="3.2710928125000000e+05" cType="1" res="4.0256214141845703e-01" rms="1.3834661245346069e-01" purity="9.8012071847915649e-01" nType="0">
            <Node pos="l" depth="3" NCoef="0" IVar="-1" Cut="0.0000000000000000e+00" cType="1" res="3.1036618165671825e-03" rms="1.8408787250518799e-01" purity="9.6409988403320312e-01" nType="-99"/>
            <Node pos="r" depth="3" NCoef="0" IVar="-1" Cut="0.0000000000000000e+00" cType="1" res="3.1206784769892693e-03" rms="1.1869667470455170e-01" purity="9.8551315069198608e-01" nType="-99"/>
          </Node>
        </Node>
      </Node>
    </BinaryTree>
    <BinaryTree type="DecisionTree" boostWeight="1.0000000000000000e+00" itree="57">
      <Node pos="s" depth="0" NCoef="0" IVar="3" Cut="5.4414000000000000e+04" cType="1" res="1.2109172344207764e-01" rms="3.5486462712287903e-01" purity="5.0108617544174194e-01" nType="0">
        <Node pos="l" depth="1" NCoef="0" IVar="1" Cut="1.7492929687500000e+05" cType="1" res="-3.6736443638801575e-02" rms="3.3029049634933472e-01" purity="2.1531994640827179e-01" nType="0">
          <Node pos="l" depth="2" NCoef="0" IVar="1" Cut="1.1285921875000000e+05" cType="1" res="-7.0619851350784302e-02" rms="3.0863165855407715e-01" purity="1.4973521232604980e-01" nType="0">
            <Node pos="l" depth="3" NCoef="0" IVar="-1" Cut="0.0000000000000000e+00" cType="1" res="-9.9746668711304665e-03" rms="2.6787796616554260e-01" purity="9.1159388422966003e-02" nType="-99"/>
            <Node pos="r" depth="3" NCoef="0" IVar="-1" Cut="0.0000000000000000e+00" cType="1" res="2.6930840685963631e-03" rms="4.4796952605247498e-01" purity="6.7019796371459961e-01" nType="-99"/>
          </Node>
          <Node pos="r" depth="2" NCoef="0" IVar="-1" Cut="0.0000000000000000e+00" cType="1" res="1.9020430045202374e-03" rms="3.5169038176536560e-01" purity="8.5474097728729248e-01" nType="-99"/>
        </Node>
        <Node pos="r" depth="1" NCoef="0" IVar="1" Cut="1.0109014062500000e+05" cType="1" res="3.6264088749885559e-01" rms="2.3500652611255646e-01" purity="9.3843895196914673e-01" nType="0">
          <Node pos="l" depth="2" NCoef="0" IVar="1" Cut="8.4212726562500000e+04" cType="1" res="3.3106374740600586e-01" rms="2.8688636422157288e-01" purity="9.0426754951477051e-01" nType="0">
            <Node pos="l" depth="3" NCoef="0" IVar="-1" Cut="0.0000000000000000e+00" cType="1" res="2.4614029098302126e-03" rms="1.9666598737239838e-01" purity="9.5845270156860352e-01" nType="-99"/>
            <Node pos="r" depth="3" NCoef="0" IVar="-1" Cut="0.0000000000000000e+00" cType="1" res="1.5621676575392485e-03" rms="4.3220269680023193e-01" purity="7.3241925239562988e-01" nType="-99"/>
          </Node>
          <Node pos="r" depth="2" NCoef="0" IVar="5" Cut="9.0618523437500000e+04" cType="1" res="3.9701610803604126e-01" rms="1.5325157344341278e-01" purity="9.7563815116882324e-01" nType="0">
            <Node pos="l" depth="3" NCoef="0" IVar="-1" Cut="0.0000000000000000e+00" cType="1" res="2.7513462118804455e-03" rms="1.6215378046035767e-01" purity="9.7256952524185181e-01" nType="-99"/>
            <Node pos="r" depth="3" NCoef="0" IVar="-1" Cut="0.0000000000000000e+00" cType="1" res="2.8863190673291683e-03" rms="1.4429084956645966e-01" purity="9.7850924730300903e-01" nType="-99"/>
          </Node>
        </Node>
      </Node>
    </BinaryTree>
    <BinaryTree type="DecisionTree" boostWeight="1.0000000000000000e+00" itree="58">
      <Node pos="s" depth="0" NCoef="0" IVar="3" Cut="5.4198226562500000e+04" cType="1" res="1.1729408055543900e-01" rms="3.6076942086219788e-01" purity="4.8512122035026550e-01" nType="0">
        <Node pos="l" depth="1" NCoef="0" IVar="3" Cut="2.8415541015625000e+04" cType="1" res="-6.5973545424640179e-03" rms="3.4637087583541870e-01" purity="2.4879002571105957e-01" nType="0">
          <Node pos="l" depth="2" NCoef="0" IVar="4" Cut="5.1814646875000000e+05" cType="1" res="-7.9814285039901733e-02" rms="2.5966805219650269e-01" purity="1.1663150787353516e-01" nType="0">
            <Node pos="l" depth="3" NCoef="0" IVar="-1" Cut="0.0000000000000000e+00" cType="1" res="-8.4370970726013184e-03" rms="2.3452319204807281e-01" purity="8.3608649671077728e-02" nType="-99"/>
            <Node pos="r" depth="3" NCoef="0" IVar="-1" Cut="0.0000000000000000e+00" cType="1" res="2.9108643066138029e-03" rms="3.8689875602722168e-01" purity="5.0702750682830811e-01" nType="-99"/>
          </Node>
          <Node pos="r" depth="2" NCoef="0" IVar="2" Cut="3.5986043750000000e+05" cType="1" res="1.2001942843198776e-01" rms="4.3074238300323486e-01" purity="4.7733664512634277e-01" nType="0">
            <Node pos="l" depth="3" NCoef="0" IVar="-1" Cut="0.0000000000000000e+00" cType="1" res="1.2272006133571267e-03" rms="4.3397638201713562e-01" purity="3.8001281023025513e-01" nType="-99"/>
            <Node pos="r" depth="3" NCoef="0" IVar="-1" Cut="0.0000000000000000e+00" cType="1" res="1.6548633575439453e-03" rms="3.8854831457138062e-01" purity="6.9898450374603271e-01" nType="-99"/>
          </Node>
        </Node>
        <Node pos="r" depth="1" NCoef="0" IVar="3" Cut="1.0577060156250000e+05" cType="1" res="3.4645256400108337e-01" rms="2.6092749834060669e-01" purity="9.2225641012191772e-01" nType="0">
          <Node pos="l" depth="2" NCoef="0" IVar="1" Cut="1.0386303125000000e+05" cType="1" res="3.0285805463790894e-01" rms="3.3286723494529724e-01" purity="8.6709868907928467e-01" nType="0">
            <Node pos="l" depth="3" NCoef="0" IVar="-1" Cut="0.0000000000000000e+00" cType="1" res="2.3125351872295141e-03" rms="4.0858432650566101e-01" purity="7.7795666456222534e-01" nType="-99"/>
            <Node pos="r" depth="3" NCoef="0" IVar="-1" Cut="0.0000000000000000e+00" cType="1" res="3.0980650335550308e-03" rms="1.9545558094978333e-01" purity="9.5998746156692505e-01" nType="-99"/>
          </Node>
          <Node pos="r" depth="2" NCoef="0" IVar="3" Cut="1.5500778125000000e+05" cType="1" res="3.9521434903144836e-01" rms="1.2569388747215271e-01" purity="9.8395198583602905e-01" nType="0">
            <Node pos="l" depth="3" NCoef="0" IVar="-1" Cut="0.0000000000000000e+00" cType="1" res="3.4864549525082111e-03" rms="1.4618158340454102e-01" purity="9.7813695669174194e-01" nType="-99"/>
            <Node pos="r" depth="3" NCoef="0" IVar="-1" Cut="0.0000000000000000e+00" cType="1" res="3.6538422573357821e-03" rms="9.9378481507301331e-02" purity="9.9004572629928589e-01" nType="-99"/>
          </Node>
        </Node>
      </Node>
    </BinaryTree>
    <BinaryTree type="DecisionTree" boostWeight="1.0000000000000000e+00" itree="59">
      <Node pos="s" depth="0" NCoef="0" IVar="3" Cut="5.7862910156250000e+04" cType="1" res="1.1531492322683334e-01" rms="3.5832980275154114e-01" purity="4.8637485504150391e-01" nType="0">
        <Node pos="l" depth="1" NCoef="0" IVar="3" Cut="2.7616927734375000e+04" cType="1" res="-1.6981450840830803e-02" rms="3.4405589103698730e-01" purity="2.3750266432762146e-01" nType="0">
          <Node pos="l" depth="2" NCoef="0" IVar="3" Cut="1.4522944335937500e+04" cType="1" res="-9.8642684519290924e-02" rms="2.4042418599128723e-01" purity="8.5174903273582458e-02" nType="0">
            <Node pos="l" depth="3" NCoef="0" IVar="-1" Cut="0.0000000000000000e+00" cType="1" res="-1.3751123100519180e-02" rms="1.5441021323204041e-01" purity="4.2045742273330688e-02" nType="-99"/>
            <Node pos="r" depth="3" NCoef="0" IVar="-1" Cut="0.0000000000000000e+00" cType="1" res="-3.1008007936179638e-03" rms="2.9819530248641968e-01" purity="1.2889821827411652e-01" nType="-99"/>
          </Node>
          <Node pos="r" depth="2" NCoef="0" IVar="1" Cut="1.3382129687500000e+05" cType="1" res="1.0722482949495316e-01" rms="4.3003726005554199e-01" purity="4.6919238567352295e-01" nType="0">
            <Node pos="l" depth="3" NCoef="0" IVar="-1" Cut="0.0000000000000000e+00" cType="1" res="8.8783539831638336e-04" rms="4.3789404630661011e-01" purity="3.6285763978958130e-01" nType="-99"/>
            <Node pos="r" depth="3" NCoef="0" IVar="-1" Cut="0.0000000000000000e+00" cType="1" res="3.2344241626560688e-03" rms="2.7982899546623230e-01" purity="9.1215997934341431e-01" nType="-99"/>
          </Node>
        </Node>
        <Node pos="r" depth="1" NCoef="0" IVar="3" Cut="8.3993742187500000e+04" cType="1" res="3.5357344150543213e-01" rms="2.4118109047412872e-01" purity="9.3457990884780884e-01" nType="0">
          <Node pos="l" depth="2" NCoef="0" IVar="3" Cut="6.2836574218750000e+04" cType="1" res="2.7166646718978882e-01" rms="3.6453399062156677e-01" purity="8.3401882648468018e-01" nType="0">
            <Node pos="l" depth="3" NCoef="0" IVar="-1" Cut="0.0000000000000000e+00" cType="1" res="1.2725554406642914e-03" rms="4.4963726401329041e-01" purity="6.9650584459304810e-01" nType="-99"/>
            <Node pos="r" depth="3" NCoef="0" IVar="-1" Cut="0.0000000000000000e+00" cType="1" res="2.4639328476041555e-03" rms="3.2665780186653137e-01" purity="8.7450951337814331e-01" nType="-99"/>
          </Node>
          <Node pos="r" depth="2" NCoef="0" IVar="1" Cut="1.1202803906250000e+05" cType="1" res="3.8609248399734497e-01" rms="1.5742604434490204e-01" purity="9.7450518608093262e-01" nType="0">
            <Node pos="l" depth="3" NCoef="0" IVar="-1" Cut="0.0000000000000000e+00" cType="1" res="2.6116424705833197e-03" rms="1.9190500676631927e-01" purity="9.6146434545516968e-01" nType="-99"/>
            <Node pos="r" depth="3" NCoef="0" IVar="-1" Cut="0.0000000000000000e+00" cType="1" res="2.5587819982320070e-03" rms="1.0161326825618744e-01" purity="9.8954910039901733e-01" nType="-99"/>
          </Node>
        </Node>
      </Node>
    </BinaryTree>
    <BinaryTree type="DecisionTree" boostWeight="1.0000000000000000e+00" itree="60">
      <Node pos="s" depth="0" NCoef="0" IVar="3" Cut="4.4463175781250000e+04" cType="1" res="1.2117040902376175e-01" rms="3.4948027133941650e-01" purity="4.9807873368263245e-01" nType="0">
        <Node pos="l" depth="1" NCoef="0" IVar="1" Cut="1.7489954687500000e+05" cType="1" res="-5.9489972889423370e-02" rms="2.9581308364868164e-01" purity="1.5603083372116089e-01" nType="0">
          <Node pos="l" depth="2" NCoef="0" IVar="1" Cut="1.0502721093750000e+05" cType="1" res="-8.1122450530529022e-02" rms="2.7405890822410583e-01" purity="1.0914517939090729e-01" nType="0">
            <Node pos="l" depth="3" NCoef="0" IVar="-1" Cut="0.0000000000000000e+00" cType="1" res="-1.2737728655338287e-02" rms="2.2955527901649475e-01" purity="6.1811987310647964e-02" nType="-99"/>
            <Node pos="r" depth="3" NCoef="0" IVar="-1" Cut="0.0000000000000000e+00" cType="1" res="2.6723826304078102e-03" rms="4.5803755521774292e-01" purity="5.1881110668182373e-01" nType="-99"/>
          </Node>
          <Node pos="r" depth="2" NCoef="0" IVar="-1" Cut="0.0000000000000000e+00" cType="1" res="1.9107670523226261e-03" rms="4.0399408340454102e-01" purity="7.9222089052200317e-01" nType="-99"/>
        </Node>
        <Node pos="r" depth="1" NCoef="0" IVar="3" Cut="8.6753500000000000e+04" cType="1" res="3.3201426267623901e-01" rms="2.8285542130470276e-01" purity="8.9727360010147095e-01" nType="0">
          <Node pos="l" depth="2" NCoef="0" IVar="2" Cut="2.7994300000000000e+05" cType="1" res="2.6009649038314819e-01" rms="3.8045564293861389e-01" purity="7.9601991176605225e-01" nType="0">
            <Node pos="l" depth="3" NCoef="0" IVar="-1" Cut="0.0000000000000000e+00" cType="1" res="1.6397063154727221e-03" rms="4.5672872662544250e-01" purity="6.5900534391403198e-01" nType="-99"/>
            <Node pos="r" depth="3" NCoef="0" IVar="-1" Cut="0.0000000000000000e+00" cType="1" res="2.0849443972110748e-03" rms="2.9885864257812500e-01" purity="8.8530689477920532e-01" nType="-99"/>
          </Node>
          <Node pos="r" depth="2" NCoef="0" IVar="1" Cut="1.0168853906250000e+05" cType="1" res="3.9133116602897644e-01" rms="1.3720989227294922e-01" purity="9.8078638315200806e-01" nType="0">
            <Node pos="l" depth="3" NCoef="0" IVar="-1" Cut="0.0000000000000000e+00" cType="1" res="2.9734570998698473e-03" rms="1.7787203192710876e-01" purity="9.6708506345748901e-01" nType="-99"/>
            <Node pos="r" depth="3" NCoef="0" IVar="-1" Cut="0.0000000000000000e+00" cType="1" res="2.1113839466124773e-03" rms="9.5906324684619904e-02" purity="9.9071830511093140e-01" nType="-99"/>
          </Node>
        </Node>
      </Node>
    </BinaryTree>
    <BinaryTree type="DecisionTree" boostWeight="1.0000000000000000e+00" itree="61">
      <Node pos="s" depth="0" NCoef="0" IVar="3" Cut="3.7123617187500000e+04" cType="1" res="1.3173831999301910e-01" rms="3.5693833231925964e-01" purity="5.0469827651977539e-01" nType="0">
        <Node pos="l" depth="1" NCoef="0" IVar="1" Cut="1.3642714062500000e+05" cType="1" res="-3.5034440457820892e-02" rms="3.1058979034423828e-01" purity="1.6174255311489105e-01" nType="0">
          <Node pos="l" depth="2" NCoef="0" IVar="1" Cut="7.7078421875000000e+04" cType="1" res="-6.3017807900905609e-02" rms="2.8158149123191833e-01" purity="9.7221247851848602e-02" nType="0">
            <Node pos="l" depth="3" NCoef="0" IVar="-1" Cut="0.0000000000000000e+00" cType="1" res="1.9960491918027401e-03" rms="4.4270926713943481e-01" purity="2.7322846651077271e-01" nType="-99"/>
            <Node pos="r" depth="3" NCoef="0" IVar="-1" Cut="0.0000000000000000e+00" cType="1" res="-1.4994113706052303e-02" rms="2.1372620761394501e-01" purity="5.5531229823827744e-02" nType="-99"/>
          </Node>
          <Node pos="r" depth="2" NCoef="0" IVar="3" Cut="1.7929132812500000e+04" cType="1" res="2.2053188085556030e-01" rms="4.2530253529548645e-01" purity="7.5100237131118774e-01" nType="0">
            <Node pos="l" depth="3" NCoef="0" IVar="-1" Cut="0.0000000000000000e+00" cType="1" res="1.1709037935361266e-03" rms="4.5000866055488586e-01" purity="6.9028335809707642e-01" nType="-99"/>
            <Node pos="r" depth="3" NCoef="0" IVar="-1" Cut="0.0000000000000000e+00" cType="1" res="2.8177229687571526e-03" rms="3.9938819408416748e-01" purity="7.9926836490631104e-01" nType="-99"/>
          </Node>
        </Node>
        <Node pos="r" depth="1" NCoef="0" IVar="3" Cut="7.2425296875000000e+04" cType="1" res="2.9487052559852600e-01" rms="3.2225832343101501e-01" purity="8.4016740322113037e-01" nType="0">
          <Node pos="l" depth="2" NCoef="0" IVar="1" Cut="1.0347596093750000e+05" cType="1" res="1.9243846833705902e-01" rms="4.1640359163284302e-01" purity="6.8452680110931396e-01" nType="0">
            <Node pos="l" depth="3" NCoef="0" IVar="-1" Cut="0.0000000000000000e+00" cType="1" res="8.4418960614129901e-04" rms="4.5923334360122681e-01" purity="5.0869792699813843e-01" nType="-99"/>
            <Node pos="r" depth="3" NCoef="0" IVar="-1" Cut="0.0000000000000000e+00" cType="1" res="2.4440640117973089e-03" rms="2.6562070846557617e-01" purity="9.1744756698608398e-01" nType="-99"/>
          </Node>
          <Node pos="r" depth="2" NCoef="0" IVar="1" Cut="1.2527707812500000e+05" cType="1" res="3.7812802195549011e-01" rms="1.7851200699806213e-01" purity="9.6667319536209106e-01" nType="0">
            <Node pos="l" depth="3" NCoef="0" IVar="-1" Cut="0.0000000000000000e+00" cType="1" res="2.6332002598792315e-03" rms="2.1224543452262878e-01" purity="9.5202350616455078e-01" nType="-99"/>
            <Node pos="r" depth="3" NCoef="0" IVar="-1" Cut="0.0000000000000000e+00" cType="1" res="2.2937480825930834e-03" rms="1.1120136827230453e-01" purity="9.8747223615646362e-01" nType="-99"/>
          </Node>
        </Node>
      </Node>
    </BinaryTree>
    <BinaryTree type="DecisionTree" boostWeight="1.0000000000000000e+00" itree="62">
      <Node pos="s" depth="0" NCoef="0" IVar="3" Cut="3.3280039062500000e+04" cType="1" res="1.3110053539276123e-01" rms="3.5389873385429382e-01" purity="5.1017200946807861e-01" nType="0">
        <Node pos="l" depth="1" NCoef="0" IVar="3" Cut="1.4446893554687500e+04" cType="1" res="-6.0422997921705246e-02" rms="2.7955329418182373e-01" purity="1.2334935367107391e-01" nType="0">
          <Node pos="l" depth="2" NCoef="0" IVar="4" Cut="4.7422734375000000e+05" cType="1" res="-1.2030323594808578e-01" rms="1.7376911640167236e-01" purity="4.8189569264650345e-02" nType="0">
            <Node pos="l" depth="3" NCoef="0" IVar="-1" Cut="0.0000000000000000e+00" cType="1" res="-2.3747581988573074e-02" rms="1.3725975155830383e-01" purity="2.8407679870724678e-02" nType="-99"/>
            <Node pos="r" depth="3" NCoef="0" IVar="-1" Cut="0.0000000000000000e+00" cType="1" res="6.5559736685827374e-04" rms="3.9947065711021423e-01" purity="3.2809832692146301e-01" nType="-99"/>
          </Node>
          <Node pos="r" depth="2" NCoef="0" IVar="1" Cut="1.2381188281250000e+05" cType="1" res="-1.6795298084616661e-02" rms="3.2950404286384583e-01" purity="1.7810945212841034e-01" nType="0">
            <Node pos="l" depth="3" NCoef="0" IVar="-1" Cut="0.0000000000000000e+00" cType="1" res="-4.1138394735753536e-03" rms="2.9037806391716003e-01" purity="1.0188191384077072e-01" nType="-99"/>
            <Node pos="r" depth="3" NCoef="0" IVar="-1" Cut="0.0000000000000000e+00" cType="1" res="2.7925237081944942e-03" rms="4.5520937442779541e-01" purity="7.2337943315505981e-01" nType="-99"/>
          </Node>
        </Node>
        <Node pos="r" depth="1" NCoef="0" IVar="1" Cut="1.0378331250000000e+05" cType="1" res="2.7864816784858704e-01" rms="3.3391028642654419e-01" purity="8.0817604064941406e-01" nType="0">
          <Node pos="l" depth="2" NCoef="0" IVar="3" Cut="6.4663640625000000e+04" cType="1" res="1.8333189189434052e-01" rms="4.0046259760856628e-01" purity="6.7441493272781372e-01" nType="0">
            <Node pos="l" depth="3" NCoef="0" IVar="-1" Cut="0.0000000000000000e+00" cType="1" res="1.4352984726428986e-04" rms="4.5322588086128235e-01" purity="3.8429450988769531e-01" nType="-99"/>
            <Node pos="r" depth="3" NCoef="0" IVar="-1" Cut="0.0000000000000000e+00" cType="1" res="2.4307467974722385e-03" rms="2.7697670459747314e-01" purity="9.1395610570907593e-01" nType="-99"/>
          </Node>
          <Node pos="r" depth="2" NCoef="0" IVar="3" Cut="5.1920406250000000e+04" cType="1" res="3.8660117983818054e-01" rms="1.8492896854877472e-01" purity="9.5967066287994385e-01" nType="0">
            <Node pos="l" depth="3" NCoef="0" IVar="-1" Cut="0.0000000000000000e+00" cType="1" res="3.2678386196494102e-03" rms="3.1746140122413635e-01" purity="8.6247313022613525e-01" nType="-99"/>
            <Node pos="r" depth="3" NCoef="0" IVar="-1" Cut="0.0000000000000000e+00" cType="1" res="1.9737477414309978e-03" rms="1.4034833014011383e-01" purity="9.7976702451705933e-01" nType="-99"/>
          </Node>
        </Node>
      </Node>
    </BinaryTree>
    <BinaryTree type="DecisionTree" boostWeight="1.0000000000000000e+00" itree="63">
      <Node pos="s" depth="0" NCoef="0" IVar="3" Cut="6.8736484375000000e+04" cType="1" res="1.2833929061889648e-01" rms="3.5251611471176147e-01" purity="4.9780547618865967e-01" nType="0">
        <Node pos="l" depth="1" NCoef="0" IVar="3" Cut="2.9489261718750000e+04" cType="1" res="1.4768497087061405e-02" rms="3.5358241200447083e-01" purity="2.8205513954162598e-01" nType="0">
          <Node pos="l" depth="2" NCoef="0" IVar="4" Cut="3.2743878125000000e+05" cType="1" res="-6.4223475754261017e-02" rms="2.6276209950447083e-01" purity="1.1536336690187454e-01" nType="0">
            <Node pos="l" depth="3" NCoef="0" IVar="-1" Cut="0.0000000000000000e+00" cType="1" res="-7.6594697311520576e-03" rms="2.1685241162776947e-01" purity="6.4756885170936584e-02" nType="-99"/>
            <Node pos="r" depth="3" NCoef="0" IVar="-1" Cut="0.0000000000000000e+00" cType="1" res="1.4445602428168058e-03" rms="3.7014666199684143e-01" purity="3.1451955437660217e-01" nType="-99"/>
          </Node>
          <Node pos="r" depth="2" NCoef="0" IVar="1" Cut="1.4551496875000000e+05" cType="1" res="1.3660813868045807e-01" rms="4.3230924010276794e-01" purity="5.3916555643081665e-01" nType="0">
            <Node pos="l" depth="3" NCoef="0" IVar="-1" Cut="0.0000000000000000e+00" cType="1" res="1.5153344720602036e-03" rms="4.4914832711219788e-01" purity="4.3523448705673218e-01" nType="-99"/>
            <Node pos="r" depth="3" NCoef="0" IVar="-1" Cut="0.0000000000000000e+00" cType="1" res="3.1714045908302069e-03" rms="2.5562530755996704e-01" purity="9.2953640222549438e-01" nType="-99"/>
          </Node>
        </Node>
        <Node pos="r" depth="1" NCoef="0" IVar="1" Cut="1.2527707812500000e+05" cType="1" res="3.7329295277595520e-01" rms="1.8660618364810944e-01" purity="9.6314376592636108e-01" nType="0">
          <Node pos="l" depth="2" NCoef="0" IVar="3" Cut="9.8161031250000000e+04" cType="1" res="3.5463112592697144e-01" rms="2.2581796348094940e-01" purity="9.4481474161148071e-01" nType="0">
            <Node pos="l" depth="3" NCoef="0" IVar="-1" Cut="0.0000000000000000e+00" cType="1" res="2.2752413060516119e-03" rms="3.1561958789825439e-01" purity="8.8623613119125366e-01" nType="-99"/>
            <Node pos="r" depth="3" NCoef="0" IVar="-1" Cut="0.0000000000000000e+00" cType="1" res="2.6630258653312922e-03" rms="1.4724572002887726e-01" purity="9.7781693935394287e-01" nType="-99"/>
          </Node>
          <Node pos="r" depth="2" NCoef="0" IVar="-1" Cut="0.0000000000000000e+00" cType="1" res="2.7649486437439919e-03" rms="9.7168713808059692e-02" purity="9.9044555425643921e-01" nType="-99"/>
        </Node>
      </Node>
    </BinaryTree>
    <BinaryTree type="DecisionTree" boostWeight="1.0000000000000000e+00" itree="64">
      <Node pos="s" depth="0" NCoef="0" IVar="3" Cut="7.5616148437500000e+04" cType="1" res="1.1193250119686127e-01" rms="3.5688591003417969e-01" purity="4.7025379538536072e-01" nType="0">
        <Node pos="l" depth="1" NCoef="0" IVar="1" Cut="1.0034389062500000e+05" cType="1" res="2.5558916851878166e-02" rms="3.5858979821205139e-01" purity="3.0680224299430847e-01" nType="0">
          <Node pos="l" depth="2" NCoef="0" IVar="1" Cut="7.9302054687500000e+04" cType="1" res="-4.6303600072860718e-02" rms="3.2092311978340149e-01" purity="1.7203623056411743e-01" nType="0">
            <Node pos="l" depth="3" NCoef="0" IVar="-1" Cut="0.0000000000000000e+00" cType="1" res="1.9342905143275857e-03" rms="4.2143189907073975e-01" purity="4.2617586255073547e-01" nType="-99"/>
            <Node pos="r" depth="3" NCoef="0" IVar="-1" Cut="0.0000000000000000e+00" cType="1" res="-1.0031610727310181e-02" rms="2.4773296713829041e-01" purity="7.6167747378349304e-02" nType="-99"/>
          </Node>
          <Node pos="r" depth="2" NCoef="0" IVar="3" Cut="1.8218179687500000e+04" cType="1" res="2.4574422836303711e-01" rms="3.7776261568069458e-01" purity="7.1972262859344482e-01" nType="0">
            <Node pos="l" depth="3" NCoef="0" IVar="-1" Cut="0.0000000000000000e+00" cType="1" res="1.1473404447315261e-04" rms="4.2645686864852905e-01" purity="3.5686078667640686e-01" nType="-99"/>
            <Node pos="r" depth="3" NCoef="0" IVar="-1" Cut="0.0000000000000000e+00" cType="1" res="2.3067537695169449e-03" rms="3.3417943120002747e-01" purity="8.1903803348541260e-01" nType="-99"/>
          </Node>
        </Node>
        <Node pos="r" depth="1" NCoef="0" IVar="1" Cut="1.1202803906250000e+05" cType="1" res="3.7405833601951599e-01" rms="1.7976972460746765e-01" purity="9.6629518270492554e-01" nType="0">
          <Node pos="l" depth="2" NCoef="0" IVar="1" Cut="7.8940039062500000e+04" cType="1" res="3.5333344340324402e-01" rms="2.2327123582363129e-01" purity="9.4671243429183960e-01" nType="0">
            <Node pos="l" depth="3" NCoef="0" IVar="-1" Cut="0.0000000000000000e+00" cType="1" res="2.8135853353887796e-03" rms="1.7792193591594696e-01" purity="9.6691060066223145e-01" nType="-99"/>
            <Node pos="r" depth="3" NCoef="0" IVar="-1" Cut="0.0000000000000000e+00" cType="1" res="2.0689696539193392e-03" rms="2.8779032826423645e-01" purity="9.0798133611679077e-01" nType="-99"/>
          </Node>
          <Node pos="r" depth="2" NCoef="0" IVar="-1" Cut="0.0000000000000000e+00" cType="1" res="3.2387799583375454e-03" rms="1.1120449006557465e-01" purity="9.8749673366546631e-01" nType="-99"/>
        </Node>
      </Node>
    </BinaryTree>
    <BinaryTree type="DecisionTree" boostWeight="1.0000000000000000e+00" itree="65">
      <Node pos="s" depth="0" NCoef="0" IVar="3" Cut="6.8798242187500000e+04" cType="1" res="1.3705155253410339e-01" rms="3.5054713487625122e-01" purity="5.1131999492645264e-01" nType="0">
        <Node pos="l" depth="1" NCoef="0" IVar="1" Cut="1.3173915625000000e+05" cType="1" res="3.3934291452169418e-02" rms="3.5698327422142029e-01" purity="3.1417515873908997e-01" nType="0">
          <Node pos="l" depth="2" NCoef="0" IVar="1" Cut="6.8984570312500000e+04" cType="1" res="-2.9588468372821808e-02" rms="3.3095756173133850e-01" purity="1.9156384468078613e-01" nType="0">
            <Node pos="l" depth="3" NCoef="0" IVar="-1" Cut="0.0000000000000000e+00" cType="1" res="2.6038840878754854e-03" rms="4.3573197722434998e-01" purity="4.4124603271484375e-01" nType="-99"/>
            <Node pos="r" depth="3" NCoef="0" IVar="-1" Cut="0.0000000000000000e+00" cType="1" res="-3.9189429953694344e-03" rms="2.8643319010734558e-01" purity="1.3226799666881561e-01" nType="-99"/>
          </Node>
          <Node pos="r" depth="2" NCoef="0" IVar="3" Cut="3.3440339843750000e+04" cType="1" res="3.1933337450027466e-01" rms="3.2908350229263306e-01" purity="8.6505109071731567e-01" nType="0">
            <Node pos="l" depth="3" NCoef="0" IVar="-1" Cut="0.0000000000000000e+00" cType="1" res="1.8161429325118661e-03" rms="4.3404069542884827e-01" purity="7.1672302484512329e-01" nType="-99"/>
            <Node pos="r" depth="3" NCoef="0" IVar="-1" Cut="0.0000000000000000e+00" cType="1" res="1.8728459253907204e-03" rms="2.0914685726165771e-01" purity="9.5562130212783813e-01" nType="-99"/>
          </Node>
        </Node>
        <Node pos="r" depth="1" NCoef="0" IVar="1" Cut="1.1128134375000000e+05" cType="1" res="3.7572395801544189e-01" rms="1.7540669441223145e-01" purity="9.6762627363204956e-01" nType="0">
          <Node pos="l" depth="2" NCoef="0" IVar="1" Cut="8.2822398437500000e+04" cType="1" res="3.5165771842002869e-01" rms="2.2813448309898376e-01" purity="9.4361370801925659e-01" nType="0">
            <Node pos="l" depth="3" NCoef="0" IVar="-1" Cut="0.0000000000000000e+00" cType="1" res="3.2555402722209692e-03" rms="1.7746633291244507e-01" purity="9.6700012683868408e-01" nType="-99"/>
            <Node pos="r" depth="3" NCoef="0" IVar="-1" Cut="0.0000000000000000e+00" cType="1" res="2.5532247964292765e-03" rms="3.1475758552551270e-01" purity="8.8571536540985107e-01" nType="-99"/>
          </Node>
          <Node pos="r" depth="2" NCoef="0" IVar="-1" Cut="0.0000000000000000e+00" cType="1" res="1.7083070706576109e-03" rms="1.0422918200492859e-01" purity="9.8898929357528687e-01" nType="-99"/>
        </Node>
      </Node>
    </BinaryTree>
    <BinaryTree type="DecisionTree" boostWeight="1.0000000000000000e+00" itree="66">
      <Node pos="s" depth="0" NCoef="0" IVar="3" Cut="3.7123617187500000e+04" cType="1" res="1.4279852807521820e-01" rms="3.5449624061584473e-01" purity="5.1593983173370361e-01" nType="0">
        <Node pos="l" depth="1" NCoef="0" IVar="1" Cut="1.3873140625000000e+05" cType="1" res="-1.9683126360177994e-02" rms="3.0877402424812317e-01" purity="1.7550255358219147e-01" nType="0">
          <Node pos="l" depth="2" NCoef="0" IVar="1" Cut="1.1453190625000000e+05" cType="1" res="-4.9241006374359131e-02" rms="2.8118324279785156e-01" purity="1.0706625878810883e-01" nType="0">
            <Node pos="l" depth="3" NCoef="0" IVar="-1" Cut="0.0000000000000000e+00" cType="1" res="-1.0402833111584187e-02" rms="2.4779802560806274e-01" purity="7.0876933634281158e-02" nType="-99"/>
            <Node pos="r" depth="3" NCoef="0" IVar="-1" Cut="0.0000000000000000e+00" cType="1" res="3.4625134430825710e-03" rms="4.4747763872146606e-01" purity="6.7855346202850342e-01" nType="-99"/>
          </Node>
          <Node pos="r" depth="2" NCoef="0" IVar="-1" Cut="0.0000000000000000e+00" cType="1" res="2.4602322373539209e-03" rms="4.0402209758758545e-01" purity="7.8317618370056152e-01" nType="-99"/>
        </Node>
        <Node pos="r" depth="1" NCoef="0" IVar="3" Cut="7.2427218750000000e+04" cType="1" res="2.9888191819190979e-01" rms="3.2415559887886047e-01" purity="8.4297120571136475e-01" nType="0">
          <Node pos="l" depth="2" NCoef="0" IVar="5" Cut="8.9598945312500000e+04" cType="1" res="2.2031673789024353e-01" rms="4.1474750638008118e-01" purity="7.0683699846267700e-01" nType="0">
            <Node pos="l" depth="3" NCoef="0" IVar="-1" Cut="0.0000000000000000e+00" cType="1" res="1.8081428715959191e-03" rms="3.5793465375900269e-01" purity="8.1820905208587646e-01" nType="-99"/>
            <Node pos="r" depth="3" NCoef="0" IVar="-1" Cut="0.0000000000000000e+00" cType="1" res="1.8073279643431306e-03" rms="4.3634423613548279e-01" purity="6.3264757394790649e-01" nType="-99"/>
          </Node>
          <Node pos="r" depth="2" NCoef="0" IVar="1" Cut="1.1202803906250000e+05" cType="1" res="3.6703166365623474e-01" rms="1.9238948822021484e-01" purity="9.6105802059173584e-01" nType="0">
            <Node pos="l" depth="3" NCoef="0" IVar="-1" Cut="0.0000000000000000e+00" cType="1" res="2.7279907371848822e-03" rms="2.4732223153114319e-01" purity="9.3346810340881348e-01" nType="-99"/>
            <Node pos="r" depth="3" NCoef="0" IVar="-1" Cut="0.0000000000000000e+00" cType="1" res="2.7198542375117540e-03" rms="1.0782588273286819e-01" purity="9.8822754621505737e-01" nType="-99"/>
          </Node>
        </Node>
      </Node>
    </BinaryTree>
    <BinaryTree type="DecisionTree" boostWeight="1.0000000000000000e+00" itree="67">
      <Node pos="s" depth="0" NCoef="0" IVar="3" Cut="5.4198226562500000e+04" cType="1" res="1.2903787195682526e-01" rms="3.4919074177742004e-01" purity="4.9962735176086426e-01" nType="0">
        <Node pos="l" depth="1" NCoef="0" IVar="1" Cut="1.5585303125000000e+05" cType="1" res="7.6184030622243881e-03" rms="3.3839520812034607e-01" purity="2.5383359193801880e-01" nType="0">
          <Node pos="l" depth="2" NCoef="0" IVar="1" Cut="1.1468622656250000e+05" cType="1" res="-3.0285343527793884e-02" rms="3.1886291503906250e-01" purity="1.7469954490661621e-01" nType="0">
            <Node pos="l" depth="3" NCoef="0" IVar="-1" Cut="0.0000000000000000e+00" cType="1" res="-3.5478933714330196e-03" rms="2.9430243372917175e-01" purity="1.2689182162284851e-01" nType="-99"/>
            <Node pos="r" depth="3" NCoef="0" IVar="-1" Cut="0.0000000000000000e+00" cType="1" res="2.5998721830546856e-03" rms="4.2323118448257446e-01" purity="7.0067524909973145e-01" nType="-99"/>
          </Node>
          <Node pos="r" depth="2" NCoef="0" IVar="-1" Cut="0.0000000000000000e+00" cType="1" res="2.0222284365445375e-03" rms="3.4329241514205933e-01" purity="8.5771584510803223e-01" nType="-99"/>
        </Node>
        <Node pos="r" depth="1" NCoef="0" IVar="1" Cut="1.2534551562500000e+05" cType="1" res="3.3934062719345093e-01" rms="2.5500735640525818e-01" purity="9.2535072565078735e-01" nType="0">
          <Node pos="l" depth="2" NCoef="0" IVar="3" Cut="8.9380812500000000e+04" cType="1" res="2.9891139268875122e-01" rms="3.1292065978050232e-01" purity="8.8178688287734985e-01" nType="0">
            <Node pos="l" depth="3" NCoef="0" IVar="-1" Cut="0.0000000000000000e+00" cType="1" res="1.8120543099939823e-03" rms="4.2102259397506714e-01" purity="7.5952082872390747e-01" nType="-99"/>
            <Node pos="r" depth="3" NCoef="0" IVar="-1" Cut="0.0000000000000000e+00" cType="1" res="2.6963129639625549e-03" rms="1.6130571067333221e-01" purity="9.7315073013305664e-01" nType="-99"/>
          </Node>
          <Node pos="r" depth="2" NCoef="0" IVar="-1" Cut="0.0000000000000000e+00" cType="1" res="2.9666563495993614e-03" rms="1.1829065531492233e-01" purity="9.8577958345413208e-01" nType="-99"/>
        </Node>
      </Node>
    </BinaryTree>
    <BinaryTree type="DecisionTree" boostWeight="1.0000000000000000e+00" itree="68">
      <Node pos="s" depth="0" NCoef="0" IVar="3" Cut="6.8798242187500000e+04" cType="1" res="1.4060293138027191e-01" rms="3.4726622700691223e-01" purity="5.2013838291168213e-01" nType="0">
        <Node pos="l" depth="1" NCoef="0" IVar="3" Cut="3.6093574218750000e+04" cType="1" res="3.8908965885639191e-02" rms="3.5394182801246643e-01" purity="3.2117959856987000e-01" nType="0">
          <Node pos="l" depth="2" NCoef="0" IVar="1" Cut="1.7496867187500000e+05" cType="1" res="-5.0041634589433670e-02" rms="2.7723520994186401e-01" purity="1.3396526873111725e-01" nType="0">
            <Node pos="l" depth="3" NCoef="0" IVar="-1" Cut="0.0000000000000000e+00" cType="1" res="-5.7228114455938339e-03" rms="2.5691103935241699e-01" purity="9.2031568288803101e-02" nType="-99"/>
            <Node pos="r" depth="3" NCoef="0" IVar="-1" Cut="0.0000000000000000e+00" cType="1" res="2.2797218989580870e-03" rms="4.1328242421150208e-01" purity="7.7440726757049561e-01" nType="-99"/>
          </Node>
          <Node pos="r" depth="2" NCoef="0" IVar="1" Cut="9.8571101562500000e+04" cType="1" res="2.1326178312301636e-01" rms="4.1745257377624512e-01" purity="6.8813997507095337e-01" nType="0">
            <Node pos="l" depth="3" NCoef="0" IVar="-1" Cut="0.0000000000000000e+00" cType="1" res="6.9074035855010152e-04" rms="4.6661448478698730e-01" purity="4.5829743146896362e-01" nType="-99"/>
            <Node pos="r" depth="3" NCoef="0" IVar="-1" Cut="0.0000000000000000e+00" cType="1" res="2.0221886225044727e-03" rms="2.6424756646156311e-01" purity="9.1810649633407593e-01" nType="-99"/>
          </Node>
        </Node>
        <Node pos="r" depth="1" NCoef="0" IVar="1" Cut="1.0105775000000000e+05" cType="1" res="3.6611151695251465e-01" rms="1.9085761904716492e-01" purity="9.6133387088775635e-01" nType="0">
          <Node pos="l" depth="2" NCoef="0" IVar="1" Cut="8.8409445312500000e+04" cType="1" res="3.4272217750549316e-01" rms="2.3748819530010223e-01" purity="9.3840152025222778e-01" nType="0">
            <Node pos="l" depth="3" NCoef="0" IVar="-1" Cut="0.0000000000000000e+00" cType="1" res="2.1961128804832697e-03" rms="2.0457905530929565e-01" purity="9.5543408393859863e-01" nType="-99"/>
            <Node pos="r" depth="3" NCoef="0" IVar="-1" Cut="0.0000000000000000e+00" cType="1" res="2.6387148536741734e-03" rms="3.9659920334815979e-01" purity="7.9623341560363770e-01" nType="-99"/>
          </Node>
          <Node pos="r" depth="2" NCoef="0" IVar="-1" Cut="0.0000000000000000e+00" cType="1" res="2.1773348562419415e-03" rms="1.0972138494253159e-01" purity="9.8777455091476440e-01" nType="-99"/>
        </Node>
      </Node>
    </BinaryTree>
    <BinaryTree type="DecisionTree" boostWeight="1.0000000000000000e+00" itree="69">
      <Node pos="s" depth="0" NCoef="0" IVar="3" Cut="4.8774171875000000e+04" cType="1" res="1.1976879835128784e-01" rms="3.5294097661972046e-01" purity="4.8268657922744751e-01" nType="0">
        <Node pos="l" depth="1" NCoef="0" IVar="1" Cut="9.3462679687500000e+04" cType="1" res="-2.4897105991840363e-02" rms="3.2762277126312256e-01" purity="1.8513564765453339e-01" nType="0">
          <Node pos="l" depth="2" NCoef="0" IVar="1" Cut="8.1825828125000000e+04" cType="1" res="-6.8101018667221069e-02" rms="2.7425479888916016e-01" purity="9.9531725049018860e-02" nType="0">
            <Node pos="l" depth="3" NCoef="0" IVar="-1" Cut="0.0000000000000000e+00" cType="1" res="1.0292653460055590e-03" rms="3.9541369676589966e-01" purity="2.4326197803020477e-01" nType="-99"/>
            <Node pos="r" depth="3" NCoef="0" IVar="-1" Cut="0.0000000000000000e+00" cType="1" res="-2.4767719209194183e-02" rms="1.7217978835105896e-01" purity="3.0101604759693146e-02" nType="-99"/>
          </Node>
          <Node pos="r" depth="2" NCoef="0" IVar="4" Cut="3.8653353125000000e+05" cType="1" res="5.0337631255388260e-02" rms="3.9288803935050964e-01" purity="3.3420518040657043e-01" nType="0">
            <Node pos="l" depth="3" NCoef="0" IVar="-1" Cut="0.0000000000000000e+00" cType="1" res="-2.1452813234645873e-04" rms="3.5496053099632263e-01" purity="2.4228753149509430e-01" nType="-99"/>
            <Node pos="r" depth="3" NCoef="0" IVar="-1" Cut="0.0000000000000000e+00" cType="1" res="3.3608130179345608e-03" rms="4.4846647977828979e-01" purity="6.0679095983505249e-01" nType="-99"/>
          </Node>
        </Node>
        <Node pos="r" depth="1" NCoef="0" IVar="1" Cut="1.0066286718750000e+05" cType="1" res="3.2573568820953369e-01" rms="2.7727353572845459e-01" purity="9.0632230043411255e-01" nType="0">
          <Node pos="l" depth="2" NCoef="0" IVar="1" Cut="8.3833210937500000e+04" cType="1" res="2.4619469046592712e-01" rms="3.6322098970413208e-01" purity="8.2004803419113159e-01" nType="0">
            <Node pos="l" depth="3" NCoef="0" IVar="-1" Cut="0.0000000000000000e+00" cType="1" res="2.5777046103030443e-03" rms="2.8245872259140015e-01" purity="9.0455114841461182e-01" nType="-99"/>
            <Node pos="r" depth="3" NCoef="0" IVar="-1" Cut="0.0000000000000000e+00" cType="1" res="7.7714631333947182e-04" rms="4.5951998233795166e-01" purity="6.2295848131179810e-01" nType="-99"/>
          </Node>
          <Node pos="r" depth="2" NCoef="0" IVar="0" Cut="1.1428571939468384e+00" cType="1" res="3.9220428466796875e-01" rms="1.4551237225532532e-01" purity="9.7841745615005493e-01" nType="0">
            <Node pos="l" depth="3" NCoef="0" IVar="-1" Cut="0.0000000000000000e+00" cType="1" res="3.0482632573693991e-03" rms="1.3348449766635895e-01" purity="9.8219734430313110e-01" nType="-99"/>
            <Node pos="r" depth="3" NCoef="0" IVar="-1" Cut="0.0000000000000000e+00" cType="1" res="1.4591800281777978e-03" rms="1.6500100493431091e-01" purity="9.7136098146438599e-01" nType="-99"/>
          </Node>
        </Node>
      </Node>
    </BinaryTree>
    <BinaryTree type="DecisionTree" boostWeight="1.0000000000000000e+00" itree="70">
      <Node pos="s" depth="0" NCoef="0" IVar="3" Cut="4.8721656250000000e+04" cType="1" res="1.2478037923574448e-01" rms="3.4695395827293396e-01" purity="4.9378985166549683e-01" nType="0">
        <Node pos="l" depth="1" NCoef="0" IVar="1" Cut="1.7493587500000000e+05" cType="1" res="-1.2635755352675915e-02" rms="3.2112672924995422e-01" purity="2.0979501307010651e-01" nType="0">
          <Node pos="l" depth="2" NCoef="0" IVar="1" Cut="1.1286199218750000e+05" cType="1" res="-3.7189666181802750e-02" rms="3.0378028750419617e-01" purity="1.5416924655437469e-01" nType="0">
            <Node pos="l" depth="3" NCoef="0" IVar="-1" Cut="0.0000000000000000e+00" cType="1" res="-5.6295944377779961e-03" rms="2.6821213960647583e-01" purity="9.8947815597057343e-02" nType="-99"/>
            <Node pos="r" depth="3" NCoef="0" IVar="-1" Cut="0.0000000000000000e+00" cType="1" res="1.8904294120147824e-03" rms="4.3994176387786865e-01" purity="6.7903429269790649e-01" nType="-99"/>
          </Node>
          <Node pos="r" depth="2" NCoef="0" IVar="-1" Cut="0.0000000000000000e+00" cType="1" res="2.3941753897815943e-03" rms="3.7763559818267822e-01" purity="8.2478123903274536e-01" nType="-99"/>
        </Node>
        <Node pos="r" depth="1" NCoef="0" IVar="1" Cut="1.0395742187500000e+05" cType="1" res="3.2323959469795227e-01" rms="2.8042656183242798e-01" purity="9.0394103527069092e-01" nType="0">
          <Node pos="l" depth="2" NCoef="0" IVar="3" Cut="7.9376359375000000e+04" cType="1" res="2.6664480566978455e-01" rms="3.4883791208267212e-01" purity="8.3896344900131226e-01" nType="0">
            <Node pos="l" depth="3" NCoef="0" IVar="-1" Cut="0.0000000000000000e+00" cType="1" res="1.3151131570339203e-03" rms="4.6437770128250122e-01" purity="6.5772402286529541e-01" nType="-99"/>
            <Node pos="r" depth="3" NCoef="0" IVar="-1" Cut="0.0000000000000000e+00" cType="1" res="3.0458346009254456e-03" rms="2.0323939621448517e-01" purity="9.5650899410247803e-01" nType="-99"/>
          </Node>
          <Node pos="r" depth="2" NCoef="0" IVar="2" Cut="3.9157203125000000e+05" cType="1" res="3.8440617918968201e-01" rms="1.5782780945301056e-01" purity="9.7416752576828003e-01" nType="0">
            <Node pos="l" depth="3" NCoef="0" IVar="-1" Cut="0.0000000000000000e+00" cType="1" res="2.2855016868561506e-03" rms="1.9026453793048859e-01" purity="9.6225094795227051e-01" nType="-99"/>
            <Node pos="r" depth="3" NCoef="0" IVar="-1" Cut="0.0000000000000000e+00" cType="1" res="2.4700765497982502e-03" rms="1.3158805668354034e-01" purity="9.8213976621627808e-01" nType="-99"/>
          </Node>
        </Node>
      </Node>
    </BinaryTree>
    <BinaryTree type="DecisionTree" boostWeight="1.0000000000000000e+00" itree="71">
      <Node pos="s" depth="0" NCoef="0" IVar="3" Cut="5.4198226562500000e+04" cType="1" res="1.3349661231040955e-01" rms="3.4579703211784363e-01" purity="5.0645196437835693e-01" nType="0">
        <Node pos="l" depth="1" NCoef="0" IVar="1" Cut="1.7489954687500000e+05" cType="1" res="1.5104166232049465e-02" rms="3.3820953965187073e-01" purity="2.6123040914535522e-01" nType="0">
          <Node pos="l" depth="2" NCoef="0" IVar="1" Cut="1.0502721093750000e+05" cType="1" res="-1.7218690365552902e-02" rms="3.2399997115135193e-01" purity="1.9227167963981628e-01" nType="0">
            <Node pos="l" depth="3" NCoef="0" IVar="-1" Cut="0.0000000000000000e+00" cType="1" res="-4.9215438775718212e-03" rms="2.8032553195953369e-01" purity="1.0886617749929428e-01" nType="-99"/>
            <Node pos="r" depth="3" NCoef="0" IVar="-1" Cut="0.0000000000000000e+00" cType="1" res="1.4597704866901040e-03" rms="4.0714567899703979e-01" purity="6.8733137845993042e-01" nType="-99"/>
          </Node>
          <Node pos="r" depth="2" NCoef="0" IVar="-1" Cut="0.0000000000000000e+00" cType="1" res="1.6303349984809756e-03" rms="3.2540714740753174e-01" purity="8.7622803449630737e-01" nType="-99"/>
        </Node>
        <Node pos="r" depth="1" NCoef="0" IVar="1" Cut="1.2571450000000000e+05" cType="1" res="3.3681854605674744e-01" rms="2.5115105509757996e-01" purity="9.2758452892303467e-01" nType="0">
          <Node pos="l" depth="2" NCoef="0" IVar="3" Cut="8.4267375000000000e+04" cType="1" res="2.9783448576927185e-01" rms="3.0892124772071838e-01" purity="8.8492619991302490e-01" nType="0">
            <Node pos="l" depth="3" NCoef="0" IVar="-1" Cut="0.0000000000000000e+00" cType="1" res="1.6679536784067750e-03" rms="4.2517784237861633e-01" purity="7.5179082155227661e-01" nType="-99"/>
            <Node pos="r" depth="3" NCoef="0" IVar="-1" Cut="0.0000000000000000e+00" cType="1" res="3.0248074326664209e-03" rms="1.7725488543510437e-01" purity="9.6726238727569580e-01" nType="-99"/>
          </Node>
          <Node pos="r" depth="2" NCoef="0" IVar="-1" Cut="0.0000000000000000e+00" cType="1" res="2.2894379217177629e-03" rms="1.2035045772790909e-01" purity="9.8527574539184570e-01" nType="-99"/>
        </Node>
      </Node>
    </BinaryTree>
    <BinaryTree type="DecisionTree" boostWeight="1.0000000000000000e+00" itree="72">
      <Node pos="s" depth="0" NCoef="0" IVar="3" Cut="5.4198226562500000e+04" cType="1" res="1.2893328070640564e-01" rms="3.4631830453872681e-01" purity="4.9705943465232849e-01" nType="0">
        <Node pos="l" depth="1" NCoef="0" IVar="3" Cut="2.8415541015625000e+04" cType="1" res="8.8221719488501549e-04" rms="3.3568209409713745e-01" purity="2.3144243657588959e-01" nType="0">
          <Node pos="l" depth="2" NCoef="0" IVar="4" Cut="4.7422734375000000e+05" cType="1" res="-6.3616007566452026e-02" rms="2.5213912129402161e-01" purity="9.9224679172039032e-02" nType="0">
            <Node pos="l" depth="3" NCoef="0" IVar="-1" Cut="0.0000000000000000e+00" cType="1" res="-9.0279439464211464e-03" rms="2.1902325749397278e-01" purity="7.0354565978050232e-02" nType="-99"/>
            <Node pos="r" depth="3" NCoef="0" IVar="-1" Cut="0.0000000000000000e+00" cType="1" res="3.8907644338905811e-03" rms="4.3262806534767151e-01" purity="4.1378283500671387e-01" nType="-99"/>
          </Node>
          <Node pos="r" depth="2" NCoef="0" IVar="2" Cut="2.6478446875000000e+05" cType="1" res="1.1701056361198425e-01" rms="4.2441210150718689e-01" purity="4.6949899196624756e-01" nType="0">
            <Node pos="l" depth="3" NCoef="0" IVar="-1" Cut="0.0000000000000000e+00" cType="1" res="1.8213337170891464e-04" rms="4.1183918714523315e-01" purity="2.9978349804878235e-01" nType="-99"/>
            <Node pos="r" depth="3" NCoef="0" IVar="-1" Cut="0.0000000000000000e+00" cType="1" res="1.5667921397835016e-03" rms="4.1381821036338806e-01" purity="6.0305863618850708e-01" nType="-99"/>
          </Node>
        </Node>
        <Node pos="r" depth="1" NCoef="0" IVar="1" Cut="1.0073193750000000e+05" cType="1" res="3.3736690878868103e-01" rms="2.4821174144744873e-01" purity="9.2941445112228394e-01" nType="0">
          <Node pos="l" depth="2" NCoef="0" IVar="1" Cut="8.3847031250000000e+04" cType="1" res="2.8981021046638489e-01" rms="3.1781861186027527e-01" purity="8.7690126895904541e-01" nType="0">
            <Node pos="l" depth="3" NCoef="0" IVar="-1" Cut="0.0000000000000000e+00" cType="1" res="3.1520084012299776e-03" rms="2.3543751239776611e-01" purity="9.3860948085784912e-01" nType="-99"/>
            <Node pos="r" depth="3" NCoef="0" IVar="-1" Cut="0.0000000000000000e+00" cType="1" res="1.0462002828717232e-03" rms="4.4412609934806824e-01" purity="6.9471961259841919e-01" nType="-99"/>
          </Node>
          <Node pos="r" depth="2" NCoef="0" IVar="2" Cut="3.2209987500000000e+05" cType="1" res="3.7882491946220398e-01" rms="1.5353082120418549e-01" purity="9.7519326210021973e-01" nType="0">
            <Node pos="l" depth="3" NCoef="0" IVar="-1" Cut="0.0000000000000000e+00" cType="1" res="3.4880840685218573e-03" rms="2.2580677270889282e-01" purity="9.4391745328903198e-01" nType="-99"/>
            <Node pos="r" depth="3" NCoef="0" IVar="-1" Cut="0.0000000000000000e+00" cType="1" res="3.1318503897637129e-03" rms="1.2750916182994843e-01" purity="9.8323905467987061e-01" nType="-99"/>
          </Node>
        </Node>
      </Node>
    </BinaryTree>
    <BinaryTree type="DecisionTree" boostWeight="1.0000000000000000e+00" itree="73">
      <Node pos="s" depth="0" NCoef="0" IVar="3" Cut="3.7808433593750000e+04" cType="1" res="1.3450136780738831e-01" rms="3.4430924057960510e-01" purity="5.0533652305603027e-01" nType="0">
        <Node pos="l" depth="1" NCoef="0" IVar="1" Cut="1.2715934375000000e+05" cType="1" res="-3.4391701221466064e-02" rms="2.9466146230697632e-01" purity="1.3951088488101959e-01" nType="0">
          <Node pos="l" depth="2" NCoef="0" IVar="1" Cut="8.3265578125000000e+04" cType="1" res="-5.4622426629066467e-02" rms="2.6415091753005981e-01" purity="8.3722367882728577e-02" nType="0">
            <Node pos="l" depth="3" NCoef="0" IVar="-1" Cut="0.0000000000000000e+00" cType="1" res="1.3088829582557082e-03" rms="3.8893690705299377e-01" purity="1.8952271342277527e-01" nType="-99"/>
            <Node pos="r" depth="3" NCoef="0" IVar="-1" Cut="0.0000000000000000e+00" cType="1" res="-1.4322739094495773e-02" rms="1.9425475597381592e-01" purity="4.6166270971298218e-02" nType="-99"/>
          </Node>
          <Node pos="r" depth="2" NCoef="0" IVar="5" Cut="9.0565695312500000e+04" cType="1" res="1.5891647338867188e-01" rms="4.5657345652580261e-01" purity="6.7258018255233765e-01" nType="0">
            <Node pos="l" depth="3" NCoef="0" IVar="-1" Cut="0.0000000000000000e+00" cType="1" res="2.3853559978306293e-03" rms="4.3426069617271423e-01" purity="7.3821514844894409e-01" nType="-99"/>
            <Node pos="r" depth="3" NCoef="0" IVar="-1" Cut="0.0000000000000000e+00" cType="1" res="6.1328982701525092e-04" rms="4.6847382187843323e-01" purity="5.5833512544631958e-01" nType="-99"/>
          </Node>
        </Node>
        <Node pos="r" depth="1" NCoef="0" IVar="3" Cut="7.3763476562500000e+04" cType="1" res="2.9471948742866516e-01" rms="3.0969876050949097e-01" purity="8.5237205028533936e-01" nType="0">
          <Node pos="l" depth="2" NCoef="0" IVar="1" Cut="1.0373396875000000e+05" cType="1" res="1.9241376221179962e-01" rms="4.1565799713134766e-01" purity="6.8540811538696289e-01" nType="0">
            <Node pos="l" depth="3" NCoef="0" IVar="-1" Cut="0.0000000000000000e+00" cType="1" res="8.8368705473840237e-04" rms="4.5962619781494141e-01" purity="5.4064404964447021e-01" nType="-99"/>
            <Node pos="r" depth="3" NCoef="0" IVar="-1" Cut="0.0000000000000000e+00" cType="1" res="2.2857270669192076e-03" rms="2.6571881771087646e-01" purity="9.1505885124206543e-01" nType="-99"/>
          </Node>
          <Node pos="r" depth="2" NCoef="0" IVar="1" Cut="1.0059082812500000e+05" cType="1" res="3.6616092920303345e-01" rms="1.7271210253238678e-01" purity="9.6896505355834961e-01" nType="0">
            <Node pos="l" depth="3" NCoef="0" IVar="-1" Cut="0.0000000000000000e+00" cType="1" res="2.8649808373302221e-03" rms="2.3474381864070892e-01" purity="9.4073361158370972e-01" nType="-99"/>
            <Node pos="r" depth="3" NCoef="0" IVar="-1" Cut="0.0000000000000000e+00" cType="1" res="2.5774864479899406e-03" rms="1.0579214990139008e-01" purity="9.8865753412246704e-01" nType="-99"/>
          </Node>
        </Node>
      </Node>
    </BinaryTree>
    <BinaryTree type="DecisionTree" boostWeight="1.0000000000000000e+00" itree="74">
      <Node pos="s" depth="0" NCoef="0" IVar="3" Cut="6.8884250000000000e+04" cType="1" res="1.2758518755435944e-01" rms="3.4425753355026245e-01" purity="4.9425005912780762e-01" nType="0">
        <Node pos="l" depth="1" NCoef="0" IVar="1" Cut="1.2713942968750000e+05" cType="1" res="2.4341730400919914e-02" rms="3.4879603981971741e-01" purity="2.8633350133895874e-01" nType="0">
          <Node pos="l" depth="2" NCoef="0" IVar="1" Cut="1.1068607812500000e+05" cType="1" res="-2.9778067022562027e-02" rms="3.2297942042350769e-01" purity="1.7454411089420319e-01" nType="0">
            <Node pos="l" depth="3" NCoef="0" IVar="-1" Cut="0.0000000000000000e+00" cType="1" res="-2.7938035782426596e-03" rms="3.0661961436271667e-01" purity="1.4279673993587494e-01" nType="-99"/>
            <Node pos="r" depth="3" NCoef="0" IVar="-1" Cut="0.0000000000000000e+00" cType="1" res="2.8862042818218470e-03" rms="3.9832586050033569e-01" purity="7.0680433511734009e-01" nType="-99"/>
          </Node>
          <Node pos="r" depth="2" NCoef="0" IVar="3" Cut="2.3382992187500000e+04" cType="1" res="2.9343459010124207e-01" rms="3.4773072600364685e-01" purity="8.4216940402984619e-01" nType="0">
            <Node pos="l" depth="3" NCoef="0" IVar="-1" Cut="0.0000000000000000e+00" cType="1" res="-9.9411502014845610e-04" rms="4.7095468640327454e-01" purity="4.4150745868682861e-01" nType="-99"/>
            <Node pos="r" depth="3" NCoef="0" IVar="-1" Cut="0.0000000000000000e+00" cType="1" res="2.1153192501515150e-03" rms="2.6558798551559448e-01" purity="9.2212104797363281e-01" nType="-99"/>
          </Node>
        </Node>
        <Node pos="r" depth="1" NCoef="0" IVar="1" Cut="1.1128134375000000e+05" cType="1" res="3.6169111728668213e-01" rms="1.8001508712768555e-01" purity="9.6570372581481934e-01" nType="0">
          <Node pos="l" depth="2" NCoef="0" IVar="3" Cut="1.0337182812500000e+05" cType="1" res="3.4249311685562134e-01" rms="2.2047436237335205e-01" purity="9.4727134704589844e-01" nType="0">
            <Node pos="l" depth="3" NCoef="0" IVar="-1" Cut="0.0000000000000000e+00" cType="1" res="2.3339600302278996e-03" rms="3.0742701888084412e-01" purity="8.9221650362014771e-01" nType="-99"/>
            <Node pos="r" depth="3" NCoef="0" IVar="-1" Cut="0.0000000000000000e+00" cType="1" res="3.0679625924676657e-03" rms="1.3508971035480499e-01" purity="9.8138213157653809e-01" nType="-99"/>
          </Node>
          <Node pos="r" depth="2" NCoef="0" IVar="-1" Cut="0.0000000000000000e+00" cType="1" res="3.1328592449426651e-03" rms="1.2400766462087631e-01" purity="9.8422855138778687e-01" nType="-99"/>
        </Node>
      </Node>
    </BinaryTree>
    <BinaryTree type="DecisionTree" boostWeight="1.0000000000000000e+00" itree="75">
      <Node pos="s" depth="0" NCoef="0" IVar="3" Cut="6.8736484375000000e+04" cType="1" res="1.2827038764953613e-01" rms="3.4519836306571960e-01" purity="4.9191242456436157e-01" nType="0">
        <Node pos="l" depth="1" NCoef="0" IVar="3" Cut="3.2757587890625000e+04" cType="1" res="3.1124008819460869e-02" rms="3.5020372271537781e-01" purity="2.9154506325721741e-01" nType="0">
          <Node pos="l" depth="2" NCoef="0" IVar="3" Cut="1.5626606445312500e+04" cType="1" res="-4.7680087387561798e-02" rms="2.6968508958816528e-01" purity="1.1604062467813492e-01" nType="0">
            <Node pos="l" depth="3" NCoef="0" IVar="-1" Cut="0.0000000000000000e+00" cType="1" res="-1.6743760555982590e-02" rms="1.7601144313812256e-01" purity="4.2083263397216797e-02" nType="-99"/>
            <Node pos="r" depth="3" NCoef="0" IVar="-1" Cut="0.0000000000000000e+00" cType="1" res="-3.9753460441716015e-05" rms="3.2441762089729309e-01" purity="1.8191246688365936e-01" nType="-99"/>
          </Node>
          <Node pos="r" depth="2" NCoef="0" IVar="2" Cut="2.8271503125000000e+05" cType="1" res="1.7403350770473480e-01" rms="4.2599660158157349e-01" purity="6.0981857776641846e-01" nType="0">
            <Node pos="l" depth="3" NCoef="0" IVar="-1" Cut="0.0000000000000000e+00" cType="1" res="8.5649080574512482e-04" rms="4.5330178737640381e-01" purity="4.2150837182998657e-01" nType="-99"/>
            <Node pos="r" depth="3" NCoef="0" IVar="-1" Cut="0.0000000000000000e+00" cType="1" res="1.5584419015794992e-03" rms="3.7473225593566895e-01" purity="7.5324267148971558e-01" nType="-99"/>
          </Node>
        </Node>
        <Node pos="r" depth="1" NCoef="0" IVar="1" Cut="1.0105126562500000e+05" cType="1" res="3.5533058643341064e-01" rms="1.9342169165611267e-01" purity="9.6023094654083252e-01" nType="0">
          <Node pos="l" depth="2" NCoef="0" IVar="1" Cut="8.4197054687500000e+04" cType="1" res="3.1508436799049377e-01" rms="2.6599919795989990e-01" purity="9.2108899354934692e-01" nType="0">
            <Node pos="l" depth="3" NCoef="0" IVar="-1" Cut="0.0000000000000000e+00" cType="1" res="2.8327566105872393e-03" rms="2.0036751031875610e-01" purity="9.5746308565139771e-01" nType="-99"/>
            <Node pos="r" depth="3" NCoef="0" IVar="-1" Cut="0.0000000000000000e+00" cType="1" res="1.1565886670723557e-03" rms="4.4992136955261230e-01" purity="7.1017265319824219e-01" nType="-99"/>
          </Node>
          <Node pos="r" depth="2" NCoef="0" IVar="-1" Cut="0.0000000000000000e+00" cType="1" res="1.8476714612916112e-03" rms="1.0774929821491241e-01" purity="9.8819130659103394e-01" nType="-99"/>
        </Node>
      </Node>
    </BinaryTree>
    <BinaryTree type="DecisionTree" boostWeight="1.0000000000000000e+00" itree="76">
      <Node pos="s" depth="0" NCoef="0" IVar="3" Cut="5.4312500000000000e+04" cType="1" res="1.2670539319515228e-01" rms="3.4511128067970276e-01" purity="4.9235475063323975e-01" nType="0">
        <Node pos="l" depth="1" NCoef="0" IVar="3" Cut="3.8844871093750000e+04" cType="1" res="4.6932236291468143e-03" rms="3.3522716164588928e-01" purity="2.2954110801219940e-01" nType="0">
          <Node pos="l" depth="2" NCoef="0" IVar="3" Cut="1.8588101562500000e+04" cType="1" res="-3.6918632686138153e-02" rms="2.9170259833335876e-01" purity="1.3359495997428894e-01" nType="0">
            <Node pos="l" depth="3" NCoef="0" IVar="-1" Cut="0.0000000000000000e+00" cType="1" res="-1.5331364236772060e-02" rms="1.9643928110599518e-01" purity="4.7453954815864563e-02" nType="-99"/>
            <Node pos="r" depth="3" NCoef="0" IVar="-1" Cut="0.0000000000000000e+00" cType="1" res="1.1837105266749859e-03" rms="3.5727158188819885e-01" purity="2.2603753209114075e-01" nType="-99"/>
          </Node>
          <Node pos="r" depth="2" NCoef="0" IVar="4" Cut="2.2195492187500000e+05" cType="1" res="1.7730455100536346e-01" rms="4.3426865339279175e-01" purity="6.2753802537918091e-01" nType="0">
            <Node pos="l" depth="3" NCoef="0" IVar="-1" Cut="0.0000000000000000e+00" cType="1" res="-3.8986673462204635e-04" rms="4.5580691099166870e-01" purity="3.8650134205818176e-01" nType="-99"/>
            <Node pos="r" depth="3" NCoef="0" IVar="-1" Cut="0.0000000000000000e+00" cType="1" res="2.4338455405086279e-03" rms="4.0831771492958069e-01" purity="7.0477014780044556e-01" nType="-99"/>
          </Node>
        </Node>
        <Node pos="r" depth="1" NCoef="0" IVar="3" Cut="1.0589962500000000e+05" cType="1" res="3.2727473974227905e-01" rms="2.5584360957145691e-01" purity="9.2438030242919922e-01" nType="0">
          <Node pos="l" depth="2" NCoef="0" IVar="3" Cut="5.9230421875000000e+04" cType="1" res="2.8738930821418762e-01" rms="3.2557499408721924e-01" purity="8.7135857343673706e-01" nType="0">
            <Node pos="l" depth="3" NCoef="0" IVar="-1" Cut="0.0000000000000000e+00" cType="1" res="8.8039058027788997e-04" rms="4.7578400373458862e-01" purity="6.1818230152130127e-01" nType="-99"/>
            <Node pos="r" depth="3" NCoef="0" IVar="-1" Cut="0.0000000000000000e+00" cType="1" res="2.3634661920368671e-03" rms="2.9251468181610107e-01" purity="9.0101957321166992e-01" nType="-99"/>
          </Node>
          <Node pos="r" depth="2" NCoef="0" IVar="1" Cut="8.4173687500000000e+04" cType="1" res="3.7037074565887451e-01" rms="1.3443645834922791e-01" purity="9.8166984319686890e-01" nType="0">
            <Node pos="l" depth="3" NCoef="0" IVar="-1" Cut="0.0000000000000000e+00" cType="1" res="2.8956646565347910e-03" rms="1.6406095027923584e-01" purity="9.7232890129089355e-01" nType="-99"/>
            <Node pos="r" depth="3" NCoef="0" IVar="-1" Cut="0.0000000000000000e+00" cType="1" res="2.8140926733613014e-03" rms="1.1471924930810928e-01" purity="9.8667830228805542e-01" nType="-99"/>
          </Node>
        </Node>
      </Node>
    </BinaryTree>
    <BinaryTree type="DecisionTree" boostWeight="1.0000000000000000e+00" itree="77">
      <Node pos="s" depth="0" NCoef="0" IVar="1" Cut="1.0034389062500000e+05" cType="1" res="1.1989498138427734e-01" rms="3.3817330002784729e-01" purity="4.8706755042076111e-01" nType="0">
        <Node pos="l" depth="1" NCoef="0" IVar="3" Cut="6.5538265625000000e+04" cType="1" res="4.5076543465256691e-03" rms="3.1433650851249695e-01" purity="2.7178147435188293e-01" nType="0">
          <Node pos="l" depth="2" NCoef="0" IVar="1" Cut="7.5099921875000000e+04" cType="1" res="-6.9755293428897858e-02" rms="2.7267894148826599e-01" purity="1.1175277829170227e-01" nType="0">
            <Node pos="l" depth="3" NCoef="0" IVar="-1" Cut="0.0000000000000000e+00" cType="1" res="1.8817160744220018e-03" rms="4.1738098859786987e-01" purity="3.4994363784790039e-01" nType="-99"/>
            <Node pos="r" depth="3" NCoef="0" IVar="-1" Cut="0.0000000000000000e+00" cType="1" res="-1.6954548656940460e-02" rms="2.0008508861064911e-01" purity="4.7014854848384857e-02" nType="-99"/>
          </Node>
          <Node pos="r" depth="2" NCoef="0" IVar="1" Cut="7.9414250000000000e+04" cType="1" res="2.9566404223442078e-01" rms="2.9713049530982971e-01" purity="8.9919239282608032e-01" nType="0">
            <Node pos="l" depth="3" NCoef="0" IVar="-1" Cut="0.0000000000000000e+00" cType="1" res="2.6367194950580597e-03" rms="2.2150152921676636e-01" purity="9.4744473695755005e-01" nType="-99"/>
            <Node pos="r" depth="3" NCoef="0" IVar="-1" Cut="0.0000000000000000e+00" cType="1" res="1.9060728373005986e-03" rms="4.2844656109809875e-01" purity="7.5326097011566162e-01" nType="-99"/>
          </Node>
        </Node>
        <Node pos="r" depth="1" NCoef="0" IVar="3" Cut="6.8736484375000000e+04" cType="1" res="3.1475007534027100e-01" rms="2.8315106034278870e-01" purity="8.5062211751937866e-01" nType="0">
          <Node pos="l" depth="2" NCoef="0" IVar="3" Cut="3.9230156250000000e+04" cType="1" res="2.5227239727973938e-01" rms="3.6848169565200806e-01" purity="7.2135907411575317e-01" nType="0">
            <Node pos="l" depth="3" NCoef="0" IVar="-1" Cut="0.0000000000000000e+00" cType="1" res="1.8380120163783431e-03" rms="4.3920212984085083e-01" purity="4.6551206707954407e-01" nType="-99"/>
            <Node pos="r" depth="3" NCoef="0" IVar="-1" Cut="0.0000000000000000e+00" cType="1" res="2.6185412425547838e-03" rms="2.2960984706878662e-01" purity="9.3931716680526733e-01" nType="-99"/>
          </Node>
          <Node pos="r" depth="2" NCoef="0" IVar="-1" Cut="0.0000000000000000e+00" cType="1" res="2.3194053210318089e-03" rms="1.1569790542125702e-01" purity="9.8635184764862061e-01" nType="-99"/>
        </Node>
      </Node>
    </BinaryTree>
    <BinaryTree type="DecisionTree" boostWeight="1.0000000000000000e+00" itree="78">
      <Node pos="s" depth="0" NCoef="0" IVar="3" Cut="5.4198226562500000e+04" cType="1" res="1.3746672868728638e-01" rms="3.5126978158950806e-01" purity="4.9696508049964905e-01" nType="0">
        <Node pos="l" depth="1" NCoef="0" IVar="2" Cut="3.5534518750000000e+05" cType="1" res="3.8202986121177673e-02" rms="3.5390746593475342e-01" purity="2.6785767078399658e-01" nType="0">
          <Node pos="l" depth="2" NCoef="0" IVar="1" Cut="8.1509937500000000e+04" cType="1" res="-2.1573197096586227e-02" rms="3.1828865408897400e-01" purity="1.6438862681388855e-01" nType="0">
            <Node pos="l" depth="3" NCoef="0" IVar="-1" Cut="0.0000000000000000e+00" cType="1" res="2.1521246526390314e-03" rms="4.1973999142646790e-01" purity="3.4478613734245300e-01" nType="-99"/>
            <Node pos="r" depth="3" NCoef="0" IVar="-1" Cut="0.0000000000000000e+00" cType="1" res="-6.0271690599620342e-03" rms="2.5832718610763550e-01" purity="9.9144846200942993e-02" nType="-99"/>
          </Node>
          <Node pos="r" depth="2" NCoef="0" IVar="3" Cut="1.5589989257812500e+04" cType="1" res="2.1311977505683899e-01" rms="3.9275968074798584e-01" purity="5.7062840461730957e-01" nType="0">
            <Node pos="l" depth="3" NCoef="0" IVar="-1" Cut="0.0000000000000000e+00" cType="1" res="-1.0353331454098225e-02" rms="2.1625444293022156e-01" purity="8.0064021050930023e-02" nType="-99"/>
            <Node pos="r" depth="3" NCoef="0" IVar="-1" Cut="0.0000000000000000e+00" cType="1" res="1.5403326833620667e-03" rms="3.8848742842674255e-01" purity="6.7349320650100708e-01" nType="-99"/>
          </Node>
        </Node>
        <Node pos="r" depth="1" NCoef="0" IVar="1" Cut="1.3213909375000000e+05" cType="1" res="3.2084226608276367e-01" rms="2.6100796461105347e-01" purity="9.2020803689956665e-01" nType="0">
          <Node pos="l" depth="2" NCoef="0" IVar="3" Cut="8.9369531250000000e+04" cType="1" res="2.8811413049697876e-01" rms="3.0736437439918518e-01" purity="8.8460344076156616e-01" nType="0">
            <Node pos="l" depth="3" NCoef="0" IVar="-1" Cut="0.0000000000000000e+00" cType="1" res="1.6581763047724962e-03" rms="4.0457212924957275e-01" purity="7.7777624130249023e-01" nType="-99"/>
            <Node pos="r" depth="3" NCoef="0" IVar="-1" Cut="0.0000000000000000e+00" cType="1" res="2.8045938815921545e-03" rms="1.7103166878223419e-01" purity="9.6974831819534302e-01" nType="-99"/>
          </Node>
          <Node pos="r" depth="2" NCoef="0" IVar="-1" Cut="0.0000000000000000e+00" cType="1" res="2.9154615476727486e-03" rms="1.1856192350387573e-01" purity="9.8571050167083740e-01" nType="-99"/>
        </Node>
      </Node>
    </BinaryTree>
    <BinaryTree type="DecisionTree" boostWeight="1.0000000000000000e+00" itree="79">
      <Node pos="s" depth="0" NCoef="0" IVar="3" Cut="6.8736484375000000e+04" cType="1" res="1.3516278564929962e-01" rms="3.3619034290313721e-01" purity="5.1112741231918335e-01" nType="0">
        <Node pos="l" depth="1" NCoef="0" IVar="1" Cut="9.3462679687500000e+04" cType="1" res="2.6956332847476006e-02" rms="3.4133210778236389e-01" purity="2.8894162178039551e-01" nType="0">
          <Node pos="l" depth="2" NCoef="0" IVar="1" Cut="6.6312484375000000e+04" cType="1" res="-6.1205308884382248e-02" rms="2.8513047099113464e-01" purity="1.2288068234920502e-01" nType="0">
            <Node pos="l" depth="3" NCoef="0" IVar="-1" Cut="0.0000000000000000e+00" cType="1" res="1.6725088935345411e-03" rms="4.1799524426460266e-01" purity="3.6828827857971191e-01" nType="-99"/>
            <Node pos="r" depth="3" NCoef="0" IVar="-1" Cut="0.0000000000000000e+00" cType="1" res="-1.2894452549517155e-02" rms="2.1945083141326904e-01" purity="5.5664081126451492e-02" nType="-99"/>
          </Node>
          <Node pos="r" depth="2" NCoef="0" IVar="3" Cut="2.6131871093750000e+04" cType="1" res="1.4664620161056519e-01" rms="3.7340220808982849e-01" purity="5.1438897848129272e-01" nType="0">
            <Node pos="l" depth="3" NCoef="0" IVar="-1" Cut="0.0000000000000000e+00" cType="1" res="-6.5818312577903271e-04" rms="3.2498505711555481e-01" purity="2.0500324666500092e-01" nType="-99"/>
            <Node pos="r" depth="3" NCoef="0" IVar="-1" Cut="0.0000000000000000e+00" cType="1" res="2.3985016159713268e-03" rms="3.6087355017662048e-01" purity="7.3919850587844849e-01" nType="-99"/>
          </Node>
        </Node>
        <Node pos="r" depth="1" NCoef="0" IVar="1" Cut="1.0105775000000000e+05" cType="1" res="3.5613310337066650e-01" rms="1.8213072419166565e-01" purity="9.6485698223114014e-01" nType="0">
          <Node pos="l" depth="2" NCoef="0" IVar="1" Cut="8.4202148437500000e+04" cType="1" res="3.2189920544624329e-01" rms="2.4873873591423035e-01" purity="9.3165248632431030e-01" nType="0">
            <Node pos="l" depth="3" NCoef="0" IVar="-1" Cut="0.0000000000000000e+00" cType="1" res="2.7784598059952259e-03" rms="1.8772143125534058e-01" purity="9.6266901493072510e-01" nType="-99"/>
            <Node pos="r" depth="3" NCoef="0" IVar="-1" Cut="0.0000000000000000e+00" cType="1" res="1.5852336073294282e-03" rms="3.7055626511573792e-01" purity="8.3127516508102417e-01" nType="-99"/>
          </Node>
          <Node pos="r" depth="2" NCoef="0" IVar="-1" Cut="0.0000000000000000e+00" cType="1" res="2.1498857531696558e-03" rms="9.3853473663330078e-02" purity="9.9112343788146973e-01" nType="-99"/>
        </Node>
      </Node>
    </BinaryTree>
    <BinaryTree type="DecisionTree" boostWeight="1.0000000000000000e+00" itree="80">
      <Node pos="s" depth="0" NCoef="0" IVar="3" Cut="5.7804234375000000e+04" cType="1" res="1.3306069374084473e-01" rms="3.4304207563400269e-01" purity="4.9497634172439575e-01" nType="0">
        <Node pos="l" depth="1" NCoef="0" IVar="2" Cut="3.6363312500000000e+05" cType="1" res="2.4772882461547852e-02" rms="3.4352132678031921e-01" purity="2.5734770298004150e-01" nType="0">
          <Node pos="l" depth="2" NCoef="0" IVar="1" Cut="7.3906195312500000e+04" cType="1" res="-1.8591288477182388e-02" rms="3.1482920050621033e-01" purity="1.7789483070373535e-01" nType="0">
            <Node pos="l" depth="3" NCoef="0" IVar="-1" Cut="0.0000000000000000e+00" cType="1" res="2.5241265539079905e-03" rms="4.4335696101188660e-01" purity="4.1647219657897949e-01" nType="-99"/>
            <Node pos="r" depth="3" NCoef="0" IVar="-1" Cut="0.0000000000000000e+00" cType="1" res="-4.0941238403320312e-03" rms="2.5011935830116272e-01" purity="1.1366383731365204e-01" nType="-99"/>
          </Node>
          <Node pos="r" depth="2" NCoef="0" IVar="3" Cut="2.2369171875000000e+04" cType="1" res="1.7386667430400848e-01" rms="3.9275696873664856e-01" purity="5.3052103519439697e-01" nType="0">
            <Node pos="l" depth="3" NCoef="0" IVar="-1" Cut="0.0000000000000000e+00" cType="1" res="-3.8881073123775423e-04" rms="3.3027848601341248e-01" purity="2.1739985048770905e-01" nType="-99"/>
            <Node pos="r" depth="3" NCoef="0" IVar="-1" Cut="0.0000000000000000e+00" cType="1" res="1.6110165743157268e-03" rms="3.8872677087783813e-01" purity="6.7724424600601196e-01" nType="-99"/>
          </Node>
        </Node>
        <Node pos="r" depth="1" NCoef="0" IVar="3" Cut="8.3933367187500000e+04" cType="1" res="3.3503824472427368e-01" rms="2.3323276638984680e-01" purity="9.3819934129714966e-01" nType="0">
          <Node pos="l" depth="2" NCoef="0" IVar="3" Cut="6.4028812500000000e+04" cType="1" res="2.7594062685966492e-01" rms="3.4254899621009827e-01" purity="8.5561037063598633e-01" nType="0">
            <Node pos="l" depth="3" NCoef="0" IVar="-1" Cut="0.0000000000000000e+00" cType="1" res="1.3019862817600369e-03" rms="4.2424204945564270e-01" purity="7.4116945266723633e-01" nType="-99"/>
            <Node pos="r" depth="3" NCoef="0" IVar="-1" Cut="0.0000000000000000e+00" cType="1" res="2.2110505960881710e-03" rms="3.0368769168853760e-01" purity="8.9421534538269043e-01" nType="-99"/>
          </Node>
          <Node pos="r" depth="2" NCoef="0" IVar="2" Cut="3.2165025000000000e+05" cType="1" res="3.6231818795204163e-01" rms="1.5161290764808655e-01" purity="9.7632306814193726e-01" nType="0">
            <Node pos="l" depth="3" NCoef="0" IVar="-1" Cut="0.0000000000000000e+00" cType="1" res="2.9191367793828249e-03" rms="1.8604899942874908e-01" purity="9.6374845504760742e-01" nType="-99"/>
            <Node pos="r" depth="3" NCoef="0" IVar="-1" Cut="0.0000000000000000e+00" cType="1" res="2.6294756680727005e-03" rms="1.2409698963165283e-01" purity="9.8432987928390503e-01" nType="-99"/>
          </Node>
        </Node>
      </Node>
    </BinaryTree>
    <BinaryTree type="DecisionTree" boostWeight="1.0000000000000000e+00" itree="81">
      <Node pos="s" depth="0" NCoef="0" IVar="3" Cut="5.4398707031250000e+04" cType="1" res="1.4056102931499481e-01" rms="3.3718612790107727e-01" purity="5.1454448699951172e-01" nType="0">
        <Node pos="l" depth="1" NCoef="0" IVar="3" Cut="2.8606556640625000e+04" cType="1" res="1.6768701374530792e-02" rms="3.3394739031791687e-01" purity="2.4393734335899353e-01" nType="0">
          <Node pos="l" depth="2" NCoef="0" IVar="4" Cut="4.7896906250000000e+05" cType="1" res="-5.2732978016138077e-02" rms="2.4793869256973267e-01" purity="9.6781700849533081e-02" nType="0">
            <Node pos="l" depth="3" NCoef="0" IVar="-1" Cut="0.0000000000000000e+00" cType="1" res="-7.0422999560832977e-03" rms="2.2259670495986938e-01" purity="7.1786895394325256e-02" nType="-99"/>
            <Node pos="r" depth="3" NCoef="0" IVar="-1" Cut="0.0000000000000000e+00" cType="1" res="2.9086687136441469e-03" rms="4.0452370047569275e-01" purity="3.6931672692298889e-01" nType="-99"/>
          </Node>
          <Node pos="r" depth="2" NCoef="0" IVar="1" Cut="1.0857270312500000e+05" cType="1" res="1.3424161076545715e-01" rms="4.1730943322181702e-01" purity="4.9266228079795837e-01" nType="0">
            <Node pos="l" depth="3" NCoef="0" IVar="-1" Cut="0.0000000000000000e+00" cType="1" res="9.2230824520811439e-04" rms="4.2087081074714661e-01" purity="3.1519684195518494e-01" nType="-99"/>
            <Node pos="r" depth="3" NCoef="0" IVar="-1" Cut="0.0000000000000000e+00" cType="1" res="1.5808807220309973e-03" rms="3.0323773622512817e-01" purity="8.9342302083969116e-01" nType="-99"/>
          </Node>
        </Node>
        <Node pos="r" depth="1" NCoef="0" IVar="1" Cut="1.0073193750000000e+05" cType="1" res="3.3328056335449219e-01" rms="2.3681293427944183e-01" purity="9.3582487106323242e-01" nType="0">
          <Node pos="l" depth="2" NCoef="0" IVar="1" Cut="8.3844640625000000e+04" cType="1" res="2.8824719786643982e-01" rms="3.0460900068283081e-01" purity="8.8658159971237183e-01" nType="0">
            <Node pos="l" depth="3" NCoef="0" IVar="-1" Cut="0.0000000000000000e+00" cType="1" res="2.5740913115441799e-03" rms="2.2747607529163361e-01" purity="9.4295823574066162e-01" nType="-99"/>
            <Node pos="r" depth="3" NCoef="0" IVar="-1" Cut="0.0000000000000000e+00" cType="1" res="1.4642381574958563e-03" rms="4.2729437351226807e-01" purity="7.2830682992935181e-01" nType="-99"/>
          </Node>
          <Node pos="r" depth="2" NCoef="0" IVar="3" Cut="1.0604869531250000e+05" cType="1" res="3.6842939257621765e-01" rms="1.5688389539718628e-01" purity="9.7425949573516846e-01" nType="0">
            <Node pos="l" depth="3" NCoef="0" IVar="-1" Cut="0.0000000000000000e+00" cType="1" res="2.1510992664843798e-03" rms="1.9675415754318237e-01" purity="9.5912355184555054e-01" nType="-99"/>
            <Node pos="r" depth="3" NCoef="0" IVar="-1" Cut="0.0000000000000000e+00" cType="1" res="2.8482812922447920e-03" rms="8.6410246789455414e-02" purity="9.9248135089874268e-01" nType="-99"/>
          </Node>
        </Node>
      </Node>
    </BinaryTree>
    <BinaryTree type="DecisionTree" boostWeight="1.0000000000000000e+00" itree="82">
      <Node pos="s" depth="0" NCoef="0" IVar="3" Cut="3.8014234375000000e+04" cType="1" res="1.1735449731349945e-01" rms="3.3670279383659363e-01" purity="4.8224744200706482e-01" nType="0">
        <Node pos="l" depth="1" NCoef="0" IVar="1" Cut="1.1671792187500000e+05" cType="1" res="-3.3381327986717224e-02" rms="2.7849814295768738e-01" purity="1.3022904098033905e-01" nType="0">
          <Node pos="l" depth="2" NCoef="0" IVar="1" Cut="6.6868953125000000e+04" cType="1" res="-5.7673349976539612e-02" rms="2.3770430684089661e-01" purity="6.5157502889633179e-02" nType="0">
            <Node pos="l" depth="3" NCoef="0" IVar="-1" Cut="0.0000000000000000e+00" cType="1" res="2.6667995844036341e-03" rms="4.0707555413246155e-01" purity="2.2321316599845886e-01" nType="-99"/>
            <Node pos="r" depth="3" NCoef="0" IVar="-1" Cut="0.0000000000000000e+00" cType="1" res="-1.7028922215104103e-02" rms="1.9353432953357697e-01" purity="4.0210995823144913e-02" nType="-99"/>
          </Node>
          <Node pos="r" depth="2" NCoef="0" IVar="3" Cut="2.2042091796875000e+04" cType="1" res="1.5509302914142609e-01" rms="4.4815382361412048e-01" purity="6.3509923219680786e-01" nType="0">
            <Node pos="l" depth="3" NCoef="0" IVar="-1" Cut="0.0000000000000000e+00" cType="1" res="4.3806168832816184e-05" rms="4.5880708098411560e-01" purity="4.4916701316833496e-01" nType="-99"/>
            <Node pos="r" depth="3" NCoef="0" IVar="-1" Cut="0.0000000000000000e+00" cType="1" res="3.3926619216799736e-03" rms="3.9103555679321289e-01" purity="8.0106943845748901e-01" nType="-99"/>
          </Node>
        </Node>
        <Node pos="r" depth="1" NCoef="0" IVar="3" Cut="7.3958726562500000e+04" cType="1" res="2.6793491840362549e-01" rms="3.2212898135185242e-01" purity="8.3390289545059204e-01" nType="0">
          <Node pos="l" depth="2" NCoef="0" IVar="1" Cut="1.0360027343750000e+05" cType="1" res="1.5937004983425140e-01" rms="4.1957363486289978e-01" purity="6.5844786167144775e-01" nType="0">
            <Node pos="l" depth="3" NCoef="0" IVar="-1" Cut="0.0000000000000000e+00" cType="1" res="7.8019523061811924e-04" rms="4.5138105750083923e-01" purity="5.1037150621414185e-01" nType="-99"/>
            <Node pos="r" depth="3" NCoef="0" IVar="-1" Cut="0.0000000000000000e+00" cType="1" res="2.7888601180166006e-03" rms="2.9328769445419312e-01" purity="8.9913207292556763e-01" nType="-99"/>
          </Node>
          <Node pos="r" depth="2" NCoef="0" IVar="1" Cut="1.2602377343750000e+05" cType="1" res="3.4726208448410034e-01" rms="1.8987263739109039e-01" purity="9.6210598945617676e-01" nType="0">
            <Node pos="l" depth="3" NCoef="0" IVar="-1" Cut="0.0000000000000000e+00" cType="1" res="2.5638870429247618e-03" rms="2.3124577105045319e-01" purity="9.4237190485000610e-01" nType="-99"/>
            <Node pos="r" depth="3" NCoef="0" IVar="-1" Cut="0.0000000000000000e+00" cType="1" res="2.5001978501677513e-03" rms="1.0170263051986694e-01" purity="9.8955357074737549e-01" nType="-99"/>
          </Node>
        </Node>
      </Node>
    </BinaryTree>
    <BinaryTree type="DecisionTree" boostWeight="1.0000000000000000e+00" itree="83">
      <Node pos="s" depth="0" NCoef="0" IVar="3" Cut="6.6048632812500000e+04" cType="1" res="1.3826090097427368e-01" rms="3.4127217531204224e-01" purity="5.0152617692947388e-01" nType="0">
        <Node pos="l" depth="1" NCoef="0" IVar="3" Cut="4.0930914062500000e+04" cType="1" res="3.7910182029008865e-02" rms="3.5150051116943359e-01" purity="2.8242874145507812e-01" nType="0">
          <Node pos="l" depth="2" NCoef="0" IVar="4" Cut="4.7310621875000000e+05" cType="1" res="-7.9000964760780334e-03" rms="3.1146776676177979e-01" purity="1.6427177190780640e-01" nType="0">
            <Node pos="l" depth="3" NCoef="0" IVar="-1" Cut="0.0000000000000000e+00" cType="1" res="-1.5923639293760061e-03" rms="2.9559728503227234e-01" purity="1.3349138200283051e-01" nType="-99"/>
            <Node pos="r" depth="3" NCoef="0" IVar="-1" Cut="0.0000000000000000e+00" cType="1" res="2.6376543100923300e-03" rms="4.0231293439865112e-01" purity="4.5371067523956299e-01" nType="-99"/>
          </Node>
          <Node pos="r" depth="2" NCoef="0" IVar="2" Cut="2.8271503125000000e+05" cType="1" res="1.9289141893386841e-01" rms="4.2687574028968811e-01" purity="6.8216669559478760e-01" nType="0">
            <Node pos="l" depth="3" NCoef="0" IVar="-1" Cut="0.0000000000000000e+00" cType="1" res="1.1988903861492872e-03" rms="4.6790421009063721e-01" purity="5.5111652612686157e-01" nType="-99"/>
            <Node pos="r" depth="3" NCoef="0" IVar="-1" Cut="0.0000000000000000e+00" cType="1" res="1.4331241836771369e-03" rms="3.7868353724479675e-01" purity="7.7935731410980225e-01" nType="-99"/>
          </Node>
        </Node>
        <Node pos="r" depth="1" NCoef="0" IVar="3" Cut="9.5963679687500000e+04" cType="1" res="3.4865048527717590e-01" rms="1.9035305082798004e-01" purity="9.6087330579757690e-01" nType="0">
          <Node pos="l" depth="2" NCoef="0" IVar="3" Cut="7.7497500000000000e+04" cType="1" res="3.1665492057800293e-01" rms="2.7692681550979614e-01" purity="9.1352164745330811e-01" nType="0">
            <Node pos="l" depth="3" NCoef="0" IVar="-1" Cut="0.0000000000000000e+00" cType="1" res="2.8605854604393244e-03" rms="3.3236518502235413e-01" purity="8.6906725168228149e-01" nType="-99"/>
            <Node pos="r" depth="3" NCoef="0" IVar="-1" Cut="0.0000000000000000e+00" cType="1" res="2.2040952462702990e-03" rms="2.2432452440261841e-01" purity="9.4648289680480957e-01" nType="-99"/>
          </Node>
          <Node pos="r" depth="2" NCoef="0" IVar="1" Cut="1.1128134375000000e+05" cType="1" res="3.6451411247253418e-01" rms="1.2416765093803406e-01" purity="9.8435062170028687e-01" nType="0">
            <Node pos="l" depth="3" NCoef="0" IVar="-1" Cut="0.0000000000000000e+00" cType="1" res="2.6961246039718390e-03" rms="1.3721893727779388e-01" purity="9.8076027631759644e-01" nType="-99"/>
            <Node pos="r" depth="3" NCoef="0" IVar="-1" Cut="0.0000000000000000e+00" cType="1" res="2.5985522661358118e-03" rms="1.0439781099557877e-01" purity="9.8897933959960938e-01" nType="-99"/>
          </Node>
        </Node>
      </Node>
    </BinaryTree>
    <BinaryTree type="DecisionTree" boostWeight="1.0000000000000000e+00" itree="84">
      <Node pos="s" depth="0" NCoef="0" IVar="3" Cut="6.8736484375000000e+04" cType="1" res="1.4787502586841583e-01" rms="3.4372952580451965e-01" purity="5.1538997888565063e-01" nType="0">
        <Node pos="l" depth="1" NCoef="0" IVar="1" Cut="1.5585303125000000e+05" cType="1" res="5.9533949941396713e-02" rms="3.5933566093444824e-01" purity="3.1822076439857483e-01" nType="0">
          <Node pos="l" depth="2" NCoef="0" IVar="1" Cut="8.0306343750000000e+04" cType="1" res="2.3955820128321648e-02" rms="3.5049808025360107e-01" purity="2.3905487358570099e-01" nType="0">
            <Node pos="l" depth="3" NCoef="0" IVar="-1" Cut="0.0000000000000000e+00" cType="1" res="2.7287192642688751e-03" rms="4.3989318609237671e-01" purity="4.6072846651077271e-01" nType="-99"/>
            <Node pos="r" depth="3" NCoef="0" IVar="-1" Cut="0.0000000000000000e+00" cType="1" res="-1.3485713861882687e-03" rms="2.9460114240646362e-01" purity="1.6308318078517914e-01" nType="-99"/>
          </Node>
          <Node pos="r" depth="2" NCoef="0" IVar="3" Cut="2.3353894531250000e+04" cType="1" res="3.1172356009483337e-01" rms="3.1783112883567810e-01" purity="8.7937486171722412e-01" nType="0">
            <Node pos="l" depth="3" NCoef="0" IVar="-1" Cut="0.0000000000000000e+00" cType="1" res="2.3877227213233709e-03" rms="4.4748547673225403e-01" purity="7.2078692913055420e-01" nType="-99"/>
            <Node pos="r" depth="3" NCoef="0" IVar="-1" Cut="0.0000000000000000e+00" cType="1" res="3.5460952203720808e-03" rms="2.4785114824771881e-01" purity="9.3407928943634033e-01" nType="-99"/>
          </Node>
        </Node>
        <Node pos="r" depth="1" NCoef="0" IVar="1" Cut="1.2541114062500000e+05" cType="1" res="3.4822708368301392e-01" rms="1.8821689486503601e-01" purity="9.6255743503570557e-01" nType="0">
          <Node pos="l" depth="2" NCoef="0" IVar="3" Cut="1.0322634375000000e+05" cType="1" res="3.3027148246765137e-01" rms="2.2646528482437134e-01" purity="9.4460439682006836e-01" nType="0">
            <Node pos="l" depth="3" NCoef="0" IVar="-1" Cut="0.0000000000000000e+00" cType="1" res="2.0683305338025093e-03" rms="2.9590886831283569e-01" purity="9.0181708335876465e-01" nType="-99"/>
            <Node pos="r" depth="3" NCoef="0" IVar="-1" Cut="0.0000000000000000e+00" cType="1" res="2.4447659961879253e-03" rms="1.5777117013931274e-01" purity="9.7448825836181641e-01" nType="-99"/>
          </Node>
          <Node pos="r" depth="2" NCoef="0" IVar="-1" Cut="0.0000000000000000e+00" cType="1" res="2.3790723644196987e-03" rms="1.0130941867828369e-01" purity="9.8965597152709961e-01" nType="-99"/>
        </Node>
      </Node>
    </BinaryTree>
    <BinaryTree type="DecisionTree" boostWeight="1.0000000000000000e+00" itree="85">
      <Node pos="s" depth="0" NCoef="0" IVar="3" Cut="5.4259988281250000e+04" cType="1" res="1.2675771117210388e-01" rms="3.3474624156951904e-01" purity="4.9352803826332092e-01" nType="0">
        <Node pos="l" depth="1" NCoef="0" IVar="1" Cut="1.5586417187500000e+05" cType="1" res="-2.6940365205518901e-04" rms="3.2476112246513367e-01" purity="2.1588960289955139e-01" nType="0">
          <Node pos="l" depth="2" NCoef="0" IVar="1" Cut="1.0091302343750000e+05" cType="1" res="-3.2190263271331787e-02" rms="3.0505189299583435e-01" purity="1.4273837208747864e-01" nType="0">
            <Node pos="l" depth="3" NCoef="0" IVar="-1" Cut="0.0000000000000000e+00" cType="1" res="-5.5122403427958488e-03" rms="2.7212524414062500e-01" purity="9.3670606613159180e-02" nType="-99"/>
            <Node pos="r" depth="3" NCoef="0" IVar="-1" Cut="0.0000000000000000e+00" cType="1" res="2.3808197584003210e-03" rms="4.3246728181838989e-01" purity="4.7402077913284302e-01" nType="-99"/>
          </Node>
          <Node pos="r" depth="2" NCoef="0" IVar="-1" Cut="0.0000000000000000e+00" cType="1" res="2.7210190892219543e-03" rms="3.5906058549880981e-01" purity="8.3490931987762451e-01" nType="-99"/>
        </Node>
        <Node pos="r" depth="1" NCoef="0" IVar="1" Cut="1.3196950000000000e+05" cType="1" res="3.2876068353652954e-01" rms="2.3677442967891693e-01" purity="9.3503844738006592e-01" nType="0">
          <Node pos="l" depth="2" NCoef="0" IVar="3" Cut="8.9436804687500000e+04" cType="1" res="3.0387371778488159e-01" rms="2.7933648228645325e-01" purity="9.0632355213165283e-01" nType="0">
            <Node pos="l" depth="3" NCoef="0" IVar="-1" Cut="0.0000000000000000e+00" cType="1" res="2.1502971649169922e-03" rms="3.7394508719444275e-01" purity="8.1818115711212158e-01" nType="-99"/>
            <Node pos="r" depth="3" NCoef="0" IVar="-1" Cut="0.0000000000000000e+00" cType="1" res="2.4541683960705996e-03" rms="1.6533480584621429e-01" purity="9.7178000211715698e-01" nType="-99"/>
          </Node>
          <Node pos="r" depth="2" NCoef="0" IVar="-1" Cut="0.0000000000000000e+00" cType="1" res="2.4397308006882668e-03" rms="1.3113592565059662e-01" purity="9.8231571912765503e-01" nType="-99"/>
        </Node>
      </Node>
    </BinaryTree>
    <BinaryTree type="DecisionTree" boostWeight="1.0000000000000000e+00" itree="86">
      <Node pos="s" depth="0" NCoef="0" IVar="3" Cut="3.3086437500000000e+04" cType="1" res="1.4180970191955566e-01" rms="3.3476492762565613e-01" purity="5.1529699563980103e-01" nType="0">
        <Node pos="l" depth="1" NCoef="0" IVar="1" Cut="1.1369009375000000e+05" cType="1" res="-1.9050145521759987e-02" rms="2.8462958335876465e-01" purity="1.3627421855926514e-01" nType="0">
          <Node pos="l" depth="2" NCoef="0" IVar="1" Cut="7.4948367187500000e+04" cType="1" res="-4.4827520847320557e-02" rms="2.4161799252033234e-01" purity="6.8063504993915558e-02" nType="0">
            <Node pos="l" depth="3" NCoef="0" IVar="-1" Cut="0.0000000000000000e+00" cType="1" res="2.1856664679944515e-03" rms="4.1871199011802673e-01" purity="2.2985246777534485e-01" nType="-99"/>
            <Node pos="r" depth="3" NCoef="0" IVar="-1" Cut="0.0000000000000000e+00" cType="1" res="-1.7579505220055580e-02" rms="1.7955103516578674e-01" purity="3.5741437226533890e-02" nType="-99"/>
          </Node>
          <Node pos="r" depth="2" NCoef="0" IVar="5" Cut="9.0580898437500000e+04" cType="1" res="1.7011691629886627e-01" rms="4.5437699556350708e-01" purity="6.3683819770812988e-01" nType="0">
            <Node pos="l" depth="3" NCoef="0" IVar="-1" Cut="0.0000000000000000e+00" cType="1" res="2.5011049583554268e-03" rms="4.1535380482673645e-01" purity="7.3448270559310913e-01" nType="-99"/>
            <Node pos="r" depth="3" NCoef="0" IVar="-1" Cut="0.0000000000000000e+00" cType="1" res="-1.3397379370871931e-04" rms="4.7553968429565430e-01" purity="4.4560056924819946e-01" nType="-99"/>
          </Node>
        </Node>
        <Node pos="r" depth="1" NCoef="0" IVar="3" Cut="6.4485140625000000e+04" cType="1" res="2.7003461122512817e-01" rms="3.1583723425865173e-01" purity="8.1742429733276367e-01" nType="0">
          <Node pos="l" depth="2" NCoef="0" IVar="1" Cut="1.2552489843750000e+05" cType="1" res="1.5672402083873749e-01" rms="4.1572773456573486e-01" purity="5.9689629077911377e-01" nType="0">
            <Node pos="l" depth="3" NCoef="0" IVar="-1" Cut="0.0000000000000000e+00" cType="1" res="7.0194381987676024e-04" rms="4.4105041027069092e-01" purity="4.5745170116424561e-01" nType="-99"/>
            <Node pos="r" depth="3" NCoef="0" IVar="-1" Cut="0.0000000000000000e+00" cType="1" res="1.8039714777842164e-03" rms="2.4565005302429199e-01" purity="9.3497860431671143e-01" nType="-99"/>
          </Node>
          <Node pos="r" depth="2" NCoef="0" IVar="3" Cut="9.4390703125000000e+04" cType="1" res="3.4116023778915405e-01" rms="2.0190249383449554e-01" purity="9.5585089921951294e-01" nType="0">
            <Node pos="l" depth="3" NCoef="0" IVar="-1" Cut="0.0000000000000000e+00" cType="1" res="1.5843852888792753e-03" rms="3.0274888873100281e-01" purity="8.9555180072784424e-01" nType="-99"/>
            <Node pos="r" depth="3" NCoef="0" IVar="-1" Cut="0.0000000000000000e+00" cType="1" res="2.5761621072888374e-03" rms="1.2227314710617065e-01" purity="9.8485273122787476e-01" nType="-99"/>
          </Node>
        </Node>
      </Node>
    </BinaryTree>
    <BinaryTree type="DecisionTree" boostWeight="1.0000000000000000e+00" itree="87">
      <Node pos="s" depth="0" NCoef="0" IVar="3" Cut="6.8798242187500000e+04" cType="1" res="1.3413730263710022e-01" rms="3.2912364602088928e-01" purity="5.0482243299484253e-01" nType="0">
        <Node pos="l" depth="1" NCoef="0" IVar="3" Cut="3.9359789062500000e+04" cType="1" res="3.6035399883985519e-02" rms="3.3452931046485901e-01" purity="2.9200223088264465e-01" nType="0">
          <Node pos="l" depth="2" NCoef="0" IVar="1" Cut="1.3645210937500000e+05" cType="1" res="-2.8067260980606079e-02" rms="2.7499309182167053e-01" purity="1.3537122309207916e-01" nType="0">
            <Node pos="l" depth="3" NCoef="0" IVar="-1" Cut="0.0000000000000000e+00" cType="1" res="-5.8608413673937321e-03" rms="2.4324451386928558e-01" purity="7.6444819569587708e-02" nType="-99"/>
            <Node pos="r" depth="3" NCoef="0" IVar="-1" Cut="0.0000000000000000e+00" cType="1" res="2.4392169434577227e-03" rms="4.3089166283607483e-01" purity="7.3568266630172729e-01" nType="-99"/>
          </Node>
          <Node pos="r" depth="2" NCoef="0" IVar="2" Cut="4.2246581250000000e+05" cType="1" res="2.0284344255924225e-01" rms="4.0966144204139709e-01" purity="6.9958776235580444e-01" nType="0">
            <Node pos="l" depth="3" NCoef="0" IVar="-1" Cut="0.0000000000000000e+00" cType="1" res="1.6729751368984580e-03" rms="4.2759639024734497e-01" purity="6.4629966020584106e-01" nType="-99"/>
            <Node pos="r" depth="3" NCoef="0" IVar="-1" Cut="0.0000000000000000e+00" cType="1" res="3.5137373488396406e-03" rms="3.1957271695137024e-01" purity="8.6167412996292114e-01" nType="-99"/>
          </Node>
        </Node>
        <Node pos="r" depth="1" NCoef="0" IVar="1" Cut="1.2541114062500000e+05" cType="1" res="3.4505841135978699e-01" rms="1.8822789192199707e-01" purity="9.6239000558853149e-01" nType="0">
          <Node pos="l" depth="2" NCoef="0" IVar="3" Cut="1.0329364062500000e+05" cType="1" res="3.2508698105812073e-01" rms="2.3090340197086334e-01" purity="9.4202160835266113e-01" nType="0">
            <Node pos="l" depth="3" NCoef="0" IVar="-1" Cut="0.0000000000000000e+00" cType="1" res="2.1284902468323708e-03" rms="3.0126765370368958e-01" purity="8.9762169122695923e-01" nType="-99"/>
            <Node pos="r" depth="3" NCoef="0" IVar="-1" Cut="0.0000000000000000e+00" cType="1" res="2.5915757287293673e-03" rms="1.4497973024845123e-01" purity="9.7850906848907471e-01" nType="-99"/>
          </Node>
          <Node pos="r" depth="2" NCoef="0" IVar="-1" Cut="0.0000000000000000e+00" cType="1" res="2.2078948095440865e-03" rms="9.7981408238410950e-02" purity="9.9032586812973022e-01" nType="-99"/>
        </Node>
      </Node>
    </BinaryTree>
    <BinaryTree type="DecisionTree" boostWeight="1.0000000000000000e+00" itree="88">
      <Node pos="s" depth="0" NCoef="0" IVar="3" Cut="4.4463175781250000e+04" cType="1" res="1.4313344657421112e-01" rms="3.4300655126571655e-01" purity="5.0832122564315796e-01" nType="0">
        <Node pos="l" depth="1" NCoef="0" IVar="3" Cut="1.2741922851562500e+04" cType="1" res="2.3482436314225197e-02" rms="3.3450385928153992e-01" purity="2.1062621474266052e-01" nType="0">
          <Node pos="l" depth="2" NCoef="0" IVar="5" Cut="8.8780023437500000e+04" cType="1" res="-7.9208500683307648e-02" rms="1.6738931834697723e-01" purity="5.1307946443557739e-02" nType="0">
            <Node pos="l" depth="3" NCoef="0" IVar="-1" Cut="0.0000000000000000e+00" cType="1" res="-3.3707699458318530e-06" rms="2.8551876544952393e-01" purity="2.0131392776966095e-01" nType="-99"/>
            <Node pos="r" depth="3" NCoef="0" IVar="-1" Cut="0.0000000000000000e+00" cType="1" res="-3.1625244766473770e-02" rms="1.1615138500928879e-01" purity="1.5719400718808174e-02" nType="-99"/>
          </Node>
          <Node pos="r" depth="2" NCoef="0" IVar="1" Cut="9.3450960937500000e+04" cType="1" res="6.4609013497829437e-02" rms="3.7358877062797546e-01" purity="2.7443140745162964e-01" nType="0">
            <Node pos="l" depth="3" NCoef="0" IVar="-1" Cut="0.0000000000000000e+00" cType="1" res="1.6724360466469079e-04" rms="3.3817961812019348e-01" purity="1.4922052621841431e-01" nType="-99"/>
            <Node pos="r" depth="3" NCoef="0" IVar="-1" Cut="0.0000000000000000e+00" cType="1" res="2.3931392934173346e-03" rms="4.0422412753105164e-01" purity="4.6705073118209839e-01" nType="-99"/>
          </Node>
        </Node>
        <Node pos="r" depth="1" NCoef="0" IVar="3" Cut="8.6757078125000000e+04" cType="1" res="2.9370307922363281e-01" rms="2.9019948840141296e-01" purity="8.8294261693954468e-01" nType="0">
          <Node pos="l" depth="2" NCoef="0" IVar="3" Cut="5.4524621093750000e+04" cType="1" res="2.3175601661205292e-01" rms="3.7535881996154785e-01" purity="7.8469026088714600e-01" nType="0">
            <Node pos="l" depth="3" NCoef="0" IVar="-1" Cut="0.0000000000000000e+00" cType="1" res="1.7906962893903255e-03" rms="4.4286641478538513e-01" purity="5.9786325693130493e-01" nType="-99"/>
            <Node pos="r" depth="3" NCoef="0" IVar="-1" Cut="0.0000000000000000e+00" cType="1" res="2.1671885624527931e-03" rms="3.3077263832092285e-01" purity="8.6553269624710083e-01" nType="-99"/>
          </Node>
          <Node pos="r" depth="2" NCoef="0" IVar="1" Cut="9.5508867187500000e+04" cType="1" res="3.5229331254959106e-01" rms="1.5344795584678650e-01" purity="9.7587072849273682e-01" nType="0">
            <Node pos="l" depth="3" NCoef="0" IVar="-1" Cut="0.0000000000000000e+00" cType="1" res="2.7071496006101370e-03" rms="1.9591943919658661e-01" purity="9.5975917577743530e-01" nType="-99"/>
            <Node pos="r" depth="3" NCoef="0" IVar="-1" Cut="0.0000000000000000e+00" cType="1" res="2.7039679698646069e-03" rms="1.1352655291557312e-01" purity="9.8693948984146118e-01" nType="-99"/>
          </Node>
        </Node>
      </Node>
    </BinaryTree>
    <BinaryTree type="DecisionTree" boostWeight="1.0000000000000000e+00" itree="89">
      <Node pos="s" depth="0" NCoef="0" IVar="3" Cut="3.8008914062500000e+04" cType="1" res="1.3398194313049316e-01" rms="3.3621430397033691e-01" purity="4.9513185024261475e-01" nType="0">
        <Node pos="l" depth="1" NCoef="0" IVar="4" Cut="4.7310621875000000e+05" cType="1" res="-5.9000388719141483e-03" rms="3.0332049727439880e-01" purity="1.5116241574287415e-01" nType="0">
          <Node pos="l" depth="2" NCoef="0" IVar="3" Cut="3.4413812500000000e+04" cType="1" res="-2.4331729859113693e-02" rms="2.8215020895004272e-01" purity="1.1936362087726593e-01" nType="0">
            <Node pos="l" depth="3" NCoef="0" IVar="-1" Cut="0.0000000000000000e+00" cType="1" res="-3.5813522990792990e-03" rms="2.5816485285758972e-01" purity="9.4588682055473328e-02" nType="-99"/>
            <Node pos="r" depth="3" NCoef="0" IVar="-1" Cut="0.0000000000000000e+00" cType="1" res="3.9546256884932518e-03" rms="4.4572657346725464e-01" purity="4.3596526980400085e-01" nType="-99"/>
          </Node>
          <Node pos="r" depth="2" NCoef="0" IVar="5" Cut="8.9946476562500000e+04" cType="1" res="1.6930703818798065e-01" rms="4.1939988732337952e-01" purity="4.5343402028083801e-01" nType="0">
            <Node pos="l" depth="3" NCoef="0" IVar="-1" Cut="0.0000000000000000e+00" cType="1" res="-3.4700660035014153e-03" rms="3.6568063497543335e-01" purity="1.9804567098617554e-01" nType="-99"/>
            <Node pos="r" depth="3" NCoef="0" IVar="-1" Cut="0.0000000000000000e+00" cType="1" res="4.4855750165879726e-03" rms="4.0890347957611084e-01" purity="5.3011268377304077e-01" nType="-99"/>
          </Node>
        </Node>
        <Node pos="r" depth="1" NCoef="0" IVar="3" Cut="7.3951273437500000e+04" cType="1" res="2.7863633632659912e-01" rms="3.0599850416183472e-01" purity="8.5083663463592529e-01" nType="0">
          <Node pos="l" depth="2" NCoef="0" IVar="2" Cut="2.6478446875000000e+05" cType="1" res="1.7644588649272919e-01" rms="4.1395875811576843e-01" purity="6.7634040117263794e-01" nType="0">
            <Node pos="l" depth="3" NCoef="0" IVar="-1" Cut="0.0000000000000000e+00" cType="1" res="7.8912248136475682e-04" rms="4.6393638849258423e-01" purity="5.0771158933639526e-01" nType="-99"/>
            <Node pos="r" depth="3" NCoef="0" IVar="-1" Cut="0.0000000000000000e+00" cType="1" res="2.3858863860368729e-03" rms="3.6252820491790771e-01" purity="7.7960306406021118e-01" nType="-99"/>
          </Node>
          <Node pos="r" depth="2" NCoef="0" IVar="1" Cut="1.2622627343750000e+05" cType="1" res="3.4861731529235840e-01" rms="1.6839939355850220e-01" purity="9.7033321857452393e-01" nType="0">
            <Node pos="l" depth="3" NCoef="0" IVar="-1" Cut="0.0000000000000000e+00" cType="1" res="2.3406008258461952e-03" rms="2.0597274601459503e-01" purity="9.5476961135864258e-01" nType="-99"/>
            <Node pos="r" depth="3" NCoef="0" IVar="-1" Cut="0.0000000000000000e+00" cType="1" res="2.8561435174196959e-03" rms="9.0510532259941101e-02" purity="9.9173682928085327e-01" nType="-99"/>
          </Node>
        </Node>
      </Node>
    </BinaryTree>
    <BinaryTree type="DecisionTree" boostWeight="1.0000000000000000e+00" itree="90">
      <Node pos="s" depth="0" NCoef="0" IVar="3" Cut="3.7808433593750000e+04" cType="1" res="1.3585475087165833e-01" rms="3.3820751309394836e-01" purity="4.9810540676116943e-01" nType="0">
        <Node pos="l" depth="1" NCoef="0" IVar="1" Cut="1.3641148437500000e+05" cType="1" res="4.8043341375887394e-03" rms="3.0289316177368164e-01" purity="1.7087692022323608e-01" nType="0">
          <Node pos="l" depth="2" NCoef="0" IVar="1" Cut="1.1255171875000000e+05" cType="1" res="-1.8684433773159981e-02" rms="2.7886140346527100e-01" purity="1.0560122132301331e-01" nType="0">
            <Node pos="l" depth="3" NCoef="0" IVar="-1" Cut="0.0000000000000000e+00" cType="1" res="-4.2362925596535206e-03" rms="2.5509116053581238e-01" purity="7.7674083411693573e-02" nType="-99"/>
            <Node pos="r" depth="3" NCoef="0" IVar="-1" Cut="0.0000000000000000e+00" cType="1" res="1.5510375378653407e-03" rms="4.5776376128196716e-01" purity="5.9157848358154297e-01" nType="-99"/>
          </Node>
          <Node pos="r" depth="2" NCoef="0" IVar="3" Cut="1.8633962890625000e+04" cType="1" res="2.1625435352325439e-01" rms="4.0978306531906128e-01" purity="7.5850009918212891e-01" nType="0">
            <Node pos="l" depth="3" NCoef="0" IVar="-1" Cut="0.0000000000000000e+00" cType="1" res="-1.4833873137831688e-04" rms="4.9530035257339478e-01" purity="4.7154563665390015e-01" nType="-99"/>
            <Node pos="r" depth="3" NCoef="0" IVar="-1" Cut="0.0000000000000000e+00" cType="1" res="2.7233753353357315e-03" rms="3.4540796279907227e-01" purity="8.5469835996627808e-01" nType="-99"/>
          </Node>
        </Node>
        <Node pos="r" depth="1" NCoef="0" IVar="1" Cut="1.0347596093750000e+05" cType="1" res="2.7178886532783508e-01" rms="3.1870952248573303e-01" purity="8.3752828836441040e-01" nType="0">
          <Node pos="l" depth="2" NCoef="0" IVar="1" Cut="8.6051335937500000e+04" cType="1" res="1.8385149538516998e-01" rms="3.8979861140251160e-01" purity="7.1782130002975464e-01" nType="0">
            <Node pos="l" depth="3" NCoef="0" IVar="-1" Cut="0.0000000000000000e+00" cType="1" res="2.6844094973057508e-03" rms="3.2359403371810913e-01" purity="8.5157549381256104e-01" nType="-99"/>
            <Node pos="r" depth="3" NCoef="0" IVar="-1" Cut="0.0000000000000000e+00" cType="1" res="-1.4420095831155777e-03" rms="4.2163994908332825e-01" purity="3.8118621706962585e-01" nType="-99"/>
          </Node>
          <Node pos="r" depth="2" NCoef="0" IVar="5" Cut="8.9649179687500000e+04" cType="1" res="3.6729672551155090e-01" rms="1.7132434248924255e-01" purity="9.6754080057144165e-01" nType="0">
            <Node pos="l" depth="3" NCoef="0" IVar="-1" Cut="0.0000000000000000e+00" cType="1" res="2.0128518808633089e-03" rms="1.6171552240848541e-01" purity="9.7276002168655396e-01" nType="-99"/>
            <Node pos="r" depth="3" NCoef="0" IVar="-1" Cut="0.0000000000000000e+00" cType="1" res="2.7642813511192799e-03" rms="1.7771747708320618e-01" purity="9.6356022357940674e-01" nType="-99"/>
          </Node>
        </Node>
      </Node>
    </BinaryTree>
    <BinaryTree type="DecisionTree" boostWeight="1.0000000000000000e+00" itree="91">
      <Node pos="s" depth="0" NCoef="0" IVar="3" Cut="6.8850757812500000e+04" cType="1" res="1.2506563961505890e-01" rms="3.2352972030639648e-01" purity="4.9486801028251648e-01" nType="0">
        <Node pos="l" depth="1" NCoef="0" IVar="3" Cut="3.9404550781250000e+04" cType="1" res="1.6814267262816429e-02" rms="3.2538333535194397e-01" purity="2.6088050007820129e-01" nType="0">
          <Node pos="l" depth="2" NCoef="0" IVar="1" Cut="1.3649090625000000e+05" cType="1" res="-4.0890809148550034e-02" rms="2.5916084647178650e-01" purity="1.1429440975189209e-01" nType="0">
            <Node pos="l" depth="3" NCoef="0" IVar="-1" Cut="0.0000000000000000e+00" cType="1" res="-7.9363798722624779e-03" rms="2.2403670847415924e-01" purity="6.0804583132266998e-02" nType="-99"/>
            <Node pos="r" depth="3" NCoef="0" IVar="-1" Cut="0.0000000000000000e+00" cType="1" res="1.6722887521609664e-03" rms="4.5252814888954163e-01" purity="6.8000304698944092e-01" nType="-99"/>
          </Node>
          <Node pos="r" depth="2" NCoef="0" IVar="1" Cut="7.8740148437500000e+04" cType="1" res="1.7785842716693878e-01" rms="4.2270371317863464e-01" purity="6.6997522115707397e-01" nType="0">
            <Node pos="l" depth="3" NCoef="0" IVar="-1" Cut="0.0000000000000000e+00" cType="1" res="3.0532456003129482e-03" rms="4.0215706825256348e-01" purity="7.8761357069015503e-01" nType="-99"/>
            <Node pos="r" depth="3" NCoef="0" IVar="-1" Cut="0.0000000000000000e+00" cType="1" res="9.6464919624850154e-04" rms="4.2004886269569397e-01" purity="6.1695921421051025e-01" nType="-99"/>
          </Node>
        </Node>
        <Node pos="r" depth="1" NCoef="0" IVar="1" Cut="1.0076934375000000e+05" cType="1" res="3.4365171194076538e-01" rms="1.7550078034400940e-01" purity="9.6734607219696045e-01" nType="0">
          <Node pos="l" depth="2" NCoef="0" IVar="3" Cut="1.0334866406250000e+05" cType="1" res="3.2150244712829590e-01" rms="2.2229169309139252e-01" purity="9.4605660438537598e-01" nType="0">
            <Node pos="l" depth="3" NCoef="0" IVar="-1" Cut="0.0000000000000000e+00" cType="1" res="2.1582066547125578e-03" rms="2.9938906431198120e-01" purity="8.9766311645507812e-01" nType="-99"/>
            <Node pos="r" depth="3" NCoef="0" IVar="-1" Cut="0.0000000000000000e+00" cType="1" res="3.0106327030807734e-03" rms="1.4499214291572571e-01" purity="9.7850161790847778e-01" nType="-99"/>
          </Node>
          <Node pos="r" depth="2" NCoef="0" IVar="-1" Cut="0.0000000000000000e+00" cType="1" res="2.6957737281918526e-03" rms="1.1169140785932541e-01" purity="9.8728865385055542e-01" nType="-99"/>
        </Node>
      </Node>
    </BinaryTree>
    <BinaryTree type="DecisionTree" boostWeight="1.0000000000000000e+00" itree="92">
      <Node pos="s" depth="0" NCoef="0" IVar="3" Cut="3.7808433593750000e+04" cType="1" res="1.3138946890830994e-01" rms="3.3257994055747986e-01" purity="4.9674305319786072e-01" nType="0">
        <Node pos="l" depth="1" NCoef="0" IVar="1" Cut="1.3641148437500000e+05" cType="1" res="-1.5317702665925026e-02" rms="2.8526958823204041e-01" purity="1.3789388537406921e-01" nType="0">
          <Node pos="l" depth="2" NCoef="0" IVar="3" Cut="2.7022767578125000e+04" cType="1" res="-3.7574078887701035e-02" rms="2.5485393404960632e-01" purity="7.6494187116622925e-02" nType="0">
            <Node pos="l" depth="3" NCoef="0" IVar="-1" Cut="0.0000000000000000e+00" cType="1" res="-9.3319248408079147e-03" rms="2.0120543241500854e-01" purity="4.4488914310932159e-02" nType="-99"/>
            <Node pos="r" depth="3" NCoef="0" IVar="-1" Cut="0.0000000000000000e+00" cType="1" res="2.3009055294096470e-03" rms="3.8212361931800842e-01" purity="1.9317880272865295e-01" nType="-99"/>
          </Node>
          <Node pos="r" depth="2" NCoef="0" IVar="3" Cut="1.8033324218750000e+04" cType="1" res="1.9941294193267822e-01" rms="4.3473047018051147e-01" purity="7.3028129339218140e-01" nType="0">
            <Node pos="l" depth="3" NCoef="0" IVar="-1" Cut="0.0000000000000000e+00" cType="1" res="1.3896093005314469e-03" rms="4.6464043855667114e-01" purity="6.5041673183441162e-01" nType="-99"/>
            <Node pos="r" depth="3" NCoef="0" IVar="-1" Cut="0.0000000000000000e+00" cType="1" res="2.3887509014457464e-03" rms="4.0946099162101746e-01" purity="7.8583937883377075e-01" nType="-99"/>
          </Node>
        </Node>
        <Node pos="r" depth="1" NCoef="0" IVar="3" Cut="7.3764132812500000e+04" cType="1" res="2.7281501889228821e-01" rms="3.1311088800430298e-01" purity="8.4267324209213257e-01" nType="0">
          <Node pos="l" depth="2" NCoef="0" IVar="1" Cut="7.2011210937500000e+04" cType="1" res="1.8251314759254456e-01" rms="4.1415613889694214e-01" purity="6.7960321903228760e-01" nType="0">
            <Node pos="l" depth="3" NCoef="0" IVar="-1" Cut="0.0000000000000000e+00" cType="1" res="2.2380622103810310e-03" rms="3.8031369447708130e-01" purity="8.1517785787582397e-01" nType="-99"/>
            <Node pos="r" depth="3" NCoef="0" IVar="-1" Cut="0.0000000000000000e+00" cType="1" res="1.6860413597896695e-03" rms="4.1576737165451050e-01" purity="6.3471287488937378e-01" nType="-99"/>
          </Node>
          <Node pos="r" depth="2" NCoef="0" IVar="1" Cut="1.0329192187500000e+05" cType="1" res="3.4203830361366272e-01" rms="1.7510639131069183e-01" purity="9.6767884492874146e-01" nType="0">
            <Node pos="l" depth="3" NCoef="0" IVar="-1" Cut="0.0000000000000000e+00" cType="1" res="2.6436848565936089e-03" rms="2.4024136364459991e-01" purity="9.3675136566162109e-01" nType="-99"/>
            <Node pos="r" depth="3" NCoef="0" IVar="-1" Cut="0.0000000000000000e+00" cType="1" res="2.3297374136745930e-03" rms="9.1728888452053070e-02" purity="9.9153411388397217e-01" nType="-99"/>
          </Node>
        </Node>
      </Node>
    </BinaryTree>
    <BinaryTree type="DecisionTree" boostWeight="1.0000000000000000e+00" itree="93">
      <Node pos="s" depth="0" NCoef="0" IVar="3" Cut="4.4463175781250000e+04" cType="1" res="1.1617022007703781e-01" rms="3.2622712850570679e-01" purity="4.8182743787765503e-01" nType="0">
        <Node pos="l" depth="1" NCoef="0" IVar="2" Cut="4.5146621875000000e+05" cType="1" res="-2.5225652381777763e-02" rms="2.7978628873825073e-01" purity="1.4589725434780121e-01" nType="0">
          <Node pos="l" depth="2" NCoef="0" IVar="1" Cut="1.0814666406250000e+05" cType="1" res="-4.5116424560546875e-02" rms="2.5636422634124756e-01" purity="1.0678677260875702e-01" nType="0">
            <Node pos="l" depth="3" NCoef="0" IVar="-1" Cut="0.0000000000000000e+00" cType="1" res="-1.0391670279204845e-02" rms="2.1712392568588257e-01" purity="5.8671042323112488e-02" nType="-99"/>
            <Node pos="r" depth="3" NCoef="0" IVar="-1" Cut="0.0000000000000000e+00" cType="1" res="1.9326660549268126e-03" rms="4.4949012994766235e-01" purity="5.4237943887710571e-01" nType="-99"/>
          </Node>
          <Node pos="r" depth="2" NCoef="0" IVar="3" Cut="1.7084806640625000e+04" cType="1" res="1.4105802774429321e-01" rms="3.9026063680648804e-01" purity="4.7285467386245728e-01" nType="0">
            <Node pos="l" depth="3" NCoef="0" IVar="-1" Cut="0.0000000000000000e+00" cType="1" res="-3.1784446910023689e-03" rms="2.6263743638992310e-01" purity="1.6088345646858215e-01" nType="-99"/>
            <Node pos="r" depth="3" NCoef="0" IVar="-1" Cut="0.0000000000000000e+00" cType="1" res="1.6749842325225472e-03" rms="4.0141773223876953e-01" purity="5.9994488954544067e-01" nType="-99"/>
          </Node>
        </Node>
        <Node pos="r" depth="1" NCoef="0" IVar="1" Cut="1.3174604687500000e+05" cType="1" res="2.8311395645141602e-01" rms="2.9694721102714539e-01" purity="8.7845450639724731e-01" nType="0">
          <Node pos="l" depth="2" NCoef="0" IVar="3" Cut="8.0109562500000000e+04" cType="1" res="2.3891659080982208e-01" rms="3.4693256020545959e-01" purity="8.2261621952056885e-01" nType="0">
            <Node pos="l" depth="3" NCoef="0" IVar="-1" Cut="0.0000000000000000e+00" cType="1" res="1.3572938041761518e-03" rms="4.3410483002662659e-01" purity="6.7698359489440918e-01" nType="-99"/>
            <Node pos="r" depth="3" NCoef="0" IVar="-1" Cut="0.0000000000000000e+00" cType="1" res="2.4663298390805721e-03" rms="2.0774658024311066e-01" purity="9.5436626672744751e-01" nType="-99"/>
          </Node>
          <Node pos="r" depth="2" NCoef="0" IVar="-1" Cut="0.0000000000000000e+00" cType="1" res="2.5041920598596334e-03" rms="1.4051479101181030e-01" purity="9.7985237836837769e-01" nType="-99"/>
        </Node>
      </Node>
    </BinaryTree>
    <BinaryTree type="DecisionTree" boostWeight="1.0000000000000000e+00" itree="94">
      <Node pos="s" depth="0" NCoef="0" IVar="3" Cut="3.7808433593750000e+04" cType="1" res="1.2725695967674255e-01" rms="3.3327761292457581e-01" purity="4.8830631375312805e-01" nType="0">
        <Node pos="l" depth="1" NCoef="0" IVar="4" Cut="3.7022737500000000e+05" cType="1" res="-5.1788245327770710e-03" rms="2.9424399137496948e-01" purity="1.4930756390094757e-01" nType="0">
          <Node pos="l" depth="2" NCoef="0" IVar="1" Cut="1.2562682031250000e+05" cType="1" res="-3.0242012813687325e-02" rms="2.5904864072799683e-01" purity="1.0469263792037964e-01" nType="0">
            <Node pos="l" depth="3" NCoef="0" IVar="-1" Cut="0.0000000000000000e+00" cType="1" res="-6.0716569423675537e-03" rms="2.3180143535137177e-01" purity="6.5085031092166901e-02" nType="-99"/>
            <Node pos="r" depth="3" NCoef="0" IVar="-1" Cut="0.0000000000000000e+00" cType="1" res="1.9147570710629225e-03" rms="4.5951381325721741e-01" purity="6.4188563823699951e-01" nType="-99"/>
          </Node>
          <Node pos="r" depth="2" NCoef="0" IVar="1" Cut="9.4440570312500000e+04" cType="1" res="1.1712618917226791e-01" rms="4.0445384383201599e-01" purity="3.6702248454093933e-01" nType="0">
            <Node pos="l" depth="3" NCoef="0" IVar="-1" Cut="0.0000000000000000e+00" cType="1" res="4.4918265193700790e-03" rms="3.6051076650619507e-01" purity="1.7033427953720093e-01" nType="-99"/>
            <Node pos="r" depth="3" NCoef="0" IVar="-1" Cut="0.0000000000000000e+00" cType="1" res="2.7085223700851202e-03" rms="4.3432199954986572e-01" purity="5.6565189361572266e-01" nType="-99"/>
          </Node>
        </Node>
        <Node pos="r" depth="1" NCoef="0" IVar="3" Cut="7.3763476562500000e+04" cType="1" res="2.6449313759803772e-01" rms="3.1535300612449646e-01" purity="8.3959275484085083e-01" nType="0">
          <Node pos="l" depth="2" NCoef="0" IVar="1" Cut="7.9147593750000000e+04" cType="1" res="1.7464666068553925e-01" rms="4.1042107343673706e-01" purity="6.7881482839584351e-01" nType="0">
            <Node pos="l" depth="3" NCoef="0" IVar="-1" Cut="0.0000000000000000e+00" cType="1" res="2.7530943043529987e-03" rms="3.9991721510887146e-01" purity="7.8879755735397339e-01" nType="-99"/>
            <Node pos="r" depth="3" NCoef="0" IVar="-1" Cut="0.0000000000000000e+00" cType="1" res="1.4840376097708941e-03" rms="4.0311315655708313e-01" purity="6.3269835710525513e-01" nType="-99"/>
          </Node>
          <Node pos="r" depth="2" NCoef="0" IVar="1" Cut="1.2541114062500000e+05" cType="1" res="3.3279141783714294e-01" rms="1.9025394320487976e-01" purity="9.6181076765060425e-01" nType="0">
            <Node pos="l" depth="3" NCoef="0" IVar="-1" Cut="0.0000000000000000e+00" cType="1" res="2.8557477053254843e-03" rms="2.2991180419921875e-01" purity="9.4282728433609009e-01" nType="-99"/>
            <Node pos="r" depth="3" NCoef="0" IVar="-1" Cut="0.0000000000000000e+00" cType="1" res="1.9878190942108631e-03" rms="1.1125125735998154e-01" purity="9.8745965957641602e-01" nType="-99"/>
          </Node>
        </Node>
      </Node>
    </BinaryTree>
    <BinaryTree type="DecisionTree" boostWeight="1.0000000000000000e+00" itree="95">
      <Node pos="s" depth="0" NCoef="0" IVar="3" Cut="6.8884250000000000e+04" cType="1" res="1.4935602247714996e-01" rms="3.3932399749755859e-01" purity="5.1287937164306641e-01" nType="0">
        <Node pos="l" depth="1" NCoef="0" IVar="3" Cut="3.6172589843750000e+04" cType="1" res="7.2760082781314850e-02" rms="3.5738867521286011e-01" purity="3.2866588234901428e-01" nType="0">
          <Node pos="l" depth="2" NCoef="0" IVar="1" Cut="1.7490379687500000e+05" cType="1" res="8.1863580271601677e-03" rms="3.0614656209945679e-01" purity="1.6034319996833801e-01" nType="0">
            <Node pos="l" depth="3" NCoef="0" IVar="-1" Cut="0.0000000000000000e+00" cType="1" res="-5.5756914662197232e-04" rms="2.9342991113662720e-01" purity="1.1823669821023941e-01" nType="-99"/>
            <Node pos="r" depth="3" NCoef="0" IVar="-1" Cut="0.0000000000000000e+00" cType="1" res="2.4486249312758446e-03" rms="3.9813333749771118e-01" purity="7.9186391830444336e-01" nType="-99"/>
          </Node>
          <Node pos="r" depth="2" NCoef="0" IVar="1" Cut="1.2781869531250000e+05" cType="1" res="2.0720212161540985e-01" rms="4.1443976759910583e-01" purity="6.7911255359649658e-01" nType="0">
            <Node pos="l" depth="3" NCoef="0" IVar="-1" Cut="0.0000000000000000e+00" cType="1" res="1.1161910369992256e-03" rms="4.4746723771095276e-01" purity="5.9507703781127930e-01" nType="-99"/>
            <Node pos="r" depth="3" NCoef="0" IVar="-1" Cut="0.0000000000000000e+00" cType="1" res="2.8188875876367092e-03" rms="2.5767874717712402e-01" purity="9.2663252353668213e-01" nType="-99"/>
          </Node>
        </Node>
        <Node pos="r" depth="1" NCoef="0" IVar="1" Cut="1.1128134375000000e+05" cType="1" res="3.3648911118507385e-01" rms="1.8718838691711426e-01" purity="9.6293503046035767e-01" nType="0">
          <Node pos="l" depth="2" NCoef="0" IVar="1" Cut="7.3543531250000000e+04" cType="1" res="3.1304708123207092e-01" rms="2.3690456151962280e-01" purity="9.3898224830627441e-01" nType="0">
            <Node pos="l" depth="3" NCoef="0" IVar="-1" Cut="0.0000000000000000e+00" cType="1" res="2.7659588959068060e-03" rms="1.7616510391235352e-01" purity="9.6761941909790039e-01" nType="-99"/>
            <Node pos="r" depth="3" NCoef="0" IVar="-1" Cut="0.0000000000000000e+00" cType="1" res="2.0591306965798140e-03" rms="2.9015290737152100e-01" purity="9.0563672780990601e-01" nType="-99"/>
          </Node>
          <Node pos="r" depth="2" NCoef="0" IVar="-1" Cut="0.0000000000000000e+00" cType="1" res="2.2593592293560505e-03" rms="9.7551904618740082e-02" purity="9.9039441347122192e-01" nType="-99"/>
        </Node>
      </Node>
    </BinaryTree>
    <BinaryTree type="DecisionTree" boostWeight="1.0000000000000000e+00" itree="96">
      <Node pos="s" depth="0" NCoef="0" IVar="3" Cut="4.4463175781250000e+04" cType="1" res="1.2270669639110565e-01" rms="3.2644110918045044e-01" purity="4.8510348796844482e-01" nType="0">
        <Node pos="l" depth="1" NCoef="0" IVar="2" Cut="3.7109978125000000e+05" cType="1" res="-1.0867588222026825e-02" rms="2.9312404990196228e-01" purity="1.6385410726070404e-01" nType="0">
          <Node pos="l" depth="2" NCoef="0" IVar="1" Cut="1.1609271875000000e+05" cType="1" res="-3.6425083875656128e-02" rms="2.6418662071228027e-01" purity="1.0964488238096237e-01" nType="0">
            <Node pos="l" depth="3" NCoef="0" IVar="-1" Cut="0.0000000000000000e+00" cType="1" res="-7.5226807966828346e-03" rms="2.2196422517299652e-01" purity="6.0703199356794357e-02" nType="-99"/>
            <Node pos="r" depth="3" NCoef="0" IVar="-1" Cut="0.0000000000000000e+00" cType="1" res="2.7208535466343164e-03" rms="4.7444894909858704e-01" purity="6.3860237598419189e-01" nType="-99"/>
          </Node>
          <Node pos="r" depth="2" NCoef="0" IVar="5" Cut="9.0748070312500000e+04" cType="1" res="1.0620699077844620e-01" rms="3.7828400731086731e-01" purity="4.1217741370201111e-01" nType="0">
            <Node pos="l" depth="3" NCoef="0" IVar="-1" Cut="0.0000000000000000e+00" cType="1" res="3.2065329141914845e-03" rms="3.9049798250198364e-01" purity="5.4999458789825439e-01" nType="-99"/>
            <Node pos="r" depth="3" NCoef="0" IVar="-1" Cut="0.0000000000000000e+00" cType="1" res="-5.9938558842986822e-04" rms="3.2431668043136597e-01" purity="2.2933162748813629e-01" nType="-99"/>
          </Node>
        </Node>
        <Node pos="r" depth="1" NCoef="0" IVar="1" Cut="1.0066286718750000e+05" cType="1" res="2.8925052285194397e-01" rms="2.8691124916076660e-01" purity="8.8564538955688477e-01" nType="0">
          <Node pos="l" depth="2" NCoef="0" IVar="1" Cut="8.3833210937500000e+04" cType="1" res="2.2128161787986755e-01" rms="3.5486897826194763e-01" purity="8.0246031284332275e-01" nType="0">
            <Node pos="l" depth="3" NCoef="0" IVar="-1" Cut="0.0000000000000000e+00" cType="1" res="2.7009863406419754e-03" rms="2.6206216216087341e-01" purity="9.1489696502685547e-01" nType="-99"/>
            <Node pos="r" depth="3" NCoef="0" IVar="-1" Cut="0.0000000000000000e+00" cType="1" res="6.8510556593537331e-04" rms="4.3361771106719971e-01" purity="5.9294396638870239e-01" nType="-99"/>
          </Node>
          <Node pos="r" depth="2" NCoef="0" IVar="0" Cut="1.1428571939468384e+00" cType="1" res="3.5701969265937805e-01" rms="1.7214368283748627e-01" purity="9.6858614683151245e-01" nType="0">
            <Node pos="l" depth="3" NCoef="0" IVar="-1" Cut="0.0000000000000000e+00" cType="1" res="2.1393036004155874e-03" rms="1.6497991979122162e-01" purity="9.7155267000198364e-01" nType="-99"/>
            <Node pos="r" depth="3" NCoef="0" IVar="-1" Cut="0.0000000000000000e+00" cType="1" res="2.3444914259016514e-03" rms="1.8360273540019989e-01" purity="9.6327859163284302e-01" nType="-99"/>
          </Node>
        </Node>
      </Node>
    </BinaryTree>
    <BinaryTree type="DecisionTree" boostWeight="1.0000000000000000e+00" itree="97">
      <Node pos="s" depth="0" NCoef="0" IVar="3" Cut="6.8843453125000000e+04" cType="1" res="1.2278530001640320e-01" rms="3.3235394954681396e-01" purity="4.7875690460205078e-01" nType="0">
        <Node pos="l" depth="1" NCoef="0" IVar="3" Cut="2.9591919921875000e+04" cType="1" res="3.8595072925090790e-02" rms="3.3988642692565918e-01" purity="2.8275573253631592e-01" nType="0">
          <Node pos="l" depth="2" NCoef="0" IVar="1" Cut="9.3471921875000000e+04" cType="1" res="-3.1543552875518799e-02" rms="2.5008550286293030e-01" purity="1.0736743360757828e-01" nType="0">
            <Node pos="l" depth="3" NCoef="0" IVar="-1" Cut="0.0000000000000000e+00" cType="1" res="-8.4868613630533218e-03" rms="1.9090831279754639e-01" purity="4.0906313806772232e-02" nType="-99"/>
            <Node pos="r" depth="3" NCoef="0" IVar="-1" Cut="0.0000000000000000e+00" cType="1" res="5.8291701134294271e-04" rms="3.3304265141487122e-01" purity="2.3914107680320740e-01" nType="-99"/>
          </Node>
          <Node pos="r" depth="2" NCoef="0" IVar="1" Cut="1.3173490625000000e+05" cType="1" res="1.4650240540504456e-01" rms="4.2168632149696350e-01" purity="5.5258834362030029e-01" nType="0">
            <Node pos="l" depth="3" NCoef="0" IVar="-1" Cut="0.0000000000000000e+00" cType="1" res="1.4094043290242553e-03" rms="4.4650459289550781e-01" purity="4.1731745004653931e-01" nType="-99"/>
            <Node pos="r" depth="3" NCoef="0" IVar="-1" Cut="0.0000000000000000e+00" cType="1" res="2.3450595326721668e-03" rms="2.5207632780075073e-01" purity="9.3274021148681641e-01" nType="-99"/>
          </Node>
        </Node>
        <Node pos="r" depth="1" NCoef="0" IVar="1" Cut="1.1171875781250000e+05" cType="1" res="3.2914772629737854e-01" rms="1.9516226649284363e-01" purity="9.5918416976928711e-01" nType="0">
          <Node pos="l" depth="2" NCoef="0" IVar="3" Cut="9.3575695312500000e+04" cType="1" res="2.9671433568000793e-01" rms="2.5516581535339355e-01" purity="9.2738521099090576e-01" nType="0">
            <Node pos="l" depth="3" NCoef="0" IVar="-1" Cut="0.0000000000000000e+00" cType="1" res="2.1661794744431973e-03" rms="3.6165392398834229e-01" purity="8.4192979335784912e-01" nType="-99"/>
            <Node pos="r" depth="3" NCoef="0" IVar="-1" Cut="0.0000000000000000e+00" cType="1" res="3.3790371380746365e-03" rms="1.6993680596351624e-01" purity="9.7003334760665894e-01" nType="-99"/>
          </Node>
          <Node pos="r" depth="2" NCoef="0" IVar="-1" Cut="0.0000000000000000e+00" cType="1" res="2.2548648994415998e-03" rms="1.1522170156240463e-01" purity="9.8641550540924072e-01" nType="-99"/>
        </Node>
      </Node>
    </BinaryTree>
    <BinaryTree type="DecisionTree" boostWeight="1.0000000000000000e+00" itree="98">
      <Node pos="s" depth="0" NCoef="0" IVar="3" Cut="6.8843453125000000e+04" cType="1" res="1.2649999558925629e-01" rms="3.3767294883728027e-01" purity="4.8503527045249939e-01" nType="0">
        <Node pos="l" depth="1" NCoef="0" IVar="3" Cut="4.2678617187500000e+04" cType="1" res="4.4340606778860092e-02" rms="3.4790560603141785e-01" purity="2.8876593708992004e-01" nType="0">
          <Node pos="l" depth="2" NCoef="0" IVar="1" Cut="7.4204796875000000e+04" cType="1" res="-2.3808979894965887e-03" rms="3.0807515978813171e-01" purity="1.5569932758808136e-01" nType="0">
            <Node pos="l" depth="3" NCoef="0" IVar="-1" Cut="0.0000000000000000e+00" cType="1" res="4.6881553716957569e-03" rms="4.5026430487632751e-01" purity="3.1322902441024780e-01" nType="-99"/>
            <Node pos="r" depth="3" NCoef="0" IVar="-1" Cut="0.0000000000000000e+00" cType="1" res="-2.2065681405365467e-03" rms="2.6559287309646606e-01" purity="1.2607048451900482e-01" nType="-99"/>
          </Node>
          <Node pos="r" depth="2" NCoef="0" IVar="1" Cut="9.8584367187500000e+04" cType="1" res="1.9316659867763519e-01" rms="4.1852536797523499e-01" purity="7.1263438463211060e-01" nType="0">
            <Node pos="l" depth="3" NCoef="0" IVar="-1" Cut="0.0000000000000000e+00" cType="1" res="6.6320155747234821e-04" rms="4.8283705115318298e-01" purity="5.1486843824386597e-01" nType="-99"/>
            <Node pos="r" depth="3" NCoef="0" IVar="-1" Cut="0.0000000000000000e+00" cType="1" res="1.8052322557196021e-03" rms="2.7863654494285583e-01" purity="9.0856480598449707e-01" nType="-99"/>
          </Node>
        </Node>
        <Node pos="r" depth="1" NCoef="0" IVar="1" Cut="1.0059082812500000e+05" cType="1" res="3.2297551631927490e-01" rms="2.0615965127944946e-01" purity="9.5439279079437256e-01" nType="0">
          <Node pos="l" depth="2" NCoef="0" IVar="1" Cut="8.7960992187500000e+04" cType="1" res="2.8430828452110291e-01" rms="2.6995006203651428e-01" purity="9.1795474290847778e-01" nType="0">
            <Node pos="l" depth="3" NCoef="0" IVar="-1" Cut="0.0000000000000000e+00" cType="1" res="2.7826928999274969e-03" rms="2.2764214873313904e-01" purity="9.4399201869964600e-01" nType="-99"/>
            <Node pos="r" depth="3" NCoef="0" IVar="-1" Cut="0.0000000000000000e+00" cType="1" res="1.3699365081265569e-03" rms="4.2106318473815918e-01" purity="7.6055634021759033e-01" nType="-99"/>
          </Node>
          <Node pos="r" depth="2" NCoef="0" IVar="-1" Cut="0.0000000000000000e+00" cType="1" res="2.2889687679708004e-03" rms="1.2502573430538177e-01" purity="9.8399007320404053e-01" nType="-99"/>
        </Node>
      </Node>
    </BinaryTree>
    <BinaryTree type="DecisionTree" boostWeight="1.0000000000000000e+00" itree="99">
      <Node pos="s" depth="0" NCoef="0" IVar="3" Cut="4.8766871093750000e+04" cType="1" res="1.3394668698310852e-01" rms="3.2519221305847168e-01" purity="5.0428354740142822e-01" nType="0">
        <Node pos="l" depth="1" NCoef="0" IVar="2" Cut="3.7349021875000000e+05" cType="1" res="1.8318939954042435e-02" rms="3.1218653917312622e-01" purity="2.1743187308311462e-01" nType="0">
          <Node pos="l" depth="2" NCoef="0" IVar="5" Cut="9.6356218750000000e+04" cType="1" res="-2.1678304299712181e-02" rms="2.8421890735626221e-01" purity="1.3718968629837036e-01" nType="0">
            <Node pos="l" depth="3" NCoef="0" IVar="-1" Cut="0.0000000000000000e+00" cType="1" res="-2.0482118707150221e-03" rms="2.6995024085044861e-01" purity="1.2575790286064148e-01" nType="-99"/>
            <Node pos="r" depth="3" NCoef="0" IVar="-1" Cut="0.0000000000000000e+00" cType="1" res="8.6076334118843079e-03" rms="4.8155358433723450e-01" purity="5.2912688255310059e-01" nType="-99"/>
          </Node>
          <Node pos="r" depth="2" NCoef="0" IVar="1" Cut="9.4332281250000000e+04" cType="1" res="1.6854609549045563e-01" rms="3.6267453432083130e-01" purity="5.1881647109985352e-01" nType="0">
            <Node pos="l" depth="3" NCoef="0" IVar="-1" Cut="0.0000000000000000e+00" cType="1" res="-2.1109958179295063e-03" rms="2.8102508187294006e-01" purity="1.0964772850275040e-01" nType="-99"/>
            <Node pos="r" depth="3" NCoef="0" IVar="-1" Cut="0.0000000000000000e+00" cType="1" res="1.2211258290335536e-03" rms="3.5889664292335510e-01" purity="7.2479218244552612e-01" nType="-99"/>
          </Node>
        </Node>
        <Node pos="r" depth="1" NCoef="0" IVar="1" Cut="1.0066286718750000e+05" cType="1" res="2.9713171720504761e-01" rms="2.6823660731315613e-01" purity="9.0911638736724854e-01" nType="0">
          <Node pos="l" depth="2" NCoef="0" IVar="1" Cut="8.8011640625000000e+04" cType="1" res="2.3557101190090179e-01" rms="3.3984896540641785e-01" purity="8.3831465244293213e-01" nType="0">
            <Node pos="l" depth="3" NCoef="0" IVar="-1" Cut="0.0000000000000000e+00" cType="1" res="2.4490209762006998e-03" rms="2.8949373960494995e-01" purity="8.9250111579895020e-01" nType="-99"/>
            <Node pos="r" depth="3" NCoef="0" IVar="-1" Cut="0.0000000000000000e+00" cType="1" res="-1.4711834955960512e-04" rms="4.6237936615943909e-01" purity="5.4714465141296387e-01" nType="-99"/>
          </Node>
          <Node pos="r" depth="2" NCoef="0" IVar="4" Cut="3.8035375000000000e+05" cType="1" res="3.5097959637641907e-01" rms="1.6627021133899689e-01" purity="9.7104763984680176e-01" nType="0">
            <Node pos="l" depth="3" NCoef="0" IVar="-1" Cut="0.0000000000000000e+00" cType="1" res="2.6560327969491482e-03" rms="1.6996143758296967e-01" purity="9.6988892555236816e-01" nType="-99"/>
            <Node pos="r" depth="3" NCoef="0" IVar="-1" Cut="0.0000000000000000e+00" cType="1" res="3.0987425707280636e-03" rms="1.6283391416072845e-01" purity="9.7203058004379272e-01" nType="-99"/>
          </Node>
        </Node>
      </Node>
    </BinaryTree>
    <BinaryTree type="DecisionTree" boostWeight="1.0000000000000000e+00" itree="100">
      <Node pos="s" depth="0" NCoef="0" IVar="3" Cut="6.8936960937500000e+04" cType="1" res="1.3203276693820953e-01" rms="3.2808074355125427e-01" purity="5.0307744741439819e-01" nType="0">
        <Node pos="l" depth="1" NCoef="0" IVar="1" Cut="1.4549082812500000e+05" cType="1" res="3.3391546458005905e-02" rms="3.3917561173439026e-01" purity="2.7385360002517700e-01" nType="0">
          <Node pos="l" depth="2" NCoef="0" IVar="1" Cut="7.5587304687500000e+04" cType="1" res="-2.0954394130967557e-04" rms="3.2231420278549194e-01" purity="1.9011576473712921e-01" nType="0">
            <Node pos="l" depth="3" NCoef="0" IVar="-1" Cut="0.0000000000000000e+00" cType="1" res="2.8606741689145565e-03" rms="4.3715208768844604e-01" purity="4.5400431752204895e-01" nType="-99"/>
            <Node pos="r" depth="3" NCoef="0" IVar="-1" Cut="0.0000000000000000e+00" cType="1" res="-2.3967269808053970e-03" rms="2.6057183742523193e-01" purity="1.1564303189516068e-01" nType="-99"/>
          </Node>
          <Node pos="r" depth="2" NCoef="0" IVar="3" Cut="2.6879001953125000e+04" cType="1" res="2.5646799802780151e-01" rms="3.6308419704437256e-01" purity="8.2978636026382446e-01" nType="0">
            <Node pos="l" depth="3" NCoef="0" IVar="-1" Cut="0.0000000000000000e+00" cType="1" res="1.5784145798534155e-03" rms="4.6159258484840393e-01" purity="6.7788958549499512e-01" nType="-99"/>
            <Node pos="r" depth="3" NCoef="0" IVar="-1" Cut="0.0000000000000000e+00" cType="1" res="2.8709182515740395e-03" rms="2.8847312927246094e-01" purity="9.0646427869796753e-01" nType="-99"/>
          </Node>
        </Node>
        <Node pos="r" depth="1" NCoef="0" IVar="1" Cut="1.0059082812500000e+05" cType="1" res="3.3049327135086060e-01" rms="1.8379154801368713e-01" purity="9.6426266431808472e-01" nType="0">
          <Node pos="l" depth="2" NCoef="0" IVar="1" Cut="8.7960992187500000e+04" cType="1" res="2.9798248410224915e-01" rms="2.4891100823879242e-01" purity="9.3196225166320801e-01" nType="0">
            <Node pos="l" depth="3" NCoef="0" IVar="-1" Cut="0.0000000000000000e+00" cType="1" res="2.3220609873533249e-03" rms="2.1450088918209076e-01" purity="9.5109003782272339e-01" nType="-99"/>
            <Node pos="r" depth="3" NCoef="0" IVar="-1" Cut="0.0000000000000000e+00" cType="1" res="9.9740736186504364e-04" rms="4.3659144639968872e-01" purity="7.3826777935028076e-01" nType="-99"/>
          </Node>
          <Node pos="r" depth="2" NCoef="0" IVar="5" Cut="9.0679765625000000e+04" cType="1" res="3.5562813282012939e-01" rms="1.0269291698932648e-01" purity="9.8923486471176147e-01" nType="0">
            <Node pos="l" depth="3" NCoef="0" IVar="-1" Cut="0.0000000000000000e+00" cType="1" res="2.0425629336386919e-03" rms="1.1738044768571854e-01" purity="9.8593294620513916e-01" nType="-99"/>
            <Node pos="r" depth="3" NCoef="0" IVar="-1" Cut="0.0000000000000000e+00" cType="1" res="2.4803006090223789e-03" rms="8.7726898491382599e-02" purity="9.9212145805358887e-01" nType="-99"/>
          </Node>
        </Node>
      </Node>
    </BinaryTree>
    <BinaryTree type="DecisionTree" boostWeight="1.0000000000000000e+00" itree="101">
      <Node pos="s" depth="0" NCoef="0" IVar="3" Cut="6.8798242187500000e+04" cType="1" res="1.2200070917606354e-01" rms="3.2465952634811401e-01" purity="4.9173453450202942e-01" nType="0">
        <Node pos="l" depth="1" NCoef="0" IVar="1" Cut="1.7490379687500000e+05" cType="1" res="3.7800841033458710e-02" rms="3.2963463664054871e-01" purity="2.9367747902870178e-01" nType="0">
          <Node pos="l" depth="2" NCoef="0" IVar="1" Cut="1.1280443750000000e+05" cType="1" res="3.9534871466457844e-03" rms="3.1777375936508179e-01" purity="2.1474555134773254e-01" nType="0">
            <Node pos="l" depth="3" NCoef="0" IVar="-1" Cut="0.0000000000000000e+00" cType="1" res="-1.5187039971351624e-03" rms="2.9342761635780334e-01" purity="1.4627870917320251e-01" nType="-99"/>
            <Node pos="r" depth="3" NCoef="0" IVar="-1" Cut="0.0000000000000000e+00" cType="1" res="1.8911291845142841e-03" rms="3.7912270426750183e-01" purity="7.4913698434829712e-01" nType="-99"/>
          </Node>
          <Node pos="r" depth="2" NCoef="0" IVar="-1" Cut="0.0000000000000000e+00" cType="1" res="1.7539795953780413e-03" rms="3.0470430850982666e-01" purity="8.8840383291244507e-01" nType="-99"/>
        </Node>
        <Node pos="r" depth="1" NCoef="0" IVar="1" Cut="1.0059082812500000e+05" cType="1" res="3.1861811876296997e-01" rms="2.0637097954750061e-01" purity="9.5422297716140747e-01" nType="0">
          <Node pos="l" depth="2" NCoef="0" IVar="3" Cut="1.0329364062500000e+05" cType="1" res="2.8504467010498047e-01" rms="2.6314982771873474e-01" purity="9.2239785194396973e-01" nType="0">
            <Node pos="l" depth="3" NCoef="0" IVar="-1" Cut="0.0000000000000000e+00" cType="1" res="1.7640152946114540e-03" rms="3.4684124588966370e-01" purity="8.5505408048629761e-01" nType="-99"/>
            <Node pos="r" depth="3" NCoef="0" IVar="-1" Cut="0.0000000000000000e+00" cType="1" res="2.9471870511770248e-03" rms="1.9247412681579590e-01" purity="9.6147322654724121e-01" nType="-99"/>
          </Node>
          <Node pos="r" depth="2" NCoef="0" IVar="-1" Cut="0.0000000000000000e+00" cType="1" res="2.7584428898990154e-03" rms="1.2458844482898712e-01" purity="9.8408734798431396e-01" nType="-99"/>
        </Node>
      </Node>
    </BinaryTree>
    <BinaryTree type="DecisionTree" boostWeight="1.0000000000000000e+00" itree="102">
      <Node pos="s" depth="0" NCoef="0" IVar="3" Cut="3.7808433593750000e+04" cType="1" res="1.3100330531597137e-01" rms="3.2463821768760681e-01" purity="5.0077182054519653e-01" nType="0">
        <Node pos="l" depth="1" NCoef="0" IVar="4" Cut="4.7745515625000000e+05" cType="1" res="-6.4226118847727776e-03" rms="2.8065302968025208e-01" purity="1.5636022388935089e-01" nType="0">
          <Node pos="l" depth="2" NCoef="0" IVar="1" Cut="1.2041319531250000e+05" cType="1" res="-3.2501958310604095e-02" rms="2.5254660844802856e-01" purity="1.0891308635473251e-01" nType="0">
            <Node pos="l" depth="3" NCoef="0" IVar="-1" Cut="0.0000000000000000e+00" cType="1" res="-1.0868992656469345e-02" rms="2.0783410966396332e-01" purity="5.0910778343677521e-02" nType="-99"/>
            <Node pos="r" depth="3" NCoef="0" IVar="-1" Cut="0.0000000000000000e+00" cType="1" res="1.9225444411858916e-03" rms="4.6202170848846436e-01" purity="6.3333827257156372e-01" nType="-99"/>
          </Node>
          <Node pos="r" depth="2" NCoef="0" IVar="1" Cut="9.4124085937500000e+04" cType="1" res="1.9655559957027435e-01" rms="3.8589197397232056e-01" purity="5.2564603090286255e-01" nType="0">
            <Node pos="l" depth="3" NCoef="0" IVar="-1" Cut="0.0000000000000000e+00" cType="1" res="2.9085911810398102e-03" rms="3.7208336591720581e-01" purity="1.5759608149528503e-01" nType="-99"/>
            <Node pos="r" depth="3" NCoef="0" IVar="-1" Cut="0.0000000000000000e+00" cType="1" res="1.7353821313008666e-03" rms="3.6543574929237366e-01" purity="7.4073839187622070e-01" nType="-99"/>
          </Node>
        </Node>
        <Node pos="r" depth="1" NCoef="0" IVar="1" Cut="1.0319278125000000e+05" cType="1" res="2.6948365569114685e-01" rms="3.0661132931709290e-01" purity="8.4782600402832031e-01" nType="0">
          <Node pos="l" depth="2" NCoef="0" IVar="1" Cut="7.7164335937500000e+04" cType="1" res="1.9496065378189087e-01" rms="3.7499356269836426e-01" purity="7.3963773250579834e-01" nType="0">
            <Node pos="l" depth="3" NCoef="0" IVar="-1" Cut="0.0000000000000000e+00" cType="1" res="2.4022567085921764e-03" rms="2.6028728485107422e-01" purity="9.1636836528778076e-01" nType="-99"/>
            <Node pos="r" depth="3" NCoef="0" IVar="-1" Cut="0.0000000000000000e+00" cType="1" res="-3.6970966448279796e-06" rms="4.2863744497299194e-01" purity="4.7980543971061707e-01" nType="-99"/>
          </Node>
          <Node pos="r" depth="2" NCoef="0" IVar="2" Cut="2.9482934375000000e+05" cType="1" res="3.4839418530464172e-01" rms="1.8041397631168365e-01" purity="9.6238392591476440e-01" nType="0">
            <Node pos="l" depth="3" NCoef="0" IVar="-1" Cut="0.0000000000000000e+00" cType="1" res="2.4951635859906673e-03" rms="2.5551769137382507e-01" purity="9.1651386022567749e-01" nType="-99"/>
            <Node pos="r" depth="3" NCoef="0" IVar="-1" Cut="0.0000000000000000e+00" cType="1" res="2.2681576665490866e-03" rms="1.5803374350070953e-01" purity="9.7275161743164062e-01" nType="-99"/>
          </Node>
        </Node>
      </Node>
    </BinaryTree>
    <BinaryTree type="DecisionTree" boostWeight="1.0000000000000000e+00" itree="103">
      <Node pos="s" depth="0" NCoef="0" IVar="3" Cut="4.4610949218750000e+04" cType="1" res="1.3920372724533081e-01" rms="3.2830455899238586e-01" purity="5.1485151052474976e-01" nType="0">
        <Node pos="l" depth="1" NCoef="0" IVar="3" Cut="2.1351041015625000e+04" cType="1" res="5.6214295327663422e-03" rms="3.1223067641258240e-01" purity="1.7513170838356018e-01" nType="0">
          <Node pos="l" depth="2" NCoef="0" IVar="3" Cut="1.3294939453125000e+04" cType="1" res="-5.7312957942485809e-02" rms="2.0880676805973053e-01" purity="5.7352989912033081e-02" nType="0">
            <Node pos="l" depth="3" NCoef="0" IVar="-1" Cut="0.0000000000000000e+00" cType="1" res="-2.6952276006340981e-02" rms="1.1939802765846252e-01" purity="1.7017988488078117e-02" nType="-99"/>
            <Node pos="r" depth="3" NCoef="0" IVar="-1" Cut="0.0000000000000000e+00" cType="1" res="-2.3693051189184189e-03" rms="2.8351542353630066e-01" purity="1.1102439463138580e-01" nType="-99"/>
          </Node>
          <Node pos="r" depth="2" NCoef="0" IVar="4" Cut="2.4874518750000000e+05" cType="1" res="8.1067755818367004e-02" rms="3.8942110538482666e-01" purity="3.1632593274116516e-01" nType="0">
            <Node pos="l" depth="3" NCoef="0" IVar="-1" Cut="0.0000000000000000e+00" cType="1" res="-5.7045312132686377e-04" rms="3.4604075551033020e-01" purity="1.6423539817333221e-01" nType="-99"/>
            <Node pos="r" depth="3" NCoef="0" IVar="-1" Cut="0.0000000000000000e+00" cType="1" res="3.0832393094897270e-03" rms="4.0903797745704651e-01" purity="4.5987930893898010e-01" nType="-99"/>
          </Node>
        </Node>
        <Node pos="r" depth="1" NCoef="0" IVar="1" Cut="1.0059082812500000e+05" cType="1" res="2.8870940208435059e-01" rms="2.7745959162712097e-01" purity="8.9506673812866211e-01" nType="0">
          <Node pos="l" depth="2" NCoef="0" IVar="3" Cut="7.1368718750000000e+04" cType="1" res="2.2230282425880432e-01" rms="3.5604891180992126e-01" purity="8.0796265602111816e-01" nType="0">
            <Node pos="l" depth="3" NCoef="0" IVar="-1" Cut="0.0000000000000000e+00" cType="1" res="7.3678116314113140e-04" rms="4.8425126075744629e-01" purity="5.3333693742752075e-01" nType="-99"/>
            <Node pos="r" depth="3" NCoef="0" IVar="-1" Cut="0.0000000000000000e+00" cType="1" res="2.3938210215419531e-03" rms="2.2804504632949829e-01" purity="9.4381111860275269e-01" nType="-99"/>
          </Node>
          <Node pos="r" depth="2" NCoef="0" IVar="0" Cut="3.8095238804817200e-01" cType="1" res="3.4658262133598328e-01" rms="1.6248713433742523e-01" purity="9.7097790241241455e-01" nType="0">
            <Node pos="l" depth="3" NCoef="0" IVar="-1" Cut="0.0000000000000000e+00" cType="1" res="2.0859274081885815e-03" rms="1.4313495159149170e-01" purity="9.7791612148284912e-01" nType="-99"/>
            <Node pos="r" depth="3" NCoef="0" IVar="-1" Cut="0.0000000000000000e+00" cType="1" res="2.5020353496074677e-03" rms="1.7173227667808533e-01" purity="9.6713888645172119e-01" nType="-99"/>
          </Node>
        </Node>
      </Node>
    </BinaryTree>
    <BinaryTree type="DecisionTree" boostWeight="1.0000000000000000e+00" itree="104">
      <Node pos="s" depth="0" NCoef="0" IVar="3" Cut="4.4463175781250000e+04" cType="1" res="1.3880011439323425e-01" rms="3.2267042994499207e-01" purity="5.1641398668289185e-01" nType="0">
        <Node pos="l" depth="1" NCoef="0" IVar="3" Cut="2.1196943359375000e+04" cType="1" res="8.1966370344161987e-03" rms="3.0378302931785583e-01" purity="1.8207877874374390e-01" nType="0">
          <Node pos="l" depth="2" NCoef="0" IVar="3" Cut="1.9182615234375000e+04" cType="1" res="-5.6375455111265182e-02" rms="1.9719904661178589e-01" purity="5.6536890566349030e-02" nType="0">
            <Node pos="l" depth="3" NCoef="0" IVar="-1" Cut="0.0000000000000000e+00" cType="1" res="-9.0490048751235008e-03" rms="1.7943750321865082e-01" purity="4.8532705754041672e-02" nType="-99"/>
            <Node pos="r" depth="3" NCoef="0" IVar="-1" Cut="0.0000000000000000e+00" cType="1" res="1.3049645349383354e-04" rms="3.1109294295310974e-01" purity="1.3021059334278107e-01" nType="-99"/>
          </Node>
          <Node pos="r" depth="2" NCoef="0" IVar="1" Cut="1.3374154687500000e+05" cType="1" res="8.2151211798191071e-02" rms="3.7841084599494934e-01" purity="3.2586219906806946e-01" nType="0">
            <Node pos="l" depth="3" NCoef="0" IVar="-1" Cut="0.0000000000000000e+00" cType="1" res="1.4418892096728086e-03" rms="3.6746305227279663e-01" purity="2.0430441200733185e-01" nType="-99"/>
            <Node pos="r" depth="3" NCoef="0" IVar="-1" Cut="0.0000000000000000e+00" cType="1" res="2.1534648258239031e-03" rms="3.2791128754615784e-01" purity="8.8231050968170166e-01" nType="-99"/>
          </Node>
        </Node>
        <Node pos="r" depth="1" NCoef="0" IVar="1" Cut="1.0035560937500000e+05" cType="1" res="2.8701576590538025e-01" rms="2.7607703208923340e-01" purity="8.9583492279052734e-01" nType="0">
          <Node pos="l" depth="2" NCoef="0" IVar="3" Cut="7.0658554687500000e+04" cType="1" res="2.1582010388374329e-01" rms="3.5255002975463867e-01" purity="8.0860900878906250e-01" nType="0">
            <Node pos="l" depth="3" NCoef="0" IVar="-1" Cut="0.0000000000000000e+00" cType="1" res="6.6527113085612655e-04" rms="4.7136643528938293e-01" purity="5.2556920051574707e-01" nType="-99"/>
            <Node pos="r" depth="3" NCoef="0" IVar="-1" Cut="0.0000000000000000e+00" cType="1" res="2.3246183991432190e-03" rms="2.4734696745872498e-01" purity="9.3251490592956543e-01" nType="-99"/>
          </Node>
          <Node pos="r" depth="2" NCoef="0" IVar="5" Cut="9.0618523437500000e+04" cType="1" res="3.5003879666328430e-01" rms="1.5876090526580811e-01" purity="9.7304815053939819e-01" nType="0">
            <Node pos="l" depth="3" NCoef="0" IVar="-1" Cut="0.0000000000000000e+00" cType="1" res="2.6048335712403059e-03" rms="1.8804571032524109e-01" purity="9.6132624149322510e-01" nType="-99"/>
            <Node pos="r" depth="3" NCoef="0" IVar="-1" Cut="0.0000000000000000e+00" cType="1" res="2.0752134732902050e-03" rms="1.3020469248294830e-01" purity="9.8234981298446655e-01" nType="-99"/>
          </Node>
        </Node>
      </Node>
    </BinaryTree>
    <BinaryTree type="DecisionTree" boostWeight="1.0000000000000000e+00" itree="105">
      <Node pos="s" depth="0" NCoef="0" IVar="1" Cut="1.0038213281250000e+05" cType="1" res="1.3697592914104462e-01" rms="3.2788208127021790e-01" purity="5.0597023963928223e-01" nType="0">
        <Node pos="l" depth="1" NCoef="0" IVar="3" Cut="5.6015867187500000e+04" cType="1" res="3.5939540714025497e-02" rms="3.1434231996536255e-01" purity="2.9468128085136414e-01" nType="0">
          <Node pos="l" depth="2" NCoef="0" IVar="1" Cut="8.3550109375000000e+04" cType="1" res="-2.6852149516344070e-02" rms="2.8062361478805542e-01" purity="1.1969552189111710e-01" nType="0">
            <Node pos="l" depth="3" NCoef="0" IVar="-1" Cut="0.0000000000000000e+00" cType="1" res="1.9178263610228896e-03" rms="3.9267984032630920e-01" purity="2.9520300030708313e-01" nType="-99"/>
            <Node pos="r" depth="3" NCoef="0" IVar="-1" Cut="0.0000000000000000e+00" cType="1" res="-1.5238757245242596e-02" rms="1.9209325313568115e-01" purity="3.9684973657131195e-02" nType="-99"/>
          </Node>
          <Node pos="r" depth="2" NCoef="0" IVar="1" Cut="8.3553671875000000e+04" cType="1" res="2.3938786983489990e-01" rms="3.3112722635269165e-01" purity="8.6164408922195435e-01" nType="0">
            <Node pos="l" depth="3" NCoef="0" IVar="-1" Cut="0.0000000000000000e+00" cType="1" res="2.5926036760210991e-03" rms="2.6853516697883606e-01" purity="9.1785651445388794e-01" nType="-99"/>
            <Node pos="r" depth="3" NCoef="0" IVar="-1" Cut="0.0000000000000000e+00" cType="1" res="1.0082039516419172e-03" rms="4.3430352210998535e-01" purity="7.1199083328247070e-01" nType="-99"/>
          </Node>
        </Node>
        <Node pos="r" depth="1" NCoef="0" IVar="3" Cut="6.8950085937500000e+04" cType="1" res="3.0562570691108704e-01" rms="2.7665641903877258e-01" purity="8.5865354537963867e-01" nType="0">
          <Node pos="l" depth="2" NCoef="0" IVar="3" Cut="2.9569113281250000e+04" cType="1" res="2.6211702823638916e-01" rms="3.6719667911529541e-01" purity="7.3560243844985962e-01" nType="0">
            <Node pos="l" depth="3" NCoef="0" IVar="-1" Cut="0.0000000000000000e+00" cType="1" res="1.9224352436140180e-03" rms="4.4050794839859009e-01" purity="4.6142971515655518e-01" nType="-99"/>
            <Node pos="r" depth="3" NCoef="0" IVar="-1" Cut="0.0000000000000000e+00" cType="1" res="1.9450273830443621e-03" rms="2.9344612360000610e-01" purity="8.8608974218368530e-01" nType="-99"/>
          </Node>
          <Node pos="r" depth="2" NCoef="0" IVar="-1" Cut="0.0000000000000000e+00" cType="1" res="2.3591422941535711e-03" rms="1.0220173746347427e-01" purity="9.8940902948379517e-01" nType="-99"/>
        </Node>
      </Node>
    </BinaryTree>
    <BinaryTree type="DecisionTree" boostWeight="1.0000000000000000e+00" itree="106">
      <Node pos="s" depth="0" NCoef="0" IVar="3" Cut="3.7870195312500000e+04" cType="1" res="1.3838826119899750e-01" rms="3.2995378971099854e-01" purity="5.0339138507843018e-01" nType="0">
        <Node pos="l" depth="1" NCoef="0" IVar="1" Cut="1.2713942968750000e+05" cType="1" res="2.0632978528738022e-02" rms="2.9980036616325378e-01" purity="1.7392148077487946e-01" nType="0">
          <Node pos="l" depth="2" NCoef="0" IVar="1" Cut="7.7771742187500000e+04" cType="1" res="-1.5230718068778515e-02" rms="2.6506981253623962e-01" purity="8.6582772433757782e-02" nType="0">
            <Node pos="l" depth="3" NCoef="0" IVar="-1" Cut="0.0000000000000000e+00" cType="1" res="3.8373896386474371e-03" rms="4.2731741070747375e-01" purity="2.6102864742279053e-01" nType="-99"/>
            <Node pos="r" depth="3" NCoef="0" IVar="-1" Cut="0.0000000000000000e+00" cType="1" res="-1.0803784243762493e-02" rms="1.9905401766300201e-01" purity="4.5529402792453766e-02" nType="-99"/>
          </Node>
          <Node pos="r" depth="2" NCoef="0" IVar="3" Cut="1.8117777343750000e+04" cType="1" res="2.7228546142578125e-01" rms="3.9393612742424011e-01" purity="7.8676986694335938e-01" nType="0">
            <Node pos="l" depth="3" NCoef="0" IVar="-1" Cut="0.0000000000000000e+00" cType="1" res="7.1084900991991162e-04" rms="5.0069373846054077e-01" purity="4.8394656181335449e-01" nType="-99"/>
            <Node pos="r" depth="3" NCoef="0" IVar="-1" Cut="0.0000000000000000e+00" cType="1" res="2.2334088571369648e-03" rms="3.1159037351608276e-01" purity="8.9000231027603149e-01" nType="-99"/>
          </Node>
        </Node>
        <Node pos="r" depth="1" NCoef="0" IVar="3" Cut="7.3819421875000000e+04" cType="1" res="2.5883504748344421e-01" rms="3.1559801101684570e-01" purity="8.4039187431335449e-01" nType="0">
          <Node pos="l" depth="2" NCoef="0" IVar="2" Cut="2.7994300000000000e+05" cType="1" res="1.9348505139350891e-01" rms="3.9936202764511108e-01" purity="7.0764744281768799e-01" nType="0">
            <Node pos="l" depth="3" NCoef="0" IVar="-1" Cut="0.0000000000000000e+00" cType="1" res="1.2160454643890262e-03" rms="4.5709320902824402e-01" purity="5.4920184612274170e-01" nType="-99"/>
            <Node pos="r" depth="3" NCoef="0" IVar="-1" Cut="0.0000000000000000e+00" cType="1" res="1.5438735717907548e-03" rms="3.4262096881866455e-01" purity="8.0802452564239502e-01" nType="-99"/>
          </Node>
          <Node pos="r" depth="2" NCoef="0" IVar="1" Cut="1.0185813281250000e+05" cType="1" res="3.1691116094589233e-01" rms="1.9802017509937286e-01" purity="9.5836102962493896e-01" nType="0">
            <Node pos="l" depth="3" NCoef="0" IVar="-1" Cut="0.0000000000000000e+00" cType="1" res="2.4570634122937918e-03" rms="2.6027047634124756e-01" purity="9.2494344711303711e-01" nType="-99"/>
            <Node pos="r" depth="3" NCoef="0" IVar="-1" Cut="0.0000000000000000e+00" cType="1" res="2.2628270089626312e-03" rms="1.1927717924118042e-01" purity="9.8550426959991455e-01" nType="-99"/>
          </Node>
        </Node>
      </Node>
    </BinaryTree>
    <BinaryTree type="DecisionTree" boostWeight="1.0000000000000000e+00" itree="107">
      <Node pos="s" depth="0" NCoef="0" IVar="3" Cut="5.4198226562500000e+04" cType="1" res="1.3694719970226288e-01" rms="3.3002811670303345e-01" purity="4.9638286232948303e-01" nType="0">
        <Node pos="l" depth="1" NCoef="0" IVar="1" Cut="1.5585728125000000e+05" cType="1" res="4.2342614382505417e-02" rms="3.3757826685905457e-01" purity="2.4856460094451904e-01" nType="0">
          <Node pos="l" depth="2" NCoef="0" IVar="1" Cut="7.3615367187500000e+04" cType="1" res="1.4347030781209469e-02" rms="3.2567572593688965e-01" purity="1.7667281627655029e-01" nType="0">
            <Node pos="l" depth="3" NCoef="0" IVar="-1" Cut="0.0000000000000000e+00" cType="1" res="3.1278019305318594e-03" rms="4.3937894701957703e-01" purity="4.6472564339637756e-01" nType="-99"/>
            <Node pos="r" depth="3" NCoef="0" IVar="-1" Cut="0.0000000000000000e+00" cType="1" res="-3.3875424414873123e-03" rms="2.6324814558029175e-01" purity="9.8103813827037811e-02" nType="-99"/>
          </Node>
          <Node pos="r" depth="2" NCoef="0" IVar="-1" Cut="0.0000000000000000e+00" cType="1" res="2.7081205043941736e-03" rms="3.4426289796829224e-01" purity="8.5090929269790649e-01" nType="-99"/>
        </Node>
        <Node pos="r" depth="1" NCoef="0" IVar="1" Cut="1.0076305468750000e+05" cType="1" res="3.0372583866119385e-01" rms="2.3756986856460571e-01" purity="9.3326216936111450e-01" nType="0">
          <Node pos="l" depth="2" NCoef="0" IVar="1" Cut="8.3926359375000000e+04" cType="1" res="2.5475043058395386e-01" rms="3.0879282951354980e-01" purity="8.7898671627044678e-01" nType="0">
            <Node pos="l" depth="3" NCoef="0" IVar="-1" Cut="0.0000000000000000e+00" cType="1" res="2.5903389323502779e-03" rms="2.2895865142345428e-01" purity="9.4076627492904663e-01" nType="-99"/>
            <Node pos="r" depth="3" NCoef="0" IVar="-1" Cut="0.0000000000000000e+00" cType="1" res="1.5217635082080960e-03" rms="4.2760625481605530e-01" purity="7.1773695945739746e-01" nType="-99"/>
          </Node>
          <Node pos="r" depth="2" NCoef="0" IVar="0" Cut="1.3333333730697632e+00" cType="1" res="3.4743002057075500e-01" rms="1.3290472328662872e-01" purity="9.8169589042663574e-01" nType="0">
            <Node pos="l" depth="3" NCoef="0" IVar="-1" Cut="0.0000000000000000e+00" cType="1" res="2.6980508118867874e-03" rms="1.2641757726669312e-01" purity="9.8350358009338379e-01" nType="-99"/>
            <Node pos="r" depth="3" NCoef="0" IVar="-1" Cut="0.0000000000000000e+00" cType="1" res="3.1511217821389437e-03" rms="1.4216716587543488e-01" purity="9.7886085510253906e-01" nType="-99"/>
          </Node>
        </Node>
      </Node>
    </BinaryTree>
    <BinaryTree type="DecisionTree" boostWeight="1.0000000000000000e+00" itree="108">
      <Node pos="s" depth="0" NCoef="0" IVar="3" Cut="4.8659894531250000e+04" cType="1" res="1.4026176929473877e-01" rms="3.2675009965896606e-01" purity="5.1129603385925293e-01" nType="0">
        <Node pos="l" depth="1" NCoef="0" IVar="1" Cut="1.2713942968750000e+05" cType="1" res="2.4847587570548058e-02" rms="3.2590258121490479e-01" purity="2.0730814337730408e-01" nType="0">
          <Node pos="l" depth="2" NCoef="0" IVar="1" Cut="6.6816015625000000e+04" cType="1" res="-1.2126334011554718e-02" rms="2.9240158200263977e-01" purity="1.1636944115161896e-01" nType="0">
            <Node pos="l" depth="3" NCoef="0" IVar="-1" Cut="0.0000000000000000e+00" cType="1" res="3.0094517860561609e-03" rms="4.4797959923744202e-01" purity="3.3007210493087769e-01" nType="-99"/>
            <Node pos="r" depth="3" NCoef="0" IVar="-1" Cut="0.0000000000000000e+00" cType="1" res="-5.1596658304333687e-03" rms="2.4533864855766296e-01" purity="7.7399156987667084e-02" nType="-99"/>
          </Node>
          <Node pos="r" depth="2" NCoef="0" IVar="3" Cut="1.6584341796875000e+04" cType="1" res="2.5187990069389343e-01" rms="4.1649043560028076e-01" purity="7.6570236682891846e-01" nType="0">
            <Node pos="l" depth="3" NCoef="0" IVar="-1" Cut="0.0000000000000000e+00" cType="1" res="-1.3525024987757206e-03" rms="4.9107173085212708e-01" purity="3.6501625180244446e-01" nType="-99"/>
            <Node pos="r" depth="3" NCoef="0" IVar="-1" Cut="0.0000000000000000e+00" cType="1" res="1.7355181043967605e-03" rms="3.7274149060249329e-01" purity="8.4262299537658691e-01" nType="-99"/>
          </Node>
        </Node>
        <Node pos="r" depth="1" NCoef="0" IVar="1" Cut="1.3207020312500000e+05" cType="1" res="2.9355335235595703e-01" rms="2.5750720500946045e-01" purity="9.1504877805709839e-01" nType="0">
          <Node pos="l" depth="2" NCoef="0" IVar="3" Cut="8.4096671875000000e+04" cType="1" res="2.5951665639877319e-01" rms="3.0470243096351624e-01" purity="8.7445122003555298e-01" nType="0">
            <Node pos="l" depth="3" NCoef="0" IVar="-1" Cut="0.0000000000000000e+00" cType="1" res="1.4371922006830573e-03" rms="4.2065972089767456e-01" purity="7.2736287117004395e-01" nType="-99"/>
            <Node pos="r" depth="3" NCoef="0" IVar="-1" Cut="0.0000000000000000e+00" cType="1" res="2.6722250040620565e-03" rms="1.4837531745433807e-01" purity="9.7718209028244019e-01" nType="-99"/>
          </Node>
          <Node pos="r" depth="2" NCoef="0" IVar="-1" Cut="0.0000000000000000e+00" cType="1" res="1.7095592338591814e-03" rms="1.3068588078022003e-01" purity="9.8253077268600464e-01" nType="-99"/>
        </Node>
      </Node>
    </BinaryTree>
    <BinaryTree type="DecisionTree" boostWeight="1.0000000000000000e+00" itree="109">
      <Node pos="s" depth="0" NCoef="0" IVar="3" Cut="4.8766871093750000e+04" cType="1" res="1.2940989434719086e-01" rms="3.2209727168083191e-01" purity="4.9598437547683716e-01" nType="0">
        <Node pos="l" depth="1" NCoef="0" IVar="1" Cut="1.7489954687500000e+05" cType="1" res="1.3981013558804989e-02" rms="3.0959361791610718e-01" purity="1.9502820074558258e-01" nType="0">
          <Node pos="l" depth="2" NCoef="0" IVar="1" Cut="1.1235892968750000e+05" cType="1" res="-1.6371937235817313e-03" rms="2.9752439260482788e-01" purity="1.5155725181102753e-01" nType="0">
            <Node pos="l" depth="3" NCoef="0" IVar="-1" Cut="0.0000000000000000e+00" cType="1" res="-2.5928053073585033e-03" rms="2.6569142937660217e-01" purity="9.7884714603424072e-02" nType="-99"/>
            <Node pos="r" depth="3" NCoef="0" IVar="-1" Cut="0.0000000000000000e+00" cType="1" res="1.0545282857492566e-03" rms="4.3884831666946411e-01" purity="6.5525418519973755e-01" nType="-99"/>
          </Node>
          <Node pos="r" depth="2" NCoef="0" IVar="-1" Cut="0.0000000000000000e+00" cType="1" res="2.1863833535462618e-03" rms="3.8374924659729004e-01" purity="8.1741273403167725e-01" nType="-99"/>
        </Node>
        <Node pos="r" depth="1" NCoef="0" IVar="1" Cut="1.0066286718750000e+05" cType="1" res="2.8777456283569336e-01" rms="2.6687794923782349e-01" purity="9.0888655185699463e-01" nType="0">
          <Node pos="l" depth="2" NCoef="0" IVar="3" Cut="8.4196906250000000e+04" cType="1" res="2.1456834673881531e-01" rms="3.5540416836738586e-01" purity="8.2055652141571045e-01" nType="0">
            <Node pos="l" depth="3" NCoef="0" IVar="-1" Cut="0.0000000000000000e+00" cType="1" res="9.7856298089027405e-04" rms="4.5547887682914734e-01" purity="6.5474420785903931e-01" nType="-99"/>
            <Node pos="r" depth="3" NCoef="0" IVar="-1" Cut="0.0000000000000000e+00" cType="1" res="2.3574465885758400e-03" rms="1.9948874413967133e-01" purity="9.5807605981826782e-01" nType="-99"/>
          </Node>
          <Node pos="r" depth="2" NCoef="0" IVar="5" Cut="8.9949195312500000e+04" cType="1" res="3.4562155604362488e-01" rms="1.4181861281394958e-01" purity="9.7868412733078003e-01" nType="0">
            <Node pos="l" depth="3" NCoef="0" IVar="-1" Cut="0.0000000000000000e+00" cType="1" res="2.7801457326859236e-03" rms="1.6400231420993805e-01" purity="9.7105222940444946e-01" nType="-99"/>
            <Node pos="r" depth="3" NCoef="0" IVar="-1" Cut="0.0000000000000000e+00" cType="1" res="1.6172750620171428e-03" rms="1.2892945110797882e-01" purity="9.8257517814636230e-01" nType="-99"/>
          </Node>
        </Node>
      </Node>
    </BinaryTree>
    <BinaryTree type="DecisionTree" boostWeight="1.0000000000000000e+00" itree="110">
      <Node pos="s" depth="0" NCoef="0" IVar="3" Cut="6.5449433593750000e+04" cType="1" res="1.1895021051168442e-01" rms="3.2124912738800049e-01" purity="4.7590503096580505e-01" nType="0">
        <Node pos="l" depth="1" NCoef="0" IVar="3" Cut="4.9852968750000000e+04" cType="1" res="3.6219373345375061e-02" rms="3.2681038975715637e-01" purity="2.7350831031799316e-01" nType="0">
          <Node pos="l" depth="2" NCoef="0" IVar="1" Cut="1.4549082812500000e+05" cType="1" res="-5.6850578403100371e-04" rms="3.0382454395294189e-01" purity="1.7633667588233948e-01" nType="0">
            <Node pos="l" depth="3" NCoef="0" IVar="-1" Cut="0.0000000000000000e+00" cType="1" res="-1.7581169959157705e-03" rms="2.8446379303932190e-01" purity="1.1489277333021164e-01" nType="-99"/>
            <Node pos="r" depth="3" NCoef="0" IVar="-1" Cut="0.0000000000000000e+00" cType="1" res="2.1525877527892590e-03" rms="3.9948016405105591e-01" purity="7.6915413141250610e-01" nType="-99"/>
          </Node>
          <Node pos="r" depth="2" NCoef="0" IVar="2" Cut="2.4845903125000000e+05" cType="1" res="2.3665186762809753e-01" rms="3.7180045247077942e-01" purity="8.0293142795562744e-01" nType="0">
            <Node pos="l" depth="3" NCoef="0" IVar="-1" Cut="0.0000000000000000e+00" cType="1" res="5.5828609038144350e-04" rms="4.6388697624206543e-01" purity="5.7285410165786743e-01" nType="-99"/>
            <Node pos="r" depth="3" NCoef="0" IVar="-1" Cut="0.0000000000000000e+00" cType="1" res="1.6893116990104318e-03" rms="3.0983832478523254e-01" purity="8.7756884098052979e-01" nType="-99"/>
          </Node>
        </Node>
        <Node pos="r" depth="1" NCoef="0" IVar="1" Cut="9.4975117187500000e+04" cType="1" res="3.1544959545135498e-01" rms="1.9942979514598846e-01" purity="9.5663058757781982e-01" nType="0">
          <Node pos="l" depth="2" NCoef="0" IVar="1" Cut="8.3177218750000000e+04" cType="1" res="2.8291681408882141e-01" rms="2.5429835915565491e-01" purity="9.2579656839370728e-01" nType="0">
            <Node pos="l" depth="3" NCoef="0" IVar="-1" Cut="0.0000000000000000e+00" cType="1" res="2.5533700827509165e-03" rms="1.8027052283287048e-01" purity="9.6563071012496948e-01" nType="-99"/>
            <Node pos="r" depth="3" NCoef="0" IVar="-1" Cut="0.0000000000000000e+00" cType="1" res="8.1988325109705329e-04" rms="4.4549307227134705e-01" purity="6.9862425327301025e-01" nType="-99"/>
          </Node>
          <Node pos="r" depth="2" NCoef="0" IVar="2" Cut="3.8401837500000000e+05" cType="1" res="3.3951240777969360e-01" rms="1.4140915870666504e-01" purity="9.7943699359893799e-01" nType="0">
            <Node pos="l" depth="3" NCoef="0" IVar="-1" Cut="0.0000000000000000e+00" cType="1" res="2.6758473832160234e-03" rms="1.7229090631008148e-01" purity="9.6942842006683350e-01" nType="-99"/>
            <Node pos="r" depth="3" NCoef="0" IVar="-1" Cut="0.0000000000000000e+00" cType="1" res="2.7473298832774162e-03" rms="1.1046551913022995e-01" purity="9.8745012283325195e-01" nType="-99"/>
          </Node>
        </Node>
      </Node>
    </BinaryTree>
    <BinaryTree type="DecisionTree" boostWeight="1.0000000000000000e+00" itree="111">
      <Node pos="s" depth="0" NCoef="0" IVar="3" Cut="6.8843453125000000e+04" cType="1" res="1.3741920888423920e-01" rms="3.2255941629409790e-01" purity="5.0928485393524170e-01" nType="0">
        <Node pos="l" depth="1" NCoef="0" IVar="1" Cut="1.5585303125000000e+05" cType="1" res="5.5353775620460510e-02" rms="3.3846104145050049e-01" purity="3.0621090531349182e-01" nType="0">
          <Node pos="l" depth="2" NCoef="0" IVar="1" Cut="1.0099504687500000e+05" cType="1" res="2.5046996772289276e-02" rms="3.2825815677642822e-01" purity="2.2893047332763672e-01" nType="0">
            <Node pos="l" depth="3" NCoef="0" IVar="-1" Cut="0.0000000000000000e+00" cType="1" res="-1.6959850909188390e-03" rms="2.8326556086540222e-01" purity="1.3359776139259338e-01" nType="-99"/>
            <Node pos="r" depth="3" NCoef="0" IVar="-1" Cut="0.0000000000000000e+00" cType="1" res="2.6537470985203981e-03" rms="3.9900329709053040e-01" purity="6.6641187667846680e-01" nType="-99"/>
          </Node>
          <Node pos="r" depth="2" NCoef="0" IVar="3" Cut="2.9369728515625000e+04" cType="1" res="2.7402073144912720e-01" rms="3.3044531941413879e-01" purity="8.6379802227020264e-01" nType="0">
            <Node pos="l" depth="3" NCoef="0" IVar="-1" Cut="0.0000000000000000e+00" cType="1" res="2.0464775152504444e-03" rms="4.5602771639823914e-01" purity="7.0102310180664062e-01" nType="-99"/>
            <Node pos="r" depth="3" NCoef="0" IVar="-1" Cut="0.0000000000000000e+00" cType="1" res="2.2743940353393555e-03" rms="2.4108394980430603e-01" purity="9.3757367134094238e-01" nType="-99"/>
          </Node>
        </Node>
        <Node pos="r" depth="1" NCoef="0" IVar="4" Cut="2.6322265625000000e+05" cType="1" res="3.2235518097877502e-01" rms="1.7600846290588379e-01" purity="9.6691584587097168e-01" nType="0">
          <Node pos="l" depth="2" NCoef="0" IVar="3" Cut="9.4309242187500000e+04" cType="1" res="2.8506344556808472e-01" rms="2.5582513213157654e-01" purity="9.2560124397277832e-01" nType="0">
            <Node pos="l" depth="3" NCoef="0" IVar="-1" Cut="0.0000000000000000e+00" cType="1" res="2.5206559803336859e-03" rms="3.5682100057601929e-01" purity="8.4427523612976074e-01" nType="-99"/>
            <Node pos="r" depth="3" NCoef="0" IVar="-1" Cut="0.0000000000000000e+00" cType="1" res="3.3825042191892862e-03" rms="1.1748292297124863e-01" purity="9.8590761423110962e-01" nType="-99"/>
          </Node>
          <Node pos="r" depth="2" NCoef="0" IVar="1" Cut="1.2572065625000000e+05" cType="1" res="3.3012953400611877e-01" rms="1.5311120450496674e-01" purity="9.7552889585494995e-01" nType="0">
            <Node pos="l" depth="3" NCoef="0" IVar="-1" Cut="0.0000000000000000e+00" cType="1" res="2.2476720623672009e-03" rms="1.8163871765136719e-01" purity="9.6498113870620728e-01" nType="-99"/>
            <Node pos="r" depth="3" NCoef="0" IVar="-1" Cut="0.0000000000000000e+00" cType="1" res="1.9976655021309853e-03" rms="1.0497712343931198e-01" purity="9.8887163400650024e-01" nType="-99"/>
          </Node>
        </Node>
      </Node>
    </BinaryTree>
    <BinaryTree type="DecisionTree" boostWeight="1.0000000000000000e+00" itree="112">
      <Node pos="s" depth="0" NCoef="0" IVar="3" Cut="5.4312500000000000e+04" cType="1" res="1.1952061951160431e-01" rms="3.2543328404426575e-01" purity="4.7258743643760681e-01" nType="0">
        <Node pos="l" depth="1" NCoef="0" IVar="1" Cut="1.3642714062500000e+05" cType="1" res="2.7326356619596481e-02" rms="3.2498633861541748e-01" purity="2.2624118626117706e-01" nType="0">
          <Node pos="l" depth="2" NCoef="0" IVar="1" Cut="1.0081486718750000e+05" cType="1" res="5.0596834626048803e-04" rms="3.0617305636405945e-01" purity="1.5341518819332123e-01" nType="0">
            <Node pos="l" depth="3" NCoef="0" IVar="-1" Cut="0.0000000000000000e+00" cType="1" res="-2.4885407183319330e-03" rms="2.6872077584266663e-01" purity="1.0902749747037888e-01" nType="-99"/>
            <Node pos="r" depth="3" NCoef="0" IVar="-1" Cut="0.0000000000000000e+00" cType="1" res="5.2761691622436047e-03" rms="4.4906020164489746e-01" purity="5.0467401742935181e-01" nType="-99"/>
          </Node>
          <Node pos="r" depth="2" NCoef="0" IVar="5" Cut="9.0734335937500000e+04" cType="1" res="2.3789498209953308e-01" rms="3.8581648468971252e-01" purity="7.9800295829772949e-01" nType="0">
            <Node pos="l" depth="3" NCoef="0" IVar="-1" Cut="0.0000000000000000e+00" cType="1" res="2.8287533205002546e-03" rms="3.5410434007644653e-01" purity="8.4638142585754395e-01" nType="-99"/>
            <Node pos="r" depth="3" NCoef="0" IVar="-1" Cut="0.0000000000000000e+00" cType="1" res="1.5241523506119847e-03" rms="4.2236605286598206e-01" purity="7.0552664995193481e-01" nType="-99"/>
          </Node>
        </Node>
        <Node pos="r" depth="1" NCoef="0" IVar="1" Cut="1.1128134375000000e+05" cType="1" res="2.8879231214523315e-01" rms="2.4936272203922272e-01" purity="9.2488723993301392e-01" nType="0">
          <Node pos="l" depth="2" NCoef="0" IVar="3" Cut="8.4696117187500000e+04" cType="1" res="2.3255038261413574e-01" rms="3.2283404469490051e-01" purity="8.6370444297790527e-01" nType="0">
            <Node pos="l" depth="3" NCoef="0" IVar="-1" Cut="0.0000000000000000e+00" cType="1" res="5.8207288384437561e-04" rms="4.6075204014778137e-01" purity="6.4739418029785156e-01" nType="-99"/>
            <Node pos="r" depth="3" NCoef="0" IVar="-1" Cut="0.0000000000000000e+00" cType="1" res="2.7290082070976496e-03" rms="1.8990619480609894e-01" purity="9.6209347248077393e-01" nType="-99"/>
          </Node>
          <Node pos="r" depth="2" NCoef="0" IVar="-1" Cut="0.0000000000000000e+00" cType="1" res="2.0457163918763399e-03" rms="1.2230391800403595e-01" purity="9.8471122980117798e-01" nType="-99"/>
        </Node>
      </Node>
    </BinaryTree>
    <BinaryTree type="DecisionTree" boostWeight="1.0000000000000000e+00" itree="113">
      <Node pos="s" depth="0" NCoef="0" IVar="3" Cut="6.8736484375000000e+04" cType="1" res="1.2935271859169006e-01" rms="3.2418605685234070e-01" purity="4.9588876962661743e-01" nType="0">
        <Node pos="l" depth="1" NCoef="0" IVar="1" Cut="9.3471921875000000e+04" cType="1" res="3.4737747162580490e-02" rms="3.3788350224494934e-01" purity="2.6104846596717834e-01" nType="0">
          <Node pos="l" depth="2" NCoef="0" IVar="1" Cut="6.6322671875000000e+04" cType="1" res="-2.4737162515521049e-02" rms="3.0205640196800232e-01" purity="1.2904933094978333e-01" nType="0">
            <Node pos="l" depth="3" NCoef="0" IVar="-1" Cut="0.0000000000000000e+00" cType="1" res="3.2540271058678627e-03" rms="4.4230875372886658e-01" purity="3.9666649699211121e-01" nType="-99"/>
            <Node pos="r" depth="3" NCoef="0" IVar="-1" Cut="0.0000000000000000e+00" cType="1" res="-1.3306414708495140e-02" rms="2.2615261375904083e-01" purity="5.1944613456726074e-02" nType="-99"/>
          </Node>
          <Node pos="r" depth="2" NCoef="0" IVar="3" Cut="4.5764035156250000e+04" cType="1" res="1.2682746350765228e-01" rms="3.6838525533676147e-01" purity="4.6543323993682861e-01" nType="0">
            <Node pos="l" depth="3" NCoef="0" IVar="-1" Cut="0.0000000000000000e+00" cType="1" res="1.9699728582054377e-03" rms="3.6383837461471558e-01" purity="3.2560816407203674e-01" nType="-99"/>
            <Node pos="r" depth="3" NCoef="0" IVar="-1" Cut="0.0000000000000000e+00" cType="1" res="1.4869517181068659e-03" rms="3.3201956748962402e-01" purity="8.5290253162384033e-01" nType="-99"/>
          </Node>
        </Node>
        <Node pos="r" depth="1" NCoef="0" IVar="1" Cut="1.0059082812500000e+05" cType="1" res="3.1817245483398438e-01" rms="1.8297693133354187e-01" purity="9.6455127000808716e-01" nType="0">
          <Node pos="l" depth="2" NCoef="0" IVar="0" Cut="1.1428571939468384e+00" cType="1" res="2.9190391302108765e-01" rms="2.3847904801368713e-01" purity="9.3787395954132080e-01" nType="0">
            <Node pos="l" depth="3" NCoef="0" IVar="-1" Cut="0.0000000000000000e+00" cType="1" res="2.3849913850426674e-03" rms="1.9233705103397369e-01" purity="9.5997494459152222e-01" nType="-99"/>
            <Node pos="r" depth="3" NCoef="0" IVar="-1" Cut="0.0000000000000000e+00" cType="1" res="1.7804886447265744e-03" rms="3.3052882552146912e-01" purity="8.7457573413848877e-01" nType="-99"/>
          </Node>
          <Node pos="r" depth="2" NCoef="0" IVar="-1" Cut="0.0000000000000000e+00" cType="1" res="2.5337496772408485e-03" rms="1.0987387597560883e-01" purity="9.8769181966781616e-01" nType="-99"/>
        </Node>
      </Node>
    </BinaryTree>
    <BinaryTree type="DecisionTree" boostWeight="1.0000000000000000e+00" itree="114">
      <Node pos="s" depth="0" NCoef="0" IVar="3" Cut="4.8766871093750000e+04" cType="1" res="1.4083611965179443e-01" rms="3.2944533228874207e-01" purity="5.0590193271636963e-01" nType="0">
        <Node pos="l" depth="1" NCoef="0" IVar="3" Cut="2.7931517578125000e+04" cType="1" res="4.1607998311519623e-02" rms="3.3292362093925476e-01" purity="2.3005993664264679e-01" nType="0">
          <Node pos="l" depth="2" NCoef="0" IVar="1" Cut="1.3641148437500000e+05" cType="1" res="-1.4240941032767296e-02" rms="2.5879383087158203e-01" purity="1.1157376319169998e-01" nType="0">
            <Node pos="l" depth="3" NCoef="0" IVar="-1" Cut="0.0000000000000000e+00" cType="1" res="-4.3026274070143700e-03" rms="2.2452062368392944e-01" purity="6.0439631342887878e-02" nType="-99"/>
            <Node pos="r" depth="3" NCoef="0" IVar="-1" Cut="0.0000000000000000e+00" cType="1" res="1.7425890546292067e-03" rms="4.6528437733650208e-01" purity="6.6971296072006226e-01" nType="-99"/>
          </Node>
          <Node pos="r" depth="2" NCoef="0" IVar="3" Cut="2.8929339843750000e+04" cType="1" res="1.4766612648963928e-01" rms="4.2067196965217590e-01" purity="4.5506730675697327e-01" nType="0">
            <Node pos="l" depth="3" NCoef="0" IVar="-1" Cut="0.0000000000000000e+00" cType="1" res="4.7893212176859379e-03" rms="4.8704066872596741e-01" purity="5.6089431047439575e-01" nType="-99"/>
            <Node pos="r" depth="3" NCoef="0" IVar="-1" Cut="0.0000000000000000e+00" cType="1" res="1.2608825927600265e-03" rms="4.0304195880889893e-01" purity="4.4411349296569824e-01" nType="-99"/>
          </Node>
        </Node>
        <Node pos="r" depth="1" NCoef="0" IVar="3" Cut="9.5060742187500000e+04" cType="1" res="2.8600567579269409e-01" rms="2.6397833228111267e-01" purity="9.0945541858673096e-01" nType="0">
          <Node pos="l" depth="2" NCoef="0" IVar="2" Cut="2.7240596875000000e+05" cType="1" res="2.4813076853752136e-01" rms="3.3629310131072998e-01" purity="8.4477627277374268e-01" nType="0">
            <Node pos="l" depth="3" NCoef="0" IVar="-1" Cut="0.0000000000000000e+00" cType="1" res="1.1294857831671834e-03" rms="3.9475941658020020e-01" purity="7.6029926538467407e-01" nType="-99"/>
            <Node pos="r" depth="3" NCoef="0" IVar="-1" Cut="0.0000000000000000e+00" cType="1" res="2.1275056060403585e-03" rms="2.7860999107360840e-01" purity="9.0291440486907959e-01" nType="-99"/>
          </Node>
          <Node pos="r" depth="2" NCoef="0" IVar="1" Cut="1.1202803906250000e+05" cType="1" res="3.2879194617271423e-01" rms="1.3113339245319366e-01" purity="9.8252153396606445e-01" nType="0">
            <Node pos="l" depth="3" NCoef="0" IVar="-1" Cut="0.0000000000000000e+00" cType="1" res="3.0311483424156904e-03" rms="1.6350258886814117e-01" purity="9.7240495681762695e-01" nType="-99"/>
            <Node pos="r" depth="3" NCoef="0" IVar="-1" Cut="0.0000000000000000e+00" cType="1" res="2.5481334887444973e-03" rms="8.9754790067672729e-02" purity="9.9188095331192017e-01" nType="-99"/>
          </Node>
        </Node>
      </Node>
    </BinaryTree>
    <BinaryTree type="DecisionTree" boostWeight="1.0000000000000000e+00" itree="115">
      <Node pos="s" depth="0" NCoef="0" IVar="3" Cut="4.8721656250000000e+04" cType="1" res="1.4152584969997406e-01" rms="3.2264387607574463e-01" purity="5.1237761974334717e-01" nType="0">
        <Node pos="l" depth="1" NCoef="0" IVar="3" Cut="3.4831832031250000e+04" cType="1" res="3.8340833038091660e-02" rms="3.2444420456886292e-01" purity="2.2844673693180084e-01" nType="0">
          <Node pos="l" depth="2" NCoef="0" IVar="2" Cut="3.7128590625000000e+05" cType="1" res="1.8959994195029140e-03" rms="2.8261885046958923e-01" purity="1.3691435754299164e-01" nType="0">
            <Node pos="l" depth="3" NCoef="0" IVar="-1" Cut="0.0000000000000000e+00" cType="1" res="-2.5874518323689699e-03" rms="2.5240975618362427e-01" purity="8.8750585913658142e-02" nType="-99"/>
            <Node pos="r" depth="3" NCoef="0" IVar="-1" Cut="0.0000000000000000e+00" cType="1" res="2.5665371213108301e-03" rms="3.7949508428573608e-01" purity="3.6556690931320190e-01" nType="-99"/>
          </Node>
          <Node pos="r" depth="2" NCoef="0" IVar="1" Cut="8.3991367187500000e+04" cType="1" res="1.7147816717624664e-01" rms="4.1885715723037720e-01" purity="5.6282550096511841e-01" nType="0">
            <Node pos="l" depth="3" NCoef="0" IVar="-1" Cut="0.0000000000000000e+00" cType="1" res="3.4137894399464130e-03" rms="4.5805189013481140e-01" purity="6.4845365285873413e-01" nType="-99"/>
            <Node pos="r" depth="3" NCoef="0" IVar="-1" Cut="0.0000000000000000e+00" cType="1" res="8.0390990478917956e-04" rms="3.9189365506172180e-01" purity="5.2846813201904297e-01" nType="-99"/>
          </Node>
        </Node>
        <Node pos="r" depth="1" NCoef="0" IVar="1" Cut="1.0066286718750000e+05" cType="1" res="2.8781151771545410e-01" rms="2.5681421160697937e-01" purity="9.1490727663040161e-01" nType="0">
          <Node pos="l" depth="2" NCoef="0" IVar="1" Cut="8.3807507812500000e+04" cType="1" res="2.2912110388278961e-01" rms="3.3370622992515564e-01" purity="8.4202957153320312e-01" nType="0">
            <Node pos="l" depth="3" NCoef="0" IVar="-1" Cut="0.0000000000000000e+00" cType="1" res="2.9196029063314199e-03" rms="2.5785076618194580e-01" purity="9.1925132274627686e-01" nType="-99"/>
            <Node pos="r" depth="3" NCoef="0" IVar="-1" Cut="0.0000000000000000e+00" cType="1" res="8.4303464973345399e-04" rms="4.2563366889953613e-01" purity="6.7430245876312256e-01" nType="-99"/>
          </Node>
          <Node pos="r" depth="2" NCoef="0" IVar="4" Cut="3.6414628125000000e+05" cType="1" res="3.3898240327835083e-01" rms="1.4402447640895844e-01" purity="9.7844767570495605e-01" nType="0">
            <Node pos="l" depth="3" NCoef="0" IVar="-1" Cut="0.0000000000000000e+00" cType="1" res="2.8607626445591450e-03" rms="1.4703510701656342e-01" purity="9.7767335176467896e-01" nType="-99"/>
            <Node pos="r" depth="3" NCoef="0" IVar="-1" Cut="0.0000000000000000e+00" cType="1" res="2.1427229512482882e-03" rms="1.4178165793418884e-01" purity="9.7891604900360107e-01" nType="-99"/>
          </Node>
        </Node>
      </Node>
    </BinaryTree>
    <BinaryTree type="DecisionTree" boostWeight="1.0000000000000000e+00" itree="116">
      <Node pos="s" depth="0" NCoef="0" IVar="3" Cut="5.4404027343750000e+04" cType="1" res="1.4015625417232513e-01" rms="3.2298457622528076e-01" purity="5.1627963781356812e-01" nType="0">
        <Node pos="l" depth="1" NCoef="0" IVar="1" Cut="1.5585728125000000e+05" cType="1" res="4.7137223184108734e-02" rms="3.2910647988319397e-01" purity="2.5707060098648071e-01" nType="0">
          <Node pos="l" depth="2" NCoef="0" IVar="1" Cut="1.0095151562500000e+05" cType="1" res="1.8668120726943016e-02" rms="3.1702792644500732e-01" purity="1.8265454471111298e-01" nType="0">
            <Node pos="l" depth="3" NCoef="0" IVar="-1" Cut="0.0000000000000000e+00" cType="1" res="-1.2201914796605706e-03" rms="2.7678897976875305e-01" purity="1.1585456132888794e-01" nType="-99"/>
            <Node pos="r" depth="3" NCoef="0" IVar="-1" Cut="0.0000000000000000e+00" cType="1" res="1.7881530802696943e-03" rms="4.2786085605621338e-01" purity="5.8134812116622925e-01" nType="-99"/>
          </Node>
          <Node pos="r" depth="2" NCoef="0" IVar="-1" Cut="0.0000000000000000e+00" cType="1" res="2.7005062438547611e-03" rms="3.3416426181793213e-01" purity="8.6128538846969604e-01" nType="-99"/>
        </Node>
        <Node pos="r" depth="1" NCoef="0" IVar="1" Cut="1.0386303125000000e+05" cType="1" res="2.8722676634788513e-01" rms="2.5039416551589966e-01" purity="9.2610973119735718e-01" nType="0">
          <Node pos="l" depth="2" NCoef="0" IVar="3" Cut="8.0716156250000000e+04" cType="1" res="2.3110744357109070e-01" rms="3.3100539445877075e-01" purity="8.6113613843917847e-01" nType="0">
            <Node pos="l" depth="3" NCoef="0" IVar="-1" Cut="0.0000000000000000e+00" cType="1" res="1.1749793775379658e-03" rms="4.4126349687576294e-01" purity="7.1787720918655396e-01" nType="-99"/>
            <Node pos="r" depth="3" NCoef="0" IVar="-1" Cut="0.0000000000000000e+00" cType="1" res="2.5512697175145149e-03" rms="2.2380417585372925e-01" purity="9.4611519575119019e-01" nType="-99"/>
          </Node>
          <Node pos="r" depth="2" NCoef="0" IVar="5" Cut="9.0862031250000000e+04" cType="1" res="3.3555284142494202e-01" rms="1.3149479031562805e-01" purity="9.8206049203872681e-01" nType="0">
            <Node pos="l" depth="3" NCoef="0" IVar="-1" Cut="0.0000000000000000e+00" cType="1" res="2.3889653384685516e-03" rms="1.4845979213714600e-01" purity="9.7695910930633545e-01" nType="-99"/>
            <Node pos="r" depth="3" NCoef="0" IVar="-1" Cut="0.0000000000000000e+00" cType="1" res="2.2038675379008055e-03" rms="1.1160685122013092e-01" purity="9.8718827962875366e-01" nType="-99"/>
          </Node>
        </Node>
      </Node>
    </BinaryTree>
    <BinaryTree type="DecisionTree" boostWeight="1.0000000000000000e+00" itree="117">
      <Node pos="s" depth="0" NCoef="0" IVar="3" Cut="4.4610949218750000e+04" cType="1" res="1.3182978332042694e-01" rms="3.1698104739189148e-01" purity="5.0309818983078003e-01" nType="0">
        <Node pos="l" depth="1" NCoef="0" IVar="1" Cut="1.3641148437500000e+05" cType="1" res="6.8670492619276047e-03" rms="3.0007347464561462e-01" purity="1.6984142363071442e-01" nType="0">
          <Node pos="l" depth="2" NCoef="0" IVar="1" Cut="7.7080773437500000e+04" cType="1" res="-1.6462026163935661e-02" rms="2.7426138520240784e-01" purity="1.0211931169033051e-01" nType="0">
            <Node pos="l" depth="3" NCoef="0" IVar="-1" Cut="0.0000000000000000e+00" cType="1" res="3.7731353659182787e-03" rms="4.3519961833953857e-01" purity="2.8487655520439148e-01" nType="-99"/>
            <Node pos="r" depth="3" NCoef="0" IVar="-1" Cut="0.0000000000000000e+00" cType="1" res="-6.1896983534097672e-03" rms="2.0928049087524414e-01" purity="5.8820951730012894e-02" nType="-99"/>
          </Node>
          <Node pos="r" depth="2" NCoef="0" IVar="0" Cut="2.3809523880481720e-01" cType="1" res="2.0925602316856384e-01" rms="4.1589903831481934e-01" purity="7.5735765695571899e-01" nType="0">
            <Node pos="l" depth="3" NCoef="0" IVar="-1" Cut="0.0000000000000000e+00" cType="1" res="1.3932653237134218e-03" rms="4.5419254899024963e-01" purity="6.5768617391586304e-01" nType="-99"/>
            <Node pos="r" depth="3" NCoef="0" IVar="-1" Cut="0.0000000000000000e+00" cType="1" res="2.8634367045015097e-03" rms="3.7519794702529907e-01" purity="8.2689970731735229e-01" nType="-99"/>
          </Node>
        </Node>
        <Node pos="r" depth="1" NCoef="0" IVar="3" Cut="8.6900085937500000e+04" cType="1" res="2.7986645698547363e-01" rms="2.6911407709121704e-01" purity="8.9788967370986938e-01" nType="0">
          <Node pos="l" depth="2" NCoef="0" IVar="3" Cut="5.0654890625000000e+04" cType="1" res="2.2022318840026855e-01" rms="3.7017136812210083e-01" purity="7.9036748409271240e-01" nType="0">
            <Node pos="l" depth="3" NCoef="0" IVar="-1" Cut="0.0000000000000000e+00" cType="1" res="1.5812469646334648e-03" rms="4.3306636810302734e-01" purity="5.8297902345657349e-01" nType="-99"/>
            <Node pos="r" depth="3" NCoef="0" IVar="-1" Cut="0.0000000000000000e+00" cType="1" res="2.1328865550458431e-03" rms="3.4934431314468384e-01" purity="8.3824372291564941e-01" nType="-99"/>
          </Node>
          <Node pos="r" depth="2" NCoef="0" IVar="1" Cut="9.5234882812500000e+04" cType="1" res="3.2792419195175171e-01" rms="1.2325283139944077e-01" purity="9.8452609777450562e-01" nType="0">
            <Node pos="l" depth="3" NCoef="0" IVar="-1" Cut="0.0000000000000000e+00" cType="1" res="2.4726418778300285e-03" rms="1.5012928843498230e-01" purity="9.7669339179992676e-01" nType="-99"/>
            <Node pos="r" depth="3" NCoef="0" IVar="-1" Cut="0.0000000000000000e+00" cType="1" res="2.4364432319998741e-03" rms="9.4205051660537720e-02" purity="9.9104315042495728e-01" nType="-99"/>
          </Node>
        </Node>
      </Node>
    </BinaryTree>
    <BinaryTree type="DecisionTree" boostWeight="1.0000000000000000e+00" itree="118">
      <Node pos="s" depth="0" NCoef="0" IVar="3" Cut="3.7922710937500000e+04" cType="1" res="1.3656677305698395e-01" rms="3.2313129305839539e-01" purity="5.1346218585968018e-01" nType="0">
        <Node pos="l" depth="1" NCoef="0" IVar="1" Cut="1.7490379687500000e+05" cType="1" res="5.5319801904261112e-03" rms="2.8902846574783325e-01" purity="1.4990651607513428e-01" nType="0">
          <Node pos="l" depth="2" NCoef="0" IVar="1" Cut="1.1280443750000000e+05" cType="1" res="-6.8482300266623497e-03" rms="2.7425408363342285e-01" purity="1.0659553110599518e-01" nType="0">
            <Node pos="l" depth="3" NCoef="0" IVar="-1" Cut="0.0000000000000000e+00" cType="1" res="-3.3492729999125004e-03" rms="2.4570082128047943e-01" purity="7.0218846201896667e-02" nType="-99"/>
            <Node pos="r" depth="3" NCoef="0" IVar="-1" Cut="0.0000000000000000e+00" cType="1" res="2.2353897802531719e-03" rms="4.7355046868324280e-01" purity="5.4526764154434204e-01" nType="-99"/>
          </Node>
          <Node pos="r" depth="2" NCoef="0" IVar="-1" Cut="0.0000000000000000e+00" cType="1" res="1.7535467632114887e-03" rms="4.1093856096267700e-01" purity="7.6765495538711548e-01" nType="-99"/>
        </Node>
        <Node pos="r" depth="1" NCoef="0" IVar="1" Cut="1.0347596093750000e+05" cType="1" res="2.5756454467773438e-01" rms="3.0527979135513306e-01" purity="8.4917026758193970e-01" nType="0">
          <Node pos="l" depth="2" NCoef="0" IVar="1" Cut="8.6051335937500000e+04" cType="1" res="1.6639558970928192e-01" rms="3.7726932764053345e-01" purity="7.2421264648437500e-01" nType="0">
            <Node pos="l" depth="3" NCoef="0" IVar="-1" Cut="0.0000000000000000e+00" cType="1" res="2.6113435160368681e-03" rms="3.2252189517021179e-01" purity="8.4321546554565430e-01" nType="-99"/>
            <Node pos="r" depth="3" NCoef="0" IVar="-1" Cut="0.0000000000000000e+00" cType="1" res="-5.2852474618703127e-04" rms="4.1995120048522949e-01" purity="4.4362378120422363e-01" nType="-99"/>
          </Node>
          <Node pos="r" depth="2" NCoef="0" IVar="4" Cut="3.7411143750000000e+05" cType="1" res="3.4327891469001770e-01" rms="1.7843118309974670e-01" purity="9.6665179729461670e-01" nType="0">
            <Node pos="l" depth="3" NCoef="0" IVar="-1" Cut="0.0000000000000000e+00" cType="1" res="1.3229314936324954e-03" rms="1.9172796607017517e-01" purity="9.6280688047409058e-01" nType="-99"/>
            <Node pos="r" depth="3" NCoef="0" IVar="-1" Cut="0.0000000000000000e+00" cType="1" res="2.2936151362955570e-03" rms="1.6167654097080231e-01" purity="9.7051912546157837e-01" nType="-99"/>
          </Node>
        </Node>
      </Node>
    </BinaryTree>
    <BinaryTree type="DecisionTree" boostWeight="1.0000000000000000e+00" itree="119">
      <Node pos="s" depth="0" NCoef="0" IVar="3" Cut="4.8659894531250000e+04" cType="1" res="1.3607616722583771e-01" rms="3.2510989904403687e-01" purity="5.0896573066711426e-01" nType="0">
        <Node pos="l" depth="1" NCoef="0" IVar="1" Cut="1.5586417187500000e+05" cType="1" res="4.0177065879106522e-02" rms="3.2289925217628479e-01" purity="2.3281924426555634e-01" nType="0">
          <Node pos="l" depth="2" NCoef="0" IVar="1" Cut="7.3539984375000000e+04" cType="1" res="1.1507590301334858e-02" rms="3.0767482519149780e-01" purity="1.5827602148056030e-01" nType="0">
            <Node pos="l" depth="3" NCoef="0" IVar="-1" Cut="0.0000000000000000e+00" cType="1" res="4.9256184138357639e-03" rms="4.6069559454917908e-01" purity="3.8787132501602173e-01" nType="-99"/>
            <Node pos="r" depth="3" NCoef="0" IVar="-1" Cut="0.0000000000000000e+00" cType="1" res="-2.0562971476465464e-03" rms="2.4392034113407135e-01" purity="1.0537931323051453e-01" nType="-99"/>
          </Node>
          <Node pos="r" depth="2" NCoef="0" IVar="-1" Cut="0.0000000000000000e+00" cType="1" res="2.5887687224894762e-03" rms="3.4693673253059387e-01" purity="8.5357707738876343e-01" nType="-99"/>
        </Node>
        <Node pos="r" depth="1" NCoef="0" IVar="1" Cut="1.0069682812500000e+05" cType="1" res="2.7159100770950317e-01" rms="2.7633440494537354e-01" purity="8.9918768405914307e-01" nType="0">
          <Node pos="l" depth="2" NCoef="0" IVar="3" Cut="7.8991835937500000e+04" cType="1" res="2.0520338416099548e-01" rms="3.5169968008995056e-01" purity="8.1830596923828125e-01" nType="0">
            <Node pos="l" depth="3" NCoef="0" IVar="-1" Cut="0.0000000000000000e+00" cType="1" res="1.0243777651339769e-03" rms="4.5234918594360352e-01" purity="6.3797307014465332e-01" nType="-99"/>
            <Node pos="r" depth="3" NCoef="0" IVar="-1" Cut="0.0000000000000000e+00" cType="1" res="1.9885210786014795e-03" rms="2.2125834226608276e-01" purity="9.4727188348770142e-01" nType="-99"/>
          </Node>
          <Node pos="r" depth="2" NCoef="0" IVar="5" Cut="9.0618523437500000e+04" cType="1" res="3.3426031470298767e-01" rms="1.5359649062156677e-01" purity="9.7553932666778564e-01" nType="0">
            <Node pos="l" depth="3" NCoef="0" IVar="-1" Cut="0.0000000000000000e+00" cType="1" res="2.1319419611245394e-03" rms="1.6483256220817566e-01" purity="9.7159069776535034e-01" nType="-99"/>
            <Node pos="r" depth="3" NCoef="0" IVar="-1" Cut="0.0000000000000000e+00" cType="1" res="2.0794195588678122e-03" rms="1.4356322586536407e-01" purity="9.7877442836761475e-01" nType="-99"/>
          </Node>
        </Node>
      </Node>
    </BinaryTree>
    <BinaryTree type="DecisionTree" boostWeight="1.0000000000000000e+00" itree="120">
      <Node pos="s" depth="0" NCoef="0" IVar="3" Cut="6.8798242187500000e+04" cType="1" res="1.2710370123386383e-01" rms="3.1627321243286133e-01" purity="4.9626559019088745e-01" nType="0">
        <Node pos="l" depth="1" NCoef="0" IVar="3" Cut="2.6283757812500000e+04" cType="1" res="5.1049865782260895e-02" rms="3.2748779654502869e-01" purity="2.9872307181358337e-01" nType="0">
          <Node pos="l" depth="2" NCoef="0" IVar="4" Cut="4.6576368750000000e+05" cType="1" res="-3.0033880844712257e-02" rms="2.2535519301891327e-01" purity="9.5426045358181000e-02" nType="0">
            <Node pos="l" depth="3" NCoef="0" IVar="-1" Cut="0.0000000000000000e+00" cType="1" res="-5.4870122112333775e-03" rms="1.8830618262290955e-01" purity="6.3907206058502197e-02" nType="-99"/>
            <Node pos="r" depth="3" NCoef="0" IVar="-1" Cut="0.0000000000000000e+00" cType="1" res="4.0989783592522144e-03" rms="4.1392305493354797e-01" purity="4.2333739995956421e-01" nType="-99"/>
          </Node>
          <Node pos="r" depth="2" NCoef="0" IVar="1" Cut="1.5585303125000000e+05" cType="1" res="1.4583076536655426e-01" rms="3.9570325613021851e-01" purity="5.3636223077774048e-01" nType="0">
            <Node pos="l" depth="3" NCoef="0" IVar="-1" Cut="0.0000000000000000e+00" cType="1" res="1.4599921414628625e-03" rms="4.1349363327026367e-01" purity="4.4380149245262146e-01" nType="-99"/>
            <Node pos="r" depth="3" NCoef="0" IVar="-1" Cut="0.0000000000000000e+00" cType="1" res="2.1811649203300476e-03" rms="2.5520443916320801e-01" purity="9.2876040935516357e-01" nType="-99"/>
          </Node>
        </Node>
        <Node pos="r" depth="1" NCoef="0" IVar="1" Cut="1.0059082812500000e+05" cType="1" res="3.0533361434936523e-01" rms="1.9439405202865601e-01" purity="9.5920062065124512e-01" nType="0">
          <Node pos="l" depth="2" NCoef="0" IVar="1" Cut="8.3730000000000000e+04" cType="1" res="2.7366915345191956e-01" rms="2.5398898124694824e-01" purity="9.2742788791656494e-01" nType="0">
            <Node pos="l" depth="3" NCoef="0" IVar="-1" Cut="0.0000000000000000e+00" cType="1" res="2.2862069308757782e-03" rms="1.9522944092750549e-01" purity="9.5943015813827515e-01" nType="-99"/>
            <Node pos="r" depth="3" NCoef="0" IVar="-1" Cut="0.0000000000000000e+00" cType="1" res="1.7653324175626040e-03" rms="4.1019064188003540e-01" purity="7.7557480335235596e-01" nType="-99"/>
          </Node>
          <Node pos="r" depth="2" NCoef="0" IVar="-1" Cut="0.0000000000000000e+00" cType="1" res="2.4808887392282486e-03" rms="1.1911334842443466e-01" purity="9.8546332120895386e-01" nType="-99"/>
        </Node>
      </Node>
    </BinaryTree>
    <BinaryTree type="DecisionTree" boostWeight="1.0000000000000000e+00" itree="121">
      <Node pos="s" depth="0" NCoef="0" IVar="3" Cut="5.4198226562500000e+04" cType="1" res="1.2870962917804718e-01" rms="3.3131510019302368e-01" purity="4.8609730601310730e-01" nType="0">
        <Node pos="l" depth="1" NCoef="0" IVar="1" Cut="1.4548423437500000e+05" cType="1" res="4.6616476029157639e-02" rms="3.3968594670295715e-01" purity="2.4693469703197479e-01" nType="0">
          <Node pos="l" depth="2" NCoef="0" IVar="1" Cut="7.5539804687500000e+04" cType="1" res="2.3493099957704544e-02" rms="3.2750436663627625e-01" purity="1.7561724781990051e-01" nType="0">
            <Node pos="l" depth="3" NCoef="0" IVar="-1" Cut="0.0000000000000000e+00" cType="1" res="4.7738342545926571e-03" rms="4.4141480326652527e-01" purity="4.2087772488594055e-01" nType="-99"/>
            <Node pos="r" depth="3" NCoef="0" IVar="-1" Cut="0.0000000000000000e+00" cType="1" res="-1.6086925752460957e-03" rms="2.7559289336204529e-01" purity="1.1054884642362595e-01" nType="-99"/>
          </Node>
          <Node pos="r" depth="2" NCoef="0" IVar="3" Cut="2.3944605468750000e+04" cType="1" res="2.3007653653621674e-01" rms="3.7678834795951843e-01" purity="8.1276500225067139e-01" nType="0">
            <Node pos="l" depth="3" NCoef="0" IVar="-1" Cut="0.0000000000000000e+00" cType="1" res="1.2690967414528131e-03" rms="4.8243185877799988e-01" purity="6.2657952308654785e-01" nType="-99"/>
            <Node pos="r" depth="3" NCoef="0" IVar="-1" Cut="0.0000000000000000e+00" cType="1" res="2.6702424511313438e-03" rms="2.9061904549598694e-01" purity="9.0576875209808350e-01" nType="-99"/>
          </Node>
        </Node>
        <Node pos="r" depth="1" NCoef="0" IVar="1" Cut="1.3196950000000000e+05" cType="1" res="2.7849918603897095e-01" rms="2.5453382730484009e-01" purity="9.2248022556304932e-01" nType="0">
          <Node pos="l" depth="2" NCoef="0" IVar="3" Cut="8.0492906250000000e+04" cType="1" res="2.5082176923751831e-01" rms="2.9609158635139465e-01" purity="8.9076644182205200e-01" nType="0">
            <Node pos="l" depth="3" NCoef="0" IVar="-1" Cut="0.0000000000000000e+00" cType="1" res="1.4963042922317982e-03" rms="4.1908317804336548e-01" purity="7.4801212549209595e-01" nType="-99"/>
            <Node pos="r" depth="3" NCoef="0" IVar="-1" Cut="0.0000000000000000e+00" cType="1" res="2.2600749507546425e-03" rms="2.0657700300216675e-01" purity="9.5448428392410278e-01" nType="-99"/>
          </Node>
          <Node pos="r" depth="2" NCoef="0" IVar="-1" Cut="0.0000000000000000e+00" cType="1" res="3.0791875906288624e-03" rms="1.3603396713733673e-01" purity="9.8104339838027954e-01" nType="-99"/>
        </Node>
      </Node>
    </BinaryTree>
    <BinaryTree type="DecisionTree" boostWeight="1.0000000000000000e+00" itree="122">
      <Node pos="s" depth="0" NCoef="0" IVar="3" Cut="5.6015867187500000e+04" cType="1" res="1.1018556356430054e-01" rms="3.2130539417266846e-01" purity="4.7030931711196899e-01" nType="0">
        <Node pos="l" depth="1" NCoef="0" IVar="1" Cut="1.5585303125000000e+05" cType="1" res="2.2246619686484337e-02" rms="3.1617400050163269e-01" purity="2.2696170210838318e-01" nType="0">
          <Node pos="l" depth="2" NCoef="0" IVar="1" Cut="1.1468622656250000e+05" cType="1" res="-1.7885601846501231e-03" rms="3.0215883255004883e-01" purity="1.5844595432281494e-01" nType="0">
            <Node pos="l" depth="3" NCoef="0" IVar="-1" Cut="0.0000000000000000e+00" cType="1" res="-1.8078401917591691e-03" rms="2.8004115819931030e-01" purity="1.1507023870944977e-01" nType="-99"/>
            <Node pos="r" depth="3" NCoef="0" IVar="-1" Cut="0.0000000000000000e+00" cType="1" res="1.8388583557680249e-03" rms="4.2154231667518616e-01" purity="6.8354326486587524e-01" nType="-99"/>
          </Node>
          <Node pos="r" depth="2" NCoef="0" IVar="-1" Cut="0.0000000000000000e+00" cType="1" res="1.8358357483521104e-03" rms="3.5540342330932617e-01" purity="8.3301109075546265e-01" nType="-99"/>
        </Node>
        <Node pos="r" depth="1" NCoef="0" IVar="1" Cut="1.1128134375000000e+05" cType="1" res="2.7143540978431702e-01" rms="2.6278066635131836e-01" purity="9.1652530431747437e-01" nType="0">
          <Node pos="l" depth="2" NCoef="0" IVar="3" Cut="8.1332734375000000e+04" cType="1" res="2.1445520222187042e-01" rms="3.3672675490379333e-01" purity="8.5226786136627197e-01" nType="0">
            <Node pos="l" depth="3" NCoef="0" IVar="-1" Cut="0.0000000000000000e+00" cType="1" res="1.1690309038385749e-03" rms="4.4535809755325317e-01" purity="6.9162726402282715e-01" nType="-99"/>
            <Node pos="r" depth="3" NCoef="0" IVar="-1" Cut="0.0000000000000000e+00" cType="1" res="2.2943862713873386e-03" rms="2.4797002971172333e-01" purity="9.3256092071533203e-01" nType="-99"/>
          </Node>
          <Node pos="r" depth="2" NCoef="0" IVar="-1" Cut="0.0000000000000000e+00" cType="1" res="2.8681566473096609e-03" rms="1.2163849920034409e-01" purity="9.8484718799591064e-01" nType="-99"/>
        </Node>
      </Node>
    </BinaryTree>
    <BinaryTree type="DecisionTree" boostWeight="1.0000000000000000e+00" itree="123">
      <Node pos="s" depth="0" NCoef="0" IVar="1" Cut="1.0035560937500000e+05" cType="1" res="1.3067825138568878e-01" rms="3.2873302698135376e-01" purity="4.9319913983345032e-01" nType="0">
        <Node pos="l" depth="1" NCoef="0" IVar="3" Cut="7.5557476562500000e+04" cType="1" res="5.2246771752834320e-02" rms="3.1490874290466309e-01" purity="3.1891974806785583e-01" nType="0">
          <Node pos="l" depth="2" NCoef="0" IVar="1" Cut="8.3522718750000000e+04" cType="1" res="1.5920209698379040e-03" rms="3.0849575996398926e-01" purity="1.7985492944717407e-01" nType="0">
            <Node pos="l" depth="3" NCoef="0" IVar="-1" Cut="0.0000000000000000e+00" cType="1" res="1.9894412253051996e-03" rms="3.8122797012329102e-01" purity="3.9177516102790833e-01" nType="-99"/>
            <Node pos="r" depth="3" NCoef="0" IVar="-1" Cut="0.0000000000000000e+00" cType="1" res="-8.3137638866901398e-03" rms="2.4546830356121063e-01" purity="7.0568092167377472e-02" nType="-99"/>
          </Node>
          <Node pos="r" depth="2" NCoef="0" IVar="1" Cut="8.7756046875000000e+04" cType="1" res="2.7853703498840332e-01" rms="2.3314645886421204e-01" purity="9.4016462564468384e-01" nType="0">
            <Node pos="l" depth="3" NCoef="0" IVar="-1" Cut="0.0000000000000000e+00" cType="1" res="2.2276754025369883e-03" rms="1.9900901615619659e-01" purity="9.5769512653350830e-01" nType="-99"/>
            <Node pos="r" depth="3" NCoef="0" IVar="-1" Cut="0.0000000000000000e+00" cType="1" res="1.4340584166347980e-03" rms="3.8997903466224670e-01" purity="8.0559283494949341e-01" nType="-99"/>
          </Node>
        </Node>
        <Node pos="r" depth="1" NCoef="0" IVar="3" Cut="6.8843453125000000e+04" cType="1" res="2.8898534178733826e-01" rms="2.9756957292556763e-01" purity="8.4496700763702393e-01" nType="0">
          <Node pos="l" depth="2" NCoef="0" IVar="3" Cut="2.6304660156250000e+04" cType="1" res="2.6499783992767334e-01" rms="3.7409117817878723e-01" purity="7.4102121591567993e-01" nType="0">
            <Node pos="l" depth="3" NCoef="0" IVar="-1" Cut="0.0000000000000000e+00" cType="1" res="2.4695945903658867e-03" rms="4.4517907500267029e-01" purity="4.7036680579185486e-01" nType="-99"/>
            <Node pos="r" depth="3" NCoef="0" IVar="-1" Cut="0.0000000000000000e+00" cType="1" res="1.5787103911861777e-03" rms="3.1538942456245422e-01" purity="8.7251669168472290e-01" nType="-99"/>
          </Node>
          <Node pos="r" depth="2" NCoef="0" IVar="-1" Cut="0.0000000000000000e+00" cType="1" res="3.0084094032645226e-03" rms="1.4478649199008942e-01" purity="9.7824633121490479e-01" nType="-99"/>
        </Node>
      </Node>
    </BinaryTree>
    <BinaryTree type="DecisionTree" boostWeight="1.0000000000000000e+00" itree="124">
      <Node pos="s" depth="0" NCoef="0" IVar="3" Cut="6.8798242187500000e+04" cType="1" res="1.3245834410190582e-01" rms="3.2175779342651367e-01" purity="5.0306999683380127e-01" nType="0">
        <Node pos="l" depth="1" NCoef="0" IVar="3" Cut="2.6275273437500000e+04" cType="1" res="5.5988363921642303e-02" rms="3.3955585956573486e-01" purity="2.9862692952156067e-01" nType="0">
          <Node pos="l" depth="2" NCoef="0" IVar="3" Cut="1.2573818359375000e+04" cType="1" res="-2.0951174199581146e-02" rms="2.5178298354148865e-01" purity="8.6824521422386169e-02" nType="0">
            <Node pos="l" depth="3" NCoef="0" IVar="-1" Cut="0.0000000000000000e+00" cType="1" res="-7.4395313858985901e-03" rms="1.5552376210689545e-01" purity="3.4567315131425858e-02" nType="-99"/>
            <Node pos="r" depth="3" NCoef="0" IVar="-1" Cut="0.0000000000000000e+00" cType="1" res="4.3471434037201107e-04" rms="3.0083808302879333e-01" purity="1.2522701919078827e-01" nType="-99"/>
          </Node>
          <Node pos="r" depth="2" NCoef="0" IVar="1" Cut="1.3174604687500000e+05" cType="1" res="1.4160367846488953e-01" rms="3.9892005920410156e-01" purity="5.3431230783462524e-01" nType="0">
            <Node pos="l" depth="3" NCoef="0" IVar="-1" Cut="0.0000000000000000e+00" cType="1" res="1.4296912122517824e-03" rms="4.2201581597328186e-01" purity="4.0052211284637451e-01" nType="-99"/>
            <Node pos="r" depth="3" NCoef="0" IVar="-1" Cut="0.0000000000000000e+00" cType="1" res="2.8781238943338394e-03" rms="2.5337782502174377e-01" purity="9.2985403537750244e-01" nType="-99"/>
          </Node>
        </Node>
        <Node pos="r" depth="1" NCoef="0" IVar="1" Cut="1.0073193750000000e+05" cType="1" res="3.0447626113891602e-01" rms="1.8522156774997711e-01" purity="9.6296131610870361e-01" nType="0">
          <Node pos="l" depth="2" NCoef="0" IVar="1" Cut="8.3868109375000000e+04" cType="1" res="2.8546762466430664e-01" rms="2.2443060576915741e-01" purity="9.4396829605102539e-01" nType="0">
            <Node pos="l" depth="3" NCoef="0" IVar="-1" Cut="0.0000000000000000e+00" cType="1" res="2.4158584419637918e-03" rms="1.5811602771282196e-01" purity="9.7372591495513916e-01" nType="-99"/>
            <Node pos="r" depth="3" NCoef="0" IVar="-1" Cut="0.0000000000000000e+00" cType="1" res="1.7716041766107082e-03" rms="3.5158288478851318e-01" purity="8.4924685955047607e-01" nType="-99"/>
          </Node>
          <Node pos="r" depth="2" NCoef="0" IVar="-1" Cut="0.0000000000000000e+00" cType="1" res="2.1717282943427563e-03" rms="1.3209603726863861e-01" purity="9.8203516006469727e-01" nType="-99"/>
        </Node>
      </Node>
    </BinaryTree>
    <BinaryTree type="DecisionTree" boostWeight="1.0000000000000000e+00" itree="125">
      <Node pos="s" depth="0" NCoef="0" IVar="3" Cut="6.8798242187500000e+04" cType="1" res="1.3493928313255310e-01" rms="3.1768447160720825e-01" purity="5.1492440700531006e-01" nType="0">
        <Node pos="l" depth="1" NCoef="0" IVar="3" Cut="2.9553697265625000e+04" cType="1" res="5.4422285407781601e-02" rms="3.3545574545860291e-01" purity="2.9997715353965759e-01" nType="0">
          <Node pos="l" depth="2" NCoef="0" IVar="2" Cut="4.4859581250000000e+05" cType="1" res="-8.7373591959476471e-03" rms="2.5473877787590027e-01" purity="1.2145825475454330e-01" nType="0">
            <Node pos="l" depth="3" NCoef="0" IVar="-1" Cut="0.0000000000000000e+00" cType="1" res="-2.3570645134896040e-03" rms="2.3476740717887878e-01" purity="8.7877251207828522e-02" nType="-99"/>
            <Node pos="r" depth="3" NCoef="0" IVar="-1" Cut="0.0000000000000000e+00" cType="1" res="1.6518400516360998e-03" rms="3.6731031537055969e-01" purity="4.3710413575172424e-01" nType="-99"/>
          </Node>
          <Node pos="r" depth="2" NCoef="0" IVar="1" Cut="1.4545448437500000e+05" cType="1" res="1.4788189530372620e-01" rms="4.1034826636314392e-01" purity="5.6413799524307251e-01" nType="0">
            <Node pos="l" depth="3" NCoef="0" IVar="-1" Cut="0.0000000000000000e+00" cType="1" res="1.6913448926061392e-03" rms="4.3530067801475525e-01" purity="4.6200564503669739e-01" nType="-99"/>
            <Node pos="r" depth="3" NCoef="0" IVar="-1" Cut="0.0000000000000000e+00" cType="1" res="2.7930666692554951e-03" rms="2.3059074580669403e-01" purity="9.4377720355987549e-01" nType="-99"/>
          </Node>
        </Node>
        <Node pos="r" depth="1" NCoef="0" IVar="1" Cut="1.0059082812500000e+05" cType="1" res="3.0243015289306641e-01" rms="1.8772132694721222e-01" purity="9.6205610036849976e-01" nType="0">
          <Node pos="l" depth="2" NCoef="0" IVar="3" Cut="1.0329364062500000e+05" cType="1" res="2.7668723464012146e-01" rms="2.4070784449577332e-01" purity="9.3546181917190552e-01" nType="0">
            <Node pos="l" depth="3" NCoef="0" IVar="-1" Cut="0.0000000000000000e+00" cType="1" res="1.7619373975321651e-03" rms="3.2912558317184448e-01" purity="8.7289941310882568e-01" nType="-99"/>
            <Node pos="r" depth="3" NCoef="0" IVar="-1" Cut="0.0000000000000000e+00" cType="1" res="2.6016088668256998e-03" rms="1.4198876917362213e-01" purity="9.7933018207550049e-01" nType="-99"/>
          </Node>
          <Node pos="r" depth="2" NCoef="0" IVar="-1" Cut="0.0000000000000000e+00" cType="1" res="2.4560333695262671e-03" rms="1.2270666658878326e-01" purity="9.8449248075485229e-01" nType="-99"/>
        </Node>
      </Node>
    </BinaryTree>
    <BinaryTree type="DecisionTree" boostWeight="1.0000000000000000e+00" itree="126">
      <Node pos="s" depth="0" NCoef="0" IVar="1" Cut="1.0034835937500000e+05" cType="1" res="1.2715262174606323e-01" rms="3.2308655977249146e-01" purity="4.9088883399963379e-01" nType="0">
        <Node pos="l" depth="1" NCoef="0" IVar="3" Cut="7.5557476562500000e+04" cType="1" res="3.8183953613042831e-02" rms="3.0704578757286072e-01" purity="2.9275512695312500e-01" nType="0">
          <Node pos="l" depth="2" NCoef="0" IVar="1" Cut="8.3521265625000000e+04" cType="1" res="-1.8657265231013298e-02" rms="2.9829135537147522e-01" purity="1.4206355810165405e-01" nType="0">
            <Node pos="l" depth="3" NCoef="0" IVar="-1" Cut="0.0000000000000000e+00" cType="1" res="2.1229975391179323e-03" rms="4.1966044902801514e-01" purity="3.3547306060791016e-01" nType="-99"/>
            <Node pos="r" depth="3" NCoef="0" IVar="-1" Cut="0.0000000000000000e+00" cType="1" res="-1.2051599100232124e-02" rms="2.0065315067768097e-01" purity="5.3153231739997864e-02" nType="-99"/>
          </Node>
          <Node pos="r" depth="2" NCoef="0" IVar="1" Cut="8.3469304687500000e+04" cType="1" res="2.8832590579986572e-01" rms="2.0201186835765839e-01" purity="9.5590573549270630e-01" nType="0">
            <Node pos="l" depth="3" NCoef="0" IVar="-1" Cut="0.0000000000000000e+00" cType="1" res="2.6944023557007313e-03" rms="1.5760590136051178e-01" purity="9.7407227754592896e-01" nType="-99"/>
            <Node pos="r" depth="3" NCoef="0" IVar="-1" Cut="0.0000000000000000e+00" cType="1" res="1.7551535274833441e-03" rms="3.2754409313201904e-01" purity="8.7365353107452393e-01" nType="-99"/>
          </Node>
        </Node>
        <Node pos="r" depth="1" NCoef="0" IVar="4" Cut="2.3458026562500000e+05" cType="1" res="2.8931927680969238e-01" rms="2.8650137782096863e-01" purity="8.5203486680984497e-01" nType="0">
          <Node pos="l" depth="2" NCoef="0" IVar="3" Cut="2.1318609375000000e+04" cType="1" res="1.6292135417461395e-01" rms="3.9725783467292786e-01" purity="5.5783563852310181e-01" nType="0">
            <Node pos="l" depth="3" NCoef="0" IVar="-1" Cut="0.0000000000000000e+00" cType="1" res="-9.4891985645517707e-04" rms="2.9763266444206238e-01" purity="2.1777172386646271e-01" nType="-99"/>
            <Node pos="r" depth="3" NCoef="0" IVar="-1" Cut="0.0000000000000000e+00" cType="1" res="3.6215300206094980e-03" rms="4.0565654635429382e-01" purity="7.3475587368011475e-01" nType="-99"/>
          </Node>
          <Node pos="r" depth="2" NCoef="0" IVar="4" Cut="4.8138318750000000e+05" cType="1" res="3.0898022651672363e-01" rms="2.5967597961425781e-01" purity="8.9779704809188843e-01" nType="0">
            <Node pos="l" depth="3" NCoef="0" IVar="-1" Cut="0.0000000000000000e+00" cType="1" res="1.9808211363852024e-03" rms="3.0054464936256409e-01" purity="8.4708410501480103e-01" nType="-99"/>
            <Node pos="r" depth="3" NCoef="0" IVar="-1" Cut="0.0000000000000000e+00" cType="1" res="2.4675247259438038e-03" rms="2.0733359456062317e-01" purity="9.5071291923522949e-01" nType="-99"/>
          </Node>
        </Node>
      </Node>
    </BinaryTree>
    <BinaryTree type="DecisionTree" boostWeight="1.0000000000000000e+00" itree="127">
      <Node pos="s" depth="0" NCoef="0" IVar="3" Cut="5.4198226562500000e+04" cType="1" res="1.2358615547418594e-01" rms="3.1677654385566711e-01" purity="4.9821275472640991e-01" nType="0">
        <Node pos="l" depth="1" NCoef="0" IVar="3" Cut="4.1304699218750000e+04" cType="1" res="3.4598078578710556e-02" rms="3.1628721952438354e-01" purity="2.4411037564277649e-01" nType="0">
          <Node pos="l" depth="2" NCoef="0" IVar="1" Cut="1.7498323437500000e+05" cType="1" res="3.7380186840891838e-03" rms="2.8603154420852661e-01" purity="1.5733413398265839e-01" nType="0">
            <Node pos="l" depth="3" NCoef="0" IVar="-1" Cut="0.0000000000000000e+00" cType="1" res="-7.4882409535348415e-04" rms="2.7128809690475464e-01" purity="1.1311363428831100e-01" nType="-99"/>
            <Node pos="r" depth="3" NCoef="0" IVar="-1" Cut="0.0000000000000000e+00" cType="1" res="2.1128274966031313e-03" rms="3.9889436960220337e-01" purity="7.8812170028686523e-01" nType="-99"/>
          </Node>
          <Node pos="r" depth="2" NCoef="0" IVar="2" Cut="2.3696600000000000e+05" cType="1" res="1.8790026009082794e-01" rms="4.0290641784667969e-01" purity="6.7518496513366699e-01" nType="0">
            <Node pos="l" depth="3" NCoef="0" IVar="-1" Cut="0.0000000000000000e+00" cType="1" res="5.0368375377729535e-04" rms="4.6273940801620483e-01" purity="4.2989709973335266e-01" nType="-99"/>
            <Node pos="r" depth="3" NCoef="0" IVar="-1" Cut="0.0000000000000000e+00" cType="1" res="1.5984068159013987e-03" rms="3.6354687809944153e-01" purity="7.5877457857131958e-01" nType="-99"/>
          </Node>
        </Node>
        <Node pos="r" depth="1" NCoef="0" IVar="1" Cut="1.2534551562500000e+05" cType="1" res="2.7140483260154724e-01" rms="2.5662717223167419e-01" purity="9.2030400037765503e-01" nType="0">
          <Node pos="l" depth="2" NCoef="0" IVar="3" Cut="7.9923085937500000e+04" cType="1" res="2.3167055845260620e-01" rms="3.1352928280830383e-01" purity="8.7473374605178833e-01" nType="0">
            <Node pos="l" depth="3" NCoef="0" IVar="-1" Cut="0.0000000000000000e+00" cType="1" res="9.1929931659251451e-04" rms="4.5699355006217957e-01" purity="6.7888921499252319e-01" nType="-99"/>
            <Node pos="r" depth="3" NCoef="0" IVar="-1" Cut="0.0000000000000000e+00" cType="1" res="2.1321615204215050e-03" rms="2.0349064469337463e-01" purity="9.5576453208923340e-01" nType="-99"/>
          </Node>
          <Node pos="r" depth="2" NCoef="0" IVar="-1" Cut="0.0000000000000000e+00" cType="1" res="2.7809806633740664e-03" rms="1.0723519325256348e-01" purity="9.8839217424392700e-01" nType="-99"/>
        </Node>
      </Node>
    </BinaryTree>
    <BinaryTree type="DecisionTree" boostWeight="1.0000000000000000e+00" itree="128">
      <Node pos="s" depth="0" NCoef="0" IVar="3" Cut="4.8659894531250000e+04" cType="1" res="1.2852039933204651e-01" rms="3.1935307383537292e-01" purity="4.9811708927154541e-01" nType="0">
        <Node pos="l" depth="1" NCoef="0" IVar="3" Cut="2.5507568359375000e+04" cType="1" res="2.8226662427186966e-02" rms="3.1854760646820068e-01" purity="2.1120700240135193e-01" nType="0">
          <Node pos="l" depth="2" NCoef="0" IVar="3" Cut="1.2177251953125000e+04" cType="1" res="-2.5166252627968788e-02" rms="2.4731072783470154e-01" purity="8.7588667869567871e-02" nType="0">
            <Node pos="l" depth="3" NCoef="0" IVar="-1" Cut="0.0000000000000000e+00" cType="1" res="-2.3714402690529823e-02" rms="1.3121633231639862e-01" purity="1.9721381366252899e-02" nType="-99"/>
            <Node pos="r" depth="3" NCoef="0" IVar="-1" Cut="0.0000000000000000e+00" cType="1" res="3.3224988146685064e-04" rms="2.9916524887084961e-01" purity="1.3476529717445374e-01" nType="-99"/>
          </Node>
          <Node pos="r" depth="2" NCoef="0" IVar="1" Cut="9.6623835937500000e+04" cType="1" res="1.1331760883331299e-01" rms="3.9233896136283875e-01" purity="4.0821444988250732e-01" nType="0">
            <Node pos="l" depth="3" NCoef="0" IVar="-1" Cut="0.0000000000000000e+00" cType="1" res="1.7267754301428795e-03" rms="3.8407254219055176e-01" purity="2.7223896980285645e-01" nType="-99"/>
            <Node pos="r" depth="3" NCoef="0" IVar="-1" Cut="0.0000000000000000e+00" cType="1" res="3.1128625851124525e-03" rms="3.8371983170509338e-01" purity="6.9883924722671509e-01" nType="-99"/>
          </Node>
        </Node>
        <Node pos="r" depth="1" NCoef="0" IVar="3" Cut="9.4948742187500000e+04" cType="1" res="2.7269935607910156e-01" rms="2.5976377725601196e-01" purity="9.1056948900222778e-01" nType="0">
          <Node pos="l" depth="2" NCoef="0" IVar="3" Cut="7.2899726562500000e+04" cType="1" res="2.2987256944179535e-01" rms="3.4186121821403503e-01" purity="8.3566766977310181e-01" nType="0">
            <Node pos="l" depth="3" NCoef="0" IVar="-1" Cut="0.0000000000000000e+00" cType="1" res="1.4120331034064293e-03" rms="4.0226575732231140e-01" purity="7.5165373086929321e-01" nType="-99"/>
            <Node pos="r" depth="3" NCoef="0" IVar="-1" Cut="0.0000000000000000e+00" cType="1" res="1.5924767358228564e-03" rms="2.2331029176712036e-01" purity="9.4612097740173340e-01" nType="-99"/>
          </Node>
          <Node pos="r" depth="2" NCoef="0" IVar="1" Cut="1.1128134375000000e+05" cType="1" res="3.1507888436317444e-01" rms="1.2243435531854630e-01" purity="9.8468905687332153e-01" nType="0">
            <Node pos="l" depth="3" NCoef="0" IVar="-1" Cut="0.0000000000000000e+00" cType="1" res="2.8867388609796762e-03" rms="1.4185500144958496e-01" purity="9.7916418313980103e-01" nType="-99"/>
            <Node pos="r" depth="3" NCoef="0" IVar="-1" Cut="0.0000000000000000e+00" cType="1" res="2.1975040435791016e-03" rms="1.0028959065675735e-01" purity="9.8984050750732422e-01" nType="-99"/>
          </Node>
        </Node>
      </Node>
    </BinaryTree>
    <BinaryTree type="DecisionTree" boostWeight="1.0000000000000000e+00" itree="129">
      <Node pos="s" depth="0" NCoef="0" IVar="3" Cut="4.4463175781250000e+04" cType="1" res="1.3478775322437286e-01" rms="3.2165884971618652e-01" purity="5.0880908966064453e-01" nType="0">
        <Node pos="l" depth="1" NCoef="0" IVar="4" Cut="2.3779151562500000e+05" cType="1" res="2.8229238465428352e-02" rms="3.1194731593132019e-01" purity="1.9253921508789062e-01" nType="0">
          <Node pos="l" depth="2" NCoef="0" IVar="5" Cut="8.6903625000000000e+04" cType="1" res="-2.2746421396732330e-02" rms="2.5966593623161316e-01" purity="8.4558516740798950e-02" nType="0">
            <Node pos="l" depth="3" NCoef="0" IVar="-1" Cut="0.0000000000000000e+00" cType="1" res="7.1016023866832256e-03" rms="4.2643240094184875e-01" purity="2.8903642296791077e-01" nType="-99"/>
            <Node pos="r" depth="3" NCoef="0" IVar="-1" Cut="0.0000000000000000e+00" cType="1" res="-5.7742288336157799e-03" rms="2.3838548362255096e-01" purity="6.8944804370403290e-02" nType="-99"/>
          </Node>
          <Node pos="r" depth="2" NCoef="0" IVar="3" Cut="2.7612455078125000e+04" cType="1" res="8.9902751147747040e-02" rms="3.5569658875465393e-01" purity="3.2318094372749329e-01" nType="0">
            <Node pos="l" depth="3" NCoef="0" IVar="-1" Cut="0.0000000000000000e+00" cType="1" res="1.4579886337742209e-03" rms="3.1860566139221191e-01" purity="2.0623198151588440e-01" nType="-99"/>
            <Node pos="r" depth="3" NCoef="0" IVar="-1" Cut="0.0000000000000000e+00" cType="1" res="2.0910105668008327e-03" rms="3.9254203438758850e-01" purity="5.1394826173782349e-01" nType="-99"/>
          </Node>
        </Node>
        <Node pos="r" depth="1" NCoef="0" IVar="1" Cut="1.0059082812500000e+05" cType="1" res="2.6193839311599731e-01" rms="2.8476399183273315e-01" purity="8.8619714975357056e-01" nType="0">
          <Node pos="l" depth="2" NCoef="0" IVar="3" Cut="8.0102335937500000e+04" cType="1" res="1.8988414108753204e-01" rms="3.4835171699523926e-01" purity="8.0185574293136597e-01" nType="0">
            <Node pos="l" depth="3" NCoef="0" IVar="-1" Cut="0.0000000000000000e+00" cType="1" res="5.3866318194195628e-04" rms="4.4773241877555847e-01" purity="5.9398233890533447e-01" nType="-99"/>
            <Node pos="r" depth="3" NCoef="0" IVar="-1" Cut="0.0000000000000000e+00" cType="1" res="2.4984232150018215e-03" rms="2.0117533206939697e-01" purity="9.5689541101455688e-01" nType="-99"/>
          </Node>
          <Node pos="r" depth="2" NCoef="0" IVar="4" Cut="3.5554487500000000e+05" cType="1" res="3.3107656240463257e-01" rms="1.8083041906356812e-01" purity="9.6712523698806763e-01" nType="0">
            <Node pos="l" depth="3" NCoef="0" IVar="-1" Cut="0.0000000000000000e+00" cType="1" res="1.4163157902657986e-03" rms="2.0538322627544403e-01" purity="9.6065491437911987e-01" nType="-99"/>
            <Node pos="r" depth="3" NCoef="0" IVar="-1" Cut="0.0000000000000000e+00" cType="1" res="2.0724516361951828e-03" rms="1.6167104244232178e-01" purity="9.7109651565551758e-01" nType="-99"/>
          </Node>
        </Node>
      </Node>
    </BinaryTree>
    <BinaryTree type="DecisionTree" boostWeight="1.0000000000000000e+00" itree="130">
      <Node pos="s" depth="0" NCoef="0" IVar="3" Cut="6.8736484375000000e+04" cType="1" res="1.2155914306640625e-01" rms="3.1374222040176392e-01" purity="4.9086558818817139e-01" nType="0">
        <Node pos="l" depth="1" NCoef="0" IVar="1" Cut="1.5586417187500000e+05" cType="1" res="4.8198979347944260e-02" rms="3.2671746611595154e-01" purity="2.9350587725639343e-01" nType="0">
          <Node pos="l" depth="2" NCoef="0" IVar="1" Cut="1.0095441406250000e+05" cType="1" res="2.0250860601663589e-02" rms="3.1805506348609924e-01" purity="2.1687373518943787e-01" nType="0">
            <Node pos="l" depth="3" NCoef="0" IVar="-1" Cut="0.0000000000000000e+00" cType="1" res="-6.4881675643846393e-04" rms="2.9445263743400574e-01" purity="1.4046868681907654e-01" nType="-99"/>
            <Node pos="r" depth="3" NCoef="0" IVar="-1" Cut="0.0000000000000000e+00" cType="1" res="1.5862934524193406e-03" rms="3.7542384862899780e-01" purity="6.2669330835342407e-01" nType="-99"/>
          </Node>
          <Node pos="r" depth="2" NCoef="0" IVar="3" Cut="2.3788810546875000e+04" cType="1" res="2.5927570462226868e-01" rms="3.1380608677864075e-01" purity="8.7226623296737671e-01" nType="0">
            <Node pos="l" depth="3" NCoef="0" IVar="-1" Cut="0.0000000000000000e+00" cType="1" res="7.5402937363833189e-04" rms="4.8176160454750061e-01" purity="5.7936733961105347e-01" nType="-99"/>
            <Node pos="r" depth="3" NCoef="0" IVar="-1" Cut="0.0000000000000000e+00" cType="1" res="3.0517983250319958e-03" rms="2.2575347125530243e-01" purity="9.4521123170852661e-01" nType="-99"/>
          </Node>
        </Node>
        <Node pos="r" depth="1" NCoef="0" IVar="1" Cut="1.0059082812500000e+05" cType="1" res="2.9672917723655701e-01" rms="1.8723288178443909e-01" purity="9.6212279796600342e-01" nType="0">
          <Node pos="l" depth="2" NCoef="0" IVar="1" Cut="8.3730000000000000e+04" cType="1" res="2.6054742932319641e-01" rms="2.5361239910125732e-01" purity="9.2691463232040405e-01" nType="0">
            <Node pos="l" depth="3" NCoef="0" IVar="-1" Cut="0.0000000000000000e+00" cType="1" res="2.3129265755414963e-03" rms="1.9091711938381195e-01" purity="9.6105539798736572e-01" nType="-99"/>
            <Node pos="r" depth="3" NCoef="0" IVar="-1" Cut="0.0000000000000000e+00" cType="1" res="1.8635973101481795e-03" rms="3.9912050962448120e-01" purity="7.9107886552810669e-01" nType="-99"/>
          </Node>
          <Node pos="r" depth="2" NCoef="0" IVar="5" Cut="9.0679765625000000e+04" cType="1" res="3.2203483581542969e-01" rms="1.1416416615247726e-01" purity="9.8674750328063965e-01" nType="0">
            <Node pos="l" depth="3" NCoef="0" IVar="-1" Cut="0.0000000000000000e+00" cType="1" res="2.4585318751633167e-03" rms="1.2638662755489349e-01" purity="9.8371171951293945e-01" nType="-99"/>
            <Node pos="r" depth="3" NCoef="0" IVar="-1" Cut="0.0000000000000000e+00" cType="1" res="1.7977079842239618e-03" rms="1.0217456519603729e-01" purity="9.8940575122833252e-01" nType="-99"/>
          </Node>
        </Node>
      </Node>
    </BinaryTree>
    <BinaryTree type="DecisionTree" boostWeight="1.0000000000000000e+00" itree="131">
      <Node pos="s" depth="0" NCoef="0" IVar="3" Cut="6.8843453125000000e+04" cType="1" res="1.3273471593856812e-01" rms="3.1043335795402527e-01" purity="5.1099199056625366e-01" nType="0">
        <Node pos="l" depth="1" NCoef="0" IVar="3" Cut="4.5948378906250000e+04" cType="1" res="5.8947283774614334e-02" rms="3.2650905847549438e-01" purity="3.1083881855010986e-01" nType="0">
          <Node pos="l" depth="2" NCoef="0" IVar="5" Cut="9.3546078125000000e+04" cType="1" res="6.2267328612506390e-03" rms="2.9200124740600586e-01" purity="1.6844710707664490e-01" nType="0">
            <Node pos="l" depth="3" NCoef="0" IVar="-1" Cut="0.0000000000000000e+00" cType="1" res="-5.8798998361453414e-04" rms="2.6612287759780884e-01" purity="1.4893858134746552e-01" nType="-99"/>
            <Node pos="r" depth="3" NCoef="0" IVar="-1" Cut="0.0000000000000000e+00" cType="1" res="3.7917480804026127e-03" rms="4.2033138871192932e-01" purity="3.1783631443977356e-01" nType="-99"/>
          </Node>
          <Node pos="r" depth="2" NCoef="0" IVar="1" Cut="1.0421092968750000e+05" cType="1" res="2.3786091804504395e-01" rms="3.7094101309776306e-01" purity="7.9406249523162842e-01" nType="0">
            <Node pos="l" depth="3" NCoef="0" IVar="-1" Cut="0.0000000000000000e+00" cType="1" res="1.2160717742517591e-03" rms="4.5566904544830322e-01" purity="6.1110484600067139e-01" nType="-99"/>
            <Node pos="r" depth="3" NCoef="0" IVar="-1" Cut="0.0000000000000000e+00" cType="1" res="1.3401921605691314e-03" rms="2.0078234374523163e-01" purity="9.6189534664154053e-01" nType="-99"/>
          </Node>
        </Node>
        <Node pos="r" depth="1" NCoef="0" IVar="1" Cut="1.1128134375000000e+05" cType="1" res="2.9996621608734131e-01" rms="1.8126396834850311e-01" purity="9.6461832523345947e-01" nType="0">
          <Node pos="l" depth="2" NCoef="0" IVar="1" Cut="8.2822398437500000e+04" cType="1" res="2.8396710753440857e-01" rms="2.1873946487903595e-01" purity="9.4732141494750977e-01" nType="0">
            <Node pos="l" depth="3" NCoef="0" IVar="-1" Cut="0.0000000000000000e+00" cType="1" res="2.6664030738174915e-03" rms="1.7162606120109558e-01" purity="9.6928215026855469e-01" nType="-99"/>
            <Node pos="r" depth="3" NCoef="0" IVar="-1" Cut="0.0000000000000000e+00" cType="1" res="1.6702017746865749e-03" rms="2.7295005321502686e-01" purity="9.1455769538879395e-01" nType="-99"/>
          </Node>
          <Node pos="r" depth="2" NCoef="0" IVar="-1" Cut="0.0000000000000000e+00" cType="1" res="2.2206327412277460e-03" rms="1.0240781307220459e-01" purity="9.8940008878707886e-01" nType="-99"/>
        </Node>
      </Node>
    </BinaryTree>
    <BinaryTree type="DecisionTree" boostWeight="1.0000000000000000e+00" itree="132">
      <Node pos="s" depth="0" NCoef="0" IVar="3" Cut="4.4577453125000000e+04" cType="1" res="1.1769828200340271e-01" rms="3.1033572554588318e-01" purity="4.9459293484687805e-01" nType="0">
        <Node pos="l" depth="1" NCoef="0" IVar="1" Cut="1.3873543750000000e+05" cType="1" res="5.6499182246625423e-03" rms="2.8258943557739258e-01" purity="1.7313979566097260e-01" nType="0">
          <Node pos="l" depth="2" NCoef="0" IVar="1" Cut="6.6295375000000000e+04" cType="1" res="-1.6101989895105362e-02" rms="2.5482001900672913e-01" purity="1.0606615990400314e-01" nType="0">
            <Node pos="l" depth="3" NCoef="0" IVar="-1" Cut="0.0000000000000000e+00" cType="1" res="2.9204972088336945e-03" rms="4.2584002017974854e-01" purity="3.8139942288398743e-01" nType="-99"/>
            <Node pos="r" depth="3" NCoef="0" IVar="-1" Cut="0.0000000000000000e+00" cType="1" res="-6.6200457513332367e-03" rms="1.8846602737903595e-01" purity="5.3029026836156845e-02" nType="-99"/>
          </Node>
          <Node pos="r" depth="2" NCoef="0" IVar="3" Cut="2.1485853515625000e+04" cType="1" res="1.9632758200168610e-01" rms="4.1251823306083679e-01" purity="7.6110881567001343e-01" nType="0">
            <Node pos="l" depth="3" NCoef="0" IVar="-1" Cut="0.0000000000000000e+00" cType="1" res="1.2942303437739611e-03" rms="4.9447500705718994e-01" purity="5.8293390274047852e-01" nType="-99"/>
            <Node pos="r" depth="3" NCoef="0" IVar="-1" Cut="0.0000000000000000e+00" cType="1" res="2.7620496693998575e-03" rms="3.5044324398040771e-01" purity="8.5504686832427979e-01" nType="-99"/>
          </Node>
        </Node>
        <Node pos="r" depth="1" NCoef="0" IVar="3" Cut="8.6861695312500000e+04" cType="1" res="2.5135105848312378e-01" rms="2.8825882077217102e-01" purity="8.7802648544311523e-01" nType="0">
          <Node pos="l" depth="2" NCoef="0" IVar="3" Cut="6.0660710937500000e+04" cType="1" res="1.9751344621181488e-01" rms="3.7193247675895691e-01" purity="7.7797514200210571e-01" nType="0">
            <Node pos="l" depth="3" NCoef="0" IVar="-1" Cut="0.0000000000000000e+00" cType="1" res="1.1002934770658612e-03" rms="4.2979079484939575e-01" purity="6.4697992801666260e-01" nType="-99"/>
            <Node pos="r" depth="3" NCoef="0" IVar="-1" Cut="0.0000000000000000e+00" cType="1" res="1.9742520526051521e-03" rms="2.9284027218818665e-01" purity="8.9756995439529419e-01" nType="-99"/>
          </Node>
          <Node pos="r" depth="2" NCoef="0" IVar="1" Cut="9.5065289062500000e+04" cType="1" res="3.0396443605422974e-01" rms="1.5332286059856415e-01" purity="9.7580277919769287e-01" nType="0">
            <Node pos="l" depth="3" NCoef="0" IVar="-1" Cut="0.0000000000000000e+00" cType="1" res="2.4213923607021570e-03" rms="2.0779499411582947e-01" purity="9.5419335365295410e-01" nType="-99"/>
            <Node pos="r" depth="3" NCoef="0" IVar="-1" Cut="0.0000000000000000e+00" cType="1" res="2.7977959252893925e-03" rms="9.7618810832500458e-02" purity="9.9034208059310913e-01" nType="-99"/>
          </Node>
        </Node>
      </Node>
    </BinaryTree>
    <BinaryTree type="DecisionTree" boostWeight="1.0000000000000000e+00" itree="133">
      <Node pos="s" depth="0" NCoef="0" IVar="3" Cut="3.7123617187500000e+04" cType="1" res="1.2161698937416077e-01" rms="3.1132677197456360e-01" purity="4.9567970633506775e-01" nType="0">
        <Node pos="l" depth="1" NCoef="0" IVar="3" Cut="3.5348988281250000e+04" cType="1" res="-5.4427766008302569e-04" rms="2.7264520525932312e-01" purity="1.3536728918552399e-01" nType="0">
          <Node pos="l" depth="2" NCoef="0" IVar="1" Cut="1.7492929687500000e+05" cType="1" res="-1.1275064200162888e-02" rms="2.5851342082023621e-01" purity="1.1962091177701950e-01" nType="0">
            <Node pos="l" depth="3" NCoef="0" IVar="-1" Cut="0.0000000000000000e+00" cType="1" res="-3.0637148302048445e-03" rms="2.4019786715507507e-01" purity="8.0332271754741669e-02" nType="-99"/>
            <Node pos="r" depth="3" NCoef="0" IVar="-1" Cut="0.0000000000000000e+00" cType="1" res="1.7048007575795054e-03" rms="4.2282244563102722e-01" purity="7.5321853160858154e-01" nType="-99"/>
          </Node>
          <Node pos="r" depth="2" NCoef="0" IVar="-1" Cut="0.0000000000000000e+00" cType="1" res="5.0111268647015095e-03" rms="4.3212246894836426e-01" purity="5.2510905265808105e-01" nType="-99"/>
        </Node>
        <Node pos="r" depth="1" NCoef="0" IVar="3" Cut="7.2425296875000000e+04" cType="1" res="2.3819442093372345e-01" rms="3.0108016729354858e-01" purity="8.3952265977859497e-01" nType="0">
          <Node pos="l" depth="2" NCoef="0" IVar="2" Cut="2.6755650000000000e+05" cType="1" res="1.6639775037765503e-01" rms="3.9147174358367920e-01" purity="6.8599659204483032e-01" nType="0">
            <Node pos="l" depth="3" NCoef="0" IVar="-1" Cut="0.0000000000000000e+00" cType="1" res="7.4714806396514177e-04" rms="4.3444523215293884e-01" purity="5.0378012657165527e-01" nType="-99"/>
            <Node pos="r" depth="3" NCoef="0" IVar="-1" Cut="0.0000000000000000e+00" cType="1" res="1.5566643560305238e-03" rms="3.4662854671478271e-01" purity="7.8940522670745850e-01" nType="-99"/>
          </Node>
          <Node pos="r" depth="2" NCoef="0" IVar="1" Cut="1.1128134375000000e+05" cType="1" res="2.9814678430557251e-01" rms="1.7457669973373413e-01" purity="9.6772152185440063e-01" nType="0">
            <Node pos="l" depth="3" NCoef="0" IVar="-1" Cut="0.0000000000000000e+00" cType="1" res="2.3985872976481915e-03" rms="2.1550329029560089e-01" purity="9.4955080747604370e-01" nType="-99"/>
            <Node pos="r" depth="3" NCoef="0" IVar="-1" Cut="0.0000000000000000e+00" cType="1" res="2.6023327372968197e-03" rms="1.0547177493572235e-01" purity="9.8876935243606567e-01" nType="-99"/>
          </Node>
        </Node>
      </Node>
    </BinaryTree>
    <BinaryTree type="DecisionTree" boostWeight="1.0000000000000000e+00" itree="134">
      <Node pos="s" depth="0" NCoef="0" IVar="3" Cut="6.8850757812500000e+04" cType="1" res="1.2791095674037933e-01" rms="3.2046246528625488e-01" purity="4.9654343724250793e-01" nType="0">
        <Node pos="l" depth="1" NCoef="0" IVar="3" Cut="4.5902363281250000e+04" cType="1" res="6.7210547626018524e-02" rms="3.3542925119400024e-01" purity="3.1724101305007935e-01" nType="0">
          <Node pos="l" depth="2" NCoef="0" IVar="5" Cut="9.6394953125000000e+04" cType="1" res="2.2441435605287552e-02" rms="3.0887970328330994e-01" purity="1.8694302439689636e-01" nType="0">
            <Node pos="l" depth="3" NCoef="0" IVar="-1" Cut="0.0000000000000000e+00" cType="1" res="4.2198906885460019e-04" rms="2.9969471693038940e-01" purity="1.6383878886699677e-01" nType="-99"/>
            <Node pos="r" depth="3" NCoef="0" IVar="-1" Cut="0.0000000000000000e+00" cType="1" res="8.6658261716365814e-04" rms="3.3308780193328857e-01" purity="7.1336913108825684e-01" nType="-99"/>
          </Node>
          <Node pos="r" depth="2" NCoef="0" IVar="2" Cut="2.7994300000000000e+05" cType="1" res="2.2776636481285095e-01" rms="3.7535911798477173e-01" purity="7.8452980518341064e-01" nType="0">
            <Node pos="l" depth="3" NCoef="0" IVar="-1" Cut="0.0000000000000000e+00" cType="1" res="1.1587815824896097e-03" rms="4.6100082993507385e-01" purity="6.0277336835861206e-01" nType="-99"/>
            <Node pos="r" depth="3" NCoef="0" IVar="-1" Cut="0.0000000000000000e+00" cType="1" res="1.1378250783309340e-03" rms="3.0118876695632935e-01" purity="8.7638676166534424e-01" nType="-99"/>
          </Node>
        </Node>
        <Node pos="r" depth="1" NCoef="0" IVar="1" Cut="1.2541114062500000e+05" cType="1" res="2.8181117773056030e-01" rms="2.1161296963691711e-01" purity="9.5114791393280029e-01" nType="0">
          <Node pos="l" depth="2" NCoef="0" IVar="3" Cut="9.8541070312500000e+04" cType="1" res="2.5084370374679565e-01" rms="2.6421731710433960e-01" purity="9.2081010341644287e-01" nType="0">
            <Node pos="l" depth="3" NCoef="0" IVar="-1" Cut="0.0000000000000000e+00" cType="1" res="1.2942537432536483e-03" rms="3.8396921753883362e-01" purity="8.1482487916946411e-01" nType="-99"/>
            <Node pos="r" depth="3" NCoef="0" IVar="-1" Cut="0.0000000000000000e+00" cType="1" res="2.4189520627260208e-03" rms="1.6057847440242767e-01" purity="9.7342747449874878e-01" nType="-99"/>
          </Node>
          <Node pos="r" depth="2" NCoef="0" IVar="-1" Cut="0.0000000000000000e+00" cType="1" res="2.0597612019628286e-03" rms="9.9409319460391998e-02" purity="9.9004405736923218e-01" nType="-99"/>
        </Node>
      </Node>
    </BinaryTree>
    <BinaryTree type="DecisionTree" boostWeight="1.0000000000000000e+00" itree="135">
      <Node pos="s" depth="0" NCoef="0" IVar="3" Cut="4.8860375000000000e+04" cType="1" res="1.2814790010452271e-01" rms="3.1241586804389954e-01" purity="5.0753778219223022e-01" nType="0">
        <Node pos="l" depth="1" NCoef="0" IVar="1" Cut="1.5585303125000000e+05" cType="1" res="2.8990108519792557e-02" rms="3.1317338347434998e-01" purity="2.1040314435958862e-01" nType="0">
          <Node pos="l" depth="2" NCoef="0" IVar="1" Cut="1.1468622656250000e+05" cType="1" res="7.0039825513958931e-03" rms="2.9869231581687927e-01" purity="1.4388069510459900e-01" nType="0">
            <Node pos="l" depth="3" NCoef="0" IVar="-1" Cut="0.0000000000000000e+00" cType="1" res="-1.1869294103235006e-03" rms="2.7486521005630493e-01" purity="1.0268495231866837e-01" nType="-99"/>
            <Node pos="r" depth="3" NCoef="0" IVar="-1" Cut="0.0000000000000000e+00" cType="1" res="3.0404049903154373e-03" rms="4.4846501946449280e-01" purity="6.5194004774093628e-01" nType="-99"/>
          </Node>
          <Node pos="r" depth="2" NCoef="0" IVar="-1" Cut="0.0000000000000000e+00" cType="1" res="2.2368943318724632e-03" rms="3.6638584733009338e-01" purity="8.2161635160446167e-01" nType="-99"/>
        </Node>
        <Node pos="r" depth="1" NCoef="0" IVar="1" Cut="1.3237062500000000e+05" cType="1" res="2.6384848356246948e-01" rms="2.5511708855628967e-01" purity="9.1417592763900757e-01" nType="0">
          <Node pos="l" depth="2" NCoef="0" IVar="3" Cut="7.9182921875000000e+04" cType="1" res="2.3111154139041901e-01" rms="3.0243626236915588e-01" purity="8.7308663129806519e-01" nType="0">
            <Node pos="l" depth="3" NCoef="0" IVar="-1" Cut="0.0000000000000000e+00" cType="1" res="9.4541511498391628e-04" rms="4.3360510468482971e-01" purity="6.8571615219116211e-01" nType="-99"/>
            <Node pos="r" depth="3" NCoef="0" IVar="-1" Cut="0.0000000000000000e+00" cType="1" res="2.2322514560073614e-03" rms="1.8363833427429199e-01" purity="9.6447229385375977e-01" nType="-99"/>
          </Node>
          <Node pos="r" depth="2" NCoef="0" IVar="-1" Cut="0.0000000000000000e+00" cType="1" res="1.4773524599149823e-03" rms="1.2058072537183762e-01" purity="9.8505055904388428e-01" nType="-99"/>
        </Node>
      </Node>
    </BinaryTree>
    <BinaryTree type="DecisionTree" boostWeight="1.0000000000000000e+00" itree="136">
      <Node pos="s" depth="0" NCoef="0" IVar="1" Cut="1.0035560937500000e+05" cType="1" res="1.3794174790382385e-01" rms="3.0972278118133545e-01" purity="5.3016632795333862e-01" nType="0">
        <Node pos="l" depth="1" NCoef="0" IVar="1" Cut="7.9321460937500000e+04" cType="1" res="4.6412788331508636e-02" rms="3.0168995261192322e-01" purity="3.1893557310104370e-01" nType="0">
          <Node pos="l" depth="2" NCoef="0" IVar="3" Cut="3.3283933593750000e+04" cType="1" res="1.9189994037151337e-01" rms="3.4962907433509827e-01" purity="6.3544178009033203e-01" nType="0">
            <Node pos="l" depth="3" NCoef="0" IVar="-1" Cut="0.0000000000000000e+00" cType="1" res="1.4422729145735502e-03" rms="3.5804179310798645e-01" purity="1.5875239670276642e-01" nType="-99"/>
            <Node pos="r" depth="3" NCoef="0" IVar="-1" Cut="0.0000000000000000e+00" cType="1" res="2.2993946913629770e-03" rms="3.1581521034240723e-01" purity="8.6206299066543579e-01" nType="-99"/>
          </Node>
          <Node pos="r" depth="2" NCoef="0" IVar="3" Cut="9.8172445312500000e+04" cType="1" res="-4.3185207992792130e-02" rms="2.2522129118442535e-01" purity="1.2401584535837173e-01" nType="0">
            <Node pos="l" depth="3" NCoef="0" IVar="-1" Cut="0.0000000000000000e+00" cType="1" res="-7.6273269951343536e-03" rms="2.0763213932514191e-01" purity="6.4438104629516602e-02" nType="-99"/>
            <Node pos="r" depth="3" NCoef="0" IVar="-1" Cut="0.0000000000000000e+00" cType="1" res="2.1575328428298235e-03" rms="2.1064022183418274e-01" purity="9.5323485136032104e-01" nType="-99"/>
          </Node>
        </Node>
        <Node pos="r" depth="1" NCoef="0" IVar="3" Cut="6.9015140625000000e+04" cType="1" res="2.8573501110076904e-01" rms="2.6170304417610168e-01" purity="8.7124389410018921e-01" nType="0">
          <Node pos="l" depth="2" NCoef="0" IVar="3" Cut="1.9936269531250000e+04" cType="1" res="2.5612017512321472e-01" rms="3.4713634848594666e-01" purity="7.5939851999282837e-01" nType="0">
            <Node pos="l" depth="3" NCoef="0" IVar="-1" Cut="0.0000000000000000e+00" cType="1" res="1.4188071945682168e-03" rms="4.1439205408096313e-01" purity="3.5721328854560852e-01" nType="-99"/>
            <Node pos="r" depth="3" NCoef="0" IVar="-1" Cut="0.0000000000000000e+00" cType="1" res="2.1300127264112234e-03" rms="3.1034898757934570e-01" purity="8.5425037145614624e-01" nType="-99"/>
          </Node>
          <Node pos="r" depth="2" NCoef="0" IVar="-1" Cut="0.0000000000000000e+00" cType="1" res="1.7700899625197053e-03" rms="1.1375048756599426e-01" purity="9.8673063516616821e-01" nType="-99"/>
        </Node>
      </Node>
    </BinaryTree>
    <BinaryTree type="DecisionTree" boostWeight="1.0000000000000000e+00" itree="137">
      <Node pos="s" depth="0" NCoef="0" IVar="3" Cut="6.8736484375000000e+04" cType="1" res="1.3261128962039948e-01" rms="3.1668502092361450e-01" purity="5.0923770666122437e-01" nType="0">
        <Node pos="l" depth="1" NCoef="0" IVar="1" Cut="1.5587295312500000e+05" cType="1" res="6.0738112777471542e-02" rms="3.3482730388641357e-01" purity="3.0504381656646729e-01" nType="0">
          <Node pos="l" depth="2" NCoef="0" IVar="1" Cut="1.0091672656250000e+05" cType="1" res="3.2725784927606583e-02" rms="3.2689604163169861e-01" purity="2.2511303424835205e-01" nType="0">
            <Node pos="l" depth="3" NCoef="0" IVar="-1" Cut="0.0000000000000000e+00" cType="1" res="-4.5294660958461463e-04" rms="2.9562318325042725e-01" purity="1.4420057833194733e-01" nType="-99"/>
            <Node pos="r" depth="3" NCoef="0" IVar="-1" Cut="0.0000000000000000e+00" cType="1" res="3.1597411725670099e-03" rms="3.9375475049018860e-01" purity="6.3251471519470215e-01" nType="-99"/>
          </Node>
          <Node pos="r" depth="2" NCoef="0" IVar="3" Cut="2.6342427734375000e+04" cType="1" res="2.5853753089904785e-01" rms="3.2326915860176086e-01" purity="8.6944746971130371e-01" nType="0">
            <Node pos="l" depth="3" NCoef="0" IVar="-1" Cut="0.0000000000000000e+00" cType="1" res="1.5327873406931758e-03" rms="4.4937586784362793e-01" purity="7.0808213949203491e-01" nType="-99"/>
            <Node pos="r" depth="3" NCoef="0" IVar="-1" Cut="0.0000000000000000e+00" cType="1" res="3.0170993413776159e-03" rms="2.3059268295764923e-01" purity="9.4373774528503418e-01" nType="-99"/>
          </Node>
        </Node>
        <Node pos="r" depth="1" NCoef="0" IVar="1" Cut="1.0059082812500000e+05" cType="1" res="2.9119983315467834e-01" rms="1.9406212866306305e-01" purity="9.5979249477386475e-01" nType="0">
          <Node pos="l" depth="2" NCoef="0" IVar="1" Cut="8.7934023437500000e+04" cType="1" res="2.6630380749702454e-01" rms="2.4902883172035217e-01" purity="9.3182617425918579e-01" nType="0">
            <Node pos="l" depth="3" NCoef="0" IVar="-1" Cut="0.0000000000000000e+00" cType="1" res="2.0694807171821594e-03" rms="2.2219215333461761e-01" purity="9.4717377424240112e-01" nType="-99"/>
            <Node pos="r" depth="3" NCoef="0" IVar="-1" Cut="0.0000000000000000e+00" cType="1" res="1.4600283466279507e-03" rms="3.5460746288299561e-01" purity="8.4981185197830200e-01" nType="-99"/>
          </Node>
          <Node pos="r" depth="2" NCoef="0" IVar="5" Cut="9.0862031250000000e+04" cType="1" res="3.1483379006385803e-01" rms="1.1572621017694473e-01" purity="9.8634105920791626e-01" nType="0">
            <Node pos="l" depth="3" NCoef="0" IVar="-1" Cut="0.0000000000000000e+00" cType="1" res="2.5835251435637474e-03" rms="1.2631532549858093e-01" purity="9.8369610309600830e-01" nType="-99"/>
            <Node pos="r" depth="3" NCoef="0" IVar="-1" Cut="0.0000000000000000e+00" cType="1" res="1.8861374119296670e-03" rms="1.0472725331783295e-01" purity="9.8882359266281128e-01" nType="-99"/>
          </Node>
        </Node>
      </Node>
    </BinaryTree>
    <BinaryTree type="DecisionTree" boostWeight="1.0000000000000000e+00" itree="138">
      <Node pos="s" depth="0" NCoef="0" IVar="3" Cut="4.8860375000000000e+04" cType="1" res="1.2727485597133636e-01" rms="3.0907559394836426e-01" purity="5.0815403461456299e-01" nType="0">
        <Node pos="l" depth="1" NCoef="0" IVar="1" Cut="1.3643696875000000e+05" cType="1" res="2.0095625892281532e-02" rms="3.0577930808067322e-01" purity="1.9721435010433197e-01" nType="0">
          <Node pos="l" depth="2" NCoef="0" IVar="1" Cut="1.0657408593750000e+05" cType="1" res="-2.5499067269265652e-03" rms="2.8532093763351440e-01" purity="1.2385334074497223e-01" nType="0">
            <Node pos="l" depth="3" NCoef="0" IVar="-1" Cut="0.0000000000000000e+00" cType="1" res="-2.7456872630864382e-03" rms="2.5652498006820679e-01" purity="8.6482994258403778e-02" nType="-99"/>
            <Node pos="r" depth="3" NCoef="0" IVar="-1" Cut="0.0000000000000000e+00" cType="1" res="1.8981314497068524e-03" rms="4.4449466466903687e-01" purity="5.6566691398620605e-01" nType="-99"/>
          </Node>
          <Node pos="r" depth="2" NCoef="0" IVar="5" Cut="9.0475914062500000e+04" cType="1" res="2.0087914168834686e-01" rms="3.9149025082588196e-01" purity="7.8286892175674438e-01" nType="0">
            <Node pos="l" depth="3" NCoef="0" IVar="-1" Cut="0.0000000000000000e+00" cType="1" res="2.4614089634269476e-03" rms="3.2519823312759399e-01" purity="8.6712145805358887e-01" nType="-99"/>
            <Node pos="r" depth="3" NCoef="0" IVar="-1" Cut="0.0000000000000000e+00" cType="1" res="1.2292328756302595e-04" rms="4.6226918697357178e-01" purity="5.8103811740875244e-01" nType="-99"/>
          </Node>
        </Node>
        <Node pos="r" depth="1" NCoef="0" IVar="1" Cut="1.0066286718750000e+05" cType="1" res="2.6783609390258789e-01" rms="2.5172007083892822e-01" purity="9.1593903303146362e-01" nType="0">
          <Node pos="l" depth="2" NCoef="0" IVar="1" Cut="8.3830828125000000e+04" cType="1" res="2.1859544515609741e-01" rms="3.2349035143852234e-01" purity="8.4865260124206543e-01" nType="0">
            <Node pos="l" depth="3" NCoef="0" IVar="-1" Cut="0.0000000000000000e+00" cType="1" res="2.3983572609722614e-03" rms="2.4773348867893219e-01" purity="9.2776089906692505e-01" nType="-99"/>
            <Node pos="r" depth="3" NCoef="0" IVar="-1" Cut="0.0000000000000000e+00" cType="1" res="4.1444686939939857e-04" rms="4.2260804772377014e-01" purity="6.4204221963882446e-01" nType="-99"/>
          </Node>
          <Node pos="r" depth="2" NCoef="0" IVar="2" Cut="3.2209987500000000e+05" cType="1" res="3.1110534071922302e-01" rms="1.5193258225917816e-01" purity="9.7506564855575562e-01" nType="0">
            <Node pos="l" depth="3" NCoef="0" IVar="-1" Cut="0.0000000000000000e+00" cType="1" res="2.1091187372803688e-03" rms="2.0129333436489105e-01" purity="9.5455211400985718e-01" nType="-99"/>
            <Node pos="r" depth="3" NCoef="0" IVar="-1" Cut="0.0000000000000000e+00" cType="1" res="2.5025533977895975e-03" rms="1.3146536052227020e-01" purity="9.8183429241180420e-01" nType="-99"/>
          </Node>
        </Node>
      </Node>
    </BinaryTree>
    <BinaryTree type="DecisionTree" boostWeight="1.0000000000000000e+00" itree="139">
      <Node pos="s" depth="0" NCoef="0" IVar="3" Cut="4.8807667968750000e+04" cType="1" res="1.1776345223188400e-01" rms="3.1723961234092712e-01" purity="4.9059358239173889e-01" nType="0">
        <Node pos="l" depth="1" NCoef="0" IVar="1" Cut="1.3640723437500000e+05" cType="1" res="3.0695015564560890e-02" rms="3.1054121255874634e-01" purity="2.1630778908729553e-01" nType="0">
          <Node pos="l" depth="2" NCoef="0" IVar="1" Cut="1.0080857812500000e+05" cType="1" res="6.4355977810919285e-03" rms="2.9113289713859558e-01" purity="1.3775537908077240e-01" nType="0">
            <Node pos="l" depth="3" NCoef="0" IVar="-1" Cut="0.0000000000000000e+00" cType="1" res="-2.1136105060577393e-03" rms="2.5942257046699524e-01" purity="9.1452583670616150e-02" nType="-99"/>
            <Node pos="r" depth="3" NCoef="0" IVar="-1" Cut="0.0000000000000000e+00" cType="1" res="1.3717074180021882e-03" rms="4.1543811559677124e-01" purity="4.8983791470527649e-01" nType="-99"/>
          </Node>
          <Node pos="r" depth="2" NCoef="0" IVar="3" Cut="2.3540240234375000e+04" cType="1" res="2.0948904752731323e-01" rms="3.8235476613044739e-01" purity="7.9524588584899902e-01" nType="0">
            <Node pos="l" depth="3" NCoef="0" IVar="-1" Cut="0.0000000000000000e+00" cType="1" res="1.3897198950871825e-03" rms="4.5868876576423645e-01" purity="6.5062022209167480e-01" nType="-99"/>
            <Node pos="r" depth="3" NCoef="0" IVar="-1" Cut="0.0000000000000000e+00" cType="1" res="2.5939857587218285e-03" rms="3.1832841038703918e-01" purity="8.8133096694946289e-01" nType="-99"/>
          </Node>
        </Node>
        <Node pos="r" depth="1" NCoef="0" IVar="1" Cut="1.4568907812500000e+05" cType="1" res="2.4544546008110046e-01" rms="2.8175848722457886e-01" purity="8.9282155036926270e-01" nType="0">
          <Node pos="l" depth="2" NCoef="0" IVar="3" Cut="7.5362359375000000e+04" cType="1" res="2.0908184349536896e-01" rms="3.3051875233650208e-01" purity="8.4482860565185547e-01" nType="0">
            <Node pos="l" depth="3" NCoef="0" IVar="-1" Cut="0.0000000000000000e+00" cType="1" res="9.5232535386458039e-04" rms="4.4966012239456177e-01" purity="6.4734858274459839e-01" nType="-99"/>
            <Node pos="r" depth="3" NCoef="0" IVar="-1" Cut="0.0000000000000000e+00" cType="1" res="2.1116754505783319e-03" rms="2.2798886895179749e-01" purity="9.4402873516082764e-01" nType="-99"/>
          </Node>
          <Node pos="r" depth="2" NCoef="0" IVar="-1" Cut="0.0000000000000000e+00" cType="1" res="2.0138842519372702e-03" rms="1.2056680023670197e-01" purity="9.8512274026870728e-01" nType="-99"/>
        </Node>
      </Node>
    </BinaryTree>
    <BinaryTree type="DecisionTree" boostWeight="1.0000000000000000e+00" itree="140">
      <Node pos="s" depth="0" NCoef="0" IVar="3" Cut="4.4524941406250000e+04" cType="1" res="1.3701827824115753e-01" rms="3.1765279173851013e-01" purity="5.1054191589355469e-01" nType="0">
        <Node pos="l" depth="1" NCoef="0" IVar="1" Cut="7.4277562500000000e+04" cType="1" res="3.6022998392581940e-02" rms="3.1709253787994385e-01" purity="2.0003864169120789e-01" nType="0">
          <Node pos="l" depth="2" NCoef="0" IVar="5" Cut="9.1511726562500000e+04" cType="1" res="1.8946157395839691e-01" rms="4.6363949775695801e-01" purity="3.7787884473800659e-01" nType="0">
            <Node pos="l" depth="3" NCoef="0" IVar="-1" Cut="0.0000000000000000e+00" cType="1" res="1.0655181249603629e-03" rms="3.8609629869461060e-01" purity="2.1654699742794037e-01" nType="-99"/>
            <Node pos="r" depth="3" NCoef="0" IVar="-1" Cut="0.0000000000000000e+00" cType="1" res="4.4985376298427582e-03" rms="4.7907149791717529e-01" purity="5.3515523672103882e-01" nType="-99"/>
          </Node>
          <Node pos="r" depth="2" NCoef="0" IVar="1" Cut="1.3351587500000000e+05" cType="1" res="2.2963697556406260e-03" rms="2.6284295320510864e-01" purity="1.6094839572906494e-01" nType="0">
            <Node pos="l" depth="3" NCoef="0" IVar="-1" Cut="0.0000000000000000e+00" cType="1" res="-5.3815990686416626e-03" rms="2.1188345551490784e-01" purity="6.1440296471118927e-02" nType="-99"/>
            <Node pos="r" depth="3" NCoef="0" IVar="-1" Cut="0.0000000000000000e+00" cType="1" res="2.4933805689215660e-03" rms="4.0286546945571899e-01" purity="7.8043115139007568e-01" nType="-99"/>
          </Node>
        </Node>
        <Node pos="r" depth="1" NCoef="0" IVar="4" Cut="2.1143329687500000e+05" cType="1" res="2.6222625374794006e-01" rms="2.7022531628608704e-01" purity="8.9548546075820923e-01" nType="0">
          <Node pos="l" depth="2" NCoef="0" IVar="3" Cut="6.1284132812500000e+04" cType="1" res="1.4003874361515045e-01" rms="3.8537088036537170e-01" purity="7.2183781862258911e-01" nType="0">
            <Node pos="l" depth="3" NCoef="0" IVar="-1" Cut="0.0000000000000000e+00" cType="1" res="-2.0385775715112686e-03" rms="4.6109077334403992e-01" purity="3.5716131329536438e-01" nType="-99"/>
            <Node pos="r" depth="3" NCoef="0" IVar="-1" Cut="0.0000000000000000e+00" cType="1" res="3.1134090386331081e-03" rms="2.6158580183982849e-01" purity="9.1850799322128296e-01" nType="-99"/>
          </Node>
          <Node pos="r" depth="2" NCoef="0" IVar="3" Cut="8.6833750000000000e+04" cType="1" res="2.7664294838905334e-01" rms="2.4929000437259674e-01" purity="9.1597384214401245e-01" nType="0">
            <Node pos="l" depth="3" NCoef="0" IVar="-1" Cut="0.0000000000000000e+00" cType="1" res="1.6521946527063847e-03" rms="3.3709827065467834e-01" purity="8.3713871240615845e-01" nType="-99"/>
            <Node pos="r" depth="3" NCoef="0" IVar="-1" Cut="0.0000000000000000e+00" cType="1" res="2.0925949793308973e-03" rms="1.3442474603652954e-01" purity="9.8135942220687866e-01" nType="-99"/>
          </Node>
        </Node>
      </Node>
    </BinaryTree>
    <BinaryTree type="DecisionTree" boostWeight="1.0000000000000000e+00" itree="141">
      <Node pos="s" depth="0" NCoef="0" IVar="3" Cut="4.8659894531250000e+04" cType="1" res="1.2195809930562973e-01" rms="3.1909826397895813e-01" purity="4.8573759198188782e-01" nType="0">
        <Node pos="l" depth="1" NCoef="0" IVar="3" Cut="1.3942805664062500e+04" cType="1" res="2.6935594156384468e-02" rms="3.2089596986770630e-01" purity="1.9683611392974854e-01" nType="0">
          <Node pos="l" depth="2" NCoef="0" IVar="5" Cut="8.6885976562500000e+04" cType="1" res="-3.2495383173227310e-02" rms="1.9644215703010559e-01" purity="6.1220414936542511e-02" nType="0">
            <Node pos="l" depth="3" NCoef="0" IVar="-1" Cut="0.0000000000000000e+00" cType="1" res="9.4718355685472488e-03" rms="4.3460258841514587e-01" purity="3.0700775980949402e-01" nType="-99"/>
            <Node pos="r" depth="3" NCoef="0" IVar="-1" Cut="0.0000000000000000e+00" cType="1" res="-5.6359283626079559e-03" rms="1.5364091098308563e-01" purity="4.2204223573207855e-02" nType="-99"/>
          </Node>
          <Node pos="r" depth="2" NCoef="0" IVar="2" Cut="3.7128590625000000e+05" cType="1" res="5.5588182061910629e-02" rms="3.6261722445487976e-01" purity="2.6221850514411926e-01" nType="0">
            <Node pos="l" depth="3" NCoef="0" IVar="-1" Cut="0.0000000000000000e+00" cType="1" res="1.6439966857433319e-03" rms="3.5826763510704041e-01" purity="1.9032262265682220e-01" nType="-99"/>
            <Node pos="r" depth="3" NCoef="0" IVar="-1" Cut="0.0000000000000000e+00" cType="1" res="1.7127427272498608e-03" rms="3.6358752846717834e-01" purity="5.1969760656356812e-01" nType="-99"/>
          </Node>
        </Node>
        <Node pos="r" depth="1" NCoef="0" IVar="1" Cut="1.4575751562500000e+05" cType="1" res="2.6139822602272034e-01" rms="2.5969570875167847e-01" purity="9.0968400239944458e-01" nType="0">
          <Node pos="l" depth="2" NCoef="0" IVar="3" Cut="7.5220656250000000e+04" cType="1" res="2.3549070954322815e-01" rms="3.0376961827278137e-01" purity="8.7116205692291260e-01" nType="0">
            <Node pos="l" depth="3" NCoef="0" IVar="-1" Cut="0.0000000000000000e+00" cType="1" res="1.3175308704376221e-03" rms="4.2973789572715759e-01" purity="6.9986313581466675e-01" nType="-99"/>
            <Node pos="r" depth="3" NCoef="0" IVar="-1" Cut="0.0000000000000000e+00" cType="1" res="2.4863532744348049e-03" rms="1.9267255067825317e-01" purity="9.6071732044219971e-01" nType="-99"/>
          </Node>
          <Node pos="r" depth="2" NCoef="0" IVar="-1" Cut="0.0000000000000000e+00" cType="1" res="2.5961447972804308e-03" rms="1.2937568128108978e-01" purity="9.8262941837310791e-01" nType="-99"/>
        </Node>
      </Node>
    </BinaryTree>
    <BinaryTree type="DecisionTree" boostWeight="1.0000000000000000e+00" itree="142">
      <Node pos="s" depth="0" NCoef="0" IVar="3" Cut="6.8736484375000000e+04" cType="1" res="1.2939453125000000e-01" rms="3.1603673100471497e-01" purity="5.0426131486892700e-01" nType="0">
        <Node pos="l" depth="1" NCoef="0" IVar="3" Cut="4.2567046875000000e+04" cType="1" res="5.9526152908802032e-02" rms="3.3686250448226929e-01" purity="3.0187761783599854e-01" nType="0">
          <Node pos="l" depth="2" NCoef="0" IVar="2" Cut="4.4877159375000000e+05" cType="1" res="2.2887175902724266e-02" rms="3.0912652611732483e-01" purity="1.7832688987255096e-01" nType="0">
            <Node pos="l" depth="3" NCoef="0" IVar="-1" Cut="0.0000000000000000e+00" cType="1" res="3.4148953272961080e-04" rms="2.9449209570884705e-01" purity="1.3415008783340454e-01" nType="-99"/>
            <Node pos="r" depth="3" NCoef="0" IVar="-1" Cut="0.0000000000000000e+00" cType="1" res="1.6577877104282379e-03" rms="3.7519907951354980e-01" purity="5.1191926002502441e-01" nType="-99"/>
          </Node>
          <Node pos="r" depth="2" NCoef="0" IVar="2" Cut="2.6755650000000000e+05" cType="1" res="1.8699498474597931e-01" rms="3.9356365799903870e-01" purity="7.3171681165695190e-01" nType="0">
            <Node pos="l" depth="3" NCoef="0" IVar="-1" Cut="0.0000000000000000e+00" cType="1" res="1.0705770691856742e-03" rms="4.6301844716072083e-01" purity="5.6731432676315308e-01" nType="-99"/>
            <Node pos="r" depth="3" NCoef="0" IVar="-1" Cut="0.0000000000000000e+00" cType="1" res="1.3733357191085815e-03" rms="3.4032422304153442e-01" purity="8.1617361307144165e-01" nType="-99"/>
          </Node>
        </Node>
        <Node pos="r" depth="1" NCoef="0" IVar="1" Cut="1.0168853906250000e+05" cType="1" res="2.8836986422538757e-01" rms="1.8044492602348328e-01" purity="9.6475595235824585e-01" nType="0">
          <Node pos="l" depth="2" NCoef="0" IVar="1" Cut="8.4638460937500000e+04" cType="1" res="2.6335039734840393e-01" rms="2.3197324573993683e-01" purity="9.3959075212478638e-01" nType="0">
            <Node pos="l" depth="3" NCoef="0" IVar="-1" Cut="0.0000000000000000e+00" cType="1" res="2.3623842280358076e-03" rms="1.7730665206909180e-01" purity="9.6687781810760498e-01" nType="-99"/>
            <Node pos="r" depth="3" NCoef="0" IVar="-1" Cut="0.0000000000000000e+00" cType="1" res="1.4397285412997007e-03" rms="3.6537030339241028e-01" purity="8.3010047674179077e-01" nType="-99"/>
          </Node>
          <Node pos="r" depth="2" NCoef="0" IVar="-1" Cut="0.0000000000000000e+00" cType="1" res="2.0222077146172523e-03" rms="1.1085698008537292e-01" purity="9.8748624324798584e-01" nType="-99"/>
        </Node>
      </Node>
    </BinaryTree>
    <BinaryTree type="DecisionTree" boostWeight="1.0000000000000000e+00" itree="143">
      <Node pos="s" depth="0" NCoef="0" IVar="3" Cut="5.4259988281250000e+04" cType="1" res="1.2557467818260193e-01" rms="3.1243520975112915e-01" purity="5.0621747970581055e-01" nType="0">
        <Node pos="l" depth="1" NCoef="0" IVar="1" Cut="1.5585303125000000e+05" cType="1" res="2.9082605615258217e-02" rms="3.2158809900283813e-01" purity="2.2370912134647369e-01" nType="0">
          <Node pos="l" depth="2" NCoef="0" IVar="1" Cut="1.0094972656250000e+05" cType="1" res="6.9069238379597664e-03" rms="3.0763280391693115e-01" purity="1.5725472569465637e-01" nType="0">
            <Node pos="l" depth="3" NCoef="0" IVar="-1" Cut="0.0000000000000000e+00" cType="1" res="-1.6954037128016353e-03" rms="2.6735782623291016e-01" purity="9.9406279623508453e-02" nType="-99"/>
            <Node pos="r" depth="3" NCoef="0" IVar="-1" Cut="0.0000000000000000e+00" cType="1" res="3.2587724272161722e-03" rms="4.4457283616065979e-01" purity="5.1368045806884766e-01" nType="-99"/>
          </Node>
          <Node pos="r" depth="2" NCoef="0" IVar="-1" Cut="0.0000000000000000e+00" cType="1" res="1.7335311276838183e-03" rms="3.7170210480690002e-01" purity="8.2482784986495972e-01" nType="-99"/>
        </Node>
        <Node pos="r" depth="1" NCoef="0" IVar="1" Cut="1.0073193750000000e+05" cType="1" res="2.7256113290786743e-01" rms="2.3019075393676758e-01" purity="9.3656259775161743e-01" nType="0">
          <Node pos="l" depth="2" NCoef="0" IVar="1" Cut="8.3888500000000000e+04" cType="1" res="2.3260273039340973e-01" rms="2.9818639159202576e-01" purity="8.8668304681777954e-01" nType="0">
            <Node pos="l" depth="3" NCoef="0" IVar="-1" Cut="0.0000000000000000e+00" cType="1" res="2.3678690195083618e-03" rms="2.3001196980476379e-01" purity="9.4015413522720337e-01" nType="-99"/>
            <Node pos="r" depth="3" NCoef="0" IVar="-1" Cut="0.0000000000000000e+00" cType="1" res="9.1411196626722813e-04" rms="4.1570296883583069e-01" purity="7.3464202880859375e-01" nType="-99"/>
          </Node>
          <Node pos="r" depth="2" NCoef="0" IVar="2" Cut="3.2209987500000000e+05" cType="1" res="3.0671790242195129e-01" rms="1.4051781594753265e-01" purity="9.7920006513595581e-01" nType="0">
            <Node pos="l" depth="3" NCoef="0" IVar="-1" Cut="0.0000000000000000e+00" cType="1" res="2.4806179571896791e-03" rms="1.8434725701808929e-01" purity="9.6305686235427856e-01" nType="-99"/>
            <Node pos="r" depth="3" NCoef="0" IVar="-1" Cut="0.0000000000000000e+00" cType="1" res="1.7972213681787252e-03" rms="1.1846138536930084e-01" purity="9.8558002710342407e-01" nType="-99"/>
          </Node>
        </Node>
      </Node>
    </BinaryTree>
    <BinaryTree type="DecisionTree" boostWeight="1.0000000000000000e+00" itree="144">
      <Node pos="s" depth="0" NCoef="0" IVar="3" Cut="4.8721656250000000e+04" cType="1" res="1.2410037964582443e-01" rms="3.0958443880081177e-01" purity="5.0898218154907227e-01" nType="0">
        <Node pos="l" depth="1" NCoef="0" IVar="1" Cut="1.7490379687500000e+05" cType="1" res="2.9569389298558235e-02" rms="3.0494639277458191e-01" purity="2.2166413068771362e-01" nType="0">
          <Node pos="l" depth="2" NCoef="0" IVar="1" Cut="1.3603660937500000e+05" cType="1" res="3.6260287743061781e-03" rms="2.9251423478126526e-01" purity="1.4967079460620880e-01" nType="0">
            <Node pos="l" depth="3" NCoef="0" IVar="-1" Cut="0.0000000000000000e+00" cType="1" res="-1.6524556558579206e-03" rms="2.7609899640083313e-01" purity="1.0569640249013901e-01" nType="-99"/>
            <Node pos="r" depth="3" NCoef="0" IVar="-1" Cut="0.0000000000000000e+00" cType="1" res="2.9938642401248217e-03" rms="3.7904715538024902e-01" purity="8.1231302022933960e-01" nType="-99"/>
          </Node>
          <Node pos="r" depth="2" NCoef="0" IVar="-1" Cut="0.0000000000000000e+00" cType="1" res="2.2309951018542051e-03" rms="3.1363791227340698e-01" purity="8.8142001628875732e-01" nType="-99"/>
        </Node>
        <Node pos="r" depth="1" NCoef="0" IVar="1" Cut="1.1128134375000000e+05" cType="1" res="2.5532227754592896e-01" rms="2.6490619778633118e-01" purity="9.0781885385513306e-01" nType="0">
          <Node pos="l" depth="2" NCoef="0" IVar="3" Cut="8.4160929687500000e+04" cType="1" res="2.0547291636466980e-01" rms="3.3510339260101318e-01" purity="8.4095501899719238e-01" nType="0">
            <Node pos="l" depth="3" NCoef="0" IVar="-1" Cut="0.0000000000000000e+00" cType="1" res="1.0330686345696449e-03" rms="4.3454006314277649e-01" purity="6.9922763109207153e-01" nType="-99"/>
            <Node pos="r" depth="3" NCoef="0" IVar="-1" Cut="0.0000000000000000e+00" cType="1" res="2.5438957381993532e-03" rms="1.9284287095069885e-01" purity="9.6071451902389526e-01" nType="-99"/>
          </Node>
          <Node pos="r" depth="2" NCoef="0" IVar="5" Cut="9.0558210937500000e+04" cType="1" res="3.0940902233123779e-01" rms="1.3731159269809723e-01" purity="9.8036634922027588e-01" nType="0">
            <Node pos="l" depth="3" NCoef="0" IVar="-1" Cut="0.0000000000000000e+00" cType="1" res="2.3974997457116842e-03" rms="1.5318059921264648e-01" purity="9.7508382797241211e-01" nType="-99"/>
            <Node pos="r" depth="3" NCoef="0" IVar="-1" Cut="0.0000000000000000e+00" cType="1" res="1.4799896162003279e-03" rms="1.2334496527910233e-01" purity="9.8440569639205933e-01" nType="-99"/>
          </Node>
        </Node>
      </Node>
    </BinaryTree>
    <BinaryTree type="DecisionTree" boostWeight="1.0000000000000000e+00" itree="145">
      <Node pos="s" depth="0" NCoef="0" IVar="3" Cut="5.4198226562500000e+04" cType="1" res="1.1089915782213211e-01" rms="3.0962049961090088e-01" purity="4.7951820492744446e-01" nType="0">
        <Node pos="l" depth="1" NCoef="0" IVar="1" Cut="1.5585728125000000e+05" cType="1" res="2.4607064202427864e-02" rms="3.1023502349853516e-01" purity="2.2719641029834747e-01" nType="0">
          <Node pos="l" depth="2" NCoef="0" IVar="1" Cut="1.0083828125000000e+05" cType="1" res="-9.1851851902902126e-04" rms="2.9368886351585388e-01" purity="1.5123188495635986e-01" nType="0">
            <Node pos="l" depth="3" NCoef="0" IVar="-1" Cut="0.0000000000000000e+00" cType="1" res="-3.1124169472604990e-03" rms="2.5408443808555603e-01" purity="8.9370243251323700e-02" nType="-99"/>
            <Node pos="r" depth="3" NCoef="0" IVar="-1" Cut="0.0000000000000000e+00" cType="1" res="1.9492286955937743e-03" rms="4.2040187120437622e-01" purity="5.3132677078247070e-01" nType="-99"/>
          </Node>
          <Node pos="r" depth="2" NCoef="0" IVar="-1" Cut="0.0000000000000000e+00" cType="1" res="1.3562594540417194e-03" rms="3.5949879884719849e-01" purity="8.3735090494155884e-01" nType="-99"/>
        </Node>
        <Node pos="r" depth="1" NCoef="0" IVar="3" Cut="1.0577646093750000e+05" cType="1" res="2.6442277431488037e-01" rms="2.4159839749336243e-01" purity="9.2842775583267212e-01" nType="0">
          <Node pos="l" depth="2" NCoef="0" IVar="3" Cut="6.1574281250000000e+04" cType="1" res="2.3370657861232758e-01" rms="3.1140029430389404e-01" purity="8.7552160024642944e-01" nType="0">
            <Node pos="l" depth="3" NCoef="0" IVar="-1" Cut="0.0000000000000000e+00" cType="1" res="8.2649197429418564e-04" rms="4.3684786558151245e-01" purity="6.8320602178573608e-01" nType="-99"/>
            <Node pos="r" depth="3" NCoef="0" IVar="-1" Cut="0.0000000000000000e+00" cType="1" res="2.2296519018709660e-03" rms="2.6894342899322510e-01" purity="9.1549926996231079e-01" nType="-99"/>
          </Node>
          <Node pos="r" depth="2" NCoef="0" IVar="4" Cut="6.1119206250000000e+05" cType="1" res="2.9663747549057007e-01" rms="1.2593246996402740e-01" purity="9.8391503095626831e-01" nType="0">
            <Node pos="l" depth="3" NCoef="0" IVar="-1" Cut="0.0000000000000000e+00" cType="1" res="2.6637534610927105e-03" rms="1.3875187933444977e-01" purity="9.8038762807846069e-01" nType="-99"/>
            <Node pos="r" depth="3" NCoef="0" IVar="-1" Cut="0.0000000000000000e+00" cType="1" res="2.6952947955578566e-03" rms="1.0278690606355667e-01" purity="9.8932397365570068e-01" nType="-99"/>
          </Node>
        </Node>
      </Node>
    </BinaryTree>
    <BinaryTree type="DecisionTree" boostWeight="1.0000000000000000e+00" itree="146">
      <Node pos="s" depth="0" NCoef="0" IVar="3" Cut="7.4246515625000000e+04" cType="1" res="1.2113101780414581e-01" rms="3.1398481130599976e-01" purity="4.9929541349411011e-01" nType="0">
        <Node pos="l" depth="1" NCoef="0" IVar="1" Cut="1.5588278125000000e+05" cType="1" res="5.0262909382581711e-02" rms="3.3284726738929749e-01" purity="2.9668787121772766e-01" nType="0">
          <Node pos="l" depth="2" NCoef="0" IVar="1" Cut="1.1469561718750000e+05" cType="1" res="2.3034280166029930e-02" rms="3.2550051808357239e-01" purity="2.1466752886772156e-01" nType="0">
            <Node pos="l" depth="3" NCoef="0" IVar="-1" Cut="0.0000000000000000e+00" cType="1" res="6.1688835558015853e-05" rms="3.0806958675384521e-01" purity="1.6792091727256775e-01" nType="-99"/>
            <Node pos="r" depth="3" NCoef="0" IVar="-1" Cut="0.0000000000000000e+00" cType="1" res="3.0292489100247622e-03" rms="4.0625104308128357e-01" purity="7.2826761007308960e-01" nType="-99"/>
          </Node>
          <Node pos="r" depth="2" NCoef="0" IVar="3" Cut="2.5098347656250000e+04" cType="1" res="2.3907826840877533e-01" rms="3.2176816463470459e-01" purity="8.6545336246490479e-01" nType="0">
            <Node pos="l" depth="3" NCoef="0" IVar="-1" Cut="0.0000000000000000e+00" cType="1" res="3.6584222107194364e-04" rms="4.9542841315269470e-01" purity="5.5962979793548584e-01" nType="-99"/>
            <Node pos="r" depth="3" NCoef="0" IVar="-1" Cut="0.0000000000000000e+00" cType="1" res="2.8676693327724934e-03" rms="2.3472820222377777e-01" purity="9.3995946645736694e-01" nType="-99"/>
          </Node>
        </Node>
        <Node pos="r" depth="1" NCoef="0" IVar="1" Cut="1.0073193750000000e+05" cType="1" res="2.8422558307647705e-01" rms="1.7985998094081879e-01" purity="9.6557265520095825e-01" nType="0">
          <Node pos="l" depth="2" NCoef="0" IVar="1" Cut="8.3883914062500000e+04" cType="1" res="2.5277239084243774e-01" rms="2.4169389903545380e-01" purity="9.3518656492233276e-01" nType="0">
            <Node pos="l" depth="3" NCoef="0" IVar="-1" Cut="0.0000000000000000e+00" cType="1" res="2.4478260893374681e-03" rms="1.9543275237083435e-01" purity="9.5897889137268066e-01" nType="-99"/>
            <Node pos="r" depth="3" NCoef="0" IVar="-1" Cut="0.0000000000000000e+00" cType="1" res="1.5567949740216136e-03" rms="3.9116913080215454e-01" purity="8.1033092737197876e-01" nType="-99"/>
          </Node>
          <Node pos="r" depth="2" NCoef="0" IVar="-1" Cut="0.0000000000000000e+00" cType="1" res="2.0389549899846315e-03" rms="1.0644435882568359e-01" purity="9.8854428529739380e-01" nType="-99"/>
        </Node>
      </Node>
    </BinaryTree>
    <BinaryTree type="DecisionTree" boostWeight="1.0000000000000000e+00" itree="147">
      <Node pos="s" depth="0" NCoef="0" IVar="3" Cut="6.8843453125000000e+04" cType="1" res="1.1404386907815933e-01" rms="3.1462949514389038e-01" purity="4.7888541221618652e-01" nType="0">
        <Node pos="l" depth="1" NCoef="0" IVar="1" Cut="1.3643696875000000e+05" cType="1" res="4.8988275229930878e-02" rms="3.2798689603805542e-01" purity="2.8710785508155823e-01" nType="0">
          <Node pos="l" depth="2" NCoef="0" IVar="1" Cut="7.1165742187500000e+04" cType="1" res="2.0178036764264107e-02" rms="3.1497094035148621e-01" purity="2.0156963169574738e-01" nType="0">
            <Node pos="l" depth="3" NCoef="0" IVar="-1" Cut="0.0000000000000000e+00" cType="1" res="3.0630724504590034e-03" rms="4.1465520858764648e-01" purity="4.6709424257278442e-01" nType="-99"/>
            <Node pos="r" depth="3" NCoef="0" IVar="-1" Cut="0.0000000000000000e+00" cType="1" res="-8.2374905468896031e-04" rms="2.7431058883666992e-01" purity="1.3891342282295227e-01" nType="-99"/>
          </Node>
          <Node pos="r" depth="2" NCoef="0" IVar="3" Cut="2.2983886718750000e+04" cType="1" res="2.3320293426513672e-01" rms="3.4906050562858582e-01" purity="8.3404523134231567e-01" nType="0">
            <Node pos="l" depth="3" NCoef="0" IVar="-1" Cut="0.0000000000000000e+00" cType="1" res="1.4905338175594807e-03" rms="4.8213982582092285e-01" purity="6.1399585008621216e-01" nType="-99"/>
            <Node pos="r" depth="3" NCoef="0" IVar="-1" Cut="0.0000000000000000e+00" cType="1" res="1.5646294923499227e-03" rms="2.7070003747940063e-01" purity="9.1587513685226440e-01" nType="-99"/>
          </Node>
        </Node>
        <Node pos="r" depth="1" NCoef="0" IVar="4" Cut="2.3241256250000000e+05" cType="1" res="2.7566060423851013e-01" rms="2.0256699621677399e-01" purity="9.5531576871871948e-01" nType="0">
          <Node pos="l" depth="2" NCoef="0" IVar="-1" Cut="0.0000000000000000e+00" cType="1" res="2.2118084598332644e-03" rms="3.3031004667282104e-01" purity="8.6969810724258423e-01" nType="-99"/>
          <Node pos="r" depth="2" NCoef="0" IVar="1" Cut="1.2527707812500000e+05" cType="1" res="2.8655654191970825e-01" rms="1.7403070628643036e-01" purity="9.6764647960662842e-01" nType="0">
            <Node pos="l" depth="3" NCoef="0" IVar="-1" Cut="0.0000000000000000e+00" cType="1" res="2.1293649915605783e-03" rms="2.0919238030910492e-01" purity="9.5222622156143188e-01" nType="-99"/>
            <Node pos="r" depth="3" NCoef="0" IVar="-1" Cut="0.0000000000000000e+00" cType="1" res="2.6955339126288891e-03" rms="1.0488712042570114e-01" purity="9.8887532949447632e-01" nType="-99"/>
          </Node>
        </Node>
      </Node>
    </BinaryTree>
    <BinaryTree type="DecisionTree" boostWeight="1.0000000000000000e+00" itree="148">
      <Node pos="s" depth="0" NCoef="0" IVar="3" Cut="4.8721656250000000e+04" cType="1" res="1.2801150977611542e-01" rms="3.1640791893005371e-01" purity="5.0350415706634521e-01" nType="0">
        <Node pos="l" depth="1" NCoef="0" IVar="3" Cut="4.6407132812500000e+04" cType="1" res="3.8100037723779678e-02" rms="3.2158747315406799e-01" purity="2.1383135020732880e-01" nType="0">
          <Node pos="l" depth="2" NCoef="0" IVar="3" Cut="1.3344184570312500e+04" cType="1" res="2.7231147512793541e-02" rms="3.1440851092338562e-01" purity="1.8900169432163239e-01" nType="0">
            <Node pos="l" depth="3" NCoef="0" IVar="-1" Cut="0.0000000000000000e+00" cType="1" res="-6.3524842262268066e-03" rms="1.8416714668273926e-01" purity="5.1727849990129471e-02" nType="-99"/>
            <Node pos="r" depth="3" NCoef="0" IVar="-1" Cut="0.0000000000000000e+00" cType="1" res="1.9491969142109156e-03" rms="3.5508415102958679e-01" purity="2.5204461812973022e-01" nType="-99"/>
          </Node>
          <Node pos="r" depth="2" NCoef="0" IVar="-1" Cut="0.0000000000000000e+00" cType="1" res="9.0777658624574542e-04" rms="3.7970653176307678e-01" purity="7.5717741250991821e-01" nType="-99"/>
        </Node>
        <Node pos="r" depth="1" NCoef="0" IVar="1" Cut="1.2544069531250000e+05" cType="1" res="2.5362238287925720e-01" rms="2.6158249378204346e-01" purity="9.0819174051284790e-01" nType="0">
          <Node pos="l" depth="2" NCoef="0" IVar="3" Cut="7.9399468750000000e+04" cType="1" res="2.1899597346782684e-01" rms="3.1384444236755371e-01" purity="8.6001539230346680e-01" nType="0">
            <Node pos="l" depth="3" NCoef="0" IVar="-1" Cut="0.0000000000000000e+00" cType="1" res="1.2555618304759264e-03" rms="4.3574944138526917e-01" purity="6.9013112783432007e-01" nType="-99"/>
            <Node pos="r" depth="3" NCoef="0" IVar="-1" Cut="0.0000000000000000e+00" cType="1" res="2.0562044810503721e-03" rms="1.8590636551380157e-01" purity="9.6303766965866089e-01" nType="-99"/>
          </Node>
          <Node pos="r" depth="2" NCoef="0" IVar="-1" Cut="0.0000000000000000e+00" cType="1" res="2.0232619717717171e-03" rms="1.3557890057563782e-01" purity="9.8106145858764648e-01" nType="-99"/>
        </Node>
      </Node>
    </BinaryTree>
    <BinaryTree type="DecisionTree" boostWeight="1.0000000000000000e+00" itree="149">
      <Node pos="s" depth="0" NCoef="0" IVar="3" Cut="6.8950085937500000e+04" cType="1" res="1.2458586692810059e-01" rms="3.1555530428886414e-01" purity="5.0359165668487549e-01" nType="0">
        <Node pos="l" depth="1" NCoef="0" IVar="1" Cut="1.2713942968750000e+05" cType="1" res="5.7286299765110016e-02" rms="3.3449769020080566e-01" purity="3.0308836698532104e-01" nType="0">
          <Node pos="l" depth="2" NCoef="0" IVar="1" Cut="1.1067473437500000e+05" cType="1" res="1.4296546578407288e-02" rms="3.1923800706863403e-01" purity="1.8534339964389801e-01" nType="0">
            <Node pos="l" depth="3" NCoef="0" IVar="-1" Cut="0.0000000000000000e+00" cType="1" res="1.6921869246289134e-04" rms="3.0900853872299194e-01" purity="1.6039121150970459e-01" nType="-99"/>
            <Node pos="r" depth="3" NCoef="0" IVar="-1" Cut="0.0000000000000000e+00" cType="1" res="2.5499055627733469e-03" rms="4.1362315416336060e-01" purity="6.3920152187347412e-01" nType="-99"/>
          </Node>
          <Node pos="r" depth="2" NCoef="0" IVar="3" Cut="3.3269371093750000e+04" cType="1" res="2.5758069753646851e-01" rms="3.3111724257469177e-01" purity="8.5167634487152100e-01" nType="0">
            <Node pos="l" depth="3" NCoef="0" IVar="-1" Cut="0.0000000000000000e+00" cType="1" res="1.6598432557657361e-03" rms="4.3936136364936829e-01" purity="6.9157820940017700e-01" nType="-99"/>
            <Node pos="r" depth="3" NCoef="0" IVar="-1" Cut="0.0000000000000000e+00" cType="1" res="2.1432107314467430e-03" rms="2.3113760352134705e-01" purity="9.4355863332748413e-01" nType="-99"/>
          </Node>
        </Node>
        <Node pos="r" depth="1" NCoef="0" IVar="1" Cut="1.0073193750000000e+05" cType="1" res="2.7761811017990112e-01" rms="1.9457022845745087e-01" purity="9.5951533317565918e-01" nType="0">
          <Node pos="l" depth="2" NCoef="0" IVar="0" Cut="1.1428571939468384e+00" cType="1" res="2.5179702043533325e-01" rms="2.4666841328144073e-01" purity="9.3279182910919189e-01" nType="0">
            <Node pos="l" depth="3" NCoef="0" IVar="-1" Cut="0.0000000000000000e+00" cType="1" res="1.8722268287092447e-03" rms="1.8915157020092010e-01" purity="9.6063023805618286e-01" nType="-99"/>
            <Node pos="r" depth="3" NCoef="0" IVar="-1" Cut="0.0000000000000000e+00" cType="1" res="1.9879085011780262e-03" rms="3.4359809756278992e-01" purity="8.6249750852584839e-01" nType="-99"/>
          </Node>
          <Node pos="r" depth="2" NCoef="0" IVar="-1" Cut="0.0000000000000000e+00" cType="1" res="1.9368601497262716e-03" rms="1.1252789944410324e-01" purity="9.8717254400253296e-01" nType="-99"/>
        </Node>
      </Node>
    </BinaryTree>
    <BinaryTree type="DecisionTree" boostWeight="1.0000000000000000e+00" itree="150">
      <Node pos="s" depth="0" NCoef="0" IVar="3" Cut="6.8798242187500000e+04" cType="1" res="1.3030792772769928e-01" rms="3.1504973769187927e-01" purity="5.1137679815292358e-01" nType="0">
        <Node pos="l" depth="1" NCoef="0" IVar="3" Cut="4.5899042968750000e+04" cType="1" res="6.4175784587860107e-02" rms="3.3594140410423279e-01" purity="3.0934280157089233e-01" nType="0">
          <Node pos="l" depth="2" NCoef="0" IVar="1" Cut="1.7490379687500000e+05" cType="1" res="2.3870339617133141e-02" rms="3.1289994716644287e-01" purity="1.8098366260528564e-01" nType="0">
            <Node pos="l" depth="3" NCoef="0" IVar="-1" Cut="0.0000000000000000e+00" cType="1" res="9.9785649217665195e-04" rms="3.0407124757766724e-01" purity="1.3878862559795380e-01" nType="-99"/>
            <Node pos="r" depth="3" NCoef="0" IVar="-1" Cut="0.0000000000000000e+00" cType="1" res="1.7475717468187213e-03" rms="3.8758295774459839e-01" purity="7.9319512844085693e-01" nType="-99"/>
          </Node>
          <Node pos="r" depth="2" NCoef="0" IVar="2" Cut="2.4941017187500000e+05" cType="1" res="2.1272780001163483e-01" rms="3.7403607368469238e-01" purity="7.8243058919906616e-01" nType="0">
            <Node pos="l" depth="3" NCoef="0" IVar="-1" Cut="0.0000000000000000e+00" cType="1" res="1.2758035445585847e-03" rms="4.7179529070854187e-01" purity="5.9326893091201782e-01" nType="-99"/>
            <Node pos="r" depth="3" NCoef="0" IVar="-1" Cut="0.0000000000000000e+00" cType="1" res="1.4980414416640997e-03" rms="3.2136046886444092e-01" purity="8.4966433048248291e-01" nType="-99"/>
          </Node>
        </Node>
        <Node pos="r" depth="1" NCoef="0" IVar="1" Cut="1.0059082812500000e+05" cType="1" res="2.7693298459053040e-01" rms="1.9469684362411499e-01" purity="9.5931696891784668e-01" nType="0">
          <Node pos="l" depth="2" NCoef="0" IVar="3" Cut="1.4230462500000000e+05" cType="1" res="2.5144088268280029e-01" rms="2.4861523509025574e-01" purity="9.3160963058471680e-01" nType="0">
            <Node pos="l" depth="3" NCoef="0" IVar="-1" Cut="0.0000000000000000e+00" cType="1" res="2.0275008864700794e-03" rms="2.9381513595581055e-01" purity="9.0237432718276978e-01" nType="-99"/>
            <Node pos="r" depth="3" NCoef="0" IVar="-1" Cut="0.0000000000000000e+00" cType="1" res="2.5938097387552261e-03" rms="1.1413227021694183e-01" purity="9.8679143190383911e-01" nType="-99"/>
          </Node>
          <Node pos="r" depth="2" NCoef="0" IVar="-1" Cut="0.0000000000000000e+00" cType="1" res="1.9941062200814486e-03" rms="1.2154447287321091e-01" purity="9.8480284214019775e-01" nType="-99"/>
        </Node>
      </Node>
    </BinaryTree>
    <BinaryTree type="DecisionTree" boostWeight="1.0000000000000000e+00" itree="151">
      <Node pos="s" depth="0" NCoef="0" IVar="3" Cut="4.8766871093750000e+04" cType="1" res="1.1810114234685898e-01" rms="3.1038898229598999e-01" purity="5.0037682056427002e-01" nType="0">
        <Node pos="l" depth="1" NCoef="0" IVar="4" Cut="2.7171815625000000e+05" cType="1" res="1.9440395757555962e-02" rms="3.0328842997550964e-01" purity="2.0143175125122070e-01" nType="0">
          <Node pos="l" depth="2" NCoef="0" IVar="1" Cut="1.0862093750000000e+05" cType="1" res="-3.6101300269365311e-02" rms="2.2984023392200470e-01" purity="9.3655459582805634e-02" nType="0">
            <Node pos="l" depth="3" NCoef="0" IVar="-1" Cut="0.0000000000000000e+00" cType="1" res="-1.0304959490895271e-02" rms="2.0603063702583313e-01" purity="5.2003890275955200e-02" nType="-99"/>
            <Node pos="r" depth="3" NCoef="0" IVar="-1" Cut="0.0000000000000000e+00" cType="1" res="1.3328253990039229e-03" rms="3.8610902428627014e-01" purity="5.6159597635269165e-01" nType="-99"/>
          </Node>
          <Node pos="r" depth="2" NCoef="0" IVar="3" Cut="3.4908808593750000e+04" cType="1" res="1.1438834667205811e-01" rms="3.8030812144279480e-01" purity="3.8567420840263367e-01" nType="0">
            <Node pos="l" depth="3" NCoef="0" IVar="-1" Cut="0.0000000000000000e+00" cType="1" res="1.9889969844371080e-03" rms="3.5762202739715576e-01" purity="2.3488162457942963e-01" nType="-99"/>
            <Node pos="r" depth="3" NCoef="0" IVar="-1" Cut="0.0000000000000000e+00" cType="1" res="1.2540671741589904e-03" rms="3.9558577537536621e-01" purity="6.7420172691345215e-01" nType="-99"/>
          </Node>
        </Node>
        <Node pos="r" depth="1" NCoef="0" IVar="1" Cut="1.0076934375000000e+05" cType="1" res="2.5209584832191467e-01" rms="2.6661717891693115e-01" purity="9.0638482570648193e-01" nType="0">
          <Node pos="l" depth="2" NCoef="0" IVar="1" Cut="8.3875593750000000e+04" cType="1" res="1.9930623471736908e-01" rms="3.4269124269485474e-01" purity="8.3202415704727173e-01" nType="0">
            <Node pos="l" depth="3" NCoef="0" IVar="-1" Cut="0.0000000000000000e+00" cType="1" res="2.0644166506826878e-03" rms="2.8005442023277283e-01" purity="9.0778887271881104e-01" nType="-99"/>
            <Node pos="r" depth="3" NCoef="0" IVar="-1" Cut="0.0000000000000000e+00" cType="1" res="6.0514546930789948e-04" rms="4.2897894978523254e-01" purity="6.5556669235229492e-01" nType="-99"/>
          </Node>
          <Node pos="r" depth="2" NCoef="0" IVar="2" Cut="3.2209987500000000e+05" cType="1" res="3.0085301399230957e-01" rms="1.5271459519863129e-01" purity="9.7506541013717651e-01" nType="0">
            <Node pos="l" depth="3" NCoef="0" IVar="-1" Cut="0.0000000000000000e+00" cType="1" res="2.5901671033352613e-03" rms="2.1557280421257019e-01" purity="9.4860404729843140e-01" nType="-99"/>
            <Node pos="r" depth="3" NCoef="0" IVar="-1" Cut="0.0000000000000000e+00" cType="1" res="1.4781559584662318e-03" rms="1.2756572663784027e-01" purity="9.8297256231307983e-01" nType="-99"/>
          </Node>
        </Node>
      </Node>
    </BinaryTree>
    <BinaryTree type="DecisionTree" boostWeight="1.0000000000000000e+00" itree="152">
      <Node pos="s" depth="0" NCoef="0" IVar="1" Cut="1.0036485156250000e+05" cType="1" res="1.0651118308305740e-01" rms="3.1039395928382874e-01" purity="4.7020000219345093e-01" nType="0">
        <Node pos="l" depth="1" NCoef="0" IVar="3" Cut="6.6098515625000000e+04" cType="1" res="3.2779961824417114e-02" rms="2.9321944713592529e-01" purity="2.9095646739006042e-01" nType="0">
          <Node pos="l" depth="2" NCoef="0" IVar="1" Cut="7.5124476562500000e+04" cType="1" res="-2.6597086340188980e-02" rms="2.7473440766334534e-01" purity="1.1808788031339645e-01" nType="0">
            <Node pos="l" depth="3" NCoef="0" IVar="-1" Cut="0.0000000000000000e+00" cType="1" res="2.3324207868427038e-03" rms="4.2532446980476379e-01" purity="3.8467645645141602e-01" nType="-99"/>
            <Node pos="r" depth="3" NCoef="0" IVar="-1" Cut="0.0000000000000000e+00" cType="1" res="-1.3063210994005203e-02" rms="1.9499921798706055e-01" purity="4.1001629084348679e-02" nType="-99"/>
          </Node>
          <Node pos="r" depth="2" NCoef="0" IVar="1" Cut="8.7758117187500000e+04" cType="1" res="2.5141507387161255e-01" rms="2.5268962979316711e-01" purity="9.2748427391052246e-01" nType="0">
            <Node pos="l" depth="3" NCoef="0" IVar="-1" Cut="0.0000000000000000e+00" cType="1" res="2.3495960049331188e-03" rms="2.1460612118244171e-01" purity="9.5018172264099121e-01" nType="-99"/>
            <Node pos="r" depth="3" NCoef="0" IVar="-1" Cut="0.0000000000000000e+00" cType="1" res="1.7076927470043302e-03" rms="4.0105274319648743e-01" purity="7.8641504049301147e-01" nType="-99"/>
          </Node>
        </Node>
        <Node pos="r" depth="1" NCoef="0" IVar="3" Cut="6.9110984375000000e+04" cType="1" res="2.5774568319320679e-01" rms="2.8911197185516357e-01" purity="8.3785718679428101e-01" nType="0">
          <Node pos="l" depth="2" NCoef="0" IVar="3" Cut="2.6596845703125000e+04" cType="1" res="2.2814829647541046e-01" rms="3.6057668924331665e-01" purity="7.3294407129287720e-01" nType="0">
            <Node pos="l" depth="3" NCoef="0" IVar="-1" Cut="0.0000000000000000e+00" cType="1" res="1.1848225258290768e-03" rms="4.4111859798431396e-01" purity="3.9293953776359558e-01" nType="-99"/>
            <Node pos="r" depth="3" NCoef="0" IVar="-1" Cut="0.0000000000000000e+00" cType="1" res="1.7840358195826411e-03" rms="2.9263523221015930e-01" purity="8.7757295370101929e-01" nType="-99"/>
          </Node>
          <Node pos="r" depth="2" NCoef="0" IVar="-1" Cut="0.0000000000000000e+00" cType="1" res="2.7725882828235626e-03" rms="1.2755940854549408e-01" purity="9.8340535163879395e-01" nType="-99"/>
        </Node>
      </Node>
    </BinaryTree>
    <BinaryTree type="DecisionTree" boostWeight="1.0000000000000000e+00" itree="153">
      <Node pos="s" depth="0" NCoef="0" IVar="3" Cut="6.8736484375000000e+04" cType="1" res="1.2255838513374329e-01" rms="3.1281688809394836e-01" purity="4.9878695607185364e-01" nType="0">
        <Node pos="l" depth="1" NCoef="0" IVar="3" Cut="3.9297226562500000e+04" cType="1" res="6.0639008879661560e-02" rms="3.2984024286270142e-01" purity="3.0765661597251892e-01" nType="0">
          <Node pos="l" depth="2" NCoef="0" IVar="1" Cut="9.6492640625000000e+04" cType="1" res="8.8133513927459717e-03" rms="2.8378513455390930e-01" purity="1.4603221416473389e-01" nType="0">
            <Node pos="l" depth="3" NCoef="0" IVar="-1" Cut="0.0000000000000000e+00" cType="1" res="-4.9892072565853596e-03" rms="2.1998250484466553e-01" purity="5.8368135243654251e-02" nType="-99"/>
            <Node pos="r" depth="3" NCoef="0" IVar="-1" Cut="0.0000000000000000e+00" cType="1" res="2.5265712756663561e-03" rms="4.0928614139556885e-01" purity="4.2625400424003601e-01" nType="-99"/>
          </Node>
          <Node pos="r" depth="2" NCoef="0" IVar="2" Cut="2.4966492187500000e+05" cType="1" res="1.9044218957424164e-01" rms="3.9496889710426331e-01" purity="7.1246314048767090e-01" nType="0">
            <Node pos="l" depth="3" NCoef="0" IVar="-1" Cut="0.0000000000000000e+00" cType="1" res="1.1054177302867174e-03" rms="4.5941549539566040e-01" purity="5.1894634962081909e-01" nType="-99"/>
            <Node pos="r" depth="3" NCoef="0" IVar="-1" Cut="0.0000000000000000e+00" cType="1" res="1.7658210126683116e-03" rms="3.5279223322868347e-01" purity="7.9167175292968750e-01" nType="-99"/>
          </Node>
        </Node>
        <Node pos="r" depth="1" NCoef="0" IVar="1" Cut="1.2527707812500000e+05" cType="1" res="2.7070227265357971e-01" rms="2.0139533281326294e-01" purity="9.5607173442840576e-01" nType="0">
          <Node pos="l" depth="2" NCoef="0" IVar="0" Cut="3.8095238804817200e-01" cType="1" res="2.3954424262046814e-01" rms="2.6121261715888977e-01" purity="9.2332744598388672e-01" nType="0">
            <Node pos="l" depth="3" NCoef="0" IVar="-1" Cut="0.0000000000000000e+00" cType="1" res="2.5807220954447985e-03" rms="1.8120695650577545e-01" purity="9.6395832300186157e-01" nType="-99"/>
            <Node pos="r" depth="3" NCoef="0" IVar="-1" Cut="0.0000000000000000e+00" cType="1" res="1.9920405466109514e-03" rms="2.9542368650436401e-01" purity="8.9988124370574951e-01" nType="-99"/>
          </Node>
          <Node pos="r" depth="2" NCoef="0" IVar="-1" Cut="0.0000000000000000e+00" cType="1" res="1.8379678949713707e-03" rms="9.1649182140827179e-02" purity="9.9153554439544678e-01" nType="-99"/>
        </Node>
      </Node>
    </BinaryTree>
    <BinaryTree type="DecisionTree" boostWeight="1.0000000000000000e+00" itree="154">
      <Node pos="s" depth="0" NCoef="0" IVar="1" Cut="1.0034389062500000e+05" cType="1" res="1.2086397409439087e-01" rms="3.0951538681983948e-01" purity="4.9575316905975342e-01" nType="0">
        <Node pos="l" depth="1" NCoef="0" IVar="1" Cut="7.9300140625000000e+04" cType="1" res="4.5503858476877213e-02" rms="2.9830488562583923e-01" purity="3.0667993426322937e-01" nType="0">
          <Node pos="l" depth="2" NCoef="0" IVar="3" Cut="1.9392296875000000e+04" cType="1" res="1.9732207059860229e-01" rms="3.5054141283035278e-01" purity="6.3739436864852905e-01" nType="0">
            <Node pos="l" depth="3" NCoef="0" IVar="-1" Cut="0.0000000000000000e+00" cType="1" res="1.1730241385521367e-04" rms="3.1873449683189392e-01" purity="1.2062872201204300e-01" nType="-99"/>
            <Node pos="r" depth="3" NCoef="0" IVar="-1" Cut="0.0000000000000000e+00" cType="1" res="3.0324838589876890e-03" rms="3.4095716476440430e-01" purity="7.6793587207794189e-01" nType="-99"/>
          </Node>
          <Node pos="r" depth="2" NCoef="0" IVar="3" Cut="8.3919585937500000e+04" cType="1" res="-4.1547659784555435e-02" rms="2.2081108391284943e-01" purity="1.1705050617456436e-01" nType="0">
            <Node pos="l" depth="3" NCoef="0" IVar="-1" Cut="0.0000000000000000e+00" cType="1" res="-7.3600467294454575e-03" rms="2.0322209596633911e-01" purity="6.4227491617202759e-02" nType="-99"/>
            <Node pos="r" depth="3" NCoef="0" IVar="-1" Cut="0.0000000000000000e+00" cType="1" res="1.9929010886698961e-03" rms="2.9267168045043945e-01" purity="9.0352946519851685e-01" nType="-99"/>
          </Node>
        </Node>
        <Node pos="r" depth="1" NCoef="0" IVar="3" Cut="6.9086539062500000e+04" cType="1" res="2.6247203350067139e-01" rms="2.7906873822212219e-01" purity="8.5103785991668701e-01" nType="0">
          <Node pos="l" depth="2" NCoef="0" IVar="3" Cut="2.3311705078125000e+04" cType="1" res="2.2798478603363037e-01" rms="3.6866086721420288e-01" purity="7.2638785839080811e-01" nType="0">
            <Node pos="l" depth="3" NCoef="0" IVar="-1" Cut="0.0000000000000000e+00" cType="1" res="1.4604798052459955e-03" rms="4.1039973497390747e-01" purity="4.8619130253791809e-01" nType="-99"/>
            <Node pos="r" depth="3" NCoef="0" IVar="-1" Cut="0.0000000000000000e+00" cType="1" res="1.8588346429169178e-03" rms="3.3616358041763306e-01" purity="8.3611875772476196e-01" nType="-99"/>
          </Node>
          <Node pos="r" depth="2" NCoef="0" IVar="-1" Cut="0.0000000000000000e+00" cType="1" res="1.9313805969431996e-03" rms="1.0453805327415466e-01" purity="9.8889672756195068e-01" nType="-99"/>
        </Node>
      </Node>
    </BinaryTree>
    <BinaryTree type="DecisionTree" boostWeight="1.0000000000000000e+00" itree="155">
      <Node pos="s" depth="0" NCoef="0" IVar="3" Cut="5.4198226562500000e+04" cType="1" res="1.1934033781290054e-01" rms="3.0049148201942444e-01" purity="5.0298452377319336e-01" nType="0">
        <Node pos="l" depth="1" NCoef="0" IVar="2" Cut="3.5521587500000000e+05" cType="1" res="2.5633944198489189e-02" rms="3.0709707736968994e-01" purity="2.2166913747787476e-01" nType="0">
          <Node pos="l" depth="2" NCoef="0" IVar="0" Cut="1.1428571939468384e+00" cType="1" res="-1.0058147832751274e-02" rms="2.8187337517738342e-01" purity="1.3532029092311859e-01" nType="0">
            <Node pos="l" depth="3" NCoef="0" IVar="-1" Cut="0.0000000000000000e+00" cType="1" res="-3.2864806707948446e-03" rms="2.4993173778057098e-01" purity="9.7480066120624542e-02" nType="-99"/>
            <Node pos="r" depth="3" NCoef="0" IVar="-1" Cut="0.0000000000000000e+00" cType="1" res="3.5407601390033960e-03" rms="3.8646802306175232e-01" purity="3.2730033993721008e-01" nType="-99"/>
          </Node>
          <Node pos="r" depth="2" NCoef="0" IVar="3" Cut="2.8405869140625000e+04" cType="1" res="1.4328342676162720e-01" rms="3.5388830304145813e-01" purity="5.0629520416259766e-01" nType="0">
            <Node pos="l" depth="3" NCoef="0" IVar="-1" Cut="0.0000000000000000e+00" cType="1" res="1.3626922154799104e-03" rms="3.2932686805725098e-01" purity="2.9303804039955139e-01" nType="-99"/>
            <Node pos="r" depth="3" NCoef="0" IVar="-1" Cut="0.0000000000000000e+00" cType="1" res="1.0507366387173533e-03" rms="3.5206511616706848e-01" purity="7.0831644535064697e-01" nType="-99"/>
          </Node>
        </Node>
        <Node pos="r" depth="1" NCoef="0" IVar="1" Cut="1.2571450000000000e+05" cType="1" res="2.6492586731910706e-01" rms="2.2186076641082764e-01" purity="9.4004595279693604e-01" nType="0">
          <Node pos="l" depth="2" NCoef="0" IVar="3" Cut="7.9598726562500000e+04" cType="1" res="2.3920282721519470e-01" rms="2.6856306195259094e-01" purity="9.0841352939605713e-01" nType="0">
            <Node pos="l" depth="3" NCoef="0" IVar="-1" Cut="0.0000000000000000e+00" cType="1" res="1.1063982965424657e-03" rms="4.0292987227439880e-01" purity="7.6457583904266357e-01" nType="-99"/>
            <Node pos="r" depth="3" NCoef="0" IVar="-1" Cut="0.0000000000000000e+00" cType="1" res="2.3709202650934458e-03" rms="1.7747797071933746e-01" purity="9.6668517589569092e-01" nType="-99"/>
          </Node>
          <Node pos="r" depth="2" NCoef="0" IVar="-1" Cut="0.0000000000000000e+00" cType="1" res="1.6793616814538836e-03" rms="1.1165960133075714e-01" purity="9.8739188909530640e-01" nType="-99"/>
        </Node>
      </Node>
    </BinaryTree>
    <BinaryTree type="DecisionTree" boostWeight="1.0000000000000000e+00" itree="156">
      <Node pos="s" depth="0" NCoef="0" IVar="3" Cut="6.8798242187500000e+04" cType="1" res="1.0727862268686295e-01" rms="3.0329442024230957e-01" purity="4.8197373747825623e-01" nType="0">
        <Node pos="l" depth="1" NCoef="0" IVar="2" Cut="2.7508584375000000e+05" cType="1" res="3.4256719052791595e-02" rms="3.1471049785614014e-01" purity="2.7195197343826294e-01" nType="0">
          <Node pos="l" depth="2" NCoef="0" IVar="1" Cut="6.1428265625000000e+04" cType="1" res="-2.6198862120509148e-02" rms="2.6211497187614441e-01" purity="1.3619208335876465e-01" nType="0">
            <Node pos="l" depth="3" NCoef="0" IVar="-1" Cut="0.0000000000000000e+00" cType="1" res="2.1744279656559229e-03" rms="3.9490386843681335e-01" purity="3.4088233113288879e-01" nType="-99"/>
            <Node pos="r" depth="3" NCoef="0" IVar="-1" Cut="0.0000000000000000e+00" cType="1" res="-3.5968557931482792e-03" rms="2.1816192567348480e-01" purity="9.2369213700294495e-02" nType="-99"/>
          </Node>
          <Node pos="r" depth="2" NCoef="0" IVar="3" Cut="3.6163878906250000e+04" cType="1" res="1.0922025144100189e-01" rms="3.5568267107009888e-01" purity="4.4029110670089722e-01" nType="0">
            <Node pos="l" depth="3" NCoef="0" IVar="-1" Cut="0.0000000000000000e+00" cType="1" res="1.0966360569000244e-03" rms="3.3085954189300537e-01" purity="2.4101252853870392e-01" nType="-99"/>
            <Node pos="r" depth="3" NCoef="0" IVar="-1" Cut="0.0000000000000000e+00" cType="1" res="2.0558037795126438e-03" rms="3.7044650316238403e-01" purity="7.3800581693649292e-01" nType="-99"/>
          </Node>
        </Node>
        <Node pos="r" depth="1" NCoef="0" IVar="1" Cut="9.5199343750000000e+04" cType="1" res="2.7390190958976746e-01" rms="1.8962676823139191e-01" purity="9.6120679378509521e-01" nType="0">
          <Node pos="l" depth="2" NCoef="0" IVar="1" Cut="8.7293304687500000e+04" cType="1" res="2.4393111467361450e-01" rms="2.4276502430438995e-01" purity="9.3373483419418335e-01" nType="0">
            <Node pos="l" depth="3" NCoef="0" IVar="-1" Cut="0.0000000000000000e+00" cType="1" res="2.2662165574729443e-03" rms="2.0835271477699280e-01" purity="9.5331919193267822e-01" nType="-99"/>
            <Node pos="r" depth="3" NCoef="0" IVar="-1" Cut="0.0000000000000000e+00" cType="1" res="8.3495356375351548e-04" rms="4.3683189153671265e-01" purity="7.2640466690063477e-01" nType="-99"/>
          </Node>
          <Node pos="r" depth="2" NCoef="0" IVar="4" Cut="5.1789737500000000e+05" cType="1" res="2.9614511132240295e-01" rms="1.3320875167846680e-01" purity="9.8159551620483398e-01" nType="0">
            <Node pos="l" depth="3" NCoef="0" IVar="-1" Cut="0.0000000000000000e+00" cType="1" res="2.0434428006410599e-03" rms="1.2583400309085846e-01" purity="9.8356264829635620e-01" nType="-99"/>
            <Node pos="r" depth="3" NCoef="0" IVar="-1" Cut="0.0000000000000000e+00" cType="1" res="2.4218123871833086e-03" rms="1.4313898980617523e-01" purity="9.7869068384170532e-01" nType="-99"/>
          </Node>
        </Node>
      </Node>
    </BinaryTree>
    <BinaryTree type="DecisionTree" boostWeight="1.0000000000000000e+00" itree="157">
      <Node pos="s" depth="0" NCoef="0" IVar="1" Cut="1.0034389062500000e+05" cType="1" res="1.2242016941308975e-01" rms="3.0688536167144775e-01" purity="4.9993497133255005e-01" nType="0">
        <Node pos="l" depth="1" NCoef="0" IVar="3" Cut="7.5697859375000000e+04" cType="1" res="4.0974818170070648e-02" rms="2.9235455393791199e-01" purity="3.0079779028892517e-01" nType="0">
          <Node pos="l" depth="2" NCoef="0" IVar="3" Cut="6.8480921875000000e+04" cType="1" res="-6.9688307121396065e-03" rms="2.8670540452003479e-01" purity="1.5692560374736786e-01" nType="0">
            <Node pos="l" depth="3" NCoef="0" IVar="-1" Cut="0.0000000000000000e+00" cType="1" res="-1.9074652809649706e-03" rms="2.7741467952728271e-01" purity="1.1333706229925156e-01" nType="-99"/>
            <Node pos="r" depth="3" NCoef="0" IVar="-1" Cut="0.0000000000000000e+00" cType="1" res="2.3005034308880568e-03" rms="3.0173021554946899e-01" purity="8.9752167463302612e-01" nType="-99"/>
          </Node>
          <Node pos="r" depth="2" NCoef="0" IVar="1" Cut="8.7654406250000000e+04" cType="1" res="2.5858932733535767e-01" rms="2.0622740685939789e-01" purity="9.5382833480834961e-01" nType="0">
            <Node pos="l" depth="3" NCoef="0" IVar="-1" Cut="0.0000000000000000e+00" cType="1" res="2.2607450373470783e-03" rms="1.6939876973628998e-01" purity="9.7010821104049683e-01" nType="-99"/>
            <Node pos="r" depth="3" NCoef="0" IVar="-1" Cut="0.0000000000000000e+00" cType="1" res="1.9189093727618456e-03" rms="3.7725168466567993e-01" purity="8.1952846050262451e-01" nType="-99"/>
          </Node>
        </Node>
        <Node pos="r" depth="1" NCoef="0" IVar="4" Cut="2.9946140625000000e+05" cType="1" res="2.6774033904075623e-01" rms="2.7705854177474976e-01" purity="8.5524868965148926e-01" nType="0">
          <Node pos="l" depth="2" NCoef="0" IVar="3" Cut="3.4684500000000000e+04" cType="1" res="2.1688689291477203e-01" rms="3.4049218893051147e-01" purity="7.1481257677078247e-01" nType="0">
            <Node pos="l" depth="3" NCoef="0" IVar="-1" Cut="0.0000000000000000e+00" cType="1" res="1.1043717386201024e-03" rms="4.0006756782531738e-01" purity="3.5647466778755188e-01" nType="-99"/>
            <Node pos="r" depth="3" NCoef="0" IVar="-1" Cut="0.0000000000000000e+00" cType="1" res="2.4348965380340815e-03" rms="2.5882762670516968e-01" purity="9.2027413845062256e-01" nType="-99"/>
          </Node>
          <Node pos="r" depth="2" NCoef="0" IVar="2" Cut="4.5939025000000000e+05" cType="1" res="2.9017636179924011e-01" rms="2.4048733711242676e-01" purity="9.1720765829086304e-01" nType="0">
            <Node pos="l" depth="3" NCoef="0" IVar="-1" Cut="0.0000000000000000e+00" cType="1" res="1.5253141755238175e-03" rms="2.5476127862930298e-01" purity="9.0362215042114258e-01" nType="-99"/>
            <Node pos="r" depth="3" NCoef="0" IVar="-1" Cut="0.0000000000000000e+00" cType="1" res="1.3790039811283350e-03" rms="2.2057762742042542e-01" purity="9.3421560525894165e-01" nType="-99"/>
          </Node>
        </Node>
      </Node>
    </BinaryTree>
    <BinaryTree type="DecisionTree" boostWeight="1.0000000000000000e+00" itree="158">
      <Node pos="s" depth="0" NCoef="0" IVar="3" Cut="4.4570152343750000e+04" cType="1" res="1.2330406904220581e-01" rms="3.0763971805572510e-01" purity="5.1086229085922241e-01" nType="0">
        <Node pos="l" depth="1" NCoef="0" IVar="4" Cut="2.4874518750000000e+05" cType="1" res="1.3331271708011627e-02" rms="2.9651489853858948e-01" purity="1.6571344435214996e-01" nType="0">
          <Node pos="l" depth="2" NCoef="0" IVar="1" Cut="2.9560048828125000e+04" cType="1" res="-2.2184155881404877e-02" rms="2.4615038931369781e-01" purity="8.0830991268157959e-02" nType="0">
            <Node pos="l" depth="3" NCoef="0" IVar="-1" Cut="0.0000000000000000e+00" cType="1" res="-6.6997729241847992e-02" rms="6.3752777874469757e-02" purity="0.0000000000000000e+00" nType="-99"/>
            <Node pos="r" depth="3" NCoef="0" IVar="-1" Cut="0.0000000000000000e+00" cType="1" res="-1.8808230524882674e-03" rms="2.5039866566658020e-01" purity="8.5362955927848816e-02" nType="-99"/>
          </Node>
          <Node pos="r" depth="2" NCoef="0" IVar="3" Cut="3.6132289062500000e+04" cType="1" res="6.6521413624286652e-02" rms="3.5232877731323242e-01" purity="2.9283872246742249e-01" nType="0">
            <Node pos="l" depth="3" NCoef="0" IVar="-1" Cut="0.0000000000000000e+00" cType="1" res="1.6552914166823030e-03" rms="3.3022317290306091e-01" purity="2.2283479571342468e-01" nType="-99"/>
            <Node pos="r" depth="3" NCoef="0" IVar="-1" Cut="0.0000000000000000e+00" cType="1" res="2.2951930295675993e-03" rms="4.1310742497444153e-01" purity="5.9479194879531860e-01" nType="-99"/>
          </Node>
        </Node>
        <Node pos="r" depth="1" NCoef="0" IVar="3" Cut="8.6861695312500000e+04" cType="1" res="2.4502654373645782e-01" rms="2.7180665731430054e-01" purity="8.9288741350173950e-01" nType="0">
          <Node pos="l" depth="2" NCoef="0" IVar="1" Cut="1.0405813281250000e+05" cType="1" res="2.0740446448326111e-01" rms="3.5479009151458740e-01" purity="8.0564260482788086e-01" nType="0">
            <Node pos="l" depth="3" NCoef="0" IVar="-1" Cut="0.0000000000000000e+00" cType="1" res="1.3136055786162615e-03" rms="4.1341626644134521e-01" purity="7.0548629760742188e-01" nType="-99"/>
            <Node pos="r" depth="3" NCoef="0" IVar="-1" Cut="0.0000000000000000e+00" cType="1" res="2.0964969880878925e-03" rms="2.1955683827400208e-01" purity="9.4788205623626709e-01" nType="-99"/>
          </Node>
          <Node pos="r" depth="2" NCoef="0" IVar="1" Cut="1.2544667187500000e+05" cType="1" res="2.8292077779769897e-01" rms="1.3654264807701111e-01" purity="9.8076331615447998e-01" nType="0">
            <Node pos="l" depth="3" NCoef="0" IVar="-1" Cut="0.0000000000000000e+00" cType="1" res="2.5779546704143286e-03" rms="1.5355947613716125e-01" purity="9.7532516717910767e-01" nType="-99"/>
            <Node pos="r" depth="3" NCoef="0" IVar="-1" Cut="0.0000000000000000e+00" cType="1" res="1.8648752011358738e-03" rms="1.0146030783653259e-01" purity="9.8962014913558960e-01" nType="-99"/>
          </Node>
        </Node>
      </Node>
    </BinaryTree>
    <BinaryTree type="DecisionTree" boostWeight="1.0000000000000000e+00" itree="159">
      <Node pos="s" depth="0" NCoef="0" IVar="3" Cut="5.4305199218750000e+04" cType="1" res="1.1972764879465103e-01" rms="3.0890420079231262e-01" purity="4.9734270572662354e-01" nType="0">
        <Node pos="l" depth="1" NCoef="0" IVar="3" Cut="2.8524507812500000e+04" cType="1" res="4.1245959699153900e-02" rms="3.1729802489280701e-01" purity="2.4081724882125854e-01" nType="0">
          <Node pos="l" depth="2" NCoef="0" IVar="5" Cut="9.0700601562500000e+04" cType="1" res="-1.1370107531547546e-02" rms="2.4234665930271149e-01" purity="1.0269117355346680e-01" nType="0">
            <Node pos="l" depth="3" NCoef="0" IVar="-1" Cut="0.0000000000000000e+00" cType="1" res="1.3717022957280278e-03" rms="2.9045069217681885e-01" purity="1.6418933868408203e-01" nType="-99"/>
            <Node pos="r" depth="3" NCoef="0" IVar="-1" Cut="0.0000000000000000e+00" cType="1" res="-1.0994094423949718e-02" rms="1.7752084136009216e-01" purity="4.3917480856180191e-02" nType="-99"/>
          </Node>
          <Node pos="r" depth="2" NCoef="0" IVar="1" Cut="9.8518046875000000e+04" cType="1" res="1.3205167651176453e-01" rms="4.0005734562873840e-01" purity="4.7919765114784241e-01" nType="0">
            <Node pos="l" depth="3" NCoef="0" IVar="-1" Cut="0.0000000000000000e+00" cType="1" res="1.4399628853425384e-03" rms="4.0533378720283508e-01" purity="2.8384619951248169e-01" nType="-99"/>
            <Node pos="r" depth="3" NCoef="0" IVar="-1" Cut="0.0000000000000000e+00" cType="1" res="2.2322400473058224e-03" rms="3.4098255634307861e-01" purity="8.1987690925598145e-01" nType="-99"/>
          </Node>
        </Node>
        <Node pos="r" depth="1" NCoef="0" IVar="1" Cut="1.0076934375000000e+05" cType="1" res="2.5121578574180603e-01" rms="2.4291357398033142e-01" purity="9.2712515592575073e-01" nType="0">
          <Node pos="l" depth="2" NCoef="0" IVar="1" Cut="8.8098734375000000e+04" cType="1" res="1.9463966786861420e-01" rms="3.1979799270629883e-01" purity="8.6117631196975708e-01" nType="0">
            <Node pos="l" depth="3" NCoef="0" IVar="-1" Cut="0.0000000000000000e+00" cType="1" res="2.1747676655650139e-03" rms="2.7230662107467651e-01" purity="9.0785348415374756e-01" nType="-99"/>
            <Node pos="r" depth="3" NCoef="0" IVar="-1" Cut="0.0000000000000000e+00" cType="1" res="-8.4360846085473895e-04" rms="4.6293649077415466e-01" purity="5.6040763854980469e-01" nType="-99"/>
          </Node>
          <Node pos="r" depth="2" NCoef="0" IVar="0" Cut="1.1428571939468384e+00" cType="1" res="2.9456499218940735e-01" rms="1.4671808481216431e-01" purity="9.7765588760375977e-01" nType="0">
            <Node pos="l" depth="3" NCoef="0" IVar="-1" Cut="0.0000000000000000e+00" cType="1" res="1.9772918894886971e-03" rms="1.4146919548511505e-01" purity="9.7936773300170898e-01" nType="-99"/>
            <Node pos="r" depth="3" NCoef="0" IVar="-1" Cut="0.0000000000000000e+00" cType="1" res="2.4763052351772785e-03" rms="1.5786364674568176e-01" purity="9.7362929582595825e-01" nType="-99"/>
          </Node>
        </Node>
      </Node>
    </BinaryTree>
    <BinaryTree type="DecisionTree" boostWeight="1.0000000000000000e+00" itree="160">
      <Node pos="s" depth="0" NCoef="0" IVar="3" Cut="4.4570152343750000e+04" cType="1" res="1.2583482265472412e-01" rms="3.0935460329055786e-01" purity="5.0439357757568359e-01" nType="0">
        <Node pos="l" depth="1" NCoef="0" IVar="4" Cut="2.7294937500000000e+05" cType="1" res="3.2478731125593185e-02" rms="3.1031322479248047e-01" purity="1.9320833683013916e-01" nType="0">
          <Node pos="l" depth="2" NCoef="0" IVar="1" Cut="8.2153039062500000e+04" cType="1" res="-2.2754094097763300e-03" rms="2.7054756879806519e-01" purity="1.1120752245187759e-01" nType="0">
            <Node pos="l" depth="3" NCoef="0" IVar="-1" Cut="0.0000000000000000e+00" cType="1" res="4.4110622256994247e-03" rms="4.0430718660354614e-01" purity="2.3379006981849670e-01" nType="-99"/>
            <Node pos="r" depth="3" NCoef="0" IVar="-1" Cut="0.0000000000000000e+00" cType="1" res="-4.0574492886662483e-03" rms="1.9632458686828613e-01" purity="6.9176875054836273e-02" nType="-99"/>
          </Node>
          <Node pos="r" depth="2" NCoef="0" IVar="3" Cut="8.8620937500000000e+03" cType="1" res="9.9715046584606171e-02" rms="3.6622872948646545e-01" purity="3.5184934735298157e-01" nType="0">
            <Node pos="l" depth="3" NCoef="0" IVar="-1" Cut="0.0000000000000000e+00" cType="1" res="-5.7650711387395859e-02" rms="1.4823094010353088e-01" purity="0.0000000000000000e+00" nType="-99"/>
            <Node pos="r" depth="3" NCoef="0" IVar="-1" Cut="0.0000000000000000e+00" cType="1" res="2.9767765663564205e-03" rms="3.7350550293922424e-01" purity="3.8423991203308105e-01" nType="-99"/>
          </Node>
        </Node>
        <Node pos="r" depth="1" NCoef="0" IVar="1" Cut="1.2505362500000000e+05" cType="1" res="2.4290913343429565e-01" rms="2.6517793536186218e-01" purity="8.9463919401168823e-01" nType="0">
          <Node pos="l" depth="2" NCoef="0" IVar="3" Cut="7.5423195312500000e+04" cType="1" res="1.8913353979587555e-01" rms="3.3615756034851074e-01" purity="8.1538224220275879e-01" nType="0">
            <Node pos="l" depth="3" NCoef="0" IVar="-1" Cut="0.0000000000000000e+00" cType="1" res="6.3866254640743136e-04" rms="4.4849127531051636e-01" purity="6.1046653985977173e-01" nType="-99"/>
            <Node pos="r" depth="3" NCoef="0" IVar="-1" Cut="0.0000000000000000e+00" cType="1" res="2.4999906308948994e-03" rms="1.9880886375904083e-01" purity="9.5692771673202515e-01" nType="-99"/>
          </Node>
          <Node pos="r" depth="2" NCoef="0" IVar="3" Cut="8.6934140625000000e+04" cType="1" res="3.0425462126731873e-01" rms="1.2069065123796463e-01" purity="9.8505300283432007e-01" nType="0">
            <Node pos="l" depth="3" NCoef="0" IVar="-1" Cut="0.0000000000000000e+00" cType="1" res="2.2366347257047892e-03" rms="1.4511768519878387e-01" purity="9.7813320159912109e-01" nType="-99"/>
            <Node pos="r" depth="3" NCoef="0" IVar="-1" Cut="0.0000000000000000e+00" cType="1" res="2.6037117931991816e-03" rms="8.9232429862022400e-02" purity="9.9197769165039062e-01" nType="-99"/>
          </Node>
        </Node>
      </Node>
    </BinaryTree>
    <BinaryTree type="DecisionTree" boostWeight="1.0000000000000000e+00" itree="161">
      <Node pos="s" depth="0" NCoef="0" IVar="3" Cut="6.8843453125000000e+04" cType="1" res="1.1921236664056778e-01" rms="3.0637332797050476e-01" purity="5.0033283233642578e-01" nType="0">
        <Node pos="l" depth="1" NCoef="0" IVar="3" Cut="2.6324750000000000e+04" cType="1" res="5.0431627780199051e-02" rms="3.2495349645614624e-01" purity="2.9099988937377930e-01" nType="0">
          <Node pos="l" depth="2" NCoef="0" IVar="3" Cut="1.0134005859375000e+04" cType="1" res="-1.2300768867135048e-02" rms="2.4364709854125977e-01" purity="8.9310750365257263e-02" nType="0">
            <Node pos="l" depth="3" NCoef="0" IVar="-1" Cut="0.0000000000000000e+00" cType="1" res="-3.5308297723531723e-02" rms="1.1846258491277695e-01" purity="1.0649695061147213e-02" nType="-99"/>
            <Node pos="r" depth="3" NCoef="0" IVar="-1" Cut="0.0000000000000000e+00" cType="1" res="6.9321022601798177e-04" rms="2.8097277879714966e-01" purity="1.2557487189769745e-01" nType="-99"/>
          </Node>
          <Node pos="r" depth="2" NCoef="0" IVar="2" Cut="2.6811459375000000e+05" cType="1" res="1.2185405939817429e-01" rms="3.8554912805557251e-01" purity="5.2062809467315674e-01" nType="0">
            <Node pos="l" depth="3" NCoef="0" IVar="-1" Cut="0.0000000000000000e+00" cType="1" res="7.4112287256866693e-04" rms="3.8280829787254333e-01" purity="3.5527017712593079e-01" nType="-99"/>
            <Node pos="r" depth="3" NCoef="0" IVar="-1" Cut="0.0000000000000000e+00" cType="1" res="1.8303903052583337e-03" rms="3.7464293837547302e-01" purity="6.4806020259857178e-01" nType="-99"/>
          </Node>
        </Node>
        <Node pos="r" depth="1" NCoef="0" IVar="1" Cut="1.0076934375000000e+05" cType="1" res="2.7105578780174255e-01" rms="1.8565632402896881e-01" purity="9.6246564388275146e-01" nType="0">
          <Node pos="l" depth="2" NCoef="0" IVar="1" Cut="8.8145203125000000e+04" cType="1" res="2.4762549996376038e-01" rms="2.3831932246685028e-01" purity="9.3584376573562622e-01" nType="0">
            <Node pos="l" depth="3" NCoef="0" IVar="-1" Cut="0.0000000000000000e+00" cType="1" res="1.8394491635262966e-03" rms="1.9021016359329224e-01" purity="9.6159166097640991e-01" nType="-99"/>
            <Node pos="r" depth="3" NCoef="0" IVar="-1" Cut="0.0000000000000000e+00" cType="1" res="8.9388259220868349e-04" rms="4.1807776689529419e-01" purity="7.5660544633865356e-01" nType="-99"/>
          </Node>
          <Node pos="r" depth="2" NCoef="0" IVar="-1" Cut="0.0000000000000000e+00" cType="1" res="1.8721373053267598e-03" rms="1.2221131473779678e-01" purity="9.8474830389022827e-01" nType="-99"/>
        </Node>
      </Node>
    </BinaryTree>
    <BinaryTree type="DecisionTree" boostWeight="1.0000000000000000e+00" itree="162">
      <Node pos="s" depth="0" NCoef="0" IVar="3" Cut="4.4463175781250000e+04" cType="1" res="1.1779338121414185e-01" rms="3.0434146523475647e-01" purity="4.9906989932060242e-01" nType="0">
        <Node pos="l" depth="1" NCoef="0" IVar="5" Cut="9.6355484375000000e+04" cType="1" res="1.7034916207194328e-02" rms="2.9486924409866333e-01" purity="1.6990390419960022e-01" nType="0">
          <Node pos="l" depth="2" NCoef="0" IVar="1" Cut="1.5585303125000000e+05" cType="1" res="7.8657101839780807e-03" rms="2.8551322221755981e-01" purity="1.5695904195308685e-01" nType="0">
            <Node pos="l" depth="3" NCoef="0" IVar="-1" Cut="0.0000000000000000e+00" cType="1" res="-5.0793209811672568e-04" rms="2.6798513531684875e-01" purity="1.0894643515348434e-01" nType="-99"/>
            <Node pos="r" depth="3" NCoef="0" IVar="-1" Cut="0.0000000000000000e+00" cType="1" res="2.1499607246369123e-03" rms="4.1753342747688293e-01" purity="7.5846487283706665e-01" nType="-99"/>
          </Node>
          <Node pos="r" depth="2" NCoef="0" IVar="-1" Cut="0.0000000000000000e+00" cType="1" res="1.4630219666287303e-03" rms="4.1462612152099609e-01" purity="5.8720386028289795e-01" nType="-99"/>
        </Node>
        <Node pos="r" depth="1" NCoef="0" IVar="1" Cut="1.0059082812500000e+05" cType="1" res="2.3748156428337097e-01" rms="2.7015006542205811e-01" purity="8.9007699489593506e-01" nType="0">
          <Node pos="l" depth="2" NCoef="0" IVar="1" Cut="8.3764500000000000e+04" cType="1" res="1.6468867659568787e-01" rms="3.4624660015106201e-01" purity="7.8989368677139282e-01" nType="0">
            <Node pos="l" depth="3" NCoef="0" IVar="-1" Cut="0.0000000000000000e+00" cType="1" res="2.2352475207298994e-03" rms="2.7458962798118591e-01" purity="9.0428447723388672e-01" nType="-99"/>
            <Node pos="r" depth="3" NCoef="0" IVar="-1" Cut="0.0000000000000000e+00" cType="1" res="8.6627573182340711e-05" rms="4.0986141562461853e-01" purity="5.7047080993652344e-01" nType="-99"/>
          </Node>
          <Node pos="r" depth="2" NCoef="0" IVar="0" Cut="3.3333334326744080e-01" cType="1" res="2.9541763663291931e-01" rms="1.6755530238151550e-01" purity="9.6981316804885864e-01" nType="0">
            <Node pos="l" depth="3" NCoef="0" IVar="-1" Cut="0.0000000000000000e+00" cType="1" res="2.0646334160119295e-03" rms="1.5851916372776031e-01" purity="9.7449070215225220e-01" nType="-99"/>
            <Node pos="r" depth="3" NCoef="0" IVar="-1" Cut="0.0000000000000000e+00" cType="1" res="2.3137165699154139e-03" rms="1.7233239114284515e-01" purity="9.6670889854431152e-01" nType="-99"/>
          </Node>
        </Node>
      </Node>
    </BinaryTree>
    <BinaryTree type="DecisionTree" boostWeight="1.0000000000000000e+00" itree="163">
      <Node pos="s" depth="0" NCoef="0" IVar="3" Cut="6.8736484375000000e+04" cType="1" res="1.2036970257759094e-01" rms="3.1038352847099304e-01" purity="5.0181770324707031e-01" nType="0">
        <Node pos="l" depth="1" NCoef="0" IVar="1" Cut="1.2715934375000000e+05" cType="1" res="4.8094503581523895e-02" rms="3.3268067240715027e-01" purity="2.7715608477592468e-01" nType="0">
          <Node pos="l" depth="2" NCoef="0" IVar="1" Cut="7.7793375000000000e+04" cType="1" res="2.5520719587802887e-02" rms="3.2141342759132385e-01" purity="1.9357906281948090e-01" nType="0">
            <Node pos="l" depth="3" NCoef="0" IVar="-1" Cut="0.0000000000000000e+00" cType="1" res="3.2122130505740643e-03" rms="4.2501398921012878e-01" purity="4.2683640122413635e-01" nType="-99"/>
            <Node pos="r" depth="3" NCoef="0" IVar="-1" Cut="0.0000000000000000e+00" cType="1" res="-9.8912243265658617e-04" rms="2.7334147691726685e-01" purity="1.2661692500114441e-01" nType="-99"/>
          </Node>
          <Node pos="r" depth="2" NCoef="0" IVar="3" Cut="1.6391863281250000e+04" cType="1" res="1.8800182640552521e-01" rms="3.6554178595542908e-01" purity="7.9514807462692261e-01" nType="0">
            <Node pos="l" depth="3" NCoef="0" IVar="-1" Cut="0.0000000000000000e+00" cType="1" res="-4.5823450200259686e-03" rms="4.6655774116516113e-01" purity="2.8648075461387634e-01" nType="-99"/>
            <Node pos="r" depth="3" NCoef="0" IVar="-1" Cut="0.0000000000000000e+00" cType="1" res="2.3451044689863920e-03" rms="3.2890039682388306e-01" purity="8.5870540142059326e-01" nType="-99"/>
          </Node>
        </Node>
        <Node pos="r" depth="1" NCoef="0" IVar="1" Cut="1.0105126562500000e+05" cType="1" res="2.6872780919075012e-01" rms="1.8485882878303528e-01" purity="9.6297693252563477e-01" nType="0">
          <Node pos="l" depth="2" NCoef="0" IVar="1" Cut="8.8404132812500000e+04" cType="1" res="2.4456557631492615e-01" rms="2.3744753003120422e-01" purity="9.3680542707443237e-01" nType="0">
            <Node pos="l" depth="3" NCoef="0" IVar="-1" Cut="0.0000000000000000e+00" cType="1" res="2.6251028757542372e-03" rms="2.0471937954425812e-01" purity="9.5502281188964844e-01" nType="-99"/>
            <Node pos="r" depth="3" NCoef="0" IVar="-1" Cut="0.0000000000000000e+00" cType="1" res="1.6100303037092090e-03" rms="3.8569569587707520e-01" purity="8.0585962533950806e-01" nType="-99"/>
          </Node>
          <Node pos="r" depth="2" NCoef="0" IVar="-1" Cut="0.0000000000000000e+00" cType="1" res="1.8200406339019537e-03" rms="1.1588574200868607e-01" purity="9.8626470565795898e-01" nType="-99"/>
        </Node>
      </Node>
    </BinaryTree>
    <BinaryTree type="DecisionTree" boostWeight="1.0000000000000000e+00" itree="164">
      <Node pos="s" depth="0" NCoef="0" IVar="1" Cut="1.0034835937500000e+05" cType="1" res="1.2446191906929016e-01" rms="3.1095361709594727e-01" purity="5.1037675142288208e-01" nType="0">
        <Node pos="l" depth="1" NCoef="0" IVar="1" Cut="8.3520718750000000e+04" cType="1" res="5.0058361142873764e-02" rms="3.1658080220222473e-01" purity="3.0477547645568848e-01" nType="0">
          <Node pos="l" depth="2" NCoef="0" IVar="3" Cut="2.6910330078125000e+04" cType="1" res="1.5539102256298065e-01" rms="3.5974141955375671e-01" purity="5.6862217187881470e-01" nType="0">
            <Node pos="l" depth="3" NCoef="0" IVar="-1" Cut="0.0000000000000000e+00" cType="1" res="2.1959284786134958e-03" rms="3.4058159589767456e-01" purity="1.4173370599746704e-01" nType="-99"/>
            <Node pos="r" depth="3" NCoef="0" IVar="-1" Cut="0.0000000000000000e+00" cType="1" res="2.3654056712985039e-03" rms="3.5508453845977783e-01" purity="7.6941817998886108e-01" nType="-99"/>
          </Node>
          <Node pos="r" depth="2" NCoef="0" IVar="3" Cut="1.1168489843750000e+05" cType="1" res="-2.2849021479487419e-02" rms="2.5888955593109131e-01" purity="1.2215058505535126e-01" nType="0">
            <Node pos="l" depth="3" NCoef="0" IVar="-1" Cut="0.0000000000000000e+00" cType="1" res="-3.0562961474061012e-03" rms="2.5528687238693237e-01" purity="9.8167322576045990e-02" nType="-99"/>
            <Node pos="r" depth="3" NCoef="0" IVar="-1" Cut="0.0000000000000000e+00" cType="1" res="3.2686435151845217e-03" rms="2.2606067359447479e-01" purity="9.4612908363342285e-01" nType="-99"/>
          </Node>
        </Node>
        <Node pos="r" depth="1" NCoef="0" IVar="3" Cut="6.9582015625000000e+04" cType="1" res="2.5325539708137512e-01" rms="2.5378942489624023e-01" purity="8.6627507209777832e-01" nType="0">
          <Node pos="l" depth="2" NCoef="0" IVar="3" Cut="3.6800101562500000e+04" cType="1" res="2.1297952532768250e-01" rms="3.4185239672660828e-01" purity="7.3765510320663452e-01" nType="0">
            <Node pos="l" depth="3" NCoef="0" IVar="-1" Cut="0.0000000000000000e+00" cType="1" res="1.1324370279908180e-03" rms="3.9475214481353760e-01" purity="4.4622471928596497e-01" nType="-99"/>
            <Node pos="r" depth="3" NCoef="0" IVar="-1" Cut="0.0000000000000000e+00" cType="1" res="1.9513482693582773e-03" rms="2.6440936326980591e-01" purity="9.1973984241485596e-01" nType="-99"/>
          </Node>
          <Node pos="r" depth="2" NCoef="0" IVar="0" Cut="1.1428571939468384e+00" cType="1" res="2.9137736558914185e-01" rms="1.0849680751562119e-01" purity="9.8801666498184204e-01" nType="0">
            <Node pos="l" depth="3" NCoef="0" IVar="-1" Cut="0.0000000000000000e+00" cType="1" res="2.0183627493679523e-03" rms="1.0428857058286667e-01" purity="9.8895156383514404e-01" nType="-99"/>
            <Node pos="r" depth="3" NCoef="0" IVar="-1" Cut="0.0000000000000000e+00" cType="1" res="2.3075458593666553e-03" rms="1.1341661214828491e-01" purity="9.8686259984970093e-01" nType="-99"/>
          </Node>
        </Node>
      </Node>
    </BinaryTree>
    <BinaryTree type="DecisionTree" boostWeight="1.0000000000000000e+00" itree="165">
      <Node pos="s" depth="0" NCoef="0" IVar="3" Cut="4.8721656250000000e+04" cType="1" res="1.1237980425357819e-01" rms="3.0936244130134583e-01" purity="4.9042943120002747e-01" nType="0">
        <Node pos="l" depth="1" NCoef="0" IVar="4" Cut="2.6938709375000000e+05" cType="1" res="2.2598179057240486e-02" rms="3.0441287159919739e-01" purity="1.9173872470855713e-01" nType="0">
          <Node pos="l" depth="2" NCoef="0" IVar="5" Cut="9.5410390625000000e+04" cType="1" res="-2.1232903003692627e-02" rms="2.4795119464397430e-01" purity="9.8195500671863556e-02" nType="0">
            <Node pos="l" depth="3" NCoef="0" IVar="-1" Cut="0.0000000000000000e+00" cType="1" res="-2.8136349283158779e-03" rms="2.3178045451641083e-01" purity="8.6733497679233551e-02" nType="-99"/>
            <Node pos="r" depth="3" NCoef="0" IVar="-1" Cut="0.0000000000000000e+00" cType="1" res="8.3876755088567734e-03" rms="4.5703044533729553e-01" purity="4.1299074888229370e-01" nType="-99"/>
          </Node>
          <Node pos="r" depth="2" NCoef="0" IVar="3" Cut="1.6525060546875000e+04" cType="1" res="1.0155420005321503e-01" rms="3.7303149700164795e-01" purity="3.6024469137191772e-01" nType="0">
            <Node pos="l" depth="3" NCoef="0" IVar="-1" Cut="0.0000000000000000e+00" cType="1" res="-2.3072494659572840e-03" rms="2.6004961133003235e-01" purity="1.1344609409570694e-01" nType="-99"/>
            <Node pos="r" depth="3" NCoef="0" IVar="-1" Cut="0.0000000000000000e+00" cType="1" res="3.0128909274935722e-03" rms="3.9526712894439697e-01" purity="4.4436854124069214e-01" nType="-99"/>
          </Node>
        </Node>
        <Node pos="r" depth="1" NCoef="0" IVar="1" Cut="1.4575751562500000e+05" cType="1" res="2.3623290657997131e-01" rms="2.7099186182022095e-01" purity="9.0247112512588501e-01" nType="0">
          <Node pos="l" depth="2" NCoef="0" IVar="3" Cut="7.9376359375000000e+04" cType="1" res="2.1368095278739929e-01" rms="3.0637678503990173e-01" purity="8.7045407295227051e-01" nType="0">
            <Node pos="l" depth="3" NCoef="0" IVar="-1" Cut="0.0000000000000000e+00" cType="1" res="1.3579548103734851e-03" rms="4.2079406976699829e-01" purity="7.2626811265945435e-01" nType="-99"/>
            <Node pos="r" depth="3" NCoef="0" IVar="-1" Cut="0.0000000000000000e+00" cType="1" res="1.9457538146525621e-03" rms="1.8428200483322144e-01" purity="9.6406406164169312e-01" nType="-99"/>
          </Node>
          <Node pos="r" depth="2" NCoef="0" IVar="-1" Cut="0.0000000000000000e+00" cType="1" res="2.3794388398528099e-03" rms="1.4412249624729156e-01" purity="9.7860342264175415e-01" nType="-99"/>
        </Node>
      </Node>
    </BinaryTree>
    <BinaryTree type="DecisionTree" boostWeight="1.0000000000000000e+00" itree="166">
      <Node pos="s" depth="0" NCoef="0" IVar="3" Cut="5.7912796875000000e+04" cType="1" res="1.1743307113647461e-01" rms="3.0130836367607117e-01" purity="5.0002378225326538e-01" nType="0">
        <Node pos="l" depth="1" NCoef="0" IVar="2" Cut="3.6583746875000000e+05" cType="1" res="3.5970568656921387e-02" rms="3.1265592575073242e-01" purity="2.4287168681621552e-01" nType="0">
          <Node pos="l" depth="2" NCoef="0" IVar="1" Cut="1.1104567187500000e+05" cType="1" res="-3.2561889383941889e-04" rms="2.9017204046249390e-01" purity="1.5817990899085999e-01" nType="0">
            <Node pos="l" depth="3" NCoef="0" IVar="-1" Cut="0.0000000000000000e+00" cType="1" res="-1.5727621503174305e-03" rms="2.6355066895484924e-01" purity="1.0446134209632874e-01" nType="-99"/>
            <Node pos="r" depth="3" NCoef="0" IVar="-1" Cut="0.0000000000000000e+00" cType="1" res="2.5950607378035784e-03" rms="4.2934122681617737e-01" purity="6.5345084667205811e-01" nType="-99"/>
          </Node>
          <Node pos="r" depth="2" NCoef="0" IVar="1" Cut="9.7421304687500000e+04" cType="1" res="1.6004846990108490e-01" rms="3.5240414738655090e-01" purity="5.3238904476165771e-01" nType="0">
            <Node pos="l" depth="3" NCoef="0" IVar="-1" Cut="0.0000000000000000e+00" cType="1" res="2.1541633177548647e-03" rms="3.3668795228004456e-01" purity="1.6460706293582916e-01" nType="-99"/>
            <Node pos="r" depth="3" NCoef="0" IVar="-1" Cut="0.0000000000000000e+00" cType="1" res="1.3606706634163857e-03" rms="3.3221217989921570e-01" purity="7.9595696926116943e-01" nType="-99"/>
          </Node>
        </Node>
        <Node pos="r" depth="1" NCoef="0" IVar="3" Cut="8.4034492187500000e+04" cType="1" res="2.5795194506645203e-01" rms="2.1812020242214203e-01" purity="9.4359868764877319e-01" nType="0">
          <Node pos="l" depth="2" NCoef="0" IVar="3" Cut="7.4046757812500000e+04" cType="1" res="2.0926046371459961e-01" rms="3.3601963520050049e-01" purity="8.5440737009048462e-01" nType="0">
            <Node pos="l" depth="3" NCoef="0" IVar="-1" Cut="0.0000000000000000e+00" cType="1" res="1.6949566779658198e-03" rms="3.1898942589759827e-01" purity="8.6594545841217041e-01" nType="-99"/>
            <Node pos="r" depth="3" NCoef="0" IVar="-1" Cut="0.0000000000000000e+00" cType="1" res="1.7398993950337172e-03" rms="3.8575527071952820e-01" purity="8.1060576438903809e-01" nType="-99"/>
          </Node>
          <Node pos="r" depth="2" NCoef="0" IVar="1" Cut="1.2544667187500000e+05" cType="1" res="2.7727001905441284e-01" rms="1.4262610673904419e-01" purity="9.7898483276367188e-01" nType="0">
            <Node pos="l" depth="3" NCoef="0" IVar="-1" Cut="0.0000000000000000e+00" cType="1" res="2.5581435766071081e-03" rms="1.6859805583953857e-01" purity="9.7015696763992310e-01" nType="-99"/>
            <Node pos="r" depth="3" NCoef="0" IVar="-1" Cut="0.0000000000000000e+00" cType="1" res="1.7134234076365829e-03" rms="9.5058873295783997e-02" purity="9.9091333150863647e-01" nType="-99"/>
          </Node>
        </Node>
      </Node>
    </BinaryTree>
    <BinaryTree type="DecisionTree" boostWeight="1.0000000000000000e+00" itree="167">
      <Node pos="s" depth="0" NCoef="0" IVar="3" Cut="6.8798242187500000e+04" cType="1" res="1.2908768653869629e-01" rms="3.1810382008552551e-01" purity="5.0278973579406738e-01" nType="0">
        <Node pos="l" depth="1" NCoef="0" IVar="3" Cut="2.6275273437500000e+04" cType="1" res="7.5652271509170532e-02" rms="3.4235107898712158e-01" purity="3.1959533691406250e-01" nType="0">
          <Node pos="l" depth="2" NCoef="0" IVar="4" Cut="4.3620165625000000e+05" cType="1" res="6.2140380032360554e-03" rms="2.6220872998237610e-01" purity="1.1948217451572418e-01" nType="0">
            <Node pos="l" depth="3" NCoef="0" IVar="-1" Cut="0.0000000000000000e+00" cType="1" res="-1.6478591132909060e-03" rms="2.3007750511169434e-01" purity="8.2752600312232971e-02" nType="-99"/>
            <Node pos="r" depth="3" NCoef="0" IVar="-1" Cut="0.0000000000000000e+00" cType="1" res="3.0992215033620596e-03" rms="4.1385591030120850e-01" purity="4.2274710536003113e-01" nType="-99"/>
          </Node>
          <Node pos="r" depth="2" NCoef="0" IVar="5" Cut="9.3492656250000000e+04" cType="1" res="1.5276166796684265e-01" rms="3.9963418245315552e-01" purity="5.4181599617004395e-01" nType="0">
            <Node pos="l" depth="3" NCoef="0" IVar="-1" Cut="0.0000000000000000e+00" cType="1" res="2.1393788047134876e-03" rms="3.9548528194427490e-01" purity="5.1369684934616089e-01" nType="-99"/>
            <Node pos="r" depth="3" NCoef="0" IVar="-1" Cut="0.0000000000000000e+00" cType="1" res="1.7681317403912544e-03" rms="4.0288394689559937e-01" purity="6.9217258691787720e-01" nType="-99"/>
          </Node>
        </Node>
        <Node pos="r" depth="1" NCoef="0" IVar="1" Cut="1.1128134375000000e+05" cType="1" res="2.6271358132362366e-01" rms="1.9012378156185150e-01" purity="9.6090388298034668e-01" nType="0">
          <Node pos="l" depth="2" NCoef="0" IVar="0" Cut="3.8095238804817200e-01" cType="1" res="2.4326796829700470e-01" rms="2.3062944412231445e-01" purity="9.4078344106674194e-01" nType="0">
            <Node pos="l" depth="3" NCoef="0" IVar="-1" Cut="0.0000000000000000e+00" cType="1" res="2.2651029285043478e-03" rms="1.6281031072139740e-01" purity="9.7054970264434814e-01" nType="-99"/>
            <Node pos="r" depth="3" NCoef="0" IVar="-1" Cut="0.0000000000000000e+00" cType="1" res="2.0516116637736559e-03" rms="2.6569268107414246e-01" purity="9.2023986577987671e-01" nType="-99"/>
          </Node>
          <Node pos="r" depth="2" NCoef="0" IVar="-1" Cut="0.0000000000000000e+00" cType="1" res="2.6680964510887861e-03" rms="1.2091543525457382e-01" purity="9.8513263463973999e-01" nType="-99"/>
        </Node>
      </Node>
    </BinaryTree>
    <BinaryTree type="DecisionTree" boostWeight="1.0000000000000000e+00" itree="168">
      <Node pos="s" depth="0" NCoef="0" IVar="3" Cut="4.4570152343750000e+04" cType="1" res="1.2499516457319260e-01" rms="3.0133929848670959e-01" purity="5.1961278915405273e-01" nType="0">
        <Node pos="l" depth="1" NCoef="0" IVar="2" Cut="3.7128590625000000e+05" cType="1" res="2.3521138355135918e-02" rms="3.0103939771652222e-01" purity="1.7809870839118958e-01" nType="0">
          <Node pos="l" depth="2" NCoef="0" IVar="1" Cut="8.0663679687500000e+04" cType="1" res="-5.3885816596448421e-03" rms="2.7105036377906799e-01" purity="1.1432695388793945e-01" nType="0">
            <Node pos="l" depth="3" NCoef="0" IVar="-1" Cut="0.0000000000000000e+00" cType="1" res="2.1502939052879810e-03" rms="3.8896849751472473e-01" purity="2.5465187430381775e-01" nType="-99"/>
            <Node pos="r" depth="3" NCoef="0" IVar="-1" Cut="0.0000000000000000e+00" cType="1" res="-3.7124238442629576e-03" rms="2.1973133087158203e-01" purity="7.3189519345760345e-02" nType="-99"/>
          </Node>
          <Node pos="r" depth="2" NCoef="0" IVar="3" Cut="2.3322238281250000e+04" cType="1" res="1.4476870000362396e-01" rms="3.7996408343315125e-01" purity="4.4555783271789551e-01" nType="0">
            <Node pos="l" depth="3" NCoef="0" IVar="-1" Cut="0.0000000000000000e+00" cType="1" res="1.0642034467309713e-03" rms="3.2591721415519714e-01" purity="2.5957185029983521e-01" nType="-99"/>
            <Node pos="r" depth="3" NCoef="0" IVar="-1" Cut="0.0000000000000000e+00" cType="1" res="2.1609431132674217e-03" rms="4.0049844980239868e-01" purity="6.0157358646392822e-01" nType="-99"/>
          </Node>
        </Node>
        <Node pos="r" depth="1" NCoef="0" IVar="3" Cut="8.6860148437500000e+04" cType="1" res="2.3760831356048584e-01" rms="2.5864422321319580e-01" purity="8.9861595630645752e-01" nType="0">
          <Node pos="l" depth="2" NCoef="0" IVar="1" Cut="1.0373396875000000e+05" cType="1" res="1.9376148283481598e-01" rms="3.4550249576568604e-01" purity="8.0331915616989136e-01" nType="0">
            <Node pos="l" depth="3" NCoef="0" IVar="-1" Cut="0.0000000000000000e+00" cType="1" res="1.1910528410226107e-03" rms="3.9932808279991150e-01" purity="7.0594215393066406e-01" nType="-99"/>
            <Node pos="r" depth="3" NCoef="0" IVar="-1" Cut="0.0000000000000000e+00" cType="1" res="1.9931108690798283e-03" rms="2.2093535959720612e-01" purity="9.4510614871978760e-01" nType="-99"/>
          </Node>
          <Node pos="r" depth="2" NCoef="0" IVar="2" Cut="2.2258264062500000e+05" cType="1" res="2.7559611201286316e-01" rms="1.3536979258060455e-01" purity="9.8117876052856445e-01" nType="0">
            <Node pos="l" depth="3" NCoef="0" IVar="-1" Cut="0.0000000000000000e+00" cType="1" res="1.9323349697515368e-03" rms="1.9217473268508911e-01" purity="9.6132498979568481e-01" nType="-99"/>
            <Node pos="r" depth="3" NCoef="0" IVar="-1" Cut="0.0000000000000000e+00" cType="1" res="1.7986971652135253e-03" rms="1.1903934180736542e-01" purity="9.8545265197753906e-01" nType="-99"/>
          </Node>
        </Node>
      </Node>
    </BinaryTree>
    <BinaryTree type="DecisionTree" boostWeight="1.0000000000000000e+00" itree="169">
      <Node pos="s" depth="0" NCoef="0" IVar="3" Cut="6.8736484375000000e+04" cType="1" res="1.2341001629829407e-01" rms="3.0791959166526794e-01" purity="5.0772315263748169e-01" nType="0">
        <Node pos="l" depth="1" NCoef="0" IVar="1" Cut="1.5585303125000000e+05" cType="1" res="6.2859468162059784e-02" rms="3.2912445068359375e-01" purity="3.1218421459197998e-01" nType="0">
          <Node pos="l" depth="2" NCoef="0" IVar="1" Cut="1.0087988281250000e+05" cType="1" res="3.8443952798843384e-02" rms="3.2336559891700745e-01" purity="2.3438011109828949e-01" nType="0">
            <Node pos="l" depth="3" NCoef="0" IVar="-1" Cut="0.0000000000000000e+00" cType="1" res="8.9125009253621101e-05" rms="2.9639840126037598e-01" purity="1.5241500735282898e-01" nType="-99"/>
            <Node pos="r" depth="3" NCoef="0" IVar="-1" Cut="0.0000000000000000e+00" cType="1" res="1.5430038329213858e-03" rms="3.8444077968597412e-01" purity="6.5325099229812622e-01" nType="-99"/>
          </Node>
          <Node pos="r" depth="2" NCoef="0" IVar="3" Cut="2.2881281250000000e+04" cType="1" res="2.3734194040298462e-01" rms="3.1697294116020203e-01" purity="8.6820179224014282e-01" nType="0">
            <Node pos="l" depth="3" NCoef="0" IVar="-1" Cut="0.0000000000000000e+00" cType="1" res="1.5711298910900950e-03" rms="4.5717388391494751e-01" purity="6.5881890058517456e-01" nType="-99"/>
            <Node pos="r" depth="3" NCoef="0" IVar="-1" Cut="0.0000000000000000e+00" cType="1" res="2.7633439749479294e-03" rms="2.4635006487369537e-01" purity="9.3513464927673340e-01" nType="-99"/>
          </Node>
        </Node>
        <Node pos="r" depth="1" NCoef="0" IVar="1" Cut="1.2541114062500000e+05" cType="1" res="2.6400887966156006e-01" rms="1.8752710521221161e-01" purity="9.6176606416702271e-01" nType="0">
          <Node pos="l" depth="2" NCoef="0" IVar="0" Cut="1.3333333730697632e+00" cType="1" res="2.4565647542476654e-01" rms="2.3015870153903961e-01" purity="9.4092017412185669e-01" nType="0">
            <Node pos="l" depth="3" NCoef="0" IVar="-1" Cut="0.0000000000000000e+00" cType="1" res="1.7678244039416313e-03" rms="1.9775404036045074e-01" purity="9.5683693885803223e-01" nType="-99"/>
            <Node pos="r" depth="3" NCoef="0" IVar="-1" Cut="0.0000000000000000e+00" cType="1" res="2.0255090203136206e-03" rms="3.1269511580467224e-01" purity="8.8369035720825195e-01" nType="-99"/>
          </Node>
          <Node pos="r" depth="2" NCoef="0" IVar="-1" Cut="0.0000000000000000e+00" cType="1" res="2.1102961618453264e-03" rms="1.0559241473674774e-01" purity="9.8871338367462158e-01" nType="-99"/>
        </Node>
      </Node>
    </BinaryTree>
    <BinaryTree type="DecisionTree" boostWeight="1.0000000000000000e+00" itree="170">
      <Node pos="s" depth="0" NCoef="0" IVar="3" Cut="6.8798242187500000e+04" cType="1" res="1.1619848757982254e-01" rms="3.0251079797744751e-01" purity="5.0552779436111450e-01" nType="0">
        <Node pos="l" depth="1" NCoef="0" IVar="3" Cut="4.9173332031250000e+04" cType="1" res="4.8199605196714401e-02" rms="3.2167041301727295e-01" purity="2.8774362802505493e-01" nType="0">
          <Node pos="l" depth="2" NCoef="0" IVar="3" Cut="1.1797331054687500e+04" cType="1" res="1.7766922712326050e-02" rms="3.0313229560852051e-01" purity="1.8387942016124725e-01" nType="0">
            <Node pos="l" depth="3" NCoef="0" IVar="-1" Cut="0.0000000000000000e+00" cType="1" res="-2.3319313302636147e-02" rms="1.1296720057725906e-01" purity="1.4977777376770973e-02" nType="-99"/>
            <Node pos="r" depth="3" NCoef="0" IVar="-1" Cut="0.0000000000000000e+00" cType="1" res="1.6170991584658623e-03" rms="3.4137248992919922e-01" purity="2.4140973389148712e-01" nType="-99"/>
          </Node>
          <Node pos="r" depth="2" NCoef="0" IVar="0" Cut="3.3333334326744080e-01" cType="1" res="1.9700007140636444e-01" rms="3.6528792977333069e-01" purity="7.9558730125427246e-01" nType="0">
            <Node pos="l" depth="3" NCoef="0" IVar="-1" Cut="0.0000000000000000e+00" cType="1" res="1.7776712775230408e-03" rms="2.9882389307022095e-01" purity="8.7451827526092529e-01" nType="-99"/>
            <Node pos="r" depth="3" NCoef="0" IVar="-1" Cut="0.0000000000000000e+00" cType="1" res="1.3289627386257052e-03" rms="4.1738384962081909e-01" purity="7.0170342922210693e-01" nType="-99"/>
          </Node>
        </Node>
        <Node pos="r" depth="1" NCoef="0" IVar="1" Cut="1.0182259375000000e+05" cType="1" res="2.5808551907539368e-01" rms="1.9177806377410889e-01" purity="9.5995807647705078e-01" nType="0">
          <Node pos="l" depth="2" NCoef="0" IVar="1" Cut="8.9049289062500000e+04" cType="1" res="2.2740156948566437e-01" rms="2.4924768507480621e-01" purity="9.2939519882202148e-01" nType="0">
            <Node pos="l" depth="3" NCoef="0" IVar="-1" Cut="0.0000000000000000e+00" cType="1" res="2.0009097643196583e-03" rms="2.2032128274440765e-01" purity="9.4711750745773315e-01" nType="-99"/>
            <Node pos="r" depth="3" NCoef="0" IVar="-1" Cut="0.0000000000000000e+00" cType="1" res="9.3521253438666463e-04" rms="4.3563392758369446e-01" purity="7.2385799884796143e-01" nType="-99"/>
          </Node>
          <Node pos="r" depth="2" NCoef="0" IVar="-1" Cut="0.0000000000000000e+00" cType="1" res="1.7937838565558195e-03" rms="1.2247923016548157e-01" purity="9.8456817865371704e-01" nType="-99"/>
        </Node>
      </Node>
    </BinaryTree>
    <BinaryTree type="DecisionTree" boostWeight="1.0000000000000000e+00" itree="171">
      <Node pos="s" depth="0" NCoef="0" IVar="3" Cut="6.8850757812500000e+04" cType="1" res="1.1954291909933090e-01" rms="3.0997729301452637e-01" purity="5.0437802076339722e-01" nType="0">
        <Node pos="l" depth="1" NCoef="0" IVar="3" Cut="2.6315406250000000e+04" cType="1" res="5.1771633327007294e-02" rms="3.3359307050704956e-01" purity="2.8150019049644470e-01" nType="0">
          <Node pos="l" depth="2" NCoef="0" IVar="2" Cut="2.7811203125000000e+05" cType="1" res="-8.8608358055353165e-03" rms="2.3968556523323059e-01" purity="1.0039915144443512e-01" nType="0">
            <Node pos="l" depth="3" NCoef="0" IVar="-1" Cut="0.0000000000000000e+00" cType="1" res="-1.3426240533590317e-02" rms="1.7556653916835785e-01" purity="3.3916436135768890e-02" nType="-99"/>
            <Node pos="r" depth="3" NCoef="0" IVar="-1" Cut="0.0000000000000000e+00" cType="1" res="1.6366607742384076e-03" rms="3.2083591818809509e-01" purity="2.2330895066261292e-01" nType="-99"/>
          </Node>
          <Node pos="r" depth="2" NCoef="0" IVar="5" Cut="9.3434265625000000e+04" cType="1" res="1.2308289855718613e-01" rms="4.0643826127052307e-01" purity="4.9449741840362549e-01" nType="0">
            <Node pos="l" depth="3" NCoef="0" IVar="-1" Cut="0.0000000000000000e+00" cType="1" res="1.2705487897619605e-03" rms="3.9277631044387817e-01" purity="4.6971890330314636e-01" nType="-99"/>
            <Node pos="r" depth="3" NCoef="0" IVar="-1" Cut="0.0000000000000000e+00" cType="1" res="3.1802223529666662e-03" rms="4.4678425788879395e-01" purity="6.2684082984924316e-01" nType="-99"/>
          </Node>
        </Node>
        <Node pos="r" depth="1" NCoef="0" IVar="1" Cut="1.2527707812500000e+05" cType="1" res="2.5821608304977417e-01" rms="1.9067955017089844e-01" purity="9.6042901277542114e-01" nType="0">
          <Node pos="l" depth="2" NCoef="0" IVar="3" Cut="9.8541070312500000e+04" cType="1" res="2.3908878862857819e-01" rms="2.2934219241142273e-01" purity="9.4126552343368530e-01" nType="0">
            <Node pos="l" depth="3" NCoef="0" IVar="-1" Cut="0.0000000000000000e+00" cType="1" res="1.4932641061022878e-03" rms="3.3436727523803711e-01" purity="8.6633700132369995e-01" nType="-99"/>
            <Node pos="r" depth="3" NCoef="0" IVar="-1" Cut="0.0000000000000000e+00" cType="1" res="2.3479463998228312e-03" rms="1.5633837878704071e-01" purity="9.7479856014251709e-01" nType="-99"/>
          </Node>
          <Node pos="r" depth="2" NCoef="0" IVar="-1" Cut="0.0000000000000000e+00" cType="1" res="1.6454837750643492e-03" rms="9.5232851803302765e-02" purity="9.9085861444473267e-01" nType="-99"/>
        </Node>
      </Node>
    </BinaryTree>
    <BinaryTree type="DecisionTree" boostWeight="1.0000000000000000e+00" itree="172">
      <Node pos="s" depth="0" NCoef="0" IVar="3" Cut="4.8766871093750000e+04" cType="1" res="1.1916990578174591e-01" rms="3.0619826912879944e-01" purity="5.0177311897277832e-01" nType="0">
        <Node pos="l" depth="1" NCoef="0" IVar="4" Cut="2.6811059375000000e+05" cType="1" res="3.8405403494834900e-02" rms="3.1303033232688904e-01" purity="2.1674457192420959e-01" nType="0">
          <Node pos="l" depth="2" NCoef="0" IVar="1" Cut="1.1722602343750000e+05" cType="1" res="-9.2280386015772820e-03" rms="2.6559120416641235e-01" purity="1.0246117413043976e-01" nType="0">
            <Node pos="l" depth="3" NCoef="0" IVar="-1" Cut="0.0000000000000000e+00" cType="1" res="-4.1291634552180767e-03" rms="2.3312968015670776e-01" purity="6.7694947123527527e-02" nType="-99"/>
            <Node pos="r" depth="3" NCoef="0" IVar="-1" Cut="0.0000000000000000e+00" cType="1" res="3.2033619936555624e-03" rms="5.0533270835876465e-01" purity="5.9240365028381348e-01" nType="-99"/>
          </Node>
          <Node pos="r" depth="2" NCoef="0" IVar="3" Cut="2.7971535156250000e+04" cType="1" res="1.1436826735734940e-01" rms="3.6383193731307983e-01" purity="3.9899665117263794e-01" nType="0">
            <Node pos="l" depth="3" NCoef="0" IVar="-1" Cut="0.0000000000000000e+00" cType="1" res="1.1973708169534802e-03" rms="3.2108998298645020e-01" purity="2.2992715239524841e-01" nType="-99"/>
            <Node pos="r" depth="3" NCoef="0" IVar="-1" Cut="0.0000000000000000e+00" cType="1" res="1.6901877243071795e-03" rms="3.8936108350753784e-01" purity="5.8645093441009521e-01" nType="-99"/>
          </Node>
        </Node>
        <Node pos="r" depth="1" NCoef="0" IVar="1" Cut="1.0059082812500000e+05" cType="1" res="2.3482751846313477e-01" rms="2.5491431355476379e-01" purity="9.0994411706924438e-01" nType="0">
          <Node pos="l" depth="2" NCoef="0" IVar="3" Cut="7.9443289062500000e+04" cType="1" res="1.8110886216163635e-01" rms="3.2323557138442993e-01" purity="8.3927702903747559e-01" nType="0">
            <Node pos="l" depth="3" NCoef="0" IVar="-1" Cut="0.0000000000000000e+00" cType="1" res="5.8839621488004923e-04" rms="4.4939604401588440e-01" purity="6.1536610126495361e-01" nType="-99"/>
            <Node pos="r" depth="3" NCoef="0" IVar="-1" Cut="0.0000000000000000e+00" cType="1" res="2.3134576622396708e-03" rms="1.8828274309635162e-01" purity="9.6222996711730957e-01" nType="-99"/>
          </Node>
          <Node pos="r" depth="2" NCoef="0" IVar="2" Cut="4.5792184375000000e+05" cType="1" res="2.8431519865989685e-01" rms="1.5324828028678894e-01" purity="9.7504532337188721e-01" nType="0">
            <Node pos="l" depth="3" NCoef="0" IVar="-1" Cut="0.0000000000000000e+00" cType="1" res="2.2708112373948097e-03" rms="1.5796329081058502e-01" purity="9.7366982698440552e-01" nType="-99"/>
            <Node pos="r" depth="3" NCoef="0" IVar="-1" Cut="0.0000000000000000e+00" cType="1" res="2.7833040803670883e-03" rms="1.4546096324920654e-01" purity="9.7714662551879883e-01" nType="-99"/>
          </Node>
        </Node>
      </Node>
    </BinaryTree>
    <BinaryTree type="DecisionTree" boostWeight="1.0000000000000000e+00" itree="173">
      <Node pos="s" depth="0" NCoef="0" IVar="1" Cut="1.0034389062500000e+05" cType="1" res="1.3189347088336945e-01" rms="3.0022937059402466e-01" purity="5.2833586931228638e-01" nType="0">
        <Node pos="l" depth="1" NCoef="0" IVar="1" Cut="8.3514484375000000e+04" cType="1" res="4.5499213039875031e-02" rms="2.9136583209037781e-01" purity="3.0715489387512207e-01" nType="0">
          <Node pos="l" depth="2" NCoef="0" IVar="3" Cut="5.1639410156250000e+04" cType="1" res="1.7378742992877960e-01" rms="3.4678491950035095e-01" purity="5.8942645788192749e-01" nType="0">
            <Node pos="l" depth="3" NCoef="0" IVar="-1" Cut="0.0000000000000000e+00" cType="1" res="3.0956934206187725e-03" rms="4.0658318996429443e-01" purity="2.9271268844604492e-01" nType="-99"/>
            <Node pos="r" depth="3" NCoef="0" IVar="-1" Cut="0.0000000000000000e+00" cType="1" res="2.3687155917286873e-03" rms="2.4419076740741730e-01" purity="9.2830199003219604e-01" nType="-99"/>
          </Node>
          <Node pos="r" depth="2" NCoef="0" IVar="3" Cut="7.5765054687500000e+04" cType="1" res="-4.9846883863210678e-02" rms="1.9309826195240021e-01" purity="9.7365625202655792e-02" nType="0">
            <Node pos="l" depth="3" NCoef="0" IVar="-1" Cut="0.0000000000000000e+00" cType="1" res="-9.0810637921094894e-03" rms="1.7169533669948578e-01" purity="4.8864521086215973e-02" nType="-99"/>
            <Node pos="r" depth="3" NCoef="0" IVar="-1" Cut="0.0000000000000000e+00" cType="1" res="2.2539941128343344e-03" rms="3.1804591417312622e-01" purity="8.8084548711776733e-01" nType="-99"/>
          </Node>
        </Node>
        <Node pos="r" depth="1" NCoef="0" IVar="4" Cut="1.9990614062500000e+05" cType="1" res="2.6668319106101990e-01" rms="2.6173517107963562e-01" purity="8.7341576814651489e-01" nType="0">
          <Node pos="l" depth="2" NCoef="0" IVar="-1" Cut="0.0000000000000000e+00" cType="1" res="1.8105135532096028e-03" rms="3.4840646386146545e-01" purity="4.9859496951103210e-01" nType="-99"/>
          <Node pos="r" depth="2" NCoef="0" IVar="4" Cut="2.9048415625000000e+05" cType="1" res="2.7589264512062073e-01" rms="2.5292819738388062e-01" purity="8.9398926496505737e-01" nType="0">
            <Node pos="l" depth="3" NCoef="0" IVar="-1" Cut="0.0000000000000000e+00" cType="1" res="2.3056422360241413e-03" rms="2.7769556641578674e-01" purity="8.0790412425994873e-01" nType="-99"/>
            <Node pos="r" depth="3" NCoef="0" IVar="-1" Cut="0.0000000000000000e+00" cType="1" res="1.4803634257987142e-03" rms="2.4189309775829315e-01" purity="9.2437154054641724e-01" nType="-99"/>
          </Node>
        </Node>
      </Node>
    </BinaryTree>
    <BinaryTree type="DecisionTree" boostWeight="1.0000000000000000e+00" itree="174">
      <Node pos="s" depth="0" NCoef="0" IVar="3" Cut="4.8659894531250000e+04" cType="1" res="1.2212259322404861e-01" rms="3.0614781379699707e-01" purity="5.1158785820007324e-01" nType="0">
        <Node pos="l" depth="1" NCoef="0" IVar="1" Cut="1.7491068750000000e+05" cType="1" res="3.4480385482311249e-02" rms="3.1150248646736145e-01" purity="2.0451101660728455e-01" nType="0">
          <Node pos="l" depth="2" NCoef="0" IVar="1" Cut="1.1285138281250000e+05" cType="1" res="2.2369546815752983e-02" rms="3.0440226197242737e-01" purity="1.5615487098693848e-01" nType="0">
            <Node pos="l" depth="3" NCoef="0" IVar="-1" Cut="0.0000000000000000e+00" cType="1" res="2.1627733076456934e-04" rms="2.8000161051750183e-01" purity="1.0506847500801086e-01" nType="-99"/>
            <Node pos="r" depth="3" NCoef="0" IVar="-1" Cut="0.0000000000000000e+00" cType="1" res="2.7223813813179731e-03" rms="4.3600091338157654e-01" purity="6.5857023000717163e-01" nType="-99"/>
          </Node>
          <Node pos="r" depth="2" NCoef="0" IVar="-1" Cut="0.0000000000000000e+00" cType="1" res="2.1642630454152822e-03" rms="3.5654038190841675e-01" purity="8.2557410001754761e-01" nType="-99"/>
        </Node>
        <Node pos="r" depth="1" NCoef="0" IVar="4" Cut="1.7351726562500000e+05" cType="1" res="2.3547093570232391e-01" rms="2.5819984078407288e-01" purity="9.0873277187347412e-01" nType="0">
          <Node pos="l" depth="2" NCoef="0" IVar="-1" Cut="0.0000000000000000e+00" cType="1" res="6.4884714083746076e-04" rms="4.4192081689834595e-01" purity="6.8326246738433838e-01" nType="-99"/>
          <Node pos="r" depth="2" NCoef="0" IVar="1" Cut="1.4568907812500000e+05" cType="1" res="2.4365784227848053e-01" rms="2.4374906718730927e-01" purity="9.1866219043731689e-01" nType="0">
            <Node pos="l" depth="3" NCoef="0" IVar="-1" Cut="0.0000000000000000e+00" cType="1" res="1.8137866863980889e-03" rms="2.8516116738319397e-01" purity="8.8456130027770996e-01" nType="-99"/>
            <Node pos="r" depth="3" NCoef="0" IVar="-1" Cut="0.0000000000000000e+00" cType="1" res="1.1727266246452928e-03" rms="1.1311744153499603e-01" purity="9.8694074153900146e-01" nType="-99"/>
          </Node>
        </Node>
      </Node>
    </BinaryTree>
    <BinaryTree type="DecisionTree" boostWeight="1.0000000000000000e+00" itree="175">
      <Node pos="s" depth="0" NCoef="0" IVar="1" Cut="1.0034389062500000e+05" cType="1" res="1.1705586314201355e-01" rms="3.0645260214805603e-01" purity="5.0235974788665771e-01" nType="0">
        <Node pos="l" depth="1" NCoef="0" IVar="1" Cut="7.9307882812500000e+04" cType="1" res="4.2025085538625717e-02" rms="3.0244478583335876e-01" purity="3.0229923129081726e-01" nType="0">
          <Node pos="l" depth="2" NCoef="0" IVar="1" Cut="2.8024136718750000e+04" cType="1" res="1.7778727412223816e-01" rms="3.5641601681709290e-01" purity="6.3854837417602539e-01" nType="0">
            <Node pos="l" depth="3" NCoef="0" IVar="-1" Cut="0.0000000000000000e+00" cType="1" res="-6.0306029627099633e-04" rms="3.3421343564987183e-01" purity="3.5201326012611389e-01" nType="-99"/>
            <Node pos="r" depth="3" NCoef="0" IVar="-1" Cut="0.0000000000000000e+00" cType="1" res="2.6653860695660114e-03" rms="3.4821447730064392e-01" purity="6.8689751625061035e-01" nType="-99"/>
          </Node>
          <Node pos="r" depth="2" NCoef="0" IVar="3" Cut="1.5127260937500000e+05" cType="1" res="-3.5577323287725449e-02" rms="2.3364338278770447e-01" purity="1.1009734123945236e-01" nType="0">
            <Node pos="l" depth="3" NCoef="0" IVar="-1" Cut="0.0000000000000000e+00" cType="1" res="-6.4659607596695423e-03" rms="2.2849403321743011e-01" purity="7.5042314827442169e-02" nType="-99"/>
            <Node pos="r" depth="3" NCoef="0" IVar="-1" Cut="0.0000000000000000e+00" cType="1" res="2.5952435098588467e-03" rms="1.0061110556125641e-01" purity="9.8981332778930664e-01" nType="-99"/>
          </Node>
        </Node>
        <Node pos="r" depth="1" NCoef="0" IVar="4" Cut="2.0495403125000000e+05" cType="1" res="2.5004470348358154e-01" rms="2.6565822958946228e-01" purity="8.5695856809616089e-01" nType="0">
          <Node pos="l" depth="2" NCoef="0" IVar="-1" Cut="0.0000000000000000e+00" cType="1" res="2.1364064887166023e-03" rms="3.8261991739273071e-01" purity="4.9561616778373718e-01" nType="-99"/>
          <Node pos="r" depth="2" NCoef="0" IVar="3" Cut="6.9110984375000000e+04" cType="1" res="2.5984042882919312e-01" rms="2.5223985314369202e-01" purity="8.8336026668548584e-01" nType="0">
            <Node pos="l" depth="3" NCoef="0" IVar="-1" Cut="0.0000000000000000e+00" cType="1" res="1.6821322496980429e-03" rms="3.4870997071266174e-01" purity="7.6527804136276245e-01" nType="-99"/>
            <Node pos="r" depth="3" NCoef="0" IVar="-1" Cut="0.0000000000000000e+00" cType="1" res="1.9400591263547540e-03" rms="1.0011641681194305e-01" purity="9.8986405134201050e-01" nType="-99"/>
          </Node>
        </Node>
      </Node>
    </BinaryTree>
    <BinaryTree type="DecisionTree" boostWeight="1.0000000000000000e+00" itree="176">
      <Node pos="s" depth="0" NCoef="0" IVar="3" Cut="4.8766871093750000e+04" cType="1" res="1.2201726436614990e-01" rms="2.9480704665184021e-01" purity="5.1902347803115845e-01" nType="0">
        <Node pos="l" depth="1" NCoef="0" IVar="1" Cut="1.5588937500000000e+05" cType="1" res="2.7358854189515114e-02" rms="2.9822817444801331e-01" purity="2.0114938914775848e-01" nType="0">
          <Node pos="l" depth="2" NCoef="0" IVar="1" Cut="8.0479304687500000e+04" cType="1" res="7.6739545911550522e-03" rms="2.8266546130180359e-01" purity="1.3384798169136047e-01" nType="0">
            <Node pos="l" depth="3" NCoef="0" IVar="-1" Cut="0.0000000000000000e+00" cType="1" res="4.1768741793930531e-03" rms="4.0956017374992371e-01" purity="3.3242604136466980e-01" nType="-99"/>
            <Node pos="r" depth="3" NCoef="0" IVar="-1" Cut="0.0000000000000000e+00" cType="1" res="-3.2581251580268145e-03" rms="2.2252197563648224e-01" purity="7.6764151453971863e-02" nType="-99"/>
          </Node>
          <Node pos="r" depth="2" NCoef="0" IVar="-1" Cut="0.0000000000000000e+00" cType="1" res="2.3992517963051796e-03" rms="3.6838972568511963e-01" purity="8.1869262456893921e-01" nType="-99"/>
        </Node>
        <Node pos="r" depth="1" NCoef="0" IVar="1" Cut="1.0066286718750000e+05" cType="1" res="2.4106313288211823e-01" rms="2.4273245036602020e-01" purity="9.1879361867904663e-01" nType="0">
          <Node pos="l" depth="2" NCoef="0" IVar="1" Cut="8.3833210937500000e+04" cType="1" res="1.9836151599884033e-01" rms="3.0927759408950806e-01" purity="8.5599881410598755e-01" nType="0">
            <Node pos="l" depth="3" NCoef="0" IVar="-1" Cut="0.0000000000000000e+00" cType="1" res="2.2713886573910713e-03" rms="2.4045938253402710e-01" purity="9.3262934684753418e-01" nType="-99"/>
            <Node pos="r" depth="3" NCoef="0" IVar="-1" Cut="0.0000000000000000e+00" cType="1" res="6.1952031683176756e-04" rms="4.0599250793457031e-01" purity="6.6851663589477539e-01" nType="-99"/>
          </Node>
          <Node pos="r" depth="2" NCoef="0" IVar="0" Cut="1.1428571939468384e+00" cType="1" res="2.8014278411865234e-01" rms="1.4867825806140900e-01" purity="9.7626209259033203e-01" nType="0">
            <Node pos="l" depth="3" NCoef="0" IVar="-1" Cut="0.0000000000000000e+00" cType="1" res="1.8469506176188588e-03" rms="1.4533825218677521e-01" purity="9.7718477249145508e-01" nType="-99"/>
            <Node pos="r" depth="3" NCoef="0" IVar="-1" Cut="0.0000000000000000e+00" cType="1" res="1.7324549844488502e-03" rms="1.5371672809123993e-01" purity="9.7477632761001587e-01" nType="-99"/>
          </Node>
        </Node>
      </Node>
    </BinaryTree>
    <BinaryTree type="DecisionTree" boostWeight="1.0000000000000000e+00" itree="177">
      <Node pos="s" depth="0" NCoef="0" IVar="3" Cut="6.8736484375000000e+04" cType="1" res="1.0548216104507446e-01" rms="3.0948686599731445e-01" purity="4.7030001878738403e-01" nType="0">
        <Node pos="l" depth="1" NCoef="0" IVar="2" Cut="2.8327593750000000e+05" cType="1" res="4.8206135630607605e-02" rms="3.2475706934928894e-01" purity="2.7466410398483276e-01" nType="0">
          <Node pos="l" depth="2" NCoef="0" IVar="1" Cut="7.9039710937500000e+04" cType="1" res="-5.1436056382954121e-03" rms="2.9148310422897339e-01" purity="1.3997593522071838e-01" nType="0">
            <Node pos="l" depth="3" NCoef="0" IVar="-1" Cut="0.0000000000000000e+00" cType="1" res="2.3381991777569056e-03" rms="4.0946394205093384e-01" purity="3.2534557580947876e-01" nType="-99"/>
            <Node pos="r" depth="3" NCoef="0" IVar="-1" Cut="0.0000000000000000e+00" cType="1" res="-5.3771245293319225e-03" rms="2.2667565941810608e-01" purity="7.4039526283740997e-02" nType="-99"/>
          </Node>
          <Node pos="r" depth="2" NCoef="0" IVar="3" Cut="1.9837191406250000e+04" cType="1" res="1.2203722447156906e-01" rms="3.5278031229972839e-01" purity="4.6105998754501343e-01" nType="0">
            <Node pos="l" depth="3" NCoef="0" IVar="-1" Cut="0.0000000000000000e+00" cType="1" res="5.9993186732754111e-04" rms="2.9538276791572571e-01" purity="1.7656353116035461e-01" nType="-99"/>
            <Node pos="r" depth="3" NCoef="0" IVar="-1" Cut="0.0000000000000000e+00" cType="1" res="1.7517851665616035e-03" rms="3.6666414141654968e-01" purity="6.0089343786239624e-01" nType="-99"/>
          </Node>
        </Node>
        <Node pos="r" depth="1" NCoef="0" IVar="4" Cut="2.1740406250000000e+05" cType="1" res="2.4622769653797150e-01" rms="2.1002916991710663e-01" purity="9.5104020833969116e-01" nType="0">
          <Node pos="l" depth="2" NCoef="0" IVar="-1" Cut="0.0000000000000000e+00" cType="1" res="1.8357681110501289e-03" rms="3.4389206767082214e-01" purity="8.5237491130828857e-01" nType="-99"/>
          <Node pos="r" depth="2" NCoef="0" IVar="1" Cut="1.0180138281250000e+05" cType="1" res="2.5900045037269592e-01" rms="1.7925770580768585e-01" purity="9.6525597572326660e-01" nType="0">
            <Node pos="l" depth="3" NCoef="0" IVar="-1" Cut="0.0000000000000000e+00" cType="1" res="2.2654873318970203e-03" rms="2.3625569045543671e-01" purity="9.3706864118576050e-01" nType="-99"/>
            <Node pos="r" depth="3" NCoef="0" IVar="-1" Cut="0.0000000000000000e+00" cType="1" res="2.5598537176847458e-03" rms="1.1635518819093704e-01" purity="9.8623383045196533e-01" nType="-99"/>
          </Node>
        </Node>
      </Node>
    </BinaryTree>
    <BinaryTree type="DecisionTree" boostWeight="1.0000000000000000e+00" itree="178">
      <Node pos="s" depth="0" NCoef="0" IVar="3" Cut="6.8736484375000000e+04" cType="1" res="1.2182939052581787e-01" rms="2.9942715167999268e-01" purity="5.2384501695632935e-01" nType="0">
        <Node pos="l" depth="1" NCoef="0" IVar="1" Cut="1.4545873437500000e+05" cType="1" res="5.8819077908992767e-02" rms="3.2002383470535278e-01" purity="3.1732401251792908e-01" nType="0">
          <Node pos="l" depth="2" NCoef="0" IVar="3" Cut="5.2379160156250000e+04" cType="1" res="2.5517499074339867e-02" rms="3.1059336662292480e-01" purity="2.1485352516174316e-01" nType="0">
            <Node pos="l" depth="3" NCoef="0" IVar="-1" Cut="0.0000000000000000e+00" cType="1" res="9.3930852017365396e-05" rms="2.8506007790565491e-01" purity="1.2980271875858307e-01" nType="-99"/>
            <Node pos="r" depth="3" NCoef="0" IVar="-1" Cut="0.0000000000000000e+00" cType="1" res="1.5934208640828729e-03" rms="4.0744155645370483e-01" purity="7.5937294960021973e-01" nType="-99"/>
          </Node>
          <Node pos="r" depth="2" NCoef="0" IVar="3" Cut="2.3675214843750000e+04" cType="1" res="2.4058422446250916e-01" rms="3.0948889255523682e-01" purity="8.7662369012832642e-01" nType="0">
            <Node pos="l" depth="3" NCoef="0" IVar="-1" Cut="0.0000000000000000e+00" cType="1" res="1.2998206075280905e-03" rms="4.5623430609703064e-01" purity="6.6705071926116943e-01" nType="-99"/>
            <Node pos="r" depth="3" NCoef="0" IVar="-1" Cut="0.0000000000000000e+00" cType="1" res="1.7449728911742568e-03" rms="2.4445375800132751e-01" purity="9.3529415130615234e-01" nType="-99"/>
          </Node>
        </Node>
        <Node pos="r" depth="1" NCoef="0" IVar="1" Cut="1.0059082812500000e+05" cType="1" res="2.5501570105552673e-01" rms="1.9120070338249207e-01" purity="9.6037322282791138e-01" nType="0">
          <Node pos="l" depth="2" NCoef="0" IVar="1" Cut="8.7960992187500000e+04" cType="1" res="2.2847832739353180e-01" rms="2.4672810733318329e-01" purity="9.3148487806320190e-01" nType="0">
            <Node pos="l" depth="3" NCoef="0" IVar="-1" Cut="0.0000000000000000e+00" cType="1" res="2.0878252107650042e-03" rms="2.1333543956279755e-01" purity="9.5113247632980347e-01" nType="-99"/>
            <Node pos="r" depth="3" NCoef="0" IVar="-1" Cut="0.0000000000000000e+00" cType="1" res="1.3752115191891789e-03" rms="3.8870775699615479e-01" purity="8.0534136295318604e-01" nType="-99"/>
          </Node>
          <Node pos="r" depth="2" NCoef="0" IVar="-1" Cut="0.0000000000000000e+00" cType="1" res="1.6469801776111126e-03" rms="1.2689909338951111e-01" purity="9.8346900939941406e-01" nType="-99"/>
        </Node>
      </Node>
    </BinaryTree>
    <BinaryTree type="DecisionTree" boostWeight="1.0000000000000000e+00" itree="179">
      <Node pos="s" depth="0" NCoef="0" IVar="1" Cut="1.0034835937500000e+05" cType="1" res="1.1907220631837845e-01" rms="3.0074265599250793e-01" purity="5.1550358533859253e-01" nType="0">
        <Node pos="l" depth="1" NCoef="0" IVar="3" Cut="6.5347808593750000e+04" cType="1" res="3.5512275993824005e-02" rms="2.8291395306587219e-01" purity="3.0624023079872131e-01" nType="0">
          <Node pos="l" depth="2" NCoef="0" IVar="1" Cut="8.3521265625000000e+04" cType="1" res="-1.9438745453953743e-02" rms="2.6528155803680420e-01" purity="1.2299404293298721e-01" nType="0">
            <Node pos="l" depth="3" NCoef="0" IVar="-1" Cut="0.0000000000000000e+00" cType="1" res="1.5842609573155642e-03" rms="3.7249904870986938e-01" purity="3.0546572804450989e-01" nType="-99"/>
            <Node pos="r" depth="3" NCoef="0" IVar="-1" Cut="0.0000000000000000e+00" cType="1" res="-1.2843026779592037e-02" rms="1.8288379907608032e-01" purity="3.6605086177587509e-02" nType="-99"/>
          </Node>
          <Node pos="r" depth="2" NCoef="0" IVar="1" Cut="7.1022117187500000e+04" cType="1" res="2.1963547170162201e-01" rms="2.6155087351799011e-01" purity="9.2023926973342896e-01" nType="0">
            <Node pos="l" depth="3" NCoef="0" IVar="-1" Cut="0.0000000000000000e+00" cType="1" res="2.0963388960808516e-03" rms="1.9475539028644562e-01" purity="9.6061015129089355e-01" nType="-99"/>
            <Node pos="r" depth="3" NCoef="0" IVar="-1" Cut="0.0000000000000000e+00" cType="1" res="1.6749332426115870e-03" rms="3.5470342636108398e-01" purity="8.3588933944702148e-01" nType="-99"/>
          </Node>
        </Node>
        <Node pos="r" depth="1" NCoef="0" IVar="4" Cut="2.8543393750000000e+05" cType="1" res="2.5785726308822632e-01" rms="2.7725639939308167e-01" purity="8.6307007074356079e-01" nType="0">
          <Node pos="l" depth="2" NCoef="0" IVar="3" Cut="3.2720648437500000e+04" cType="1" res="2.1987114846706390e-01" rms="3.3756688237190247e-01" purity="7.3910295963287354e-01" nType="0">
            <Node pos="l" depth="3" NCoef="0" IVar="-1" Cut="0.0000000000000000e+00" cType="1" res="3.0267518013715744e-03" rms="4.4118234515190125e-01" purity="4.1292211413383484e-01" nType="-99"/>
            <Node pos="r" depth="3" NCoef="0" IVar="-1" Cut="0.0000000000000000e+00" cType="1" res="1.7084425780922174e-03" rms="2.5443801283836365e-01" purity="9.1386055946350098e-01" nType="-99"/>
          </Node>
          <Node pos="r" depth="2" NCoef="0" IVar="2" Cut="4.5411337500000000e+05" cType="1" res="2.7383613586425781e-01" rms="2.4578644335269928e-01" purity="9.1521686315536499e-01" nType="0">
            <Node pos="l" depth="3" NCoef="0" IVar="-1" Cut="0.0000000000000000e+00" cType="1" res="1.4635570114478469e-03" rms="2.5070369243621826e-01" purity="9.1390615701675415e-01" nType="-99"/>
            <Node pos="r" depth="3" NCoef="0" IVar="-1" Cut="0.0000000000000000e+00" cType="1" res="2.4604094214737415e-03" rms="2.3420707881450653e-01" purity="9.1721230745315552e-01" nType="-99"/>
          </Node>
        </Node>
      </Node>
    </BinaryTree>
    <BinaryTree type="DecisionTree" boostWeight="1.0000000000000000e+00" itree="180">
      <Node pos="s" depth="0" NCoef="0" IVar="3" Cut="6.8954984375000000e+04" cType="1" res="1.1071135103702545e-01" rms="3.0173853039741516e-01" purity="4.9427422881126404e-01" nType="0">
        <Node pos="l" depth="1" NCoef="0" IVar="3" Cut="2.9716410156250000e+04" cType="1" res="5.0524231046438217e-02" rms="3.1729704141616821e-01" purity="2.9445341229438782e-01" nType="0">
          <Node pos="l" depth="2" NCoef="0" IVar="2" Cut="3.6335393750000000e+05" cType="1" res="-2.6686452329158783e-03" rms="2.4875664710998535e-01" purity="1.0648054629564285e-01" nType="0">
            <Node pos="l" depth="3" NCoef="0" IVar="-1" Cut="0.0000000000000000e+00" cType="1" res="-2.7153049595654011e-03" rms="2.0664505660533905e-01" purity="6.0996070504188538e-02" nType="-99"/>
            <Node pos="r" depth="3" NCoef="0" IVar="-1" Cut="0.0000000000000000e+00" cType="1" res="2.9101369436830282e-03" rms="3.7655863165855408e-01" purity="3.2364606857299805e-01" nType="-99"/>
          </Node>
          <Node pos="r" depth="2" NCoef="0" IVar="1" Cut="1.3174604687500000e+05" cType="1" res="1.2842589616775513e-01" rms="3.8377654552459717e-01" purity="5.6974220275878906e-01" nType="0">
            <Node pos="l" depth="3" NCoef="0" IVar="-1" Cut="0.0000000000000000e+00" cType="1" res="1.3427677331492305e-03" rms="4.1051572561264038e-01" purity="4.3336564302444458e-01" nType="-99"/>
            <Node pos="r" depth="3" NCoef="0" IVar="-1" Cut="0.0000000000000000e+00" cType="1" res="1.9810178782790899e-03" rms="2.4486006796360016e-01" purity="9.3751734495162964e-01" nType="-99"/>
          </Node>
        </Node>
        <Node pos="r" depth="1" NCoef="0" IVar="1" Cut="1.2527707812500000e+05" cType="1" res="2.4951437115669250e-01" rms="2.0301271975040436e-01" purity="9.5509916543960571e-01" nType="0">
          <Node pos="l" depth="2" NCoef="0" IVar="3" Cut="9.3665562500000000e+04" cType="1" res="2.2548922896385193e-01" rms="2.5313472747802734e-01" purity="9.2820519208908081e-01" nType="0">
            <Node pos="l" depth="3" NCoef="0" IVar="-1" Cut="0.0000000000000000e+00" cType="1" res="1.4824470272287726e-03" rms="3.3080741763114929e-01" purity="8.7174075841903687e-01" nType="-99"/>
            <Node pos="r" depth="3" NCoef="0" IVar="-1" Cut="0.0000000000000000e+00" cType="1" res="2.2420631721615791e-03" rms="1.8559159338474274e-01" purity="9.6399497985839844e-01" nType="-99"/>
          </Node>
          <Node pos="r" depth="2" NCoef="0" IVar="-1" Cut="0.0000000000000000e+00" cType="1" res="1.7683847108855844e-03" rms="9.1665543615818024e-02" purity="9.9153006076812744e-01" nType="-99"/>
        </Node>
      </Node>
    </BinaryTree>
    <BinaryTree type="DecisionTree" boostWeight="1.0000000000000000e+00" itree="181">
      <Node pos="s" depth="0" NCoef="0" IVar="3" Cut="5.6867503906250000e+04" cType="1" res="1.0891620814800262e-01" rms="2.9667797684669495e-01" purity="4.8874399065971375e-01" nType="0">
        <Node pos="l" depth="1" NCoef="0" IVar="1" Cut="1.3641835937500000e+05" cType="1" res="2.9765717685222626e-02" rms="3.0721297860145569e-01" purity="2.2525306046009064e-01" nType="0">
          <Node pos="l" depth="2" NCoef="0" IVar="1" Cut="1.0081209375000000e+05" cType="1" res="7.6835346408188343e-03" rms="2.8920978307723999e-01" purity="1.5355730056762695e-01" nType="0">
            <Node pos="l" depth="3" NCoef="0" IVar="-1" Cut="0.0000000000000000e+00" cType="1" res="-1.5095112612470984e-03" rms="2.5749436020851135e-01" purity="1.0571289807558060e-01" nType="-99"/>
            <Node pos="r" depth="3" NCoef="0" IVar="-1" Cut="0.0000000000000000e+00" cType="1" res="1.3937002513557673e-03" rms="4.1732779145240784e-01" purity="5.2268004417419434e-01" nType="-99"/>
          </Node>
          <Node pos="r" depth="2" NCoef="0" IVar="5" Cut="9.0733234375000000e+04" cType="1" res="2.0854066312313080e-01" rms="3.8131520152091980e-01" purity="8.0569428205490112e-01" nType="0">
            <Node pos="l" depth="3" NCoef="0" IVar="-1" Cut="0.0000000000000000e+00" cType="1" res="2.3240169975906610e-03" rms="3.8590580224990845e-01" purity="8.2304203510284424e-01" nType="-99"/>
            <Node pos="r" depth="3" NCoef="0" IVar="-1" Cut="0.0000000000000000e+00" cType="1" res="9.8888901993632317e-04" rms="3.6960881948471069e-01" purity="7.8470718860626221e-01" nType="-99"/>
          </Node>
        </Node>
        <Node pos="r" depth="1" NCoef="0" IVar="1" Cut="1.0376785937500000e+05" cType="1" res="2.4466413259506226e-01" rms="2.1893975138664246e-01" purity="9.4064706563949585e-01" nType="0">
          <Node pos="l" depth="2" NCoef="0" IVar="1" Cut="8.6303250000000000e+04" cType="1" res="1.9892130792140961e-01" rms="2.9496729373931885e-01" purity="8.8322401046752930e-01" nType="0">
            <Node pos="l" depth="3" NCoef="0" IVar="-1" Cut="0.0000000000000000e+00" cType="1" res="2.3960070684552193e-03" rms="2.2159962356090546e-01" purity="9.4122868776321411e-01" nType="-99"/>
            <Node pos="r" depth="3" NCoef="0" IVar="-1" Cut="0.0000000000000000e+00" cType="1" res="9.1687391977757215e-04" rms="4.3737021088600159e-01" purity="6.8709772825241089e-01" nType="-99"/>
          </Node>
          <Node pos="r" depth="2" NCoef="0" IVar="0" Cut="1.1428571939468384e+00" cType="1" res="2.7851319313049316e-01" rms="1.2778282165527344e-01" purity="9.8313921689987183e-01" nType="0">
            <Node pos="l" depth="3" NCoef="0" IVar="-1" Cut="0.0000000000000000e+00" cType="1" res="1.5596112934872508e-03" rms="1.2812858819961548e-01" purity="9.8300462961196899e-01" nType="-99"/>
            <Node pos="r" depth="3" NCoef="0" IVar="-1" Cut="0.0000000000000000e+00" cType="1" res="2.3995703086256981e-03" rms="1.2716376781463623e-01" purity="9.8334455490112305e-01" nType="-99"/>
          </Node>
        </Node>
      </Node>
    </BinaryTree>
    <BinaryTree type="DecisionTree" boostWeight="1.0000000000000000e+00" itree="182">
      <Node pos="s" depth="0" NCoef="0" IVar="3" Cut="5.4259988281250000e+04" cType="1" res="1.0691515356302261e-01" rms="2.9765424132347107e-01" purity="4.8817026615142822e-01" nType="0">
        <Node pos="l" depth="1" NCoef="0" IVar="3" Cut="4.9098253906250000e+04" cType="1" res="3.0736619606614113e-02" rms="3.0531170964241028e-01" purity="2.2846934199333191e-01" nType="0">
          <Node pos="l" depth="2" NCoef="0" IVar="1" Cut="1.3640723437500000e+05" cType="1" res="1.0995065793395042e-02" rms="2.9123526811599731e-01" purity="1.7798036336898804e-01" nType="0">
            <Node pos="l" depth="3" NCoef="0" IVar="-1" Cut="0.0000000000000000e+00" cType="1" res="-6.7711569136008620e-04" rms="2.6695758104324341e-01" purity="1.0659465193748474e-01" nType="-99"/>
            <Node pos="r" depth="3" NCoef="0" IVar="-1" Cut="0.0000000000000000e+00" cType="1" res="1.9850842654705048e-03" rms="4.1189309954643250e-01" purity="7.5782305002212524e-01" nType="-99"/>
          </Node>
          <Node pos="r" depth="2" NCoef="0" IVar="2" Cut="2.4745606250000000e+05" cType="1" res="2.4896998703479767e-01" rms="3.6620894074440002e-01" purity="7.8660041093826294e-01" nType="0">
            <Node pos="l" depth="3" NCoef="0" IVar="-1" Cut="0.0000000000000000e+00" cType="1" res="1.3742677401751280e-03" rms="4.3810337781906128e-01" purity="6.0538834333419800e-01" nType="-99"/>
            <Node pos="r" depth="3" NCoef="0" IVar="-1" Cut="0.0000000000000000e+00" cType="1" res="2.1098305005580187e-03" rms="3.2702636718750000e-01" purity="8.4675174951553345e-01" nType="-99"/>
          </Node>
        </Node>
        <Node pos="r" depth="1" NCoef="0" IVar="1" Cut="1.0073193750000000e+05" cType="1" res="2.3721031844615936e-01" rms="2.3194459080696106e-01" purity="9.3236052989959717e-01" nType="0">
          <Node pos="l" depth="2" NCoef="0" IVar="3" Cut="8.9435734375000000e+04" cType="1" res="1.8780730664730072e-01" rms="3.0685439705848694e-01" purity="8.7194591760635376e-01" nType="0">
            <Node pos="l" depth="3" NCoef="0" IVar="-1" Cut="0.0000000000000000e+00" cType="1" res="1.2986070942133665e-03" rms="4.2363524436950684e-01" purity="7.1744841337203979e-01" nType="-99"/>
            <Node pos="r" depth="3" NCoef="0" IVar="-1" Cut="0.0000000000000000e+00" cType="1" res="2.3043197579681873e-03" rms="1.9953274726867676e-01" purity="9.5810794830322266e-01" nType="-99"/>
          </Node>
          <Node pos="r" depth="2" NCoef="0" IVar="0" Cut="1.1428571939468384e+00" cType="1" res="2.7811023592948914e-01" rms="1.2919144332408905e-01" purity="9.8237693309783936e-01" nType="0">
            <Node pos="l" depth="3" NCoef="0" IVar="-1" Cut="0.0000000000000000e+00" cType="1" res="2.1885950118303299e-03" rms="1.2275052070617676e-01" purity="9.8402768373489380e-01" nType="-99"/>
            <Node pos="r" depth="3" NCoef="0" IVar="-1" Cut="0.0000000000000000e+00" cType="1" res="2.3585543967783451e-03" rms="1.4118820428848267e-01" purity="9.7892796993255615e-01" nType="-99"/>
          </Node>
        </Node>
      </Node>
    </BinaryTree>
    <BinaryTree type="DecisionTree" boostWeight="1.0000000000000000e+00" itree="183">
      <Node pos="s" depth="0" NCoef="0" IVar="1" Cut="1.0034835937500000e+05" cType="1" res="1.1334466189146042e-01" rms="3.1085243821144104e-01" purity="4.9351635575294495e-01" nType="0">
        <Node pos="l" depth="1" NCoef="0" IVar="3" Cut="6.5347808593750000e+04" cType="1" res="4.3730139732360840e-02" rms="3.0185413360595703e-01" purity="3.0364581942558289e-01" nType="0">
          <Node pos="l" depth="2" NCoef="0" IVar="1" Cut="7.5107859375000000e+04" cType="1" res="-2.5329645723104477e-03" rms="2.9631412029266357e-01" purity="1.3569481670856476e-01" nType="0">
            <Node pos="l" depth="3" NCoef="0" IVar="-1" Cut="0.0000000000000000e+00" cType="1" res="2.6051488239318132e-03" rms="4.3411630392074585e-01" purity="3.7012603878974915e-01" nType="-99"/>
            <Node pos="r" depth="3" NCoef="0" IVar="-1" Cut="0.0000000000000000e+00" cType="1" res="-5.5767055600881577e-03" rms="2.3164226114749908e-01" purity="6.6494889557361603e-02" nType="-99"/>
          </Node>
          <Node pos="r" depth="2" NCoef="0" IVar="1" Cut="8.7758117187500000e+04" cType="1" res="2.1373251080513000e-01" rms="2.5792950391769409e-01" purity="9.2081290483474731e-01" nType="0">
            <Node pos="l" depth="3" NCoef="0" IVar="-1" Cut="0.0000000000000000e+00" cType="1" res="2.3244237527251244e-03" rms="2.1450980007648468e-01" purity="9.4905787706375122e-01" nType="-99"/>
            <Node pos="r" depth="3" NCoef="0" IVar="-1" Cut="0.0000000000000000e+00" cType="1" res="6.1837251996621490e-04" rms="4.2390215396881104e-01" purity="7.3322296142578125e-01" nType="-99"/>
          </Node>
        </Node>
        <Node pos="r" depth="1" NCoef="0" IVar="3" Cut="4.4570152343750000e+04" cType="1" res="2.4232131242752075e-01" rms="2.8500926494598389e-01" purity="8.4529447555541992e-01" nType="0">
          <Node pos="l" depth="2" NCoef="0" IVar="3" Cut="2.9715882812500000e+04" cType="1" res="1.6206999123096466e-01" rms="4.3734210729598999e-01" purity="5.6851434707641602e-01" nType="0">
            <Node pos="l" depth="3" NCoef="0" IVar="-1" Cut="0.0000000000000000e+00" cType="1" res="1.7780575435608625e-03" rms="4.3182784318923950e-01" purity="4.6169114112854004e-01" nType="-99"/>
            <Node pos="r" depth="3" NCoef="0" IVar="-1" Cut="0.0000000000000000e+00" cType="1" res="3.6894825752824545e-03" rms="4.2351540923118591e-01" purity="7.6492577791213989e-01" nType="-99"/>
          </Node>
          <Node pos="r" depth="2" NCoef="0" IVar="5" Cut="8.8986687500000000e+04" cType="1" res="2.7873849868774414e-01" rms="1.6446146368980408e-01" purity="9.7089427709579468e-01" nType="0">
            <Node pos="l" depth="3" NCoef="0" IVar="-1" Cut="0.0000000000000000e+00" cType="1" res="2.2480743937194347e-03" rms="2.0496468245983124e-01" purity="9.5364302396774292e-01" nType="-99"/>
            <Node pos="r" depth="3" NCoef="0" IVar="-1" Cut="0.0000000000000000e+00" cType="1" res="2.2614672780036926e-03" rms="1.4544919133186340e-01" purity="9.7750014066696167e-01" nType="-99"/>
          </Node>
        </Node>
      </Node>
    </BinaryTree>
    <BinaryTree type="DecisionTree" boostWeight="1.0000000000000000e+00" itree="184">
      <Node pos="s" depth="0" NCoef="0" IVar="3" Cut="5.4198226562500000e+04" cType="1" res="1.1516411602497101e-01" rms="3.0180138349533081e-01" purity="5.0681525468826294e-01" nType="0">
        <Node pos="l" depth="1" NCoef="0" IVar="3" Cut="4.9038195312500000e+04" cType="1" res="4.2971756309270859e-02" rms="3.1286412477493286e-01" purity="2.4254478514194489e-01" nType="0">
          <Node pos="l" depth="2" NCoef="0" IVar="0" Cut="1.1428571939468384e+00" cType="1" res="2.8659278526902199e-02" rms="3.0457371473312378e-01" purity="1.9773474335670471e-01" nType="0">
            <Node pos="l" depth="3" NCoef="0" IVar="-1" Cut="0.0000000000000000e+00" cType="1" res="2.8526218375191092e-04" rms="2.7378237247467041e-01" purity="1.5436010062694550e-01" nType="-99"/>
            <Node pos="r" depth="3" NCoef="0" IVar="-1" Cut="0.0000000000000000e+00" cType="1" res="3.6889705806970596e-03" rms="3.9579710364341736e-01" purity="3.8847491145133972e-01" nType="-99"/>
          </Node>
          <Node pos="r" depth="2" NCoef="0" IVar="5" Cut="9.0605726562500000e+04" cType="1" res="2.1448063850402832e-01" rms="3.5686624050140381e-01" purity="7.7951133251190186e-01" nType="0">
            <Node pos="l" depth="3" NCoef="0" IVar="-1" Cut="0.0000000000000000e+00" cType="1" res="1.8591758562251925e-03" rms="3.2707735896110535e-01" purity="8.4002381563186646e-01" nType="-99"/>
            <Node pos="r" depth="3" NCoef="0" IVar="-1" Cut="0.0000000000000000e+00" cType="1" res="2.0163061562925577e-03" rms="3.8149446249008179e-01" purity="6.9978702068328857e-01" nType="-99"/>
          </Node>
        </Node>
        <Node pos="r" depth="1" NCoef="0" IVar="1" Cut="1.1629306250000000e+05" cType="1" res="2.3003074526786804e-01" rms="2.4244135618209839e-01" purity="9.2730093002319336e-01" nType="0">
          <Node pos="l" depth="2" NCoef="0" IVar="3" Cut="8.9369531250000000e+04" cType="1" res="1.8563617765903473e-01" rms="3.0781933665275574e-01" purity="8.7485033273696899e-01" nType="0">
            <Node pos="l" depth="3" NCoef="0" IVar="-1" Cut="0.0000000000000000e+00" cType="1" res="1.1171303922310472e-03" rms="4.1243189573287964e-01" purity="7.4089580774307251e-01" nType="-99"/>
            <Node pos="r" depth="3" NCoef="0" IVar="-1" Cut="0.0000000000000000e+00" cType="1" res="1.9794621039181948e-03" rms="2.1471418440341949e-01" purity="9.5164424180984497e-01" nType="-99"/>
          </Node>
          <Node pos="r" depth="2" NCoef="0" IVar="-1" Cut="0.0000000000000000e+00" cType="1" res="1.9723556470125914e-03" rms="1.1785846203565598e-01" purity="9.8594117164611816e-01" nType="-99"/>
        </Node>
      </Node>
    </BinaryTree>
    <BinaryTree type="DecisionTree" boostWeight="1.0000000000000000e+00" itree="185">
      <Node pos="s" depth="0" NCoef="0" IVar="3" Cut="5.4259988281250000e+04" cType="1" res="1.1129075288772583e-01" rms="3.1369793415069580e-01" purity="4.9199295043945312e-01" nType="0">
        <Node pos="l" depth="1" NCoef="0" IVar="4" Cut="2.6808881250000000e+05" cType="1" res="4.2680736631155014e-02" rms="3.2668986916542053e-01" purity="2.2559313476085663e-01" nType="0">
          <Node pos="l" depth="2" NCoef="0" IVar="4" Cut="1.5007806250000000e+05" cType="1" res="5.4118721745908260e-03" rms="2.8262865543365479e-01" purity="1.3514745235443115e-01" nType="0">
            <Node pos="l" depth="3" NCoef="0" IVar="-1" Cut="0.0000000000000000e+00" cType="1" res="4.4560288079082966e-03" rms="3.6879721283912659e-01" purity="2.5707301497459412e-01" nType="-99"/>
            <Node pos="r" depth="3" NCoef="0" IVar="-1" Cut="0.0000000000000000e+00" cType="1" res="-1.3364074984565377e-03" rms="2.5677227973937988e-01" purity="1.0992348194122314e-01" nType="-99"/>
          </Node>
          <Node pos="r" depth="2" NCoef="0" IVar="1" Cut="7.8940578125000000e+04" cType="1" res="1.0641163587570190e-01" rms="3.8236004114151001e-01" purity="3.8025802373886108e-01" nType="0">
            <Node pos="l" depth="3" NCoef="0" IVar="-1" Cut="0.0000000000000000e+00" cType="1" res="4.1596423834562302e-03" rms="4.1290062665939331e-01" purity="5.5657637119293213e-01" nType="-99"/>
            <Node pos="r" depth="3" NCoef="0" IVar="-1" Cut="0.0000000000000000e+00" cType="1" res="1.8598960014060140e-03" rms="3.7138018012046814e-01" purity="3.4696969389915466e-01" nType="-99"/>
          </Node>
        </Node>
        <Node pos="r" depth="1" NCoef="0" IVar="1" Cut="1.3203793750000000e+05" cType="1" res="2.2074230015277863e-01" rms="2.5621247291564941e-01" purity="9.1697281599044800e-01" nType="0">
          <Node pos="l" depth="2" NCoef="0" IVar="3" Cut="8.4324421875000000e+04" cType="1" res="1.8145419657230377e-01" rms="3.1489169597625732e-01" purity="8.6761283874511719e-01" nType="0">
            <Node pos="l" depth="3" NCoef="0" IVar="-1" Cut="0.0000000000000000e+00" cType="1" res="7.0347962900996208e-04" rms="4.4297936558723450e-01" purity="6.9241189956665039e-01" nType="-99"/>
            <Node pos="r" depth="3" NCoef="0" IVar="-1" Cut="0.0000000000000000e+00" cType="1" res="2.2782485466450453e-03" rms="1.9037444889545441e-01" purity="9.6167546510696411e-01" nType="-99"/>
          </Node>
          <Node pos="r" depth="2" NCoef="0" IVar="-1" Cut="0.0000000000000000e+00" cType="1" res="1.3872641138732433e-03" rms="1.1504725366830826e-01" purity="9.8645997047424316e-01" nType="-99"/>
        </Node>
      </Node>
    </BinaryTree>
    <BinaryTree type="DecisionTree" boostWeight="1.0000000000000000e+00" itree="186">
      <Node pos="s" depth="0" NCoef="0" IVar="1" Cut="1.0034835937500000e+05" cType="1" res="1.2466715276241302e-01" rms="3.0196517705917358e-01" purity="5.2403837442398071e-01" nType="0">
        <Node pos="l" depth="1" NCoef="0" IVar="3" Cut="5.6773144531250000e+04" cType="1" res="5.4128400981426239e-02" rms="2.9728242754936218e-01" purity="3.3159583806991577e-01" nType="0">
          <Node pos="l" depth="2" NCoef="0" IVar="1" Cut="6.6694312500000000e+04" cType="1" res="-3.9151380769908428e-03" rms="2.8009045124053955e-01" purity="1.1467597633600235e-01" nType="0">
            <Node pos="l" depth="3" NCoef="0" IVar="-1" Cut="0.0000000000000000e+00" cType="1" res="2.5182836689054966e-03" rms="4.3165013194084167e-01" purity="3.8247892260551453e-01" nType="-99"/>
            <Node pos="r" depth="3" NCoef="0" IVar="-1" Cut="0.0000000000000000e+00" cType="1" res="-8.1859063357114792e-03" rms="2.2064311802387238e-01" purity="5.3527127951383591e-02" nType="-99"/>
          </Node>
          <Node pos="r" depth="2" NCoef="0" IVar="1" Cut="8.3553671875000000e+04" cType="1" res="2.0550915598869324e-01" rms="2.8733617067337036e-01" purity="8.9733481407165527e-01" nType="0">
            <Node pos="l" depth="3" NCoef="0" IVar="-1" Cut="0.0000000000000000e+00" cType="1" res="1.8305371049791574e-03" rms="2.4009004235267639e-01" purity="9.3768000602722168e-01" nType="-99"/>
            <Node pos="r" depth="3" NCoef="0" IVar="-1" Cut="0.0000000000000000e+00" cType="1" res="1.7642382299527526e-03" rms="3.8990154862403870e-01" purity="7.7310222387313843e-01" nType="-99"/>
          </Node>
        </Node>
        <Node pos="r" depth="1" NCoef="0" IVar="3" Cut="4.4741839843750000e+04" cType="1" res="2.4906136095523834e-01" rms="2.6811009645462036e-01" purity="8.6340850591659546e-01" nType="0">
          <Node pos="l" depth="2" NCoef="0" IVar="5" Cut="9.0646859375000000e+04" cType="1" res="1.9731625914573669e-01" rms="4.0688684582710266e-01" purity="6.3848006725311279e-01" nType="0">
            <Node pos="l" depth="3" NCoef="0" IVar="-1" Cut="0.0000000000000000e+00" cType="1" res="2.5982244405895472e-03" rms="3.8928762078285217e-01" purity="7.0986133813858032e-01" nType="-99"/>
            <Node pos="r" depth="3" NCoef="0" IVar="-1" Cut="0.0000000000000000e+00" cType="1" res="1.6581404488533735e-03" rms="4.1779777407646179e-01" purity="5.1061856746673584e-01" nType="-99"/>
          </Node>
          <Node pos="r" depth="2" NCoef="0" IVar="0" Cut="3.8095238804817200e-01" cType="1" res="2.7448263764381409e-01" rms="1.5460056066513062e-01" purity="9.7391098737716675e-01" nType="0">
            <Node pos="l" depth="3" NCoef="0" IVar="-1" Cut="0.0000000000000000e+00" cType="1" res="1.9098552875220776e-03" rms="1.3766536116600037e-01" purity="9.8013067245483398e-01" nType="-99"/>
            <Node pos="r" depth="3" NCoef="0" IVar="-1" Cut="0.0000000000000000e+00" cType="1" res="1.8945470219478011e-03" rms="1.6360169649124146e-01" purity="9.7013491392135620e-01" nType="-99"/>
          </Node>
        </Node>
      </Node>
    </BinaryTree>
    <BinaryTree type="DecisionTree" boostWeight="1.0000000000000000e+00" itree="187">
      <Node pos="s" depth="0" NCoef="0" IVar="3" Cut="4.4463175781250000e+04" cType="1" res="9.4471529126167297e-02" rms="2.8969171643257141e-01" purity="4.7327548265457153e-01" nType="0">
        <Node pos="l" depth="1" NCoef="0" IVar="3" Cut="2.9653005859375000e+04" cType="1" res="5.9178415685892105e-03" rms="2.6933142542839050e-01" purity="1.5430402755737305e-01" nType="0">
          <Node pos="l" depth="2" NCoef="0" IVar="1" Cut="1.3472865625000000e+05" cType="1" res="-2.7028810232877731e-02" rms="2.0270749926567078e-01" purity="7.9108074307441711e-02" nType="0">
            <Node pos="l" depth="3" NCoef="0" IVar="-1" Cut="0.0000000000000000e+00" cType="1" res="-1.3007022440433502e-02" rms="1.6220118105411530e-01" purity="3.0782397836446762e-02" nType="-99"/>
            <Node pos="r" depth="3" NCoef="0" IVar="-1" Cut="0.0000000000000000e+00" cType="1" res="1.0239338735118508e-03" rms="4.4832879304885864e-01" purity="6.4473754167556763e-01" nType="-99"/>
          </Node>
          <Node pos="r" depth="2" NCoef="0" IVar="3" Cut="3.0357804687500000e+04" cType="1" res="1.0271394252777100e-01" rms="3.9035513997077942e-01" purity="3.7522709369659424e-01" nType="0">
            <Node pos="l" depth="3" NCoef="0" IVar="-1" Cut="0.0000000000000000e+00" cType="1" res="7.2197453118860722e-03" rms="4.1888853907585144e-01" purity="5.7769584655761719e-01" nType="-99"/>
            <Node pos="r" depth="3" NCoef="0" IVar="-1" Cut="0.0000000000000000e+00" cType="1" res="1.1269018286839128e-03" rms="3.7789779901504517e-01" purity="3.5196891427040100e-01" nType="-99"/>
          </Node>
        </Node>
        <Node pos="r" depth="1" NCoef="0" IVar="1" Cut="1.4546562500000000e+05" cType="1" res="2.0742431282997131e-01" rms="2.7509719133377075e-01" purity="8.8013273477554321e-01" nType="0">
          <Node pos="l" depth="2" NCoef="0" IVar="3" Cut="7.0335054687500000e+04" cType="1" res="1.7369571328163147e-01" rms="3.1649711728096008e-01" purity="8.3184623718261719e-01" nType="0">
            <Node pos="l" depth="3" NCoef="0" IVar="-1" Cut="0.0000000000000000e+00" cType="1" res="7.8112009214237332e-04" rms="4.3236765265464783e-01" purity="5.9113860130310059e-01" nType="-99"/>
            <Node pos="r" depth="3" NCoef="0" IVar="-1" Cut="0.0000000000000000e+00" cType="1" res="2.1100258454680443e-03" rms="2.2024492919445038e-01" purity="9.4673418998718262e-01" nType="-99"/>
          </Node>
          <Node pos="r" depth="2" NCoef="0" IVar="-1" Cut="0.0000000000000000e+00" cType="1" res="1.6497812466695905e-03" rms="1.1962493509054184e-01" purity="9.8553836345672607e-01" nType="-99"/>
        </Node>
      </Node>
    </BinaryTree>
    <BinaryTree type="DecisionTree" boostWeight="1.0000000000000000e+00" itree="188">
      <Node pos="s" depth="0" NCoef="0" IVar="1" Cut="1.0034835937500000e+05" cType="1" res="1.1463230103254318e-01" rms="2.9777881503105164e-01" purity="5.0002187490463257e-01" nType="0">
        <Node pos="l" depth="1" NCoef="0" IVar="3" Cut="7.5557476562500000e+04" cType="1" res="4.6771258115768433e-02" rms="2.8849381208419800e-01" purity="3.1091758608818054e-01" nType="0">
          <Node pos="l" depth="2" NCoef="0" IVar="3" Cut="6.1162765625000000e+04" cType="1" res="5.0117461942136288e-03" rms="2.8615304827690125e-01" purity="1.6367240250110626e-01" nType="0">
            <Node pos="l" depth="3" NCoef="0" IVar="-1" Cut="0.0000000000000000e+00" cType="1" res="-8.8911922648549080e-04" rms="2.7242571115493774e-01" purity="1.1523144692182541e-01" nType="-99"/>
            <Node pos="r" depth="3" NCoef="0" IVar="-1" Cut="0.0000000000000000e+00" cType="1" res="1.9737125840038061e-03" rms="3.7493586540222168e-01" purity="8.2433360815048218e-01" nType="-99"/>
          </Node>
          <Node pos="r" depth="2" NCoef="0" IVar="0" Cut="1.3333333730697632e+00" cType="1" res="2.2694242000579834e-01" rms="2.2146475315093994e-01" purity="9.4620591402053833e-01" nType="0">
            <Node pos="l" depth="3" NCoef="0" IVar="-1" Cut="0.0000000000000000e+00" cType="1" res="2.1822529379278421e-03" rms="1.8763267993927002e-01" purity="9.6244937181472778e-01" nType="-99"/>
            <Node pos="r" depth="3" NCoef="0" IVar="-1" Cut="0.0000000000000000e+00" cType="1" res="2.1390353795140982e-03" rms="2.7759668231010437e-01" purity="9.1025501489639282e-01" nType="-99"/>
          </Node>
        </Node>
        <Node pos="r" depth="1" NCoef="0" IVar="2" Cut="3.2187412500000000e+05" cType="1" res="2.4110044538974762e-01" rms="2.7247118949890137e-01" purity="8.5244309902191162e-01" nType="0">
          <Node pos="l" depth="2" NCoef="0" IVar="3" Cut="4.6252398437500000e+04" cType="1" res="1.8724235892295837e-01" rms="3.2389447093009949e-01" purity="7.0603764057159424e-01" nType="0">
            <Node pos="l" depth="3" NCoef="0" IVar="-1" Cut="0.0000000000000000e+00" cType="1" res="1.5846708556637168e-03" rms="4.1295605897903442e-01" purity="3.7780421972274780e-01" nType="-99"/>
            <Node pos="r" depth="3" NCoef="0" IVar="-1" Cut="0.0000000000000000e+00" cType="1" res="1.8649632111191750e-03" rms="2.0726782083511353e-01" purity="9.5092177391052246e-01" nType="-99"/>
          </Node>
          <Node pos="r" depth="2" NCoef="0" IVar="5" Cut="9.3443531250000000e+04" cType="1" res="2.6240161061286926e-01" rms="2.4598896503448486e-01" purity="9.1034728288650513e-01" nType="0">
            <Node pos="l" depth="3" NCoef="0" IVar="-1" Cut="0.0000000000000000e+00" cType="1" res="1.7741194460541010e-03" rms="2.4566678702831268e-01" purity="9.1320854425430298e-01" nType="-99"/>
            <Node pos="r" depth="3" NCoef="0" IVar="-1" Cut="0.0000000000000000e+00" cType="1" res="2.3532689083367586e-03" rms="2.4597990512847900e-01" purity="8.9771330356597900e-01" nType="-99"/>
          </Node>
        </Node>
      </Node>
    </BinaryTree>
    <BinaryTree type="DecisionTree" boostWeight="1.0000000000000000e+00" itree="189">
      <Node pos="s" depth="0" NCoef="0" IVar="3" Cut="6.8850757812500000e+04" cType="1" res="1.1117706447839737e-01" rms="2.9217803478240967e-01" purity="5.0378429889678955e-01" nType="0">
        <Node pos="l" depth="1" NCoef="0" IVar="1" Cut="1.3173915625000000e+05" cType="1" res="4.7376252710819244e-02" rms="3.1181493401527405e-01" purity="2.8868648409843445e-01" nType="0">
          <Node pos="l" depth="2" NCoef="0" IVar="1" Cut="7.4718296875000000e+04" cType="1" res="1.6910960897803307e-02" rms="3.0061012506484985e-01" purity="1.8317317962646484e-01" nType="0">
            <Node pos="l" depth="3" NCoef="0" IVar="-1" Cut="0.0000000000000000e+00" cType="1" res="2.6609357446432114e-03" rms="4.1663375496864319e-01" purity="4.3411162495613098e-01" nType="-99"/>
            <Node pos="r" depth="3" NCoef="0" IVar="-1" Cut="0.0000000000000000e+00" cType="1" res="-1.2393337674438953e-03" rms="2.5103574991226196e-01" purity="1.1698646843433380e-01" nType="-99"/>
          </Node>
          <Node pos="r" depth="2" NCoef="0" IVar="3" Cut="3.2916285156250000e+04" cType="1" res="2.1005453169345856e-01" rms="3.2007890939712524e-01" purity="8.5210543870925903e-01" nType="0">
            <Node pos="l" depth="3" NCoef="0" IVar="-1" Cut="0.0000000000000000e+00" cType="1" res="8.8089937344193459e-04" rms="4.5312410593032837e-01" purity="6.0914486646652222e-01" nType="-99"/>
            <Node pos="r" depth="3" NCoef="0" IVar="-1" Cut="0.0000000000000000e+00" cType="1" res="2.5455020368099213e-03" rms="2.1775056421756744e-01" purity="9.4953852891921997e-01" nType="-99"/>
          </Node>
        </Node>
        <Node pos="r" depth="1" NCoef="0" IVar="1" Cut="1.1171875781250000e+05" cType="1" res="2.4778568744659424e-01" rms="1.8054039776325226e-01" purity="9.6434605121612549e-01" nType="0">
          <Node pos="l" depth="2" NCoef="0" IVar="3" Cut="9.8229617187500000e+04" cType="1" res="2.2053408622741699e-01" rms="2.3558314144611359e-01" purity="9.3689870834350586e-01" nType="0">
            <Node pos="l" depth="3" NCoef="0" IVar="-1" Cut="0.0000000000000000e+00" cType="1" res="1.5982459299266338e-03" rms="3.5525885224342346e-01" purity="8.4632748365402222e-01" nType="-99"/>
            <Node pos="r" depth="3" NCoef="0" IVar="-1" Cut="0.0000000000000000e+00" cType="1" res="2.3959050886332989e-03" rms="1.4488139748573303e-01" purity="9.7808122634887695e-01" nType="-99"/>
          </Node>
          <Node pos="r" depth="2" NCoef="0" IVar="-1" Cut="0.0000000000000000e+00" cType="1" res="1.7361611826345325e-03" rms="9.7147099673748016e-02" purity="9.9044519662857056e-01" nType="-99"/>
        </Node>
      </Node>
    </BinaryTree>
    <BinaryTree type="DecisionTree" boostWeight="1.0000000000000000e+00" itree="190">
      <Node pos="s" depth="0" NCoef="0" IVar="3" Cut="4.4463175781250000e+04" cType="1" res="1.1554044485092163e-01" rms="3.0213561654090881e-01" purity="5.0218039751052856e-01" nType="0">
        <Node pos="l" depth="1" NCoef="0" IVar="4" Cut="4.7570787500000000e+05" cType="1" res="2.8643522411584854e-02" rms="3.0296662449836731e-01" purity="1.7223310470581055e-01" nType="0">
          <Node pos="l" depth="2" NCoef="0" IVar="1" Cut="7.4864093750000000e+04" cType="1" res="1.0041551664471626e-02" rms="2.7717959880828857e-01" purity="1.3865947723388672e-01" nType="0">
            <Node pos="l" depth="3" NCoef="0" IVar="-1" Cut="0.0000000000000000e+00" cType="1" res="2.7443715371191502e-03" rms="4.1430342197418213e-01" purity="3.0379158258438110e-01" nType="-99"/>
            <Node pos="r" depth="3" NCoef="0" IVar="-1" Cut="0.0000000000000000e+00" cType="1" res="-1.0693246731534600e-03" rms="2.3273943364620209e-01" purity="1.0405220836400986e-01" nType="-99"/>
          </Node>
          <Node pos="r" depth="2" NCoef="0" IVar="2" Cut="5.1706731250000000e+05" cType="1" res="1.8431909382343292e-01" rms="4.3572574853897095e-01" purity="4.5320281386375427e-01" nType="0">
            <Node pos="l" depth="3" NCoef="0" IVar="-1" Cut="0.0000000000000000e+00" cType="1" res="2.6445856783539057e-03" rms="4.4776403903961182e-01" purity="5.1803249120712280e-01" nType="-99"/>
            <Node pos="r" depth="3" NCoef="0" IVar="-1" Cut="0.0000000000000000e+00" cType="1" res="-1.0032743448391557e-03" rms="3.0792209506034851e-01" purity="3.0210757255554199e-01" nType="-99"/>
          </Node>
        </Node>
        <Node pos="r" depth="1" NCoef="0" IVar="1" Cut="1.3196950000000000e+05" cType="1" res="2.1791209280490875e-01" rms="2.6705393195152283e-01" purity="8.9088511466979980e-01" nType="0">
          <Node pos="l" depth="2" NCoef="0" IVar="3" Cut="7.5321242187500000e+04" cType="1" res="1.8806888163089752e-01" rms="3.1267631053924561e-01" purity="8.4096145629882812e-01" nType="0">
            <Node pos="l" depth="3" NCoef="0" IVar="-1" Cut="0.0000000000000000e+00" cType="1" res="1.0504944948479533e-03" rms="4.1695177555084229e-01" purity="6.6858547925949097e-01" nType="-99"/>
            <Node pos="r" depth="3" NCoef="0" IVar="-1" Cut="0.0000000000000000e+00" cType="1" res="2.0471070893108845e-03" rms="2.0384554564952850e-01" purity="9.5533931255340576e-01" nType="-99"/>
          </Node>
          <Node pos="r" depth="2" NCoef="0" IVar="-1" Cut="0.0000000000000000e+00" cType="1" res="1.7924044514074922e-03" rms="1.4300350844860077e-01" purity="9.7873747348785400e-01" nType="-99"/>
        </Node>
      </Node>
    </BinaryTree>
    <BinaryTree type="DecisionTree" boostWeight="1.0000000000000000e+00" itree="191">
      <Node pos="s" depth="0" NCoef="0" IVar="3" Cut="6.8736484375000000e+04" cType="1" res="1.2102280557155609e-01" rms="3.0938491225242615e-01" purity="5.1328384876251221e-01" nType="0">
        <Node pos="l" depth="1" NCoef="0" IVar="1" Cut="1.4549082812500000e+05" cType="1" res="6.7980878055095673e-02" rms="3.3168417215347290e-01" purity="3.1368979811668396e-01" nType="0">
          <Node pos="l" depth="2" NCoef="0" IVar="1" Cut="7.5543617187500000e+04" cType="1" res="4.5531593263149261e-02" rms="3.2700806856155396e-01" purity="2.2874353826045990e-01" nType="0">
            <Node pos="l" depth="3" NCoef="0" IVar="-1" Cut="0.0000000000000000e+00" cType="1" res="2.7639232575893402e-03" rms="4.3791186809539795e-01" purity="4.5206987857818604e-01" nType="-99"/>
            <Node pos="r" depth="3" NCoef="0" IVar="-1" Cut="0.0000000000000000e+00" cType="1" res="3.5558466333895922e-04" rms="2.7979183197021484e-01" purity="1.6799630224704742e-01" nType="-99"/>
          </Node>
          <Node pos="r" depth="2" NCoef="0" IVar="3" Cut="2.3150550781250000e+04" cType="1" res="2.1195226907730103e-01" rms="3.2528132200241089e-01" purity="8.5846561193466187e-01" nType="0">
            <Node pos="l" depth="3" NCoef="0" IVar="-1" Cut="0.0000000000000000e+00" cType="1" res="8.8392669567838311e-04" rms="4.7825214266777039e-01" purity="5.9345912933349609e-01" nType="-99"/>
            <Node pos="r" depth="3" NCoef="0" IVar="-1" Cut="0.0000000000000000e+00" cType="1" res="2.5542541407048702e-03" rms="2.5709706544876099e-01" purity="9.2771494388580322e-01" nType="-99"/>
          </Node>
        </Node>
        <Node pos="r" depth="1" NCoef="0" IVar="1" Cut="6.3292832031250000e+04" cType="1" res="2.3765204846858978e-01" rms="2.1094454824924469e-01" purity="9.5215374231338501e-01" nType="0">
          <Node pos="l" depth="2" NCoef="0" IVar="-1" Cut="0.0000000000000000e+00" cType="1" res="1.4810404973104596e-03" rms="3.2284855842590332e-01" purity="8.7986534833908081e-01" nType="-99"/>
          <Node pos="r" depth="2" NCoef="0" IVar="1" Cut="1.1037860156250000e+05" cType="1" res="2.5852850079536438e-01" rms="1.6475203633308411e-01" purity="9.7055643796920776e-01" nType="0">
            <Node pos="l" depth="3" NCoef="0" IVar="-1" Cut="0.0000000000000000e+00" cType="1" res="1.8710118019953370e-03" rms="2.4395854771137238e-01" purity="9.3290400505065918e-01" nType="-99"/>
            <Node pos="r" depth="3" NCoef="0" IVar="-1" Cut="0.0000000000000000e+00" cType="1" res="1.4446995919570327e-03" rms="9.3679055571556091e-02" purity="9.9115759134292603e-01" nType="-99"/>
          </Node>
        </Node>
      </Node>
    </BinaryTree>
    <BinaryTree type="DecisionTree" boostWeight="1.0000000000000000e+00" itree="192">
      <Node pos="s" depth="0" NCoef="0" IVar="3" Cut="4.8659894531250000e+04" cType="1" res="1.1266572773456573e-01" rms="2.9455092549324036e-01" purity="5.0239610671997070e-01" nType="0">
        <Node pos="l" depth="1" NCoef="0" IVar="1" Cut="9.3482273437500000e+04" cType="1" res="2.3669777438044548e-02" rms="2.9316359758377075e-01" purity="1.9500809907913208e-01" nType="0">
          <Node pos="l" depth="2" NCoef="0" IVar="1" Cut="7.4089812500000000e+04" cType="1" res="-1.1841516941785812e-02" rms="2.4662560224533081e-01" purity="9.2392124235630035e-02" nType="0">
            <Node pos="l" depth="3" NCoef="0" IVar="-1" Cut="0.0000000000000000e+00" cType="1" res="1.7931965412572026e-03" rms="4.0100497007369995e-01" purity="2.9116213321685791e-01" nType="-99"/>
            <Node pos="r" depth="3" NCoef="0" IVar="-1" Cut="0.0000000000000000e+00" cType="1" res="-1.6485651955008507e-02" rms="1.5542188286781311e-01" purity="2.6273746043443680e-02" nType="-99"/>
          </Node>
          <Node pos="r" depth="2" NCoef="0" IVar="3" Cut="1.8564060546875000e+04" cType="1" res="8.5097581148147583e-02" rms="3.5134625434875488e-01" purity="3.7251430749893188e-01" nType="0">
            <Node pos="l" depth="3" NCoef="0" IVar="-1" Cut="0.0000000000000000e+00" cType="1" res="2.7432656497694552e-04" rms="2.8903836011886597e-01" purity="1.6272243857383728e-01" nType="-99"/>
            <Node pos="r" depth="3" NCoef="0" IVar="-1" Cut="0.0000000000000000e+00" cType="1" res="2.4693745654076338e-03" rms="3.7671634554862976e-01" purity="5.0238811969757080e-01" nType="-99"/>
          </Node>
        </Node>
        <Node pos="r" depth="1" NCoef="0" IVar="1" Cut="1.3210354687500000e+05" cType="1" res="2.3184417188167572e-01" rms="2.5108209252357483e-01" purity="9.1403299570083618e-01" nType="0">
          <Node pos="l" depth="2" NCoef="0" IVar="1" Cut="9.7691835937500000e+04" cType="1" res="2.0892164111137390e-01" rms="2.9748493432998657e-01" purity="8.7440258264541626e-01" nType="0">
            <Node pos="l" depth="3" NCoef="0" IVar="-1" Cut="0.0000000000000000e+00" cType="1" res="1.6630529426038265e-03" rms="3.3174440264701843e-01" purity="8.3224368095397949e-01" nType="-99"/>
            <Node pos="r" depth="3" NCoef="0" IVar="-1" Cut="0.0000000000000000e+00" cType="1" res="1.7475617351010442e-03" rms="1.9413506984710693e-01" purity="9.5932477712631226e-01" nType="-99"/>
          </Node>
          <Node pos="r" depth="2" NCoef="0" IVar="-1" Cut="0.0000000000000000e+00" cType="1" res="2.3946848232299089e-03" rms="1.2305462360382080e-01" purity="9.8456043004989624e-01" nType="-99"/>
        </Node>
      </Node>
    </BinaryTree>
    <BinaryTree type="DecisionTree" boostWeight="1.0000000000000000e+00" itree="193">
      <Node pos="s" depth="0" NCoef="0" IVar="3" Cut="6.8736484375000000e+04" cType="1" res="1.3195048272609711e-01" rms="3.0265069007873535e-01" purity="5.3285616636276245e-01" nType="0">
        <Node pos="l" depth="1" NCoef="0" IVar="3" Cut="3.2759246093750000e+04" cType="1" res="8.1199683248996735e-02" rms="3.2994478940963745e-01" purity="3.4124720096588135e-01" nType="0">
          <Node pos="l" depth="2" NCoef="0" IVar="4" Cut="5.0394350000000000e+05" cType="1" res="1.8962800502777100e-02" rms="2.7326932549476624e-01" purity="1.3832540810108185e-01" nType="0">
            <Node pos="l" depth="3" NCoef="0" IVar="-1" Cut="0.0000000000000000e+00" cType="1" res="7.2442233795300126e-04" rms="2.5797158479690552e-01" purity="1.1351940780878067e-01" nType="-99"/>
            <Node pos="r" depth="3" NCoef="0" IVar="-1" Cut="0.0000000000000000e+00" cType="1" res="2.7265334501862526e-03" rms="3.9552003145217896e-01" purity="4.4253411889076233e-01" nType="-99"/>
          </Node>
          <Node pos="r" depth="2" NCoef="0" IVar="1" Cut="1.0372283593750000e+05" cType="1" res="1.7987804114818573e-01" rms="3.8365331292152405e-01" purity="6.6298544406890869e-01" nType="0">
            <Node pos="l" depth="3" NCoef="0" IVar="-1" Cut="0.0000000000000000e+00" cType="1" res="1.5545234782621264e-03" rms="4.3528282642364502e-01" purity="4.8223254084587097e-01" nType="-99"/>
            <Node pos="r" depth="3" NCoef="0" IVar="-1" Cut="0.0000000000000000e+00" cType="1" res="1.1827783891931176e-03" rms="2.5513201951980591e-01" purity="9.2246776819229126e-01" nType="-99"/>
          </Node>
        </Node>
        <Node pos="r" depth="1" NCoef="0" IVar="1" Cut="9.5234882812500000e+04" cType="1" res="2.4583534896373749e-01" rms="1.8466927111148834e-01" purity="9.6282696723937988e-01" nType="0">
          <Node pos="l" depth="2" NCoef="0" IVar="1" Cut="8.3373406250000000e+04" cType="1" res="2.1204710006713867e-01" rms="2.4592657387256622e-01" purity="9.3046736717224121e-01" nType="0">
            <Node pos="l" depth="3" NCoef="0" IVar="-1" Cut="0.0000000000000000e+00" cType="1" res="2.0406290423125029e-03" rms="2.0095750689506531e-01" purity="9.5687741041183472e-01" nType="-99"/>
            <Node pos="r" depth="3" NCoef="0" IVar="-1" Cut="0.0000000000000000e+00" cType="1" res="1.2865073513239622e-03" rms="4.0427929162979126e-01" purity="7.7033084630966187e-01" nType="-99"/>
          </Node>
          <Node pos="r" depth="2" NCoef="0" IVar="2" Cut="3.8507984375000000e+05" cType="1" res="2.6798880100250244e-01" rms="1.2477628886699677e-01" purity="9.8404377698898315e-01" nType="0">
            <Node pos="l" depth="3" NCoef="0" IVar="-1" Cut="0.0000000000000000e+00" cType="1" res="2.3131391499191523e-03" rms="1.4990445971488953e-01" purity="9.7670531272888184e-01" nType="-99"/>
            <Node pos="r" depth="3" NCoef="0" IVar="-1" Cut="0.0000000000000000e+00" cType="1" res="1.5289442380890250e-03" rms="9.9694781005382538e-02" purity="9.8998802900314331e-01" nType="-99"/>
          </Node>
        </Node>
      </Node>
    </BinaryTree>
    <BinaryTree type="DecisionTree" boostWeight="1.0000000000000000e+00" itree="194">
      <Node pos="s" depth="0" NCoef="0" IVar="3" Cut="6.5406480468750000e+04" cType="1" res="1.1390415579080582e-01" rms="2.9829424619674683e-01" purity="4.9985718727111816e-01" nType="0">
        <Node pos="l" depth="1" NCoef="0" IVar="3" Cut="4.0521988281250000e+04" cType="1" res="5.4180871695280075e-02" rms="3.1827533245086670e-01" purity="2.9029813408851624e-01" nType="0">
          <Node pos="l" depth="2" NCoef="0" IVar="5" Cut="8.7834320312500000e+04" cType="1" res="2.1948527544736862e-02" rms="2.8235682845115662e-01" purity="1.6395711898803711e-01" nType="0">
            <Node pos="l" depth="3" NCoef="0" IVar="-1" Cut="0.0000000000000000e+00" cType="1" res="3.4080247860401869e-03" rms="3.8782200217247009e-01" purity="3.7700375914573669e-01" nType="-99"/>
            <Node pos="r" depth="3" NCoef="0" IVar="-1" Cut="0.0000000000000000e+00" cType="1" res="3.0800607055425644e-04" rms="2.5887775421142578e-01" purity="1.3349093496799469e-01" nType="-99"/>
          </Node>
          <Node pos="r" depth="2" NCoef="0" IVar="1" Cut="7.8740148437500000e+04" cType="1" res="1.5595293045043945e-01" rms="3.9468911290168762e-01" purity="6.8921369314193726e-01" nType="0">
            <Node pos="l" depth="3" NCoef="0" IVar="-1" Cut="0.0000000000000000e+00" cType="1" res="2.3313378915190697e-03" rms="3.9944759011268616e-01" purity="8.0861538648605347e-01" nType="-99"/>
            <Node pos="r" depth="3" NCoef="0" IVar="-1" Cut="0.0000000000000000e+00" cType="1" res="1.2298504589125514e-03" rms="3.7768283486366272e-01" purity="6.3943380117416382e-01" nType="-99"/>
          </Node>
        </Node>
        <Node pos="r" depth="1" NCoef="0" IVar="1" Cut="1.2527707812500000e+05" cType="1" res="2.4468430876731873e-01" rms="1.9258262217044830e-01" purity="9.5874303579330444e-01" nType="0">
          <Node pos="l" depth="2" NCoef="0" IVar="3" Cut="9.4966585937500000e+04" cType="1" res="2.2870086133480072e-01" rms="2.3053064942359924e-01" purity="9.3943041563034058e-01" nType="0">
            <Node pos="l" depth="3" NCoef="0" IVar="-1" Cut="0.0000000000000000e+00" cType="1" res="1.4630348887294531e-03" rms="3.3350360393524170e-01" purity="8.6702066659927368e-01" nType="-99"/>
            <Node pos="r" depth="3" NCoef="0" IVar="-1" Cut="0.0000000000000000e+00" cType="1" res="2.3250814992934465e-03" rms="1.3717898726463318e-01" purity="9.8059105873107910e-01" nType="-99"/>
          </Node>
          <Node pos="r" depth="2" NCoef="0" IVar="-1" Cut="0.0000000000000000e+00" cType="1" res="2.3325539659708738e-03" rms="1.0696096718311310e-01" purity="9.8839575052261353e-01" nType="-99"/>
        </Node>
      </Node>
    </BinaryTree>
    <BinaryTree type="DecisionTree" boostWeight="1.0000000000000000e+00" itree="195">
      <Node pos="s" depth="0" NCoef="0" IVar="3" Cut="5.4198226562500000e+04" cType="1" res="1.1007602512836456e-01" rms="3.0491763353347778e-01" purity="4.9161505699157715e-01" nType="0">
        <Node pos="l" depth="1" NCoef="0" IVar="2" Cut="3.7277562500000000e+05" cType="1" res="4.0980983525514603e-02" rms="3.1564494967460632e-01" purity="2.3200602829456329e-01" nType="0">
          <Node pos="l" depth="2" NCoef="0" IVar="2" Cut="2.4741434375000000e+05" cType="1" res="9.3930214643478394e-03" rms="2.8833857178688049e-01" purity="1.5683771669864655e-01" nType="0">
            <Node pos="l" depth="3" NCoef="0" IVar="-1" Cut="0.0000000000000000e+00" cType="1" res="-4.4023841619491577e-03" rms="2.3544245958328247e-01" purity="7.3984682559967041e-02" nType="-99"/>
            <Node pos="r" depth="3" NCoef="0" IVar="-1" Cut="0.0000000000000000e+00" cType="1" res="2.0649333018809557e-03" rms="3.3819144964218140e-01" purity="2.6610559225082397e-01" nType="-99"/>
          </Node>
          <Node pos="r" depth="2" NCoef="0" IVar="3" Cut="1.8449724609375000e+04" cType="1" res="1.6380181908607483e-01" rms="3.8051792979240417e-01" purity="5.2427661418914795e-01" nType="0">
            <Node pos="l" depth="3" NCoef="0" IVar="-1" Cut="0.0000000000000000e+00" cType="1" res="1.0647479211911559e-03" rms="3.4003078937530518e-01" purity="2.5718021392822266e-01" nType="-99"/>
            <Node pos="r" depth="3" NCoef="0" IVar="-1" Cut="0.0000000000000000e+00" cType="1" res="3.5633845254778862e-03" rms="3.8583385944366455e-01" purity="6.3320255279541016e-01" nType="-99"/>
          </Node>
        </Node>
        <Node pos="r" depth="1" NCoef="0" IVar="1" Cut="1.0376785937500000e+05" cType="1" res="2.2532221674919128e-01" rms="2.4622496962547302e-01" purity="9.2462652921676636e-01" nType="0">
          <Node pos="l" depth="2" NCoef="0" IVar="3" Cut="8.9369531250000000e+04" cType="1" res="1.9059233367443085e-01" rms="3.0715140700340271e-01" purity="8.7528526782989502e-01" nType="0">
            <Node pos="l" depth="3" NCoef="0" IVar="-1" Cut="0.0000000000000000e+00" cType="1" res="1.1245614150539041e-03" rms="4.0304839611053467e-01" purity="7.6857101917266846e-01" nType="-99"/>
            <Node pos="r" depth="3" NCoef="0" IVar="-1" Cut="0.0000000000000000e+00" cType="1" res="2.3867848794907331e-03" rms="1.7429156601428986e-01" purity="9.6825420856475830e-01" nType="-99"/>
          </Node>
          <Node pos="r" depth="2" NCoef="0" IVar="5" Cut="9.0614156250000000e+04" cType="1" res="2.6208877563476562e-01" rms="1.4935073256492615e-01" purity="9.7686123847961426e-01" nType="0">
            <Node pos="l" depth="3" NCoef="0" IVar="-1" Cut="0.0000000000000000e+00" cType="1" res="1.9308790797367692e-03" rms="1.6864198446273804e-01" purity="9.7002017498016357e-01" nType="-99"/>
            <Node pos="r" depth="3" NCoef="0" IVar="-1" Cut="0.0000000000000000e+00" cType="1" res="1.6872896812856197e-03" rms="1.3338826596736908e-01" purity="9.8176604509353638e-01" nType="-99"/>
          </Node>
        </Node>
      </Node>
    </BinaryTree>
    <BinaryTree type="DecisionTree" boostWeight="1.0000000000000000e+00" itree="196">
      <Node pos="s" depth="0" NCoef="0" IVar="3" Cut="4.8659894531250000e+04" cType="1" res="1.2259004265069962e-01" rms="3.0258524417877197e-01" purity="5.1550292968750000e-01" nType="0">
        <Node pos="l" depth="1" NCoef="0" IVar="3" Cut="2.7829585937500000e+04" cType="1" res="4.2613804340362549e-02" rms="3.1241741776466370e-01" purity="2.1510957181453705e-01" nType="0">
          <Node pos="l" depth="2" NCoef="0" IVar="5" Cut="8.6890304687500000e+04" cType="1" res="-1.4265679055824876e-04" rms="2.4711818993091583e-01" purity="1.0658738017082214e-01" nType="0">
            <Node pos="l" depth="3" NCoef="0" IVar="-1" Cut="0.0000000000000000e+00" cType="1" res="2.9891543090343475e-03" rms="3.8064977526664734e-01" purity="3.8396340608596802e-01" nType="-99"/>
            <Node pos="r" depth="3" NCoef="0" IVar="-1" Cut="0.0000000000000000e+00" cType="1" res="-1.5997895970940590e-03" rms="2.2664184868335724e-01" purity="8.1269614398479462e-02" nType="-99"/>
          </Node>
          <Node pos="r" depth="2" NCoef="0" IVar="1" Cut="8.3927703125000000e+04" cType="1" res="1.2914381921291351e-01" rms="4.0045115351676941e-01" purity="4.3473544716835022e-01" nType="0">
            <Node pos="l" depth="3" NCoef="0" IVar="-1" Cut="0.0000000000000000e+00" cType="1" res="4.1035064496099949e-03" rms="4.6199902892112732e-01" purity="5.1847791671752930e-01" nType="-99"/>
            <Node pos="r" depth="3" NCoef="0" IVar="-1" Cut="0.0000000000000000e+00" cType="1" res="9.2213670723140240e-04" rms="3.6700850725173950e-01" purity="4.0173634886741638e-01" nType="-99"/>
          </Node>
        </Node>
        <Node pos="r" depth="1" NCoef="0" IVar="1" Cut="1.0073193750000000e+05" cType="1" res="2.2842825949192047e-01" rms="2.5276353955268860e-01" purity="9.1303467750549316e-01" nType="0">
          <Node pos="l" depth="2" NCoef="0" IVar="1" Cut="8.3891320312500000e+04" cType="1" res="1.7542284727096558e-01" rms="3.3256918191909790e-01" purity="8.3402818441390991e-01" nType="0">
            <Node pos="l" depth="3" NCoef="0" IVar="-1" Cut="0.0000000000000000e+00" cType="1" res="2.1710146684199572e-03" rms="2.6562240719795227e-01" purity="9.1610980033874512e-01" nType="-99"/>
            <Node pos="r" depth="3" NCoef="0" IVar="-1" Cut="0.0000000000000000e+00" cType="1" res="5.8269879082217813e-04" rms="4.3383136391639709e-01" purity="6.3528788089752197e-01" nType="-99"/>
          </Node>
          <Node pos="r" depth="2" NCoef="0" IVar="3" Cut="9.4965523437500000e+04" cType="1" res="2.7372172474861145e-01" rms="1.3971637189388275e-01" purity="9.8054623603820801e-01" nType="0">
            <Node pos="l" depth="3" NCoef="0" IVar="-1" Cut="0.0000000000000000e+00" cType="1" res="1.4508202439174056e-03" rms="1.6255992650985718e-01" purity="9.7360295057296753e-01" nType="-99"/>
            <Node pos="r" depth="3" NCoef="0" IVar="-1" Cut="0.0000000000000000e+00" cType="1" res="2.3821187205612659e-03" rms="1.0876042395830154e-01" purity="9.8804605007171631e-01" nType="-99"/>
          </Node>
        </Node>
      </Node>
    </BinaryTree>
    <BinaryTree type="DecisionTree" boostWeight="1.0000000000000000e+00" itree="197">
      <Node pos="s" depth="0" NCoef="0" IVar="3" Cut="3.2904082031250000e+04" cType="1" res="1.1289174109697342e-01" rms="2.9167816042900085e-01" purity="5.1266109943389893e-01" nType="0">
        <Node pos="l" depth="1" NCoef="0" IVar="1" Cut="1.3641148437500000e+05" cType="1" res="3.4960529301315546e-03" rms="2.4901634454727173e-01" purity="1.2603265047073364e-01" nType="0">
          <Node pos="l" depth="2" NCoef="0" IVar="5" Cut="9.5449148437500000e+04" cType="1" res="-1.4300185255706310e-02" rms="2.1366204321384430e-01" purity="5.5698461830615997e-02" nType="0">
            <Node pos="l" depth="3" NCoef="0" IVar="-1" Cut="0.0000000000000000e+00" cType="1" res="-4.0147467516362667e-03" rms="1.9584099948406219e-01" purity="4.7931693494319916e-02" nType="-99"/>
            <Node pos="r" depth="3" NCoef="0" IVar="-1" Cut="0.0000000000000000e+00" cType="1" res="2.0517829805612564e-02" rms="4.6219408512115479e-01" purity="2.7792993187904358e-01" nType="-99"/>
          </Node>
          <Node pos="r" depth="2" NCoef="0" IVar="-1" Cut="0.0000000000000000e+00" cType="1" res="1.8562987679615617e-03" rms="4.2142000794410706e-01" purity="7.3794502019882202e-01" nType="-99"/>
        </Node>
        <Node pos="r" depth="1" NCoef="0" IVar="1" Cut="1.0034389062500000e+05" cType="1" res="1.9723379611968994e-01" rms="2.9414305090904236e-01" purity="8.1074452400207520e-01" nType="0">
          <Node pos="l" depth="2" NCoef="0" IVar="1" Cut="7.9300140625000000e+04" cType="1" res="1.3515137135982513e-01" rms="3.4332683682441711e-01" purity="6.8706709146499634e-01" nType="0">
            <Node pos="l" depth="3" NCoef="0" IVar="-1" Cut="0.0000000000000000e+00" cType="1" res="2.4703196249902248e-03" rms="3.1082805991172791e-01" purity="8.6662042140960693e-01" nType="-99"/>
            <Node pos="r" depth="3" NCoef="0" IVar="-1" Cut="0.0000000000000000e+00" cType="1" res="3.4008768852800131e-04" rms="3.4685793519020081e-01" purity="4.6713644266128540e-01" nType="-99"/>
          </Node>
          <Node pos="r" depth="2" NCoef="0" IVar="0" Cut="1.3333333730697632e+00" cType="1" res="2.6452064514160156e-01" rms="2.0936508476734161e-01" purity="9.4478988647460938e-01" nType="0">
            <Node pos="l" depth="3" NCoef="0" IVar="-1" Cut="0.0000000000000000e+00" cType="1" res="1.5695212641730905e-03" rms="2.0772573351860046e-01" purity="9.4530802965164185e-01" nType="-99"/>
            <Node pos="r" depth="3" NCoef="0" IVar="-1" Cut="0.0000000000000000e+00" cType="1" res="2.3545303847640753e-03" rms="2.1135178208351135e-01" purity="9.4361788034439087e-01" nType="-99"/>
          </Node>
        </Node>
      </Node>
    </BinaryTree>
    <BinaryTree type="DecisionTree" boostWeight="1.0000000000000000e+00" itree="198">
      <Node pos="s" depth="0" NCoef="0" IVar="3" Cut="4.8659894531250000e+04" cType="1" res="1.1580339819192886e-01" rms="3.0077397823333740e-01" purity="5.0611734390258789e-01" nType="0">
        <Node pos="l" depth="1" NCoef="0" IVar="2" Cut="2.8360887500000000e+05" cType="1" res="3.6466583609580994e-02" rms="3.0875393748283386e-01" purity="2.0395514369010925e-01" nType="0">
          <Node pos="l" depth="2" NCoef="0" IVar="1" Cut="2.8761705078125000e+04" cType="1" res="-2.8071436099708080e-03" rms="2.6503357291221619e-01" purity="9.8063975572586060e-02" nType="0">
            <Node pos="l" depth="3" NCoef="0" IVar="-1" Cut="0.0000000000000000e+00" cType="1" res="-7.2942361235618591e-02" rms="9.2836298048496246e-02" purity="0.0000000000000000e+00" nType="-99"/>
            <Node pos="r" depth="3" NCoef="0" IVar="-1" Cut="0.0000000000000000e+00" cType="1" res="6.2451296253129840e-04" rms="2.6896715164184570e-01" purity="1.0345730185508728e-01" nType="-99"/>
          </Node>
          <Node pos="r" depth="2" NCoef="0" IVar="5" Cut="9.0658773437500000e+04" cType="1" res="9.8493449389934540e-02" rms="3.5869964957237244e-01" purity="3.7119409441947937e-01" nType="0">
            <Node pos="l" depth="3" NCoef="0" IVar="-1" Cut="0.0000000000000000e+00" cType="1" res="1.4531825436279178e-03" rms="3.7785252928733826e-01" purity="4.6189948916435242e-01" nType="-99"/>
            <Node pos="r" depth="3" NCoef="0" IVar="-1" Cut="0.0000000000000000e+00" cType="1" res="1.6428167000412941e-03" rms="3.3192610740661621e-01" purity="2.8677618503570557e-01" nType="-99"/>
          </Node>
        </Node>
        <Node pos="r" depth="1" NCoef="0" IVar="1" Cut="1.0412753125000000e+05" cType="1" res="2.2234153747558594e-01" rms="2.5324010848999023e-01" purity="9.1187846660614014e-01" nType="0">
          <Node pos="l" depth="2" NCoef="0" IVar="1" Cut="7.7956750000000000e+04" cType="1" res="1.6063074767589569e-01" rms="3.4047028422355652e-01" purity="8.2219034433364868e-01" nType="0">
            <Node pos="l" depth="3" NCoef="0" IVar="-1" Cut="0.0000000000000000e+00" cType="1" res="2.3246156051754951e-03" rms="2.4308802187442780e-01" purity="9.3199956417083740e-01" nType="-99"/>
            <Node pos="r" depth="3" NCoef="0" IVar="-1" Cut="0.0000000000000000e+00" cType="1" res="5.1313085714355111e-04" rms="4.2759701609611511e-01" purity="6.4272058010101318e-01" nType="-99"/>
          </Node>
          <Node pos="r" depth="2" NCoef="0" IVar="1" Cut="1.4566412500000000e+05" cType="1" res="2.6979887485504150e-01" rms="1.3828296959400177e-01" purity="9.8085111379623413e-01" nType="0">
            <Node pos="l" depth="3" NCoef="0" IVar="-1" Cut="0.0000000000000000e+00" cType="1" res="1.8549062078818679e-03" rms="1.3838340342044830e-01" purity="9.8145389556884766e-01" nType="-99"/>
            <Node pos="r" depth="3" NCoef="0" IVar="-1" Cut="0.0000000000000000e+00" cType="1" res="2.6403516530990601e-03" rms="1.3781836628913879e-01" purity="9.8039633035659790e-01" nType="-99"/>
          </Node>
        </Node>
      </Node>
    </BinaryTree>
    <BinaryTree type="DecisionTree" boostWeight="1.0000000000000000e+00" itree="199">
      <Node pos="s" depth="0" NCoef="0" IVar="3" Cut="5.4259988281250000e+04" cType="1" res="1.1108678579330444e-01" rms="2.9922181367874146e-01" purity="5.1022893190383911e-01" nType="0">
        <Node pos="l" depth="1" NCoef="0" IVar="1" Cut="1.5585728125000000e+05" cType="1" res="4.0859829634428024e-02" rms="3.1086367368698120e-01" purity="2.4234630167484283e-01" nType="0">
          <Node pos="l" depth="2" NCoef="0" IVar="1" Cut="1.1468756250000000e+05" cType="1" res="1.4744435437023640e-02" rms="2.9966619610786438e-01" purity="1.5242695808410645e-01" nType="0">
            <Node pos="l" depth="3" NCoef="0" IVar="-1" Cut="0.0000000000000000e+00" cType="1" res="-5.6207674788311124e-04" rms="2.7199891209602356e-01" purity="1.0720592737197876e-01" nType="-99"/>
            <Node pos="r" depth="3" NCoef="0" IVar="-1" Cut="0.0000000000000000e+00" cType="1" res="2.9617929831147194e-03" rms="4.6158286929130554e-01" purity="6.7869120836257935e-01" nType="-99"/>
          </Node>
          <Node pos="r" depth="2" NCoef="0" IVar="5" Cut="9.0872359375000000e+04" cType="1" res="2.2179365158081055e-01" rms="3.2640197873115540e-01" purity="8.6532944440841675e-01" nType="0">
            <Node pos="l" depth="3" NCoef="0" IVar="-1" Cut="0.0000000000000000e+00" cType="1" res="2.5928441900759935e-03" rms="3.2737228274345398e-01" purity="8.7784701585769653e-01" nType="-99"/>
            <Node pos="r" depth="3" NCoef="0" IVar="-1" Cut="0.0000000000000000e+00" cType="1" res="8.9623715030029416e-04" rms="3.2203471660614014e-01" purity="8.5007578134536743e-01" nType="-99"/>
          </Node>
        </Node>
        <Node pos="r" depth="1" NCoef="0" IVar="1" Cut="1.0168853906250000e+05" cType="1" res="2.1994218230247498e-01" rms="2.4296161532402039e-01" purity="9.2546075582504272e-01" nType="0">
          <Node pos="l" depth="2" NCoef="0" IVar="3" Cut="8.4665460937500000e+04" cType="1" res="1.6982463002204895e-01" rms="3.1781679391860962e-01" purity="8.6139535903930664e-01" nType="0">
            <Node pos="l" depth="3" NCoef="0" IVar="-1" Cut="0.0000000000000000e+00" cType="1" res="6.7407247843220830e-04" rms="4.4601806998252869e-01" purity="6.8797045946121216e-01" nType="-99"/>
            <Node pos="r" depth="3" NCoef="0" IVar="-1" Cut="0.0000000000000000e+00" cType="1" res="2.2374361287802458e-03" rms="1.6550451517105103e-01" purity="9.7102093696594238e-01" nType="-99"/>
          </Node>
          <Node pos="r" depth="2" NCoef="0" IVar="2" Cut="3.8659765625000000e+05" cType="1" res="2.6164767146110535e-01" rms="1.4237055182456970e-01" purity="9.7877299785614014e-01" nType="0">
            <Node pos="l" depth="3" NCoef="0" IVar="-1" Cut="0.0000000000000000e+00" cType="1" res="2.1341666579246521e-03" rms="1.6825841367244720e-01" purity="9.6988606452941895e-01" nType="-99"/>
            <Node pos="r" depth="3" NCoef="0" IVar="-1" Cut="0.0000000000000000e+00" cType="1" res="1.5869858907535672e-03" rms="1.1342151463031769e-01" purity="9.8687589168548584e-01" nType="-99"/>
          </Node>
        </Node>
      </Node>
    </BinaryTree>
    <BinaryTree type="DecisionTree" boostWeight="1.0000000000000000e+00" itree="200">
      <Node pos="s" depth="0" NCoef="0" IVar="3" Cut="4.8659894531250000e+04" cType="1" res="1.1688699573278427e-01" rms="3.0096733570098877e-01" purity="5.1014864444732666e-01" nType="0">
        <Node pos="l" depth="1" NCoef="0" IVar="5" Cut="9.6362835937500000e+04" cType="1" res="5.1278129220008850e-02" rms="3.0993366241455078e-01" purity="2.3879925906658173e-01" nType="0">
          <Node pos="l" depth="2" NCoef="0" IVar="1" Cut="1.7491946875000000e+05" cType="1" res="4.2444225400686264e-02" rms="3.0285307765007019e-01" purity="2.2539965808391571e-01" nType="0">
            <Node pos="l" depth="3" NCoef="0" IVar="-1" Cut="0.0000000000000000e+00" cType="1" res="1.3352542882785201e-03" rms="2.9534888267517090e-01" purity="1.6294887661933899e-01" nType="-99"/>
            <Node pos="r" depth="3" NCoef="0" IVar="-1" Cut="0.0000000000000000e+00" cType="1" res="2.2483044303953648e-03" rms="3.3061864972114563e-01" purity="8.5809224843978882e-01" nType="-99"/>
          </Node>
          <Node pos="r" depth="2" NCoef="0" IVar="-1" Cut="0.0000000000000000e+00" cType="1" res="1.6309602651745081e-03" rms="3.9215880632400513e-01" purity="6.3607972860336304e-01" nType="-99"/>
        </Node>
        <Node pos="r" depth="1" NCoef="0" IVar="3" Cut="9.4948132812500000e+04" cType="1" res="2.1236224472522736e-01" rms="2.5928902626037598e-01" purity="9.0502130985260010e-01" nType="0">
          <Node pos="l" depth="2" NCoef="0" IVar="3" Cut="6.1852355468750000e+04" cType="1" res="1.6901825368404388e-01" rms="3.4685751795768738e-01" purity="8.1864911317825317e-01" nType="0">
            <Node pos="l" depth="3" NCoef="0" IVar="-1" Cut="0.0000000000000000e+00" cType="1" res="1.1835474288091063e-03" rms="3.9990335702896118e-01" purity="7.0971238613128662e-01" nType="-99"/>
            <Node pos="r" depth="3" NCoef="0" IVar="-1" Cut="0.0000000000000000e+00" cType="1" res="1.8402964342385530e-03" rms="3.0296248197555542e-01" purity="8.8836377859115601e-01" nType="-99"/>
          </Node>
          <Node pos="r" depth="2" NCoef="0" IVar="2" Cut="3.2430381250000000e+05" cType="1" res="2.5247609615325928e-01" rms="1.2148786336183548e-01" purity="9.8495680093765259e-01" nType="0">
            <Node pos="l" depth="3" NCoef="0" IVar="-1" Cut="0.0000000000000000e+00" cType="1" res="2.5291938800364733e-03" rms="1.3913704454898834e-01" purity="9.7992730140686035e-01" nType="-99"/>
            <Node pos="r" depth="3" NCoef="0" IVar="-1" Cut="0.0000000000000000e+00" cType="1" res="2.1188107784837484e-03" rms="1.0716013610363007e-01" purity="9.8842906951904297e-01" nType="-99"/>
          </Node>
        </Node>
      </Node>
    </BinaryTree>
    <BinaryTree type="DecisionTree" boostWeight="1.0000000000000000e+00" itree="201">
      <Node pos="s" depth="0" NCoef="0" IVar="4" Cut="3.5134234375000000e+05" cType="1" res="1.3269504904747009e-01" rms="3.0793929100036621e-01" purity="5.2540045976638794e-01" nType="0">
        <Node pos="l" depth="1" NCoef="0" IVar="3" Cut="6.4182070312500000e+04" cType="1" res="7.9126149415969849e-02" rms="3.1578788161277771e-01" purity="3.5447940230369568e-01" nType="0">
          <Node pos="l" depth="2" NCoef="0" IVar="4" Cut="3.3749550000000000e+05" cType="1" res="4.9173537641763687e-02" rms="3.2190978527069092e-01" purity="2.3383785784244537e-01" nType="0">
            <Node pos="l" depth="3" NCoef="0" IVar="-1" Cut="0.0000000000000000e+00" cType="1" res="1.1926200240850449e-03" rms="3.1679433584213257e-01" purity="2.0108886063098907e-01" nType="-99"/>
            <Node pos="r" depth="3" NCoef="0" IVar="-1" Cut="0.0000000000000000e+00" cType="1" res="1.1574109084904194e-03" rms="2.7143672108650208e-01" purity="7.6933288574218750e-01" nType="-99"/>
          </Node>
          <Node pos="r" depth="2" NCoef="0" IVar="3" Cut="7.7153312500000000e+04" cType="1" res="2.2286573052406311e-01" rms="2.3668760061264038e-01" purity="9.3342626094818115e-01" nType="0">
            <Node pos="l" depth="3" NCoef="0" IVar="-1" Cut="0.0000000000000000e+00" cType="1" res="1.2664514360949397e-03" rms="3.6750838160514832e-01" purity="8.2143384218215942e-01" nType="-99"/>
            <Node pos="r" depth="3" NCoef="0" IVar="-1" Cut="0.0000000000000000e+00" cType="1" res="2.5894960854202509e-03" rms="1.6968591511249542e-01" purity="9.6958094835281372e-01" nType="-99"/>
          </Node>
        </Node>
        <Node pos="r" depth="1" NCoef="0" IVar="1" Cut="1.5608762500000000e+05" cType="1" res="2.1917718648910522e-01" rms="2.7351701259613037e-01" purity="8.0133700370788574e-01" nType="0">
          <Node pos="l" depth="2" NCoef="0" IVar="1" Cut="1.0121208593750000e+05" cType="1" res="1.9247911870479584e-01" rms="3.1507399678230286e-01" purity="6.9579803943634033e-01" nType="0">
            <Node pos="l" depth="3" NCoef="0" IVar="-1" Cut="0.0000000000000000e+00" cType="1" res="1.8666930263862014e-03" rms="3.1475731730461121e-01" purity="5.8583849668502808e-01" nType="-99"/>
            <Node pos="r" depth="3" NCoef="0" IVar="-1" Cut="0.0000000000000000e+00" cType="1" res="1.8400098197162151e-03" rms="2.7856484055519104e-01" purity="9.1828024387359619e-01" nType="-99"/>
          </Node>
          <Node pos="r" depth="2" NCoef="0" IVar="-1" Cut="0.0000000000000000e+00" cType="1" res="1.3437118614092469e-03" rms="1.8729147315025330e-01" purity="9.6107631921768188e-01" nType="-99"/>
        </Node>
      </Node>
    </BinaryTree>
    <BinaryTree type="DecisionTree" boostWeight="1.0000000000000000e+00" itree="202">
      <Node pos="s" depth="0" NCoef="0" IVar="1" Cut="1.0036485156250000e+05" cType="1" res="1.0334596782922745e-01" rms="2.9206398129463196e-01" purity="4.9615854024887085e-01" nType="0">
        <Node pos="l" depth="1" NCoef="0" IVar="1" Cut="7.9331148437500000e+04" cType="1" res="3.2485760748386383e-02" rms="2.8521627187728882e-01" purity="2.9014021158218384e-01" nType="0">
          <Node pos="l" depth="2" NCoef="0" IVar="3" Cut="3.3172445312500000e+04" cType="1" res="1.4891703426837921e-01" rms="3.4127745032310486e-01" purity="6.1574834585189819e-01" nType="0">
            <Node pos="l" depth="3" NCoef="0" IVar="-1" Cut="0.0000000000000000e+00" cType="1" res="2.5424151681363583e-03" rms="3.4096792340278625e-01" purity="1.4841262996196747e-01" nType="-99"/>
            <Node pos="r" depth="3" NCoef="0" IVar="-1" Cut="0.0000000000000000e+00" cType="1" res="2.1261204965412617e-03" rms="3.2525831460952759e-01" purity="8.4181648492813110e-01" nType="-99"/>
          </Node>
          <Node pos="r" depth="2" NCoef="0" IVar="3" Cut="7.5557476562500000e+04" cType="1" res="-3.1003812327980995e-02" rms="2.2532941401004791e-01" purity="1.1258722841739655e-01" nType="0">
            <Node pos="l" depth="3" NCoef="0" IVar="-1" Cut="0.0000000000000000e+00" cType="1" res="-6.5717147663235664e-03" rms="2.0845752954483032e-01" purity="5.4829552769660950e-02" nType="-99"/>
            <Node pos="r" depth="3" NCoef="0" IVar="-1" Cut="0.0000000000000000e+00" cType="1" res="1.7160109709948301e-03" rms="3.2717907428741455e-01" purity="8.7132734060287476e-01" nType="-99"/>
          </Node>
        </Node>
        <Node pos="r" depth="1" NCoef="0" IVar="4" Cut="2.3989440625000000e+05" cType="1" res="2.2689953446388245e-01" rms="2.6110053062438965e-01" purity="8.5537707805633545e-01" nType="0">
          <Node pos="l" depth="2" NCoef="0" IVar="3" Cut="2.8216513671875000e+04" cType="1" res="1.2302322685718536e-01" rms="3.3272263407707214e-01" purity="5.9415060281753540e-01" nType="0">
            <Node pos="l" depth="3" NCoef="0" IVar="-1" Cut="0.0000000000000000e+00" cType="1" res="-8.6072779959067702e-04" rms="3.2491129636764526e-01" purity="2.1398216485977173e-01" nType="-99"/>
            <Node pos="r" depth="3" NCoef="0" IVar="-1" Cut="0.0000000000000000e+00" cType="1" res="1.7326548695564270e-03" rms="3.0700200796127319e-01" purity="8.2385379076004028e-01" nType="-99"/>
          </Node>
          <Node pos="r" depth="2" NCoef="0" IVar="3" Cut="5.4548281250000000e+04" cType="1" res="2.4585999548435211e-01" rms="2.4100065231323242e-01" purity="9.0305852890014648e-01" nType="0">
            <Node pos="l" depth="3" NCoef="0" IVar="-1" Cut="0.0000000000000000e+00" cType="1" res="1.9703661091625690e-03" rms="3.7354475259780884e-01" purity="7.4302792549133301e-01" nType="-99"/>
            <Node pos="r" depth="3" NCoef="0" IVar="-1" Cut="0.0000000000000000e+00" cType="1" res="2.2188543807715178e-03" rms="1.2779676914215088e-01" purity="9.8333001136779785e-01" nType="-99"/>
          </Node>
        </Node>
      </Node>
    </BinaryTree>
    <BinaryTree type="DecisionTree" boostWeight="1.0000000000000000e+00" itree="203">
      <Node pos="s" depth="0" NCoef="0" IVar="3" Cut="6.8736484375000000e+04" cType="1" res="1.1240069568157196e-01" rms="2.9673293232917786e-01" purity="5.0945359468460083e-01" nType="0">
        <Node pos="l" depth="1" NCoef="0" IVar="3" Cut="4.5836863281250000e+04" cType="1" res="5.5057995021343231e-02" rms="3.2009196281433105e-01" purity="3.0186641216278076e-01" nType="0">
          <Node pos="l" depth="2" NCoef="0" IVar="1" Cut="7.4204796875000000e+04" cType="1" res="2.4095483124256134e-02" rms="2.9648935794830322e-01" purity="1.8040908873081207e-01" nType="0">
            <Node pos="l" depth="3" NCoef="0" IVar="-1" Cut="0.0000000000000000e+00" cType="1" res="3.5305439960211515e-03" rms="4.2821604013442993e-01" purity="3.0981212854385376e-01" nType="-99"/>
            <Node pos="r" depth="3" NCoef="0" IVar="-1" Cut="0.0000000000000000e+00" cType="1" res="3.2983531127683818e-04" rms="2.6100689172744751e-01" purity="1.5656580030918121e-01" nType="-99"/>
          </Node>
          <Node pos="r" depth="2" NCoef="0" IVar="2" Cut="2.7994300000000000e+05" cType="1" res="1.7467829585075378e-01" rms="3.7505969405174255e-01" purity="7.7110373973846436e-01" nType="0">
            <Node pos="l" depth="3" NCoef="0" IVar="-1" Cut="0.0000000000000000e+00" cType="1" res="1.2848790502175689e-03" rms="4.5823794603347778e-01" purity="6.3413524627685547e-01" nType="-99"/>
            <Node pos="r" depth="3" NCoef="0" IVar="-1" Cut="0.0000000000000000e+00" cType="1" res="1.5672310255467892e-03" rms="3.0847173929214478e-01" purity="8.5371172428131104e-01" nType="-99"/>
          </Node>
        </Node>
        <Node pos="r" depth="1" NCoef="0" IVar="1" Cut="1.0073193750000000e+05" cType="1" res="2.3767581582069397e-01" rms="1.8356260657310486e-01" purity="9.6296393871307373e-01" nType="0">
          <Node pos="l" depth="2" NCoef="0" IVar="3" Cut="9.3779890625000000e+04" cType="1" res="2.1071182191371918e-01" rms="2.4010445177555084e-01" purity="9.3398588895797729e-01" nType="0">
            <Node pos="l" depth="3" NCoef="0" IVar="-1" Cut="0.0000000000000000e+00" cType="1" res="1.2456458061933517e-03" rms="3.5169804096221924e-01" purity="8.4870898723602295e-01" nType="-99"/>
            <Node pos="r" depth="3" NCoef="0" IVar="-1" Cut="0.0000000000000000e+00" cType="1" res="2.2998740896582603e-03" rms="1.5368178486824036e-01" purity="9.7539025545120239e-01" nType="-99"/>
          </Node>
          <Node pos="r" depth="2" NCoef="0" IVar="-1" Cut="0.0000000000000000e+00" cType="1" res="1.7539123073220253e-03" rms="1.0925385355949402e-01" purity="9.8787903785705566e-01" nType="-99"/>
        </Node>
      </Node>
    </BinaryTree>
    <BinaryTree type="DecisionTree" boostWeight="1.0000000000000000e+00" itree="204">
      <Node pos="s" depth="0" NCoef="0" IVar="3" Cut="6.8736484375000000e+04" cType="1" res="1.0620538145303726e-01" rms="2.8620332479476929e-01" purity="5.0220954418182373e-01" nType="0">
        <Node pos="l" depth="1" NCoef="0" IVar="1" Cut="1.3640723437500000e+05" cType="1" res="3.4767828881740570e-02" rms="3.0808842182159424e-01" purity="2.5919148325920105e-01" nType="0">
          <Node pos="l" depth="2" NCoef="0" IVar="1" Cut="1.1856982031250000e+05" cType="1" res="1.3604751788079739e-02" rms="2.9396274685859680e-01" purity="1.7822092771530151e-01" nType="0">
            <Node pos="l" depth="3" NCoef="0" IVar="-1" Cut="0.0000000000000000e+00" cType="1" res="-1.5825718583073467e-04" rms="2.7749311923980713e-01" purity="1.4448978006839752e-01" nType="-99"/>
            <Node pos="r" depth="3" NCoef="0" IVar="-1" Cut="0.0000000000000000e+00" cType="1" res="3.0727458652108908e-03" rms="4.0301689505577087e-01" purity="7.5112736225128174e-01" nType="-99"/>
          </Node>
          <Node pos="r" depth="2" NCoef="0" IVar="3" Cut="2.6237154296875000e+04" cType="1" res="1.8110875785350800e-01" rms="3.5946193337440491e-01" purity="8.1909614801406860e-01" nType="0">
            <Node pos="l" depth="3" NCoef="0" IVar="-1" Cut="0.0000000000000000e+00" cType="1" res="6.1251159058883786e-04" rms="5.0826346874237061e-01" purity="5.4640078544616699e-01" nType="-99"/>
            <Node pos="r" depth="3" NCoef="0" IVar="-1" Cut="0.0000000000000000e+00" cType="1" res="2.6159370318055153e-03" rms="2.6382496953010559e-01" purity="9.2197620868682861e-01" nType="-99"/>
          </Node>
        </Node>
        <Node pos="r" depth="1" NCoef="0" IVar="1" Cut="1.0342598437500000e+05" cType="1" res="2.4349093437194824e-01" rms="1.6811625659465790e-01" purity="9.6923118829727173e-01" nType="0">
          <Node pos="l" depth="2" NCoef="0" IVar="1" Cut="8.5874351562500000e+04" cType="1" res="2.1882407367229462e-01" rms="2.2841201722621918e-01" purity="9.4121646881103516e-01" nType="0">
            <Node pos="l" depth="3" NCoef="0" IVar="-1" Cut="0.0000000000000000e+00" cType="1" res="1.8187308451160789e-03" rms="1.7290444672107697e-01" purity="9.6864414215087891e-01" nType="-99"/>
            <Node pos="r" depth="3" NCoef="0" IVar="-1" Cut="0.0000000000000000e+00" cType="1" res="1.2398081598803401e-03" rms="3.7963286042213440e-01" purity="8.1655603647232056e-01" nType="-99"/>
          </Node>
          <Node pos="r" depth="2" NCoef="0" IVar="-1" Cut="0.0000000000000000e+00" cType="1" res="1.2285941047593951e-03" rms="9.1415032744407654e-02" purity="9.9153631925582886e-01" nType="-99"/>
        </Node>
      </Node>
    </BinaryTree>
    <BinaryTree type="DecisionTree" boostWeight="1.0000000000000000e+00" itree="205">
      <Node pos="s" depth="0" NCoef="0" IVar="3" Cut="5.4312500000000000e+04" cType="1" res="1.1131756007671356e-01" rms="2.9161977767944336e-01" purity="5.1251184940338135e-01" nType="0">
        <Node pos="l" depth="1" NCoef="0" IVar="3" Cut="2.3378599609375000e+04" cType="1" res="4.0389850735664368e-02" rms="3.0085721611976624e-01" purity="2.4818110466003418e-01" nType="0">
          <Node pos="l" depth="2" NCoef="0" IVar="1" Cut="1.3642714062500000e+05" cType="1" res="-1.6789488494396210e-02" rms="2.1115595102310181e-01" purity="8.0595709383487701e-02" nType="0">
            <Node pos="l" depth="3" NCoef="0" IVar="-1" Cut="0.0000000000000000e+00" cType="1" res="-7.5722099281847477e-03" rms="1.7429982125759125e-01" purity="3.7530019879341125e-02" nType="-99"/>
            <Node pos="r" depth="3" NCoef="0" IVar="-1" Cut="0.0000000000000000e+00" cType="1" res="9.1444031568244100e-04" rms="4.6345981955528259e-01" purity="6.2193429470062256e-01" nType="-99"/>
          </Node>
          <Node pos="r" depth="2" NCoef="0" IVar="4" Cut="2.4874518750000000e+05" cType="1" res="1.0344830155372620e-01" rms="3.6549088358879089e-01" purity="4.3299746513366699e-01" nType="0">
            <Node pos="l" depth="3" NCoef="0" IVar="-1" Cut="0.0000000000000000e+00" cType="1" res="1.1043593985959888e-03" rms="3.6338138580322266e-01" purity="2.7034595608711243e-01" nType="-99"/>
            <Node pos="r" depth="3" NCoef="0" IVar="-1" Cut="0.0000000000000000e+00" cType="1" res="1.3221531407907605e-03" rms="3.5633566975593567e-01" purity="5.6607770919799805e-01" nType="-99"/>
          </Node>
        </Node>
        <Node pos="r" depth="1" NCoef="0" IVar="4" Cut="1.7533028125000000e+05" cType="1" res="2.2349295020103455e-01" rms="2.3631902039051056e-01" purity="9.3056297302246094e-01" nType="0">
          <Node pos="l" depth="2" NCoef="0" IVar="-1" Cut="0.0000000000000000e+00" cType="1" res="5.3934723837301135e-04" rms="4.1199016571044922e-01" purity="7.2897452116012573e-01" nType="-99"/>
          <Node pos="r" depth="2" NCoef="0" IVar="2" Cut="2.0321389062500000e+05" cType="1" res="2.3269121348857880e-01" rms="2.2007913887500763e-01" purity="9.4049197435379028e-01" nType="0">
            <Node pos="l" depth="3" NCoef="0" IVar="-1" Cut="0.0000000000000000e+00" cType="1" res="1.3014919823035598e-03" rms="3.2777386903762817e-01" purity="8.5832053422927856e-01" nType="-99"/>
            <Node pos="r" depth="3" NCoef="0" IVar="-1" Cut="0.0000000000000000e+00" cType="1" res="2.1733047906309366e-03" rms="2.0794735848903656e-01" purity="9.4698655605316162e-01" nType="-99"/>
          </Node>
        </Node>
      </Node>
    </BinaryTree>
    <BinaryTree type="DecisionTree" boostWeight="1.0000000000000000e+00" itree="206">
      <Node pos="s" depth="0" NCoef="0" IVar="3" Cut="6.8798242187500000e+04" cType="1" res="1.1339915543794632e-01" rms="2.9483559727668762e-01" purity="5.1391744613647461e-01" nType="0">
        <Node pos="l" depth="1" NCoef="0" IVar="3" Cut="3.2823636718750000e+04" cType="1" res="6.4246818423271179e-02" rms="3.1611964106559753e-01" purity="3.2751995325088501e-01" nType="0">
          <Node pos="l" depth="2" NCoef="0" IVar="2" Cut="3.7128590625000000e+05" cType="1" res="8.3098886534571648e-03" rms="2.6073339581489563e-01" purity="1.2024291604757309e-01" nType="0">
            <Node pos="l" depth="3" NCoef="0" IVar="-1" Cut="0.0000000000000000e+00" cType="1" res="-1.9151758169755340e-03" rms="2.1584913134574890e-01" purity="7.2307795286178589e-02" nType="-99"/>
            <Node pos="r" depth="3" NCoef="0" IVar="-1" Cut="0.0000000000000000e+00" cType="1" res="3.9748419076204300e-03" rms="3.9838248491287231e-01" purity="3.5427251458168030e-01" nType="-99"/>
          </Node>
          <Node pos="r" depth="2" NCoef="0" IVar="2" Cut="2.6478446875000000e+05" cType="1" res="1.5220728516578674e-01" rms="3.7083026766777039e-01" purity="6.5346175432205200e-01" nType="0">
            <Node pos="l" depth="3" NCoef="0" IVar="-1" Cut="0.0000000000000000e+00" cType="1" res="1.4439703663811088e-03" rms="4.2338690161705017e-01" purity="4.5571100711822510e-01" nType="-99"/>
            <Node pos="r" depth="3" NCoef="0" IVar="-1" Cut="0.0000000000000000e+00" cType="1" res="1.1606932384893298e-03" rms="3.2811418175697327e-01" purity="7.6671773195266724e-01" nType="-99"/>
          </Node>
        </Node>
        <Node pos="r" depth="1" NCoef="0" IVar="2" Cut="2.0820309375000000e+05" cType="1" res="2.3118808865547180e-01" rms="1.9000609219074249e-01" purity="9.6060150861740112e-01" nType="0">
          <Node pos="l" depth="2" NCoef="0" IVar="-1" Cut="0.0000000000000000e+00" cType="1" res="2.0011253654956818e-03" rms="2.8782391548156738e-01" purity="9.0430420637130737e-01" nType="-99"/>
          <Node pos="r" depth="2" NCoef="0" IVar="1" Cut="1.2622627343750000e+05" cType="1" res="2.4091619253158569e-01" rms="1.6631306707859039e-01" purity="9.6997112035751343e-01" nType="0">
            <Node pos="l" depth="3" NCoef="0" IVar="-1" Cut="0.0000000000000000e+00" cType="1" res="1.9947325345128775e-03" rms="1.9990609586238861e-01" purity="9.5546531677246094e-01" nType="-99"/>
            <Node pos="r" depth="3" NCoef="0" IVar="-1" Cut="0.0000000000000000e+00" cType="1" res="2.4224699009209871e-03" rms="1.0675738006830215e-01" purity="9.8846572637557983e-01" nType="-99"/>
          </Node>
        </Node>
      </Node>
    </BinaryTree>
    <BinaryTree type="DecisionTree" boostWeight="1.0000000000000000e+00" itree="207">
      <Node pos="s" depth="0" NCoef="0" IVar="3" Cut="4.8721656250000000e+04" cType="1" res="1.1540000885725021e-01" rms="2.9486164450645447e-01" purity="5.1538950204849243e-01" nType="0">
        <Node pos="l" depth="1" NCoef="0" IVar="1" Cut="9.8533109375000000e+04" cType="1" res="4.7571431845426559e-02" rms="3.0601054430007935e-01" purity="2.3143044114112854e-01" nType="0">
          <Node pos="l" depth="2" NCoef="0" IVar="1" Cut="7.7950132812500000e+04" cType="1" res="-5.3791459649801254e-03" rms="2.4957682192325592e-01" purity="9.1954641044139862e-02" nType="0">
            <Node pos="l" depth="3" NCoef="0" IVar="-1" Cut="0.0000000000000000e+00" cType="1" res="3.8177219685167074e-03" rms="4.0434810519218445e-01" purity="3.1112158298492432e-01" nType="-99"/>
            <Node pos="r" depth="3" NCoef="0" IVar="-1" Cut="0.0000000000000000e+00" cType="1" res="-1.9046185538172722e-02" rms="1.6177995502948761e-01" purity="2.4308031424880028e-02" nType="-99"/>
          </Node>
          <Node pos="r" depth="2" NCoef="0" IVar="3" Cut="2.8003302734375000e+04" cType="1" res="1.9840936362743378e-01" rms="3.9015352725982666e-01" purity="6.2874883413314819e-01" nType="0">
            <Node pos="l" depth="3" NCoef="0" IVar="-1" Cut="0.0000000000000000e+00" cType="1" res="1.0722700972110033e-03" rms="3.8901203870773315e-01" purity="4.0620005130767822e-01" nType="-99"/>
            <Node pos="r" depth="3" NCoef="0" IVar="-1" Cut="0.0000000000000000e+00" cType="1" res="1.0958495549857616e-03" rms="3.4700852632522583e-01" purity="8.3518677949905396e-01" nType="-99"/>
          </Node>
        </Node>
        <Node pos="r" depth="1" NCoef="0" IVar="1" Cut="1.2527707812500000e+05" cType="1" res="2.1004340052604675e-01" rms="2.4943752586841583e-01" purity="9.1160672903060913e-01" nType="0">
          <Node pos="l" depth="2" NCoef="0" IVar="3" Cut="7.9068148437500000e+04" cType="1" res="1.6793453693389893e-01" rms="3.1020879745483398e-01" purity="8.5292381048202515e-01" nType="0">
            <Node pos="l" depth="3" NCoef="0" IVar="-1" Cut="0.0000000000000000e+00" cType="1" res="7.4494973523542285e-04" rms="4.3933898210525513e-01" purity="6.4488875865936279e-01" nType="-99"/>
            <Node pos="r" depth="3" NCoef="0" IVar="-1" Cut="0.0000000000000000e+00" cType="1" res="2.1345724817365408e-03" rms="1.9272948801517487e-01" purity="9.5996928215026855e-01" nType="-99"/>
          </Node>
          <Node pos="r" depth="2" NCoef="0" IVar="-1" Cut="0.0000000000000000e+00" cType="1" res="1.9696778617799282e-03" rms="1.2104081362485886e-01" purity="9.8505973815917969e-01" nType="-99"/>
        </Node>
      </Node>
    </BinaryTree>
    <BinaryTree type="DecisionTree" boostWeight="1.0000000000000000e+00" itree="208">
      <Node pos="s" depth="0" NCoef="0" IVar="3" Cut="6.8736484375000000e+04" cType="1" res="1.1867430806159973e-01" rms="3.0495035648345947e-01" purity="5.0866454839706421e-01" nType="0">
        <Node pos="l" depth="1" NCoef="0" IVar="4" Cut="4.9716640625000000e+05" cType="1" res="7.2743482887744904e-02" rms="3.2916924357414246e-01" purity="3.1701692938804626e-01" nType="0">
          <Node pos="l" depth="2" NCoef="0" IVar="1" Cut="7.4209273437500000e+04" cType="1" res="5.5776420980691910e-02" rms="3.2316532731056213e-01" purity="2.6643651723861694e-01" nType="0">
            <Node pos="l" depth="3" NCoef="0" IVar="-1" Cut="0.0000000000000000e+00" cType="1" res="2.5490545667707920e-03" rms="4.3876144289970398e-01" purity="4.4558325409889221e-01" nType="-99"/>
            <Node pos="r" depth="3" NCoef="0" IVar="-1" Cut="0.0000000000000000e+00" cType="1" res="1.0354302357882261e-03" rms="2.8396371006965637e-01" purity="2.2563578188419342e-01" nType="-99"/>
          </Node>
          <Node pos="r" depth="2" NCoef="0" IVar="2" Cut="4.5682043750000000e+05" cType="1" res="1.8678697943687439e-01" rms="3.4602963924407959e-01" purity="6.5699124336242676e-01" nType="0">
            <Node pos="l" depth="3" NCoef="0" IVar="-1" Cut="0.0000000000000000e+00" cType="1" res="1.8273900495842099e-03" rms="3.6720019578933716e-01" purity="6.6312092542648315e-01" nType="-99"/>
            <Node pos="r" depth="3" NCoef="0" IVar="-1" Cut="0.0000000000000000e+00" cType="1" res="1.4920575777068734e-03" rms="3.1004571914672852e-01" purity="6.5098643302917480e-01" nType="-99"/>
          </Node>
        </Node>
        <Node pos="r" depth="1" NCoef="0" IVar="4" Cut="2.3594032812500000e+05" cType="1" res="2.2567768394947052e-01" rms="2.0211887359619141e-01" purity="9.5513927936553955e-01" nType="0">
          <Node pos="l" depth="2" NCoef="0" IVar="-1" Cut="0.0000000000000000e+00" cType="1" res="1.8237089971080422e-03" rms="3.1518286466598511e-01" purity="8.8378041982650757e-01" nType="-99"/>
          <Node pos="r" depth="2" NCoef="0" IVar="1" Cut="1.2527707812500000e+05" cType="1" res="2.3681791126728058e-01" rms="1.7015746235847473e-01" purity="9.6870839595794678e-01" nType="0">
            <Node pos="l" depth="3" NCoef="0" IVar="-1" Cut="0.0000000000000000e+00" cType="1" res="2.0746563095599413e-03" rms="2.0616337656974792e-01" purity="9.5300549268722534e-01" nType="-99"/>
            <Node pos="r" depth="3" NCoef="0" IVar="-1" Cut="0.0000000000000000e+00" cType="1" res="2.3178171832114458e-03" rms="9.4419680535793304e-02" purity="9.9099552631378174e-01" nType="-99"/>
          </Node>
        </Node>
      </Node>
    </BinaryTree>
    <BinaryTree type="DecisionTree" boostWeight="1.0000000000000000e+00" itree="209">
      <Node pos="s" depth="0" NCoef="0" IVar="1" Cut="1.0034835937500000e+05" cType="1" res="1.1454100161790848e-01" rms="2.9324615001678467e-01" purity="5.0859588384628296e-01" nType="0">
        <Node pos="l" depth="1" NCoef="0" IVar="1" Cut="7.5107859375000000e+04" cType="1" res="4.3036412447690964e-02" rms="2.8415089845657349e-01" purity="3.0111613869667053e-01" nType="0">
          <Node pos="l" depth="2" NCoef="0" IVar="1" Cut="3.9043964843750000e+04" cType="1" res="1.7746937274932861e-01" rms="3.4742191433906555e-01" purity="6.4332872629165649e-01" nType="0">
            <Node pos="l" depth="3" NCoef="0" IVar="-1" Cut="0.0000000000000000e+00" cType="1" res="7.9542916500940919e-04" rms="3.3335664868354797e-01" purity="4.3693199753761292e-01" nType="-99"/>
            <Node pos="r" depth="3" NCoef="0" IVar="-1" Cut="0.0000000000000000e+00" cType="1" res="2.7333346661180258e-03" rms="3.3794829249382019e-01" purity="7.3023194074630737e-01" nType="-99"/>
          </Node>
          <Node pos="r" depth="2" NCoef="0" IVar="3" Cut="7.5747929687500000e+04" cType="1" res="-2.0953353494405746e-02" rms="2.2141303122043610e-01" purity="1.3822376728057861e-01" nType="0">
            <Node pos="l" depth="3" NCoef="0" IVar="-1" Cut="0.0000000000000000e+00" cType="1" res="-6.3983602449297905e-03" rms="2.0286083221435547e-01" purity="5.8055486530065536e-02" nType="-99"/>
            <Node pos="r" depth="3" NCoef="0" IVar="-1" Cut="0.0000000000000000e+00" cType="1" res="1.6986462287604809e-03" rms="2.6527392864227295e-01" purity="9.2087221145629883e-01" nType="-99"/>
          </Node>
        </Node>
        <Node pos="r" depth="1" NCoef="0" IVar="5" Cut="8.9577226562500000e+04" cType="1" res="2.3444318771362305e-01" rms="2.6804721355438232e-01" purity="8.5650759935379028e-01" nType="0">
          <Node pos="l" depth="2" NCoef="0" IVar="4" Cut="3.5911612500000000e+05" cType="1" res="2.7479296922683716e-01" rms="2.6588994264602661e-01" purity="8.8055419921875000e-01" nType="0">
            <Node pos="l" depth="3" NCoef="0" IVar="-1" Cut="0.0000000000000000e+00" cType="1" res="1.0505537502467632e-03" rms="2.6962700486183167e-01" purity="8.6333912611007690e-01" nType="-99"/>
            <Node pos="r" depth="3" NCoef="0" IVar="-1" Cut="0.0000000000000000e+00" cType="1" res="2.2395360283553600e-03" rms="2.5304010510444641e-01" purity="9.0807235240936279e-01" nType="-99"/>
          </Node>
          <Node pos="r" depth="2" NCoef="0" IVar="3" Cut="4.8892753906250000e+04" cType="1" res="2.0659562945365906e-01" rms="2.6597955822944641e-01" purity="8.3991169929504395e-01" nType="0">
            <Node pos="l" depth="3" NCoef="0" IVar="-1" Cut="0.0000000000000000e+00" cType="1" res="1.6111108707264066e-03" rms="4.0701696276664734e-01" purity="5.2347546815872192e-01" nType="-99"/>
            <Node pos="r" depth="3" NCoef="0" IVar="-1" Cut="0.0000000000000000e+00" cType="1" res="1.6438955208286643e-03" rms="1.3910660147666931e-01" purity="9.7985965013504028e-01" nType="-99"/>
          </Node>
        </Node>
      </Node>
    </BinaryTree>
    <BinaryTree type="DecisionTree" boostWeight="1.0000000000000000e+00" itree="210">
      <Node pos="s" depth="0" NCoef="0" IVar="3" Cut="4.8659894531250000e+04" cType="1" res="1.0561016947031021e-01" rms="3.0049338936805725e-01" purity="4.9838465452194214e-01" nType="0">
        <Node pos="l" depth="1" NCoef="0" IVar="5" Cut="8.9748460937500000e+04" cType="1" res="3.5146765410900116e-02" rms="3.0889138579368591e-01" purity="1.9750155508518219e-01" nType="0">
          <Node pos="l" depth="2" NCoef="0" IVar="4" Cut="2.8938150000000000e+05" cType="1" res="9.8521083593368530e-02" rms="3.6542031168937683e-01" purity="3.0699443817138672e-01" nType="0">
            <Node pos="l" depth="3" NCoef="0" IVar="-1" Cut="0.0000000000000000e+00" cType="1" res="3.3707406837493181e-03" rms="3.3594712615013123e-01" purity="2.1689149737358093e-01" nType="-99"/>
            <Node pos="r" depth="3" NCoef="0" IVar="-1" Cut="0.0000000000000000e+00" cType="1" res="3.3221030607819557e-03" rms="4.1132006049156189e-01" purity="4.9960196018218994e-01" nType="-99"/>
          </Node>
          <Node pos="r" depth="2" NCoef="0" IVar="3" Cut="1.1630305664062500e+04" cType="1" res="6.2427879311144352e-03" rms="2.7452072501182556e-01" purity="1.4756365120410919e-01" nType="0">
            <Node pos="l" depth="3" NCoef="0" IVar="-1" Cut="0.0000000000000000e+00" cType="1" res="-5.3110692650079727e-02" rms="6.0243554413318634e-02" purity="0.0000000000000000e+00" nType="-99"/>
            <Node pos="r" depth="3" NCoef="0" IVar="-1" Cut="0.0000000000000000e+00" cType="1" res="1.2887201737612486e-03" rms="3.1164994835853577e-01" purity="1.9493053853511810e-01" nType="-99"/>
          </Node>
        </Node>
        <Node pos="r" depth="1" NCoef="0" IVar="1" Cut="1.2527707812500000e+05" cType="1" res="2.0040559768676758e-01" rms="2.6028007268905640e-01" purity="9.0316700935363770e-01" nType="0">
          <Node pos="l" depth="2" NCoef="0" IVar="3" Cut="8.4096671875000000e+04" cType="1" res="1.6303423047065735e-01" rms="3.1317159533500671e-01" purity="8.5064369440078735e-01" nType="0">
            <Node pos="l" depth="3" NCoef="0" IVar="-1" Cut="0.0000000000000000e+00" cType="1" res="8.7502138921990991e-04" rms="4.1711083054542542e-01" purity="6.9181090593338013e-01" nType="-99"/>
            <Node pos="r" depth="3" NCoef="0" IVar="-1" Cut="0.0000000000000000e+00" cType="1" res="2.0530070178210735e-03" rms="1.9520181417465210e-01" purity="9.5977485179901123e-01" nType="-99"/>
          </Node>
          <Node pos="r" depth="2" NCoef="0" IVar="-1" Cut="0.0000000000000000e+00" cType="1" res="2.0663305185735226e-03" rms="1.2658107280731201e-01" purity="9.8339754343032837e-01" nType="-99"/>
        </Node>
      </Node>
    </BinaryTree>
    <BinaryTree type="DecisionTree" boostWeight="1.0000000000000000e+00" itree="211">
      <Node pos="s" depth="0" NCoef="0" IVar="3" Cut="4.8807667968750000e+04" cType="1" res="9.7029455006122589e-02" rms="2.9372891783714294e-01" purity="4.8228362202644348e-01" nType="0">
        <Node pos="l" depth="1" NCoef="0" IVar="4" Cut="2.6745656250000000e+05" cType="1" res="3.1059073284268379e-02" rms="2.9580411314964294e-01" purity="2.0289470255374908e-01" nType="0">
          <Node pos="l" depth="2" NCoef="0" IVar="5" Cut="9.5376289062500000e+04" cType="1" res="-1.6672322526574135e-02" rms="2.4145473539829254e-01" purity="8.9123226702213287e-02" nType="0">
            <Node pos="l" depth="3" NCoef="0" IVar="-1" Cut="0.0000000000000000e+00" cType="1" res="-2.3973970673978329e-03" rms="2.3132437467575073e-01" purity="8.3651125431060791e-02" nType="-99"/>
            <Node pos="r" depth="3" NCoef="0" IVar="-1" Cut="0.0000000000000000e+00" cType="1" res="1.0163002647459507e-02" rms="4.3561837077140808e-01" purity="2.6315033435821533e-01" nType="-99"/>
          </Node>
          <Node pos="r" depth="2" NCoef="0" IVar="3" Cut="2.7987134765625000e+04" cType="1" res="1.1122231185436249e-01" rms="3.5536950826644897e-01" purity="3.9396995306015015e-01" nType="0">
            <Node pos="l" depth="3" NCoef="0" IVar="-1" Cut="0.0000000000000000e+00" cType="1" res="1.4013511827215552e-03" rms="2.9604744911193848e-01" purity="2.3560002446174622e-01" nType="-99"/>
            <Node pos="r" depth="3" NCoef="0" IVar="-1" Cut="0.0000000000000000e+00" cType="1" res="2.2608686704188585e-03" rms="3.9728975296020508e-01" purity="5.8551472425460815e-01" nType="-99"/>
          </Node>
        </Node>
        <Node pos="r" depth="1" NCoef="0" IVar="3" Cut="9.5107406250000000e+04" cType="1" res="1.9597670435905457e-01" rms="2.6100501418113708e-01" purity="9.0133178234100342e-01" nType="0">
          <Node pos="l" depth="2" NCoef="0" IVar="2" Cut="2.5790232812500000e+05" cType="1" res="1.4443185925483704e-01" rms="3.4904533624649048e-01" purity="8.0571269989013672e-01" nType="0">
            <Node pos="l" depth="3" NCoef="0" IVar="-1" Cut="0.0000000000000000e+00" cType="1" res="5.9527554549276829e-04" rms="4.1642969846725464e-01" purity="6.7525851726531982e-01" nType="-99"/>
            <Node pos="r" depth="3" NCoef="0" IVar="-1" Cut="0.0000000000000000e+00" cType="1" res="1.9962126389145851e-03" rms="2.9341432452201843e-01" purity="8.7508511543273926e-01" nType="-99"/>
          </Node>
          <Node pos="r" depth="2" NCoef="0" IVar="1" Cut="1.0212596093750000e+05" cType="1" res="2.3785273730754852e-01" rms="1.4344774186611176e-01" purity="9.7901451587677002e-01" nType="0">
            <Node pos="l" depth="3" NCoef="0" IVar="-1" Cut="0.0000000000000000e+00" cType="1" res="2.4850787594914436e-03" rms="1.8340481817722321e-01" purity="9.6487599611282349e-01" nType="-99"/>
            <Node pos="r" depth="3" NCoef="0" IVar="-1" Cut="0.0000000000000000e+00" cType="1" res="2.0501201506704092e-03" rms="9.9785998463630676e-02" purity="9.8995536565780640e-01" nType="-99"/>
          </Node>
        </Node>
      </Node>
    </BinaryTree>
    <BinaryTree type="DecisionTree" boostWeight="1.0000000000000000e+00" itree="212">
      <Node pos="s" depth="0" NCoef="0" IVar="3" Cut="6.8798242187500000e+04" cType="1" res="9.9295876920223236e-02" rms="2.9617092013359070e-01" purity="4.8589345812797546e-01" nType="0">
        <Node pos="l" depth="1" NCoef="0" IVar="1" Cut="1.7490379687500000e+05" cType="1" res="4.4918149709701538e-02" rms="3.1366050243377686e-01" purity="2.8128287196159363e-01" nType="0">
          <Node pos="l" depth="2" NCoef="0" IVar="1" Cut="1.1280443750000000e+05" cType="1" res="2.8454687446355820e-02" rms="3.0908939242362976e-01" purity="2.1899735927581787e-01" nType="0">
            <Node pos="l" depth="3" NCoef="0" IVar="-1" Cut="0.0000000000000000e+00" cType="1" res="2.2711917699780315e-04" rms="2.8794306516647339e-01" purity="1.5113008022308350e-01" nType="-99"/>
            <Node pos="r" depth="3" NCoef="0" IVar="-1" Cut="0.0000000000000000e+00" cType="1" res="2.7727878186851740e-03" rms="3.9047157764434814e-01" purity="7.4061930179595947e-01" nType="-99"/>
          </Node>
          <Node pos="r" depth="2" NCoef="0" IVar="-1" Cut="0.0000000000000000e+00" cType="1" res="1.5277767088264227e-03" rms="3.1326714158058167e-01" purity="8.7905639410018921e-01" nType="-99"/>
        </Node>
        <Node pos="r" depth="1" NCoef="0" IVar="1" Cut="1.0168853906250000e+05" cType="1" res="2.2392478585243225e-01" rms="2.0239315927028656e-01" purity="9.5484256744384766e-01" nType="0">
          <Node pos="l" depth="2" NCoef="0" IVar="3" Cut="9.8526882812500000e+04" cType="1" res="1.9232341647148132e-01" rms="2.6451948285102844e-01" purity="9.1954851150512695e-01" nType="0">
            <Node pos="l" depth="3" NCoef="0" IVar="-1" Cut="0.0000000000000000e+00" cType="1" res="1.1597862467169762e-03" rms="3.6488282680511475e-01" purity="8.3737432956695557e-01" nType="-99"/>
            <Node pos="r" depth="3" NCoef="0" IVar="-1" Cut="0.0000000000000000e+00" cType="1" res="2.3690371308475733e-03" rms="1.6225245594978333e-01" purity="9.7258281707763672e-01" nType="-99"/>
          </Node>
          <Node pos="r" depth="2" NCoef="0" IVar="-1" Cut="0.0000000000000000e+00" cType="1" res="2.4626043159514666e-03" rms="1.1511752754449844e-01" purity="9.8649233579635620e-01" nType="-99"/>
        </Node>
      </Node>
    </BinaryTree>
    <BinaryTree type="DecisionTree" boostWeight="1.0000000000000000e+00" itree="213">
      <Node pos="s" depth="0" NCoef="0" IVar="3" Cut="5.4305199218750000e+04" cType="1" res="1.0161071270704269e-01" rms="3.0008888244628906e-01" purity="4.8437640070915222e-01" nType="0">
        <Node pos="l" depth="1" NCoef="0" IVar="1" Cut="1.7491946875000000e+05" cType="1" res="3.7966899573802948e-02" rms="3.0834835767745972e-01" purity="2.2879233956336975e-01" nType="0">
          <Node pos="l" depth="2" NCoef="0" IVar="1" Cut="1.1278766406250000e+05" cType="1" res="2.0915942266583443e-02" rms="3.0032399296760559e-01" purity="1.6764433681964874e-01" nType="0">
            <Node pos="l" depth="3" NCoef="0" IVar="-1" Cut="0.0000000000000000e+00" cType="1" res="4.0540684130974114e-04" rms="2.8361615538597107e-01" purity="1.1700894683599472e-01" nType="-99"/>
            <Node pos="r" depth="3" NCoef="0" IVar="-1" Cut="0.0000000000000000e+00" cType="1" res="2.2855245042592287e-03" rms="4.0162307024002075e-01" purity="6.8023085594177246e-01" nType="-99"/>
          </Node>
          <Node pos="r" depth="2" NCoef="0" IVar="-1" Cut="0.0000000000000000e+00" cType="1" res="1.3590389862656593e-03" rms="3.3372092247009277e-01" purity="8.6620354652404785e-01" nType="-99"/>
        </Node>
        <Node pos="r" depth="1" NCoef="0" IVar="1" Cut="1.0376785937500000e+05" cType="1" res="2.1076770126819611e-01" rms="2.5014352798461914e-01" purity="9.2273473739624023e-01" nType="0">
          <Node pos="l" depth="2" NCoef="0" IVar="3" Cut="8.4692765625000000e+04" cType="1" res="1.6842067241668701e-01" rms="3.2126262784004211e-01" purity="8.6443853378295898e-01" nType="0">
            <Node pos="l" depth="3" NCoef="0" IVar="-1" Cut="0.0000000000000000e+00" cType="1" res="1.0288570774719119e-03" rms="4.2696309089660645e-01" purity="7.3909789323806763e-01" nType="-99"/>
            <Node pos="r" depth="3" NCoef="0" IVar="-1" Cut="0.0000000000000000e+00" cType="1" res="2.1854923106729984e-03" rms="1.8977385759353638e-01" purity="9.6185016632080078e-01" nType="-99"/>
          </Node>
          <Node pos="r" depth="2" NCoef="0" IVar="2" Cut="3.6954487500000000e+05" cType="1" res="2.5342750549316406e-01" rms="1.3419148325920105e-01" purity="9.8146146535873413e-01" nType="0">
            <Node pos="l" depth="3" NCoef="0" IVar="-1" Cut="0.0000000000000000e+00" cType="1" res="2.0746272057294846e-03" rms="1.5155495703220367e-01" purity="9.7617053985595703e-01" nType="-99"/>
            <Node pos="r" depth="3" NCoef="0" IVar="-1" Cut="0.0000000000000000e+00" cType="1" res="1.8619816983118653e-03" rms="1.2267431616783142e-01" purity="9.8461526632308960e-01" nType="-99"/>
          </Node>
        </Node>
      </Node>
    </BinaryTree>
    <BinaryTree type="DecisionTree" boostWeight="1.0000000000000000e+00" itree="214">
      <Node pos="s" depth="0" NCoef="0" IVar="3" Cut="6.8736484375000000e+04" cType="1" res="1.0680370777845383e-01" rms="2.9969218373298645e-01" purity="4.9384868144989014e-01" nType="0">
        <Node pos="l" depth="1" NCoef="0" IVar="3" Cut="4.5805582031250000e+04" cType="1" res="5.5353101342916489e-02" rms="3.2189929485321045e-01" purity="2.9339969158172607e-01" nType="0">
          <Node pos="l" depth="2" NCoef="0" IVar="1" Cut="1.2714367968750000e+05" cType="1" res="2.2740958258509636e-02" rms="2.9854601621627808e-01" purity="1.7227940261363983e-01" nType="0">
            <Node pos="l" depth="3" NCoef="0" IVar="-1" Cut="0.0000000000000000e+00" cType="1" res="8.4309186786413193e-04" rms="2.7590683102607727e-01" purity="1.0185447335243225e-01" nType="-99"/>
            <Node pos="r" depth="3" NCoef="0" IVar="-1" Cut="0.0000000000000000e+00" cType="1" res="1.7817787593230605e-03" rms="4.1960194706916809e-01" purity="7.2969061136245728e-01" nType="-99"/>
          </Node>
          <Node pos="r" depth="2" NCoef="0" IVar="2" Cut="3.8255896875000000e+05" cType="1" res="1.8245065212249756e-01" rms="3.7388420104980469e-01" purity="7.6543521881103516e-01" nType="0">
            <Node pos="l" depth="3" NCoef="0" IVar="-1" Cut="0.0000000000000000e+00" cType="1" res="1.2112350668758154e-03" rms="4.0890797972679138e-01" purity="6.8652027845382690e-01" nType="-99"/>
            <Node pos="r" depth="3" NCoef="0" IVar="-1" Cut="0.0000000000000000e+00" cType="1" res="8.5004867287352681e-04" rms="2.9498425126075745e-01" purity="8.8473403453826904e-01" nType="-99"/>
          </Node>
        </Node>
        <Node pos="r" depth="1" NCoef="0" IVar="1" Cut="1.2527707812500000e+05" cType="1" res="2.2623449563980103e-01" rms="1.9329936802387238e-01" purity="9.5914512872695923e-01" nType="0">
          <Node pos="l" depth="2" NCoef="0" IVar="0" Cut="2.2857143878936768e+00" cType="1" res="2.1084439754486084e-01" rms="2.2861303389072418e-01" purity="9.4144439697265625e-01" nType="0">
            <Node pos="l" depth="3" NCoef="0" IVar="-1" Cut="0.0000000000000000e+00" cType="1" res="2.0069384481757879e-03" rms="2.1779620647430420e-01" purity="9.4749945402145386e-01" nType="-99"/>
            <Node pos="r" depth="3" NCoef="0" IVar="-1" Cut="0.0000000000000000e+00" cType="1" res="1.5360059915110469e-03" rms="2.9008930921554565e-01" purity="8.9714437723159790e-01" nType="-99"/>
          </Node>
          <Node pos="r" depth="2" NCoef="0" IVar="-1" Cut="0.0000000000000000e+00" cType="1" res="2.5727942120283842e-03" rms="1.1938010901212692e-01" purity="9.8555737733840942e-01" nType="-99"/>
        </Node>
      </Node>
    </BinaryTree>
    <BinaryTree type="DecisionTree" boostWeight="1.0000000000000000e+00" itree="215">
      <Node pos="s" depth="0" NCoef="0" IVar="3" Cut="6.8736484375000000e+04" cType="1" res="1.0745697468519211e-01" rms="2.8762656450271606e-01" purity="5.1412665843963623e-01" nType="0">
        <Node pos="l" depth="1" NCoef="0" IVar="3" Cut="2.2929740234375000e+04" cType="1" res="5.5735275149345398e-02" rms="3.0686476826667786e-01" purity="3.1370034813880920e-01" nType="0">
          <Node pos="l" depth="2" NCoef="0" IVar="0" Cut="2.3333332538604736e+00" cType="1" res="-2.5787599384784698e-02" rms="1.9337289035320282e-01" purity="5.8750201016664505e-02" nType="0">
            <Node pos="l" depth="3" NCoef="0" IVar="-1" Cut="0.0000000000000000e+00" cType="1" res="-4.4112666510045528e-03" rms="1.8466049432754517e-01" purity="5.4257143288850784e-02" nType="-99"/>
            <Node pos="r" depth="3" NCoef="0" IVar="-1" Cut="0.0000000000000000e+00" cType="1" res="5.9567289426922798e-03" rms="3.5001176595687866e-01" purity="1.8997111916542053e-01" nType="-99"/>
          </Node>
          <Node pos="r" depth="2" NCoef="0" IVar="2" Cut="2.8327593750000000e+05" cType="1" res="1.2221617996692657e-01" rms="3.6141964793205261e-01" purity="5.2160906791687012e-01" nType="0">
            <Node pos="l" depth="3" NCoef="0" IVar="-1" Cut="0.0000000000000000e+00" cType="1" res="1.3264488661661744e-03" rms="3.9322167634963989e-01" purity="3.0587831139564514e-01" nType="-99"/>
            <Node pos="r" depth="3" NCoef="0" IVar="-1" Cut="0.0000000000000000e+00" cType="1" res="1.1130216298624873e-03" rms="3.2019737362861633e-01" purity="6.9352042675018311e-01" nType="-99"/>
          </Node>
        </Node>
        <Node pos="r" depth="1" NCoef="0" IVar="1" Cut="1.1128134375000000e+05" cType="1" res="2.2188287973403931e-01" rms="1.9599764049053192e-01" purity="9.5753753185272217e-01" nType="0">
          <Node pos="l" depth="2" NCoef="0" IVar="3" Cut="9.3455539062500000e+04" cType="1" res="1.9363245368003845e-01" rms="2.4866633117198944e-01" purity="9.2883139848709106e-01" nType="0">
            <Node pos="l" depth="3" NCoef="0" IVar="-1" Cut="0.0000000000000000e+00" cType="1" res="1.0331114754080772e-03" rms="3.7593924999237061e-01" purity="8.2323938608169556e-01" nType="-99"/>
            <Node pos="r" depth="3" NCoef="0" IVar="-1" Cut="0.0000000000000000e+00" cType="1" res="2.3239115253090858e-03" rms="1.5108357369899750e-01" purity="9.7623080015182495e-01" nType="-99"/>
          </Node>
          <Node pos="r" depth="2" NCoef="0" IVar="-1" Cut="0.0000000000000000e+00" cType="1" res="1.7733743879944086e-03" rms="1.1508893221616745e-01" purity="9.8641437292098999e-01" nType="-99"/>
        </Node>
      </Node>
    </BinaryTree>
    <BinaryTree type="DecisionTree" boostWeight="1.0000000000000000e+00" itree="216">
      <Node pos="s" depth="0" NCoef="0" IVar="3" Cut="5.4198226562500000e+04" cType="1" res="9.5365799963474274e-02" rms="2.9364758729934692e-01" purity="4.8286393284797668e-01" nType="0">
        <Node pos="l" depth="1" NCoef="0" IVar="3" Cut="2.0679548828125000e+04" cType="1" res="2.8792159631848335e-02" rms="3.0012899637222290e-01" purity="2.1791030466556549e-01" nType="0">
          <Node pos="l" depth="2" NCoef="0" IVar="4" Cut="4.7422734375000000e+05" cType="1" res="-2.1969623863697052e-02" rms="2.0272709429264069e-01" purity="5.3083918988704681e-02" nType="0">
            <Node pos="l" depth="3" NCoef="0" IVar="-1" Cut="0.0000000000000000e+00" cType="1" res="-1.0151930153369904e-02" rms="1.7594462633132935e-01" purity="3.6197807639837265e-02" nType="-99"/>
            <Node pos="r" depth="3" NCoef="0" IVar="-1" Cut="0.0000000000000000e+00" cType="1" res="4.7021638602018356e-03" rms="3.9997854828834534e-01" purity="2.7754521369934082e-01" nType="-99"/>
          </Node>
          <Node pos="r" depth="2" NCoef="0" IVar="1" Cut="7.8740148437500000e+04" cType="1" res="7.4218481779098511e-02" rms="3.5991525650024414e-01" purity="3.6541214585304260e-01" nType="0">
            <Node pos="l" depth="3" NCoef="0" IVar="-1" Cut="0.0000000000000000e+00" cType="1" res="2.7445554733276367e-03" rms="4.3646571040153503e-01" purity="5.4474681615829468e-01" nType="-99"/>
            <Node pos="r" depth="3" NCoef="0" IVar="-1" Cut="0.0000000000000000e+00" cType="1" res="1.0677648242563009e-03" rms="3.2450604438781738e-01" purity="3.1288954615592957e-01" nType="-99"/>
          </Node>
        </Node>
        <Node pos="r" depth="1" NCoef="0" IVar="1" Cut="1.3213310937500000e+05" cType="1" res="2.0607119798660278e-01" rms="2.4536396563053131e-01" purity="9.2345571517944336e-01" nType="0">
          <Node pos="l" depth="2" NCoef="0" IVar="3" Cut="8.9372210937500000e+04" cType="1" res="1.8214905261993408e-01" rms="2.8929349780082703e-01" purity="8.8889640569686890e-01" nType="0">
            <Node pos="l" depth="3" NCoef="0" IVar="-1" Cut="0.0000000000000000e+00" cType="1" res="1.1160002322867513e-03" rms="3.8948497176170349e-01" purity="7.7965575456619263e-01" nType="-99"/>
            <Node pos="r" depth="3" NCoef="0" IVar="-1" Cut="0.0000000000000000e+00" cType="1" res="2.0004811231046915e-03" rms="1.7490816116333008e-01" purity="9.6806687116622925e-01" nType="-99"/>
          </Node>
          <Node pos="r" depth="2" NCoef="0" IVar="-1" Cut="0.0000000000000000e+00" cType="1" res="1.6239212127402425e-03" rms="1.3706824183464050e-01" purity="9.8069107532501221e-01" nType="-99"/>
        </Node>
      </Node>
    </BinaryTree>
    <BinaryTree type="DecisionTree" boostWeight="1.0000000000000000e+00" itree="217">
      <Node pos="s" depth="0" NCoef="0" IVar="3" Cut="5.4305199218750000e+04" cType="1" res="1.0100881010293961e-01" rms="3.0097079277038574e-01" purity="4.8807549476623535e-01" nType="0">
        <Node pos="l" depth="1" NCoef="0" IVar="1" Cut="1.3640723437500000e+05" cType="1" res="4.2553275823593140e-02" rms="3.0864271521568298e-01" purity="2.4342744052410126e-01" nType="0">
          <Node pos="l" depth="2" NCoef="0" IVar="1" Cut="7.1162523437500000e+04" cType="1" res="1.9675167277455330e-02" rms="2.9548227787017822e-01" purity="1.5153749287128448e-01" nType="0">
            <Node pos="l" depth="3" NCoef="0" IVar="-1" Cut="0.0000000000000000e+00" cType="1" res="3.1334126833826303e-03" rms="4.3177378177642822e-01" purity="3.9143851399421692e-01" nType="-99"/>
            <Node pos="r" depth="3" NCoef="0" IVar="-1" Cut="0.0000000000000000e+00" cType="1" res="-5.3931487491354346e-04" rms="2.4629326164722443e-01" purity="9.7322598099708557e-02" nType="-99"/>
          </Node>
          <Node pos="r" depth="2" NCoef="0" IVar="3" Cut="2.5868837890625000e+04" cType="1" res="1.8890720605850220e-01" rms="3.4835770726203918e-01" purity="8.3125805854797363e-01" nType="0">
            <Node pos="l" depth="3" NCoef="0" IVar="-1" Cut="0.0000000000000000e+00" cType="1" res="9.4227620866149664e-04" rms="4.4812691211700439e-01" purity="6.7786198854446411e-01" nType="-99"/>
            <Node pos="r" depth="3" NCoef="0" IVar="-1" Cut="0.0000000000000000e+00" cType="1" res="1.7680494347587228e-03" rms="2.6422318816184998e-01" purity="9.2144840955734253e-01" nType="-99"/>
          </Node>
        </Node>
        <Node pos="r" depth="1" NCoef="0" IVar="2" Cut="2.1463098437500000e+05" cType="1" res="2.0363749563694000e-01" rms="2.5659391283988953e-01" purity="9.1759705543518066e-01" nType="0">
          <Node pos="l" depth="2" NCoef="0" IVar="2" Cut="1.8743590625000000e+05" cType="1" res="9.3730047345161438e-02" rms="3.8314396142959595e-01" purity="8.0076652765274048e-01" nType="0">
            <Node pos="l" depth="3" NCoef="0" IVar="-1" Cut="0.0000000000000000e+00" cType="1" res="1.6737310215830803e-04" rms="4.2503494024276733e-01" purity="7.4278295040130615e-01" nType="-99"/>
            <Node pos="r" depth="3" NCoef="0" IVar="-1" Cut="0.0000000000000000e+00" cType="1" res="1.6438411548733711e-03" rms="3.2641893625259399e-01" purity="8.5187065601348877e-01" nType="-99"/>
          </Node>
          <Node pos="r" depth="2" NCoef="0" IVar="1" Cut="1.1403810937500000e+05" cType="1" res="2.2252075374126434e-01" rms="2.2248341143131256e-01" purity="9.3766975402832031e-01" nType="0">
            <Node pos="l" depth="3" NCoef="0" IVar="-1" Cut="0.0000000000000000e+00" cType="1" res="1.6552060842514038e-03" rms="2.8576049208641052e-01" purity="8.9005047082901001e-01" nType="-99"/>
            <Node pos="r" depth="3" NCoef="0" IVar="-1" Cut="0.0000000000000000e+00" cType="1" res="2.0753128919750452e-03" rms="1.3622684776782990e-01" purity="9.8093742132186890e-01" nType="-99"/>
          </Node>
        </Node>
      </Node>
    </BinaryTree>
    <BinaryTree type="DecisionTree" boostWeight="1.0000000000000000e+00" itree="218">
      <Node pos="s" depth="0" NCoef="0" IVar="3" Cut="6.8850757812500000e+04" cType="1" res="9.6012152731418610e-02" rms="2.8873088955879211e-01" purity="4.8928713798522949e-01" nType="0">
        <Node pos="l" depth="1" NCoef="0" IVar="3" Cut="2.6309406250000000e+04" cType="1" res="3.7012394517660141e-02" rms="3.0605354905128479e-01" purity="2.7155438065528870e-01" nType="0">
          <Node pos="l" depth="2" NCoef="0" IVar="3" Cut="1.2622170898437500e+04" cType="1" res="-1.3497720472514629e-02" rms="2.2004307806491852e-01" purity="8.3236433565616608e-02" nType="0">
            <Node pos="l" depth="3" NCoef="0" IVar="-1" Cut="0.0000000000000000e+00" cType="1" res="-3.3972647041082382e-02" rms="1.1659872531890869e-01" purity="9.1569395735859871e-03" nType="-99"/>
            <Node pos="r" depth="3" NCoef="0" IVar="-1" Cut="0.0000000000000000e+00" cType="1" res="6.0182414017617702e-04" rms="2.6928418874740601e-01" purity="1.3708642125129700e-01" nType="-99"/>
          </Node>
          <Node pos="r" depth="2" NCoef="0" IVar="1" Cut="1.5586417187500000e+05" cType="1" res="9.8961912095546722e-02" rms="3.7709397077560425e-01" purity="5.0252211093902588e-01" nType="0">
            <Node pos="l" depth="3" NCoef="0" IVar="-1" Cut="0.0000000000000000e+00" cType="1" res="1.1946653248742223e-03" rms="3.9249071478843689e-01" purity="4.1503450274467468e-01" nType="-99"/>
            <Node pos="r" depth="3" NCoef="0" IVar="-1" Cut="0.0000000000000000e+00" cType="1" res="2.6826097164303064e-03" rms="2.6051294803619385e-01" purity="9.2538011074066162e-01" nType="-99"/>
          </Node>
        </Node>
        <Node pos="r" depth="1" NCoef="0" IVar="1" Cut="1.1141539843750000e+05" cType="1" res="2.2332157194614410e-01" rms="1.9342775642871857e-01" purity="9.5910990238189697e-01" nType="0">
          <Node pos="l" depth="2" NCoef="0" IVar="3" Cut="1.2761102343750000e+05" cType="1" res="1.9684334099292755e-01" rms="2.5107079744338989e-01" purity="9.2862170934677124e-01" nType="0">
            <Node pos="l" depth="3" NCoef="0" IVar="-1" Cut="0.0000000000000000e+00" cType="1" res="1.3065014500170946e-03" rms="3.1892949342727661e-01" purity="8.8157343864440918e-01" nType="-99"/>
            <Node pos="r" depth="3" NCoef="0" IVar="-1" Cut="0.0000000000000000e+00" cType="1" res="2.2343753371387720e-03" rms="1.1990549415349960e-01" purity="9.8528885841369629e-01" nType="-99"/>
          </Node>
          <Node pos="r" depth="2" NCoef="0" IVar="-1" Cut="0.0000000000000000e+00" cType="1" res="1.8422828288748860e-03" rms="1.0958243906497955e-01" purity="9.8781573772430420e-01" nType="-99"/>
        </Node>
      </Node>
    </BinaryTree>
    <BinaryTree type="DecisionTree" boostWeight="1.0000000000000000e+00" itree="219">
      <Node pos="s" depth="0" NCoef="0" IVar="1" Cut="1.0037520312500000e+05" cType="1" res="1.0783604532480240e-01" rms="2.8753972053527832e-01" purity="5.1133394241333008e-01" nType="0">
        <Node pos="l" depth="1" NCoef="0" IVar="3" Cut="6.6180414062500000e+04" cType="1" res="3.7567287683486938e-02" rms="2.7954617142677307e-01" purity="3.0234882235527039e-01" nType="0">
          <Node pos="l" depth="2" NCoef="0" IVar="1" Cut="8.3536531250000000e+04" cType="1" res="-6.7348997108638287e-03" rms="2.6996552944183350e-01" purity="1.2471079081296921e-01" nType="0">
            <Node pos="l" depth="3" NCoef="0" IVar="-1" Cut="0.0000000000000000e+00" cType="1" res="2.1577756851911545e-03" rms="3.8223779201507568e-01" purity="3.1870925426483154e-01" nType="-99"/>
            <Node pos="r" depth="3" NCoef="0" IVar="-1" Cut="0.0000000000000000e+00" cType="1" res="-1.4710415154695511e-02" rms="1.8061377108097076e-01" purity="3.3307146281003952e-02" nType="-99"/>
          </Node>
          <Node pos="r" depth="2" NCoef="0" IVar="1" Cut="8.7769726562500000e+04" cType="1" res="1.9259729981422424e-01" rms="2.5625509023666382e-01" purity="9.2397105693817139e-01" nType="0">
            <Node pos="l" depth="3" NCoef="0" IVar="-1" Cut="0.0000000000000000e+00" cType="1" res="1.6819258453324437e-03" rms="2.1384902298450470e-01" purity="9.4925379753112793e-01" nType="-99"/>
            <Node pos="r" depth="3" NCoef="0" IVar="-1" Cut="0.0000000000000000e+00" cType="1" res="5.1411241292953491e-04" rms="4.5571202039718628e-01" purity="7.1601718664169312e-01" nType="-99"/>
          </Node>
        </Node>
        <Node pos="r" depth="1" NCoef="0" IVar="3" Cut="5.4476886718750000e+04" cType="1" res="2.2751127183437347e-01" rms="2.6013019680976868e-01" purity="8.6725789308547974e-01" nType="0">
          <Node pos="l" depth="2" NCoef="0" IVar="3" Cut="3.3798128906250000e+04" cType="1" res="1.9245405495166779e-01" rms="3.7565451860427856e-01" purity="6.9467812776565552e-01" nType="0">
            <Node pos="l" depth="3" NCoef="0" IVar="-1" Cut="0.0000000000000000e+00" cType="1" res="1.7933913040906191e-03" rms="4.1063988208770752e-01" purity="5.4545933008193970e-01" nType="-99"/>
            <Node pos="r" depth="3" NCoef="0" IVar="-1" Cut="0.0000000000000000e+00" cType="1" res="1.3006683439016342e-03" rms="3.0812835693359375e-01" purity="8.8293421268463135e-01" nType="-99"/>
          </Node>
          <Node pos="r" depth="2" NCoef="0" IVar="4" Cut="4.2440018750000000e+05" cType="1" res="2.5078478455543518e-01" rms="1.3247522711753845e-01" purity="9.8182880878448486e-01" nType="0">
            <Node pos="l" depth="3" NCoef="0" IVar="-1" Cut="0.0000000000000000e+00" cType="1" res="1.1567882029339671e-03" rms="1.3162465393543243e-01" purity="9.8232644796371460e-01" nType="-99"/>
            <Node pos="r" depth="3" NCoef="0" IVar="-1" Cut="0.0000000000000000e+00" cType="1" res="2.2811070084571838e-03" rms="1.3299106061458588e-01" purity="9.8130089044570923e-01" nType="-99"/>
          </Node>
        </Node>
      </Node>
    </BinaryTree>
    <BinaryTree type="DecisionTree" boostWeight="1.0000000000000000e+00" itree="220">
      <Node pos="s" depth="0" NCoef="0" IVar="3" Cut="6.8843453125000000e+04" cType="1" res="9.8797656595706940e-02" rms="2.8832393884658813e-01" purity="4.8758348822593689e-01" nType="0">
        <Node pos="l" depth="1" NCoef="0" IVar="1" Cut="1.0346482812500000e+05" cType="1" res="5.2501991391181946e-02" rms="3.0332681536674500e-01" purity="3.0498564243316650e-01" nType="0">
          <Node pos="l" depth="2" NCoef="0" IVar="1" Cut="7.7321085937500000e+04" cType="1" res="7.9031046479940414e-03" rms="2.7469569444656372e-01" purity="1.5507932007312775e-01" nType="0">
            <Node pos="l" depth="3" NCoef="0" IVar="-1" Cut="0.0000000000000000e+00" cType="1" res="2.0307006780058146e-03" rms="3.7875080108642578e-01" purity="4.3968737125396729e-01" nType="-99"/>
            <Node pos="r" depth="3" NCoef="0" IVar="-1" Cut="0.0000000000000000e+00" cType="1" res="-5.2383965812623501e-03" rms="2.1793037652969360e-01" purity="6.3286550343036652e-02" nType="-99"/>
          </Node>
          <Node pos="r" depth="2" NCoef="0" IVar="3" Cut="2.6245865234375000e+04" cType="1" res="1.8781420588493347e-01" rms="3.4332737326622009e-01" purity="7.5979876518249512e-01" nType="0">
            <Node pos="l" depth="3" NCoef="0" IVar="-1" Cut="0.0000000000000000e+00" cType="1" res="8.4482686361297965e-04" rms="4.3401345610618591e-01" purity="3.9969533681869507e-01" nType="-99"/>
            <Node pos="r" depth="3" NCoef="0" IVar="-1" Cut="0.0000000000000000e+00" cType="1" res="1.4882168034091592e-03" rms="2.8401425480842590e-01" purity="8.8939374685287476e-01" nType="-99"/>
          </Node>
        </Node>
        <Node pos="r" depth="1" NCoef="0" IVar="1" Cut="1.2602377343750000e+05" cType="1" res="2.1734122931957245e-01" rms="2.0214156806468964e-01" purity="9.5513898134231567e-01" nType="0">
          <Node pos="l" depth="2" NCoef="0" IVar="3" Cut="1.3780718750000000e+05" cType="1" res="1.9675698876380920e-01" rms="2.4504405260086060e-01" purity="9.3229311704635620e-01" nType="0">
            <Node pos="l" depth="3" NCoef="0" IVar="-1" Cut="0.0000000000000000e+00" cType="1" res="1.5716101042926311e-03" rms="2.8260660171508789e-01" purity="9.0832978487014771e-01" nType="-99"/>
            <Node pos="r" depth="3" NCoef="0" IVar="-1" Cut="0.0000000000000000e+00" cType="1" res="2.4420914705842733e-03" rms="1.2494365870952606e-01" purity="9.8412418365478516e-01" nType="-99"/>
          </Node>
          <Node pos="r" depth="2" NCoef="0" IVar="-1" Cut="0.0000000000000000e+00" cType="1" res="2.4672467261552811e-03" rms="1.0368196666240692e-01" purity="9.8912793397903442e-01" nType="-99"/>
        </Node>
      </Node>
    </BinaryTree>
    <BinaryTree type="DecisionTree" boostWeight="1.0000000000000000e+00" itree="221">
      <Node pos="s" depth="0" NCoef="0" IVar="3" Cut="4.4463175781250000e+04" cType="1" res="1.1078125983476639e-01" rms="3.0323532223701477e-01" purity="4.9816396832466125e-01" nType="0">
        <Node pos="l" depth="1" NCoef="0" IVar="5" Cut="8.8811671875000000e+04" cType="1" res="4.6141646802425385e-02" rms="3.1290018558502197e-01" purity="1.9965462386608124e-01" nType="0">
          <Node pos="l" depth="2" NCoef="0" IVar="5" Cut="8.6643375000000000e+04" cType="1" res="1.3351798057556152e-01" rms="3.9052492380142212e-01" purity="3.5139280557632446e-01" nType="0">
            <Node pos="l" depth="3" NCoef="0" IVar="-1" Cut="0.0000000000000000e+00" cType="1" res="1.5466779586859047e-04" rms="3.6150971055030823e-01" purity="1.8472540378570557e-01" nType="-99"/>
            <Node pos="r" depth="3" NCoef="0" IVar="-1" Cut="0.0000000000000000e+00" cType="1" res="3.2931871246546507e-03" rms="3.9013364911079407e-01" purity="4.0677991509437561e-01" nType="-99"/>
          </Node>
          <Node pos="r" depth="2" NCoef="0" IVar="1" Cut="7.9791500000000000e+04" cType="1" res="2.5332491844892502e-02" rms="2.8749129176139832e-01" purity="1.6351734101772308e-01" nType="0">
            <Node pos="l" depth="3" NCoef="0" IVar="-1" Cut="0.0000000000000000e+00" cType="1" res="3.5587109159678221e-03" rms="4.1680335998535156e-01" purity="2.9800516366958618e-01" nType="-99"/>
            <Node pos="r" depth="3" NCoef="0" IVar="-1" Cut="0.0000000000000000e+00" cType="1" res="2.3405523097608238e-04" rms="2.4535329639911652e-01" purity="1.3387060165405273e-01" nType="-99"/>
          </Node>
        </Node>
        <Node pos="r" depth="1" NCoef="0" IVar="2" Cut="3.1270671875000000e+05" cType="1" res="1.9508263468742371e-01" rms="2.6763695478439331e-01" purity="8.8747251033782959e-01" nType="0">
          <Node pos="l" depth="2" NCoef="0" IVar="3" Cut="6.3746695312500000e+04" cType="1" res="1.5301890671253204e-01" rms="3.1582209467887878e-01" purity="8.2700538635253906e-01" nType="0">
            <Node pos="l" depth="3" NCoef="0" IVar="-1" Cut="0.0000000000000000e+00" cType="1" res="4.2299876804463565e-04" rms="4.2237475514411926e-01" purity="5.6368345022201538e-01" nType="-99"/>
            <Node pos="r" depth="3" NCoef="0" IVar="-1" Cut="0.0000000000000000e+00" cType="1" res="2.1374153438955545e-03" rms="2.4700424075126648e-01" purity="9.2796492576599121e-01" nType="-99"/>
          </Node>
          <Node pos="r" depth="2" NCoef="0" IVar="0" Cut="2.3333332538604736e+00" cType="1" res="2.2888654470443726e-01" rms="2.1557241678237915e-01" purity="9.3606603145599365e-01" nType="0">
            <Node pos="l" depth="3" NCoef="0" IVar="-1" Cut="0.0000000000000000e+00" cType="1" res="1.6550860600546002e-03" rms="2.0141702890396118e-01" purity="9.4449949264526367e-01" nType="-99"/>
            <Node pos="r" depth="3" NCoef="0" IVar="-1" Cut="0.0000000000000000e+00" cType="1" res="2.2433146368712187e-03" rms="2.8530317544937134e-01" purity="8.8100200891494751e-01" nType="-99"/>
          </Node>
        </Node>
      </Node>
    </BinaryTree>
    <BinaryTree type="DecisionTree" boostWeight="1.0000000000000000e+00" itree="222">
      <Node pos="s" depth="0" NCoef="0" IVar="1" Cut="1.0035560937500000e+05" cType="1" res="1.0791098326444626e-01" rms="2.9266574978828430e-01" purity="5.0614303350448608e-01" nType="0">
        <Node pos="l" depth="1" NCoef="0" IVar="1" Cut="7.9321460937500000e+04" cType="1" res="3.7584375590085983e-02" rms="2.8759565949440002e-01" purity="2.9096266627311707e-01" nType="0">
          <Node pos="l" depth="2" NCoef="0" IVar="3" Cut="3.3291554687500000e+04" cType="1" res="1.5968547761440277e-01" rms="3.3533978462219238e-01" purity="6.2938934564590454e-01" nType="0">
            <Node pos="l" depth="3" NCoef="0" IVar="-1" Cut="0.0000000000000000e+00" cType="1" res="2.8315491508692503e-03" rms="3.6707735061645508e-01" purity="1.6959457099437714e-01" nType="-99"/>
            <Node pos="r" depth="3" NCoef="0" IVar="-1" Cut="0.0000000000000000e+00" cType="1" res="2.2096438333392143e-03" rms="3.0266636610031128e-01" purity="8.6790800094604492e-01" nType="-99"/>
          </Node>
          <Node pos="r" depth="2" NCoef="0" IVar="3" Cut="3.8026937500000000e+04" cType="1" res="-3.2829992473125458e-02" rms="2.2804345190525055e-01" purity="9.5795713365077972e-02" nType="0">
            <Node pos="l" depth="3" NCoef="0" IVar="-1" Cut="0.0000000000000000e+00" cType="1" res="-6.1311265453696251e-03" rms="1.7591275274753571e-01" purity="3.3042095601558685e-02" nType="-99"/>
            <Node pos="r" depth="3" NCoef="0" IVar="-1" Cut="0.0000000000000000e+00" cType="1" res="-3.1529492698609829e-03" rms="3.5756975412368774e-01" purity="3.5214459896087646e-01" nType="-99"/>
          </Node>
        </Node>
        <Node pos="r" depth="1" NCoef="0" IVar="3" Cut="4.8873500000000000e+04" cType="1" res="2.2318269312381744e-01" rms="2.6283296942710876e-01" purity="8.5884314775466919e-01" nType="0">
          <Node pos="l" depth="2" NCoef="0" IVar="3" Cut="9.5363671875000000e+03" cType="1" res="1.7404143512248993e-01" rms="3.8951364159584045e-01" purity="6.4486271142959595e-01" nType="0">
            <Node pos="l" depth="3" NCoef="0" IVar="-1" Cut="0.0000000000000000e+00" cType="1" res="-7.3875319212675095e-03" rms="3.7617263197898865e-01" purity="1.2076672911643982e-01" nType="-99"/>
            <Node pos="r" depth="3" NCoef="0" IVar="-1" Cut="0.0000000000000000e+00" cType="1" res="2.0375947933644056e-03" rms="3.8318288326263428e-01" purity="6.9903957843780518e-01" nType="-99"/>
          </Node>
          <Node pos="r" depth="2" NCoef="0" IVar="0" Cut="1.3333333730697632e+00" cType="1" res="2.5069463253021240e-01" rms="1.4389631152153015e-01" purity="9.7864091396331787e-01" nType="0">
            <Node pos="l" depth="3" NCoef="0" IVar="-1" Cut="0.0000000000000000e+00" cType="1" res="2.1731900051236153e-03" rms="1.4339128136634827e-01" purity="9.7890824079513550e-01" nType="-99"/>
            <Node pos="r" depth="3" NCoef="0" IVar="-1" Cut="0.0000000000000000e+00" cType="1" res="1.7080424586310983e-03" rms="1.4437498152256012e-01" purity="9.7825801372528076e-01" nType="-99"/>
          </Node>
        </Node>
      </Node>
    </BinaryTree>
    <BinaryTree type="DecisionTree" boostWeight="1.0000000000000000e+00" itree="223">
      <Node pos="s" depth="0" NCoef="0" IVar="3" Cut="6.8798242187500000e+04" cType="1" res="1.0288939625024796e-01" rms="2.9257109761238098e-01" purity="4.9469044804573059e-01" nType="0">
        <Node pos="l" depth="1" NCoef="0" IVar="1" Cut="1.3640723437500000e+05" cType="1" res="4.9267195165157318e-02" rms="3.1509509682655334e-01" purity="2.8552213311195374e-01" nType="0">
          <Node pos="l" depth="2" NCoef="0" IVar="1" Cut="1.0072814062500000e+05" cType="1" res="2.2773623466491699e-02" rms="3.0432948470115662e-01" purity="1.8636427819728851e-01" nType="0">
            <Node pos="l" depth="3" NCoef="0" IVar="-1" Cut="0.0000000000000000e+00" cType="1" res="2.6380809140391648e-04" rms="2.9020711779594421e-01" purity="1.3642114400863647e-01" nType="-99"/>
            <Node pos="r" depth="3" NCoef="0" IVar="-1" Cut="0.0000000000000000e+00" cType="1" res="1.0767705971375108e-03" rms="3.6296182870864868e-01" purity="5.3788769245147705e-01" nType="-99"/>
          </Node>
          <Node pos="r" depth="2" NCoef="0" IVar="3" Cut="2.9733617187500000e+04" cType="1" res="1.9967809319496155e-01" rms="3.3246830105781555e-01" purity="8.4846705198287964e-01" nType="0">
            <Node pos="l" depth="3" NCoef="0" IVar="-1" Cut="0.0000000000000000e+00" cType="1" res="1.2837942922487855e-03" rms="4.5595180988311768e-01" purity="6.7361253499984741e-01" nType="-99"/>
            <Node pos="r" depth="3" NCoef="0" IVar="-1" Cut="0.0000000000000000e+00" cType="1" res="1.8064817413687706e-03" rms="2.3284056782722473e-01" purity="9.4150161743164062e-01" nType="-99"/>
          </Node>
        </Node>
        <Node pos="r" depth="1" NCoef="0" IVar="1" Cut="1.2572065625000000e+05" cType="1" res="2.2279092669487000e-01" rms="1.8489781022071838e-01" purity="9.6239978075027466e-01" nType="0">
          <Node pos="l" depth="2" NCoef="0" IVar="0" Cut="1.1428571939468384e+00" cType="1" res="2.0355968177318573e-01" rms="2.2796040773391724e-01" purity="9.4126874208450317e-01" nType="0">
            <Node pos="l" depth="3" NCoef="0" IVar="-1" Cut="0.0000000000000000e+00" cType="1" res="2.0653007086366415e-03" rms="1.9689851999282837e-01" purity="9.5650231838226318e-01" nType="-99"/>
            <Node pos="r" depth="3" NCoef="0" IVar="-1" Cut="0.0000000000000000e+00" cType="1" res="1.7919319216161966e-03" rms="2.8251746296882629e-01" purity="9.0717864036560059e-01" nType="-99"/>
          </Node>
          <Node pos="r" depth="2" NCoef="0" IVar="-1" Cut="0.0000000000000000e+00" cType="1" res="1.8259607022628188e-03" rms="9.5070570707321167e-02" purity="9.9089801311492920e-01" nType="-99"/>
        </Node>
      </Node>
    </BinaryTree>
    <BinaryTree type="DecisionTree" boostWeight="1.0000000000000000e+00" itree="224">
      <Node pos="s" depth="0" NCoef="0" IVar="3" Cut="4.8659894531250000e+04" cType="1" res="9.6763417124748230e-02" rms="2.9223510622978210e-01" purity="4.8309579491615295e-01" nType="0">
        <Node pos="l" depth="1" NCoef="0" IVar="1" Cut="1.7489954687500000e+05" cType="1" res="2.1181415766477585e-02" rms="2.9432210326194763e-01" purity="1.7704363167285919e-01" nType="0">
          <Node pos="l" depth="2" NCoef="0" IVar="1" Cut="1.0502721093750000e+05" cType="1" res="1.0910126380622387e-02" rms="2.8262180089950562e-01" purity="1.3322335481643677e-01" nType="0">
            <Node pos="l" depth="3" NCoef="0" IVar="-1" Cut="0.0000000000000000e+00" cType="1" res="-2.8695364017039537e-04" rms="2.5863870978355408e-01" purity="8.6948573589324951e-02" nType="-99"/>
            <Node pos="r" depth="3" NCoef="0" IVar="-1" Cut="0.0000000000000000e+00" cType="1" res="2.2758152335882187e-03" rms="4.2198035120964050e-01" purity="5.3629374504089355e-01" nType="-99"/>
          </Node>
          <Node pos="r" depth="2" NCoef="0" IVar="-1" Cut="0.0000000000000000e+00" cType="1" res="1.7917883815243840e-03" rms="3.9894464612007141e-01" purity="7.9267197847366333e-01" nType="-99"/>
        </Node>
        <Node pos="r" depth="1" NCoef="0" IVar="1" Cut="1.2527707812500000e+05" cType="1" res="2.0171971619129181e-01" rms="2.5446581840515137e-01" purity="9.0809249877929688e-01" nType="0">
          <Node pos="l" depth="2" NCoef="0" IVar="3" Cut="7.9312914062500000e+04" cType="1" res="1.7065767943859100e-01" rms="3.0458539724349976e-01" purity="8.6038374900817871e-01" nType="0">
            <Node pos="l" depth="3" NCoef="0" IVar="-1" Cut="0.0000000000000000e+00" cType="1" res="1.1222708271816373e-03" rms="4.2956185340881348e-01" purity="6.8071502447128296e-01" nType="-99"/>
            <Node pos="r" depth="3" NCoef="0" IVar="-1" Cut="0.0000000000000000e+00" cType="1" res="1.9370107911527157e-03" rms="1.8538504838943481e-01" purity="9.6377986669540405e-01" nType="-99"/>
          </Node>
          <Node pos="r" depth="2" NCoef="0" IVar="-1" Cut="0.0000000000000000e+00" cType="1" res="2.0218917634338140e-03" rms="1.3069690763950348e-01" purity="9.8267865180969238e-01" nType="-99"/>
        </Node>
      </Node>
    </BinaryTree>
    <BinaryTree type="DecisionTree" boostWeight="1.0000000000000000e+00" itree="225">
      <Node pos="s" depth="0" NCoef="0" IVar="3" Cut="6.8884250000000000e+04" cType="1" res="1.0326007008552551e-01" rms="2.9703933000564575e-01" purity="4.9161881208419800e-01" nType="0">
        <Node pos="l" depth="1" NCoef="0" IVar="1" Cut="1.3641148437500000e+05" cType="1" res="5.4755598306655884e-02" rms="3.1959235668182373e-01" purity="2.9079112410545349e-01" nType="0">
          <Node pos="l" depth="2" NCoef="0" IVar="1" Cut="1.0072948437500000e+05" cType="1" res="3.3259909600019455e-02" rms="3.1374728679656982e-01" purity="1.9727614521980286e-01" nType="0">
            <Node pos="l" depth="3" NCoef="0" IVar="-1" Cut="0.0000000000000000e+00" cType="1" res="-1.5474139945581555e-04" rms="2.8264939785003662e-01" purity="1.2734223902225494e-01" nType="-99"/>
            <Node pos="r" depth="3" NCoef="0" IVar="-1" Cut="0.0000000000000000e+00" cType="1" res="1.4411478769034147e-03" rms="3.9617136120796204e-01" purity="6.1037600040435791e-01" nType="-99"/>
          </Node>
          <Node pos="r" depth="2" NCoef="0" IVar="3" Cut="2.3456500000000000e+04" cType="1" res="1.8396775424480438e-01" rms="3.2391113042831421e-01" purity="8.5291647911071777e-01" nType="0">
            <Node pos="l" depth="3" NCoef="0" IVar="-1" Cut="0.0000000000000000e+00" cType="1" res="9.5187680562958121e-04" rms="4.5848587155342102e-01" purity="6.2131941318511963e-01" nType="-99"/>
            <Node pos="r" depth="3" NCoef="0" IVar="-1" Cut="0.0000000000000000e+00" cType="1" res="1.7225116025656462e-03" rms="2.6261886954307556e-01" purity="9.2169338464736938e-01" nType="-99"/>
          </Node>
        </Node>
        <Node pos="r" depth="1" NCoef="0" IVar="1" Cut="1.2541114062500000e+05" cType="1" res="2.1589298546314240e-01" rms="1.9439537823200226e-01" purity="9.5796358585357666e-01" nType="0">
          <Node pos="l" depth="2" NCoef="0" IVar="3" Cut="9.8588062500000000e+04" cType="1" res="1.9946843385696411e-01" rms="2.2965548932552338e-01" purity="9.3981122970581055e-01" nType="0">
            <Node pos="l" depth="3" NCoef="0" IVar="-1" Cut="0.0000000000000000e+00" cType="1" res="1.1257475707679987e-03" rms="3.1872010231018066e-01" purity="8.7695044279098511e-01" nType="-99"/>
            <Node pos="r" depth="3" NCoef="0" IVar="-1" Cut="0.0000000000000000e+00" cType="1" res="2.3727533407509327e-03" rms="1.5546254813671112e-01" purity="9.7512614727020264e-01" nType="-99"/>
          </Node>
          <Node pos="r" depth="2" NCoef="0" IVar="-1" Cut="0.0000000000000000e+00" cType="1" res="2.6636456605046988e-03" rms="1.0918638110160828e-01" purity="9.8793458938598633e-01" nType="-99"/>
        </Node>
      </Node>
    </BinaryTree>
    <BinaryTree type="DecisionTree" boostWeight="1.0000000000000000e+00" itree="226">
      <Node pos="s" depth="0" NCoef="0" IVar="3" Cut="7.5557476562500000e+04" cType="1" res="9.0540051460266113e-02" rms="2.9157820343971252e-01" purity="4.8458406329154968e-01" nType="0">
        <Node pos="l" depth="1" NCoef="0" IVar="3" Cut="5.7571867187500000e+04" cType="1" res="3.9064306765794754e-02" rms="3.1101334095001221e-01" purity="2.8328633308410645e-01" nType="0">
          <Node pos="l" depth="2" NCoef="0" IVar="1" Cut="1.7489954687500000e+05" cType="1" res="1.8730361014604568e-02" rms="3.0370509624481201e-01" purity="2.0215266942977905e-01" nType="0">
            <Node pos="l" depth="3" NCoef="0" IVar="-1" Cut="0.0000000000000000e+00" cType="1" res="5.7742005446925759e-04" rms="2.9558217525482178e-01" purity="1.5126672387123108e-01" nType="-99"/>
            <Node pos="r" depth="3" NCoef="0" IVar="-1" Cut="0.0000000000000000e+00" cType="1" res="1.5903952298685908e-03" rms="3.7046304345130920e-01" purity="7.9982578754425049e-01" nType="-99"/>
          </Node>
          <Node pos="r" depth="2" NCoef="0" IVar="2" Cut="3.1250843750000000e+05" cType="1" res="1.8174865841865540e-01" rms="3.2402673363685608e-01" purity="8.5260546207427979e-01" nType="0">
            <Node pos="l" depth="3" NCoef="0" IVar="-1" Cut="0.0000000000000000e+00" cType="1" res="1.1075204238295555e-03" rms="3.9927384257316589e-01" purity="7.5538367033004761e-01" nType="-99"/>
            <Node pos="r" depth="3" NCoef="0" IVar="-1" Cut="0.0000000000000000e+00" cType="1" res="1.7816453473642468e-03" rms="2.4181567132472992e-01" purity="9.2531841993331909e-01" nType="-99"/>
          </Node>
        </Node>
        <Node pos="r" depth="1" NCoef="0" IVar="2" Cut="2.1479896875000000e+05" cType="1" res="2.1230748295783997e-01" rms="1.9031205773353577e-01" purity="9.6075999736785889e-01" nType="0">
          <Node pos="l" depth="2" NCoef="0" IVar="-1" Cut="0.0000000000000000e+00" cType="1" res="1.1987506877630949e-03" rms="3.0456072092056274e-01" purity="8.9028829336166382e-01" nType="-99"/>
          <Node pos="r" depth="2" NCoef="0" IVar="1" Cut="1.2544667187500000e+05" cType="1" res="2.2657530009746552e-01" rms="1.5501581132411957e-01" purity="9.7438651323318481e-01" nType="0">
            <Node pos="l" depth="3" NCoef="0" IVar="-1" Cut="0.0000000000000000e+00" cType="1" res="2.0713643170893192e-03" rms="1.8959155678749084e-01" purity="9.6071881055831909e-01" nType="-99"/>
            <Node pos="r" depth="3" NCoef="0" IVar="-1" Cut="0.0000000000000000e+00" cType="1" res="2.1263037342578173e-03" rms="9.7408615052700043e-02" purity="9.9042654037475586e-01" nType="-99"/>
          </Node>
        </Node>
      </Node>
    </BinaryTree>
    <BinaryTree type="DecisionTree" boostWeight="1.0000000000000000e+00" itree="227">
      <Node pos="s" depth="0" NCoef="0" IVar="3" Cut="5.4345996093750000e+04" cType="1" res="1.1506563425064087e-01" rms="2.9851201176643372e-01" purity="5.1813971996307373e-01" nType="0">
        <Node pos="l" depth="1" NCoef="0" IVar="1" Cut="8.3927703125000000e+04" cType="1" res="5.4226756095886230e-02" rms="3.2237944006919861e-01" purity="2.5238859653472900e-01" nType="0">
          <Node pos="l" depth="2" NCoef="0" IVar="3" Cut="1.3097547851562500e+04" cType="1" res="1.3699634373188019e-01" rms="4.1919088363647461e-01" purity="3.3568620681762695e-01" nType="0">
            <Node pos="l" depth="3" NCoef="0" IVar="-1" Cut="0.0000000000000000e+00" cType="1" res="-2.8962185606360435e-02" rms="1.2494352459907532e-01" purity="1.5850292518734932e-02" nType="-99"/>
            <Node pos="r" depth="3" NCoef="0" IVar="-1" Cut="0.0000000000000000e+00" cType="1" res="3.5204044543206692e-03" rms="4.5783960819244385e-01" purity="4.2989951372146606e-01" nType="-99"/>
          </Node>
          <Node pos="r" depth="2" NCoef="0" IVar="1" Cut="1.5243018750000000e+05" cType="1" res="2.4038217961788177e-02" rms="2.7264186739921570e-01" purity="2.2200751304626465e-01" nType="0">
            <Node pos="l" depth="3" NCoef="0" IVar="-1" Cut="0.0000000000000000e+00" cType="1" res="-6.5690102928783745e-05" rms="2.4666872620582581e-01" purity="1.1935850232839584e-01" nType="-99"/>
            <Node pos="r" depth="3" NCoef="0" IVar="-1" Cut="0.0000000000000000e+00" cType="1" res="1.3302235165610909e-03" rms="3.5750192403793335e-01" purity="8.2941311597824097e-01" nType="-99"/>
          </Node>
        </Node>
        <Node pos="r" depth="1" NCoef="0" IVar="1" Cut="1.0059082812500000e+05" cType="1" res="2.1064989268779755e-01" rms="2.2555606067180634e-01" purity="9.3566256761550903e-01" nType="0">
          <Node pos="l" depth="2" NCoef="0" IVar="1" Cut="8.3755468750000000e+04" cType="1" res="1.8089480698108673e-01" rms="2.8519278764724731e-01" purity="8.9087241888046265e-01" nType="0">
            <Node pos="l" depth="3" NCoef="0" IVar="-1" Cut="0.0000000000000000e+00" cType="1" res="2.1458123810589314e-03" rms="2.1666584908962250e-01" purity="9.4938498735427856e-01" nType="-99"/>
            <Node pos="r" depth="3" NCoef="0" IVar="-1" Cut="0.0000000000000000e+00" cType="1" res="9.2683132970705628e-04" rms="4.0128117799758911e-01" purity="7.3141676187515259e-01" nType="-99"/>
          </Node>
          <Node pos="r" depth="2" NCoef="0" IVar="0" Cut="1.3333333730697632e+00" cType="1" res="2.3992259800434113e-01" rms="1.3849924504756927e-01" purity="9.7972655296325684e-01" nType="0">
            <Node pos="l" depth="3" NCoef="0" IVar="-1" Cut="0.0000000000000000e+00" cType="1" res="1.7335822340101004e-03" rms="1.3654221594333649e-01" purity="9.8021095991134644e-01" nType="-99"/>
            <Node pos="r" depth="3" NCoef="0" IVar="-1" Cut="0.0000000000000000e+00" cType="1" res="2.4327528662979603e-03" rms="1.4119341969490051e-01" purity="9.7902226448059082e-01" nType="-99"/>
          </Node>
        </Node>
      </Node>
    </BinaryTree>
    <BinaryTree type="DecisionTree" boostWeight="1.0000000000000000e+00" itree="228">
      <Node pos="s" depth="0" NCoef="0" IVar="3" Cut="4.8860375000000000e+04" cType="1" res="1.0563096404075623e-01" rms="2.9373547434806824e-01" purity="4.9849298596382141e-01" nType="0">
        <Node pos="l" depth="1" NCoef="0" IVar="1" Cut="9.8460062500000000e+04" cType="1" res="4.4294267892837524e-02" rms="3.0604439973831177e-01" purity="2.1840368211269379e-01" nType="0">
          <Node pos="l" depth="2" NCoef="0" IVar="1" Cut="7.7876593750000000e+04" cType="1" res="9.8102856427431107e-03" rms="2.6538112759590149e-01" purity="9.8482757806777954e-02" nType="0">
            <Node pos="l" depth="3" NCoef="0" IVar="-1" Cut="0.0000000000000000e+00" cType="1" res="3.2672490924596786e-03" rms="4.3260046839714050e-01" purity="3.2399213314056396e-01" nType="-99"/>
            <Node pos="r" depth="3" NCoef="0" IVar="-1" Cut="0.0000000000000000e+00" cType="1" res="-8.5118198767304420e-03" rms="1.7803865671157837e-01" purity="3.4452315419912338e-02" nType="-99"/>
          </Node>
          <Node pos="r" depth="2" NCoef="0" IVar="3" Cut="9.5363671875000000e+03" cType="1" res="1.5469130873680115e-01" rms="3.8994434475898743e-01" purity="6.0231858491897583e-01" nType="0">
            <Node pos="l" depth="3" NCoef="0" IVar="-1" Cut="0.0000000000000000e+00" cType="1" res="-6.8098366260528564e-02" rms="1.5110407769680023e-01" purity="0.0000000000000000e+00" nType="-99"/>
            <Node pos="r" depth="3" NCoef="0" IVar="-1" Cut="0.0000000000000000e+00" cType="1" res="2.6900190860033035e-03" rms="3.9255902171134949e-01" purity="6.5466767549514771e-01" nType="-99"/>
          </Node>
        </Node>
        <Node pos="r" depth="1" NCoef="0" IVar="1" Cut="1.2544069531250000e+05" cType="1" res="1.9558981060981750e-01" rms="2.4868150055408478e-01" purity="9.0928310155868530e-01" nType="0">
          <Node pos="l" depth="2" NCoef="0" IVar="3" Cut="9.9764335937500000e+04" cType="1" res="1.5512116253376007e-01" rms="3.1072825193405151e-01" purity="8.4797549247741699e-01" nType="0">
            <Node pos="l" depth="3" NCoef="0" IVar="-1" Cut="0.0000000000000000e+00" cType="1" res="9.2701253015547991e-04" rms="3.9716583490371704e-01" purity="7.2959673404693604e-01" nType="-99"/>
            <Node pos="r" depth="3" NCoef="0" IVar="-1" Cut="0.0000000000000000e+00" cType="1" res="2.3462425451725721e-03" rms="1.4968755841255188e-01" purity="9.7678756713867188e-01" nType="-99"/>
          </Node>
          <Node pos="r" depth="2" NCoef="0" IVar="-1" Cut="0.0000000000000000e+00" cType="1" res="1.5525834169238806e-03" rms="1.1960494518280029e-01" purity="9.8522627353668213e-01" nType="-99"/>
        </Node>
      </Node>
    </BinaryTree>
    <BinaryTree type="DecisionTree" boostWeight="1.0000000000000000e+00" itree="229">
      <Node pos="s" depth="0" NCoef="0" IVar="3" Cut="6.8736484375000000e+04" cType="1" res="1.1582206934690475e-01" rms="3.0616500973701477e-01" purity="5.0670981407165527e-01" nType="0">
        <Node pos="l" depth="1" NCoef="0" IVar="5" Cut="9.6394953125000000e+04" cType="1" res="7.8622311353683472e-02" rms="3.3197778463363647e-01" purity="3.2771736383438110e-01" nType="0">
          <Node pos="l" depth="2" NCoef="0" IVar="3" Cut="4.5836863281250000e+04" cType="1" res="6.6138349473476410e-02" rms="3.2730111479759216e-01" purity="3.0683657526969910e-01" nType="0">
            <Node pos="l" depth="3" NCoef="0" IVar="-1" Cut="0.0000000000000000e+00" cType="1" res="1.7880875384435058e-03" rms="3.1388482451438904e-01" purity="1.8673694133758545e-01" nType="-99"/>
            <Node pos="r" depth="3" NCoef="0" IVar="-1" Cut="0.0000000000000000e+00" cType="1" res="1.5722046373412013e-03" rms="3.6070677638053894e-01" purity="7.7035230398178101e-01" nType="-99"/>
          </Node>
          <Node pos="r" depth="2" NCoef="0" IVar="-1" Cut="0.0000000000000000e+00" cType="1" res="8.5863785352557898e-04" rms="3.2088494300842285e-01" purity="7.6614272594451904e-01" nType="-99"/>
        </Node>
        <Node pos="r" depth="1" NCoef="0" IVar="1" Cut="1.1128134375000000e+05" cType="1" res="2.0908644795417786e-01" rms="2.0067735016345978e-01" purity="9.5546591281890869e-01" nType="0">
          <Node pos="l" depth="2" NCoef="0" IVar="3" Cut="9.3476968750000000e+04" cType="1" res="1.7540434002876282e-01" rms="2.6245936751365662e-01" purity="9.2034316062927246e-01" nType="0">
            <Node pos="l" depth="3" NCoef="0" IVar="-1" Cut="0.0000000000000000e+00" cType="1" res="9.2343095457181334e-04" rms="3.5771664977073669e-01" purity="8.3906120061874390e-01" nType="-99"/>
            <Node pos="r" depth="3" NCoef="0" IVar="-1" Cut="0.0000000000000000e+00" cType="1" res="2.0663435570895672e-03" rms="1.9599929451942444e-01" purity="9.5968437194824219e-01" nType="-99"/>
          </Node>
          <Node pos="r" depth="2" NCoef="0" IVar="-1" Cut="0.0000000000000000e+00" cType="1" res="2.1176205482333899e-03" rms="1.0066120326519012e-01" purity="9.8977208137512207e-01" nType="-99"/>
        </Node>
      </Node>
    </BinaryTree>
    <BinaryTree type="DecisionTree" boostWeight="1.0000000000000000e+00" itree="230">
      <Node pos="s" depth="0" NCoef="0" IVar="3" Cut="4.8659894531250000e+04" cType="1" res="1.2126043438911438e-01" rms="3.0577096343040466e-01" purity="5.1743698120117188e-01" nType="0">
        <Node pos="l" depth="1" NCoef="0" IVar="5" Cut="9.6357460937500000e+04" cType="1" res="6.1650086194276810e-02" rms="3.2659044861793518e-01" purity="2.3289990425109863e-01" nType="0">
          <Node pos="l" depth="2" NCoef="0" IVar="1" Cut="7.4204796875000000e+04" cType="1" res="4.9311205744743347e-02" rms="3.1876626610755920e-01" purity="2.1144163608551025e-01" nType="0">
            <Node pos="l" depth="3" NCoef="0" IVar="-1" Cut="0.0000000000000000e+00" cType="1" res="3.5531686153262854e-03" rms="4.5459690690040588e-01" purity="3.4334987401962280e-01" nType="-99"/>
            <Node pos="r" depth="3" NCoef="0" IVar="-1" Cut="0.0000000000000000e+00" cType="1" res="1.5668056439608335e-03" rms="2.8151828050613403e-01" purity="1.8646311759948730e-01" nType="-99"/>
          </Node>
          <Node pos="r" depth="2" NCoef="0" IVar="-1" Cut="0.0000000000000000e+00" cType="1" res="9.2148082330822945e-04" rms="3.7484490871429443e-01" purity="7.0736056566238403e-01" nType="-99"/>
        </Node>
        <Node pos="r" depth="1" NCoef="0" IVar="4" Cut="2.1246443750000000e+05" cType="1" res="2.0404301583766937e-01" rms="2.5184321403503418e-01" purity="9.1258162260055542e-01" nType="0">
          <Node pos="l" depth="2" NCoef="0" IVar="5" Cut="9.0907593750000000e+04" cType="1" res="1.0494338721036911e-01" rms="3.7597781419754028e-01" purity="7.7073580026626587e-01" nType="0">
            <Node pos="l" depth="3" NCoef="0" IVar="-1" Cut="0.0000000000000000e+00" cType="1" res="1.9525934476405382e-03" rms="3.3960306644439697e-01" purity="8.3019745349884033e-01" nType="-99"/>
            <Node pos="r" depth="3" NCoef="0" IVar="-1" Cut="0.0000000000000000e+00" cType="1" res="2.6471866294741631e-04" rms="4.0319621562957764e-01" purity="6.9159597158432007e-01" nType="-99"/>
          </Node>
          <Node pos="r" depth="2" NCoef="0" IVar="1" Cut="1.3196950000000000e+05" cType="1" res="2.1784436702728271e-01" rms="2.2586081922054291e-01" purity="9.3233621120452881e-01" nType="0">
            <Node pos="l" depth="3" NCoef="0" IVar="-1" Cut="0.0000000000000000e+00" cType="1" res="1.6340452712029219e-03" rms="2.6656910777091980e-01" purity="9.0191876888275146e-01" nType="-99"/>
            <Node pos="r" depth="3" NCoef="0" IVar="-1" Cut="0.0000000000000000e+00" cType="1" res="1.5578669263049960e-03" rms="1.2803553044795990e-01" purity="9.8336112499237061e-01" nType="-99"/>
          </Node>
        </Node>
      </Node>
    </BinaryTree>
    <BinaryTree type="DecisionTree" boostWeight="1.0000000000000000e+00" itree="231">
      <Node pos="s" depth="0" NCoef="0" IVar="3" Cut="5.4259988281250000e+04" cType="1" res="1.0528549551963806e-01" rms="2.9990330338478088e-01" purity="4.9569341540336609e-01" nType="0">
        <Node pos="l" depth="1" NCoef="0" IVar="1" Cut="9.6533281250000000e+04" cType="1" res="5.2254360169172287e-02" rms="3.1879314780235291e-01" purity="2.4419866502285004e-01" nType="0">
          <Node pos="l" depth="2" NCoef="0" IVar="1" Cut="6.4342917968750000e+04" cType="1" res="1.4485303312540054e-02" rms="2.8414118289947510e-01" purity="1.2252528965473175e-01" nType="0">
            <Node pos="l" depth="3" NCoef="0" IVar="-1" Cut="0.0000000000000000e+00" cType="1" res="3.2237523701041937e-03" rms="4.4116342067718506e-01" purity="4.0912821888923645e-01" nType="-99"/>
            <Node pos="r" depth="3" NCoef="0" IVar="-1" Cut="0.0000000000000000e+00" cType="1" res="-5.3663845174014568e-03" rms="2.1676421165466309e-01" purity="5.3906291723251343e-02" nType="-99"/>
          </Node>
          <Node pos="r" depth="2" NCoef="0" IVar="3" Cut="2.5917322265625000e+04" cType="1" res="1.5145745873451233e-01" rms="3.7804442644119263e-01" purity="5.6378245353698730e-01" nType="0">
            <Node pos="l" depth="3" NCoef="0" IVar="-1" Cut="0.0000000000000000e+00" cType="1" res="2.2259405814111233e-03" rms="3.8299074769020081e-01" purity="3.6242479085922241e-01" nType="-99"/>
            <Node pos="r" depth="3" NCoef="0" IVar="-1" Cut="0.0000000000000000e+00" cType="1" res="2.8878981247544289e-03" rms="3.6416411399841309e-01" purity="7.4537801742553711e-01" nType="-99"/>
          </Node>
        </Node>
        <Node pos="r" depth="1" NCoef="0" IVar="4" Cut="2.0714525000000000e+05" cType="1" res="1.9584006071090698e-01" rms="2.3871131241321564e-01" purity="9.2513918876647949e-01" nType="0">
          <Node pos="l" depth="2" NCoef="0" IVar="5" Cut="9.1012375000000000e+04" cType="1" res="4.5085586607456207e-02" rms="3.9928385615348816e-01" purity="7.2018384933471680e-01" nType="0">
            <Node pos="l" depth="3" NCoef="0" IVar="-1" Cut="0.0000000000000000e+00" cType="1" res="1.1064880527555943e-03" rms="4.0538859367370605e-01" purity="7.4707174301147461e-01" nType="-99"/>
            <Node pos="r" depth="3" NCoef="0" IVar="-1" Cut="0.0000000000000000e+00" cType="1" res="7.7686920121777803e-05" rms="3.8754662871360779e-01" purity="6.8613463640213013e-01" nType="-99"/>
          </Node>
          <Node pos="r" depth="2" NCoef="0" IVar="1" Cut="1.2544069531250000e+05" cType="1" res="2.0763623714447021e-01" rms="2.1690914034843445e-01" purity="9.4117647409439087e-01" nType="0">
            <Node pos="l" depth="3" NCoef="0" IVar="-1" Cut="0.0000000000000000e+00" cType="1" res="1.6326939221471548e-03" rms="2.6551330089569092e-01" purity="9.0749996900558472e-01" nType="-99"/>
            <Node pos="r" depth="3" NCoef="0" IVar="-1" Cut="0.0000000000000000e+00" cType="1" res="2.0914832130074501e-03" rms="1.1631964147090912e-01" purity="9.8631697893142700e-01" nType="-99"/>
          </Node>
        </Node>
      </Node>
    </BinaryTree>
    <BinaryTree type="DecisionTree" boostWeight="1.0000000000000000e+00" itree="232">
      <Node pos="s" depth="0" NCoef="0" IVar="1" Cut="1.0034389062500000e+05" cType="1" res="9.2869296669960022e-02" rms="2.9126372933387756e-01" purity="4.9008139967918396e-01" nType="0">
        <Node pos="l" depth="1" NCoef="0" IVar="3" Cut="6.6098515625000000e+04" cType="1" res="3.0575035139918327e-02" rms="2.8738573193550110e-01" purity="2.9160115122795105e-01" nType="0">
          <Node pos="l" depth="2" NCoef="0" IVar="1" Cut="8.3512921875000000e+04" cType="1" res="-3.8600894622504711e-03" rms="2.7521321177482605e-01" purity="1.3085837662220001e-01" nType="0">
            <Node pos="l" depth="3" NCoef="0" IVar="-1" Cut="0.0000000000000000e+00" cType="1" res="1.5788048040121794e-03" rms="3.6288845539093018e-01" purity="3.1554049253463745e-01" nType="-99"/>
            <Node pos="r" depth="3" NCoef="0" IVar="-1" Cut="0.0000000000000000e+00" cType="1" res="-9.5610311254858971e-03" rms="2.1537782251834869e-01" purity="4.3400093913078308e-02" nType="-99"/>
          </Node>
          <Node pos="r" depth="2" NCoef="0" IVar="3" Cut="9.5934148437500000e+04" cType="1" res="1.6038000583648682e-01" rms="2.9510369896888733e-01" purity="8.9752930402755737e-01" nType="0">
            <Node pos="l" depth="3" NCoef="0" IVar="-1" Cut="0.0000000000000000e+00" cType="1" res="1.2291916646063328e-03" rms="3.9294922351837158e-01" purity="8.0305838584899902e-01" nType="-99"/>
            <Node pos="r" depth="3" NCoef="0" IVar="-1" Cut="0.0000000000000000e+00" cType="1" res="2.0213150419294834e-03" rms="2.1577863395214081e-01" purity="9.5090097188949585e-01" nType="-99"/>
          </Node>
        </Node>
        <Node pos="r" depth="1" NCoef="0" IVar="3" Cut="4.8659894531250000e+04" cType="1" res="2.0602966845035553e-01" rms="2.6278579235076904e-01" purity="8.5062980651855469e-01" nType="0">
          <Node pos="l" depth="2" NCoef="0" IVar="5" Cut="8.8780789062500000e+04" cType="1" res="1.4313700795173645e-01" rms="3.9492818713188171e-01" purity="5.9995871782302856e-01" nType="0">
            <Node pos="l" depth="3" NCoef="0" IVar="-1" Cut="0.0000000000000000e+00" cType="1" res="2.4784840643405914e-03" rms="3.6592394113540649e-01" purity="7.5617092847824097e-01" nType="-99"/>
            <Node pos="r" depth="3" NCoef="0" IVar="-1" Cut="0.0000000000000000e+00" cType="1" res="1.0003814240917563e-03" rms="3.8530734181404114e-01" purity="4.9017891287803650e-01" nType="-99"/>
          </Node>
          <Node pos="r" depth="2" NCoef="0" IVar="2" Cut="3.2209987500000000e+05" cType="1" res="2.3749357461929321e-01" rms="1.5035729110240936e-01" purity="9.7603541612625122e-01" nType="0">
            <Node pos="l" depth="3" NCoef="0" IVar="-1" Cut="0.0000000000000000e+00" cType="1" res="2.3798779584467411e-03" rms="2.1274660527706146e-01" purity="9.4940865039825439e-01" nType="-99"/>
            <Node pos="r" depth="3" NCoef="0" IVar="-1" Cut="0.0000000000000000e+00" cType="1" res="2.0700925961136818e-03" rms="1.2483902275562286e-01" purity="9.8418927192687988e-01" nType="-99"/>
          </Node>
        </Node>
      </Node>
    </BinaryTree>
    <BinaryTree type="DecisionTree" boostWeight="1.0000000000000000e+00" itree="233">
      <Node pos="s" depth="0" NCoef="0" IVar="3" Cut="6.8850757812500000e+04" cType="1" res="1.0696345567703247e-01" rms="2.9439404606819153e-01" purity="5.0934809446334839e-01" nType="0">
        <Node pos="l" depth="1" NCoef="0" IVar="3" Cut="4.9220332031250000e+04" cType="1" res="5.7898491621017456e-02" rms="3.1895199418067932e-01" purity="3.0198046565055847e-01" nType="0">
          <Node pos="l" depth="2" NCoef="0" IVar="1" Cut="1.7491068750000000e+05" cType="1" res="3.3541556447744370e-02" rms="3.0728870630264282e-01" purity="1.9307121634483337e-01" nType="0">
            <Node pos="l" depth="3" NCoef="0" IVar="-1" Cut="0.0000000000000000e+00" cType="1" res="1.5125804347917438e-03" rms="3.0015832185745239e-01" purity="1.5326935052871704e-01" nType="-99"/>
            <Node pos="r" depth="3" NCoef="0" IVar="-1" Cut="0.0000000000000000e+00" cType="1" res="1.6226519364863634e-03" rms="3.8482692837715149e-01" purity="7.9745197296142578e-01" nType="-99"/>
          </Node>
          <Node pos="r" depth="2" NCoef="0" IVar="2" Cut="2.5285801562500000e+05" cType="1" res="1.6940829157829285e-01" rms="3.4643733501434326e-01" purity="8.0058377981185913e-01" nType="0">
            <Node pos="l" depth="3" NCoef="0" IVar="-1" Cut="0.0000000000000000e+00" cType="1" res="1.0225236183032393e-03" rms="4.3691757321357727e-01" purity="6.3873726129531860e-01" nType="-99"/>
            <Node pos="r" depth="3" NCoef="0" IVar="-1" Cut="0.0000000000000000e+00" cType="1" res="1.6002944903448224e-03" rms="2.9122424125671387e-01" purity="8.6843353509902954e-01" nType="-99"/>
          </Node>
        </Node>
        <Node pos="r" depth="1" NCoef="0" IVar="4" Cut="2.3010531250000000e+05" cType="1" res="2.1332502365112305e-01" rms="1.9360882043838501e-01" purity="9.5887356996536255e-01" nType="0">
          <Node pos="l" depth="2" NCoef="0" IVar="-1" Cut="0.0000000000000000e+00" cType="1" res="2.1591356489807367e-03" rms="3.1295096874237061e-01" purity="8.8563841581344604e-01" nType="-99"/>
          <Node pos="r" depth="2" NCoef="0" IVar="1" Cut="1.1128134375000000e+05" cType="1" res="2.2174981236457825e-01" rms="1.6731615364551544e-01" purity="9.6970206499099731e-01" nType="0">
            <Node pos="l" depth="3" NCoef="0" IVar="-1" Cut="0.0000000000000000e+00" cType="1" res="1.7388663254678249e-03" rms="2.1110624074935913e-01" purity="9.5021337270736694e-01" nType="-99"/>
            <Node pos="r" depth="3" NCoef="0" IVar="-1" Cut="0.0000000000000000e+00" cType="1" res="1.7339095938950777e-03" rms="1.1203925311565399e-01" purity="9.8727560043334961e-01" nType="-99"/>
          </Node>
        </Node>
      </Node>
    </BinaryTree>
    <BinaryTree type="DecisionTree" boostWeight="1.0000000000000000e+00" itree="234">
      <Node pos="s" depth="0" NCoef="0" IVar="3" Cut="4.8807667968750000e+04" cType="1" res="1.0789209604263306e-01" rms="2.8700539469718933e-01" purity="5.2029198408126831e-01" nType="0">
        <Node pos="l" depth="1" NCoef="0" IVar="5" Cut="8.9752132812500000e+04" cType="1" res="3.4059669822454453e-02" rms="3.0100828409194946e-01" purity="2.0271691679954529e-01" nType="0">
          <Node pos="l" depth="2" NCoef="0" IVar="3" Cut="2.3329117187500000e+04" cType="1" res="1.0535267740488052e-01" rms="3.6824774742126465e-01" purity="3.2498577237129211e-01" nType="0">
            <Node pos="l" depth="3" NCoef="0" IVar="-1" Cut="0.0000000000000000e+00" cType="1" res="1.2696569319814444e-03" rms="2.7780330181121826e-01" purity="1.6812805831432343e-01" nType="-99"/>
            <Node pos="r" depth="3" NCoef="0" IVar="-1" Cut="0.0000000000000000e+00" cType="1" res="1.7588584451004863e-03" rms="4.3232652544975281e-01" purity="5.0360304117202759e-01" nType="-99"/>
          </Node>
          <Node pos="r" depth="2" NCoef="0" IVar="4" Cut="3.5842946875000000e+05" cType="1" res="9.8757154773920774e-05" rms="2.5611561536788940e-01" purity="1.4447329938411713e-01" nType="0">
            <Node pos="l" depth="3" NCoef="0" IVar="-1" Cut="0.0000000000000000e+00" cType="1" res="-1.5955778071656823e-03" rms="2.1999260783195496e-01" purity="9.5884993672370911e-02" nType="-99"/>
            <Node pos="r" depth="3" NCoef="0" IVar="-1" Cut="0.0000000000000000e+00" cType="1" res="2.3763771168887615e-03" rms="3.6298343539237976e-01" purity="3.4872356057167053e-01" nType="-99"/>
          </Node>
        </Node>
        <Node pos="r" depth="1" NCoef="0" IVar="1" Cut="1.1128134375000000e+05" cType="1" res="2.0088991522789001e-01" rms="2.3766785860061646e-01" purity="9.2030316591262817e-01" nType="0">
          <Node pos="l" depth="2" NCoef="0" IVar="1" Cut="7.3543531250000000e+04" cType="1" res="1.6031916439533234e-01" rms="3.0415245890617371e-01" purity="8.5856622457504272e-01" nType="0">
            <Node pos="l" depth="3" NCoef="0" IVar="-1" Cut="0.0000000000000000e+00" cType="1" res="1.7798389308154583e-03" rms="2.3248250782489777e-01" purity="9.3882721662521362e-01" nType="-99"/>
            <Node pos="r" depth="3" NCoef="0" IVar="-1" Cut="0.0000000000000000e+00" cType="1" res="1.1374679161235690e-03" rms="3.6763066053390503e-01" purity="7.5226157903671265e-01" nType="-99"/>
          </Node>
          <Node pos="r" depth="2" NCoef="0" IVar="3" Cut="9.5202671875000000e+04" cType="1" res="2.4211020767688751e-01" rms="1.2851113080978394e-01" purity="9.8302847146987915e-01" nType="0">
            <Node pos="l" depth="3" NCoef="0" IVar="-1" Cut="0.0000000000000000e+00" cType="1" res="1.8559494055807590e-03" rms="1.5173326432704926e-01" purity="9.7604328393936157e-01" nType="-99"/>
            <Node pos="r" depth="3" NCoef="0" IVar="-1" Cut="0.0000000000000000e+00" cType="1" res="1.5965317143127322e-03" rms="1.0138188302516937e-01" purity="9.8962986469268799e-01" nType="-99"/>
          </Node>
        </Node>
      </Node>
    </BinaryTree>
    <BinaryTree type="DecisionTree" boostWeight="1.0000000000000000e+00" itree="235">
      <Node pos="s" depth="0" NCoef="0" IVar="1" Cut="1.0035560937500000e+05" cType="1" res="1.1142557114362717e-01" rms="3.0010470747947693e-01" purity="5.0678038597106934e-01" nType="0">
        <Node pos="l" depth="1" NCoef="0" IVar="1" Cut="7.9321460937500000e+04" cType="1" res="6.0204971581697464e-02" rms="3.0325436592102051e-01" purity="3.2779353857040405e-01" nType="0">
          <Node pos="l" depth="2" NCoef="0" IVar="2" Cut="2.1676507812500000e+05" cType="1" res="1.8067654967308044e-01" rms="3.6573284864425659e-01" purity="6.3602286577224731e-01" nType="0">
            <Node pos="l" depth="3" NCoef="0" IVar="-1" Cut="0.0000000000000000e+00" cType="1" res="2.2892919369041920e-03" rms="3.6862638592720032e-01" purity="4.9761128425598145e-01" nType="-99"/>
            <Node pos="r" depth="3" NCoef="0" IVar="-1" Cut="0.0000000000000000e+00" cType="1" res="2.6689113583415747e-03" rms="3.5006409883499146e-01" purity="7.5544017553329468e-01" nType="-99"/>
          </Node>
          <Node pos="r" depth="2" NCoef="0" IVar="3" Cut="1.1350376562500000e+05" cType="1" res="-9.6901273354887962e-03" rms="2.3325432837009430e-01" purity="1.4896528422832489e-01" nType="0">
            <Node pos="l" depth="3" NCoef="0" IVar="-1" Cut="0.0000000000000000e+00" cType="1" res="-3.1231620814651251e-03" rms="2.2867684066295624e-01" purity="9.1981247067451477e-02" nType="-99"/>
            <Node pos="r" depth="3" NCoef="0" IVar="-1" Cut="0.0000000000000000e+00" cType="1" res="2.5048854295164347e-03" rms="1.6941069066524506e-01" purity="9.7035276889801025e-01" nType="-99"/>
          </Node>
        </Node>
        <Node pos="r" depth="1" NCoef="0" IVar="3" Cut="6.8969335937500000e+04" cType="1" res="2.0906110107898712e-01" rms="2.6815429329872131e-01" purity="8.4796112775802612e-01" nType="0">
          <Node pos="l" depth="2" NCoef="0" IVar="2" Cut="2.6962046875000000e+05" cType="1" res="1.8387900292873383e-01" rms="3.5401642322540283e-01" purity="7.2158181667327881e-01" nType="0">
            <Node pos="l" depth="3" NCoef="0" IVar="-1" Cut="0.0000000000000000e+00" cType="1" res="1.4387050177901983e-03" rms="4.2170456051826477e-01" purity="3.0011886358261108e-01" nType="-99"/>
            <Node pos="r" depth="3" NCoef="0" IVar="-1" Cut="0.0000000000000000e+00" cType="1" res="1.8685571849346161e-03" rms="3.3389127254486084e-01" purity="7.9736506938934326e-01" nType="-99"/>
          </Node>
          <Node pos="r" depth="2" NCoef="0" IVar="-1" Cut="0.0000000000000000e+00" cType="1" res="1.7917410004884005e-03" rms="1.0384935140609741e-01" purity="9.8901599645614624e-01" nType="-99"/>
        </Node>
      </Node>
    </BinaryTree>
    <BinaryTree type="DecisionTree" boostWeight="1.0000000000000000e+00" itree="236">
      <Node pos="s" depth="0" NCoef="0" IVar="3" Cut="4.8659894531250000e+04" cType="1" res="8.6179129779338837e-02" rms="2.8164723515510559e-01" purity="4.8168468475341797e-01" nType="0">
        <Node pos="l" depth="1" NCoef="0" IVar="2" Cut="3.5697400000000000e+05" cType="1" res="1.0981019586324692e-02" rms="2.7327644824981689e-01" purity="1.7189227044582367e-01" nType="0">
          <Node pos="l" depth="2" NCoef="0" IVar="1" Cut="1.1626640625000000e+05" cType="1" res="-1.4439413323998451e-02" rms="2.4143239855766296e-01" purity="1.0134597122669220e-01" nType="0">
            <Node pos="l" depth="3" NCoef="0" IVar="-1" Cut="0.0000000000000000e+00" cType="1" res="-3.3535598777234554e-03" rms="2.1285393834114075e-01" purity="6.5365560352802277e-02" nType="-99"/>
            <Node pos="r" depth="3" NCoef="0" IVar="-1" Cut="0.0000000000000000e+00" cType="1" res="1.7515297513455153e-03" rms="4.6518409252166748e-01" purity="5.8751249313354492e-01" nType="-99"/>
          </Node>
          <Node pos="r" depth="2" NCoef="0" IVar="1" Cut="8.4441484375000000e+04" cType="1" res="1.0205329954624176e-01" rms="3.5041651129722595e-01" purity="4.2463442683219910e-01" nType="0">
            <Node pos="l" depth="3" NCoef="0" IVar="-1" Cut="0.0000000000000000e+00" cType="1" res="6.2095634639263153e-03" rms="4.5690304040908813e-01" purity="4.6338152885437012e-01" nType="-99"/>
            <Node pos="r" depth="3" NCoef="0" IVar="-1" Cut="0.0000000000000000e+00" cType="1" res="1.8100845627486706e-03" rms="3.1825596094131470e-01" purity="4.1769787669181824e-01" nType="-99"/>
          </Node>
        </Node>
        <Node pos="r" depth="1" NCoef="0" IVar="1" Cut="1.0066286718750000e+05" cType="1" res="1.8883788585662842e-01" rms="2.5963059067726135e-01" purity="9.0460640192031860e-01" nType="0">
          <Node pos="l" depth="2" NCoef="0" IVar="3" Cut="7.9312914062500000e+04" cType="1" res="1.4838489890098572e-01" rms="3.1771874427795410e-01" purity="8.4291666746139526e-01" nType="0">
            <Node pos="l" depth="3" NCoef="0" IVar="-1" Cut="0.0000000000000000e+00" cType="1" res="7.3372689075767994e-04" rms="4.2756509780883789e-01" purity="6.6122150421142578e-01" nType="-99"/>
            <Node pos="r" depth="3" NCoef="0" IVar="-1" Cut="0.0000000000000000e+00" cType="1" res="1.8502991879358888e-03" rms="2.1984963119029999e-01" purity="9.4774347543716431e-01" nType="-99"/>
          </Node>
          <Node pos="r" depth="2" NCoef="0" IVar="2" Cut="3.2539253125000000e+05" cType="1" res="2.3181962966918945e-01" rms="1.6789367794990540e-01" purity="9.7015231847763062e-01" nType="0">
            <Node pos="l" depth="3" NCoef="0" IVar="-1" Cut="0.0000000000000000e+00" cType="1" res="2.0884871482849121e-03" rms="2.5418838858604431e-01" purity="9.2861777544021606e-01" nType="-99"/>
            <Node pos="r" depth="3" NCoef="0" IVar="-1" Cut="0.0000000000000000e+00" cType="1" res="2.2521191276609898e-03" rms="1.3140660524368286e-01" purity="9.8221129179000854e-01" nType="-99"/>
          </Node>
        </Node>
      </Node>
    </BinaryTree>
    <BinaryTree type="DecisionTree" boostWeight="1.0000000000000000e+00" itree="237">
      <Node pos="s" depth="0" NCoef="0" IVar="3" Cut="4.8766871093750000e+04" cType="1" res="9.5133066177368164e-02" rms="2.8782808780670166e-01" purity="4.9075686931610107e-01" nType="0">
        <Node pos="l" depth="1" NCoef="0" IVar="4" Cut="5.2473475000000000e+05" cType="1" res="2.4085050448775291e-02" rms="2.9043847322463989e-01" purity="1.8803021311759949e-01" nType="0">
          <Node pos="l" depth="2" NCoef="0" IVar="1" Cut="6.9602210937500000e+04" cType="1" res="8.8204862549901009e-03" rms="2.7298223972320557e-01" purity="1.5287674963474274e-01" nType="0">
            <Node pos="l" depth="3" NCoef="0" IVar="-1" Cut="0.0000000000000000e+00" cType="1" res="3.6467215977609158e-03" rms="4.3347364664077759e-01" purity="3.3443608880043030e-01" nType="-99"/>
            <Node pos="r" depth="3" NCoef="0" IVar="-1" Cut="0.0000000000000000e+00" cType="1" res="-9.2169170966371894e-04" rms="2.2467270493507385e-01" purity="1.1931572854518890e-01" nType="-99"/>
          </Node>
          <Node pos="r" depth="2" NCoef="0" IVar="1" Cut="9.4440570312500000e+04" cType="1" res="1.7858827114105225e-01" rms="3.9708158373832703e-01" purity="5.4384285211563110e-01" nType="0">
            <Node pos="l" depth="3" NCoef="0" IVar="-1" Cut="0.0000000000000000e+00" cType="1" res="4.6340763219632208e-04" rms="2.9538759589195251e-01" purity="1.8752139806747437e-01" nType="-99"/>
            <Node pos="r" depth="3" NCoef="0" IVar="-1" Cut="0.0000000000000000e+00" cType="1" res="3.4115531016141176e-03" rms="4.1554304957389832e-01" purity="7.6950871944427490e-01" nType="-99"/>
          </Node>
        </Node>
        <Node pos="r" depth="1" NCoef="0" IVar="1" Cut="1.2527707812500000e+05" cType="1" res="1.9347368180751801e-01" rms="2.5317555665969849e-01" purity="9.0977394580841064e-01" nType="0">
          <Node pos="l" depth="2" NCoef="0" IVar="3" Cut="8.4198859375000000e+04" cType="1" res="1.5870016813278198e-01" rms="3.1239762902259827e-01" purity="8.5389924049377441e-01" nType="0">
            <Node pos="l" depth="3" NCoef="0" IVar="-1" Cut="0.0000000000000000e+00" cType="1" res="1.2322177644819021e-03" rms="4.1289508342742920e-01" purity="7.1932941675186157e-01" nType="-99"/>
            <Node pos="r" depth="3" NCoef="0" IVar="-1" Cut="0.0000000000000000e+00" cType="1" res="2.1580536849796772e-03" rms="1.7552928626537323e-01" purity="9.6747577190399170e-01" nType="-99"/>
          </Node>
          <Node pos="r" depth="2" NCoef="0" IVar="-1" Cut="0.0000000000000000e+00" cType="1" res="2.1336504723876715e-03" rms="1.2507976591587067e-01" purity="9.8432022333145142e-01" nType="-99"/>
        </Node>
      </Node>
    </BinaryTree>
    <BinaryTree type="DecisionTree" boostWeight="1.0000000000000000e+00" itree="238">
      <Node pos="s" depth="0" NCoef="0" IVar="3" Cut="4.4463175781250000e+04" cType="1" res="9.9796950817108154e-02" rms="2.9285061359405518e-01" purity="4.8868003487586975e-01" nType="0">
        <Node pos="l" depth="1" NCoef="0" IVar="4" Cut="3.0381200000000000e+05" cType="1" res="3.1884763389825821e-02" rms="2.9536637663841248e-01" purity="1.8085178732872009e-01" nType="0">
          <Node pos="l" depth="2" NCoef="0" IVar="2" Cut="3.0574484375000000e+05" cType="1" res="3.7733148783445358e-03" rms="2.5516128540039062e-01" purity="1.1387750506401062e-01" nType="0">
            <Node pos="l" depth="3" NCoef="0" IVar="-1" Cut="0.0000000000000000e+00" cType="1" res="-1.6288399929180741e-03" rms="2.3125529289245605e-01" purity="7.2170041501522064e-02" nType="-99"/>
            <Node pos="r" depth="3" NCoef="0" IVar="-1" Cut="0.0000000000000000e+00" cType="1" res="2.4483872111886740e-03" rms="3.3609664440155029e-01" purity="3.1877073645591736e-01" nType="-99"/>
          </Node>
          <Node pos="r" depth="2" NCoef="0" IVar="0" Cut="2.2857143878936768e+00" cType="1" res="1.0443150997161865e-01" rms="3.7021580338478088e-01" purity="3.5369119048118591e-01" nType="0">
            <Node pos="l" depth="3" NCoef="0" IVar="-1" Cut="0.0000000000000000e+00" cType="1" res="2.0848105195909739e-03" rms="3.8670870661735535e-01" purity="3.8044226169586182e-01" nType="-99"/>
            <Node pos="r" depth="3" NCoef="0" IVar="-1" Cut="0.0000000000000000e+00" cType="1" res="-9.1056554811075330e-04" rms="2.4701483547687531e-01" purity="2.3199249804019928e-01" nType="-99"/>
          </Node>
        </Node>
        <Node pos="r" depth="1" NCoef="0" IVar="1" Cut="1.0073193750000000e+05" cType="1" res="1.8797899782657623e-01" rms="2.6471734046936035e-01" purity="8.8838630914688110e-01" nType="0">
          <Node pos="l" depth="2" NCoef="0" IVar="1" Cut="7.5490671875000000e+04" cType="1" res="1.4178085327148438e-01" rms="3.3214530348777771e-01" purity="8.0416440963745117e-01" nType="0">
            <Node pos="l" depth="3" NCoef="0" IVar="-1" Cut="0.0000000000000000e+00" cType="1" res="1.8332606414332986e-03" rms="2.6198670268058777e-01" purity="9.2024099826812744e-01" nType="-99"/>
            <Node pos="r" depth="3" NCoef="0" IVar="-1" Cut="0.0000000000000000e+00" cType="1" res="7.7999749919399619e-04" rms="3.9596009254455566e-01" purity="6.4056724309921265e-01" nType="-99"/>
          </Node>
          <Node pos="r" depth="2" NCoef="0" IVar="2" Cut="3.2700234375000000e+05" cType="1" res="2.3320898413658142e-01" rms="1.6290530562400818e-01" purity="9.7084313631057739e-01" nType="0">
            <Node pos="l" depth="3" NCoef="0" IVar="-1" Cut="0.0000000000000000e+00" cType="1" res="2.4586338549852371e-03" rms="2.1492022275924683e-01" purity="9.4707173109054565e-01" nType="-99"/>
            <Node pos="r" depth="3" NCoef="0" IVar="-1" Cut="0.0000000000000000e+00" cType="1" res="2.0705354399979115e-03" rms="1.4184837043285370e-01" purity="9.7853112220764160e-01" nType="-99"/>
          </Node>
        </Node>
      </Node>
    </BinaryTree>
    <BinaryTree type="DecisionTree" boostWeight="1.0000000000000000e+00" itree="239">
      <Node pos="s" depth="0" NCoef="0" IVar="3" Cut="6.5406480468750000e+04" cType="1" res="1.0209126025438309e-01" rms="2.9026332497596741e-01" purity="4.9782684445381165e-01" nType="0">
        <Node pos="l" depth="1" NCoef="0" IVar="3" Cut="2.4990037109375000e+04" cType="1" res="4.4303357601165771e-02" rms="3.1513431668281555e-01" purity="2.6423901319503784e-01" nType="0">
          <Node pos="l" depth="2" NCoef="0" IVar="4" Cut="3.8309846875000000e+05" cType="1" res="-8.9462066534906626e-04" rms="2.3405395448207855e-01" purity="9.0087160468101501e-02" nType="0">
            <Node pos="l" depth="3" NCoef="0" IVar="-1" Cut="0.0000000000000000e+00" cType="1" res="-4.1954810731112957e-03" rms="1.7582368850708008e-01" purity="5.3558573126792908e-02" nType="-99"/>
            <Node pos="r" depth="3" NCoef="0" IVar="-1" Cut="0.0000000000000000e+00" cType="1" res="6.7667947150766850e-03" rms="4.3932908773422241e-01" purity="3.4332296252250671e-01" nType="-99"/>
          </Node>
          <Node pos="r" depth="2" NCoef="0" IVar="2" Cut="1.9009540625000000e+05" cType="1" res="9.7710393369197845e-02" rms="3.8296115398406982e-01" purity="4.7002109885215759e-01" nType="0">
            <Node pos="l" depth="3" NCoef="0" IVar="-1" Cut="0.0000000000000000e+00" cType="1" res="-2.3491482716053724e-03" rms="3.9134049415588379e-01" purity="2.5130373239517212e-01" nType="-99"/>
            <Node pos="r" depth="3" NCoef="0" IVar="-1" Cut="0.0000000000000000e+00" cType="1" res="1.4155869139358401e-03" rms="3.7854662537574768e-01" purity="4.9307957291603088e-01" nType="-99"/>
          </Node>
        </Node>
        <Node pos="r" depth="1" NCoef="0" IVar="1" Cut="1.5474279687500000e+05" cType="1" res="2.1700505912303925e-01" rms="1.8564967811107635e-01" purity="9.6232664585113525e-01" nType="0">
          <Node pos="l" depth="2" NCoef="0" IVar="5" Cut="9.0724046875000000e+04" cType="1" res="2.0806500315666199e-01" rms="2.1417461335659027e-01" purity="9.4922786951065063e-01" nType="0">
            <Node pos="l" depth="3" NCoef="0" IVar="-1" Cut="0.0000000000000000e+00" cType="1" res="1.9004762871190906e-03" rms="2.0261770486831665e-01" purity="9.5683324337005615e-01" nType="-99"/>
            <Node pos="r" depth="3" NCoef="0" IVar="-1" Cut="0.0000000000000000e+00" cType="1" res="1.9390571396797895e-03" rms="2.2421942651271820e-01" purity="9.4164907932281494e-01" nType="-99"/>
          </Node>
          <Node pos="r" depth="2" NCoef="0" IVar="-1" Cut="0.0000000000000000e+00" cType="1" res="2.0175129175186157e-03" rms="9.7907781600952148e-02" purity="9.9028742313385010e-01" nType="-99"/>
        </Node>
      </Node>
    </BinaryTree>
    <BinaryTree type="DecisionTree" boostWeight="1.0000000000000000e+00" itree="240">
      <Node pos="s" depth="0" NCoef="0" IVar="3" Cut="4.4577453125000000e+04" cType="1" res="1.0281011462211609e-01" rms="2.9279360175132751e-01" purity="4.9761292338371277e-01" nType="0">
        <Node pos="l" depth="1" NCoef="0" IVar="3" Cut="1.0750056640625000e+04" cType="1" res="3.1669523566961288e-02" rms="2.9487168788909912e-01" purity="1.8477950990200043e-01" nType="0">
          <Node pos="l" depth="2" NCoef="0" IVar="4" Cut="3.7141443750000000e+05" cType="1" res="-3.9619997143745422e-02" rms="8.7524257600307465e-02" purity="1.1981445364654064e-02" nType="0">
            <Node pos="l" depth="3" NCoef="0" IVar="-1" Cut="0.0000000000000000e+00" cType="1" res="-1.0999289341270924e-02" rms="8.0636844038963318e-02" purity="1.3082714751362801e-02" nType="-99"/>
            <Node pos="r" depth="3" NCoef="0" IVar="-1" Cut="0.0000000000000000e+00" cType="1" res="-6.3385218381881714e-02" rms="1.3195388019084930e-01" purity="0.0000000000000000e+00" nType="-99"/>
          </Node>
          <Node pos="r" depth="2" NCoef="0" IVar="4" Cut="1.5602215625000000e+05" cType="1" res="5.1918022334575653e-02" rms="3.2804930210113525e-01" purity="2.3385968804359436e-01" nType="0">
            <Node pos="l" depth="3" NCoef="0" IVar="-1" Cut="0.0000000000000000e+00" cType="1" res="4.2797140777111053e-03" rms="4.3552470207214355e-01" purity="3.2700565457344055e-01" nType="-99"/>
            <Node pos="r" depth="3" NCoef="0" IVar="-1" Cut="0.0000000000000000e+00" cType="1" res="1.0501694632694125e-03" rms="3.0246973037719727e-01" purity="2.1963000297546387e-01" nType="-99"/>
          </Node>
        </Node>
        <Node pos="r" depth="1" NCoef="0" IVar="1" Cut="1.0395742187500000e+05" cType="1" res="1.9155147671699524e-01" rms="2.6460650563240051e-01" purity="8.8784384727478027e-01" nType="0">
          <Node pos="l" depth="2" NCoef="0" IVar="1" Cut="8.2117023437500000e+04" cType="1" res="1.0910269618034363e-01" rms="3.4852778911590576e-01" purity="7.6447087526321411e-01" nType="0">
            <Node pos="l" depth="3" NCoef="0" IVar="-1" Cut="0.0000000000000000e+00" cType="1" res="2.1785511635243893e-03" rms="2.8197634220123291e-01" purity="9.0264600515365601e-01" nType="-99"/>
            <Node pos="r" depth="3" NCoef="0" IVar="-1" Cut="0.0000000000000000e+00" cType="1" res="-5.7117512915283442e-04" rms="3.9232006669044495e-01" purity="5.5058354139328003e-01" nType="-99"/>
          </Node>
          <Node pos="r" depth="2" NCoef="0" IVar="5" Cut="8.9674460937500000e+04" cType="1" res="2.5158634781837463e-01" rms="1.5490567684173584e-01" purity="9.7767758369445801e-01" nType="0">
            <Node pos="l" depth="3" NCoef="0" IVar="-1" Cut="0.0000000000000000e+00" cType="1" res="1.0806695790961385e-03" rms="1.5550775825977325e-01" purity="9.8126679658889771e-01" nType="-99"/>
            <Node pos="r" depth="3" NCoef="0" IVar="-1" Cut="0.0000000000000000e+00" cType="1" res="1.6634410712867975e-03" rms="1.5094380080699921e-01" purity="9.7470861673355103e-01" nType="-99"/>
          </Node>
        </Node>
      </Node>
    </BinaryTree>
    <BinaryTree type="DecisionTree" boostWeight="1.0000000000000000e+00" itree="241">
      <Node pos="s" depth="0" NCoef="0" IVar="3" Cut="4.4524941406250000e+04" cType="1" res="9.3806132674217224e-02" rms="2.9089632630348206e-01" purity="4.9150764942169189e-01" nType="0">
        <Node pos="l" depth="1" NCoef="0" IVar="3" Cut="2.7607578125000000e+04" cType="1" res="2.4114398285746574e-02" rms="2.9407057166099548e-01" purity="1.6382560133934021e-01" nType="0">
          <Node pos="l" depth="2" NCoef="0" IVar="0" Cut="1.3333333730697632e+00" cType="1" res="-1.4036444481462240e-03" rms="2.3837001621723175e-01" purity="8.9654013514518738e-02" nType="0">
            <Node pos="l" depth="3" NCoef="0" IVar="-1" Cut="0.0000000000000000e+00" cType="1" res="-2.1987312939018011e-03" rms="2.1047386527061462e-01" purity="6.8628594279289246e-02" nType="-99"/>
            <Node pos="r" depth="3" NCoef="0" IVar="-1" Cut="0.0000000000000000e+00" cType="1" res="5.1973070949316025e-03" rms="3.5784399509429932e-01" purity="2.2291028499603271e-01" nType="-99"/>
          </Node>
          <Node pos="r" depth="2" NCoef="0" IVar="3" Cut="2.8413656250000000e+04" cType="1" res="8.5743941366672516e-02" rms="3.9081054925918579e-01" purity="3.4296008944511414e-01" nType="0">
            <Node pos="l" depth="3" NCoef="0" IVar="-1" Cut="0.0000000000000000e+00" cType="1" res="3.9105741307139397e-03" rms="4.2948812246322632e-01" purity="5.6349885463714600e-01" nType="-99"/>
            <Node pos="r" depth="3" NCoef="0" IVar="-1" Cut="0.0000000000000000e+00" cType="1" res="1.9278742838650942e-03" rms="3.7571722269058228e-01" purity="3.1899610161781311e-01" nType="-99"/>
          </Node>
        </Node>
        <Node pos="r" depth="1" NCoef="0" IVar="3" Cut="8.6816054687500000e+04" cType="1" res="1.7750839889049530e-01" rms="2.6372548937797546e-01" purity="8.8506549596786499e-01" nType="0">
          <Node pos="l" depth="2" NCoef="0" IVar="2" Cut="1.9476318750000000e+05" cType="1" res="1.2569074332714081e-01" rms="3.5760468244552612e-01" purity="7.6634770631790161e-01" nType="0">
            <Node pos="l" depth="3" NCoef="0" IVar="-1" Cut="0.0000000000000000e+00" cType="1" res="-1.2463745661079884e-03" rms="4.6704563498497009e-01" purity="5.1671248674392700e-01" nType="-99"/>
            <Node pos="r" depth="3" NCoef="0" IVar="-1" Cut="0.0000000000000000e+00" cType="1" res="1.5367668820545077e-03" rms="3.4126111865043640e-01" purity="7.8759068250656128e-01" nType="-99"/>
          </Node>
          <Node pos="r" depth="2" NCoef="0" IVar="1" Cut="1.1145093750000000e+05" cType="1" res="2.1920949220657349e-01" rms="1.3678200542926788e-01" purity="9.8060554265975952e-01" nType="0">
            <Node pos="l" depth="3" NCoef="0" IVar="-1" Cut="0.0000000000000000e+00" cType="1" res="2.0321628544479609e-03" rms="1.7064531147480011e-01" purity="9.6908587217330933e-01" nType="-99"/>
            <Node pos="r" depth="3" NCoef="0" IVar="-1" Cut="0.0000000000000000e+00" cType="1" res="2.1653182338923216e-03" rms="9.3654066324234009e-02" purity="9.9117434024810791e-01" nType="-99"/>
          </Node>
        </Node>
      </Node>
    </BinaryTree>
    <BinaryTree type="DecisionTree" boostWeight="1.0000000000000000e+00" itree="242">
      <Node pos="s" depth="0" NCoef="0" IVar="1" Cut="1.0035560937500000e+05" cType="1" res="1.0276332497596741e-01" rms="2.9283910989761353e-01" purity="5.0280874967575073e-01" nType="0">
        <Node pos="l" depth="1" NCoef="0" IVar="1" Cut="7.5114789062500000e+04" cType="1" res="5.1301006227731705e-02" rms="2.9336041212081909e-01" purity="3.1768727302551270e-01" nType="0">
          <Node pos="l" depth="2" NCoef="0" IVar="1" Cut="3.6046457031250000e+04" cType="1" res="1.7545537650585175e-01" rms="3.6192375421524048e-01" purity="6.5685933828353882e-01" nType="0">
            <Node pos="l" depth="3" NCoef="0" IVar="-1" Cut="0.0000000000000000e+00" cType="1" res="3.5260591539554298e-04" rms="3.2743042707443237e-01" purity="3.8909670710563660e-01" nType="-99"/>
            <Node pos="r" depth="3" NCoef="0" IVar="-1" Cut="0.0000000000000000e+00" cType="1" res="2.7825618162751198e-03" rms="3.5781842470169067e-01" purity="7.3849052190780640e-01" nType="-99"/>
          </Node>
          <Node pos="r" depth="2" NCoef="0" IVar="3" Cut="8.5070023437500000e+04" cType="1" res="-7.9654082655906677e-03" rms="2.3182441294193268e-01" purity="1.5577992796897888e-01" nType="0">
            <Node pos="l" depth="3" NCoef="0" IVar="-1" Cut="0.0000000000000000e+00" cType="1" res="-3.4487331286072731e-03" rms="2.2318685054779053e-01" purity="8.1381067633628845e-02" nType="-99"/>
            <Node pos="r" depth="3" NCoef="0" IVar="-1" Cut="0.0000000000000000e+00" cType="1" res="1.4527339953929186e-03" rms="2.2241216897964478e-01" purity="9.4600516557693481e-01" nType="-99"/>
          </Node>
        </Node>
        <Node pos="r" depth="1" NCoef="0" IVar="3" Cut="3.7230593750000000e+04" cType="1" res="2.0045959949493408e-01" rms="2.6571103930473328e-01" purity="8.5424405336380005e-01" nType="0">
          <Node pos="l" depth="2" NCoef="0" IVar="3" Cut="2.6637640625000000e+04" cType="1" res="1.3379295170307159e-01" rms="4.0986207127571106e-01" purity="5.5552470684051514e-01" nType="0">
            <Node pos="l" depth="3" NCoef="0" IVar="-1" Cut="0.0000000000000000e+00" cType="1" res="9.7695167642086744e-04" rms="4.1049784421920776e-01" purity="4.4323313236236572e-01" nType="-99"/>
            <Node pos="r" depth="3" NCoef="0" IVar="-1" Cut="0.0000000000000000e+00" cType="1" res="1.5657847980037332e-03" rms="3.8323795795440674e-01" purity="7.6624041795730591e-01" nType="-99"/>
          </Node>
          <Node pos="r" depth="2" NCoef="0" IVar="3" Cut="7.2575453125000000e+04" cType="1" res="2.2350764274597168e-01" rms="1.8672646582126617e-01" purity="9.5751744508743286e-01" nType="0">
            <Node pos="l" depth="3" NCoef="0" IVar="-1" Cut="0.0000000000000000e+00" cType="1" res="1.6798553988337517e-03" rms="2.7762657403945923e-01" purity="9.0235865116119385e-01" nType="-99"/>
            <Node pos="r" depth="3" NCoef="0" IVar="-1" Cut="0.0000000000000000e+00" cType="1" res="1.9285707967355847e-03" rms="9.4075053930282593e-02" purity="9.9111121892929077e-01" nType="-99"/>
          </Node>
        </Node>
      </Node>
    </BinaryTree>
    <BinaryTree type="DecisionTree" boostWeight="1.0000000000000000e+00" itree="243">
      <Node pos="s" depth="0" NCoef="0" IVar="3" Cut="5.4305199218750000e+04" cType="1" res="1.0568876564502716e-01" rms="2.9486417770385742e-01" purity="5.1008737087249756e-01" nType="0">
        <Node pos="l" depth="1" NCoef="0" IVar="0" Cut="1.3333333730697632e+00" cType="1" res="5.4334264248609543e-02" rms="3.1167310476303101e-01" purity="2.6085841655731201e-01" nType="0">
          <Node pos="l" depth="2" NCoef="0" IVar="3" Cut="2.0785482421875000e+04" cType="1" res="2.8110096231102943e-02" rms="2.9087889194488525e-01" purity="2.0219592750072479e-01" nType="0">
            <Node pos="l" depth="3" NCoef="0" IVar="-1" Cut="0.0000000000000000e+00" cType="1" res="-3.8082939572632313e-03" rms="1.5910547971725464e-01" purity="4.8946980386972427e-02" nType="-99"/>
            <Node pos="r" depth="3" NCoef="0" IVar="-1" Cut="0.0000000000000000e+00" cType="1" res="2.0814875606447458e-03" rms="3.7246504426002502e-01" purity="3.5945498943328857e-01" nType="-99"/>
          </Node>
          <Node pos="r" depth="2" NCoef="0" IVar="4" Cut="2.7726134375000000e+05" cType="1" res="1.5528614819049835e-01" rms="3.6405357718467712e-01" purity="4.8668414354324341e-01" nType="0">
            <Node pos="l" depth="3" NCoef="0" IVar="-1" Cut="0.0000000000000000e+00" cType="1" res="4.1761182365007699e-04" rms="3.5218447446823120e-01" purity="1.8499387800693512e-01" nType="-99"/>
            <Node pos="r" depth="3" NCoef="0" IVar="-1" Cut="0.0000000000000000e+00" cType="1" res="2.1627759560942650e-03" rms="3.6081230640411377e-01" purity="5.2845788002014160e-01" nType="-99"/>
          </Node>
        </Node>
        <Node pos="r" depth="1" NCoef="0" IVar="1" Cut="9.4841054687500000e+04" cType="1" res="1.9120810925960541e-01" rms="2.4137450754642487e-01" purity="9.2512196302413940e-01" nType="0">
          <Node pos="l" depth="2" NCoef="0" IVar="1" Cut="8.3041875000000000e+04" cType="1" res="1.4624872803688049e-01" rms="2.9568308591842651e-01" purity="8.7712001800537109e-01" nType="0">
            <Node pos="l" depth="3" NCoef="0" IVar="-1" Cut="0.0000000000000000e+00" cType="1" res="1.7790559213608503e-03" rms="2.4788050353527069e-01" purity="9.2744940519332886e-01" nType="-99"/>
            <Node pos="r" depth="3" NCoef="0" IVar="-1" Cut="0.0000000000000000e+00" cType="1" res="-1.0116009434568696e-05" rms="4.2021161317825317e-01" purity="6.5301525592803955e-01" nType="-99"/>
          </Node>
          <Node pos="r" depth="2" NCoef="0" IVar="0" Cut="3.3333334326744080e-01" cType="1" res="2.2553886473178864e-01" rms="1.8239495158195496e-01" purity="9.6177595853805542e-01" nType="0">
            <Node pos="l" depth="3" NCoef="0" IVar="-1" Cut="0.0000000000000000e+00" cType="1" res="2.0500286482274532e-03" rms="1.6436196863651276e-01" purity="9.6858561038970947e-01" nType="-99"/>
            <Node pos="r" depth="3" NCoef="0" IVar="-1" Cut="0.0000000000000000e+00" cType="1" res="1.7352132126688957e-03" rms="1.9079002737998962e-01" purity="9.5811361074447632e-01" nType="-99"/>
          </Node>
        </Node>
      </Node>
    </BinaryTree>
    <BinaryTree type="DecisionTree" boostWeight="1.0000000000000000e+00" itree="244">
      <Node pos="s" depth="0" NCoef="0" IVar="3" Cut="6.8843453125000000e+04" cType="1" res="9.4428330659866333e-02" rms="2.8969526290893555e-01" purity="4.9558246135711670e-01" nType="0">
        <Node pos="l" depth="1" NCoef="0" IVar="2" Cut="3.7109978125000000e+05" cType="1" res="4.9139313399791718e-02" rms="3.1025952100753784e-01" purity="3.0000928044319153e-01" nType="0">
          <Node pos="l" depth="2" NCoef="0" IVar="3" Cut="6.2297917968750000e+04" cType="1" res="1.4195668511092663e-02" rms="2.8614640235900879e-01" purity="2.1333709359169006e-01" nType="0">
            <Node pos="l" depth="3" NCoef="0" IVar="-1" Cut="0.0000000000000000e+00" cType="1" res="4.4757463911082596e-05" rms="2.8102684020996094e-01" purity="1.6960392892360687e-01" nType="-99"/>
            <Node pos="r" depth="3" NCoef="0" IVar="-1" Cut="0.0000000000000000e+00" cType="1" res="2.0190463401377201e-03" rms="2.8391149640083313e-01" purity="8.9545106887817383e-01" nType="-99"/>
          </Node>
          <Node pos="r" depth="2" NCoef="0" IVar="3" Cut="1.9776853515625000e+04" cType="1" res="1.6470336914062500e-01" rms="3.5556799173355103e-01" purity="5.8664762973785400e-01" nType="0">
            <Node pos="l" depth="3" NCoef="0" IVar="-1" Cut="0.0000000000000000e+00" cType="1" res="1.5650686109438539e-03" rms="3.1542125344276428e-01" purity="2.1435616910457611e-01" nType="-99"/>
            <Node pos="r" depth="3" NCoef="0" IVar="-1" Cut="0.0000000000000000e+00" cType="1" res="1.1297859018668532e-03" rms="3.5693758726119995e-01" purity="7.0510029792785645e-01" nType="-99"/>
          </Node>
        </Node>
        <Node pos="r" depth="1" NCoef="0" IVar="1" Cut="9.5010648437500000e+04" cType="1" res="2.0143274962902069e-01" rms="1.9615595042705536e-01" purity="9.5766353607177734e-01" nType="0">
          <Node pos="l" depth="2" NCoef="0" IVar="3" Cut="9.8550695312500000e+04" cType="1" res="1.5997934341430664e-01" rms="2.6267609000205994e-01" purity="9.1941493749618530e-01" nType="0">
            <Node pos="l" depth="3" NCoef="0" IVar="-1" Cut="0.0000000000000000e+00" cType="1" res="1.2302919058129191e-03" rms="3.7487152218818665e-01" purity="8.1487268209457397e-01" nType="-99"/>
            <Node pos="r" depth="3" NCoef="0" IVar="-1" Cut="0.0000000000000000e+00" cType="1" res="2.1101715974509716e-03" rms="1.9884848594665527e-01" purity="9.5841366052627563e-01" nType="-99"/>
          </Node>
          <Node pos="r" depth="2" NCoef="0" IVar="4" Cut="4.8350093750000000e+05" cType="1" res="2.2850294411182404e-01" rms="1.2919285893440247e-01" purity="9.8264092206954956e-01" nType="0">
            <Node pos="l" depth="3" NCoef="0" IVar="-1" Cut="0.0000000000000000e+00" cType="1" res="1.5029449714347720e-03" rms="1.3521976768970490e-01" purity="9.8111379146575928e-01" nType="-99"/>
            <Node pos="r" depth="3" NCoef="0" IVar="-1" Cut="0.0000000000000000e+00" cType="1" res="2.3745116777718067e-03" rms="1.2292639166116714e-01" purity="9.8412168025970459e-01" nType="-99"/>
          </Node>
        </Node>
      </Node>
    </BinaryTree>
    <BinaryTree type="DecisionTree" boostWeight="1.0000000000000000e+00" itree="245">
      <Node pos="s" depth="0" NCoef="0" IVar="3" Cut="6.8798242187500000e+04" cType="1" res="7.7592693269252777e-02" rms="2.7982214093208313e-01" purity="4.6968078613281250e-01" nType="0">
        <Node pos="l" depth="1" NCoef="0" IVar="1" Cut="1.5585728125000000e+05" cType="1" res="2.3421786725521088e-02" rms="2.9098927974700928e-01" purity="2.5485867261886597e-01" nType="0">
          <Node pos="l" depth="2" NCoef="0" IVar="1" Cut="1.1468756250000000e+05" cType="1" res="4.7717867419123650e-03" rms="2.8159576654434204e-01" purity="1.7758491635322571e-01" nType="0">
            <Node pos="l" depth="3" NCoef="0" IVar="-1" Cut="0.0000000000000000e+00" cType="1" res="-8.8735396275296807e-04" rms="2.6194205880165100e-01" purity="1.3176140189170837e-01" nType="-99"/>
            <Node pos="r" depth="3" NCoef="0" IVar="-1" Cut="0.0000000000000000e+00" cType="1" res="2.4241206701844931e-03" rms="4.0001776814460754e-01" purity="7.2146207094192505e-01" nType="-99"/>
          </Node>
          <Node pos="r" depth="2" NCoef="0" IVar="3" Cut="2.6494066406250000e+04" cType="1" res="1.6776119172573090e-01" rms="3.2058674097061157e-01" purity="8.5290962457656860e-01" nType="0">
            <Node pos="l" depth="3" NCoef="0" IVar="-1" Cut="0.0000000000000000e+00" cType="1" res="5.7067663874477148e-04" rms="4.3966510891914368e-01" purity="6.3817608356475830e-01" nType="-99"/>
            <Node pos="r" depth="3" NCoef="0" IVar="-1" Cut="0.0000000000000000e+00" cType="1" res="2.7873758226633072e-03" rms="2.4535556137561798e-01" purity="9.3568277359008789e-01" nType="-99"/>
          </Node>
        </Node>
        <Node pos="r" depth="1" NCoef="0" IVar="1" Cut="1.1128134375000000e+05" cType="1" res="1.9951418042182922e-01" rms="2.0611739158630371e-01" purity="9.5317703485488892e-01" nType="0">
          <Node pos="l" depth="2" NCoef="0" IVar="5" Cut="9.0239265625000000e+04" cType="1" res="1.7832210659980774e-01" rms="2.5224158167839050e-01" purity="9.2775249481201172e-01" nType="0">
            <Node pos="l" depth="3" NCoef="0" IVar="-1" Cut="0.0000000000000000e+00" cType="1" res="1.5176999149844050e-03" rms="2.2279098629951477e-01" purity="9.4633060693740845e-01" nType="-99"/>
            <Node pos="r" depth="3" NCoef="0" IVar="-1" Cut="0.0000000000000000e+00" cType="1" res="1.4485609717667103e-03" rms="2.7267035841941833e-01" purity="9.1249102354049683e-01" nType="-99"/>
          </Node>
          <Node pos="r" depth="2" NCoef="0" IVar="-1" Cut="0.0000000000000000e+00" cType="1" res="2.3749170359224081e-03" rms="1.2043277174234390e-01" purity="9.8528259992599487e-01" nType="-99"/>
        </Node>
      </Node>
    </BinaryTree>
    <BinaryTree type="DecisionTree" boostWeight="1.0000000000000000e+00" itree="246">
      <Node pos="s" depth="0" NCoef="0" IVar="3" Cut="6.5406480468750000e+04" cType="1" res="1.0627800226211548e-01" rms="2.8995683789253235e-01" purity="5.1054030656814575e-01" nType="0">
        <Node pos="l" depth="1" NCoef="0" IVar="1" Cut="7.4243046875000000e+04" cType="1" res="5.8338895440101624e-02" rms="3.1599664688110352e-01" purity="2.9257076978683472e-01" nType="0">
          <Node pos="l" depth="2" NCoef="0" IVar="2" Cut="1.4745743750000000e+05" cType="1" res="1.9222673773765564e-01" rms="4.1310223937034607e-01" purity="5.1079350709915161e-01" nType="0">
            <Node pos="l" depth="3" NCoef="0" IVar="-1" Cut="0.0000000000000000e+00" cType="1" res="-6.8486863747239113e-03" rms="3.4080088138580322e-01" purity="1.0758284479379654e-01" nType="-99"/>
            <Node pos="r" depth="3" NCoef="0" IVar="-1" Cut="0.0000000000000000e+00" cType="1" res="2.7455470990389585e-03" rms="4.0843138098716736e-01" purity="5.7307195663452148e-01" nType="-99"/>
          </Node>
          <Node pos="r" depth="2" NCoef="0" IVar="1" Cut="1.3352468750000000e+05" cType="1" res="2.6684805750846863e-02" rms="2.7906128764152527e-01" purity="2.4097801744937897e-01" nType="0">
            <Node pos="l" depth="3" NCoef="0" IVar="-1" Cut="0.0000000000000000e+00" cType="1" res="-3.0959915602579713e-04" rms="2.5116655230522156e-01" purity="1.1571632325649261e-01" nType="-99"/>
            <Node pos="r" depth="3" NCoef="0" IVar="-1" Cut="0.0000000000000000e+00" cType="1" res="1.5152517007663846e-03" rms="3.4994474053382874e-01" purity="8.2532346248626709e-01" nType="-99"/>
          </Node>
        </Node>
        <Node pos="r" depth="1" NCoef="0" IVar="1" Cut="1.0105126562500000e+05" cType="1" res="2.0462140440940857e-01" rms="1.9318337738513947e-01" purity="9.5768815279006958e-01" nType="0">
          <Node pos="l" depth="2" NCoef="0" IVar="3" Cut="9.4953765625000000e+04" cType="1" res="1.7731398344039917e-01" rms="2.5237008929252625e-01" purity="9.2477828264236450e-01" nType="0">
            <Node pos="l" depth="3" NCoef="0" IVar="-1" Cut="0.0000000000000000e+00" cType="1" res="1.0154488263651729e-03" rms="3.7901797890663147e-01" purity="8.1592178344726562e-01" nType="-99"/>
            <Node pos="r" depth="3" NCoef="0" IVar="-1" Cut="0.0000000000000000e+00" cType="1" res="2.2081490606069565e-03" rms="1.3630656898021698e-01" purity="9.8106461763381958e-01" nType="-99"/>
          </Node>
          <Node pos="r" depth="2" NCoef="0" IVar="0" Cut="1.1428571939468384e+00" cType="1" res="2.3043473064899445e-01" rms="1.0497901588678360e-01" purity="9.8879736661911011e-01" nType="0">
            <Node pos="l" depth="3" NCoef="0" IVar="-1" Cut="0.0000000000000000e+00" cType="1" res="2.5704163126647472e-03" rms="9.5929227769374847e-02" purity="9.9063944816589355e-01" nType="-99"/>
            <Node pos="r" depth="3" NCoef="0" IVar="-1" Cut="0.0000000000000000e+00" cType="1" res="1.5657698968425393e-03" rms="1.1321269720792770e-01" purity="9.8696130514144897e-01" nType="-99"/>
          </Node>
        </Node>
      </Node>
    </BinaryTree>
    <BinaryTree type="DecisionTree" boostWeight="1.0000000000000000e+00" itree="247">
      <Node pos="s" depth="0" NCoef="0" IVar="3" Cut="4.4663660156250000e+04" cType="1" res="9.2118695378303528e-02" rms="2.8343775868415833e-01" purity="4.9893343448638916e-01" nType="0">
        <Node pos="l" depth="1" NCoef="0" IVar="4" Cut="3.5322759375000000e+05" cType="1" res="1.7832191661000252e-02" rms="2.8211012482643127e-01" purity="1.5810938179492950e-01" nType="0">
          <Node pos="l" depth="2" NCoef="0" IVar="1" Cut="1.1346299218750000e+05" cType="1" res="1.2935233535245061e-03" rms="2.5025266408920288e-01" purity="1.1447132378816605e-01" nType="0">
            <Node pos="l" depth="3" NCoef="0" IVar="-1" Cut="0.0000000000000000e+00" cType="1" res="-1.0713937226682901e-03" rms="2.2349840402603149e-01" purity="6.9207295775413513e-02" nType="-99"/>
            <Node pos="r" depth="3" NCoef="0" IVar="-1" Cut="0.0000000000000000e+00" cType="1" res="2.0617397967725992e-03" rms="4.3215593695640564e-01" purity="6.1728978157043457e-01" nType="-99"/>
          </Node>
          <Node pos="r" depth="2" NCoef="0" IVar="5" Cut="9.2629648437500000e+04" cType="1" res="8.7256431579589844e-02" rms="3.8053905963897705e-01" purity="3.4128853678703308e-01" nType="0">
            <Node pos="l" depth="3" NCoef="0" IVar="-1" Cut="0.0000000000000000e+00" cType="1" res="1.2163055362179875e-03" rms="3.4039452672004700e-01" purity="3.0288004875183105e-01" nType="-99"/>
            <Node pos="r" depth="3" NCoef="0" IVar="-1" Cut="0.0000000000000000e+00" cType="1" res="6.3464692793786526e-03" rms="4.6066382527351379e-01" purity="4.5868131518363953e-01" nType="-99"/>
          </Node>
        </Node>
        <Node pos="r" depth="1" NCoef="0" IVar="1" Cut="1.0059082812500000e+05" cType="1" res="1.7758759856224060e-01" rms="2.5989747047424316e-01" purity="8.9106202125549316e-01" nType="0">
          <Node pos="l" depth="2" NCoef="0" IVar="1" Cut="8.7970554687500000e+04" cType="1" res="1.1021261662244797e-01" rms="3.4527227282524109e-01" purity="7.8083634376525879e-01" nType="0">
            <Node pos="l" depth="3" NCoef="0" IVar="-1" Cut="0.0000000000000000e+00" cType="1" res="1.7018199432641268e-03" rms="3.1279763579368591e-01" purity="8.5495489835739136e-01" nType="-99"/>
            <Node pos="r" depth="3" NCoef="0" IVar="-1" Cut="0.0000000000000000e+00" cType="1" res="-1.6381911700591445e-03" rms="4.0833234786987305e-01" purity="4.7126698493957520e-01" nType="-99"/>
          </Node>
          <Node pos="r" depth="2" NCoef="0" IVar="0" Cut="1.1428571939468384e+00" cType="1" res="2.3019082844257355e-01" rms="1.4455750584602356e-01" purity="9.7712105512619019e-01" nType="0">
            <Node pos="l" depth="3" NCoef="0" IVar="-1" Cut="0.0000000000000000e+00" cType="1" res="2.2445316426455975e-03" rms="1.3775490224361420e-01" purity="9.7904473543167114e-01" nType="-99"/>
            <Node pos="r" depth="3" NCoef="0" IVar="-1" Cut="0.0000000000000000e+00" cType="1" res="2.2030279505997896e-03" rms="1.5332366526126862e-01" purity="9.7439235448837280e-01" nType="-99"/>
          </Node>
        </Node>
      </Node>
    </BinaryTree>
    <BinaryTree type="DecisionTree" boostWeight="1.0000000000000000e+00" itree="248">
      <Node pos="s" depth="0" NCoef="0" IVar="1" Cut="1.0034389062500000e+05" cType="1" res="1.0264348238706589e-01" rms="2.8691518306732178e-01" purity="5.0269162654876709e-01" nType="0">
        <Node pos="l" depth="1" NCoef="0" IVar="1" Cut="7.5094031250000000e+04" cType="1" res="3.9051830768585205e-02" rms="2.7444562315940857e-01" purity="3.0497020483016968e-01" nType="0">
          <Node pos="l" depth="2" NCoef="0" IVar="1" Cut="3.6035929687500000e+04" cType="1" res="1.7664611339569092e-01" rms="3.4350383281707764e-01" purity="6.6753393411636353e-01" nType="0">
            <Node pos="l" depth="3" NCoef="0" IVar="-1" Cut="0.0000000000000000e+00" cType="1" res="-6.1674031894654036e-04" rms="3.1193223595619202e-01" purity="3.6250060796737671e-01" nType="-99"/>
            <Node pos="r" depth="3" NCoef="0" IVar="-1" Cut="0.0000000000000000e+00" cType="1" res="2.6946086436510086e-03" rms="3.3117040991783142e-01" purity="7.5333780050277710e-01" nType="-99"/>
          </Node>
          <Node pos="r" depth="2" NCoef="0" IVar="3" Cut="1.1348694531250000e+05" cType="1" res="-2.7280086651444435e-02" rms="2.0302939414978027e-01" purity="1.3018424808979034e-01" nType="0">
            <Node pos="l" depth="3" NCoef="0" IVar="-1" Cut="0.0000000000000000e+00" cType="1" res="-4.0473639965057373e-03" rms="1.9531360268592834e-01" purity="7.6790980994701385e-02" nType="-99"/>
            <Node pos="r" depth="3" NCoef="0" IVar="-1" Cut="0.0000000000000000e+00" cType="1" res="2.4980485904961824e-03" rms="1.8321818113327026e-01" purity="9.6464127302169800e-01" nType="-99"/>
          </Node>
        </Node>
        <Node pos="r" depth="1" NCoef="0" IVar="5" Cut="8.6821804687500000e+04" cType="1" res="2.1754051744937897e-01" rms="2.7287346124649048e-01" purity="8.5993349552154541e-01" nType="0">
          <Node pos="l" depth="2" NCoef="0" IVar="-1" Cut="0.0000000000000000e+00" cType="1" res="1.7859950894489884e-03" rms="3.0772551894187927e-01" purity="8.0137592554092407e-01" nType="-99"/>
          <Node pos="r" depth="2" NCoef="0" IVar="2" Cut="3.2128693750000000e+05" cType="1" res="2.2459380328655243e-01" rms="2.6793074607849121e-01" purity="8.6617410182952881e-01" nType="0">
            <Node pos="l" depth="3" NCoef="0" IVar="-1" Cut="0.0000000000000000e+00" cType="1" res="2.3145228624343872e-03" rms="3.1190061569213867e-01" purity="7.5142943859100342e-01" nType="-99"/>
            <Node pos="r" depth="3" NCoef="0" IVar="-1" Cut="0.0000000000000000e+00" cType="1" res="1.7146929167211056e-03" rms="2.4373507499694824e-01" purity="9.1981589794158936e-01" nType="-99"/>
          </Node>
        </Node>
      </Node>
    </BinaryTree>
    <BinaryTree type="DecisionTree" boostWeight="1.0000000000000000e+00" itree="249">
      <Node pos="s" depth="0" NCoef="0" IVar="3" Cut="4.8774171875000000e+04" cType="1" res="9.1318853199481964e-02" rms="2.8906062245368958e-01" purity="4.9069523811340332e-01" nType="0">
        <Node pos="l" depth="1" NCoef="0" IVar="4" Cut="3.5197456250000000e+05" cType="1" res="1.9635910168290138e-02" rms="2.9763954877853394e-01" purity="1.7106752097606659e-01" nType="0">
          <Node pos="l" depth="2" NCoef="0" IVar="2" Cut="4.2894143750000000e+05" cType="1" res="1.6696845414116979e-03" rms="2.6644226908683777e-01" purity="1.1916482448577881e-01" nType="0">
            <Node pos="l" depth="3" NCoef="0" IVar="-1" Cut="0.0000000000000000e+00" cType="1" res="-5.4525677114725113e-04" rms="2.6088336110115051e-01" purity="1.0198791325092316e-01" nType="-99"/>
            <Node pos="r" depth="3" NCoef="0" IVar="-1" Cut="0.0000000000000000e+00" cType="1" res="3.2269894145429134e-03" rms="3.3248192071914673e-01" purity="4.9324756860733032e-01" nType="-99"/>
          </Node>
          <Node pos="r" depth="2" NCoef="0" IVar="3" Cut="1.6627435546875000e+04" cType="1" res="8.9846089482307434e-02" rms="3.8880443572998047e-01" purity="3.7389805912971497e-01" nType="0">
            <Node pos="l" depth="3" NCoef="0" IVar="-1" Cut="0.0000000000000000e+00" cType="1" res="1.2592741404660046e-04" rms="2.6042211055755615e-01" purity="1.9872097671031952e-01" nType="-99"/>
            <Node pos="r" depth="3" NCoef="0" IVar="-1" Cut="0.0000000000000000e+00" cType="1" res="3.2413688022643328e-03" rms="4.2171266674995422e-01" purity="4.3690013885498047e-01" nType="-99"/>
          </Node>
        </Node>
        <Node pos="r" depth="1" NCoef="0" IVar="4" Cut="2.1143329687500000e+05" cType="1" res="1.8598842620849609e-01" rms="2.4730594456195831e-01" purity="9.1281819343566895e-01" nType="0">
          <Node pos="l" depth="2" NCoef="0" IVar="3" Cut="7.0134625000000000e+04" cType="1" res="5.2553270012140274e-02" rms="3.7127795815467834e-01" purity="7.3286700248718262e-01" nType="0">
            <Node pos="l" depth="3" NCoef="0" IVar="-1" Cut="0.0000000000000000e+00" cType="1" res="-3.3531093504279852e-03" rms="4.2771774530410767e-01" purity="4.4019228219985962e-01" nType="-99"/>
            <Node pos="r" depth="3" NCoef="0" IVar="-1" Cut="0.0000000000000000e+00" cType="1" res="2.4362590629607439e-03" rms="2.6473268866539001e-01" purity="9.2018264532089233e-01" nType="-99"/>
          </Node>
          <Node pos="r" depth="2" NCoef="0" IVar="1" Cut="1.0059082812500000e+05" cType="1" res="1.9974039494991302e-01" rms="2.2634635865688324e-01" purity="9.3136411905288696e-01" nType="0">
            <Node pos="l" depth="3" NCoef="0" IVar="-1" Cut="0.0000000000000000e+00" cType="1" res="1.7829451244324446e-03" rms="2.9898619651794434e-01" purity="8.6807775497436523e-01" nType="-99"/>
            <Node pos="r" depth="3" NCoef="0" IVar="-1" Cut="0.0000000000000000e+00" cType="1" res="1.6630279133096337e-03" rms="1.5208089351654053e-01" purity="9.7558408975601196e-01" nType="-99"/>
          </Node>
        </Node>
      </Node>
    </BinaryTree>
    <BinaryTree type="DecisionTree" boostWeight="1.0000000000000000e+00" itree="250">
      <Node pos="s" depth="0" NCoef="0" IVar="3" Cut="6.5456371093750000e+04" cType="1" res="8.8995873928070068e-02" rms="2.8160914778709412e-01" purity="4.9901568889617920e-01" nType="0">
        <Node pos="l" depth="1" NCoef="0" IVar="1" Cut="1.3641148437500000e+05" cType="1" res="2.9011258855462074e-02" rms="3.0272263288497925e-01" purity="2.5437188148498535e-01" nType="0">
          <Node pos="l" depth="2" NCoef="0" IVar="1" Cut="1.0072948437500000e+05" cType="1" res="6.2639629468321800e-03" rms="2.9043409228324890e-01" purity="1.5887388586997986e-01" nType="0">
            <Node pos="l" depth="3" NCoef="0" IVar="-1" Cut="0.0000000000000000e+00" cType="1" res="-5.0188106251880527e-04" rms="2.7271258831024170e-01" purity="1.2243284285068512e-01" nType="-99"/>
            <Node pos="r" depth="3" NCoef="0" IVar="-1" Cut="0.0000000000000000e+00" cType="1" res="2.2550281137228012e-03" rms="3.9151477813720703e-01" purity="4.5270490646362305e-01" nType="-99"/>
          </Node>
          <Node pos="r" depth="2" NCoef="0" IVar="3" Cut="2.2566470703125000e+04" cType="1" res="1.6680179536342621e-01" rms="3.3715483546257019e-01" purity="8.3284586668014526e-01" nType="0">
            <Node pos="l" depth="3" NCoef="0" IVar="-1" Cut="0.0000000000000000e+00" cType="1" res="-7.8778584793326445e-06" rms="4.8426038026809692e-01" purity="5.1345932483673096e-01" nType="-99"/>
            <Node pos="r" depth="3" NCoef="0" IVar="-1" Cut="0.0000000000000000e+00" cType="1" res="1.7761994386091828e-03" rms="2.6557859778404236e-01" purity="9.2085486650466919e-01" nType="-99"/>
          </Node>
        </Node>
        <Node pos="r" depth="1" NCoef="0" IVar="1" Cut="1.0105775000000000e+05" cType="1" res="2.0161020755767822e-01" rms="1.9158473610877991e-01" purity="9.5830661058425903e-01" nType="0">
          <Node pos="l" depth="2" NCoef="0" IVar="1" Cut="8.8405109375000000e+04" cType="1" res="1.7500276863574982e-01" rms="2.5031137466430664e-01" purity="9.2558032274246216e-01" nType="0">
            <Node pos="l" depth="3" NCoef="0" IVar="-1" Cut="0.0000000000000000e+00" cType="1" res="1.9387722713872790e-03" rms="2.0968341827392578e-01" purity="9.5139634609222412e-01" nType="-99"/>
            <Node pos="r" depth="3" NCoef="0" IVar="-1" Cut="0.0000000000000000e+00" cType="1" res="6.9155258825048804e-04" rms="4.1062265634536743e-01" purity="7.5943225622177124e-01" nType="-99"/>
          </Node>
          <Node pos="r" depth="2" NCoef="0" IVar="5" Cut="9.0618195312500000e+04" cType="1" res="2.2329530119895935e-01" rms="1.2044646590948105e-01" purity="9.8497861623764038e-01" nType="0">
            <Node pos="l" depth="3" NCoef="0" IVar="-1" Cut="0.0000000000000000e+00" cType="1" res="2.2528381086885929e-03" rms="1.3714918494224548e-01" purity="9.8053824901580811e-01" nType="-99"/>
            <Node pos="r" depth="3" NCoef="0" IVar="-1" Cut="0.0000000000000000e+00" cType="1" res="2.1616569720208645e-03" rms="1.0570384562015533e-01" purity="9.8838120698928833e-01" nType="-99"/>
          </Node>
        </Node>
      </Node>
    </BinaryTree>
    <BinaryTree type="DecisionTree" boostWeight="1.0000000000000000e+00" itree="251">
      <Node pos="s" depth="0" NCoef="0" IVar="1" Cut="1.0034389062500000e+05" cType="1" res="9.9344506859779358e-02" rms="2.9445096850395203e-01" purity="4.9615660309791565e-01" nType="0">
        <Node pos="l" depth="1" NCoef="0" IVar="3" Cut="6.5456371093750000e+04" cType="1" res="4.3412312865257263e-02" rms="2.8800949454307556e-01" purity="3.0616369843482971e-01" nType="0">
          <Node pos="l" depth="2" NCoef="0" IVar="1" Cut="7.9297484375000000e+04" cType="1" res="5.7104346342384815e-03" rms="2.8532013297080994e-01" purity="1.3198988139629364e-01" nType="0">
            <Node pos="l" depth="3" NCoef="0" IVar="-1" Cut="0.0000000000000000e+00" cType="1" res="2.3262179456651211e-03" rms="4.1057235002517700e-01" purity="3.8017341494560242e-01" nType="-99"/>
            <Node pos="r" depth="3" NCoef="0" IVar="-1" Cut="0.0000000000000000e+00" cType="1" res="-8.5492162033915520e-03" rms="2.1453930437564850e-01" purity="4.4632796198129654e-02" nType="-99"/>
          </Node>
          <Node pos="r" depth="2" NCoef="0" IVar="1" Cut="8.7779281250000000e+04" cType="1" res="1.7732270061969757e-01" rms="2.5582289695739746e-01" purity="9.2479801177978516e-01" nType="0">
            <Node pos="l" depth="3" NCoef="0" IVar="-1" Cut="0.0000000000000000e+00" cType="1" res="1.9387929933145642e-03" rms="2.2063396871089935e-01" purity="9.4751769304275513e-01" nType="-99"/>
            <Node pos="r" depth="3" NCoef="0" IVar="-1" Cut="0.0000000000000000e+00" cType="1" res="9.3298230785876513e-04" rms="4.1395732760429382e-01" purity="7.6736819744110107e-01" nType="-99"/>
          </Node>
        </Node>
        <Node pos="r" depth="1" NCoef="0" IVar="4" Cut="2.7830962500000000e+05" cType="1" res="2.0226009190082550e-01" rms="2.7795135974884033e-01" purity="8.4574472904205322e-01" nType="0">
          <Node pos="l" depth="2" NCoef="0" IVar="3" Cut="2.3549109375000000e+04" cType="1" res="1.6248075664043427e-01" rms="3.2595378160476685e-01" purity="7.1021848917007446e-01" nType="0">
            <Node pos="l" depth="3" NCoef="0" IVar="-1" Cut="0.0000000000000000e+00" cType="1" res="-5.8106624055653811e-04" rms="3.4417384862899780e-01" purity="2.2379523515701294e-01" nType="-99"/>
            <Node pos="r" depth="3" NCoef="0" IVar="-1" Cut="0.0000000000000000e+00" cType="1" res="1.7992762150242925e-03" rms="3.0047997832298279e-01" purity="8.5663634538650513e-01" nType="-99"/>
          </Node>
          <Node pos="r" depth="2" NCoef="0" IVar="2" Cut="4.5855662500000000e+05" cType="1" res="2.1892432868480682e-01" rms="2.5332278013229370e-01" purity="9.0251898765563965e-01" nType="0">
            <Node pos="l" depth="3" NCoef="0" IVar="-1" Cut="0.0000000000000000e+00" cType="1" res="1.4964132569730282e-03" rms="2.5359266996383667e-01" purity="9.0104758739471436e-01" nType="-99"/>
            <Node pos="r" depth="3" NCoef="0" IVar="-1" Cut="0.0000000000000000e+00" cType="1" res="1.4127481263130903e-03" rms="2.5007686018943787e-01" purity="9.0482997894287109e-01" nType="-99"/>
          </Node>
        </Node>
      </Node>
    </BinaryTree>
    <BinaryTree type="DecisionTree" boostWeight="1.0000000000000000e+00" itree="252">
      <Node pos="s" depth="0" NCoef="0" IVar="1" Cut="1.0034835937500000e+05" cType="1" res="8.8969275355339050e-02" rms="2.8510084748268127e-01" purity="4.8768669366836548e-01" nType="0">
        <Node pos="l" depth="1" NCoef="0" IVar="1" Cut="7.5107351562500000e+04" cType="1" res="2.8626766055822372e-02" rms="2.8266161680221558e-01" purity="2.8128299117088318e-01" nType="0">
          <Node pos="l" depth="2" NCoef="0" IVar="1" Cut="3.6044121093750000e+04" cType="1" res="1.3570760190486908e-01" rms="3.4844410419464111e-01" purity="6.2107872962951660e-01" nType="0">
            <Node pos="l" depth="3" NCoef="0" IVar="-1" Cut="0.0000000000000000e+00" cType="1" res="2.3209198843687773e-04" rms="3.1951507925987244e-01" purity="4.1808786988258362e-01" nType="-99"/>
            <Node pos="r" depth="3" NCoef="0" IVar="-1" Cut="0.0000000000000000e+00" cType="1" res="2.8981966897845268e-03" rms="3.4656214714050293e-01" purity="7.0117419958114624e-01" nType="-99"/>
          </Node>
          <Node pos="r" depth="2" NCoef="0" IVar="3" Cut="7.5666039062500000e+04" cType="1" res="-1.8327390775084496e-02" rms="2.3336812853813171e-01" purity="1.3228508830070496e-01" nType="0">
            <Node pos="l" depth="3" NCoef="0" IVar="-1" Cut="0.0000000000000000e+00" cType="1" res="-6.5667438320815563e-03" rms="2.1847200393676758e-01" purity="5.9232886880636215e-02" nType="-99"/>
            <Node pos="r" depth="3" NCoef="0" IVar="-1" Cut="0.0000000000000000e+00" cType="1" res="1.8587678205221891e-03" rms="3.0615645647048950e-01" purity="8.8985115289688110e-01" nType="-99"/>
          </Node>
        </Node>
        <Node pos="r" depth="1" NCoef="0" IVar="3" Cut="3.7473675781250000e+04" cType="1" res="1.9622531533241272e-01" rms="2.5645294785499573e-01" purity="8.5455983877182007e-01" nType="0">
          <Node pos="l" depth="2" NCoef="0" IVar="2" Cut="4.2349687500000000e+05" cType="1" res="1.0793819278478622e-01" rms="3.9362594485282898e-01" purity="5.2685403823852539e-01" nType="0">
            <Node pos="l" depth="3" NCoef="0" IVar="-1" Cut="0.0000000000000000e+00" cType="1" res="1.2249985011294484e-03" rms="3.8846978545188904e-01" purity="3.8908979296684265e-01" nType="-99"/>
            <Node pos="r" depth="3" NCoef="0" IVar="-1" Cut="0.0000000000000000e+00" cType="1" res="1.1309420224279165e-03" rms="3.8188132643699646e-01" purity="7.6387667655944824e-01" nType="-99"/>
          </Node>
          <Node pos="r" depth="2" NCoef="0" IVar="5" Cut="9.0388562500000000e+04" cType="1" res="2.2506275773048401e-01" rms="1.8238326907157898e-01" purity="9.6159917116165161e-01" nType="0">
            <Node pos="l" depth="3" NCoef="0" IVar="-1" Cut="0.0000000000000000e+00" cType="1" res="1.9199446542188525e-03" rms="1.9146424531936646e-01" purity="9.5535016059875488e-01" nType="-99"/>
            <Node pos="r" depth="3" NCoef="0" IVar="-1" Cut="0.0000000000000000e+00" cType="1" res="1.4835074543952942e-03" rms="1.7445620894432068e-01" purity="9.6638566255569458e-01" nType="-99"/>
          </Node>
        </Node>
      </Node>
    </BinaryTree>
    <BinaryTree type="DecisionTree" boostWeight="1.0000000000000000e+00" itree="253">
      <Node pos="s" depth="0" NCoef="0" IVar="3" Cut="6.8954984375000000e+04" cType="1" res="1.0125260800123215e-01" rms="2.9807987809181213e-01" purity="4.8910400271415710e-01" nType="0">
        <Node pos="l" depth="1" NCoef="0" IVar="1" Cut="1.0372283593750000e+05" cType="1" res="6.2741346657276154e-02" rms="3.2287427783012390e-01" purity="3.0155095458030701e-01" nType="0">
          <Node pos="l" depth="2" NCoef="0" IVar="1" Cut="8.1882398437500000e+04" cType="1" res="2.0790899172425270e-02" rms="3.0273437500000000e-01" purity="1.5458762645721436e-01" nType="0">
            <Node pos="l" depth="3" NCoef="0" IVar="-1" Cut="0.0000000000000000e+00" cType="1" res="3.5550708416849375e-03" rms="4.3467390537261963e-01" purity="3.8048079609870911e-01" nType="-99"/>
            <Node pos="r" depth="3" NCoef="0" IVar="-1" Cut="0.0000000000000000e+00" cType="1" res="-4.7717117704451084e-03" rms="2.0959268510341644e-01" purity="6.1668734997510910e-02" nType="-99"/>
          </Node>
          <Node pos="r" depth="2" NCoef="0" IVar="3" Cut="3.9706792968750000e+04" cType="1" res="1.9550621509552002e-01" rms="3.4774598479270935e-01" purity="7.6666069030761719e-01" nType="0">
            <Node pos="l" depth="3" NCoef="0" IVar="-1" Cut="0.0000000000000000e+00" cType="1" res="1.3420537579804659e-03" rms="4.2581889033317566e-01" purity="5.2699375152587891e-01" nType="-99"/>
            <Node pos="r" depth="3" NCoef="0" IVar="-1" Cut="0.0000000000000000e+00" cType="1" res="9.5476035494357347e-04" rms="2.4990594387054443e-01" purity="9.3830710649490356e-01" nType="-99"/>
          </Node>
        </Node>
        <Node pos="r" depth="1" NCoef="0" IVar="1" Cut="1.2642710937500000e+05" cType="1" res="1.9765438139438629e-01" rms="1.9314722716808319e-01" purity="9.5858871936798096e-01" nType="0">
          <Node pos="l" depth="2" NCoef="0" IVar="3" Cut="1.0344010156250000e+05" cType="1" res="1.7544969916343689e-01" rms="2.4233864247798920e-01" purity="9.3272989988327026e-01" nType="0">
            <Node pos="l" depth="3" NCoef="0" IVar="-1" Cut="0.0000000000000000e+00" cType="1" res="1.3849091483280063e-03" rms="3.0059120059013367e-01" purity="8.9254224300384521e-01" nType="-99"/>
            <Node pos="r" depth="3" NCoef="0" IVar="-1" Cut="0.0000000000000000e+00" cType="1" res="2.4123399052768946e-03" rms="1.6613826155662537e-01" purity="9.7124367952346802e-01" nType="-99"/>
          </Node>
          <Node pos="r" depth="2" NCoef="0" IVar="-1" Cut="0.0000000000000000e+00" cType="1" res="2.3654436226934195e-03" rms="1.0215410590171814e-01" purity="9.8946493864059448e-01" nType="-99"/>
        </Node>
      </Node>
    </BinaryTree>
    <BinaryTree type="DecisionTree" boostWeight="1.0000000000000000e+00" itree="254">
      <Node pos="s" depth="0" NCoef="0" IVar="3" Cut="7.4187843750000000e+04" cType="1" res="8.7322413921356201e-02" rms="2.9354357719421387e-01" purity="4.7553786635398865e-01" nType="0">
        <Node pos="l" depth="1" NCoef="0" IVar="2" Cut="2.6301556250000000e+05" cType="1" res="4.2222917079925537e-02" rms="3.1675675511360168e-01" purity="2.8072112798690796e-01" nType="0">
          <Node pos="l" depth="2" NCoef="0" IVar="4" Cut="3.6889196875000000e+05" cType="1" res="-1.1876898352056742e-03" rms="2.7208799123764038e-01" purity="1.5070897340774536e-01" nType="0">
            <Node pos="l" depth="3" NCoef="0" IVar="-1" Cut="0.0000000000000000e+00" cType="1" res="-8.4050639998167753e-04" rms="2.5982680916786194e-01" purity="1.3388872146606445e-01" nType="-99"/>
            <Node pos="r" depth="3" NCoef="0" IVar="-1" Cut="0.0000000000000000e+00" cType="1" res="2.5179884396493435e-03" rms="3.9336925745010376e-01" purity="4.1444087028503418e-01" nType="-99"/>
          </Node>
          <Node pos="r" depth="2" NCoef="0" IVar="0" Cut="1.1428571939468384e+00" cType="1" res="9.0935215353965759e-02" rms="3.5406586527824402e-01" purity="4.2661151289939880e-01" nType="0">
            <Node pos="l" depth="3" NCoef="0" IVar="-1" Cut="0.0000000000000000e+00" cType="1" res="1.6410477692261338e-03" rms="3.2914969325065613e-01" purity="3.7319022417068481e-01" nType="-99"/>
            <Node pos="r" depth="3" NCoef="0" IVar="-1" Cut="0.0000000000000000e+00" cType="1" res="2.9342200141400099e-03" rms="4.0274947881698608e-01" purity="5.7066965103149414e-01" nType="-99"/>
          </Node>
        </Node>
        <Node pos="r" depth="1" NCoef="0" IVar="1" Cut="1.0059082812500000e+05" cType="1" res="2.0049093663692474e-01" rms="1.8085201084613800e-01" purity="9.6439307928085327e-01" nType="0">
          <Node pos="l" depth="2" NCoef="0" IVar="1" Cut="8.7960992187500000e+04" cType="1" res="1.7440930008888245e-01" rms="2.3688603937625885e-01" purity="9.3649107217788696e-01" nType="0">
            <Node pos="l" depth="3" NCoef="0" IVar="-1" Cut="0.0000000000000000e+00" cType="1" res="1.7714150017127395e-03" rms="2.0674084126949310e-01" purity="9.5366907119750977e-01" nType="-99"/>
            <Node pos="r" depth="3" NCoef="0" IVar="-1" Cut="0.0000000000000000e+00" cType="1" res="8.1285781925544143e-04" rms="4.0850427746772766e-01" purity="7.7177268266677856e-01" nType="-99"/>
          </Node>
          <Node pos="r" depth="2" NCoef="0" IVar="-1" Cut="0.0000000000000000e+00" cType="1" res="1.6919275512918830e-03" rms="1.1169994622468948e-01" purity="9.8729622364044189e-01" nType="-99"/>
        </Node>
      </Node>
    </BinaryTree>
    <BinaryTree type="DecisionTree" boostWeight="1.0000000000000000e+00" itree="255">
      <Node pos="s" depth="0" NCoef="0" IVar="3" Cut="4.8659894531250000e+04" cType="1" res="9.5076687633991241e-02" rms="2.8470245003700256e-01" purity="4.9298620223999023e-01" nType="0">
        <Node pos="l" depth="1" NCoef="0" IVar="3" Cut="2.7829585937500000e+04" cType="1" res="3.1473472714424133e-02" rms="2.9367932677268982e-01" purity="1.9648687541484833e-01" nType="0">
          <Node pos="l" depth="2" NCoef="0" IVar="4" Cut="4.7702653125000000e+05" cType="1" res="-2.1657885517925024e-03" rms="2.3104085028171539e-01" purity="9.2465415596961975e-02" nType="0">
            <Node pos="l" depth="3" NCoef="0" IVar="-1" Cut="0.0000000000000000e+00" cType="1" res="-2.4703829549252987e-03" rms="2.0822840929031372e-01" purity="6.2714666128158569e-02" nType="-99"/>
            <Node pos="r" depth="3" NCoef="0" IVar="-1" Cut="0.0000000000000000e+00" cType="1" res="1.9910354167222977e-03" rms="3.7680447101593018e-01" purity="4.1024723649024963e-01" nType="-99"/>
          </Node>
          <Node pos="r" depth="2" NCoef="0" IVar="2" Cut="2.5125096875000000e+05" cType="1" res="1.0056517273187637e-01" rms="3.8295772671699524e-01" purity="4.1013658046722412e-01" nType="0">
            <Node pos="l" depth="3" NCoef="0" IVar="-1" Cut="0.0000000000000000e+00" cType="1" res="1.6419601161032915e-03" rms="3.8443750143051147e-01" purity="2.0941926538944244e-01" nType="-99"/>
            <Node pos="r" depth="3" NCoef="0" IVar="-1" Cut="0.0000000000000000e+00" cType="1" res="1.6403131885454059e-03" rms="3.7494626641273499e-01" purity="5.3908312320709229e-01" nType="-99"/>
          </Node>
        </Node>
        <Node pos="r" depth="1" NCoef="0" IVar="1" Cut="1.3196950000000000e+05" cType="1" res="1.8503914773464203e-01" rms="2.4473759531974792e-01" purity="9.1236460208892822e-01" nType="0">
          <Node pos="l" depth="2" NCoef="0" IVar="3" Cut="8.4097281250000000e+04" cType="1" res="1.5769584476947784e-01" rms="2.9376873373985291e-01" purity="8.6647105216979980e-01" nType="0">
            <Node pos="l" depth="3" NCoef="0" IVar="-1" Cut="0.0000000000000000e+00" cType="1" res="1.0646637529134750e-03" rms="3.9110347628593445e-01" purity="7.3522901535034180e-01" nType="-99"/>
            <Node pos="r" depth="3" NCoef="0" IVar="-1" Cut="0.0000000000000000e+00" cType="1" res="2.1530666854232550e-03" rms="1.8546284735202789e-01" purity="9.6335339546203613e-01" nType="-99"/>
          </Node>
          <Node pos="r" depth="2" NCoef="0" IVar="-1" Cut="0.0000000000000000e+00" cType="1" res="2.1142007317394018e-03" rms="1.2354037165641785e-01" purity="9.8467236757278442e-01" nType="-99"/>
        </Node>
      </Node>
    </BinaryTree>
    <BinaryTree type="DecisionTree" boostWeight="1.0000000000000000e+00" itree="256">
      <Node pos="s" depth="0" NCoef="0" IVar="3" Cut="5.4198226562500000e+04" cType="1" res="7.7743820846080780e-02" rms="2.8968045115470886e-01" purity="4.6529746055603027e-01" nType="0">
        <Node pos="l" depth="1" NCoef="0" IVar="4" Cut="5.7581281250000000e+05" cType="1" res="2.7478313073515892e-02" rms="2.9537835717201233e-01" purity="2.1641878783702850e-01" nType="0">
          <Node pos="l" depth="2" NCoef="0" IVar="1" Cut="1.2041319531250000e+05" cType="1" res="1.5443385578691959e-02" rms="2.8579047322273254e-01" purity="1.8183705210685730e-01" nType="0">
            <Node pos="l" depth="3" NCoef="0" IVar="-1" Cut="0.0000000000000000e+00" cType="1" res="-5.8744166744872928e-04" rms="2.5706258416175842e-01" purity="1.0054471343755722e-01" nType="-99"/>
            <Node pos="r" depth="3" NCoef="0" IVar="-1" Cut="0.0000000000000000e+00" cType="1" res="1.9175130873918533e-03" rms="4.0599939227104187e-01" purity="7.3620027303695679e-01" nType="-99"/>
          </Node>
          <Node pos="r" depth="2" NCoef="0" IVar="2" Cut="3.7706943750000000e+05" cType="1" res="1.6143925487995148e-01" rms="3.6015912890434265e-01" purity="6.0134845972061157e-01" nType="0">
            <Node pos="l" depth="3" NCoef="0" IVar="-1" Cut="0.0000000000000000e+00" cType="1" res="4.0843826718628407e-03" rms="4.1205099225044250e-01" purity="6.3275992870330811e-01" nType="-99"/>
            <Node pos="r" depth="3" NCoef="0" IVar="-1" Cut="0.0000000000000000e+00" cType="1" res="1.2053006794303656e-03" rms="2.8448560833930969e-01" purity="5.7985007762908936e-01" nType="-99"/>
          </Node>
        </Node>
        <Node pos="r" depth="1" NCoef="0" IVar="1" Cut="1.1141539843750000e+05" cType="1" res="1.6831383109092712e-01" rms="2.5525024533271790e-01" purity="9.1373515129089355e-01" nType="0">
          <Node pos="l" depth="2" NCoef="0" IVar="3" Cut="8.9369531250000000e+04" cType="1" res="1.2057168781757355e-01" rms="3.2225674390792847e-01" purity="8.5188442468643188e-01" nType="0">
            <Node pos="l" depth="3" NCoef="0" IVar="-1" Cut="0.0000000000000000e+00" cType="1" res="4.4550964958034456e-04" rms="4.2643156647682190e-01" purity="6.9621539115905762e-01" nType="-99"/>
            <Node pos="r" depth="3" NCoef="0" IVar="-1" Cut="0.0000000000000000e+00" cType="1" res="2.0518845412880182e-03" rms="2.1803700923919678e-01" purity="9.4931805133819580e-01" nType="-99"/>
          </Node>
          <Node pos="r" depth="2" NCoef="0" IVar="-1" Cut="0.0000000000000000e+00" cType="1" res="2.3992061614990234e-03" rms="1.2757815420627594e-01" purity="9.8317462205886841e-01" nType="-99"/>
        </Node>
      </Node>
    </BinaryTree>
    <BinaryTree type="DecisionTree" boostWeight="1.0000000000000000e+00" itree="257">
      <Node pos="s" depth="0" NCoef="0" IVar="3" Cut="6.8850757812500000e+04" cType="1" res="9.3366518616676331e-02" rms="2.9086422920227051e-01" purity="4.8804119229316711e-01" nType="0">
        <Node pos="l" depth="1" NCoef="0" IVar="2" Cut="3.7128590625000000e+05" cType="1" res="4.9726486206054688e-02" rms="3.1424388289451599e-01" purity="2.8797784447669983e-01" nType="0">
          <Node pos="l" depth="2" NCoef="0" IVar="1" Cut="1.1658375000000000e+05" cType="1" res="2.5927063077688217e-02" rms="2.9822459816932678e-01" purity="2.1509626507759094e-01" nType="0">
            <Node pos="l" depth="3" NCoef="0" IVar="-1" Cut="0.0000000000000000e+00" cType="1" res="3.9453737554140389e-04" rms="2.7633073925971985e-01" purity="1.5195791423320770e-01" nType="-99"/>
            <Node pos="r" depth="3" NCoef="0" IVar="-1" Cut="0.0000000000000000e+00" cType="1" res="2.1379524841904640e-03" rms="4.0852621197700500e-01" purity="7.4170517921447754e-01" nType="-99"/>
          </Node>
          <Node pos="r" depth="2" NCoef="0" IVar="1" Cut="1.3660650000000000e+05" cType="1" res="1.3679628074169159e-01" rms="3.5353970527648926e-01" purity="5.5461400747299194e-01" nType="0">
            <Node pos="l" depth="3" NCoef="0" IVar="-1" Cut="0.0000000000000000e+00" cType="1" res="3.5222982987761497e-03" rms="3.7682938575744629e-01" purity="3.0624631047248840e-01" nType="-99"/>
            <Node pos="r" depth="3" NCoef="0" IVar="-1" Cut="0.0000000000000000e+00" cType="1" res="1.8845113227143884e-03" rms="3.1324100494384766e-01" purity="8.8085573911666870e-01" nType="-99"/>
          </Node>
        </Node>
        <Node pos="r" depth="1" NCoef="0" IVar="1" Cut="1.0059082812500000e+05" cType="1" res="1.9624106585979462e-01" rms="1.9020923972129822e-01" purity="9.5965927839279175e-01" nType="0">
          <Node pos="l" depth="2" NCoef="0" IVar="0" Cut="1.1428571939468384e+00" cType="1" res="1.7179813981056213e-01" rms="2.4452954530715942e-01" purity="9.3075823783874512e-01" nType="0">
            <Node pos="l" depth="3" NCoef="0" IVar="-1" Cut="0.0000000000000000e+00" cType="1" res="2.1676886826753616e-03" rms="1.9938905537128448e-01" purity="9.5377367734909058e-01" nType="-99"/>
            <Node pos="r" depth="3" NCoef="0" IVar="-1" Cut="0.0000000000000000e+00" cType="1" res="1.4770486159250140e-03" rms="3.1994262337684631e-01" purity="8.7669205665588379e-01" nType="-99"/>
          </Node>
          <Node pos="r" depth="2" NCoef="0" IVar="-1" Cut="0.0000000000000000e+00" cType="1" res="2.3380629718303680e-03" rms="1.1338220536708832e-01" purity="9.8686766624450684e-01" nType="-99"/>
        </Node>
      </Node>
    </BinaryTree>
    <BinaryTree type="DecisionTree" boostWeight="1.0000000000000000e+00" itree="258">
      <Node pos="s" depth="0" NCoef="0" IVar="3" Cut="6.8736484375000000e+04" cType="1" res="9.3805223703384399e-02" rms="2.8461229801177979e-01" purity="5.0638425350189209e-01" nType="0">
        <Node pos="l" depth="1" NCoef="0" IVar="3" Cut="3.6027406250000000e+04" cType="1" res="4.5391831547021866e-02" rms="3.0704125761985779e-01" purity="2.9972642660140991e-01" nType="0">
          <Node pos="l" depth="2" NCoef="0" IVar="1" Cut="1.3875028125000000e+05" cType="1" res="4.6627423726022243e-03" rms="2.5583261251449585e-01" purity="1.1621921509504318e-01" nType="0">
            <Node pos="l" depth="3" NCoef="0" IVar="-1" Cut="0.0000000000000000e+00" cType="1" res="-7.6256808824837208e-04" rms="2.3098376393318176e-01" purity="6.0610610991716385e-02" nType="-99"/>
            <Node pos="r" depth="3" NCoef="0" IVar="-1" Cut="0.0000000000000000e+00" cType="1" res="1.2322843540459871e-03" rms="4.2973542213439941e-01" purity="6.9610220193862915e-01" nType="-99"/>
          </Node>
          <Node pos="r" depth="2" NCoef="0" IVar="2" Cut="2.4311600000000000e+05" cType="1" res="1.2613366544246674e-01" rms="3.7630784511566162e-01" purity="6.6351330280303955e-01" nType="0">
            <Node pos="l" depth="3" NCoef="0" IVar="-1" Cut="0.0000000000000000e+00" cType="1" res="2.8451308025978506e-04" rms="4.1395446658134460e-01" purity="4.6388417482376099e-01" nType="-99"/>
            <Node pos="r" depth="3" NCoef="0" IVar="-1" Cut="0.0000000000000000e+00" cType="1" res="1.4606644399464130e-03" rms="3.4971368312835693e-01" purity="7.4507778882980347e-01" nType="-99"/>
          </Node>
        </Node>
        <Node pos="r" depth="1" NCoef="0" IVar="4" Cut="2.6322265625000000e+05" cType="1" res="2.0053070783615112e-01" rms="1.8759877979755402e-01" purity="9.6195352077484131e-01" nType="0">
          <Node pos="l" depth="2" NCoef="0" IVar="3" Cut="8.6704195312500000e+04" cType="1" res="1.5638451278209686e-01" rms="2.6652148365974426e-01" purity="9.1627365350723267e-01" nType="0">
            <Node pos="l" depth="3" NCoef="0" IVar="-1" Cut="0.0000000000000000e+00" cType="1" res="1.1090527987107635e-03" rms="3.7490519881248474e-01" purity="8.1359916925430298e-01" nType="-99"/>
            <Node pos="r" depth="3" NCoef="0" IVar="-1" Cut="0.0000000000000000e+00" cType="1" res="2.6419041678309441e-03" rms="1.8482097983360291e-01" purity="9.6413189172744751e-01" nType="-99"/>
          </Node>
          <Node pos="r" depth="2" NCoef="0" IVar="1" Cut="1.1202803906250000e+05" cType="1" res="2.0986726880073547e-01" rms="1.6466332972049713e-01" purity="9.7161448001861572e-01" nType="0">
            <Node pos="l" depth="3" NCoef="0" IVar="-1" Cut="0.0000000000000000e+00" cType="1" res="1.8650171114131808e-03" rms="2.1715150773525238e-01" purity="9.4985318183898926e-01" nType="-99"/>
            <Node pos="r" depth="3" NCoef="0" IVar="-1" Cut="0.0000000000000000e+00" cType="1" res="1.9020701292902231e-03" rms="1.0015308856964111e-01" purity="9.8985856771469116e-01" nType="-99"/>
          </Node>
        </Node>
      </Node>
    </BinaryTree>
    <BinaryTree type="DecisionTree" boostWeight="1.0000000000000000e+00" itree="259">
      <Node pos="s" depth="0" NCoef="0" IVar="3" Cut="6.8736484375000000e+04" cType="1" res="9.0922713279724121e-02" rms="2.8285109996795654e-01" purity="4.9906778335571289e-01" nType="0">
        <Node pos="l" depth="1" NCoef="0" IVar="1" Cut="9.3450960937500000e+04" cType="1" res="4.2643729597330093e-02" rms="3.0711302161216736e-01" purity="2.8716042637825012e-01" nType="0">
          <Node pos="l" depth="2" NCoef="0" IVar="1" Cut="7.4058320312500000e+04" cType="1" res="-3.1840130686759949e-03" rms="2.7922067046165466e-01" purity="1.3579434156417847e-01" nType="0">
            <Node pos="l" depth="3" NCoef="0" IVar="-1" Cut="0.0000000000000000e+00" cType="1" res="2.4337498471140862e-03" rms="4.1965302824974060e-01" purity="3.8164311647415161e-01" nType="-99"/>
            <Node pos="r" depth="3" NCoef="0" IVar="-1" Cut="0.0000000000000000e+00" cType="1" res="-8.7262801826000214e-03" rms="1.9042271375656128e-01" purity="4.4264372438192368e-02" nType="-99"/>
          </Node>
          <Node pos="r" depth="2" NCoef="0" IVar="3" Cut="4.9028656250000000e+04" cType="1" res="1.0591116547584534e-01" rms="3.3165347576141357e-01" purity="4.9612867832183838e-01" nType="0">
            <Node pos="l" depth="3" NCoef="0" IVar="-1" Cut="0.0000000000000000e+00" cType="1" res="1.5219170600175858e-03" rms="3.4318304061889648e-01" purity="3.6314374208450317e-01" nType="-99"/>
            <Node pos="r" depth="3" NCoef="0" IVar="-1" Cut="0.0000000000000000e+00" cType="1" res="1.6922702779993415e-03" rms="2.7232950925827026e-01" purity="8.9724546670913696e-01" nType="-99"/>
          </Node>
        </Node>
        <Node pos="r" depth="1" NCoef="0" IVar="1" Cut="1.1141539843750000e+05" cType="1" res="1.9696733355522156e-01" rms="1.7944262921810150e-01" purity="9.6452152729034424e-01" nType="0">
          <Node pos="l" depth="2" NCoef="0" IVar="0" Cut="3.8095238804817200e-01" cType="1" res="1.7637325823307037e-01" rms="2.2470512986183167e-01" purity="9.4246727228164673e-01" nType="0">
            <Node pos="l" depth="3" NCoef="0" IVar="-1" Cut="0.0000000000000000e+00" cType="1" res="2.3694792762398720e-03" rms="1.4669282734394073e-01" purity="9.7566771507263184e-01" nType="-99"/>
            <Node pos="r" depth="3" NCoef="0" IVar="-1" Cut="0.0000000000000000e+00" cType="1" res="1.6871666302904487e-03" rms="2.6430225372314453e-01" purity="9.1876584291458130e-01" nType="-99"/>
          </Node>
          <Node pos="r" depth="2" NCoef="0" IVar="-1" Cut="0.0000000000000000e+00" cType="1" res="2.3709132801741362e-03" rms="1.1321654915809631e-01" purity="9.8684698343276978e-01" nType="-99"/>
        </Node>
      </Node>
    </BinaryTree>
    <BinaryTree type="DecisionTree" boostWeight="1.0000000000000000e+00" itree="260">
      <Node pos="s" depth="0" NCoef="0" IVar="3" Cut="6.8798242187500000e+04" cType="1" res="1.0128197818994522e-01" rms="2.8939116001129150e-01" purity="5.0962197780609131e-01" nType="0">
        <Node pos="l" depth="1" NCoef="0" IVar="3" Cut="2.3013818359375000e+04" cType="1" res="6.4939692616462708e-02" rms="3.1038138270378113e-01" purity="3.3177661895751953e-01" nType="0">
          <Node pos="l" depth="2" NCoef="0" IVar="1" Cut="1.2715934375000000e+05" cType="1" res="-5.1243025809526443e-03" rms="2.1103568375110626e-01" purity="9.1520376503467560e-02" nType="0">
            <Node pos="l" depth="3" NCoef="0" IVar="-1" Cut="0.0000000000000000e+00" cType="1" res="-1.1342641897499561e-02" rms="1.4850524067878723e-01" purity="2.5248643010854721e-02" nType="-99"/>
            <Node pos="r" depth="3" NCoef="0" IVar="-1" Cut="0.0000000000000000e+00" cType="1" res="2.0104337017983198e-03" rms="4.6008595824241638e-01" purity="6.6631454229354858e-01" nType="-99"/>
          </Node>
          <Node pos="r" depth="2" NCoef="0" IVar="1" Cut="9.3489203125000000e+04" cType="1" res="1.2251510471105576e-01" rms="3.6270517110824585e-01" purity="5.2920824289321899e-01" nType="0">
            <Node pos="l" depth="3" NCoef="0" IVar="-1" Cut="0.0000000000000000e+00" cType="1" res="1.7722405027598143e-03" rms="3.8691893219947815e-01" purity="3.6314633488655090e-01" nType="-99"/>
            <Node pos="r" depth="3" NCoef="0" IVar="-1" Cut="0.0000000000000000e+00" cType="1" res="1.5105811180546880e-03" rms="3.2789462804794312e-01" purity="7.0679414272308350e-01" nType="-99"/>
          </Node>
        </Node>
        <Node pos="r" depth="1" NCoef="0" IVar="1" Cut="1.0329192187500000e+05" cType="1" res="1.9240847229957581e-01" rms="2.0140574872493744e-01" purity="9.5556038618087769e-01" nType="0">
          <Node pos="l" depth="2" NCoef="0" IVar="3" Cut="1.2820503906250000e+05" cType="1" res="1.6228593885898590e-01" rms="2.7213010191917419e-01" purity="9.1576099395751953e-01" nType="0">
            <Node pos="l" depth="3" NCoef="0" IVar="-1" Cut="0.0000000000000000e+00" cType="1" res="1.5751698520034552e-03" rms="3.2984349131584167e-01" purity="8.7274128198623657e-01" nType="-99"/>
            <Node pos="r" depth="3" NCoef="0" IVar="-1" Cut="0.0000000000000000e+00" cType="1" res="2.0363179501146078e-03" rms="1.4670312404632568e-01" purity="9.7797060012817383e-01" nType="-99"/>
          </Node>
          <Node pos="r" depth="2" NCoef="0" IVar="-1" Cut="0.0000000000000000e+00" cType="1" res="1.9838302396237850e-03" rms="1.1536797881126404e-01" purity="9.8646181821823120e-01" nType="-99"/>
        </Node>
      </Node>
    </BinaryTree>
    <BinaryTree type="DecisionTree" boostWeight="1.0000000000000000e+00" itree="261">
      <Node pos="s" depth="0" NCoef="0" IVar="3" Cut="5.4198226562500000e+04" cType="1" res="8.4987893700599670e-02" rms="2.7681043744087219e-01" purity="4.8170959949493408e-01" nType="0">
        <Node pos="l" depth="1" NCoef="0" IVar="3" Cut="4.9030691406250000e+04" cType="1" res="1.5161816030740738e-02" rms="2.8626132011413574e-01" purity="1.9101667404174805e-01" nType="0">
          <Node pos="l" depth="2" NCoef="0" IVar="1" Cut="1.3876582812500000e+05" cType="1" res="3.7547193933278322e-03" rms="2.7720403671264648e-01" purity="1.4782744646072388e-01" nType="0">
            <Node pos="l" depth="3" NCoef="0" IVar="-1" Cut="0.0000000000000000e+00" cType="1" res="-9.1640400933101773e-04" rms="2.5592070817947388e-01" purity="9.1392464935779572e-02" nType="-99"/>
            <Node pos="r" depth="3" NCoef="0" IVar="-1" Cut="0.0000000000000000e+00" cType="1" res="1.5713626053184271e-03" rms="4.2544633150100708e-01" purity="7.3519492149353027e-01" nType="-99"/>
          </Node>
          <Node pos="r" depth="2" NCoef="0" IVar="5" Cut="9.0808195312500000e+04" cType="1" res="1.6433309018611908e-01" rms="3.5317173600196838e-01" purity="7.5580513477325439e-01" nType="0">
            <Node pos="l" depth="3" NCoef="0" IVar="-1" Cut="0.0000000000000000e+00" cType="1" res="2.0672522950917482e-03" rms="3.3136966824531555e-01" purity="8.2147890329360962e-01" nType="-99"/>
            <Node pos="r" depth="3" NCoef="0" IVar="-1" Cut="0.0000000000000000e+00" cType="1" res="5.0759164150804281e-04" rms="3.6183053255081177e-01" purity="6.2171232700347900e-01" nType="-99"/>
          </Node>
        </Node>
        <Node pos="r" depth="1" NCoef="0" IVar="1" Cut="1.0066286718750000e+05" cType="1" res="1.9457483291625977e-01" rms="2.2047884762287140e-01" purity="9.3793094158172607e-01" nType="0">
          <Node pos="l" depth="2" NCoef="0" IVar="1" Cut="8.3833210937500000e+04" cType="1" res="1.6586360335350037e-01" rms="2.8515392541885376e-01" purity="8.8885319232940674e-01" nType="0">
            <Node pos="l" depth="3" NCoef="0" IVar="-1" Cut="0.0000000000000000e+00" cType="1" res="2.1777832880616188e-03" rms="2.1908983588218689e-01" purity="9.4872641563415527e-01" nType="-99"/>
            <Node pos="r" depth="3" NCoef="0" IVar="-1" Cut="0.0000000000000000e+00" cType="1" res="5.8300659293308854e-04" rms="4.1970783472061157e-01" purity="6.8492853641510010e-01" nType="-99"/>
          </Node>
          <Node pos="r" depth="2" NCoef="0" IVar="5" Cut="9.1443187500000000e+04" cType="1" res="2.1934671700000763e-01" rms="1.3809812068939209e-01" purity="9.8027503490447998e-01" nType="0">
            <Node pos="l" depth="3" NCoef="0" IVar="-1" Cut="0.0000000000000000e+00" cType="1" res="2.2674030624330044e-03" rms="1.3002237677574158e-01" purity="9.8278516530990601e-01" nType="-99"/>
            <Node pos="r" depth="3" NCoef="0" IVar="-1" Cut="0.0000000000000000e+00" cType="1" res="1.3911535497754812e-03" rms="1.4989385008811951e-01" purity="9.7621446847915649e-01" nType="-99"/>
          </Node>
        </Node>
      </Node>
    </BinaryTree>
    <BinaryTree type="DecisionTree" boostWeight="1.0000000000000000e+00" itree="262">
      <Node pos="s" depth="0" NCoef="0" IVar="1" Cut="1.0037520312500000e+05" cType="1" res="8.3260327577590942e-02" rms="2.8295981884002686e-01" purity="4.8403969407081604e-01" nType="0">
        <Node pos="l" depth="1" NCoef="0" IVar="1" Cut="7.5134398437500000e+04" cType="1" res="2.3098343983292580e-02" rms="2.7222415804862976e-01" purity="2.7811580896377563e-01" nType="0">
          <Node pos="l" depth="2" NCoef="0" IVar="4" Cut="2.8933859375000000e+05" cType="1" res="1.1942581832408905e-01" rms="3.3781820535659790e-01" purity="6.1925458908081055e-01" nType="0">
            <Node pos="l" depth="3" NCoef="0" IVar="-1" Cut="0.0000000000000000e+00" cType="1" res="1.4889915473759174e-03" rms="3.6168867349624634e-01" purity="4.6267163753509521e-01" nType="-99"/>
            <Node pos="r" depth="3" NCoef="0" IVar="-1" Cut="0.0000000000000000e+00" cType="1" res="2.4597579613327980e-03" rms="2.7578806877136230e-01" purity="8.5673213005065918e-01" nType="-99"/>
          </Node>
          <Node pos="r" depth="2" NCoef="0" IVar="3" Cut="7.5557476562500000e+04" cType="1" res="-2.1091273054480553e-02" rms="2.2257559001445770e-01" purity="1.2162056565284729e-01" nType="0">
            <Node pos="l" depth="3" NCoef="0" IVar="-1" Cut="0.0000000000000000e+00" cType="1" res="-4.7474773600697517e-03" rms="2.1005453169345856e-01" purity="6.8227343261241913e-02" nType="-99"/>
            <Node pos="r" depth="3" NCoef="0" IVar="-1" Cut="0.0000000000000000e+00" cType="1" res="1.4809209387749434e-03" rms="3.1791433691978455e-01" purity="8.8020205497741699e-01" nType="-99"/>
          </Node>
        </Node>
        <Node pos="r" depth="1" NCoef="0" IVar="3" Cut="5.4476886718750000e+04" cType="1" res="1.9146560132503510e-01" rms="2.6938447356224060e-01" purity="8.5440731048583984e-01" nType="0">
          <Node pos="l" depth="2" NCoef="0" IVar="5" Cut="9.0702906250000000e+04" cType="1" res="1.5368472039699554e-01" rms="3.9072915911674500e-01" purity="6.5988326072692871e-01" nType="0">
            <Node pos="l" depth="3" NCoef="0" IVar="-1" Cut="0.0000000000000000e+00" cType="1" res="2.0666765049099922e-03" rms="3.7607410550117493e-01" purity="7.1844816207885742e-01" nType="-99"/>
            <Node pos="r" depth="3" NCoef="0" IVar="-1" Cut="0.0000000000000000e+00" cType="1" res="1.5575285069644451e-03" rms="4.0264266729354858e-01" purity="5.7118368148803711e-01" nType="-99"/>
          </Node>
          <Node pos="r" depth="2" NCoef="0" IVar="5" Cut="9.1502835937500000e+04" cType="1" res="2.1566979587078094e-01" rms="1.4053851366043091e-01" purity="9.7902864217758179e-01" nType="0">
            <Node pos="l" depth="3" NCoef="0" IVar="-1" Cut="0.0000000000000000e+00" cType="1" res="1.7785218078643084e-03" rms="1.2734085321426392e-01" purity="9.8287308216094971e-01" nType="-99"/>
            <Node pos="r" depth="3" NCoef="0" IVar="-1" Cut="0.0000000000000000e+00" cType="1" res="2.3055905476212502e-03" rms="1.6426247358322144e-01" purity="9.7106641530990601e-01" nType="-99"/>
          </Node>
        </Node>
      </Node>
    </BinaryTree>
    <BinaryTree type="DecisionTree" boostWeight="1.0000000000000000e+00" itree="263">
      <Node pos="s" depth="0" NCoef="0" IVar="1" Cut="1.0035560937500000e+05" cType="1" res="8.8163919746875763e-02" rms="2.8709158301353455e-01" purity="4.9213510751724243e-01" nType="0">
        <Node pos="l" depth="1" NCoef="0" IVar="1" Cut="8.3522171875000000e+04" cType="1" res="3.9849866181612015e-02" rms="2.8777053952217102e-01" purity="3.1365174055099487e-01" nType="0">
          <Node pos="l" depth="2" NCoef="0" IVar="2" Cut="2.4537720312500000e+05" cType="1" res="1.2281539291143417e-01" rms="3.5494887828826904e-01" purity="5.7923048734664917e-01" nType="0">
            <Node pos="l" depth="3" NCoef="0" IVar="-1" Cut="0.0000000000000000e+00" cType="1" res="1.3570685405284166e-03" rms="3.2209363579750061e-01" purity="4.8610255122184753e-01" nType="-99"/>
            <Node pos="r" depth="3" NCoef="0" IVar="-1" Cut="0.0000000000000000e+00" cType="1" res="2.2739006672054529e-03" rms="3.8204997777938843e-01" purity="7.0274597406387329e-01" nType="-99"/>
          </Node>
          <Node pos="r" depth="2" NCoef="0" IVar="3" Cut="6.5406480468750000e+04" cType="1" res="-2.3138845339417458e-02" rms="2.0208391547203064e-01" purity="1.1202019453048706e-01" nType="0">
            <Node pos="l" depth="3" NCoef="0" IVar="-1" Cut="0.0000000000000000e+00" cType="1" res="-1.4412503689527512e-02" rms="1.6684149205684662e-01" purity="2.6591433212161064e-02" nType="-99"/>
            <Node pos="r" depth="3" NCoef="0" IVar="-1" Cut="0.0000000000000000e+00" cType="1" res="1.8946578493341804e-03" rms="3.4049588441848755e-01" purity="8.5873460769653320e-01" nType="-99"/>
          </Node>
        </Node>
        <Node pos="r" depth="1" NCoef="0" IVar="3" Cut="5.4476886718750000e+04" cType="1" res="1.8436904251575470e-01" rms="2.6027080416679382e-01" purity="8.4753924608230591e-01" nType="0">
          <Node pos="l" depth="2" NCoef="0" IVar="2" Cut="2.6958943750000000e+05" cType="1" res="1.3630393147468567e-01" rms="3.6494296789169312e-01" purity="6.5535521507263184e-01" nType="0">
            <Node pos="l" depth="3" NCoef="0" IVar="-1" Cut="0.0000000000000000e+00" cType="1" res="-1.9972959125880152e-04" rms="3.5420691967010498e-01" purity="2.7954852581024170e-01" nType="-99"/>
            <Node pos="r" depth="3" NCoef="0" IVar="-1" Cut="0.0000000000000000e+00" cType="1" res="1.6185292042791843e-03" rms="3.5911196470260620e-01" purity="7.4354118108749390e-01" nType="-99"/>
          </Node>
          <Node pos="r" depth="2" NCoef="0" IVar="0" Cut="1.1428571939468384e+00" cType="1" res="2.1725697815418243e-01" rms="1.4247934520244598e-01" purity="9.7903865575790405e-01" nType="0">
            <Node pos="l" depth="3" NCoef="0" IVar="-1" Cut="0.0000000000000000e+00" cType="1" res="2.1845612209290266e-03" rms="1.3801585137844086e-01" purity="9.8046529293060303e-01" nType="-99"/>
            <Node pos="r" depth="3" NCoef="0" IVar="-1" Cut="0.0000000000000000e+00" cType="1" res="2.2881382610648870e-03" rms="1.4892971515655518e-01" purity="9.7680878639221191e-01" nType="-99"/>
          </Node>
        </Node>
      </Node>
    </BinaryTree>
    <BinaryTree type="DecisionTree" boostWeight="1.0000000000000000e+00" itree="264">
      <Node pos="s" depth="0" NCoef="0" IVar="3" Cut="4.4610949218750000e+04" cType="1" res="8.9422263205051422e-02" rms="2.7821001410484314e-01" purity="5.0067365169525146e-01" nType="0">
        <Node pos="l" depth="1" NCoef="0" IVar="4" Cut="3.5851993750000000e+05" cType="1" res="2.1597275510430336e-02" rms="2.7275788784027100e-01" purity="1.6886009275913239e-01" nType="0">
          <Node pos="l" depth="2" NCoef="0" IVar="1" Cut="1.0862093750000000e+05" cType="1" res="3.8489510188810527e-04" rms="2.3505277931690216e-01" purity="1.1506707966327667e-01" nType="0">
            <Node pos="l" depth="3" NCoef="0" IVar="-1" Cut="0.0000000000000000e+00" cType="1" res="-3.2516592182219028e-03" rms="2.0181825757026672e-01" purity="5.3802058100700378e-02" nType="-99"/>
            <Node pos="r" depth="3" NCoef="0" IVar="-1" Cut="0.0000000000000000e+00" cType="1" res="1.9147659186273813e-03" rms="3.9190530776977539e-01" purity="6.2989383935928345e-01" nType="-99"/>
          </Node>
          <Node pos="r" depth="2" NCoef="0" IVar="5" Cut="9.3553742187500000e+04" cType="1" res="1.1338114738464355e-01" rms="3.8324013352394104e-01" purity="4.0161710977554321e-01" nType="0">
            <Node pos="l" depth="3" NCoef="0" IVar="-1" Cut="0.0000000000000000e+00" cType="1" res="1.6262427670881152e-03" rms="3.5841560363769531e-01" purity="3.3001869916915894e-01" nType="-99"/>
            <Node pos="r" depth="3" NCoef="0" IVar="-1" Cut="0.0000000000000000e+00" cType="1" res="1.6863667406141758e-03" rms="4.1386467218399048e-01" purity="7.1144396066665649e-01" nType="-99"/>
          </Node>
        </Node>
        <Node pos="r" depth="1" NCoef="0" IVar="1" Cut="1.0073193750000000e+05" cType="1" res="1.6840049624443054e-01" rms="2.6325741410255432e-01" purity="8.8705110549926758e-01" nType="0">
          <Node pos="l" depth="2" NCoef="0" IVar="1" Cut="7.9686523437500000e+04" cType="1" res="1.1717965453863144e-01" rms="3.3550322055816650e-01" purity="7.9345124959945679e-01" nType="0">
            <Node pos="l" depth="3" NCoef="0" IVar="-1" Cut="0.0000000000000000e+00" cType="1" res="1.9728920888155699e-03" rms="2.8258222341537476e-01" purity="9.0472513437271118e-01" nType="-99"/>
            <Node pos="r" depth="3" NCoef="0" IVar="-1" Cut="0.0000000000000000e+00" cType="1" res="3.2432517036795616e-04" rms="3.9140501618385315e-01" purity="6.0672128200531006e-01" nType="-99"/>
          </Node>
          <Node pos="r" depth="2" NCoef="0" IVar="0" Cut="3.8095238804817200e-01" cType="1" res="2.1487173438072205e-01" rms="1.5974317491054535e-01" purity="9.7197175025939941e-01" nType="0">
            <Node pos="l" depth="3" NCoef="0" IVar="-1" Cut="0.0000000000000000e+00" cType="1" res="1.9581385422497988e-03" rms="1.4775739610195160e-01" purity="9.7582012414932251e-01" nType="-99"/>
            <Node pos="r" depth="3" NCoef="0" IVar="-1" Cut="0.0000000000000000e+00" cType="1" res="2.1898287814110518e-03" rms="1.6591949760913849e-01" purity="9.6967226266860962e-01" nType="-99"/>
          </Node>
        </Node>
      </Node>
    </BinaryTree>
    <BinaryTree type="DecisionTree" boostWeight="1.0000000000000000e+00" itree="265">
      <Node pos="s" depth="0" NCoef="0" IVar="3" Cut="6.8736484375000000e+04" cType="1" res="1.0137207061052322e-01" rms="2.8460901975631714e-01" purity="5.1754319667816162e-01" nType="0">
        <Node pos="l" depth="1" NCoef="0" IVar="3" Cut="2.6200072265625000e+04" cType="1" res="5.6329853832721710e-02" rms="3.1019768118858337e-01" purity="3.0524113774299622e-01" nType="0">
          <Node pos="l" depth="2" NCoef="0" IVar="5" Cut="8.9760109375000000e+04" cType="1" res="5.9383492916822433e-03" rms="2.3064275085926056e-01" purity="1.0453004390001297e-01" nType="0">
            <Node pos="l" depth="3" NCoef="0" IVar="-1" Cut="0.0000000000000000e+00" cType="1" res="2.4844962172210217e-03" rms="2.9865220189094543e-01" purity="1.9665613770484924e-01" nType="-99"/>
            <Node pos="r" depth="3" NCoef="0" IVar="-1" Cut="0.0000000000000000e+00" cType="1" res="-2.1246036048978567e-03" rms="1.9083739817142487e-01" purity="6.4772821962833405e-02" nType="-99"/>
          </Node>
          <Node pos="r" depth="2" NCoef="0" IVar="1" Cut="1.3174604687500000e+05" cType="1" res="1.1259903758764267e-01" rms="3.7184140086174011e-01" purity="5.2936321496963501e-01" nType="0">
            <Node pos="l" depth="3" NCoef="0" IVar="-1" Cut="0.0000000000000000e+00" cType="1" res="1.5549564268440008e-03" rms="3.9740249514579773e-01" purity="3.8857722282409668e-01" nType="-99"/>
            <Node pos="r" depth="3" NCoef="0" IVar="-1" Cut="0.0000000000000000e+00" cType="1" res="1.4440177474170923e-03" rms="2.5619170069694519e-01" purity="9.3084526062011719e-01" nType="-99"/>
          </Node>
        </Node>
        <Node pos="r" depth="1" NCoef="0" IVar="1" Cut="1.1128134375000000e+05" cType="1" res="1.9536918401718140e-01" rms="1.9018475711345673e-01" purity="9.6058952808380127e-01" nType="0">
          <Node pos="l" depth="2" NCoef="0" IVar="5" Cut="8.9798476562500000e+04" cType="1" res="1.7804755270481110e-01" rms="2.4088884890079498e-01" purity="9.3526184558868408e-01" nType="0">
            <Node pos="l" depth="3" NCoef="0" IVar="-1" Cut="0.0000000000000000e+00" cType="1" res="1.3345496263355017e-03" rms="1.9778288900852203e-01" purity="9.6064299345016479e-01" nType="-99"/>
            <Node pos="r" depth="3" NCoef="0" IVar="-1" Cut="0.0000000000000000e+00" cType="1" res="1.9301325082778931e-03" rms="2.6407980918884277e-01" purity="9.1718626022338867e-01" nType="-99"/>
          </Node>
          <Node pos="r" depth="2" NCoef="0" IVar="-1" Cut="0.0000000000000000e+00" cType="1" res="1.6725775785744190e-03" rms="1.1755448579788208e-01" purity="9.8579907417297363e-01" nType="-99"/>
        </Node>
      </Node>
    </BinaryTree>
    <BinaryTree type="DecisionTree" boostWeight="1.0000000000000000e+00" itree="266">
      <Node pos="s" depth="0" NCoef="0" IVar="3" Cut="6.8798242187500000e+04" cType="1" res="9.4901569187641144e-02" rms="2.8049468994140625e-01" purity="5.1126492023468018e-01" nType="0">
        <Node pos="l" depth="1" NCoef="0" IVar="3" Cut="2.9552294921875000e+04" cType="1" res="4.3740648776292801e-02" rms="3.0557933449745178e-01" purity="2.8697437047958374e-01" nType="0">
          <Node pos="l" depth="2" NCoef="0" IVar="3" Cut="1.4134769531250000e+04" cType="1" res="2.5275989901274443e-03" rms="2.3921450972557068e-01" purity="1.0151104629039764e-01" nType="0">
            <Node pos="l" depth="3" NCoef="0" IVar="-1" Cut="0.0000000000000000e+00" cType="1" res="-8.9903781190514565e-03" rms="1.4352974295616150e-01" purity="2.8601219877600670e-02" nType="-99"/>
            <Node pos="r" depth="3" NCoef="0" IVar="-1" Cut="0.0000000000000000e+00" cType="1" res="1.7034879419952631e-03" rms="2.9290249943733215e-01" purity="1.6099730134010315e-01" nType="-99"/>
          </Node>
          <Node pos="r" depth="2" NCoef="0" IVar="2" Cut="2.8022634375000000e+05" cType="1" res="1.0474150627851486e-01" rms="3.7504407763481140e-01" purity="5.6148511171340942e-01" nType="0">
            <Node pos="l" depth="3" NCoef="0" IVar="-1" Cut="0.0000000000000000e+00" cType="1" res="5.2817695541307330e-04" rms="3.9744803309440613e-01" purity="3.5456863045692444e-01" nType="-99"/>
            <Node pos="r" depth="3" NCoef="0" IVar="-1" Cut="0.0000000000000000e+00" cType="1" res="1.2888227356597781e-03" rms="3.4391546249389648e-01" purity="7.2101777791976929e-01" nType="-99"/>
          </Node>
        </Node>
        <Node pos="r" depth="1" NCoef="0" IVar="1" Cut="1.0059082812500000e+05" cType="1" res="1.9809898734092712e-01" rms="1.8191586434841156e-01" purity="9.6368455886840820e-01" nType="0">
          <Node pos="l" depth="2" NCoef="0" IVar="1" Cut="8.7960992187500000e+04" cType="1" res="1.7520514130592346e-01" rms="2.4709071218967438e-01" purity="9.3096262216567993e-01" nType="0">
            <Node pos="l" depth="3" NCoef="0" IVar="-1" Cut="0.0000000000000000e+00" cType="1" res="1.7600976862013340e-03" rms="2.1591746807098389e-01" purity="9.4963741302490234e-01" nType="-99"/>
            <Node pos="r" depth="3" NCoef="0" IVar="-1" Cut="0.0000000000000000e+00" cType="1" res="1.0909526608884335e-03" rms="3.6633890867233276e-01" purity="8.3280736207962036e-01" nType="-99"/>
          </Node>
          <Node pos="r" depth="2" NCoef="0" IVar="-1" Cut="0.0000000000000000e+00" cType="1" res="1.3394345296546817e-03" rms="1.0011143237352371e-01" purity="9.8980408906936646e-01" nType="-99"/>
        </Node>
      </Node>
    </BinaryTree>
    <BinaryTree type="DecisionTree" boostWeight="1.0000000000000000e+00" itree="267">
      <Node pos="s" depth="0" NCoef="0" IVar="1" Cut="1.0034389062500000e+05" cType="1" res="8.9252620935440063e-02" rms="2.8226768970489502e-01" purity="4.9967634677886963e-01" nType="0">
        <Node pos="l" depth="1" NCoef="0" IVar="3" Cut="7.5616148437500000e+04" cType="1" res="3.5487063229084015e-02" rms="2.7250480651855469e-01" purity="3.1482121348381042e-01" nType="0">
          <Node pos="l" depth="2" NCoef="0" IVar="1" Cut="6.6686914062500000e+04" cType="1" res="-6.8135303445160389e-04" rms="2.7254134416580200e-01" purity="1.5090839564800262e-01" nType="0">
            <Node pos="l" depth="3" NCoef="0" IVar="-1" Cut="0.0000000000000000e+00" cType="1" res="1.9362587481737137e-03" rms="4.0658554434776306e-01" purity="4.3414726853370667e-01" nType="-99"/>
            <Node pos="r" depth="3" NCoef="0" IVar="-1" Cut="0.0000000000000000e+00" cType="1" res="-2.7479541022330523e-03" rms="2.1924439072608948e-01" purity="8.0798916518688202e-02" nType="-99"/>
          </Node>
          <Node pos="r" depth="2" NCoef="0" IVar="1" Cut="8.7827179687500000e+04" cType="1" res="1.7461873590946198e-01" rms="2.2314228117465973e-01" purity="9.4535654783248901e-01" nType="0">
            <Node pos="l" depth="3" NCoef="0" IVar="-1" Cut="0.0000000000000000e+00" cType="1" res="1.8102168105542660e-03" rms="1.9688041508197784e-01" purity="9.5936262607574463e-01" nType="-99"/>
            <Node pos="r" depth="3" NCoef="0" IVar="-1" Cut="0.0000000000000000e+00" cType="1" res="8.8321545626968145e-04" rms="3.6746540665626526e-01" purity="8.2715123891830444e-01" nType="-99"/>
          </Node>
        </Node>
        <Node pos="r" depth="1" NCoef="0" IVar="3" Cut="3.7230593750000000e+04" cType="1" res="1.9046914577484131e-01" rms="2.7236843109130859e-01" purity="8.4767603874206543e-01" nType="0">
          <Node pos="l" depth="2" NCoef="0" IVar="5" Cut="9.0519492187500000e+04" cType="1" res="1.4847719669342041e-01" rms="4.0941035747528076e-01" purity="5.7339268922805786e-01" nType="0">
            <Node pos="l" depth="3" NCoef="0" IVar="-1" Cut="0.0000000000000000e+00" cType="1" res="2.3108744062483311e-03" rms="3.8934102654457092e-01" purity="6.5623402595520020e-01" nType="-99"/>
            <Node pos="r" depth="3" NCoef="0" IVar="-1" Cut="0.0000000000000000e+00" cType="1" res="1.4444342814385891e-03" rms="4.2452928423881531e-01" purity="4.3868196010589600e-01" nType="-99"/>
          </Node>
          <Node pos="r" depth="2" NCoef="0" IVar="3" Cut="7.2611460937500000e+04" cType="1" res="2.0695212483406067e-01" rms="1.9117011129856110e-01" purity="9.5533967018127441e-01" nType="0">
            <Node pos="l" depth="3" NCoef="0" IVar="-1" Cut="0.0000000000000000e+00" cType="1" res="1.6755870310589671e-03" rms="2.7357855439186096e-01" purity="9.0419942140579224e-01" nType="-99"/>
            <Node pos="r" depth="3" NCoef="0" IVar="-1" Cut="0.0000000000000000e+00" cType="1" res="2.2421919275075197e-03" rms="1.1242591589689255e-01" purity="9.8717051744461060e-01" nType="-99"/>
          </Node>
        </Node>
      </Node>
    </BinaryTree>
    <BinaryTree type="DecisionTree" boostWeight="1.0000000000000000e+00" itree="268">
      <Node pos="s" depth="0" NCoef="0" IVar="1" Cut="1.0034389062500000e+05" cType="1" res="1.0006945580244064e-01" rms="2.8700911998748779e-01" purity="5.1303559541702271e-01" nType="0">
        <Node pos="l" depth="1" NCoef="0" IVar="1" Cut="7.9302054687500000e+04" cType="1" res="4.8152677714824677e-02" rms="2.9019981622695923e-01" purity="3.1717675924301147e-01" nType="0">
          <Node pos="l" depth="2" NCoef="0" IVar="1" Cut="3.7636859375000000e+04" cType="1" res="1.5868023037910461e-01" rms="3.5330876708030701e-01" purity="6.3992518186569214e-01" nType="0">
            <Node pos="l" depth="3" NCoef="0" IVar="-1" Cut="0.0000000000000000e+00" cType="1" res="1.7819501226767898e-04" rms="3.2573065161705017e-01" purity="4.1475129127502441e-01" nType="-99"/>
            <Node pos="r" depth="3" NCoef="0" IVar="-1" Cut="0.0000000000000000e+00" cType="1" res="2.6488590519875288e-03" rms="3.4812164306640625e-01" purity="7.0967763662338257e-01" nType="-99"/>
          </Node>
          <Node pos="r" depth="2" NCoef="0" IVar="3" Cut="7.5616148437500000e+04" cType="1" res="-1.7186563462018967e-02" rms="2.2071999311447144e-01" purity="1.2638147175312042e-01" nType="0">
            <Node pos="l" depth="3" NCoef="0" IVar="-1" Cut="0.0000000000000000e+00" cType="1" res="-4.5145140029489994e-03" rms="2.0400781929492950e-01" purity="5.6047294288873672e-02" nType="-99"/>
            <Node pos="r" depth="3" NCoef="0" IVar="-1" Cut="0.0000000000000000e+00" cType="1" res="1.3836248544976115e-03" rms="3.1123664975166321e-01" purity="8.8671225309371948e-01" nType="-99"/>
          </Node>
        </Node>
        <Node pos="r" depth="1" NCoef="0" IVar="3" Cut="3.7230593750000000e+04" cType="1" res="1.9068342447280884e-01" rms="2.5738006830215454e-01" purity="8.5488164424896240e-01" nType="0">
          <Node pos="l" depth="2" NCoef="0" IVar="3" Cut="8.9850615234375000e+03" cType="1" res="1.2274000793695450e-01" rms="4.1331160068511963e-01" purity="5.3019559383392334e-01" nType="0">
            <Node pos="l" depth="3" NCoef="0" IVar="-1" Cut="0.0000000000000000e+00" cType="1" res="-6.2435813248157501e-02" rms="1.2982074916362762e-01" purity="0.0000000000000000e+00" nType="-99"/>
            <Node pos="r" depth="3" NCoef="0" IVar="-1" Cut="0.0000000000000000e+00" cType="1" res="2.6250197552144527e-03" rms="4.2457932233810425e-01" purity="5.9350281953811646e-01" nType="-99"/>
          </Node>
          <Node pos="r" depth="2" NCoef="0" IVar="0" Cut="3.8095238804817200e-01" cType="1" res="2.1361231803894043e-01" rms="1.6990460455417633e-01" purity="9.6445357799530029e-01" nType="0">
            <Node pos="l" depth="3" NCoef="0" IVar="-1" Cut="0.0000000000000000e+00" cType="1" res="1.4176785480231047e-03" rms="1.7225636541843414e-01" purity="9.6203881502151489e-01" nType="-99"/>
            <Node pos="r" depth="3" NCoef="0" IVar="-1" Cut="0.0000000000000000e+00" cType="1" res="1.6972386511042714e-03" rms="1.6801331937313080e-01" purity="9.6610140800476074e-01" nType="-99"/>
          </Node>
        </Node>
      </Node>
    </BinaryTree>
    <BinaryTree type="DecisionTree" boostWeight="1.0000000000000000e+00" itree="269">
      <Node pos="s" depth="0" NCoef="0" IVar="3" Cut="6.8798242187500000e+04" cType="1" res="8.0847464501857758e-02" rms="2.8792163729667664e-01" purity="4.6682515740394592e-01" nType="0">
        <Node pos="l" depth="1" NCoef="0" IVar="2" Cut="1.9476318750000000e+05" cType="1" res="3.6539420485496521e-02" rms="3.0913662910461426e-01" purity="2.6117277145385742e-01" nType="0">
          <Node pos="l" depth="2" NCoef="0" IVar="1" Cut="4.3316382812500000e+04" cType="1" res="-5.9035982936620712e-02" rms="2.3649157583713531e-01" purity="7.6804779469966888e-02" nType="0">
            <Node pos="l" depth="3" NCoef="0" IVar="-1" Cut="0.0000000000000000e+00" cType="1" res="-2.9388029128313065e-02" rms="1.8815998733043671e-01" purity="2.9217971488833427e-02" nType="-99"/>
            <Node pos="r" depth="3" NCoef="0" IVar="-1" Cut="0.0000000000000000e+00" cType="1" res="-2.4429406039416790e-03" rms="2.4239026010036469e-01" purity="9.4609975814819336e-02" nType="-99"/>
          </Node>
          <Node pos="r" depth="2" NCoef="0" IVar="3" Cut="2.6275273437500000e+04" cType="1" res="5.3044293075799942e-02" rms="3.1711280345916748e-01" purity="2.9301118850708008e-01" nType="0">
            <Node pos="l" depth="3" NCoef="0" IVar="-1" Cut="0.0000000000000000e+00" cType="1" res="1.2252065353095531e-03" rms="2.4799263477325439e-01" purity="1.1132904142141342e-01" nType="-99"/>
            <Node pos="r" depth="3" NCoef="0" IVar="-1" Cut="0.0000000000000000e+00" cType="1" res="1.5340970130637288e-03" rms="3.7628129124641418e-01" purity="5.0254851579666138e-01" nType="-99"/>
          </Node>
        </Node>
        <Node pos="r" depth="1" NCoef="0" IVar="1" Cut="1.0342598437500000e+05" cType="1" res="1.8678751587867737e-01" rms="1.9156163930892944e-01" purity="9.5853787660598755e-01" nType="0">
          <Node pos="l" depth="2" NCoef="0" IVar="1" Cut="8.6026359375000000e+04" cType="1" res="1.6329711675643921e-01" rms="2.4173717200756073e-01" purity="9.3114674091339111e-01" nType="0">
            <Node pos="l" depth="3" NCoef="0" IVar="-1" Cut="0.0000000000000000e+00" cType="1" res="2.1401199046522379e-03" rms="1.8439431488513947e-01" purity="9.6331006288528442e-01" nType="-99"/>
            <Node pos="r" depth="3" NCoef="0" IVar="-1" Cut="0.0000000000000000e+00" cType="1" res="1.1727317469194531e-03" rms="3.7229788303375244e-01" purity="8.1591767072677612e-01" nType="-99"/>
          </Node>
          <Node pos="r" depth="2" NCoef="0" IVar="-1" Cut="0.0000000000000000e+00" cType="1" res="2.0861171651631594e-03" rms="1.2272369861602783e-01" purity="9.8451077938079834e-01" nType="-99"/>
        </Node>
      </Node>
    </BinaryTree>
    <BinaryTree type="DecisionTree" boostWeight="1.0000000000000000e+00" itree="270">
      <Node pos="s" depth="0" NCoef="0" IVar="3" Cut="5.4198226562500000e+04" cType="1" res="8.1514984369277954e-02" rms="2.7701002359390259e-01" purity="4.8960536718368530e-01" nType="0">
        <Node pos="l" depth="1" NCoef="0" IVar="4" Cut="4.7493018750000000e+05" cType="1" res="2.3670388385653496e-02" rms="2.8570196032524109e-01" purity="2.1617127954959869e-01" nType="0">
          <Node pos="l" depth="2" NCoef="0" IVar="3" Cut="2.8408800781250000e+04" cType="1" res="5.9543256647884846e-03" rms="2.7350553870201111e-01" purity="1.5826417505741119e-01" nType="0">
            <Node pos="l" depth="3" NCoef="0" IVar="-1" Cut="0.0000000000000000e+00" cType="1" res="-2.1636055316776037e-03" rms="2.0350664854049683e-01" purity="6.3714586198329926e-02" nType="-99"/>
            <Node pos="r" depth="3" NCoef="0" IVar="-1" Cut="0.0000000000000000e+00" cType="1" res="1.3727458426728845e-03" rms="3.7814661860466003e-01" purity="3.5985058546066284e-01" nType="-99"/>
          </Node>
          <Node pos="r" depth="2" NCoef="0" IVar="5" Cut="8.9950781250000000e+04" cType="1" res="1.3938121497631073e-01" rms="3.3276569843292236e-01" purity="5.9438633918762207e-01" nType="0">
            <Node pos="l" depth="3" NCoef="0" IVar="-1" Cut="0.0000000000000000e+00" cType="1" res="-1.0702463332563639e-03" rms="3.0867692828178406e-01" purity="3.7149557471275330e-01" nType="-99"/>
            <Node pos="r" depth="3" NCoef="0" IVar="-1" Cut="0.0000000000000000e+00" cType="1" res="1.1054649949073792e-03" rms="3.2267636060714722e-01" purity="6.5564274787902832e-01" nType="-99"/>
          </Node>
        </Node>
        <Node pos="r" depth="1" NCoef="0" IVar="1" Cut="1.2527707812500000e+05" cType="1" res="1.7379653453826904e-01" rms="2.3468659818172455e-01" purity="9.2582458257675171e-01" nType="0">
          <Node pos="l" depth="2" NCoef="0" IVar="3" Cut="8.4597054687500000e+04" cType="1" res="1.4631339907646179e-01" rms="2.8334853053092957e-01" purity="8.8634788990020752e-01" nType="0">
            <Node pos="l" depth="3" NCoef="0" IVar="-1" Cut="0.0000000000000000e+00" cType="1" res="7.4610544834285975e-04" rms="4.0915349125862122e-01" purity="7.3119759559631348e-01" nType="-99"/>
            <Node pos="r" depth="3" NCoef="0" IVar="-1" Cut="0.0000000000000000e+00" cType="1" res="1.9343334715813398e-03" rms="1.6964174807071686e-01" purity="9.6924042701721191e-01" nType="-99"/>
          </Node>
          <Node pos="r" depth="2" NCoef="0" IVar="-1" Cut="0.0000000000000000e+00" cType="1" res="1.7625180771574378e-03" rms="1.1474804580211639e-01" purity="9.8680704832077026e-01" nType="-99"/>
        </Node>
      </Node>
    </BinaryTree>
    <BinaryTree type="DecisionTree" boostWeight="1.0000000000000000e+00" itree="271">
      <Node pos="s" depth="0" NCoef="0" IVar="3" Cut="6.8798242187500000e+04" cType="1" res="9.2695437371730804e-02" rms="2.7617868781089783e-01" purity="5.0589877367019653e-01" nType="0">
        <Node pos="l" depth="1" NCoef="0" IVar="1" Cut="1.4545873437500000e+05" cType="1" res="4.0027577430009842e-02" rms="3.0455252528190613e-01" purity="2.7216565608978271e-01" nType="0">
          <Node pos="l" depth="2" NCoef="0" IVar="1" Cut="7.5525039062500000e+04" cType="1" res="2.3600049316883087e-02" rms="2.9687383770942688e-01" purity="1.9484563171863556e-01" nType="0">
            <Node pos="l" depth="3" NCoef="0" IVar="-1" Cut="0.0000000000000000e+00" cType="1" res="2.1489995997399092e-03" rms="4.1185992956161499e-01" purity="4.3407198786735535e-01" nType="-99"/>
            <Node pos="r" depth="3" NCoef="0" IVar="-1" Cut="0.0000000000000000e+00" cType="1" res="-1.6009087266866118e-04" rms="2.5160554051399231e-01" purity="1.3143825531005859e-01" nType="-99"/>
          </Node>
          <Node pos="r" depth="2" NCoef="0" IVar="3" Cut="2.3635396484375000e+04" cType="1" res="1.6281400620937347e-01" rms="3.3192875981330872e-01" purity="8.5008877515792847e-01" nType="0">
            <Node pos="l" depth="3" NCoef="0" IVar="-1" Cut="0.0000000000000000e+00" cType="1" res="1.0110656730830669e-03" rms="4.9445006251335144e-01" purity="5.8789366483688354e-01" nType="-99"/>
            <Node pos="r" depth="3" NCoef="0" IVar="-1" Cut="0.0000000000000000e+00" cType="1" res="2.0305663347244263e-03" rms="2.6328545808792114e-01" purity="9.2323088645935059e-01" nType="-99"/>
          </Node>
        </Node>
        <Node pos="r" depth="1" NCoef="0" IVar="1" Cut="1.0076934375000000e+05" cType="1" res="1.9732870161533356e-01" rms="1.6456118226051331e-01" purity="9.7024756669998169e-01" nType="0">
          <Node pos="l" depth="2" NCoef="0" IVar="1" Cut="8.8132234375000000e+04" cType="1" res="1.7874357104301453e-01" rms="2.1918709576129913e-01" purity="9.4551628828048706e-01" nType="0">
            <Node pos="l" depth="3" NCoef="0" IVar="-1" Cut="0.0000000000000000e+00" cType="1" res="1.8178888130933046e-03" rms="1.7916868627071381e-01" purity="9.6527236700057983e-01" nType="-99"/>
            <Node pos="r" depth="3" NCoef="0" IVar="-1" Cut="0.0000000000000000e+00" cType="1" res="9.4297440955415368e-04" rms="4.0007588267326355e-01" purity="7.9706746339797974e-01" nType="-99"/>
          </Node>
          <Node pos="r" depth="2" NCoef="0" IVar="5" Cut="9.0636437500000000e+04" cType="1" res="2.1165913343429565e-01" rms="1.0220099985599518e-01" purity="9.8931705951690674e-01" nType="0">
            <Node pos="l" depth="3" NCoef="0" IVar="-1" Cut="0.0000000000000000e+00" cType="1" res="2.1636069286614656e-03" rms="1.0173446685075760e-01" purity="9.8942250013351440e-01" nType="-99"/>
            <Node pos="r" depth="3" NCoef="0" IVar="-1" Cut="0.0000000000000000e+00" cType="1" res="1.5563846100121737e-03" rms="1.0264544934034348e-01" purity="9.8921513557434082e-01" nType="-99"/>
          </Node>
        </Node>
      </Node>
    </BinaryTree>
    <BinaryTree type="DecisionTree" boostWeight="1.0000000000000000e+00" itree="272">
      <Node pos="s" depth="0" NCoef="0" IVar="3" Cut="3.3024675781250000e+04" cType="1" res="8.6291313171386719e-02" rms="2.8496327996253967e-01" purity="4.8806440830230713e-01" nType="0">
        <Node pos="l" depth="1" NCoef="0" IVar="5" Cut="9.2565687500000000e+04" cType="1" res="1.3344196602702141e-02" rms="2.4920921027660370e-01" purity="1.2272211164236069e-01" nType="0">
          <Node pos="l" depth="2" NCoef="0" IVar="1" Cut="1.3642714062500000e+05" cType="1" res="-8.0906171351671219e-03" rms="2.1011620759963989e-01" purity="9.7258321940898895e-02" nType="0">
            <Node pos="l" depth="3" NCoef="0" IVar="-1" Cut="0.0000000000000000e+00" cType="1" res="-9.1321105137467384e-03" rms="1.6629678010940552e-01" purity="3.1948905438184738e-02" nType="-99"/>
            <Node pos="r" depth="3" NCoef="0" IVar="-1" Cut="0.0000000000000000e+00" cType="1" res="1.5639101620763540e-03" rms="4.2316481471061707e-01" purity="7.2988390922546387e-01" nType="-99"/>
          </Node>
          <Node pos="r" depth="2" NCoef="0" IVar="3" Cut="2.8324195312500000e+04" cType="1" res="8.9499823749065399e-02" rms="3.4419527649879456e-01" purity="2.1319225430488586e-01" nType="0">
            <Node pos="l" depth="3" NCoef="0" IVar="-1" Cut="0.0000000000000000e+00" cType="1" res="3.4508486278355122e-03" rms="2.9126715660095215e-01" purity="1.5713156759738922e-01" nType="-99"/>
            <Node pos="r" depth="3" NCoef="0" IVar="-1" Cut="0.0000000000000000e+00" cType="1" res="4.1749547235667706e-03" rms="4.6703785657882690e-01" purity="5.1313638687133789e-01" nType="-99"/>
          </Node>
        </Node>
        <Node pos="r" depth="1" NCoef="0" IVar="2" Cut="3.1607396875000000e+05" cType="1" res="1.4754898846149445e-01" rms="2.9836446046829224e-01" purity="7.9486221075057983e-01" nType="0">
          <Node pos="l" depth="2" NCoef="0" IVar="2" Cut="1.5191964062500000e+05" cType="1" res="1.0734366625547409e-01" rms="3.4172928333282471e-01" purity="7.0400637388229370e-01" nType="0">
            <Node pos="l" depth="3" NCoef="0" IVar="-1" Cut="0.0000000000000000e+00" cType="1" res="-5.3086751140654087e-03" rms="4.3289625644683838e-01" purity="4.4489547610282898e-01" nType="-99"/>
            <Node pos="r" depth="3" NCoef="0" IVar="-1" Cut="0.0000000000000000e+00" cType="1" res="1.6017969464883208e-03" rms="3.2959455251693726e-01" purity="7.1532338857650757e-01" nType="-99"/>
          </Node>
          <Node pos="r" depth="2" NCoef="0" IVar="5" Cut="8.9837468750000000e+04" cType="1" res="1.8777446448802948e-01" rms="2.4086201190948486e-01" purity="8.8576376438140869e-01" nType="0">
            <Node pos="l" depth="3" NCoef="0" IVar="-1" Cut="0.0000000000000000e+00" cType="1" res="1.5996814472600818e-03" rms="2.3308373987674713e-01" purity="9.2391687631607056e-01" nType="-99"/>
            <Node pos="r" depth="3" NCoef="0" IVar="-1" Cut="0.0000000000000000e+00" cType="1" res="1.3629053719341755e-03" rms="2.4230219423770905e-01" purity="8.6408352851867676e-01" nType="-99"/>
          </Node>
        </Node>
      </Node>
    </BinaryTree>
    <BinaryTree type="DecisionTree" boostWeight="1.0000000000000000e+00" itree="273">
      <Node pos="s" depth="0" NCoef="0" IVar="1" Cut="1.0034389062500000e+05" cType="1" res="8.3199203014373779e-02" rms="2.8907895088195801e-01" purity="4.7959122061729431e-01" nType="0">
        <Node pos="l" depth="1" NCoef="0" IVar="3" Cut="8.4096953125000000e+04" cType="1" res="3.3161845058202744e-02" rms="2.8528881072998047e-01" purity="2.8591722249984741e-01" nType="0">
          <Node pos="l" depth="2" NCoef="0" IVar="1" Cut="8.3508281250000000e+04" cType="1" res="1.0118910111486912e-02" rms="2.9102060198783875e-01" purity="1.7553088068962097e-01" nType="0">
            <Node pos="l" depth="3" NCoef="0" IVar="-1" Cut="0.0000000000000000e+00" cType="1" res="1.7457165522500873e-03" rms="3.9118579030036926e-01" purity="3.6532306671142578e-01" nType="-99"/>
            <Node pos="r" depth="3" NCoef="0" IVar="-1" Cut="0.0000000000000000e+00" cType="1" res="-2.5508850812911987e-03" rms="2.1483251452445984e-01" purity="7.6417870819568634e-02" nType="-99"/>
          </Node>
          <Node pos="r" depth="2" NCoef="0" IVar="3" Cut="1.3205557812500000e+05" cType="1" res="1.7360921204090118e-01" rms="1.9568946957588196e-01" purity="9.5872509479522705e-01" nType="0">
            <Node pos="l" depth="3" NCoef="0" IVar="-1" Cut="0.0000000000000000e+00" cType="1" res="2.0730267278850079e-03" rms="2.5262084603309631e-01" purity="9.2897409200668335e-01" nType="-99"/>
            <Node pos="r" depth="3" NCoef="0" IVar="-1" Cut="0.0000000000000000e+00" cType="1" res="2.3798008915036917e-03" rms="1.3424783945083618e-01" purity="9.8153990507125854e-01" nType="-99"/>
          </Node>
        </Node>
        <Node pos="r" depth="1" NCoef="0" IVar="3" Cut="6.8843453125000000e+04" cType="1" res="1.7617930471897125e-01" rms="2.7260601520538330e-01" purity="8.3947896957397461e-01" nType="0">
          <Node pos="l" depth="2" NCoef="0" IVar="3" Cut="3.6114468750000000e+04" cType="1" res="1.4582723379135132e-01" rms="3.6307907104492188e-01" purity="6.9524860382080078e-01" nType="0">
            <Node pos="l" depth="3" NCoef="0" IVar="-1" Cut="0.0000000000000000e+00" cType="1" res="1.4270364772528410e-03" rms="4.2849975824356079e-01" purity="4.5568597316741943e-01" nType="-99"/>
            <Node pos="r" depth="3" NCoef="0" IVar="-1" Cut="0.0000000000000000e+00" cType="1" res="1.7256435239687562e-03" rms="2.7850574254989624e-01" purity="9.0251237154006958e-01" nType="-99"/>
          </Node>
          <Node pos="r" depth="2" NCoef="0" IVar="-1" Cut="0.0000000000000000e+00" cType="1" res="2.0269460510462523e-03" rms="1.1928714811801910e-01" purity="9.8545509576797485e-01" nType="-99"/>
        </Node>
      </Node>
    </BinaryTree>
    <BinaryTree type="DecisionTree" boostWeight="1.0000000000000000e+00" itree="274">
      <Node pos="s" depth="0" NCoef="0" IVar="3" Cut="6.8736484375000000e+04" cType="1" res="7.8912019729614258e-02" rms="2.9303422570228577e-01" purity="4.6457895636558533e-01" nType="0">
        <Node pos="l" depth="1" NCoef="0" IVar="5" Cut="9.0657148437500000e+04" cType="1" res="4.5841827988624573e-02" rms="3.0823305249214172e-01" purity="2.8859382867813110e-01" nType="0">
          <Node pos="l" depth="2" NCoef="0" IVar="3" Cut="1.9679304687500000e+04" cType="1" res="9.0133771300315857e-02" rms="3.4440761804580688e-01" purity="3.5422009229660034e-01" nType="0">
            <Node pos="l" depth="3" NCoef="0" IVar="-1" Cut="0.0000000000000000e+00" cType="1" res="1.3641533441841602e-03" rms="2.4667268991470337e-01" purity="1.3113211095333099e-01" nType="-99"/>
            <Node pos="r" depth="3" NCoef="0" IVar="-1" Cut="0.0000000000000000e+00" cType="1" res="2.4719648063182831e-03" rms="3.9055559039115906e-01" purity="5.0488287210464478e-01" nType="-99"/>
          </Node>
          <Node pos="r" depth="2" NCoef="0" IVar="1" Cut="1.3177123437500000e+05" cType="1" res="3.7230800371617079e-03" rms="2.6252138614654541e-01" purity="2.2618755698204041e-01" nType="0">
            <Node pos="l" depth="3" NCoef="0" IVar="-1" Cut="0.0000000000000000e+00" cType="1" res="-1.0311922524124384e-03" rms="2.4048666656017303e-01" purity="1.3608799874782562e-01" nType="-99"/>
            <Node pos="r" depth="3" NCoef="0" IVar="-1" Cut="0.0000000000000000e+00" cType="1" res="1.1218750150874257e-03" rms="3.4595015645027161e-01" purity="8.1847447156906128e-01" nType="-99"/>
          </Node>
        </Node>
        <Node pos="r" depth="1" NCoef="0" IVar="2" Cut="2.1479896875000000e+05" cType="1" res="1.6903854906558990e-01" rms="2.2329437732696533e-01" purity="9.4419300556182861e-01" nType="0">
          <Node pos="l" depth="2" NCoef="0" IVar="-1" Cut="0.0000000000000000e+00" cType="1" res="1.0010986588895321e-03" rms="3.4601658582687378e-01" purity="8.5290187597274780e-01" nType="-99"/>
          <Node pos="r" depth="2" NCoef="0" IVar="1" Cut="1.1916937500000000e+05" cType="1" res="1.8722020089626312e-01" rms="1.8312643468379974e-01" purity="9.6299481391906738e-01" nType="0">
            <Node pos="l" depth="3" NCoef="0" IVar="-1" Cut="0.0000000000000000e+00" cType="1" res="1.9671709742397070e-03" rms="2.4285940825939178e-01" purity="9.3238133192062378e-01" nType="-99"/>
            <Node pos="r" depth="3" NCoef="0" IVar="-1" Cut="0.0000000000000000e+00" cType="1" res="2.1751243621110916e-03" rms="1.0468675941228867e-01" purity="9.8889344930648804e-01" nType="-99"/>
          </Node>
        </Node>
      </Node>
    </BinaryTree>
    <BinaryTree type="DecisionTree" boostWeight="1.0000000000000000e+00" itree="275">
      <Node pos="s" depth="0" NCoef="0" IVar="3" Cut="5.4259988281250000e+04" cType="1" res="9.8619863390922546e-02" rms="2.9292213916778564e-01" purity="5.0078165531158447e-01" nType="0">
        <Node pos="l" depth="1" NCoef="0" IVar="3" Cut="4.1362113281250000e+04" cType="1" res="5.0599806010723114e-02" rms="3.1609669327735901e-01" purity="2.4167178571224213e-01" nType="0">
          <Node pos="l" depth="2" NCoef="0" IVar="4" Cut="2.4820031250000000e+05" cType="1" res="3.3624123781919479e-02" rms="2.9765379428863525e-01" purity="1.6142643988132477e-01" nType="0">
            <Node pos="l" depth="3" NCoef="0" IVar="-1" Cut="0.0000000000000000e+00" cType="1" res="7.8914110781624913e-04" rms="2.4357742071151733e-01" purity="8.1912137567996979e-02" nType="-99"/>
            <Node pos="r" depth="3" NCoef="0" IVar="-1" Cut="0.0000000000000000e+00" cType="1" res="2.6119139511138201e-03" rms="3.6003422737121582e-01" purity="2.8023067116737366e-01" nType="-99"/>
          </Node>
          <Node pos="r" depth="2" NCoef="0" IVar="5" Cut="8.9527148437500000e+04" cType="1" res="1.3589036464691162e-01" rms="3.8479393720626831e-01" purity="6.4484679698944092e-01" nType="0">
            <Node pos="l" depth="3" NCoef="0" IVar="-1" Cut="0.0000000000000000e+00" cType="1" res="1.0074471356347203e-03" rms="3.4665048122406006e-01" purity="7.9458183050155640e-01" nType="-99"/>
            <Node pos="r" depth="3" NCoef="0" IVar="-1" Cut="0.0000000000000000e+00" cType="1" res="8.1739679444581270e-04" rms="3.9072099328041077e-01" purity="5.3931945562362671e-01" nType="-99"/>
          </Node>
        </Node>
        <Node pos="r" depth="1" NCoef="0" IVar="1" Cut="1.3203793750000000e+05" cType="1" res="1.7852924764156342e-01" rms="2.2824144363403320e-01" purity="9.3196219205856323e-01" nType="0">
          <Node pos="l" depth="2" NCoef="0" IVar="1" Cut="9.7576585937500000e+04" cType="1" res="1.5896154940128326e-01" rms="2.7448484301567078e-01" purity="8.9757126569747925e-01" nType="0">
            <Node pos="l" depth="3" NCoef="0" IVar="-1" Cut="0.0000000000000000e+00" cType="1" res="1.3440743787214160e-03" rms="3.0320483446121216e-01" purity="8.6717045307159424e-01" nType="-99"/>
            <Node pos="r" depth="3" NCoef="0" IVar="-1" Cut="0.0000000000000000e+00" cType="1" res="2.0744262728840113e-03" rms="1.9495704770088196e-01" purity="9.5923662185668945e-01" nType="-99"/>
          </Node>
          <Node pos="r" depth="2" NCoef="0" IVar="-1" Cut="0.0000000000000000e+00" cType="1" res="1.8401171546429396e-03" rms="1.2238501757383347e-01" purity="9.8467004299163818e-01" nType="-99"/>
        </Node>
      </Node>
    </BinaryTree>
    <BinaryTree type="DecisionTree" boostWeight="1.0000000000000000e+00" itree="276">
      <Node pos="s" depth="0" NCoef="0" IVar="3" Cut="4.4524941406250000e+04" cType="1" res="8.7105482816696167e-02" rms="2.8431892395019531e-01" purity="4.9840497970581055e-01" nType="0">
        <Node pos="l" depth="1" NCoef="0" IVar="4" Cut="5.7783568750000000e+05" cType="1" res="2.9792010784149170e-02" rms="2.8701922297477722e-01" purity="1.8707162141799927e-01" nType="0">
          <Node pos="l" depth="2" NCoef="0" IVar="1" Cut="1.0625435937500000e+05" cType="1" res="1.5568437986075878e-02" rms="2.7501484751701355e-01" purity="1.5145203471183777e-01" nType="0">
            <Node pos="l" depth="3" NCoef="0" IVar="-1" Cut="0.0000000000000000e+00" cType="1" res="2.6160787092521787e-04" rms="2.3642849922180176e-01" purity="7.9347796738147736e-02" nType="-99"/>
            <Node pos="r" depth="3" NCoef="0" IVar="-1" Cut="0.0000000000000000e+00" cType="1" res="1.4798501506447792e-03" rms="4.3296933174133301e-01" purity="5.8649730682373047e-01" nType="-99"/>
          </Node>
          <Node pos="r" depth="2" NCoef="0" IVar="2" Cut="4.7107250000000000e+05" cType="1" res="1.8982774019241333e-01" rms="3.6111530661582947e-01" purity="5.8784335851669312e-01" nType="0">
            <Node pos="l" depth="3" NCoef="0" IVar="-1" Cut="0.0000000000000000e+00" cType="1" res="1.2200240744277835e-03" rms="3.6272588372230530e-01" purity="6.6141146421432495e-01" nType="-99"/>
            <Node pos="r" depth="3" NCoef="0" IVar="-1" Cut="0.0000000000000000e+00" cType="1" res="6.4989842940121889e-04" rms="2.9243078827857971e-01" purity="4.7190183401107788e-01" nType="-99"/>
          </Node>
        </Node>
        <Node pos="r" depth="1" NCoef="0" IVar="1" Cut="1.0386901562500000e+05" cType="1" res="1.5795801579952240e-01" rms="2.6428988575935364e-01" purity="8.8328409194946289e-01" nType="0">
          <Node pos="l" depth="2" NCoef="0" IVar="1" Cut="8.6375328125000000e+04" cType="1" res="9.8364934325218201e-02" rms="3.3756041526794434e-01" purity="7.8275626897811890e-01" nType="0">
            <Node pos="l" depth="3" NCoef="0" IVar="-1" Cut="0.0000000000000000e+00" cType="1" res="1.5079852892085910e-03" rms="2.9076510667800903e-01" purity="8.7659960985183716e-01" nType="-99"/>
            <Node pos="r" depth="3" NCoef="0" IVar="-1" Cut="0.0000000000000000e+00" cType="1" res="-1.0259964037686586e-03" rms="4.1862207651138306e-01" purity="4.8406824469566345e-01" nType="-99"/>
          </Node>
          <Node pos="r" depth="2" NCoef="0" IVar="2" Cut="3.5095421875000000e+05" cType="1" res="2.1397621929645538e-01" rms="1.4805497229099274e-01" purity="9.7778147459030151e-01" nType="0">
            <Node pos="l" depth="3" NCoef="0" IVar="-1" Cut="0.0000000000000000e+00" cType="1" res="1.8102416070178151e-03" rms="1.6034841537475586e-01" purity="9.7089284658432007e-01" nType="-99"/>
            <Node pos="r" depth="3" NCoef="0" IVar="-1" Cut="0.0000000000000000e+00" cType="1" res="1.3699503615498543e-03" rms="1.3937236368656158e-01" purity="9.8204499483108521e-01" nType="-99"/>
          </Node>
        </Node>
      </Node>
    </BinaryTree>
    <BinaryTree type="DecisionTree" boostWeight="1.0000000000000000e+00" itree="277">
      <Node pos="s" depth="0" NCoef="0" IVar="3" Cut="5.4198226562500000e+04" cType="1" res="8.3515629172325134e-02" rms="2.8120943903923035e-01" purity="4.8695328831672668e-01" nType="0">
        <Node pos="l" depth="1" NCoef="0" IVar="3" Cut="2.3257068359375000e+04" cType="1" res="2.5045316666364670e-02" rms="2.9189404845237732e-01" purity="2.1152578294277191e-01" nType="0">
          <Node pos="l" depth="2" NCoef="0" IVar="5" Cut="9.2598906250000000e+04" cType="1" res="-2.4053035303950310e-02" rms="1.8959507346153259e-01" purity="4.9780488014221191e-02" nType="0">
            <Node pos="l" depth="3" NCoef="0" IVar="-1" Cut="0.0000000000000000e+00" cType="1" res="-8.0828890204429626e-03" rms="1.5651349723339081e-01" purity="3.9599820971488953e-02" nType="-99"/>
            <Node pos="r" depth="3" NCoef="0" IVar="-1" Cut="0.0000000000000000e+00" cType="1" res="3.5656124819070101e-03" rms="2.8805562853813171e-01" purity="9.3634009361267090e-02" nType="-99"/>
          </Node>
          <Node pos="r" depth="2" NCoef="0" IVar="5" Cut="8.8779281250000000e+04" cType="1" res="8.0670401453971863e-02" rms="3.6766886711120605e-01" purity="3.9477220177650452e-01" nType="0">
            <Node pos="l" depth="3" NCoef="0" IVar="-1" Cut="0.0000000000000000e+00" cType="1" res="3.1836733687669039e-03" rms="4.0436783432960510e-01" purity="5.8584809303283691e-01" nType="-99"/>
            <Node pos="r" depth="3" NCoef="0" IVar="-1" Cut="0.0000000000000000e+00" cType="1" res="1.2058183783665299e-03" rms="3.5252639651298523e-01" purity="3.4301143884658813e-01" nType="-99"/>
          </Node>
        </Node>
        <Node pos="r" depth="1" NCoef="0" IVar="1" Cut="1.0168853906250000e+05" cType="1" res="1.7758333683013916e-01" rms="2.3426158726215363e-01" purity="9.3006408214569092e-01" nType="0">
          <Node pos="l" depth="2" NCoef="0" IVar="1" Cut="8.4535320312500000e+04" cType="1" res="1.4191566407680511e-01" rms="3.0912721157073975e-01" purity="8.6937445402145386e-01" nType="0">
            <Node pos="l" depth="3" NCoef="0" IVar="-1" Cut="0.0000000000000000e+00" cType="1" res="2.1002735011279583e-03" rms="2.5228258967399597e-01" purity="9.2662286758422852e-01" nType="-99"/>
            <Node pos="r" depth="3" NCoef="0" IVar="-1" Cut="0.0000000000000000e+00" cType="1" res="8.8682834757491946e-04" rms="4.1571858525276184e-01" purity="7.2088074684143066e-01" nType="-99"/>
          </Node>
          <Node pos="r" depth="2" NCoef="0" IVar="5" Cut="9.0765750000000000e+04" cType="1" res="2.0634338259696960e-01" rms="1.4220747351646423e-01" purity="9.7900021076202393e-01" nType="0">
            <Node pos="l" depth="3" NCoef="0" IVar="-1" Cut="0.0000000000000000e+00" cType="1" res="1.9877590239048004e-03" rms="1.5650470554828644e-01" purity="9.7418087720870972e-01" nType="-99"/>
            <Node pos="r" depth="3" NCoef="0" IVar="-1" Cut="0.0000000000000000e+00" cType="1" res="2.0092956256121397e-03" rms="1.2864628434181213e-01" purity="9.8302984237670898e-01" nType="-99"/>
          </Node>
        </Node>
      </Node>
    </BinaryTree>
    <BinaryTree type="DecisionTree" boostWeight="1.0000000000000000e+00" itree="278">
      <Node pos="s" depth="0" NCoef="0" IVar="3" Cut="6.8936960937500000e+04" cType="1" res="9.5078065991401672e-02" rms="2.9279085993766785e-01" purity="4.9346581101417542e-01" nType="0">
        <Node pos="l" depth="1" NCoef="0" IVar="2" Cut="3.6344700000000000e+05" cType="1" res="6.3194498419761658e-02" rms="3.1528747081756592e-01" purity="3.1046649813652039e-01" nType="0">
          <Node pos="l" depth="2" NCoef="0" IVar="1" Cut="7.8594648437500000e+04" cType="1" res="3.8820460438728333e-02" rms="3.0452322959899902e-01" purity="2.2920778393745422e-01" nType="0">
            <Node pos="l" depth="3" NCoef="0" IVar="-1" Cut="0.0000000000000000e+00" cType="1" res="2.7446285821497440e-03" rms="4.0547117590904236e-01" purity="4.4700422883033752e-01" nType="-99"/>
            <Node pos="r" depth="3" NCoef="0" IVar="-1" Cut="0.0000000000000000e+00" cType="1" res="1.6164420230779797e-04" rms="2.5186985731124878e-01" purity="1.5593887865543365e-01" nType="-99"/>
          </Node>
          <Node pos="r" depth="2" NCoef="0" IVar="1" Cut="1.5605229687500000e+05" cType="1" res="1.4336793124675751e-01" rms="3.3610975742340088e-01" purity="5.7775056362152100e-01" nType="0">
            <Node pos="l" depth="3" NCoef="0" IVar="-1" Cut="0.0000000000000000e+00" cType="1" res="7.2737789014354348e-04" rms="3.6350965499877930e-01" purity="3.6104068160057068e-01" nType="-99"/>
            <Node pos="r" depth="3" NCoef="0" IVar="-1" Cut="0.0000000000000000e+00" cType="1" res="2.0201734732836485e-03" rms="2.7957531809806824e-01" purity="9.0569156408309937e-01" nType="-99"/>
          </Node>
        </Node>
        <Node pos="r" depth="1" NCoef="0" IVar="1" Cut="1.0182259375000000e+05" cType="1" res="1.7504407465457916e-01" rms="2.0608922839164734e-01" purity="9.5243954658508301e-01" nType="0">
          <Node pos="l" depth="2" NCoef="0" IVar="3" Cut="9.8308164062500000e+04" cType="1" res="1.2743744254112244e-01" rms="2.9202145338058472e-01" purity="8.9831972122192383e-01" nType="0">
            <Node pos="l" depth="3" NCoef="0" IVar="-1" Cut="0.0000000000000000e+00" cType="1" res="5.9248897014185786e-04" rms="3.9772158861160278e-01" purity="7.9214590787887573e-01" nType="-99"/>
            <Node pos="r" depth="3" NCoef="0" IVar="-1" Cut="0.0000000000000000e+00" cType="1" res="1.8692924641072750e-03" rms="2.1647991240024567e-01" purity="9.5012462139129639e-01" nType="-99"/>
          </Node>
          <Node pos="r" depth="2" NCoef="0" IVar="-1" Cut="0.0000000000000000e+00" cType="1" res="1.4059180393815041e-03" rms="1.1948680877685547e-01" purity="9.8529374599456787e-01" nType="-99"/>
        </Node>
      </Node>
    </BinaryTree>
    <BinaryTree type="DecisionTree" boostWeight="1.0000000000000000e+00" itree="279">
      <Node pos="s" depth="0" NCoef="0" IVar="3" Cut="6.8843453125000000e+04" cType="1" res="8.2355514168739319e-02" rms="2.9301729798316956e-01" purity="4.6821701526641846e-01" nType="0">
        <Node pos="l" depth="1" NCoef="0" IVar="5" Cut="9.6397984375000000e+04" cType="1" res="4.7551296651363373e-02" rms="3.0885753035545349e-01" purity="2.9003661870956421e-01" nType="0">
          <Node pos="l" depth="2" NCoef="0" IVar="3" Cut="1.3248232421875000e+04" cType="1" res="3.9604227989912033e-02" rms="3.0563184618949890e-01" purity="2.7319931983947754e-01" nType="0">
            <Node pos="l" depth="3" NCoef="0" IVar="-1" Cut="0.0000000000000000e+00" cType="1" res="-8.3584776148200035e-03" rms="1.2360077351331711e-01" purity="2.7158405631780624e-02" nType="-99"/>
            <Node pos="r" depth="3" NCoef="0" IVar="-1" Cut="0.0000000000000000e+00" cType="1" res="1.4545521698892117e-03" rms="3.4221372008323669e-01" purity="3.5374474525451660e-01" nType="-99"/>
          </Node>
          <Node pos="r" depth="2" NCoef="0" IVar="-1" Cut="0.0000000000000000e+00" cType="1" res="1.2420726707205176e-03" rms="3.1965458393096924e-01" purity="7.3284775018692017e-01" nType="-99"/>
        </Node>
        <Node pos="r" depth="1" NCoef="0" IVar="4" Cut="2.7549421875000000e+05" cType="1" res="1.7591264843940735e-01" rms="2.1959546208381653e-01" purity="9.4718343019485474e-01" nType="0">
          <Node pos="l" depth="2" NCoef="0" IVar="3" Cut="8.5467320312500000e+04" cType="1" res="1.3803002238273621e-01" rms="2.8590816259384155e-01" purity="9.0535068511962891e-01" nType="0">
            <Node pos="l" depth="3" NCoef="0" IVar="-1" Cut="0.0000000000000000e+00" cType="1" res="1.0412868577986956e-03" rms="3.5878321528434753e-01" purity="8.4086656570434570e-01" nType="-99"/>
            <Node pos="r" depth="3" NCoef="0" IVar="-1" Cut="0.0000000000000000e+00" cType="1" res="2.1529681980609894e-03" rms="2.1570968627929688e-01" purity="9.5063066482543945e-01" nType="-99"/>
          </Node>
          <Node pos="r" depth="2" NCoef="0" IVar="0" Cut="2.2857143878936768e+00" cType="1" res="1.8980672955513000e-01" rms="1.8763872981071472e-01" purity="9.6252626180648804e-01" nType="0">
            <Node pos="l" depth="3" NCoef="0" IVar="-1" Cut="0.0000000000000000e+00" cType="1" res="1.8174193101003766e-03" rms="1.6588474810123444e-01" purity="9.7141206264495850e-01" nType="-99"/>
            <Node pos="r" depth="3" NCoef="0" IVar="-1" Cut="0.0000000000000000e+00" cType="1" res="1.6802274622023106e-03" rms="2.5351509451866150e-01" purity="9.2725867033004761e-01" nType="-99"/>
          </Node>
        </Node>
      </Node>
    </BinaryTree>
    <BinaryTree type="DecisionTree" boostWeight="1.0000000000000000e+00" itree="280">
      <Node pos="s" depth="0" NCoef="0" IVar="1" Cut="1.0034835937500000e+05" cType="1" res="8.9260488748550415e-02" rms="2.7685838937759399e-01" purity="5.0561374425888062e-01" nType="0">
        <Node pos="l" depth="1" NCoef="0" IVar="3" Cut="8.5022765625000000e+04" cType="1" res="2.9707269743084908e-02" rms="2.7132195234298706e-01" purity="2.9373484849929810e-01" nType="0">
          <Node pos="l" depth="2" NCoef="0" IVar="1" Cut="7.5107734375000000e+04" cType="1" res="1.7836743500083685e-03" rms="2.7416783571243286e-01" purity="1.5985837578773499e-01" nType="0">
            <Node pos="l" depth="3" NCoef="0" IVar="-1" Cut="0.0000000000000000e+00" cType="1" res="1.6116938786581159e-03" rms="3.9846143126487732e-01" purity="4.0408617258071899e-01" nType="-99"/>
            <Node pos="r" depth="3" NCoef="0" IVar="-1" Cut="0.0000000000000000e+00" cType="1" res="-2.0793327130377293e-03" rms="2.1814043819904327e-01" purity="8.6702182888984680e-02" nType="-99"/>
          </Node>
          <Node pos="r" depth="2" NCoef="0" IVar="0" Cut="1.1428571939468384e+00" cType="1" res="1.6740351915359497e-01" rms="2.0773835480213165e-01" purity="9.5390385389328003e-01" nType="0">
            <Node pos="l" depth="3" NCoef="0" IVar="-1" Cut="0.0000000000000000e+00" cType="1" res="1.9141914090141654e-03" rms="1.5860633552074432e-01" purity="9.7387492656707764e-01" nType="-99"/>
            <Node pos="r" depth="3" NCoef="0" IVar="-1" Cut="0.0000000000000000e+00" cType="1" res="1.6394249396398664e-03" rms="2.8001239895820618e-01" purity="9.1140043735504150e-01" nType="-99"/>
          </Node>
        </Node>
        <Node pos="r" depth="1" NCoef="0" IVar="5" Cut="8.7821578125000000e+04" cType="1" res="1.8943193554878235e-01" rms="2.5642868876457214e-01" purity="8.6200463771820068e-01" nType="0">
          <Node pos="l" depth="2" NCoef="0" IVar="2" Cut="3.0795196875000000e+05" cType="1" res="2.3111163079738617e-01" rms="2.7168390154838562e-01" purity="8.7947392463684082e-01" nType="0">
            <Node pos="l" depth="3" NCoef="0" IVar="-1" Cut="0.0000000000000000e+00" cType="1" res="2.1095767151564360e-03" rms="2.7747353911399841e-01" purity="8.5717862844467163e-01" nType="-99"/>
            <Node pos="r" depth="3" NCoef="0" IVar="-1" Cut="0.0000000000000000e+00" cType="1" res="1.8968705553561449e-03" rms="2.5996631383895874e-01" purity="8.9591753482818604e-01" nType="-99"/>
          </Node>
          <Node pos="r" depth="2" NCoef="0" IVar="3" Cut="6.9364062500000000e+04" cType="1" res="1.7889392375946045e-01" rms="2.5133335590362549e-01" purity="8.5758781433105469e-01" nType="0">
            <Node pos="l" depth="3" NCoef="0" IVar="-1" Cut="0.0000000000000000e+00" cType="1" res="1.5254323370754719e-03" rms="3.5196790099143982e-01" purity="7.0166271924972534e-01" nType="-99"/>
            <Node pos="r" depth="3" NCoef="0" IVar="-1" Cut="0.0000000000000000e+00" cType="1" res="1.4314263826236129e-03" rms="9.8978057503700256e-02" purity="9.8999100923538208e-01" nType="-99"/>
          </Node>
        </Node>
      </Node>
    </BinaryTree>
    <BinaryTree type="DecisionTree" boostWeight="1.0000000000000000e+00" itree="281">
      <Node pos="s" depth="0" NCoef="0" IVar="3" Cut="4.4524941406250000e+04" cType="1" res="8.5889503359794617e-02" rms="2.7795597910881042e-01" purity="4.9828961491584778e-01" nType="0">
        <Node pos="l" depth="1" NCoef="0" IVar="3" Cut="4.0295855468750000e+04" cType="1" res="2.5460222736001015e-02" rms="2.8066101670265198e-01" purity="1.8041653931140900e-01" nType="0">
          <Node pos="l" depth="2" NCoef="0" IVar="0" Cut="3.3333332538604736e+00" cType="1" res="8.7986942380666733e-03" rms="2.6064446568489075e-01" purity="1.3526552915573120e-01" nType="0">
            <Node pos="l" depth="3" NCoef="0" IVar="-1" Cut="0.0000000000000000e+00" cType="1" res="4.7368512605316937e-04" rms="2.5796130299568176e-01" purity="1.2765942513942719e-01" nType="-99"/>
            <Node pos="r" depth="3" NCoef="0" IVar="-1" Cut="0.0000000000000000e+00" cType="1" res="4.2123422026634216e-03" rms="3.2447299361228943e-01" purity="4.9258029460906982e-01" nType="-99"/>
          </Node>
          <Node pos="r" depth="2" NCoef="0" IVar="5" Cut="9.0644437500000000e+04" cType="1" res="1.9386735558509827e-01" rms="3.9638322591781616e-01" purity="6.3678228855133057e-01" nType="0">
            <Node pos="l" depth="3" NCoef="0" IVar="-1" Cut="0.0000000000000000e+00" cType="1" res="2.2731723729521036e-03" rms="3.9882799983024597e-01" purity="7.4008285999298096e-01" nType="-99"/>
            <Node pos="r" depth="3" NCoef="0" IVar="-1" Cut="0.0000000000000000e+00" cType="1" res="8.2368525909259915e-04" rms="3.5257476568222046e-01" purity="5.0679105520248413e-01" nType="-99"/>
          </Node>
        </Node>
        <Node pos="r" depth="1" NCoef="0" IVar="1" Cut="1.4546562500000000e+05" cType="1" res="1.6049695014953613e-01" rms="2.5557613372802734e-01" purity="8.9074331521987915e-01" nType="0">
          <Node pos="l" depth="2" NCoef="0" IVar="3" Cut="8.0159046875000000e+04" cType="1" res="1.3675753772258759e-01" rms="2.9576563835144043e-01" purity="8.4514933824539185e-01" nType="0">
            <Node pos="l" depth="3" NCoef="0" IVar="-1" Cut="0.0000000000000000e+00" cType="1" res="5.6957156630232930e-04" rms="4.0559870004653931e-01" purity="6.6166836023330688e-01" nType="-99"/>
            <Node pos="r" depth="3" NCoef="0" IVar="-1" Cut="0.0000000000000000e+00" cType="1" res="1.8635697197169065e-03" rms="1.7791688442230225e-01" purity="9.6580696105957031e-01" nType="-99"/>
          </Node>
          <Node pos="r" depth="2" NCoef="0" IVar="-1" Cut="0.0000000000000000e+00" cType="1" res="1.3929445995017886e-03" rms="1.3268718123435974e-01" purity="9.8195993900299072e-01" nType="-99"/>
        </Node>
      </Node>
    </BinaryTree>
    <BinaryTree type="DecisionTree" boostWeight="1.0000000000000000e+00" itree="282">
      <Node pos="s" depth="0" NCoef="0" IVar="3" Cut="5.4198226562500000e+04" cType="1" res="8.7324090301990509e-02" rms="2.8691869974136353e-01" purity="4.8401609063148499e-01" nType="0">
        <Node pos="l" depth="1" NCoef="0" IVar="1" Cut="5.7867074218750000e+04" cType="1" res="3.6419518291950226e-02" rms="3.0146166682243347e-01" purity="2.1951448917388916e-01" nType="0">
          <Node pos="l" depth="2" NCoef="0" IVar="1" Cut="3.8202398437500000e+04" cType="1" res="1.5977281332015991e-01" rms="4.3927153944969177e-01" purity="4.0624350309371948e-01" nType="0">
            <Node pos="l" depth="3" NCoef="0" IVar="-1" Cut="0.0000000000000000e+00" cType="1" res="-2.2623152472078800e-03" rms="2.7936103940010071e-01" purity="1.5610113739967346e-01" nType="-99"/>
            <Node pos="r" depth="3" NCoef="0" IVar="-1" Cut="0.0000000000000000e+00" cType="1" res="3.4593825694173574e-03" rms="4.6173375844955444e-01" purity="6.3255214691162109e-01" nType="-99"/>
          </Node>
          <Node pos="r" depth="2" NCoef="0" IVar="1" Cut="1.0156646875000000e+05" cType="1" res="1.8214169889688492e-02" rms="2.7062201499938965e-01" purity="1.9195571541786194e-01" nType="0">
            <Node pos="l" depth="3" NCoef="0" IVar="-1" Cut="0.0000000000000000e+00" cType="1" res="-9.6661207498982549e-04" rms="2.2467514872550964e-01" purity="6.8722561001777649e-02" nType="-99"/>
            <Node pos="r" depth="3" NCoef="0" IVar="-1" Cut="0.0000000000000000e+00" cType="1" res="1.2788028689101338e-03" rms="3.7706616520881653e-01" purity="6.2188094854354858e-01" nType="-99"/>
          </Node>
        </Node>
        <Node pos="r" depth="1" NCoef="0" IVar="2" Cut="2.8078793750000000e+05" cType="1" res="1.7262105643749237e-01" rms="2.3741692304611206e-01" purity="9.2722153663635254e-01" nType="0">
          <Node pos="l" depth="2" NCoef="0" IVar="4" Cut="3.0174087500000000e+05" cType="1" res="1.2887755036354065e-01" rms="3.1220984458923340e-01" purity="8.6347770690917969e-01" nType="0">
            <Node pos="l" depth="3" NCoef="0" IVar="-1" Cut="0.0000000000000000e+00" cType="1" res="1.0832417756319046e-03" rms="3.5261899232864380e-01" purity="8.0961877107620239e-01" nType="-99"/>
            <Node pos="r" depth="3" NCoef="0" IVar="-1" Cut="0.0000000000000000e+00" cType="1" res="1.7250999808311462e-03" rms="2.2960312664508820e-01" purity="9.3790310621261597e-01" nType="-99"/>
          </Node>
          <Node pos="r" depth="2" NCoef="0" IVar="0" Cut="2.2857143878936768e+00" cType="1" res="1.9377535581588745e-01" rms="1.8738745152950287e-01" purity="9.5804792642593384e-01" nType="0">
            <Node pos="l" depth="3" NCoef="0" IVar="-1" Cut="0.0000000000000000e+00" cType="1" res="1.8745905254036188e-03" rms="1.7261615395545959e-01" purity="9.6472460031509399e-01" nType="-99"/>
            <Node pos="r" depth="3" NCoef="0" IVar="-1" Cut="0.0000000000000000e+00" cType="1" res="2.0248121581971645e-03" rms="2.5890943408012390e-01" purity="9.1482049226760864e-01" nType="-99"/>
          </Node>
        </Node>
      </Node>
    </BinaryTree>
    <BinaryTree type="DecisionTree" boostWeight="1.0000000000000000e+00" itree="283">
      <Node pos="s" depth="0" NCoef="0" IVar="3" Cut="4.4663660156250000e+04" cType="1" res="1.0077715665102005e-01" rms="2.9084950685501099e-01" purity="5.0754451751708984e-01" nType="0">
        <Node pos="l" depth="1" NCoef="0" IVar="5" Cut="9.6395531250000000e+04" cType="1" res="5.3128637373447418e-02" rms="3.0435621738433838e-01" purity="2.1884629130363464e-01" nType="0">
          <Node pos="l" depth="2" NCoef="0" IVar="2" Cut="4.2809400000000000e+05" cType="1" res="3.8331381976604462e-02" rms="2.9499086737632751e-01" purity="1.9242733716964722e-01" nType="0">
            <Node pos="l" depth="3" NCoef="0" IVar="-1" Cut="0.0000000000000000e+00" cType="1" res="1.2301867827773094e-03" rms="2.6903241872787476e-01" purity="1.4763419330120087e-01" nType="-99"/>
            <Node pos="r" depth="3" NCoef="0" IVar="-1" Cut="0.0000000000000000e+00" cType="1" res="3.2698744907975197e-03" rms="4.0836209058761597e-01" purity="4.8740056157112122e-01" nType="-99"/>
          </Node>
          <Node pos="r" depth="2" NCoef="0" IVar="-1" Cut="0.0000000000000000e+00" cType="1" res="9.9096854683011770e-04" rms="3.3399328589439392e-01" purity="7.5778883695602417e-01" nType="-99"/>
        </Node>
        <Node pos="r" depth="1" NCoef="0" IVar="3" Cut="8.6944765625000000e+04" cType="1" res="1.6328980028629303e-01" rms="2.5915214419364929e-01" purity="8.8630312681198120e-01" nType="0">
          <Node pos="l" depth="2" NCoef="0" IVar="5" Cut="9.1370828125000000e+04" cType="1" res="1.3085320591926575e-01" rms="3.4716913104057312e-01" purity="7.7770388126373291e-01" nType="0">
            <Node pos="l" depth="3" NCoef="0" IVar="-1" Cut="0.0000000000000000e+00" cType="1" res="1.9143373938277364e-03" rms="3.2626667618751526e-01" purity="8.1322485208511353e-01" nType="-99"/>
            <Node pos="r" depth="3" NCoef="0" IVar="-1" Cut="0.0000000000000000e+00" cType="1" res="7.1672658668830991e-04" rms="3.7834602594375610e-01" purity="7.0925617218017578e-01" nType="-99"/>
          </Node>
          <Node pos="r" depth="2" NCoef="0" IVar="1" Cut="1.0168853906250000e+05" cType="1" res="1.9100846350193024e-01" rms="1.4102488756179810e-01" purity="9.7910666465759277e-01" nType="0">
            <Node pos="l" depth="3" NCoef="0" IVar="-1" Cut="0.0000000000000000e+00" cType="1" res="2.1169227547943592e-03" rms="1.9295436143875122e-01" purity="9.5948803424835205e-01" nType="-99"/>
            <Node pos="r" depth="3" NCoef="0" IVar="-1" Cut="0.0000000000000000e+00" cType="1" res="2.0979065448045731e-03" rms="9.3680761754512787e-02" purity="9.9115258455276489e-01" nType="-99"/>
          </Node>
        </Node>
      </Node>
    </BinaryTree>
    <BinaryTree type="DecisionTree" boostWeight="1.0000000000000000e+00" itree="284">
      <Node pos="s" depth="0" NCoef="0" IVar="3" Cut="6.8798242187500000e+04" cType="1" res="9.3106269836425781e-02" rms="2.7820530533790588e-01" purity="5.1270204782485962e-01" nType="0">
        <Node pos="l" depth="1" NCoef="0" IVar="1" Cut="1.4547440625000000e+05" cType="1" res="5.3261578083038330e-02" rms="3.0254122614860535e-01" purity="3.0857199430465698e-01" nType="0">
          <Node pos="l" depth="2" NCoef="0" IVar="1" Cut="7.5534109375000000e+04" cType="1" res="3.2262284308671951e-02" rms="2.9448032379150391e-01" purity="2.1594229340553284e-01" nType="0">
            <Node pos="l" depth="3" NCoef="0" IVar="-1" Cut="0.0000000000000000e+00" cType="1" res="1.9968315027654171e-03" rms="3.8480371236801147e-01" purity="4.8594158887863159e-01" nType="-99"/>
            <Node pos="r" depth="3" NCoef="0" IVar="-1" Cut="0.0000000000000000e+00" cType="1" res="-1.4220420780475251e-05" rms="2.5268784165382385e-01" purity="1.3556832075119019e-01" nType="-99"/>
          </Node>
          <Node pos="r" depth="2" NCoef="0" IVar="5" Cut="9.0889265625000000e+04" cType="1" res="1.8044851720333099e-01" rms="3.1911140680313110e-01" purity="8.6960440874099731e-01" nType="0">
            <Node pos="l" depth="3" NCoef="0" IVar="-1" Cut="0.0000000000000000e+00" cType="1" res="2.1883712615817785e-03" rms="2.9318150877952576e-01" purity="8.9933252334594727e-01" nType="-99"/>
            <Node pos="r" depth="3" NCoef="0" IVar="-1" Cut="0.0000000000000000e+00" cType="1" res="1.4657896244898438e-03" rms="3.5938674211502075e-01" purity="8.0609530210494995e-01" nType="-99"/>
          </Node>
        </Node>
        <Node pos="r" depth="1" NCoef="0" IVar="1" Cut="1.0168853906250000e+05" cType="1" res="1.8047700822353363e-01" rms="1.8786343932151794e-01" purity="9.6031475067138672e-01" nType="0">
          <Node pos="l" depth="2" NCoef="0" IVar="0" Cut="2.2857143878936768e+00" cType="1" res="1.5446980297565460e-01" rms="2.4652397632598877e-01" purity="9.2866688966751099e-01" nType="0">
            <Node pos="l" depth="3" NCoef="0" IVar="-1" Cut="0.0000000000000000e+00" cType="1" res="1.8061480950564146e-03" rms="2.3248144984245300e-01" purity="9.3715643882751465e-01" nType="-99"/>
            <Node pos="r" depth="3" NCoef="0" IVar="-1" Cut="0.0000000000000000e+00" cType="1" res="1.0035887826234102e-03" rms="3.5412791371345520e-01" purity="8.3248722553253174e-01" nType="-99"/>
          </Node>
          <Node pos="r" depth="2" NCoef="0" IVar="-1" Cut="0.0000000000000000e+00" cType="1" res="1.5764848794788122e-03" rms="1.1528010666370392e-01" purity="9.8638081550598145e-01" nType="-99"/>
        </Node>
      </Node>
    </BinaryTree>
    <BinaryTree type="DecisionTree" boostWeight="1.0000000000000000e+00" itree="285">
      <Node pos="s" depth="0" NCoef="0" IVar="3" Cut="5.4305199218750000e+04" cType="1" res="8.5410043597221375e-02" rms="2.8796002268791199e-01" purity="4.9058344960212708e-01" nType="0">
        <Node pos="l" depth="1" NCoef="0" IVar="3" Cut="1.3059743164062500e+04" cType="1" res="3.6112982779741287e-02" rms="3.0644500255584717e-01" purity="2.2279602289199829e-01" nType="0">
          <Node pos="l" depth="2" NCoef="0" IVar="5" Cut="8.9804296875000000e+04" cType="1" res="-1.1140616610646248e-02" rms="1.6142681241035461e-01" purity="4.8512175679206848e-02" nType="0">
            <Node pos="l" depth="3" NCoef="0" IVar="-1" Cut="0.0000000000000000e+00" cType="1" res="1.8159227911382914e-03" rms="2.6033771038055420e-01" purity="1.5156437456607819e-01" nType="-99"/>
            <Node pos="r" depth="3" NCoef="0" IVar="-1" Cut="0.0000000000000000e+00" cType="1" res="-6.0311712324619293e-02" rms="6.4952753484249115e-02" purity="0.0000000000000000e+00" nType="-99"/>
          </Node>
          <Node pos="r" depth="2" NCoef="0" IVar="5" Cut="9.2598906250000000e+04" cType="1" res="5.3051304072141647e-02" rms="3.4226074814796448e-01" purity="2.8526908159255981e-01" nType="0">
            <Node pos="l" depth="3" NCoef="0" IVar="-1" Cut="0.0000000000000000e+00" cType="1" res="1.3015181757509708e-03" rms="3.2190269231796265e-01" purity="2.6566958427429199e-01" nType="-99"/>
            <Node pos="r" depth="3" NCoef="0" IVar="-1" Cut="0.0000000000000000e+00" cType="1" res="2.8375273104757071e-03" rms="4.0113437175750732e-01" purity="3.5567128658294678e-01" nType="-99"/>
          </Node>
        </Node>
        <Node pos="r" depth="1" NCoef="0" IVar="1" Cut="1.0076305468750000e+05" cType="1" res="1.6567096114158630e-01" rms="2.3373836278915405e-01" purity="9.2657029628753662e-01" nType="0">
          <Node pos="l" depth="2" NCoef="0" IVar="3" Cut="8.9488187500000000e+04" cType="1" res="1.2968292832374573e-01" rms="2.9571011662483215e-01" purity="8.7140935659408569e-01" nType="0">
            <Node pos="l" depth="3" NCoef="0" IVar="-1" Cut="0.0000000000000000e+00" cType="1" res="7.1281875716522336e-04" rms="3.9439651370048523e-01" purity="7.4715858697891235e-01" nType="-99"/>
            <Node pos="r" depth="3" NCoef="0" IVar="-1" Cut="0.0000000000000000e+00" cType="1" res="2.3521666880697012e-03" rms="1.6522628068923950e-01" purity="9.7126770019531250e-01" nType="-99"/>
          </Node>
          <Node pos="r" depth="2" NCoef="0" IVar="0" Cut="1.1428571939468384e+00" cType="1" res="1.9693200290203094e-01" rms="1.5501669049263000e-01" purity="9.7448581457138062e-01" nType="0">
            <Node pos="l" depth="3" NCoef="0" IVar="-1" Cut="0.0000000000000000e+00" cType="1" res="1.9784164614975452e-03" rms="1.4686621725559235e-01" purity="9.7692471742630005e-01" nType="-99"/>
            <Node pos="r" depth="3" NCoef="0" IVar="-1" Cut="0.0000000000000000e+00" cType="1" res="2.3348773829638958e-03" rms="1.6654637455940247e-01" purity="9.7063755989074707e-01" nType="-99"/>
          </Node>
        </Node>
      </Node>
    </BinaryTree>
    <BinaryTree type="DecisionTree" boostWeight="1.0000000000000000e+00" itree="286">
      <Node pos="s" depth="0" NCoef="0" IVar="3" Cut="7.5747929687500000e+04" cType="1" res="9.0366326272487640e-02" rms="2.8291800618171692e-01" purity="5.1060545444488525e-01" nType="0">
        <Node pos="l" depth="1" NCoef="0" IVar="1" Cut="1.3640723437500000e+05" cType="1" res="5.2929412573575974e-02" rms="3.0955296754837036e-01" purity="3.2849419116973877e-01" nType="0">
          <Node pos="l" depth="2" NCoef="0" IVar="1" Cut="1.0072814062500000e+05" cType="1" res="2.9221132397651672e-02" rms="3.0173182487487793e-01" purity="2.2565747797489166e-01" nType="0">
            <Node pos="l" depth="3" NCoef="0" IVar="-1" Cut="0.0000000000000000e+00" cType="1" res="3.0625087674707174e-04" rms="2.8115379810333252e-01" purity="1.6835431754589081e-01" nType="-99"/>
            <Node pos="r" depth="3" NCoef="0" IVar="-1" Cut="0.0000000000000000e+00" cType="1" res="1.0743769817054272e-03" rms="3.7963658571243286e-01" purity="5.8806860446929932e-01" nType="-99"/>
          </Node>
          <Node pos="r" depth="2" NCoef="0" IVar="5" Cut="8.9798546875000000e+04" cType="1" res="1.7622525990009308e-01" rms="3.2025241851806641e-01" purity="8.6330062150955200e-01" nType="0">
            <Node pos="l" depth="3" NCoef="0" IVar="-1" Cut="0.0000000000000000e+00" cType="1" res="2.0298303570598364e-03" rms="3.2640892267227173e-01" purity="8.7777763605117798e-01" nType="-99"/>
            <Node pos="r" depth="3" NCoef="0" IVar="-1" Cut="0.0000000000000000e+00" cType="1" res="1.2264738325029612e-03" rms="3.1155923008918762e-01" purity="8.5171478986740112e-01" nType="-99"/>
          </Node>
        </Node>
        <Node pos="r" depth="1" NCoef="0" IVar="1" Cut="1.1128134375000000e+05" cType="1" res="1.8488806486129761e-01" rms="1.6651350259780884e-01" purity="9.7040498256683350e-01" nType="0">
          <Node pos="l" depth="2" NCoef="0" IVar="3" Cut="1.4406692187500000e+05" cType="1" res="1.7063498497009277e-01" rms="2.0427763462066650e-01" purity="9.5448374748229980e-01" nType="0">
            <Node pos="l" depth="3" NCoef="0" IVar="-1" Cut="0.0000000000000000e+00" cType="1" res="1.9550465513020754e-03" rms="2.4063080549240112e-01" purity="9.3603134155273438e-01" nType="-99"/>
            <Node pos="r" depth="3" NCoef="0" IVar="-1" Cut="0.0000000000000000e+00" cType="1" res="2.4533362593501806e-03" rms="9.9253460764884949e-02" purity="9.9005895853042603e-01" nType="-99"/>
          </Node>
          <Node pos="r" depth="2" NCoef="0" IVar="-1" Cut="0.0000000000000000e+00" cType="1" res="1.6645516734570265e-03" rms="1.0449371486902237e-01" purity="9.8893415927886963e-01" nType="-99"/>
        </Node>
      </Node>
    </BinaryTree>
    <BinaryTree type="DecisionTree" boostWeight="1.0000000000000000e+00" itree="287">
      <Node pos="s" depth="0" NCoef="0" IVar="3" Cut="6.8798242187500000e+04" cType="1" res="8.6596287786960602e-02" rms="2.8600397706031799e-01" purity="4.9509051442146301e-01" nType="0">
        <Node pos="l" depth="1" NCoef="0" IVar="5" Cut="8.8804132812500000e+04" cType="1" res="4.5825909823179245e-02" rms="3.0800315737724304e-01" purity="2.9329124093055725e-01" nType="0">
          <Node pos="l" depth="2" NCoef="0" IVar="1" Cut="1.1843922656250000e+05" cType="1" res="1.3372801244258881e-01" rms="3.7450146675109863e-01" purity="4.5640265941619873e-01" nType="0">
            <Node pos="l" depth="3" NCoef="0" IVar="-1" Cut="0.0000000000000000e+00" cType="1" res="3.6047520115971565e-03" rms="3.7467247247695923e-01" purity="2.8398638963699341e-01" nType="-99"/>
            <Node pos="r" depth="3" NCoef="0" IVar="-1" Cut="0.0000000000000000e+00" cType="1" res="1.9897411111742258e-03" rms="3.3725899457931519e-01" purity="8.7361019849777222e-01" nType="-99"/>
          </Node>
          <Node pos="r" depth="2" NCoef="0" IVar="3" Cut="2.6246097656250000e+04" cType="1" res="2.1624138578772545e-02" rms="2.8223580121994019e-01" purity="2.4838234484195709e-01" nType="0">
            <Node pos="l" depth="3" NCoef="0" IVar="-1" Cut="0.0000000000000000e+00" cType="1" res="-3.9912867359817028e-03" rms="1.8743218481540680e-01" purity="5.3880546241998672e-02" nType="-99"/>
            <Node pos="r" depth="3" NCoef="0" IVar="-1" Cut="0.0000000000000000e+00" cType="1" res="8.7238830747082829e-04" rms="3.5842826962471008e-01" purity="4.7927197813987732e-01" nType="-99"/>
          </Node>
        </Node>
        <Node pos="r" depth="1" NCoef="0" IVar="1" Cut="6.8910484375000000e+04" cType="1" res="1.7995275557041168e-01" rms="1.9837875664234161e-01" purity="9.5717281103134155e-01" nType="0">
          <Node pos="l" depth="2" NCoef="0" IVar="-1" Cut="0.0000000000000000e+00" cType="1" res="1.6444901702925563e-03" rms="2.4451348185539246e-01" purity="9.3567478656768799e-01" nType="-99"/>
          <Node pos="r" depth="2" NCoef="0" IVar="4" Cut="2.3442756250000000e+05" cType="1" res="1.8926516175270081e-01" rms="1.8286882340908051e-01" purity="9.6296423673629761e-01" nType="0">
            <Node pos="l" depth="3" NCoef="0" IVar="-1" Cut="0.0000000000000000e+00" cType="1" res="1.3509819982573390e-03" rms="3.0689781904220581e-01" purity="8.8698780536651611e-01" nType="-99"/>
            <Node pos="r" depth="3" NCoef="0" IVar="-1" Cut="0.0000000000000000e+00" cType="1" res="1.8756015924736857e-03" rms="1.6591417789459229e-01" purity="9.7015517950057983e-01" nType="-99"/>
          </Node>
        </Node>
      </Node>
    </BinaryTree>
    <BinaryTree type="DecisionTree" boostWeight="1.0000000000000000e+00" itree="288">
      <Node pos="s" depth="0" NCoef="0" IVar="3" Cut="6.8736484375000000e+04" cType="1" res="7.6417103409767151e-02" rms="2.7231705188751221e-01" purity="4.9729114770889282e-01" nType="0">
        <Node pos="l" depth="1" NCoef="0" IVar="1" Cut="1.5585303125000000e+05" cType="1" res="2.9047064483165741e-02" rms="2.8769695758819580e-01" purity="2.7699586749076843e-01" nType="0">
          <Node pos="l" depth="2" NCoef="0" IVar="1" Cut="7.3581312500000000e+04" cType="1" res="1.0251402854919434e-02" rms="2.7900123596191406e-01" purity="1.9181641936302185e-01" nType="0">
            <Node pos="l" depth="3" NCoef="0" IVar="-1" Cut="0.0000000000000000e+00" cType="1" res="1.8370031611993909e-03" rms="3.9233160018920898e-01" purity="4.0631407499313354e-01" nType="-99"/>
            <Node pos="r" depth="3" NCoef="0" IVar="-1" Cut="0.0000000000000000e+00" cType="1" res="-4.3970905244350433e-04" rms="2.4016441404819489e-01" purity="1.4014855027198792e-01" nType="-99"/>
          </Node>
          <Node pos="r" depth="2" NCoef="0" IVar="3" Cut="2.2983886718750000e+04" cType="1" res="1.5803228318691254e-01" rms="3.1229057908058167e-01" purity="8.6153978109359741e-01" nType="0">
            <Node pos="l" depth="3" NCoef="0" IVar="-1" Cut="0.0000000000000000e+00" cType="1" res="1.3127214042469859e-03" rms="4.2123401165008545e-01" purity="6.8787497282028198e-01" nType="-99"/>
            <Node pos="r" depth="3" NCoef="0" IVar="-1" Cut="0.0000000000000000e+00" cType="1" res="1.5489126089960337e-03" rms="2.5558575987815857e-01" purity="9.2769038677215576e-01" nType="-99"/>
          </Node>
        </Node>
        <Node pos="r" depth="1" NCoef="0" IVar="2" Cut="2.5373418750000000e+05" cType="1" res="1.7454980313777924e-01" rms="2.0502495765686035e-01" purity="9.5365935564041138e-01" nType="0">
          <Node pos="l" depth="2" NCoef="0" IVar="4" Cut="2.8430365625000000e+05" cType="1" res="1.3577230274677277e-01" rms="2.7607902884483337e-01" purity="9.1110032796859741e-01" nType="0">
            <Node pos="l" depth="3" NCoef="0" IVar="-1" Cut="0.0000000000000000e+00" cType="1" res="9.7767938859760761e-04" rms="3.2698002457618713e-01" purity="8.6781632900238037e-01" nType="-99"/>
            <Node pos="r" depth="3" NCoef="0" IVar="-1" Cut="0.0000000000000000e+00" cType="1" res="1.5939696459099650e-03" rms="1.7567434906959534e-01" purity="9.6799337863922119e-01" nType="-99"/>
          </Node>
          <Node pos="r" depth="2" NCoef="0" IVar="1" Cut="1.0644257031250000e+05" cType="1" res="1.9069138169288635e-01" rms="1.6407042741775513e-01" purity="9.7137498855590820e-01" nType="0">
            <Node pos="l" depth="3" NCoef="0" IVar="-1" Cut="0.0000000000000000e+00" cType="1" res="1.8952778773382306e-03" rms="2.3979388177394867e-01" purity="9.3725347518920898e-01" nType="-99"/>
            <Node pos="r" depth="3" NCoef="0" IVar="-1" Cut="0.0000000000000000e+00" cType="1" res="1.7519108951091766e-03" rms="9.5168299973011017e-02" purity="9.9084204435348511e-01" nType="-99"/>
          </Node>
        </Node>
      </Node>
    </BinaryTree>
    <BinaryTree type="DecisionTree" boostWeight="1.0000000000000000e+00" itree="289">
      <Node pos="s" depth="0" NCoef="0" IVar="3" Cut="6.8936960937500000e+04" cType="1" res="8.9353464543819427e-02" rms="2.8365120291709900e-01" purity="5.0681406259536743e-01" nType="0">
        <Node pos="l" depth="1" NCoef="0" IVar="3" Cut="2.6427535156250000e+04" cType="1" res="5.0886292010545731e-02" rms="3.0808186531066895e-01" purity="3.0196517705917358e-01" nType="0">
          <Node pos="l" depth="2" NCoef="0" IVar="4" Cut="4.7422734375000000e+05" cType="1" res="6.5036132000386715e-03" rms="2.3581343889236450e-01" purity="9.4572290778160095e-02" nType="0">
            <Node pos="l" depth="3" NCoef="0" IVar="-1" Cut="0.0000000000000000e+00" cType="1" res="-5.3393299458548427e-04" rms="2.1493862569332123e-01" purity="6.3937984406948090e-02" nType="-99"/>
            <Node pos="r" depth="3" NCoef="0" IVar="-1" Cut="0.0000000000000000e+00" cType="1" res="2.1816878579556942e-03" rms="3.7420338392257690e-01" purity="4.2155930399894714e-01" nType="-99"/>
          </Node>
          <Node pos="r" depth="2" NCoef="0" IVar="1" Cut="7.8740148437500000e+04" cType="1" res="1.0017658025026321e-01" rms="3.6599183082580566e-01" purity="5.3229045867919922e-01" nType="0">
            <Node pos="l" depth="3" NCoef="0" IVar="-1" Cut="0.0000000000000000e+00" cType="1" res="1.8746579298749566e-03" rms="4.1902500391006470e-01" purity="6.8822628259658813e-01" nType="-99"/>
            <Node pos="r" depth="3" NCoef="0" IVar="-1" Cut="0.0000000000000000e+00" cType="1" res="9.7100291168317199e-04" rms="3.3686572313308716e-01" purity="4.7532060742378235e-01" nType="-99"/>
          </Node>
        </Node>
        <Node pos="r" depth="1" NCoef="0" IVar="1" Cut="1.1141539843750000e+05" cType="1" res="1.7399285733699799e-01" rms="1.9552455842494965e-01" purity="9.5754349231719971e-01" nType="0">
          <Node pos="l" depth="2" NCoef="0" IVar="3" Cut="9.4544960937500000e+04" cType="1" res="1.4859928190708160e-01" rms="2.5116720795631409e-01" purity="9.2744225263595581e-01" nType="0">
            <Node pos="l" depth="3" NCoef="0" IVar="-1" Cut="0.0000000000000000e+00" cType="1" res="9.0544694103300571e-04" rms="3.5972872376441956e-01" purity="8.4186339378356934e-01" nType="-99"/>
            <Node pos="r" depth="3" NCoef="0" IVar="-1" Cut="0.0000000000000000e+00" cType="1" res="2.3017791099846363e-03" rms="1.6127954423427582e-01" purity="9.7265189886093140e-01" nType="-99"/>
          </Node>
          <Node pos="r" depth="2" NCoef="0" IVar="-1" Cut="0.0000000000000000e+00" cType="1" res="1.6239103861153126e-03" rms="1.1776985228061676e-01" purity="9.8563635349273682e-01" nType="-99"/>
        </Node>
      </Node>
    </BinaryTree>
    <BinaryTree type="DecisionTree" boostWeight="1.0000000000000000e+00" itree="290">
      <Node pos="s" depth="0" NCoef="0" IVar="3" Cut="6.8736484375000000e+04" cType="1" res="8.5720762610435486e-02" rms="2.8672143816947937e-01" purity="4.8935139179229736e-01" nType="0">
        <Node pos="l" depth="1" NCoef="0" IVar="1" Cut="9.8448921875000000e+04" cType="1" res="4.3406136333942413e-02" rms="3.1486204266548157e-01" purity="2.7293956279754639e-01" nType="0">
          <Node pos="l" depth="2" NCoef="0" IVar="1" Cut="7.7866281250000000e+04" cType="1" res="1.9761582836508751e-02" rms="2.9561832547187805e-01" purity="1.5726628899574280e-01" nType="0">
            <Node pos="l" depth="3" NCoef="0" IVar="-1" Cut="0.0000000000000000e+00" cType="1" res="2.0389710552990437e-03" rms="4.0907800197601318e-01" purity="4.0733879804611206e-01" nType="-99"/>
            <Node pos="r" depth="3" NCoef="0" IVar="-1" Cut="0.0000000000000000e+00" cType="1" res="-1.9443188793957233e-03" rms="2.3649880290031433e-01" purity="7.0134580135345459e-02" nType="-99"/>
          </Node>
          <Node pos="r" depth="2" NCoef="0" IVar="3" Cut="3.5965925781250000e+04" cType="1" res="1.1680209636688232e-01" rms="3.5844513773918152e-01" purity="6.3200533390045166e-01" nType="0">
            <Node pos="l" depth="3" NCoef="0" IVar="-1" Cut="0.0000000000000000e+00" cType="1" res="1.3176855864003301e-03" rms="3.8216218352317810e-01" purity="4.3596425652503967e-01" nType="-99"/>
            <Node pos="r" depth="3" NCoef="0" IVar="-1" Cut="0.0000000000000000e+00" cType="1" res="1.8114087870344520e-03" rms="3.1920349597930908e-01" purity="8.5765534639358521e-01" nType="-99"/>
          </Node>
        </Node>
        <Node pos="r" depth="1" NCoef="0" IVar="1" Cut="1.0059082812500000e+05" cType="1" res="1.7855903506278992e-01" rms="1.8033237755298615e-01" purity="9.6415883302688599e-01" nType="0">
          <Node pos="l" depth="2" NCoef="0" IVar="3" Cut="1.0326276562500000e+05" cType="1" res="1.5112681686878204e-01" rms="2.4023264646530151e-01" purity="9.3369454145431519e-01" nType="0">
            <Node pos="l" depth="3" NCoef="0" IVar="-1" Cut="0.0000000000000000e+00" cType="1" res="1.1486131697893143e-03" rms="3.2609421014785767e-01" purity="8.7221825122833252e-01" nType="-99"/>
            <Node pos="r" depth="3" NCoef="0" IVar="-1" Cut="0.0000000000000000e+00" cType="1" res="2.3790283594280481e-03" rms="1.4778760075569153e-01" purity="9.7725093364715576e-01" nType="-99"/>
          </Node>
          <Node pos="r" depth="2" NCoef="0" IVar="0" Cut="1.3333333730697632e+00" cType="1" res="1.9981956481933594e-01" rms="1.0936295986175537e-01" purity="9.8776930570602417e-01" nType="0">
            <Node pos="l" depth="3" NCoef="0" IVar="-1" Cut="0.0000000000000000e+00" cType="1" res="1.7045059939846396e-03" rms="8.9908652007579803e-02" purity="9.9166715145111084e-01" nType="-99"/>
            <Node pos="r" depth="3" NCoef="0" IVar="-1" Cut="0.0000000000000000e+00" cType="1" res="2.0863213576376438e-03" rms="1.3432268798351288e-01" purity="9.8154312372207642e-01" nType="-99"/>
          </Node>
        </Node>
      </Node>
    </BinaryTree>
    <BinaryTree type="DecisionTree" boostWeight="1.0000000000000000e+00" itree="291">
      <Node pos="s" depth="0" NCoef="0" IVar="3" Cut="5.4305199218750000e+04" cType="1" res="7.7140316367149353e-02" rms="2.7571198344230652e-01" purity="4.8779419064521790e-01" nType="0">
        <Node pos="l" depth="1" NCoef="0" IVar="1" Cut="1.7489954687500000e+05" cType="1" res="2.7016866952180862e-02" rms="2.8564697504043579e-01" purity="2.2530248761177063e-01" nType="0">
          <Node pos="l" depth="2" NCoef="0" IVar="1" Cut="1.0504878125000000e+05" cType="1" res="1.5777165070176125e-02" rms="2.7741512656211853e-01" purity="1.6589388251304626e-01" nType="0">
            <Node pos="l" depth="3" NCoef="0" IVar="-1" Cut="0.0000000000000000e+00" cType="1" res="-9.9707085610134527e-06" rms="2.5153866410255432e-01" purity="1.0743734240531921e-01" nType="-99"/>
            <Node pos="r" depth="3" NCoef="0" IVar="-1" Cut="0.0000000000000000e+00" cType="1" res="1.9854819402098656e-03" rms="4.0135321021080017e-01" purity="5.8987665176391602e-01" nType="-99"/>
          </Node>
          <Node pos="r" depth="2" NCoef="0" IVar="-1" Cut="0.0000000000000000e+00" cType="1" res="1.1778919724747539e-03" rms="3.3906206488609314e-01" purity="8.4766298532485962e-01" nType="-99"/>
        </Node>
        <Node pos="r" depth="1" NCoef="0" IVar="3" Cut="1.0589988281250000e+05" cType="1" res="1.6088859736919403e-01" rms="2.3555700480937958e-01" purity="9.2637592554092407e-01" nType="0">
          <Node pos="l" depth="2" NCoef="0" IVar="3" Cut="5.9230671875000000e+04" cType="1" res="1.3476386666297913e-01" rms="3.0129987001419067e-01" purity="8.7320256233215332e-01" nType="0">
            <Node pos="l" depth="3" NCoef="0" IVar="-1" Cut="0.0000000000000000e+00" cType="1" res="-7.3552259709686041e-04" rms="4.1410467028617859e-01" purity="6.1032247543334961e-01" nType="-99"/>
            <Node pos="r" depth="3" NCoef="0" IVar="-1" Cut="0.0000000000000000e+00" cType="1" res="1.4957308303564787e-03" rms="2.8208839893341064e-01" purity="8.9843058586120605e-01" nType="-99"/>
          </Node>
          <Node pos="r" depth="2" NCoef="0" IVar="1" Cut="8.4343281250000000e+04" cType="1" res="1.8938070535659790e-01" rms="1.2425022572278976e-01" purity="9.8436778783798218e-01" nType="0">
            <Node pos="l" depth="3" NCoef="0" IVar="-1" Cut="0.0000000000000000e+00" cType="1" res="2.3417221382260323e-03" rms="1.3580481708049774e-01" purity="9.8116075992584229e-01" nType="-99"/>
            <Node pos="r" depth="3" NCoef="0" IVar="-1" Cut="0.0000000000000000e+00" cType="1" res="2.2454925347119570e-03" rms="1.1731735616922379e-01" purity="9.8600375652313232e-01" nType="-99"/>
          </Node>
        </Node>
      </Node>
    </BinaryTree>
    <BinaryTree type="DecisionTree" boostWeight="1.0000000000000000e+00" itree="292">
      <Node pos="s" depth="0" NCoef="0" IVar="2" Cut="3.6502975000000000e+05" cType="1" res="1.1401247978210449e-01" rms="3.0407389998435974e-01" purity="5.1914834976196289e-01" nType="0">
        <Node pos="l" depth="1" NCoef="0" IVar="3" Cut="4.4524941406250000e+04" cType="1" res="8.1804364919662476e-02" rms="3.0048105120658875e-01" purity="4.1748481988906860e-01" nType="0">
          <Node pos="l" depth="2" NCoef="0" IVar="2" Cut="1.4634171875000000e+05" cType="1" res="4.0266152471303940e-02" rms="3.0493012070655823e-01" purity="1.4750523865222931e-01" nType="0">
            <Node pos="l" depth="3" NCoef="0" IVar="-1" Cut="0.0000000000000000e+00" cType="1" res="3.3210709225386381e-03" rms="5.0059294700622559e-01" purity="4.4161522388458252e-01" nType="-99"/>
            <Node pos="r" depth="3" NCoef="0" IVar="-1" Cut="0.0000000000000000e+00" cType="1" res="1.9846281502395868e-03" rms="2.7969786524772644e-01" purity="1.2888035178184509e-01" nType="-99"/>
          </Node>
          <Node pos="r" depth="2" NCoef="0" IVar="4" Cut="2.6622534375000000e+05" cType="1" res="1.5058591961860657e-01" rms="2.7971550822257996e-01" purity="8.6453384160995483e-01" nType="0">
            <Node pos="l" depth="3" NCoef="0" IVar="-1" Cut="0.0000000000000000e+00" cType="1" res="1.1577825061976910e-03" rms="3.3418011665344238e-01" purity="7.8189724683761597e-01" nType="-99"/>
            <Node pos="r" depth="3" NCoef="0" IVar="-1" Cut="0.0000000000000000e+00" cType="1" res="1.6093739541247487e-03" rms="2.3459814488887787e-01" purity="9.1578602790832520e-01" nType="-99"/>
          </Node>
        </Node>
        <Node pos="r" depth="1" NCoef="0" IVar="2" Cut="5.1110893750000000e+05" cType="1" res="1.9341251254081726e-01" rms="2.9825145006179810e-01" purity="7.6977109909057617e-01" nType="0">
          <Node pos="l" depth="2" NCoef="0" IVar="0" Cut="3.8095238804817200e-01" cType="1" res="2.2832423448562622e-01" rms="3.2579666376113892e-01" purity="7.4735403060913086e-01" nType="0">
            <Node pos="l" depth="3" NCoef="0" IVar="-1" Cut="0.0000000000000000e+00" cType="1" res="1.5015616081655025e-03" rms="2.7557998895645142e-01" purity="6.7237144708633423e-01" nType="-99"/>
            <Node pos="r" depth="3" NCoef="0" IVar="-1" Cut="0.0000000000000000e+00" cType="1" res="1.4614497777074575e-03" rms="3.4267747402191162e-01" purity="7.8855788707733154e-01" nType="-99"/>
          </Node>
          <Node pos="r" depth="2" NCoef="0" IVar="1" Cut="9.3739875000000000e+04" cType="1" res="1.3850203156471252e-01" rms="2.3871617019176483e-01" purity="8.0502957105636597e-01" nType="0">
            <Node pos="l" depth="3" NCoef="0" IVar="-1" Cut="0.0000000000000000e+00" cType="1" res="-3.5315216518938541e-04" rms="2.7047473192214966e-01" purity="3.7248426675796509e-01" nType="-99"/>
            <Node pos="r" depth="3" NCoef="0" IVar="-1" Cut="0.0000000000000000e+00" cType="1" res="1.5092882094904780e-03" rms="2.2126586735248566e-01" purity="8.8561648130416870e-01" nType="-99"/>
          </Node>
        </Node>
      </Node>
    </BinaryTree>
    <BinaryTree type="DecisionTree" boostWeight="1.0000000000000000e+00" itree="293">
      <Node pos="s" depth="0" NCoef="0" IVar="3" Cut="5.4198226562500000e+04" cType="1" res="8.7235584855079651e-02" rms="2.8498980402946472e-01" purity="4.9453666806221008e-01" nType="0">
        <Node pos="l" depth="1" NCoef="0" IVar="1" Cut="7.8766671875000000e+04" cType="1" res="4.0358636528253555e-02" rms="3.0389297008514404e-01" purity="2.4046085774898529e-01" nType="0">
          <Node pos="l" depth="2" NCoef="0" IVar="4" Cut="2.7758784375000000e+05" cType="1" res="1.3844706118106842e-01" rms="4.1600251197814941e-01" purity="3.9841032028198242e-01" nType="0">
            <Node pos="l" depth="3" NCoef="0" IVar="-1" Cut="0.0000000000000000e+00" cType="1" res="2.0128048490732908e-03" rms="4.0247637033462524e-01" purity="2.6958504319190979e-01" nType="-99"/>
            <Node pos="r" depth="3" NCoef="0" IVar="-1" Cut="0.0000000000000000e+00" cType="1" res="2.9475835617631674e-03" rms="3.9517271518707275e-01" purity="6.7981988191604614e-01" nType="-99"/>
          </Node>
          <Node pos="r" depth="2" NCoef="0" IVar="1" Cut="1.4232251562500000e+05" cType="1" res="1.4854410663247108e-02" rms="2.6117798686027527e-01" purity="1.9939200580120087e-01" nType="0">
            <Node pos="l" depth="3" NCoef="0" IVar="-1" Cut="0.0000000000000000e+00" cType="1" res="-6.9415575126186013e-05" rms="2.3508313298225403e-01" purity="1.0153198242187500e-01" nType="-99"/>
            <Node pos="r" depth="3" NCoef="0" IVar="-1" Cut="0.0000000000000000e+00" cType="1" res="1.5947103966027498e-03" rms="3.6779761314392090e-01" purity="7.9994899034500122e-01" nType="-99"/>
          </Node>
        </Node>
        <Node pos="r" depth="1" NCoef="0" IVar="1" Cut="1.0059082812500000e+05" cType="1" res="1.6797193884849548e-01" rms="2.2747282683849335e-01" purity="9.3213242292404175e-01" nType="0">
          <Node pos="l" depth="2" NCoef="0" IVar="1" Cut="8.3708046875000000e+04" cType="1" res="1.2522637844085693e-01" rms="3.0984783172607422e-01" purity="8.6235195398330688e-01" nType="0">
            <Node pos="l" depth="3" NCoef="0" IVar="-1" Cut="0.0000000000000000e+00" cType="1" res="1.8837824463844299e-03" rms="2.4768508970737457e-01" purity="9.2925554513931274e-01" nType="-99"/>
            <Node pos="r" depth="3" NCoef="0" IVar="-1" Cut="0.0000000000000000e+00" cType="1" res="4.1888156556524336e-04" rms="4.1032335162162781e-01" purity="6.9890433549880981e-01" nType="-99"/>
          </Node>
          <Node pos="r" depth="2" NCoef="0" IVar="4" Cut="4.1659568750000000e+05" cType="1" res="1.9670127332210541e-01" rms="1.4121641218662262e-01" purity="9.7903198003768921e-01" nType="0">
            <Node pos="l" depth="3" NCoef="0" IVar="-1" Cut="0.0000000000000000e+00" cType="1" res="9.7992143128067255e-04" rms="1.4396211504936218e-01" purity="9.7837746143341064e-01" nType="-99"/>
            <Node pos="r" depth="3" NCoef="0" IVar="-1" Cut="0.0000000000000000e+00" cType="1" res="2.1763562690466642e-03" rms="1.3844306766986847e-01" purity="9.7963082790374756e-01" nType="-99"/>
          </Node>
        </Node>
      </Node>
    </BinaryTree>
    <BinaryTree type="DecisionTree" boostWeight="1.0000000000000000e+00" itree="294">
      <Node pos="s" depth="0" NCoef="0" IVar="1" Cut="1.0034389062500000e+05" cType="1" res="8.4721721708774567e-02" rms="2.7725654840469360e-01" purity="4.9823758006095886e-01" nType="0">
        <Node pos="l" depth="1" NCoef="0" IVar="1" Cut="7.5099921875000000e+04" cType="1" res="2.8459273278713226e-02" rms="2.6859673857688904e-01" purity="2.9256165027618408e-01" nType="0">
          <Node pos="l" depth="2" NCoef="0" IVar="2" Cut="1.6335751562500000e+05" cType="1" res="1.2555013597011566e-01" rms="3.2592943310737610e-01" purity="6.4857017993927002e-01" nType="0">
            <Node pos="l" depth="3" NCoef="0" IVar="-1" Cut="0.0000000000000000e+00" cType="1" res="-2.4511008523404598e-03" rms="2.7291911840438843e-01" purity="3.0167168378829956e-01" nType="-99"/>
            <Node pos="r" depth="3" NCoef="0" IVar="-1" Cut="0.0000000000000000e+00" cType="1" res="2.1976376883685589e-03" rms="3.2327336072921753e-01" purity="7.1680313348770142e-01" nType="-99"/>
          </Node>
          <Node pos="r" depth="2" NCoef="0" IVar="3" Cut="8.3470781250000000e+04" cType="1" res="-2.0277597010135651e-02" rms="2.1892218291759491e-01" purity="1.1385543644428253e-01" nType="0">
            <Node pos="l" depth="3" NCoef="0" IVar="-1" Cut="0.0000000000000000e+00" cType="1" res="-5.1752221770584583e-03" rms="2.0912580192089081e-01" purity="6.2793880701065063e-02" nType="-99"/>
            <Node pos="r" depth="3" NCoef="0" IVar="-1" Cut="0.0000000000000000e+00" cType="1" res="1.2510239612311125e-03" rms="2.9379177093505859e-01" purity="9.0285265445709229e-01" nType="-99"/>
          </Node>
        </Node>
        <Node pos="r" depth="1" NCoef="0" IVar="3" Cut="2.4094177734375000e+04" cType="1" res="1.8270303308963776e-01" rms="2.6455670595169067e-01" purity="8.5642302036285400e-01" nType="0">
          <Node pos="l" depth="2" NCoef="0" IVar="5" Cut="9.0639812500000000e+04" cType="1" res="7.7933274209499359e-02" rms="4.1444733738899231e-01" purity="4.2640447616577148e-01" nType="0">
            <Node pos="l" depth="3" NCoef="0" IVar="-1" Cut="0.0000000000000000e+00" cType="1" res="1.6962069785222411e-03" rms="3.9185667037963867e-01" purity="5.4142934083938599e-01" nType="-99"/>
            <Node pos="r" depth="3" NCoef="0" IVar="-1" Cut="0.0000000000000000e+00" cType="1" res="-1.1231354437768459e-03" rms="4.2873057723045349e-01" purity="2.4381847679615021e-01" nType="-99"/>
          </Node>
          <Node pos="r" depth="2" NCoef="0" IVar="4" Cut="3.1005112500000000e+05" cType="1" res="2.0111887156963348e-01" rms="2.2323088347911835e-01" purity="9.3200927972793579e-01" nType="0">
            <Node pos="l" depth="3" NCoef="0" IVar="-1" Cut="0.0000000000000000e+00" cType="1" res="2.3041393142193556e-03" rms="2.6890006661415100e-01" purity="8.9203321933746338e-01" nType="-99"/>
            <Node pos="r" depth="3" NCoef="0" IVar="-1" Cut="0.0000000000000000e+00" cType="1" res="1.5408437466248870e-03" rms="1.9348488748073578e-01" purity="9.5321679115295410e-01" nType="-99"/>
          </Node>
        </Node>
      </Node>
    </BinaryTree>
    <BinaryTree type="DecisionTree" boostWeight="1.0000000000000000e+00" itree="295">
      <Node pos="s" depth="0" NCoef="0" IVar="3" Cut="5.4259988281250000e+04" cType="1" res="8.4441721439361572e-02" rms="2.8719055652618408e-01" purity="5.0126326084136963e-01" nType="0">
        <Node pos="l" depth="1" NCoef="0" IVar="2" Cut="2.7289553125000000e+05" cType="1" res="3.9100214838981628e-02" rms="3.0921170115470886e-01" purity="2.2705863416194916e-01" nType="0">
          <Node pos="l" depth="2" NCoef="0" IVar="1" Cut="6.5343031250000000e+04" cType="1" res="1.0892199352383614e-02" rms="2.7617922425270081e-01" purity="1.2130139768123627e-01" nType="0">
            <Node pos="l" depth="3" NCoef="0" IVar="-1" Cut="0.0000000000000000e+00" cType="1" res="2.8068111278116703e-03" rms="4.1769906878471375e-01" purity="3.2592111825942993e-01" nType="-99"/>
            <Node pos="r" depth="3" NCoef="0" IVar="-1" Cut="0.0000000000000000e+00" cType="1" res="-1.4275886351242661e-03" rms="2.2648584842681885e-01" purity="7.3655903339385986e-02" nType="-99"/>
          </Node>
          <Node pos="r" depth="2" NCoef="0" IVar="5" Cut="9.0649742187500000e+04" cType="1" res="7.8611508011817932e-02" rms="3.4644141793251038e-01" purity="3.7519404292106628e-01" nType="0">
            <Node pos="l" depth="3" NCoef="0" IVar="-1" Cut="0.0000000000000000e+00" cType="1" res="2.5003359187394381e-03" rms="3.5580101609230042e-01" purity="4.6806922554969788e-01" nType="-99"/>
            <Node pos="r" depth="3" NCoef="0" IVar="-1" Cut="0.0000000000000000e+00" cType="1" res="9.7635976271703839e-04" rms="3.3302170038223267e-01" purity="2.9230248928070068e-01" nType="-99"/>
          </Node>
        </Node>
        <Node pos="r" depth="1" NCoef="0" IVar="1" Cut="1.3241307812500000e+05" cType="1" res="1.5490281581878662e-01" rms="2.3218375444412231e-01" purity="9.2737978696823120e-01" nType="0">
          <Node pos="l" depth="2" NCoef="0" IVar="3" Cut="7.9579945312500000e+04" cType="1" res="1.2886960804462433e-01" rms="2.7492043375968933e-01" purity="8.9324790239334106e-01" nType="0">
            <Node pos="l" depth="3" NCoef="0" IVar="-1" Cut="0.0000000000000000e+00" cType="1" res="-9.1375768533907831e-05" rms="4.3558615446090698e-01" purity="6.6037452220916748e-01" nType="-99"/>
            <Node pos="r" depth="3" NCoef="0" IVar="-1" Cut="0.0000000000000000e+00" cType="1" res="1.5139984898269176e-03" rms="1.8379412591457367e-01" purity="9.6384352445602417e-01" nType="-99"/>
          </Node>
          <Node pos="r" depth="2" NCoef="0" IVar="-1" Cut="0.0000000000000000e+00" cType="1" res="1.4623327879235148e-03" rms="1.1276746541261673e-01" purity="9.8711788654327393e-01" nType="-99"/>
        </Node>
      </Node>
    </BinaryTree>
    <BinaryTree type="DecisionTree" boostWeight="1.0000000000000000e+00" itree="296">
      <Node pos="s" depth="0" NCoef="0" IVar="3" Cut="6.8850757812500000e+04" cType="1" res="7.2294689714908600e-02" rms="2.7941375970840454e-01" purity="4.6992567181587219e-01" nType="0">
        <Node pos="l" depth="1" NCoef="0" IVar="1" Cut="1.4547440625000000e+05" cType="1" res="3.0900824815034866e-02" rms="2.9984942078590393e-01" purity="2.6479223370552063e-01" nType="0">
          <Node pos="l" depth="2" NCoef="0" IVar="1" Cut="1.0091395312500000e+05" cType="1" res="1.5992293134331703e-02" rms="2.9266837239265442e-01" purity="1.8940092623233795e-01" nType="0">
            <Node pos="l" depth="3" NCoef="0" IVar="-1" Cut="0.0000000000000000e+00" cType="1" res="-2.9661998269148171e-04" rms="2.6651191711425781e-01" purity="1.3523113727569580e-01" nType="-99"/>
            <Node pos="r" depth="3" NCoef="0" IVar="-1" Cut="0.0000000000000000e+00" cType="1" res="2.3879739455878735e-03" rms="4.0191319584846497e-01" purity="5.5448102951049805e-01" nType="-99"/>
          </Node>
          <Node pos="r" depth="2" NCoef="0" IVar="5" Cut="9.0785945312500000e+04" cType="1" res="1.4521470665931702e-01" rms="3.2827252149581909e-01" purity="8.4286874532699585e-01" nType="0">
            <Node pos="l" depth="3" NCoef="0" IVar="-1" Cut="0.0000000000000000e+00" cType="1" res="2.0188589114695787e-03" rms="2.9923748970031738e-01" purity="8.8985890150070190e-01" nType="-99"/>
            <Node pos="r" depth="3" NCoef="0" IVar="-1" Cut="0.0000000000000000e+00" cType="1" res="8.5588090587407351e-04" rms="3.6579841375350952e-01" purity="7.4320340156555176e-01" nType="-99"/>
          </Node>
        </Node>
        <Node pos="r" depth="1" NCoef="0" IVar="1" Cut="1.1172492187500000e+05" cType="1" res="1.7110373079776764e-01" rms="1.8963591754436493e-01" purity="9.5958858728408813e-01" nType="0">
          <Node pos="l" depth="2" NCoef="0" IVar="3" Cut="9.3469039062500000e+04" cType="1" res="1.4942598342895508e-01" rms="2.3673473298549652e-01" purity="9.3478357791900635e-01" nType="0">
            <Node pos="l" depth="3" NCoef="0" IVar="-1" Cut="0.0000000000000000e+00" cType="1" res="9.6581812249496579e-04" rms="3.4970909357070923e-01" purity="8.4449970722198486e-01" nType="-99"/>
            <Node pos="r" depth="3" NCoef="0" IVar="-1" Cut="0.0000000000000000e+00" cType="1" res="1.9454254070296884e-03" rms="1.6284310817718506e-01" purity="9.7232568264007568e-01" nType="-99"/>
          </Node>
          <Node pos="r" depth="2" NCoef="0" IVar="-1" Cut="0.0000000000000000e+00" cType="1" res="2.2734971717000008e-03" rms="1.0607473552227020e-01" purity="9.8863500356674194e-01" nType="-99"/>
        </Node>
      </Node>
    </BinaryTree>
    <BinaryTree type="DecisionTree" boostWeight="1.0000000000000000e+00" itree="297">
      <Node pos="s" depth="0" NCoef="0" IVar="3" Cut="5.4259988281250000e+04" cType="1" res="9.1416202485561371e-02" rms="2.8094586730003357e-01" purity="5.0613117218017578e-01" nType="0">
        <Node pos="l" depth="1" NCoef="0" IVar="3" Cut="3.6206812500000000e+04" cType="1" res="4.3132666498422623e-02" rms="3.0373626947402954e-01" purity="2.3647861182689667e-01" nType="0">
          <Node pos="l" depth="2" NCoef="0" IVar="5" Cut="9.2600640625000000e+04" cType="1" res="1.9900083541870117e-02" rms="2.7029243111610413e-01" purity="1.2858024239540100e-01" nType="0">
            <Node pos="l" depth="3" NCoef="0" IVar="-1" Cut="0.0000000000000000e+00" cType="1" res="2.7511507505550981e-04" rms="2.4386957287788391e-01" purity="1.0584318637847900e-01" nType="-99"/>
            <Node pos="r" depth="3" NCoef="0" IVar="-1" Cut="0.0000000000000000e+00" cType="1" res="4.5915599912405014e-03" rms="3.4589487314224243e-01" purity="2.1547023952007294e-01" nType="-99"/>
          </Node>
          <Node pos="r" depth="2" NCoef="0" IVar="1" Cut="7.8728429687500000e+04" cType="1" res="1.2060923129320145e-01" rms="3.8532340526580811e-01" purity="5.9630054235458374e-01" nType="0">
            <Node pos="l" depth="3" NCoef="0" IVar="-1" Cut="0.0000000000000000e+00" cType="1" res="2.4477457627654076e-03" rms="4.1181704401969910e-01" purity="7.8468888998031616e-01" nType="-99"/>
            <Node pos="r" depth="3" NCoef="0" IVar="-1" Cut="0.0000000000000000e+00" cType="1" res="3.8092135218903422e-04" rms="3.4520080685615540e-01" purity="4.9821114540100098e-01" nType="-99"/>
          </Node>
        </Node>
        <Node pos="r" depth="1" NCoef="0" IVar="0" Cut="3.8095238804817200e-01" cType="1" res="1.6832263767719269e-01" rms="2.1926759183406830e-01" purity="9.3563622236251831e-01" nType="0">
          <Node pos="l" depth="2" NCoef="0" IVar="2" Cut="2.2357335937500000e+05" cType="1" res="0.0000000000000000e+00" rms="0.0000000000000000e+00" purity="9.4752484560012817e-01" nType="0">
            <Node pos="l" depth="3" NCoef="0" IVar="-1" Cut="0.0000000000000000e+00" cType="1" res="2.0753347780555487e-03" rms="2.8289970755577087e-01" purity="8.7197113037109375e-01" nType="-99"/>
            <Node pos="r" depth="3" NCoef="0" IVar="-1" Cut="0.0000000000000000e+00" cType="1" res="1.6821989556774497e-03" rms="1.7147570848464966e-01" purity="9.6222054958343506e-01" nType="-99"/>
          </Node>
          <Node pos="r" depth="2" NCoef="0" IVar="3" Cut="1.0583268750000000e+05" cType="1" res="1.5442758798599243e-01" rms="2.3055890202522278e-01" purity="9.2891824245452881e-01" nType="0">
            <Node pos="l" depth="3" NCoef="0" IVar="-1" Cut="0.0000000000000000e+00" cType="1" res="1.2037581764161587e-03" rms="3.1737115979194641e-01" purity="8.5539489984512329e-01" nType="-99"/>
            <Node pos="r" depth="3" NCoef="0" IVar="-1" Cut="0.0000000000000000e+00" cType="1" res="1.9803412724286318e-03" rms="1.1978531628847122e-01" purity="9.8537504673004150e-01" nType="-99"/>
          </Node>
        </Node>
      </Node>
    </BinaryTree>
    <BinaryTree type="DecisionTree" boostWeight="1.0000000000000000e+00" itree="298">
      <Node pos="s" depth="0" NCoef="0" IVar="3" Cut="6.8736484375000000e+04" cType="1" res="8.3220832049846649e-02" rms="2.7892223000526428e-01" purity="4.9662306904792786e-01" nType="0">
        <Node pos="l" depth="1" NCoef="0" IVar="3" Cut="1.9678308593750000e+04" cType="1" res="4.3512124568223953e-02" rms="3.0100545287132263e-01" purity="2.9261770844459534e-01" nType="0">
          <Node pos="l" depth="2" NCoef="0" IVar="0" Cut="2.2857143878936768e+00" cType="1" res="-6.2028164975345135e-03" rms="1.9059032201766968e-01" purity="6.7807242274284363e-02" nType="0">
            <Node pos="l" depth="3" NCoef="0" IVar="-1" Cut="0.0000000000000000e+00" cType="1" res="-2.1572429686784744e-03" rms="1.7344284057617188e-01" purity="5.6966595351696014e-02" nType="-99"/>
            <Node pos="r" depth="3" NCoef="0" IVar="-1" Cut="0.0000000000000000e+00" cType="1" res="7.9519497230648994e-03" rms="3.9513704180717468e-01" purity="3.4219387173652649e-01" nType="-99"/>
          </Node>
          <Node pos="r" depth="2" NCoef="0" IVar="1" Cut="1.7491068750000000e+05" cType="1" res="7.7383153140544891e-02" rms="3.5320547223091125e-01" purity="4.4578218460083008e-01" nType="0">
            <Node pos="l" depth="3" NCoef="0" IVar="-1" Cut="0.0000000000000000e+00" cType="1" res="1.3874210417270660e-03" rms="3.6396756768226624e-01" purity="3.6818063259124756e-01" nType="-99"/>
            <Node pos="r" depth="3" NCoef="0" IVar="-1" Cut="0.0000000000000000e+00" cType="1" res="2.1901901345700026e-03" rms="2.5959098339080811e-01" purity="9.2493504285812378e-01" nType="-99"/>
          </Node>
        </Node>
        <Node pos="r" depth="1" NCoef="0" IVar="1" Cut="1.2541114062500000e+05" cType="1" res="1.7325167357921600e-01" rms="1.9256344437599182e-01" purity="9.5916074514389038e-01" nType="0">
          <Node pos="l" depth="2" NCoef="0" IVar="3" Cut="9.4349718750000000e+04" cType="1" res="1.5715794265270233e-01" rms="2.3662649095058441e-01" purity="9.3697822093963623e-01" nType="0">
            <Node pos="l" depth="3" NCoef="0" IVar="-1" Cut="0.0000000000000000e+00" cType="1" res="9.8446512129157782e-04" rms="3.3570003509521484e-01" purity="8.6734288930892944e-01" nType="-99"/>
            <Node pos="r" depth="3" NCoef="0" IVar="-1" Cut="0.0000000000000000e+00" cType="1" res="2.1577551960945129e-03" rms="1.5861205756664276e-01" purity="9.7387993335723877e-01" nType="-99"/>
          </Node>
          <Node pos="r" depth="2" NCoef="0" IVar="-1" Cut="0.0000000000000000e+00" cType="1" res="2.3774998262524605e-03" rms="1.0218615084886551e-01" purity="9.8942703008651733e-01" nType="-99"/>
        </Node>
      </Node>
    </BinaryTree>
    <BinaryTree type="DecisionTree" boostWeight="1.0000000000000000e+00" itree="299">
      <Node pos="s" depth="0" NCoef="0" IVar="3" Cut="6.8798242187500000e+04" cType="1" res="9.0783193707466125e-02" rms="2.8539878129959106e-01" purity="5.0858038663864136e-01" nType="0">
        <Node pos="l" depth="1" NCoef="0" IVar="3" Cut="4.5899042968750000e+04" cType="1" res="5.4177854210138321e-02" rms="3.1137484312057495e-01" purity="2.9954344034194946e-01" nType="0">
          <Node pos="l" depth="2" NCoef="0" IVar="2" Cut="4.0730590625000000e+05" cType="1" res="3.0411010608077049e-02" rms="2.9498952627182007e-01" purity="1.7985199391841888e-01" nType="0">
            <Node pos="l" depth="3" NCoef="0" IVar="-1" Cut="0.0000000000000000e+00" cType="1" res="1.2347357114776969e-03" rms="2.8416752815246582e-01" purity="1.3203580677509308e-01" nType="-99"/>
            <Node pos="r" depth="3" NCoef="0" IVar="-1" Cut="0.0000000000000000e+00" cType="1" res="1.8664509989321232e-03" rms="3.4309437870979309e-01" purity="4.6615669131278992e-01" nType="-99"/>
          </Node>
          <Node pos="r" depth="2" NCoef="0" IVar="5" Cut="8.9393156250000000e+04" cType="1" res="1.4700831472873688e-01" rms="3.5346463322639465e-01" purity="7.6704394817352295e-01" nType="0">
            <Node pos="l" depth="3" NCoef="0" IVar="-1" Cut="0.0000000000000000e+00" cType="1" res="1.2733109761029482e-03" rms="3.1348085403442383e-01" purity="8.6522966623306274e-01" nType="-99"/>
            <Node pos="r" depth="3" NCoef="0" IVar="-1" Cut="0.0000000000000000e+00" cType="1" res="1.0183573467656970e-03" rms="3.6455854773521423e-01" purity="7.0767194032669067e-01" nType="-99"/>
          </Node>
        </Node>
        <Node pos="r" depth="1" NCoef="0" IVar="4" Cut="2.8524009375000000e+05" cType="1" res="1.6920374333858490e-01" rms="1.9804570078849792e-01" purity="9.5640546083450317e-01" nType="0">
          <Node pos="l" depth="2" NCoef="0" IVar="3" Cut="8.6924976562500000e+04" cType="1" res="9.5439434051513672e-02" rms="3.2108077406883240e-01" purity="8.7356966733932495e-01" nType="0">
            <Node pos="l" depth="3" NCoef="0" IVar="-1" Cut="0.0000000000000000e+00" cType="1" res="1.9156299822498113e-04" rms="4.1891050338745117e-01" purity="7.5690573453903198e-01" nType="-99"/>
            <Node pos="r" depth="3" NCoef="0" IVar="-1" Cut="0.0000000000000000e+00" cType="1" res="1.9448688253760338e-03" rms="2.3739270865917206e-01" purity="9.3910276889801025e-01" nType="-99"/>
          </Node>
          <Node pos="r" depth="2" NCoef="0" IVar="1" Cut="9.6669984375000000e+04" cType="1" res="1.8616381287574768e-01" rms="1.5165121853351593e-01" purity="9.7545123100280762e-01" nType="0">
            <Node pos="l" depth="3" NCoef="0" IVar="-1" Cut="0.0000000000000000e+00" cType="1" res="1.8058654386550188e-03" rms="2.1272411942481995e-01" purity="9.5015591382980347e-01" nType="-99"/>
            <Node pos="r" depth="3" NCoef="0" IVar="-1" Cut="0.0000000000000000e+00" cType="1" res="1.8173295538872480e-03" rms="1.0477811098098755e-01" purity="9.8881095647811890e-01" nType="-99"/>
          </Node>
        </Node>
      </Node>
    </BinaryTree>
    <BinaryTree type="DecisionTree" boostWeight="1.0000000000000000e+00" itree="300">
      <Node pos="s" depth="0" NCoef="0" IVar="1" Cut="1.0034389062500000e+05" cType="1" res="8.2829430699348450e-02" rms="2.8191229701042175e-01" purity="4.9044829607009888e-01" nType="0">
        <Node pos="l" depth="1" NCoef="0" IVar="1" Cut="7.5095820312500000e+04" cType="1" res="3.1074490398168564e-02" rms="2.7273219823837280e-01" purity="2.9742410778999329e-01" nType="0">
          <Node pos="l" depth="2" NCoef="0" IVar="1" Cut="4.2043113281250000e+04" cType="1" res="1.3443450629711151e-01" rms="3.3843311667442322e-01" purity="6.4633435010910034e-01" nType="0">
            <Node pos="l" depth="3" NCoef="0" IVar="-1" Cut="0.0000000000000000e+00" cType="1" res="3.5479117650538683e-04" rms="2.9433771967887878e-01" purity="4.7747349739074707e-01" nType="-99"/>
            <Node pos="r" depth="3" NCoef="0" IVar="-1" Cut="0.0000000000000000e+00" cType="1" res="2.2943483199924231e-03" rms="3.4327995777130127e-01" purity="7.3888218402862549e-01" nType="-99"/>
          </Node>
          <Node pos="r" depth="2" NCoef="0" IVar="3" Cut="1.1181869531250000e+05" cType="1" res="-1.7848990857601166e-02" rms="2.1892105042934418e-01" purity="1.3227407634258270e-01" nType="0">
            <Node pos="l" depth="3" NCoef="0" IVar="-1" Cut="0.0000000000000000e+00" cType="1" res="-3.2556885853409767e-03" rms="2.1611627936363220e-01" purity="8.8508494198322296e-02" nType="-99"/>
            <Node pos="r" depth="3" NCoef="0" IVar="-1" Cut="0.0000000000000000e+00" cType="1" res="1.7506255535408854e-03" rms="1.8860667943954468e-01" purity="9.6200335025787354e-01" nType="-99"/>
          </Node>
        </Node>
        <Node pos="r" depth="1" NCoef="0" IVar="3" Cut="3.7473675781250000e+04" cType="1" res="1.7802208662033081e-01" rms="2.7358976006507874e-01" purity="8.4547692537307739e-01" nType="0">
          <Node pos="l" depth="2" NCoef="0" IVar="5" Cut="8.8753656250000000e+04" cType="1" res="9.1820739209651947e-02" rms="4.0707781910896301e-01" purity="5.1485216617584229e-01" nType="0">
            <Node pos="l" depth="3" NCoef="0" IVar="-1" Cut="0.0000000000000000e+00" cType="1" res="2.0727005321532488e-03" rms="3.8433468341827393e-01" purity="6.7437362670898438e-01" nType="-99"/>
            <Node pos="r" depth="3" NCoef="0" IVar="-1" Cut="0.0000000000000000e+00" cType="1" res="1.0663054417818785e-03" rms="4.0936499834060669e-01" purity="4.3345585465431213e-01" nType="-99"/>
          </Node>
          <Node pos="r" depth="2" NCoef="0" IVar="4" Cut="3.9680581250000000e+05" cType="1" res="2.0677925646305084e-01" rms="2.0306113362312317e-01" purity="9.5577496290206909e-01" nType="0">
            <Node pos="l" depth="3" NCoef="0" IVar="-1" Cut="0.0000000000000000e+00" cType="1" res="1.2332724872976542e-03" rms="2.2177919745445251e-01" purity="9.4746458530426025e-01" nType="-99"/>
            <Node pos="r" depth="3" NCoef="0" IVar="-1" Cut="0.0000000000000000e+00" cType="1" res="2.1635193843394518e-03" rms="1.8016463518142700e-01" purity="9.6355831623077393e-01" nType="-99"/>
          </Node>
        </Node>
      </Node>
    </BinaryTree>
    <BinaryTree type="DecisionTree" boostWeight="1.0000000000000000e+00" itree="301">
      <Node pos="s" depth="0" NCoef="0" IVar="1" Cut="1.0036485156250000e+05" cType="1" res="8.2443013787269592e-02" rms="2.8355243802070618e-01" purity="4.9500328302383423e-01" nType="0">
        <Node pos="l" depth="1" NCoef="0" IVar="3" Cut="6.5456371093750000e+04" cType="1" res="3.4538421779870987e-02" rms="2.7341988682746887e-01" purity="3.1523957848548889e-01" nType="0">
          <Node pos="l" depth="2" NCoef="0" IVar="5" Cut="8.4994187500000000e+04" cType="1" res="8.2599581219255924e-04" rms="2.7011871337890625e-01" purity="1.2808145582675934e-01" nType="0">
            <Node pos="l" depth="3" NCoef="0" IVar="-1" Cut="0.0000000000000000e+00" cType="1" res="3.6326302215456963e-03" rms="4.5396012067794800e-01" purity="5.1123303174972534e-01" nType="-99"/>
            <Node pos="r" depth="3" NCoef="0" IVar="-1" Cut="0.0000000000000000e+00" cType="1" res="-5.4662162438035011e-04" rms="2.5772753357887268e-01" purity="1.1437302827835083e-01" nType="-99"/>
          </Node>
          <Node pos="r" depth="2" NCoef="0" IVar="1" Cut="8.3655953125000000e+04" cType="1" res="1.4397919178009033e-01" rms="2.5478723645210266e-01" purity="9.2281162738800049e-01" nType="0">
            <Node pos="l" depth="3" NCoef="0" IVar="-1" Cut="0.0000000000000000e+00" cType="1" res="1.8673605518415570e-03" rms="2.0166689157485962e-01" purity="9.5620858669281006e-01" nType="-99"/>
            <Node pos="r" depth="3" NCoef="0" IVar="-1" Cut="0.0000000000000000e+00" cType="1" res="7.8085355926305056e-04" rms="4.0674772858619690e-01" purity="7.7414774894714355e-01" nType="-99"/>
          </Node>
        </Node>
        <Node pos="r" depth="1" NCoef="0" IVar="3" Cut="5.4305199218750000e+04" cType="1" res="1.7411546409130096e-01" rms="2.8001141548156738e-01" purity="8.3900749683380127e-01" nType="0">
          <Node pos="l" depth="2" NCoef="0" IVar="3" Cut="2.0791927734375000e+04" cType="1" res="1.5241216123104095e-01" rms="3.8236105442047119e-01" purity="6.7344969511032104e-01" nType="0">
            <Node pos="l" depth="3" NCoef="0" IVar="-1" Cut="0.0000000000000000e+00" cType="1" res="1.3954206369817257e-03" rms="4.2159861326217651e-01" purity="3.8780805468559265e-01" nType="-99"/>
            <Node pos="r" depth="3" NCoef="0" IVar="-1" Cut="0.0000000000000000e+00" cType="1" res="1.2384535511955619e-03" rms="3.5680907964706421e-01" purity="7.9667794704437256e-01" nType="-99"/>
          </Node>
          <Node pos="r" depth="2" NCoef="0" IVar="0" Cut="1.1428571939468384e+00" cType="1" res="1.9245944917201996e-01" rms="1.4272892475128174e-01" purity="9.7893959283828735e-01" nType="0">
            <Node pos="l" depth="3" NCoef="0" IVar="-1" Cut="0.0000000000000000e+00" cType="1" res="1.8078021239489317e-03" rms="1.2057644873857498e-01" purity="9.8536854982376099e-01" nType="-99"/>
            <Node pos="r" depth="3" NCoef="0" IVar="-1" Cut="0.0000000000000000e+00" cType="1" res="2.3333926219493151e-03" rms="1.8267022073268890e-01" purity="9.6392911672592163e-01" nType="-99"/>
          </Node>
        </Node>
      </Node>
    </BinaryTree>
    <BinaryTree type="DecisionTree" boostWeight="1.0000000000000000e+00" itree="302">
      <Node pos="s" depth="0" NCoef="0" IVar="1" Cut="1.0036485156250000e+05" cType="1" res="8.7154000997543335e-02" rms="2.8044852614402771e-01" purity="5.0614339113235474e-01" nType="0">
        <Node pos="l" depth="1" NCoef="0" IVar="1" Cut="7.9325242187500000e+04" cType="1" res="4.2216785252094269e-02" rms="2.7987310290336609e-01" purity="3.2294827699661255e-01" nType="0">
          <Node pos="l" depth="2" NCoef="0" IVar="3" Cut="2.3868806640625000e+04" cType="1" res="1.2324497103691101e-01" rms="3.3085069060325623e-01" purity="6.3269233703613281e-01" nType="0">
            <Node pos="l" depth="3" NCoef="0" IVar="-1" Cut="0.0000000000000000e+00" cType="1" res="1.1791028082370758e-03" rms="3.0498075485229492e-01" purity="1.1562157422304153e-01" nType="-99"/>
            <Node pos="r" depth="3" NCoef="0" IVar="-1" Cut="0.0000000000000000e+00" cType="1" res="1.8936630804091692e-03" rms="3.3047291636466980e-01" purity="7.9623961448669434e-01" nType="-99"/>
          </Node>
          <Node pos="r" depth="2" NCoef="0" IVar="3" Cut="5.7862910156250000e+04" cType="1" res="-4.5818225480616093e-03" rms="2.3316417634487152e-01" purity="1.4405259490013123e-01" nType="0">
            <Node pos="l" depth="3" NCoef="0" IVar="-1" Cut="0.0000000000000000e+00" cType="1" res="-7.8929755836725235e-03" rms="1.9738419353961945e-01" purity="3.8976792246103287e-02" nType="-99"/>
            <Node pos="r" depth="3" NCoef="0" IVar="-1" Cut="0.0000000000000000e+00" cType="1" res="1.1283840285614133e-03" rms="3.6990961432456970e-01" purity="7.9820466041564941e-01" nType="-99"/>
          </Node>
        </Node>
        <Node pos="r" depth="1" NCoef="0" IVar="4" Cut="2.7830962500000000e+05" cType="1" res="1.7092052102088928e-01" rms="2.6167032122612000e-01" purity="8.4763365983963013e-01" nType="0">
          <Node pos="l" depth="2" NCoef="0" IVar="3" Cut="3.9340226562500000e+04" cType="1" res="1.2956783175468445e-01" rms="2.9804870486259460e-01" purity="6.9244992733001709e-01" nType="0">
            <Node pos="l" depth="3" NCoef="0" IVar="-1" Cut="0.0000000000000000e+00" cType="1" res="6.7623215727508068e-04" rms="3.5807630419731140e-01" purity="3.5673475265502930e-01" nType="-99"/>
            <Node pos="r" depth="3" NCoef="0" IVar="-1" Cut="0.0000000000000000e+00" cType="1" res="1.8823973368853331e-03" rms="2.1496589481830597e-01" purity="9.4211000204086304e-01" nType="-99"/>
          </Node>
          <Node pos="r" depth="2" NCoef="0" IVar="4" Cut="3.6841246875000000e+05" cType="1" res="1.8687736988067627e-01" rms="2.4433557689189911e-01" purity="9.0751475095748901e-01" nType="0">
            <Node pos="l" depth="3" NCoef="0" IVar="-1" Cut="0.0000000000000000e+00" cType="1" res="1.2426042230799794e-03" rms="2.8430089354515076e-01" purity="8.6699897050857544e-01" nType="-99"/>
            <Node pos="r" depth="3" NCoef="0" IVar="-1" Cut="0.0000000000000000e+00" cType="1" res="1.7114119837060571e-03" rms="2.2522553801536560e-01" purity="9.2358934879302979e-01" nType="-99"/>
          </Node>
        </Node>
      </Node>
    </BinaryTree>
    <BinaryTree type="DecisionTree" boostWeight="1.0000000000000000e+00" itree="303">
      <Node pos="s" depth="0" NCoef="0" IVar="1" Cut="1.0037520312500000e+05" cType="1" res="8.1780470907688141e-02" rms="2.7651658654212952e-01" purity="4.9729588627815247e-01" nType="0">
        <Node pos="l" depth="1" NCoef="0" IVar="1" Cut="8.3547617187500000e+04" cType="1" res="3.3108361065387726e-02" rms="2.7188235521316528e-01" purity="3.0234709382057190e-01" nType="0">
          <Node pos="l" depth="2" NCoef="0" IVar="3" Cut="2.8265906250000000e+04" cType="1" res="1.1440447717905045e-01" rms="3.2666340470314026e-01" purity="5.8489453792572021e-01" nType="0">
            <Node pos="l" depth="3" NCoef="0" IVar="-1" Cut="0.0000000000000000e+00" cType="1" res="2.3633677046746016e-03" rms="3.0338853597640991e-01" purity="1.1547487229108810e-01" nType="-99"/>
            <Node pos="r" depth="3" NCoef="0" IVar="-1" Cut="0.0000000000000000e+00" cType="1" res="1.8436766695231199e-03" rms="3.2792207598686218e-01" purity="8.0147588253021240e-01" nType="-99"/>
          </Node>
          <Node pos="r" depth="2" NCoef="0" IVar="5" Cut="9.0600007812500000e+04" cType="1" res="-2.8172461315989494e-02" rms="2.0116293430328369e-01" purity="8.9363500475883484e-02" nType="0">
            <Node pos="l" depth="3" NCoef="0" IVar="-1" Cut="0.0000000000000000e+00" cType="1" res="6.1182759236544371e-04" rms="2.4560604989528656e-01" purity="1.6295787692070007e-01" nType="-99"/>
            <Node pos="r" depth="3" NCoef="0" IVar="-1" Cut="0.0000000000000000e+00" cType="1" res="-1.5599391423165798e-02" rms="1.5504816174507141e-01" purity="3.5310626029968262e-02" nType="-99"/>
          </Node>
        </Node>
        <Node pos="r" depth="1" NCoef="0" IVar="5" Cut="9.4500453125000000e+04" cType="1" res="1.7034186422824860e-01" rms="2.6254916191101074e-01" purity="8.5201531648635864e-01" nType="0">
          <Node pos="l" depth="2" NCoef="0" IVar="3" Cut="4.2906671875000000e+04" cType="1" res="1.5711723268032074e-01" rms="2.6304709911346436e-01" purity="8.4295946359634399e-01" nType="0">
            <Node pos="l" depth="3" NCoef="0" IVar="-1" Cut="0.0000000000000000e+00" cType="1" res="1.3424047501757741e-03" rms="3.9777353405952454e-01" purity="5.4568880796432495e-01" nType="-99"/>
            <Node pos="r" depth="3" NCoef="0" IVar="-1" Cut="0.0000000000000000e+00" cType="1" res="1.8388243624940515e-03" rms="1.6613788902759552e-01" purity="9.6888381242752075e-01" nType="-99"/>
          </Node>
          <Node pos="r" depth="2" NCoef="0" IVar="-1" Cut="0.0000000000000000e+00" cType="1" res="1.0146833956241608e-03" rms="2.4462911486625671e-01" purity="9.0696489810943604e-01" nType="-99"/>
        </Node>
      </Node>
    </BinaryTree>
    <BinaryTree type="DecisionTree" boostWeight="1.0000000000000000e+00" itree="304">
      <Node pos="s" depth="0" NCoef="0" IVar="3" Cut="6.8736484375000000e+04" cType="1" res="8.8335625827312469e-02" rms="2.8237923979759216e-01" purity="5.0076675415039062e-01" nType="0">
        <Node pos="l" depth="1" NCoef="0" IVar="1" Cut="1.4545873437500000e+05" cType="1" res="5.5218271911144257e-02" rms="3.0273985862731934e-01" purity="3.1875842809677124e-01" nType="0">
          <Node pos="l" depth="2" NCoef="0" IVar="1" Cut="1.1360833593750000e+05" cType="1" res="3.3294357359409332e-02" rms="2.9822814464569092e-01" purity="2.1426956355571747e-01" nType="0">
            <Node pos="l" depth="3" NCoef="0" IVar="-1" Cut="0.0000000000000000e+00" cType="1" res="7.6195213478058577e-04" rms="2.8163820505142212e-01" purity="1.6748051345348358e-01" nType="-99"/>
            <Node pos="r" depth="3" NCoef="0" IVar="-1" Cut="0.0000000000000000e+00" cType="1" res="2.3682885803282261e-03" rms="3.8948088884353638e-01" purity="7.4415165185928345e-01" nType="-99"/>
          </Node>
          <Node pos="r" depth="2" NCoef="0" IVar="3" Cut="2.6448558593750000e+04" cType="1" res="1.7281942069530487e-01" rms="2.9964515566825867e-01" purity="8.7924277782440186e-01" nType="0">
            <Node pos="l" depth="3" NCoef="0" IVar="-1" Cut="0.0000000000000000e+00" cType="1" res="1.8711338052526116e-03" rms="4.0641304850578308e-01" purity="7.4137121438980103e-01" nType="-99"/>
            <Node pos="r" depth="3" NCoef="0" IVar="-1" Cut="0.0000000000000000e+00" cType="1" res="2.1383960265666246e-03" rms="2.3661333322525024e-01" purity="9.4021004438400269e-01" nType="-99"/>
          </Node>
        </Node>
        <Node pos="r" depth="1" NCoef="0" IVar="1" Cut="6.8769367187500000e+04" cType="1" res="1.7129288613796234e-01" rms="2.0066484808921814e-01" purity="9.5668822526931763e-01" nType="0">
          <Node pos="l" depth="2" NCoef="0" IVar="-1" Cut="0.0000000000000000e+00" cType="1" res="1.7384162638336420e-03" rms="2.3207037150859833e-01" purity="9.4257098436355591e-01" nType="-99"/>
          <Node pos="r" depth="2" NCoef="0" IVar="0" Cut="2.2857143878936768e+00" cType="1" res="1.8026456236839294e-01" rms="1.8958704173564911e-01" purity="9.6080893278121948e-01" nType="0">
            <Node pos="l" depth="3" NCoef="0" IVar="-1" Cut="0.0000000000000000e+00" cType="1" res="1.9851687829941511e-03" rms="1.7929007112979889e-01" purity="9.6533131599426270e-01" nType="-99"/>
            <Node pos="r" depth="3" NCoef="0" IVar="-1" Cut="0.0000000000000000e+00" cType="1" res="1.7701385077089071e-03" rms="2.3085491359233856e-01" purity="9.3889129161834717e-01" nType="-99"/>
          </Node>
        </Node>
      </Node>
    </BinaryTree>
    <BinaryTree type="DecisionTree" boostWeight="1.0000000000000000e+00" itree="305">
      <Node pos="s" depth="0" NCoef="0" IVar="3" Cut="5.4259988281250000e+04" cType="1" res="8.4356196224689484e-02" rms="2.8311240673065186e-01" purity="5.0005251169204712e-01" nType="0">
        <Node pos="l" depth="1" NCoef="0" IVar="2" Cut="3.7128590625000000e+05" cType="1" res="4.2514201253652573e-02" rms="3.0135622620582581e-01" purity="2.4197968840599060e-01" nType="0">
          <Node pos="l" depth="2" NCoef="0" IVar="2" Cut="3.5869065625000000e+05" cType="1" res="1.6335494816303253e-02" rms="2.7900567650794983e-01" purity="1.5665760636329651e-01" nType="0">
            <Node pos="l" depth="3" NCoef="0" IVar="-1" Cut="0.0000000000000000e+00" cType="1" res="6.7862775176763535e-04" rms="2.7080455422401428e-01" purity="1.4385466277599335e-01" nType="-99"/>
            <Node pos="r" depth="3" NCoef="0" IVar="-1" Cut="0.0000000000000000e+00" cType="1" res="3.3558353316038847e-03" rms="4.1622382402420044e-01" purity="5.3467124700546265e-01" nType="-99"/>
          </Node>
          <Node pos="r" depth="2" NCoef="0" IVar="3" Cut="1.8154304687500000e+04" cType="1" res="1.3684441149234772e-01" rms="3.5522958636283875e-01" purity="5.4942232370376587e-01" nType="0">
            <Node pos="l" depth="3" NCoef="0" IVar="-1" Cut="0.0000000000000000e+00" cType="1" res="2.9252775129862130e-04" rms="2.7994328737258911e-01" purity="2.2849315404891968e-01" nType="-99"/>
            <Node pos="r" depth="3" NCoef="0" IVar="-1" Cut="0.0000000000000000e+00" cType="1" res="1.3017494929954410e-03" rms="3.6676684021949768e-01" purity="6.4691323041915894e-01" nType="-99"/>
          </Node>
        </Node>
        <Node pos="r" depth="1" NCoef="0" IVar="1" Cut="1.1141539843750000e+05" cType="1" res="1.5329021215438843e-01" rms="2.3441280424594879e-01" purity="9.2522329092025757e-01" nType="0">
          <Node pos="l" depth="2" NCoef="0" IVar="3" Cut="8.9435734375000000e+04" cType="1" res="1.1563932895660400e-01" rms="2.9764139652252197e-01" purity="8.7141656875610352e-01" nType="0">
            <Node pos="l" depth="3" NCoef="0" IVar="-1" Cut="0.0000000000000000e+00" cType="1" res="3.0861201230436563e-04" rms="4.2627075314521790e-01" purity="7.0201611518859863e-01" nType="-99"/>
            <Node pos="r" depth="3" NCoef="0" IVar="-1" Cut="0.0000000000000000e+00" cType="1" res="2.2750927601009607e-03" rms="1.5270081162452698e-01" purity="9.7565227746963501e-01" nType="-99"/>
          </Node>
          <Node pos="r" depth="2" NCoef="0" IVar="-1" Cut="0.0000000000000000e+00" cType="1" res="1.8399065593257546e-03" rms="1.1349566280841827e-01" purity="9.8692685365676880e-01" nType="-99"/>
        </Node>
      </Node>
    </BinaryTree>
    <BinaryTree type="DecisionTree" boostWeight="1.0000000000000000e+00" itree="306">
      <Node pos="s" depth="0" NCoef="0" IVar="1" Cut="1.0034835937500000e+05" cType="1" res="7.3100022971630096e-02" rms="2.7949920296669006e-01" purity="4.7285541892051697e-01" nType="0">
        <Node pos="l" depth="1" NCoef="0" IVar="3" Cut="6.5406480468750000e+04" cType="1" res="2.2251501679420471e-02" rms="2.6862534880638123e-01" purity="2.7556669712066650e-01" nType="0">
          <Node pos="l" depth="2" NCoef="0" IVar="1" Cut="7.5105414062500000e+04" cType="1" res="-4.8928302712738514e-03" rms="2.6009398698806763e-01" purity="1.1890789866447449e-01" nType="0">
            <Node pos="l" depth="3" NCoef="0" IVar="-1" Cut="0.0000000000000000e+00" cType="1" res="1.5120815951377153e-03" rms="3.8967183232307434e-01" purity="3.6566889286041260e-01" nType="-99"/>
            <Node pos="r" depth="3" NCoef="0" IVar="-1" Cut="0.0000000000000000e+00" cType="1" res="-5.4084830917418003e-03" rms="2.0612917840480804e-01" purity="4.8971958458423615e-02" nType="-99"/>
          </Node>
          <Node pos="r" depth="2" NCoef="0" IVar="1" Cut="8.7767367187500000e+04" cType="1" res="1.3207845389842987e-01" rms="2.7453023195266724e-01" purity="9.0941399335861206e-01" nType="0">
            <Node pos="l" depth="3" NCoef="0" IVar="-1" Cut="0.0000000000000000e+00" cType="1" res="1.9858656451106071e-03" rms="2.3658215999603271e-01" purity="9.3919324874877930e-01" nType="-99"/>
            <Node pos="r" depth="3" NCoef="0" IVar="-1" Cut="0.0000000000000000e+00" cType="1" res="-2.0483018306549639e-04" rms="4.3001800775527954e-01" purity="7.0381122827529907e-01" nType="-99"/>
          </Node>
        </Node>
        <Node pos="r" depth="1" NCoef="0" IVar="3" Cut="4.8873500000000000e+04" cType="1" res="1.6924612224102020e-01" rms="2.7432939410209656e-01" purity="8.4589552879333496e-01" nType="0">
          <Node pos="l" depth="2" NCoef="0" IVar="3" Cut="2.1067937500000000e+04" cType="1" res="1.1978613585233688e-01" rms="4.0784224867820740e-01" purity="5.9370654821395874e-01" nType="0">
            <Node pos="l" depth="3" NCoef="0" IVar="-1" Cut="0.0000000000000000e+00" cType="1" res="5.8873964007943869e-04" rms="3.7483081221580505e-01" purity="3.9052474498748779e-01" nType="-99"/>
            <Node pos="r" depth="3" NCoef="0" IVar="-1" Cut="0.0000000000000000e+00" cType="1" res="1.4554312219843268e-03" rms="4.2024376988410950e-01" purity="7.2509104013442993e-01" nType="-99"/>
          </Node>
          <Node pos="r" depth="2" NCoef="0" IVar="5" Cut="8.9624109375000000e+04" cType="1" res="1.9385813176631927e-01" rms="1.6766472160816193e-01" purity="9.7138851881027222e-01" nType="0">
            <Node pos="l" depth="3" NCoef="0" IVar="-1" Cut="0.0000000000000000e+00" cType="1" res="1.9137598574161530e-03" rms="2.0237314701080322e-01" purity="9.5593863725662231e-01" nType="-99"/>
            <Node pos="r" depth="3" NCoef="0" IVar="-1" Cut="0.0000000000000000e+00" cType="1" res="1.2546395882964134e-03" rms="1.4823620021343231e-01" purity="9.7841817140579224e-01" nType="-99"/>
          </Node>
        </Node>
      </Node>
    </BinaryTree>
    <BinaryTree type="DecisionTree" boostWeight="1.0000000000000000e+00" itree="307">
      <Node pos="s" depth="0" NCoef="0" IVar="3" Cut="4.4570152343750000e+04" cType="1" res="8.2576684653759003e-02" rms="2.7244639396667480e-01" purity="4.9765467643737793e-01" nType="0">
        <Node pos="l" depth="1" NCoef="0" IVar="1" Cut="1.5592215625000000e+05" cType="1" res="2.8295824304223061e-02" rms="2.7498811483383179e-01" purity="1.8666996061801910e-01" nType="0">
          <Node pos="l" depth="2" NCoef="0" IVar="1" Cut="7.3416789062500000e+04" cType="1" res="1.5730964019894600e-02" rms="2.5969466567039490e-01" purity="1.2346973270177841e-01" nType="0">
            <Node pos="l" depth="3" NCoef="0" IVar="-1" Cut="0.0000000000000000e+00" cType="1" res="3.5224137827754021e-03" rms="4.2213460803031921e-01" purity="3.5130697488784790e-01" nType="-99"/>
            <Node pos="r" depth="3" NCoef="0" IVar="-1" Cut="0.0000000000000000e+00" cType="1" res="-1.0762623278424144e-03" rms="2.0025728642940521e-01" purity="7.4266597628593445e-02" nType="-99"/>
          </Node>
          <Node pos="r" depth="2" NCoef="0" IVar="-1" Cut="0.0000000000000000e+00" cType="1" res="1.6469686524942517e-03" rms="3.7337183952331543e-01" purity="8.1068527698516846e-01" nType="-99"/>
        </Node>
        <Node pos="r" depth="1" NCoef="0" IVar="1" Cut="1.2505362500000000e+05" cType="1" res="1.5083654224872589e-01" rms="2.5320479273796082e-01" purity="8.8872766494750977e-01" nType="0">
          <Node pos="l" depth="2" NCoef="0" IVar="1" Cut="7.1155718750000000e+04" cType="1" res="1.2341208010911942e-01" rms="3.0045765638351440e-01" purity="8.3131754398345947e-01" nType="0">
            <Node pos="l" depth="3" NCoef="0" IVar="-1" Cut="0.0000000000000000e+00" cType="1" res="2.0145345479249954e-03" rms="2.3337560892105103e-01" purity="9.3795126676559448e-01" nType="-99"/>
            <Node pos="r" depth="3" NCoef="0" IVar="-1" Cut="0.0000000000000000e+00" cType="1" res="1.0042723733931780e-03" rms="3.3249601721763611e-01" purity="7.5864940881729126e-01" nType="-99"/>
          </Node>
          <Node pos="r" depth="2" NCoef="0" IVar="-1" Cut="0.0000000000000000e+00" cType="1" res="2.1999527234584093e-03" rms="1.3879899680614471e-01" purity="9.8030823469161987e-01" nType="-99"/>
        </Node>
      </Node>
    </BinaryTree>
    <BinaryTree type="DecisionTree" boostWeight="1.0000000000000000e+00" itree="308">
      <Node pos="s" depth="0" NCoef="0" IVar="3" Cut="5.4259988281250000e+04" cType="1" res="8.5645891726016998e-02" rms="2.7740263938903809e-01" purity="4.9686598777770996e-01" nType="0">
        <Node pos="l" depth="1" NCoef="0" IVar="1" Cut="9.8460062500000000e+04" cType="1" res="4.0049459785223007e-02" rms="2.9353511333465576e-01" purity="2.4322295188903809e-01" nType="0">
          <Node pos="l" depth="2" NCoef="0" IVar="1" Cut="6.5527484375000000e+04" cType="1" res="8.5437195375561714e-03" rms="2.6272746920585632e-01" purity="1.1312972009181976e-01" nType="0">
            <Node pos="l" depth="3" NCoef="0" IVar="-1" Cut="0.0000000000000000e+00" cType="1" res="1.8530222587287426e-03" rms="3.9096942543983459e-01" purity="3.7319028377532959e-01" nType="-99"/>
            <Node pos="r" depth="3" NCoef="0" IVar="-1" Cut="0.0000000000000000e+00" cType="1" res="-2.3873776663094759e-03" rms="2.2127582132816315e-01" purity="5.6609261780977249e-02" nType="-99"/>
          </Node>
          <Node pos="r" depth="2" NCoef="0" IVar="3" Cut="3.3686515625000000e+04" cType="1" res="1.3289403915405273e-01" rms="3.5372194647789001e-01" purity="6.2659591436386108e-01" nType="0">
            <Node pos="l" depth="3" NCoef="0" IVar="-1" Cut="0.0000000000000000e+00" cType="1" res="9.4344007084146142e-04" rms="3.7448045611381531e-01" purity="3.9394310116767883e-01" nType="-99"/>
            <Node pos="r" depth="3" NCoef="0" IVar="-1" Cut="0.0000000000000000e+00" cType="1" res="1.1745342053472996e-03" rms="2.9734656214714050e-01" purity="8.8113212585449219e-01" nType="-99"/>
          </Node>
        </Node>
        <Node pos="r" depth="1" NCoef="0" IVar="1" Cut="1.3213909375000000e+05" cType="1" res="1.6390736401081085e-01" rms="2.2682558000087738e-01" purity="9.3221759796142578e-01" nType="0">
          <Node pos="l" depth="2" NCoef="0" IVar="1" Cut="9.7703054687500000e+04" cType="1" res="1.4720557630062103e-01" rms="2.7246081829071045e-01" purity="8.9894765615463257e-01" nType="0">
            <Node pos="l" depth="3" NCoef="0" IVar="-1" Cut="0.0000000000000000e+00" cType="1" res="1.4175863470882177e-03" rms="2.9786571860313416e-01" purity="8.7084358930587769e-01" nType="-99"/>
            <Node pos="r" depth="3" NCoef="0" IVar="-1" Cut="0.0000000000000000e+00" cType="1" res="1.8821974517777562e-03" rms="1.9533739984035492e-01" purity="9.6068650484085083e-01" nType="-99"/>
          </Node>
          <Node pos="r" depth="2" NCoef="0" IVar="-1" Cut="0.0000000000000000e+00" cType="1" res="1.6957583138719201e-03" rms="1.1126580089330673e-01" purity="9.8746627569198608e-01" nType="-99"/>
        </Node>
      </Node>
    </BinaryTree>
    <BinaryTree type="DecisionTree" boostWeight="1.0000000000000000e+00" itree="309">
      <Node pos="s" depth="0" NCoef="0" IVar="1" Cut="1.2506240625000000e+05" cType="1" res="8.0482475459575653e-02" rms="2.8073570132255554e-01" purity="4.8035299777984619e-01" nType="0">
        <Node pos="l" depth="1" NCoef="0" IVar="1" Cut="8.1980218750000000e+04" cType="1" res="4.8363141715526581e-02" rms="2.8012603521347046e-01" purity="3.4857213497161865e-01" nType="0">
          <Node pos="l" depth="2" NCoef="0" IVar="4" Cut="2.8745337500000000e+05" cType="1" res="1.3517135381698608e-01" rms="3.4868872165679932e-01" purity="6.1186194419860840e-01" nType="0">
            <Node pos="l" depth="3" NCoef="0" IVar="-1" Cut="0.0000000000000000e+00" cType="1" res="1.8604102078825235e-03" rms="3.6977359652519226e-01" purity="4.3862766027450562e-01" nType="-99"/>
            <Node pos="r" depth="3" NCoef="0" IVar="-1" Cut="0.0000000000000000e+00" cType="1" res="2.8209935408085585e-03" rms="3.0185607075691223e-01" purity="8.3926856517791748e-01" nType="-99"/>
          </Node>
          <Node pos="r" depth="2" NCoef="0" IVar="3" Cut="7.5765679687500000e+04" cType="1" res="2.0442141976673156e-04" rms="2.1920941770076752e-01" purity="2.0250642299652100e-01" nType="0">
            <Node pos="l" depth="3" NCoef="0" IVar="-1" Cut="0.0000000000000000e+00" cType="1" res="-2.1876695100218058e-03" rms="2.0784927904605865e-01" purity="9.0819321572780609e-02" nType="-99"/>
            <Node pos="r" depth="3" NCoef="0" IVar="-1" Cut="0.0000000000000000e+00" cType="1" res="1.6134876059368253e-03" rms="2.2125001251697540e-01" purity="9.4533759355545044e-01" nType="-99"/>
          </Node>
        </Node>
        <Node pos="r" depth="1" NCoef="0" IVar="1" Cut="1.7632278125000000e+05" cType="1" res="1.8548850715160370e-01" rms="2.5599113106727600e-01" purity="9.1117721796035767e-01" nType="0">
          <Node pos="l" depth="2" NCoef="0" IVar="2" Cut="2.9346593750000000e+05" cType="1" res="2.0627383887767792e-01" rms="2.6356875896453857e-01" purity="8.9728015661239624e-01" nType="0">
            <Node pos="l" depth="3" NCoef="0" IVar="-1" Cut="0.0000000000000000e+00" cType="1" res="1.9975078757852316e-03" rms="3.0666610598564148e-01" purity="8.2121795415878296e-01" nType="-99"/>
            <Node pos="r" depth="3" NCoef="0" IVar="-1" Cut="0.0000000000000000e+00" cType="1" res="1.3853365089744329e-03" rms="2.4302582442760468e-01" purity="9.2612797021865845e-01" nType="-99"/>
          </Node>
          <Node pos="r" depth="2" NCoef="0" IVar="1" Cut="2.2518092187500000e+05" cType="1" res="1.6486026346683502e-01" rms="2.4651551246643066e-01" purity="9.2496931552886963e-01" nType="0">
            <Node pos="l" depth="3" NCoef="0" IVar="-1" Cut="0.0000000000000000e+00" cType="1" res="1.5636798925697803e-03" rms="2.8452292084693909e-01" purity="8.8814806938171387e-01" nType="-99"/>
            <Node pos="r" depth="3" NCoef="0" IVar="-1" Cut="0.0000000000000000e+00" cType="1" res="2.0368264522403479e-03" rms="2.2443713247776031e-01" purity="9.4207757711410522e-01" nType="-99"/>
          </Node>
        </Node>
      </Node>
    </BinaryTree>
    <BinaryTree type="DecisionTree" boostWeight="1.0000000000000000e+00" itree="310">
      <Node pos="s" depth="0" NCoef="0" IVar="3" Cut="3.8008914062500000e+04" cType="1" res="6.9629989564418793e-02" rms="2.7047348022460938e-01" purity="4.8273935914039612e-01" nType="0">
        <Node pos="l" depth="1" NCoef="0" IVar="0" Cut="2.1428570747375488e+00" cType="1" res="1.1261360486969352e-03" rms="2.4518705904483795e-01" purity="1.2036553025245667e-01" nType="0">
          <Node pos="l" depth="2" NCoef="0" IVar="1" Cut="1.3642714062500000e+05" cType="1" res="-4.7991713508963585e-03" rms="2.3370674252510071e-01" purity="1.1272164434194565e-01" nType="0">
            <Node pos="l" depth="3" NCoef="0" IVar="-1" Cut="0.0000000000000000e+00" cType="1" res="-3.6861917469650507e-03" rms="2.0325987040996552e-01" purity="4.9110446125268936e-02" nType="-99"/>
            <Node pos="r" depth="3" NCoef="0" IVar="-1" Cut="0.0000000000000000e+00" cType="1" res="1.1015411000698805e-03" rms="4.1583460569381714e-01" purity="7.1169430017471313e-01" nType="-99"/>
          </Node>
          <Node pos="r" depth="2" NCoef="0" IVar="4" Cut="5.6723937500000000e+05" cType="1" res="1.1389684677124023e-01" rms="3.8905864953994751e-01" purity="2.6584440469741821e-01" nType="0">
            <Node pos="l" depth="3" NCoef="0" IVar="-1" Cut="0.0000000000000000e+00" cType="1" res="1.3973328750580549e-03" rms="3.1602615118026733e-01" purity="1.2092638015747070e-01" nType="-99"/>
            <Node pos="r" depth="3" NCoef="0" IVar="-1" Cut="0.0000000000000000e+00" cType="1" res="8.7208608165383339e-03" rms="4.3075239658355713e-01" purity="4.3972203135490417e-01" nType="-99"/>
          </Node>
        </Node>
        <Node pos="r" depth="1" NCoef="0" IVar="1" Cut="1.0035560937500000e+05" cType="1" res="1.3711749017238617e-01" rms="2.7717131376266479e-01" purity="8.3973687887191772e-01" nType="0">
          <Node pos="l" depth="2" NCoef="0" IVar="1" Cut="8.7722835937500000e+04" cType="1" res="9.5431059598922729e-02" rms="3.2768905162811279e-01" purity="7.3345750570297241e-01" nType="0">
            <Node pos="l" depth="3" NCoef="0" IVar="-1" Cut="0.0000000000000000e+00" cType="1" res="1.6712415963411331e-03" rms="2.9890820384025574e-01" purity="8.3356410264968872e-01" nType="-99"/>
            <Node pos="r" depth="3" NCoef="0" IVar="-1" Cut="0.0000000000000000e+00" cType="1" res="-5.8883609017357230e-04" rms="3.7625384330749512e-01" purity="4.2159673571586609e-01" nType="-99"/>
          </Node>
          <Node pos="r" depth="2" NCoef="0" IVar="5" Cut="8.8941929687500000e+04" cType="1" res="1.8080042302608490e-01" rms="2.0267002284526825e-01" purity="9.5110630989074707e-01" nType="0">
            <Node pos="l" depth="3" NCoef="0" IVar="-1" Cut="0.0000000000000000e+00" cType="1" res="1.7878005746752024e-03" rms="2.2696979343891144e-01" purity="9.3572795391082764e-01" nType="-99"/>
            <Node pos="r" depth="3" NCoef="0" IVar="-1" Cut="0.0000000000000000e+00" cType="1" res="1.3489121338352561e-03" rms="1.9013886153697968e-01" purity="9.5792102813720703e-01" nType="-99"/>
          </Node>
        </Node>
      </Node>
    </BinaryTree>
    <BinaryTree type="DecisionTree" boostWeight="1.0000000000000000e+00" itree="311">
      <Node pos="s" depth="0" NCoef="0" IVar="1" Cut="1.0372283593750000e+05" cType="1" res="8.1693373620510101e-02" rms="2.7332788705825806e-01" purity="5.0900596380233765e-01" nType="0">
        <Node pos="l" depth="1" NCoef="0" IVar="3" Cut="5.7804234375000000e+04" cType="1" res="3.4980610013008118e-02" rms="2.6853111386299133e-01" purity="3.1942433118820190e-01" nType="0">
          <Node pos="l" depth="2" NCoef="0" IVar="1" Cut="8.1867921875000000e+04" cType="1" res="-6.2885752413421869e-05" rms="2.5733956694602966e-01" purity="1.2056133896112442e-01" nType="0">
            <Node pos="l" depth="3" NCoef="0" IVar="-1" Cut="0.0000000000000000e+00" cType="1" res="1.0206662118434906e-03" rms="3.6614668369293213e-01" purity="3.2032755017280579e-01" nType="-99"/>
            <Node pos="r" depth="3" NCoef="0" IVar="-1" Cut="0.0000000000000000e+00" cType="1" res="-5.5656014010310173e-03" rms="1.9655993580818176e-01" purity="4.2979966849088669e-02" nType="-99"/>
          </Node>
          <Node pos="r" depth="2" NCoef="0" IVar="3" Cut="8.3933367187500000e+04" cType="1" res="1.3681247830390930e-01" rms="2.7435857057571411e-01" purity="8.9729434251785278e-01" nType="0">
            <Node pos="l" depth="3" NCoef="0" IVar="-1" Cut="0.0000000000000000e+00" cType="1" res="7.8258605208247900e-04" rms="3.8148781657218933e-01" purity="7.7720707654953003e-01" nType="-99"/>
            <Node pos="r" depth="3" NCoef="0" IVar="-1" Cut="0.0000000000000000e+00" cType="1" res="1.8970241071656346e-03" rms="1.9006274640560150e-01" purity="9.6160852909088135e-01" nType="-99"/>
          </Node>
        </Node>
        <Node pos="r" depth="1" NCoef="0" IVar="2" Cut="3.7939840625000000e+05" cType="1" res="1.7278650403022766e-01" rms="2.5927501916885376e-01" purity="8.7870347499847412e-01" nType="0">
          <Node pos="l" depth="2" NCoef="0" IVar="2" Cut="2.4858848437500000e+05" cType="1" res="1.5473824739456177e-01" rms="2.9488280415534973e-01" purity="8.1267106533050537e-01" nType="0">
            <Node pos="l" depth="3" NCoef="0" IVar="-1" Cut="0.0000000000000000e+00" cType="1" res="8.0879376037046313e-04" rms="3.8106346130371094e-01" purity="5.1664245128631592e-01" nType="-99"/>
            <Node pos="r" depth="3" NCoef="0" IVar="-1" Cut="0.0000000000000000e+00" cType="1" res="1.5888541238382459e-03" rms="2.7468284964561462e-01" purity="8.5922592878341675e-01" nType="-99"/>
          </Node>
          <Node pos="r" depth="2" NCoef="0" IVar="2" Cut="4.6292887500000000e+05" cType="1" res="1.8758036196231842e-01" rms="2.2486305236816406e-01" purity="9.3282920122146606e-01" nType="0">
            <Node pos="l" depth="3" NCoef="0" IVar="-1" Cut="0.0000000000000000e+00" cType="1" res="1.1533427750691772e-03" rms="2.1835818886756897e-01" purity="9.4399291276931763e-01" nType="-99"/>
            <Node pos="r" depth="3" NCoef="0" IVar="-1" Cut="0.0000000000000000e+00" cType="1" res="1.1246558278799057e-03" rms="2.2521977126598358e-01" purity="9.2441093921661377e-01" nType="-99"/>
          </Node>
        </Node>
      </Node>
    </BinaryTree>
    <BinaryTree type="DecisionTree" boostWeight="1.0000000000000000e+00" itree="312">
      <Node pos="s" depth="0" NCoef="0" IVar="1" Cut="1.0034389062500000e+05" cType="1" res="8.7939858436584473e-02" rms="2.8211420774459839e-01" purity="5.1040661334991455e-01" nType="0">
        <Node pos="l" depth="1" NCoef="0" IVar="1" Cut="7.5101289062500000e+04" cType="1" res="4.1131954640150070e-02" rms="2.8389751911163330e-01" purity="3.0627027153968811e-01" nType="0">
          <Node pos="l" depth="2" NCoef="0" IVar="1" Cut="3.3034281250000000e+04" cType="1" res="1.3809119164943695e-01" rms="3.4590822458267212e-01" purity="6.5341293811798096e-01" nType="0">
            <Node pos="l" depth="3" NCoef="0" IVar="-1" Cut="0.0000000000000000e+00" cType="1" res="-4.5480541302822530e-04" rms="3.1925198435783386e-01" purity="3.3855509757995605e-01" nType="-99"/>
            <Node pos="r" depth="3" NCoef="0" IVar="-1" Cut="0.0000000000000000e+00" cType="1" res="2.1369613241404295e-03" rms="3.4216567873954773e-01" purity="7.2879415750503540e-01" nType="-99"/>
          </Node>
          <Node pos="r" depth="2" NCoef="0" IVar="3" Cut="1.1350071093750000e+05" cType="1" res="-6.3117062672972679e-03" rms="2.3374503850936890e-01" purity="1.3640800118446350e-01" nType="0">
            <Node pos="l" depth="3" NCoef="0" IVar="-1" Cut="0.0000000000000000e+00" cType="1" res="-1.5439185081049800e-03" rms="2.3178617656230927e-01" purity="9.6131473779678345e-02" nType="-99"/>
            <Node pos="r" depth="3" NCoef="0" IVar="-1" Cut="0.0000000000000000e+00" cType="1" res="2.0057153888046741e-03" rms="2.1021844446659088e-01" purity="9.5303785800933838e-01" nType="-99"/>
          </Node>
        </Node>
        <Node pos="r" depth="1" NCoef="0" IVar="3" Cut="4.8938554687500000e+04" cType="1" res="1.6810727119445801e-01" rms="2.6015457510948181e-01" purity="8.6002892255783081e-01" nType="0">
          <Node pos="l" depth="2" NCoef="0" IVar="3" Cut="2.3472621093750000e+04" cType="1" res="1.1356145143508911e-01" rms="4.1263946890830994e-01" purity="5.9106272459030151e-01" nType="0">
            <Node pos="l" depth="3" NCoef="0" IVar="-1" Cut="0.0000000000000000e+00" cType="1" res="1.1538607068359852e-03" rms="4.0647831559181213e-01" purity="3.9612445235252380e-01" nType="-99"/>
            <Node pos="r" depth="3" NCoef="0" IVar="-1" Cut="0.0000000000000000e+00" cType="1" res="1.5880016144365072e-03" rms="4.1061735153198242e-01" purity="7.3971182107925415e-01" nType="-99"/>
          </Node>
          <Node pos="r" depth="2" NCoef="0" IVar="4" Cut="4.9662478125000000e+05" cType="1" res="1.9219280779361725e-01" rms="1.4312912523746490e-01" purity="9.7879493236541748e-01" nType="0">
            <Node pos="l" depth="3" NCoef="0" IVar="-1" Cut="0.0000000000000000e+00" cType="1" res="1.2206516694277525e-03" rms="1.4463011920452118e-01" purity="9.7846847772598267e-01" nType="-99"/>
            <Node pos="r" depth="3" NCoef="0" IVar="-1" Cut="0.0000000000000000e+00" cType="1" res="2.2971092257648706e-03" rms="1.4040844142436981e-01" purity="9.7928124666213989e-01" nType="-99"/>
          </Node>
        </Node>
      </Node>
    </BinaryTree>
    <BinaryTree type="DecisionTree" boostWeight="1.0000000000000000e+00" itree="313">
      <Node pos="s" depth="0" NCoef="0" IVar="1" Cut="1.0034835937500000e+05" cType="1" res="8.6791999638080597e-02" rms="2.7940854430198669e-01" purity="4.9849626421928406e-01" nType="0">
        <Node pos="l" depth="1" NCoef="0" IVar="3" Cut="8.3994101562500000e+04" cType="1" res="3.8055595010519028e-02" rms="2.7364072203636169e-01" purity="2.9986199736595154e-01" nType="0">
          <Node pos="l" depth="2" NCoef="0" IVar="1" Cut="8.3521304687500000e+04" cType="1" res="1.5117678791284561e-02" rms="2.8086891770362854e-01" purity="1.7354348301887512e-01" nType="0">
            <Node pos="l" depth="3" NCoef="0" IVar="-1" Cut="0.0000000000000000e+00" cType="1" res="1.8761056708171964e-03" rms="3.6806663870811462e-01" purity="3.5973909497261047e-01" nType="-99"/>
            <Node pos="r" depth="3" NCoef="0" IVar="-1" Cut="0.0000000000000000e+00" cType="1" res="-1.4066556468605995e-03" rms="2.2091634571552277e-01" purity="8.1620343029499054e-02" nType="-99"/>
          </Node>
          <Node pos="r" depth="2" NCoef="0" IVar="0" Cut="1.3333333730697632e+00" cType="1" res="1.5804350376129150e-01" rms="1.9173799455165863e-01" purity="9.6063214540481567e-01" nType="0">
            <Node pos="l" depth="3" NCoef="0" IVar="-1" Cut="0.0000000000000000e+00" cType="1" res="2.3062988184392452e-03" rms="1.4853812754154205e-01" purity="9.7640413045883179e-01" nType="-99"/>
            <Node pos="r" depth="3" NCoef="0" IVar="-1" Cut="0.0000000000000000e+00" cType="1" res="1.8177422462031245e-03" rms="2.5209823250770569e-01" purity="9.3018347024917603e-01" nType="-99"/>
          </Node>
        </Node>
        <Node pos="r" depth="1" NCoef="0" IVar="2" Cut="3.1853246875000000e+05" cType="1" res="1.7297941446304321e-01" rms="2.6848006248474121e-01" purity="8.4976917505264282e-01" nType="0">
          <Node pos="l" depth="2" NCoef="0" IVar="1" Cut="1.1276207812500000e+05" cType="1" res="1.3563579320907593e-01" rms="3.3881491422653198e-01" purity="6.9765520095825195e-01" nType="0">
            <Node pos="l" depth="3" NCoef="0" IVar="-1" Cut="0.0000000000000000e+00" cType="1" res="1.0949156712740660e-03" rms="3.0385571718215942e-01" purity="4.0962851047515869e-01" nType="-99"/>
            <Node pos="r" depth="3" NCoef="0" IVar="-1" Cut="0.0000000000000000e+00" cType="1" res="2.2333259694278240e-03" rms="3.4473332762718201e-01" purity="8.2149583101272583e-01" nType="-99"/>
          </Node>
          <Node pos="r" depth="2" NCoef="0" IVar="4" Cut="4.2111525000000000e+05" cType="1" res="1.8820396065711975e-01" rms="2.3209317028522491e-01" purity="9.1178423166275024e-01" nType="0">
            <Node pos="l" depth="3" NCoef="0" IVar="-1" Cut="0.0000000000000000e+00" cType="1" res="1.0157949291169643e-03" rms="2.4724431335926056e-01" purity="8.8093572854995728e-01" nType="-99"/>
            <Node pos="r" depth="3" NCoef="0" IVar="-1" Cut="0.0000000000000000e+00" cType="1" res="1.7734384164214134e-03" rms="2.1858131885528564e-01" purity="9.3510812520980835e-01" nType="-99"/>
          </Node>
        </Node>
      </Node>
    </BinaryTree>
    <BinaryTree type="DecisionTree" boostWeight="1.0000000000000000e+00" itree="314">
      <Node pos="s" depth="0" NCoef="0" IVar="3" Cut="4.8659894531250000e+04" cType="1" res="8.3379454910755157e-02" rms="2.8775936365127563e-01" purity="4.9345684051513672e-01" nType="0">
        <Node pos="l" depth="1" NCoef="0" IVar="3" Cut="2.3201220703125000e+04" cType="1" res="4.2792920023202896e-02" rms="3.0174326896667480e-01" purity="2.1387279033660889e-01" nType="0">
          <Node pos="l" depth="2" NCoef="0" IVar="1" Cut="7.4209273437500000e+04" cType="1" res="2.4525544140487909e-03" rms="2.2381348907947540e-01" purity="8.5574984550476074e-02" nType="0">
            <Node pos="l" depth="3" NCoef="0" IVar="-1" Cut="0.0000000000000000e+00" cType="1" res="3.7849259097129107e-03" rms="3.9591279625892639e-01" purity="2.1101383864879608e-01" nType="-99"/>
            <Node pos="r" depth="3" NCoef="0" IVar="-1" Cut="0.0000000000000000e+00" cType="1" res="-1.8026176840066910e-03" rms="1.7344686388969421e-01" purity="6.4074434340000153e-02" nType="-99"/>
          </Node>
          <Node pos="r" depth="2" NCoef="0" IVar="5" Cut="9.2571976562500000e+04" cType="1" res="9.5022328197956085e-02" rms="3.7315049767494202e-01" purity="3.7998232245445251e-01" nType="0">
            <Node pos="l" depth="3" NCoef="0" IVar="-1" Cut="0.0000000000000000e+00" cType="1" res="2.2512653376907110e-03" rms="3.6875575780868530e-01" purity="3.3463057875633240e-01" nType="-99"/>
            <Node pos="r" depth="3" NCoef="0" IVar="-1" Cut="0.0000000000000000e+00" cType="1" res="1.3279090635478497e-03" rms="3.7471124529838562e-01" purity="5.1342058181762695e-01" nType="-99"/>
          </Node>
        </Node>
        <Node pos="r" depth="1" NCoef="0" IVar="3" Cut="9.4948742187500000e+04" cType="1" res="1.4213198423385620e-01" rms="2.5502109527587891e-01" purity="8.9817905426025391e-01" nType="0">
          <Node pos="l" depth="2" NCoef="0" IVar="3" Cut="6.1882886718750000e+04" cType="1" res="1.0606748610734940e-01" rms="3.3878058195114136e-01" purity="8.0688911676406860e-01" nType="0">
            <Node pos="l" depth="3" NCoef="0" IVar="-1" Cut="0.0000000000000000e+00" cType="1" res="5.6396145373582840e-04" rms="3.8132637739181519e-01" purity="6.6543072462081909e-01" nType="-99"/>
            <Node pos="r" depth="3" NCoef="0" IVar="-1" Cut="0.0000000000000000e+00" cType="1" res="1.5501911984756589e-03" rms="3.0576217174530029e-01" purity="8.8554948568344116e-01" nType="-99"/>
          </Node>
          <Node pos="r" depth="2" NCoef="0" IVar="1" Cut="1.1171875781250000e+05" cType="1" res="1.7576566338539124e-01" rms="1.2770038843154907e-01" purity="9.8331582546234131e-01" nType="0">
            <Node pos="l" depth="3" NCoef="0" IVar="-1" Cut="0.0000000000000000e+00" cType="1" res="2.1462063305079937e-03" rms="1.4632317423820496e-01" purity="9.7785091400146484e-01" nType="-99"/>
            <Node pos="r" depth="3" NCoef="0" IVar="-1" Cut="0.0000000000000000e+00" cType="1" res="2.2928211838006973e-03" rms="1.0336453467607498e-01" purity="9.8921793699264526e-01" nType="-99"/>
          </Node>
        </Node>
      </Node>
    </BinaryTree>
    <BinaryTree type="DecisionTree" boostWeight="1.0000000000000000e+00" itree="315">
      <Node pos="s" depth="0" NCoef="0" IVar="3" Cut="4.8766871093750000e+04" cType="1" res="8.1350669264793396e-02" rms="2.7496299147605896e-01" purity="5.0001871585845947e-01" nType="0">
        <Node pos="l" depth="1" NCoef="0" IVar="3" Cut="1.8679685546875000e+04" cType="1" res="2.4324033409357071e-02" rms="2.8570219874382019e-01" purity="1.9203403592109680e-01" nType="0">
          <Node pos="l" depth="2" NCoef="0" IVar="1" Cut="5.2933046875000000e+04" cType="1" res="-1.4173165895044804e-02" rms="1.8057867884635925e-01" purity="6.3169121742248535e-02" nType="0">
            <Node pos="l" depth="3" NCoef="0" IVar="-1" Cut="0.0000000000000000e+00" cType="1" res="-5.5806633085012436e-02" rms="3.8983508944511414e-02" purity="0.0000000000000000e+00" nType="-99"/>
            <Node pos="r" depth="3" NCoef="0" IVar="-1" Cut="0.0000000000000000e+00" cType="1" res="-9.4006455037742853e-04" rms="1.8677714467048645e-01" purity="6.9244377315044403e-02" nType="-99"/>
          </Node>
          <Node pos="r" depth="2" NCoef="0" IVar="5" Cut="9.3512203125000000e+04" cType="1" res="5.6353103369474411e-02" rms="3.4662413597106934e-01" purity="2.9924759268760681e-01" nType="0">
            <Node pos="l" depth="3" NCoef="0" IVar="-1" Cut="0.0000000000000000e+00" cType="1" res="8.6567393736913800e-04" rms="3.2361388206481934e-01" purity="2.9403007030487061e-01" nType="-99"/>
            <Node pos="r" depth="3" NCoef="0" IVar="-1" Cut="0.0000000000000000e+00" cType="1" res="2.7006710879504681e-03" rms="4.7337141633033752e-01" purity="3.3859014511108398e-01" nType="-99"/>
          </Node>
        </Node>
        <Node pos="r" depth="1" NCoef="0" IVar="1" Cut="1.3203793750000000e+05" cType="1" res="1.5817956626415253e-01" rms="2.3918353021144867e-01" purity="9.1494983434677124e-01" nType="0">
          <Node pos="l" depth="2" NCoef="0" IVar="1" Cut="9.7408187500000000e+04" cType="1" res="1.3911096751689911e-01" rms="2.8602722287178040e-01" purity="8.7290662527084351e-01" nType="0">
            <Node pos="l" depth="3" NCoef="0" IVar="-1" Cut="0.0000000000000000e+00" cType="1" res="1.2337861116975546e-03" rms="3.0050238966941833e-01" purity="8.4335923194885254e-01" nType="-99"/>
            <Node pos="r" depth="3" NCoef="0" IVar="-1" Cut="0.0000000000000000e+00" cType="1" res="1.8036131514236331e-03" rms="2.3586338758468628e-01" purity="9.4384497404098511e-01" nType="-99"/>
          </Node>
          <Node pos="r" depth="2" NCoef="0" IVar="-1" Cut="0.0000000000000000e+00" cType="1" res="1.8400534754619002e-03" rms="1.1990343779325485e-01" purity="9.8536103963851929e-01" nType="-99"/>
        </Node>
      </Node>
    </BinaryTree>
    <BinaryTree type="DecisionTree" boostWeight="1.0000000000000000e+00" itree="316">
      <Node pos="s" depth="0" NCoef="0" IVar="3" Cut="5.4198226562500000e+04" cType="1" res="8.3177000284194946e-02" rms="2.7802479267120361e-01" purity="5.0690835714340210e-01" nType="0">
        <Node pos="l" depth="1" NCoef="0" IVar="3" Cut="1.5522499023437500e+04" cType="1" res="3.6371618509292603e-02" rms="2.9535695910453796e-01" purity="2.4187430739402771e-01" nType="0">
          <Node pos="l" depth="2" NCoef="0" IVar="5" Cut="8.7807484375000000e+04" cType="1" res="-2.0149340853095055e-02" rms="1.6240839660167694e-01" purity="2.7986492961645126e-02" nType="0">
            <Node pos="l" depth="3" NCoef="0" IVar="-1" Cut="0.0000000000000000e+00" cType="1" res="3.0312826856970787e-03" rms="3.1774145364761353e-01" purity="1.6574707627296448e-01" nType="-99"/>
            <Node pos="r" depth="3" NCoef="0" IVar="-1" Cut="0.0000000000000000e+00" cType="1" res="-3.1252037733793259e-02" rms="1.2920543551445007e-01" purity="1.1430126614868641e-02" nType="-99"/>
          </Node>
          <Node pos="r" depth="2" NCoef="0" IVar="5" Cut="9.1593375000000000e+04" cType="1" res="6.3783101737499237e-02" rms="3.3830529451370239e-01" purity="3.4560543298721313e-01" nType="0">
            <Node pos="l" depth="3" NCoef="0" IVar="-1" Cut="0.0000000000000000e+00" cType="1" res="2.1666758693754673e-03" rms="3.4811216592788696e-01" purity="3.9875116944313049e-01" nType="-99"/>
            <Node pos="r" depth="3" NCoef="0" IVar="-1" Cut="0.0000000000000000e+00" cType="1" res="-2.9789350810460746e-04" rms="3.0424392223358154e-01" purity="2.2809225320816040e-01" nType="-99"/>
          </Node>
        </Node>
        <Node pos="r" depth="1" NCoef="0" IVar="1" Cut="1.0073193750000000e+05" cType="1" res="1.5834736824035645e-01" rms="2.2840373218059540e-01" purity="9.3255835771560669e-01" nType="0">
          <Node pos="l" depth="2" NCoef="0" IVar="5" Cut="9.0734796875000000e+04" cType="1" res="1.2580119073390961e-01" rms="3.0406802892684937e-01" purity="8.7260705232620239e-01" nType="0">
            <Node pos="l" depth="3" NCoef="0" IVar="-1" Cut="0.0000000000000000e+00" cType="1" res="1.4729961985722184e-03" rms="2.8369775414466858e-01" purity="9.0198200941085815e-01" nType="-99"/>
            <Node pos="r" depth="3" NCoef="0" IVar="-1" Cut="0.0000000000000000e+00" cType="1" res="1.0624437127262354e-03" rms="3.2530748844146729e-01" purity="8.3358705043792725e-01" nType="-99"/>
          </Node>
          <Node pos="r" depth="2" NCoef="0" IVar="5" Cut="9.0614156250000000e+04" cType="1" res="1.8514379858970642e-01" rms="1.3193424046039581e-01" purity="9.8191845417022705e-01" nType="0">
            <Node pos="l" depth="3" NCoef="0" IVar="-1" Cut="0.0000000000000000e+00" cType="1" res="1.8058822024613619e-03" rms="1.4630389213562012e-01" purity="9.7758865356445312e-01" nType="-99"/>
            <Node pos="r" depth="3" NCoef="0" IVar="-1" Cut="0.0000000000000000e+00" cType="1" res="1.0445386869832873e-03" rms="1.1481016129255295e-01" purity="9.8639315366744995e-01" nType="-99"/>
          </Node>
        </Node>
      </Node>
    </BinaryTree>
    <BinaryTree type="DecisionTree" boostWeight="1.0000000000000000e+00" itree="317">
      <Node pos="s" depth="0" NCoef="0" IVar="3" Cut="4.8721656250000000e+04" cType="1" res="7.8046329319477081e-02" rms="2.7055194973945618e-01" purity="4.9703145027160645e-01" nType="0">
        <Node pos="l" depth="1" NCoef="0" IVar="1" Cut="1.2713942968750000e+05" cType="1" res="2.2684475407004356e-02" rms="2.7705338597297668e-01" purity="1.8877516686916351e-01" nType="0">
          <Node pos="l" depth="2" NCoef="0" IVar="1" Cut="8.3273937500000000e+04" cType="1" res="6.0477145016193390e-03" rms="2.5287517905235291e-01" purity="1.0414253920316696e-01" nType="0">
            <Node pos="l" depth="3" NCoef="0" IVar="-1" Cut="0.0000000000000000e+00" cType="1" res="2.9110594186931849e-03" rms="3.7274250388145447e-01" purity="2.7170094847679138e-01" nType="-99"/>
            <Node pos="r" depth="3" NCoef="0" IVar="-1" Cut="0.0000000000000000e+00" cType="1" res="-5.7263146154582500e-03" rms="1.7877483367919922e-01" purity="3.8967560976743698e-02" nType="-99"/>
          </Node>
          <Node pos="r" depth="2" NCoef="0" IVar="4" Cut="3.2778846875000000e+05" cType="1" res="1.4052982628345490e-01" rms="3.8944643735885620e-01" purity="7.8826451301574707e-01" nType="0">
            <Node pos="l" depth="3" NCoef="0" IVar="-1" Cut="0.0000000000000000e+00" cType="1" res="2.7158651500940323e-03" rms="3.7994128465652466e-01" purity="8.0195921659469604e-01" nType="-99"/>
            <Node pos="r" depth="3" NCoef="0" IVar="-1" Cut="0.0000000000000000e+00" cType="1" res="1.2613759608939290e-03" rms="3.9091846346855164e-01" purity="7.7327167987823486e-01" nType="-99"/>
          </Node>
        </Node>
        <Node pos="r" depth="1" NCoef="0" IVar="4" Cut="2.3974675000000000e+05" cType="1" res="1.5257579088211060e-01" rms="2.4233192205429077e-01" purity="9.1201341152191162e-01" nType="0">
          <Node pos="l" depth="2" NCoef="0" IVar="4" Cut="1.7204828125000000e+05" cType="1" res="9.7628377377986908e-02" rms="3.2805934548377991e-01" purity="8.1390953063964844e-01" nType="0">
            <Node pos="l" depth="3" NCoef="0" IVar="-1" Cut="0.0000000000000000e+00" cType="1" res="-2.3581103887408972e-03" rms="4.3200984597206116e-01" purity="5.6929600238800049e-01" nType="-99"/>
            <Node pos="r" depth="3" NCoef="0" IVar="-1" Cut="0.0000000000000000e+00" cType="1" res="1.5026842011138797e-03" rms="2.9150596261024475e-01" purity="8.5395038127899170e-01" nType="-99"/>
          </Node>
          <Node pos="r" depth="2" NCoef="0" IVar="1" Cut="1.4613265625000000e+05" cType="1" res="1.6562321782112122e-01" rms="2.1500368416309357e-01" purity="9.3530845642089844e-01" nType="0">
            <Node pos="l" depth="3" NCoef="0" IVar="-1" Cut="0.0000000000000000e+00" cType="1" res="1.5461529837921262e-03" rms="2.5194886326789856e-01" purity="9.0645092725753784e-01" nType="-99"/>
            <Node pos="r" depth="3" NCoef="0" IVar="-1" Cut="0.0000000000000000e+00" cType="1" res="1.6518769552931190e-03" rms="1.3478727638721466e-01" purity="9.8125767707824707e-01" nType="-99"/>
          </Node>
        </Node>
      </Node>
    </BinaryTree>
    <BinaryTree type="DecisionTree" boostWeight="1.0000000000000000e+00" itree="318">
      <Node pos="s" depth="0" NCoef="0" IVar="1" Cut="1.0035560937500000e+05" cType="1" res="8.5114531219005585e-02" rms="2.8467434644699097e-01" purity="5.0079256296157837e-01" nType="0">
        <Node pos="l" depth="1" NCoef="0" IVar="1" Cut="8.3528140625000000e+04" cType="1" res="2.1052725613117218e-02" rms="2.7304294705390930e-01" purity="2.7691072225570679e-01" nType="0">
          <Node pos="l" depth="2" NCoef="0" IVar="2" Cut="1.7070334375000000e+05" cType="1" res="1.0057616978883743e-01" rms="3.5395020246505737e-01" purity="5.3895217180252075e-01" nType="0">
            <Node pos="l" depth="3" NCoef="0" IVar="-1" Cut="0.0000000000000000e+00" cType="1" res="-8.9637469500303268e-04" rms="3.6512917280197144e-01" purity="3.1896206736564636e-01" nType="-99"/>
            <Node pos="r" depth="3" NCoef="0" IVar="-1" Cut="0.0000000000000000e+00" cType="1" res="2.6154625229537487e-03" rms="3.4513345360755920e-01" purity="5.8873689174652100e-01" nType="-99"/>
          </Node>
          <Node pos="r" depth="2" NCoef="0" IVar="3" Cut="6.5555382812500000e+04" cType="1" res="-3.3665705472230911e-02" rms="1.7972716689109802e-01" purity="9.6605464816093445e-02" nType="0">
            <Node pos="l" depth="3" NCoef="0" IVar="-1" Cut="0.0000000000000000e+00" cType="1" res="-2.3208858445286751e-02" rms="1.3049183785915375e-01" purity="1.3386812061071396e-02" nType="-99"/>
            <Node pos="r" depth="3" NCoef="0" IVar="-1" Cut="0.0000000000000000e+00" cType="1" res="7.8863505041226745e-04" rms="3.8397121429443359e-01" purity="8.0330812931060791e-01" nType="-99"/>
          </Node>
        </Node>
        <Node pos="r" depth="1" NCoef="0" IVar="4" Cut="2.1010882812500000e+05" cType="1" res="1.8892197310924530e-01" rms="2.7225938439369202e-01" purity="8.6357659101486206e-01" nType="0">
          <Node pos="l" depth="2" NCoef="0" IVar="5" Cut="8.9832078125000000e+04" cType="1" res="2.5877469778060913e-01" rms="3.7694948911666870e-01" purity="6.9621515274047852e-01" nType="0">
            <Node pos="l" depth="3" NCoef="0" IVar="-1" Cut="0.0000000000000000e+00" cType="1" res="1.8894483800977468e-03" rms="3.1971281766891479e-01" purity="6.5304064750671387e-01" nType="-99"/>
            <Node pos="r" depth="3" NCoef="0" IVar="-1" Cut="0.0000000000000000e+00" cType="1" res="4.8345834948122501e-03" rms="3.8684740662574768e-01" purity="7.2322022914886475e-01" nType="-99"/>
          </Node>
          <Node pos="r" depth="2" NCoef="0" IVar="5" Cut="8.9706156250000000e+04" cType="1" res="1.7979578673839569e-01" rms="2.5401723384857178e-01" purity="8.8544219732284546e-01" nType="0">
            <Node pos="l" depth="3" NCoef="0" IVar="-1" Cut="0.0000000000000000e+00" cType="1" res="1.1911885812878609e-03" rms="2.4904675781726837e-01" purity="9.0215092897415161e-01" nType="-99"/>
            <Node pos="r" depth="3" NCoef="0" IVar="-1" Cut="0.0000000000000000e+00" cType="1" res="1.4286307850852609e-03" rms="2.5561594963073730e-01" purity="8.7424349784851074e-01" nType="-99"/>
          </Node>
        </Node>
      </Node>
    </BinaryTree>
    <BinaryTree type="DecisionTree" boostWeight="1.0000000000000000e+00" itree="319">
      <Node pos="s" depth="0" NCoef="0" IVar="3" Cut="5.4198226562500000e+04" cType="1" res="7.1529626846313477e-02" rms="2.6658940315246582e-01" purity="4.9211516976356506e-01" nType="0">
        <Node pos="l" depth="1" NCoef="0" IVar="1" Cut="1.4545448437500000e+05" cType="1" res="1.9474996253848076e-02" rms="2.8049513697624207e-01" purity="2.0842301845550537e-01" nType="0">
          <Node pos="l" depth="2" NCoef="0" IVar="1" Cut="1.1354430468750000e+05" cType="1" res="7.7150342985987663e-03" rms="2.6600700616836548e-01" purity="1.2918850779533386e-01" nType="0">
            <Node pos="l" depth="3" NCoef="0" IVar="-1" Cut="0.0000000000000000e+00" cType="1" res="-7.4675516225397587e-04" rms="2.4725306034088135e-01" purity="9.1711565852165222e-02" nType="-99"/>
            <Node pos="r" depth="3" NCoef="0" IVar="-1" Cut="0.0000000000000000e+00" cType="1" res="1.4393388992175460e-03" rms="4.1195681691169739e-01" purity="6.6896390914916992e-01" nType="-99"/>
          </Node>
          <Node pos="r" depth="2" NCoef="0" IVar="3" Cut="2.3219601562500000e+04" cType="1" res="1.0793178528547287e-01" rms="3.5967925190925598e-01" purity="8.0441391468048096e-01" nType="0">
            <Node pos="l" depth="3" NCoef="0" IVar="-1" Cut="0.0000000000000000e+00" cType="1" res="2.0137787214480340e-04" rms="4.5365068316459656e-01" purity="5.9704554080963135e-01" nType="-99"/>
            <Node pos="r" depth="3" NCoef="0" IVar="-1" Cut="0.0000000000000000e+00" cType="1" res="1.8818157259374857e-03" rms="2.9791685938835144e-01" purity="8.9866298437118530e-01" nType="-99"/>
          </Node>
        </Node>
        <Node pos="r" depth="1" NCoef="0" IVar="1" Cut="1.0182259375000000e+05" cType="1" res="1.5256550908088684e-01" rms="2.2009471058845520e-01" purity="9.3375200033187866e-01" nType="0">
          <Node pos="l" depth="2" NCoef="0" IVar="3" Cut="8.9369531250000000e+04" cType="1" res="1.2277350574731827e-01" rms="2.8060904145240784e-01" purity="8.8213664293289185e-01" nType="0">
            <Node pos="l" depth="3" NCoef="0" IVar="-1" Cut="0.0000000000000000e+00" cType="1" res="6.0788454720750451e-04" rms="3.9913082122802734e-01" purity="7.2874629497528076e-01" nType="-99"/>
            <Node pos="r" depth="3" NCoef="0" IVar="-1" Cut="0.0000000000000000e+00" cType="1" res="1.7560275737196207e-03" rms="1.7130166292190552e-01" purity="9.6888750791549683e-01" nType="-99"/>
          </Node>
          <Node pos="r" depth="2" NCoef="0" IVar="1" Cut="1.4241651562500000e+05" cType="1" res="1.7785713076591492e-01" rms="1.4603374898433685e-01" purity="9.7757035493850708e-01" nType="0">
            <Node pos="l" depth="3" NCoef="0" IVar="-1" Cut="0.0000000000000000e+00" cType="1" res="1.9979700446128845e-03" rms="1.8330611288547516e-01" purity="9.6340531110763550e-01" nType="-99"/>
            <Node pos="r" depth="3" NCoef="0" IVar="-1" Cut="0.0000000000000000e+00" cType="1" res="1.9856770522892475e-03" rms="1.2019447237253189e-01" purity="9.8535084724426270e-01" nType="-99"/>
          </Node>
        </Node>
      </Node>
    </BinaryTree>
    <BinaryTree type="DecisionTree" boostWeight="1.0000000000000000e+00" itree="320">
      <Node pos="s" depth="0" NCoef="0" IVar="3" Cut="5.4345996093750000e+04" cType="1" res="7.5187124311923981e-02" rms="2.6971349120140076e-01" purity="5.0342428684234619e-01" nType="0">
        <Node pos="l" depth="1" NCoef="0" IVar="3" Cut="3.3710339843750000e+04" cType="1" res="2.9247637838125229e-02" rms="2.8033119440078735e-01" purity="2.3207107186317444e-01" nType="0">
          <Node pos="l" depth="2" NCoef="0" IVar="5" Cut="9.4505507812500000e+04" cType="1" res="-3.0327383428812027e-03" rms="2.2031880915164948e-01" purity="9.9913299083709717e-02" nType="0">
            <Node pos="l" depth="3" NCoef="0" IVar="-1" Cut="0.0000000000000000e+00" cType="1" res="-1.6369525110349059e-03" rms="2.0631960034370422e-01" purity="8.1727556884288788e-02" nType="-99"/>
            <Node pos="r" depth="3" NCoef="0" IVar="-1" Cut="0.0000000000000000e+00" cType="1" res="3.8597397506237030e-03" rms="3.4051713347434998e-01" purity="3.5379582643508911e-01" nType="-99"/>
          </Node>
          <Node pos="r" depth="2" NCoef="0" IVar="1" Cut="1.0372283593750000e+05" cType="1" res="1.1071342229843140e-01" rms="3.8097777962684631e-01" purity="5.6559675931930542e-01" nType="0">
            <Node pos="l" depth="3" NCoef="0" IVar="-1" Cut="0.0000000000000000e+00" cType="1" res="1.5765570569783449e-03" rms="4.1418302059173584e-01" purity="3.7672477960586548e-01" nType="-99"/>
            <Node pos="r" depth="3" NCoef="0" IVar="-1" Cut="0.0000000000000000e+00" cType="1" res="1.0689800838008523e-03" rms="3.0296012759208679e-01" purity="8.8093382120132446e-01" nType="-99"/>
          </Node>
        </Node>
        <Node pos="r" depth="1" NCoef="0" IVar="1" Cut="1.2541114062500000e+05" cType="1" res="1.4651255309581757e-01" rms="2.3518906533718109e-01" purity="9.2472600936889648e-01" nType="0">
          <Node pos="l" depth="2" NCoef="0" IVar="1" Cut="9.8449742187500000e+04" cType="1" res="1.2205650657415390e-01" rms="2.8529685735702515e-01" purity="8.8415735960006714e-01" nType="0">
            <Node pos="l" depth="3" NCoef="0" IVar="-1" Cut="0.0000000000000000e+00" cType="1" res="1.1522752465680242e-03" rms="3.0347988009452820e-01" purity="8.5938119888305664e-01" nType="-99"/>
            <Node pos="r" depth="3" NCoef="0" IVar="-1" Cut="0.0000000000000000e+00" cType="1" res="1.6051228158175945e-03" rms="2.0792862772941589e-01" purity="9.5752137899398804e-01" nType="-99"/>
          </Node>
          <Node pos="r" depth="2" NCoef="0" IVar="-1" Cut="0.0000000000000000e+00" cType="1" res="1.9331972580403090e-03" rms="1.1618243157863617e-01" purity="9.8622280359268188e-01" nType="-99"/>
        </Node>
      </Node>
    </BinaryTree>
    <BinaryTree type="DecisionTree" boostWeight="1.0000000000000000e+00" itree="321">
      <Node pos="s" depth="0" NCoef="0" IVar="3" Cut="4.8659894531250000e+04" cType="1" res="8.3691261708736420e-02" rms="2.7870658040046692e-01" purity="5.0337362289428711e-01" nType="0">
        <Node pos="l" depth="1" NCoef="0" IVar="1" Cut="9.3450960937500000e+04" cType="1" res="3.3651120960712433e-02" rms="2.9434317350387573e-01" purity="2.0658430457115173e-01" nType="0">
          <Node pos="l" depth="2" NCoef="0" IVar="1" Cut="8.1815312500000000e+04" cType="1" res="7.1965502575039864e-03" rms="2.5509729981422424e-01" purity="9.4485051929950714e-02" nType="0">
            <Node pos="l" depth="3" NCoef="0" IVar="-1" Cut="0.0000000000000000e+00" cType="1" res="2.2687271703034639e-03" rms="3.8653057813644409e-01" purity="2.4284175038337708e-01" nType="-99"/>
            <Node pos="r" depth="3" NCoef="0" IVar="-1" Cut="0.0000000000000000e+00" cType="1" res="-1.2583272531628609e-02" rms="1.4755496382713318e-01" purity="2.1621664986014366e-02" nType="-99"/>
          </Node>
          <Node pos="r" depth="2" NCoef="0" IVar="3" Cut="4.6872021484375000e+03" cType="1" res="7.6982185244560242e-02" rms="3.4486725926399231e-01" purity="3.9019650220870972e-01" nType="0">
            <Node pos="l" depth="3" NCoef="0" IVar="-1" Cut="0.0000000000000000e+00" cType="1" res="2.0044639706611633e-02" rms="4.6695715188980103e-01" purity="3.6042925715446472e-01" nType="-99"/>
            <Node pos="r" depth="3" NCoef="0" IVar="-1" Cut="0.0000000000000000e+00" cType="1" res="1.4582230942323804e-03" rms="3.3137029409408569e-01" purity="3.9201408624649048e-01" nType="-99"/>
          </Node>
        </Node>
        <Node pos="r" depth="1" NCoef="0" IVar="1" Cut="1.3196950000000000e+05" cType="1" res="1.5242180228233337e-01" rms="2.3917940258979797e-01" purity="9.1101610660552979e-01" nType="0">
          <Node pos="l" depth="2" NCoef="0" IVar="1" Cut="9.7554968750000000e+04" cType="1" res="1.3394956290721893e-01" rms="2.8241381049156189e-01" purity="8.7045288085937500e-01" nType="0">
            <Node pos="l" depth="3" NCoef="0" IVar="-1" Cut="0.0000000000000000e+00" cType="1" res="1.2210328131914139e-03" rms="3.1322461366653442e-01" purity="8.3029592037200928e-01" nType="-99"/>
            <Node pos="r" depth="3" NCoef="0" IVar="-1" Cut="0.0000000000000000e+00" cType="1" res="1.4390543801710010e-03" rms="1.9040311872959137e-01" purity="9.5815694332122803e-01" nType="-99"/>
          </Node>
          <Node pos="r" depth="2" NCoef="0" IVar="-1" Cut="0.0000000000000000e+00" cType="1" res="2.2028649691492319e-03" rms="1.1716900765895844e-01" purity="9.8599117994308472e-01" nType="-99"/>
        </Node>
      </Node>
    </BinaryTree>
    <BinaryTree type="DecisionTree" boostWeight="1.0000000000000000e+00" itree="322">
      <Node pos="s" depth="0" NCoef="0" IVar="1" Cut="1.0034835937500000e+05" cType="1" res="9.6874557435512543e-02" rms="2.8975293040275574e-01" purity="5.1180315017700195e-01" nType="0">
        <Node pos="l" depth="1" NCoef="0" IVar="1" Cut="8.3521304687500000e+04" cType="1" res="5.2451789379119873e-02" rms="2.8926271200180054e-01" purity="3.2664486765861511e-01" nType="0">
          <Node pos="l" depth="2" NCoef="0" IVar="2" Cut="2.4360828125000000e+05" cType="1" res="1.2883742153644562e-01" rms="3.4514027833938599e-01" purity="5.9036612510681152e-01" nType="0">
            <Node pos="l" depth="3" NCoef="0" IVar="-1" Cut="0.0000000000000000e+00" cType="1" res="1.3224047143012285e-03" rms="3.2418766617774963e-01" purity="4.6545922756195068e-01" nType="-99"/>
            <Node pos="r" depth="3" NCoef="0" IVar="-1" Cut="0.0000000000000000e+00" cType="1" res="2.8316515963524580e-03" rms="3.4965431690216064e-01" purity="7.4056023359298706e-01" nType="-99"/>
          </Node>
          <Node pos="r" depth="2" NCoef="0" IVar="3" Cut="8.5218093750000000e+04" cType="1" res="-4.4689420610666275e-03" rms="2.2286622226238251e-01" purity="1.3012610375881195e-01" nType="0">
            <Node pos="l" depth="3" NCoef="0" IVar="-1" Cut="0.0000000000000000e+00" cType="1" res="-3.7916353903710842e-03" rms="2.1718904376029968e-01" purity="5.9567946940660477e-02" nType="-99"/>
            <Node pos="r" depth="3" NCoef="0" IVar="-1" Cut="0.0000000000000000e+00" cType="1" res="1.3538963394239545e-03" rms="2.1559435129165649e-01" purity="9.4941616058349609e-01" nType="-99"/>
          </Node>
        </Node>
        <Node pos="r" depth="1" NCoef="0" IVar="2" Cut="3.2332712500000000e+05" cType="1" res="1.7938657104969025e-01" rms="2.7204841375350952e-01" purity="8.5572105646133423e-01" nType="0">
          <Node pos="l" depth="2" NCoef="0" IVar="3" Cut="1.6140807617187500e+04" cType="1" res="1.2746472656726837e-01" rms="3.2199019193649292e-01" purity="7.0439398288726807e-01" nType="0">
            <Node pos="l" depth="3" NCoef="0" IVar="-1" Cut="0.0000000000000000e+00" cType="1" res="-9.5415516989305615e-04" rms="3.0156511068344116e-01" purity="1.4892584085464478e-01" nType="-99"/>
            <Node pos="r" depth="3" NCoef="0" IVar="-1" Cut="0.0000000000000000e+00" cType="1" res="1.5617114258930087e-03" rms="3.1953993439674377e-01" purity="7.9111170768737793e-01" nType="-99"/>
          </Node>
          <Node pos="r" depth="2" NCoef="0" IVar="4" Cut="3.8890809375000000e+05" cType="1" res="2.0020039379596710e-01" rms="2.4617825448513031e-01" purity="9.1638332605361938e-01" nType="0">
            <Node pos="l" depth="3" NCoef="0" IVar="-1" Cut="0.0000000000000000e+00" cType="1" res="9.8944827914237976e-04" rms="2.5325417518615723e-01" purity="9.0055966377258301e-01" nType="-99"/>
            <Node pos="r" depth="3" NCoef="0" IVar="-1" Cut="0.0000000000000000e+00" cType="1" res="1.2263905955478549e-03" rms="2.3730421066284180e-01" purity="9.2716163396835327e-01" nType="-99"/>
          </Node>
        </Node>
      </Node>
    </BinaryTree>
    <BinaryTree type="DecisionTree" boostWeight="1.0000000000000000e+00" itree="323">
      <Node pos="s" depth="0" NCoef="0" IVar="3" Cut="4.8659894531250000e+04" cType="1" res="8.6282476782798767e-02" rms="2.7133071422576904e-01" purity="5.1898550987243652e-01" nType="0">
        <Node pos="l" depth="1" NCoef="0" IVar="1" Cut="7.4216515625000000e+04" cType="1" res="3.5529207438230515e-02" rms="2.8987476229667664e-01" purity="2.1163246035575867e-01" nType="0">
          <Node pos="l" depth="2" NCoef="0" IVar="1" Cut="5.0513582031250000e+04" cType="1" res="1.3417723774909973e-01" rms="4.1885241866111755e-01" purity="3.8465481996536255e-01" nType="0">
            <Node pos="l" depth="3" NCoef="0" IVar="-1" Cut="0.0000000000000000e+00" cType="1" res="5.2177114412188530e-04" rms="3.5599663853645325e-01" purity="2.2147685289382935e-01" nType="-99"/>
            <Node pos="r" depth="3" NCoef="0" IVar="-1" Cut="0.0000000000000000e+00" cType="1" res="4.9885162152349949e-03" rms="4.3976783752441406e-01" purity="5.4273229837417603e-01" nType="-99"/>
          </Node>
          <Node pos="r" depth="2" NCoef="0" IVar="5" Cut="8.9751445312500000e+04" cType="1" res="1.4843270182609558e-02" rms="2.4978126585483551e-01" purity="1.7535066604614258e-01" nType="0">
            <Node pos="l" depth="3" NCoef="0" IVar="-1" Cut="0.0000000000000000e+00" cType="1" res="1.0958525817841291e-03" rms="3.1985026597976685e-01" purity="3.0865058302879333e-01" nType="-99"/>
            <Node pos="r" depth="3" NCoef="0" IVar="-1" Cut="0.0000000000000000e+00" cType="1" res="-6.2853191047906876e-04" rms="2.0653742551803589e-01" purity="1.1755901575088501e-01" nType="-99"/>
          </Node>
        </Node>
        <Node pos="r" depth="1" NCoef="0" IVar="4" Cut="2.0714525000000000e+05" cType="1" res="1.5249355137348175e-01" rms="2.2869053483009338e-01" purity="9.1994845867156982e-01" nType="0">
          <Node pos="l" depth="2" NCoef="0" IVar="2" Cut="1.9822634375000000e+05" cType="1" res="8.1450752913951874e-02" rms="3.4182596206665039e-01" purity="7.9939728975296021e-01" nType="0">
            <Node pos="l" depth="3" NCoef="0" IVar="-1" Cut="0.0000000000000000e+00" cType="1" res="4.6575008309446275e-04" rms="3.8793739676475525e-01" purity="7.5600057840347290e-01" nType="-99"/>
            <Node pos="r" depth="3" NCoef="0" IVar="-1" Cut="0.0000000000000000e+00" cType="1" res="1.7557169776409864e-03" rms="3.0231088399887085e-01" purity="8.2820737361907959e-01" nType="-99"/>
          </Node>
          <Node pos="r" depth="2" NCoef="0" IVar="1" Cut="1.2544069531250000e+05" cType="1" res="1.6253544390201569e-01" rms="2.0581933856010437e-01" purity="9.3698835372924805e-01" nType="0">
            <Node pos="l" depth="3" NCoef="0" IVar="-1" Cut="0.0000000000000000e+00" cType="1" res="1.4982939464971423e-03" rms="2.4611268937587738e-01" purity="9.0433901548385620e-01" nType="-99"/>
            <Node pos="r" depth="3" NCoef="0" IVar="-1" Cut="0.0000000000000000e+00" cType="1" res="2.0018187351524830e-03" rms="1.2301285564899445e-01" purity="9.8454338312149048e-01" nType="-99"/>
          </Node>
        </Node>
      </Node>
    </BinaryTree>
    <BinaryTree type="DecisionTree" boostWeight="1.0000000000000000e+00" itree="324">
      <Node pos="s" depth="0" NCoef="0" IVar="3" Cut="5.4198226562500000e+04" cType="1" res="7.6148986816406250e-02" rms="2.6916414499282837e-01" purity="5.0291049480438232e-01" nType="0">
        <Node pos="l" depth="1" NCoef="0" IVar="3" Cut="3.6139972656250000e+04" cType="1" res="2.5418013334274292e-02" rms="2.8846037387847900e-01" purity="2.0969769358634949e-01" nType="0">
          <Node pos="l" depth="2" NCoef="0" IVar="4" Cut="1.5387631250000000e+05" cType="1" res="7.6965806074440479e-03" rms="2.5280475616455078e-01" purity="1.0509075224399567e-01" nType="0">
            <Node pos="l" depth="3" NCoef="0" IVar="-1" Cut="0.0000000000000000e+00" cType="1" res="5.5475682020187378e-03" rms="3.6899831891059875e-01" purity="1.8754400312900543e-01" nType="-99"/>
            <Node pos="r" depth="3" NCoef="0" IVar="-1" Cut="0.0000000000000000e+00" cType="1" res="-9.9371781107038260e-04" rms="2.2533091902732849e-01" purity="9.2195518314838409e-02" nType="-99"/>
          </Node>
          <Node pos="r" depth="2" NCoef="0" IVar="1" Cut="8.9206218750000000e+04" cType="1" res="8.5160374641418457e-02" rms="3.7900212407112122e-01" purity="5.6234776973724365e-01" nType="0">
            <Node pos="l" depth="3" NCoef="0" IVar="-1" Cut="0.0000000000000000e+00" cType="1" res="5.4385507246479392e-04" rms="4.1474688053131104e-01" purity="4.4214141368865967e-01" nType="-99"/>
            <Node pos="r" depth="3" NCoef="0" IVar="-1" Cut="0.0000000000000000e+00" cType="1" res="1.9699397962540388e-03" rms="3.4685209393501282e-01" purity="6.4651447534561157e-01" nType="-99"/>
          </Node>
        </Node>
        <Node pos="r" depth="1" NCoef="0" IVar="1" Cut="1.3203793750000000e+05" cType="1" res="1.5059189498424530e-01" rms="2.1758145093917847e-01" purity="9.3317252397537231e-01" nType="0">
          <Node pos="l" depth="2" NCoef="0" IVar="1" Cut="9.7671117187500000e+04" cType="1" res="1.3247850537300110e-01" rms="2.5859907269477844e-01" purity="9.0105152130126953e-01" nType="0">
            <Node pos="l" depth="3" NCoef="0" IVar="-1" Cut="0.0000000000000000e+00" cType="1" res="1.2570082908496261e-03" rms="2.9196777939796448e-01" purity="8.6472034454345703e-01" nType="-99"/>
            <Node pos="r" depth="3" NCoef="0" IVar="-1" Cut="0.0000000000000000e+00" cType="1" res="1.7175477696582675e-03" rms="1.5906636416912079e-01" purity="9.7186744213104248e-01" nType="-99"/>
          </Node>
          <Node pos="r" depth="2" NCoef="0" IVar="-1" Cut="0.0000000000000000e+00" cType="1" res="1.7145747551694512e-03" rms="1.1835820227861404e-01" purity="9.8566734790802002e-01" nType="-99"/>
        </Node>
      </Node>
    </BinaryTree>
    <BinaryTree type="DecisionTree" boostWeight="1.0000000000000000e+00" itree="325">
      <Node pos="s" depth="0" NCoef="0" IVar="3" Cut="6.8884250000000000e+04" cType="1" res="8.5941247642040253e-02" rms="2.9269933700561523e-01" purity="4.9401885271072388e-01" nType="0">
        <Node pos="l" depth="1" NCoef="0" IVar="3" Cut="1.3293043945312500e+04" cType="1" res="5.3924035280942917e-02" rms="3.2256123423576355e-01" purity="2.8342929482460022e-01" nType="0">
          <Node pos="l" depth="2" NCoef="0" IVar="0" Cut="3.3333334326744080e-01" cType="1" res="-1.5687089413404465e-02" rms="1.3887816667556763e-01" purity="3.0001485720276833e-02" nType="0">
            <Node pos="l" depth="3" NCoef="0" IVar="-1" Cut="0.0000000000000000e+00" cType="1" res="-1.4979213476181030e-02" rms="1.0016901791095734e-01" purity="1.3318378478288651e-02" nType="-99"/>
            <Node pos="r" depth="3" NCoef="0" IVar="-1" Cut="0.0000000000000000e+00" cType="1" res="2.2055197041481733e-03" rms="1.9767411053180695e-01" purity="6.7621879279613495e-02" nType="-99"/>
          </Node>
          <Node pos="r" depth="2" NCoef="0" IVar="5" Cut="8.9752132812500000e+04" cType="1" res="7.6835617423057556e-02" rms="3.6030972003936768e-01" purity="3.6684167385101318e-01" nType="0">
            <Node pos="l" depth="3" NCoef="0" IVar="-1" Cut="0.0000000000000000e+00" cType="1" res="1.4990427298471332e-03" rms="3.8018479943275452e-01" purity="4.7408601641654968e-01" nType="-99"/>
            <Node pos="r" depth="3" NCoef="0" IVar="-1" Cut="0.0000000000000000e+00" cType="1" res="1.5313171315938234e-03" rms="3.4797286987304688e-01" purity="3.1612569093704224e-01" nType="-99"/>
          </Node>
        </Node>
        <Node pos="r" depth="1" NCoef="0" IVar="1" Cut="1.0342598437500000e+05" cType="1" res="1.5648114681243896e-01" rms="1.9483247399330139e-01" purity="9.5798695087432861e-01" nType="0">
          <Node pos="l" depth="2" NCoef="0" IVar="5" Cut="8.8861367187500000e+04" cType="1" res="1.3213124871253967e-01" rms="2.5366637110710144e-01" purity="9.2628532648086548e-01" nType="0">
            <Node pos="l" depth="3" NCoef="0" IVar="-1" Cut="0.0000000000000000e+00" cType="1" res="7.8282697359099984e-04" rms="3.4346207976341248e-01" purity="8.6117124557495117e-01" nType="-99"/>
            <Node pos="r" depth="3" NCoef="0" IVar="-1" Cut="0.0000000000000000e+00" cType="1" res="1.6188611043617129e-03" rms="2.2378192842006683e-01" purity="9.4165670871734619e-01" nType="-99"/>
          </Node>
          <Node pos="r" depth="2" NCoef="0" IVar="-1" Cut="0.0000000000000000e+00" cType="1" res="2.2723239380866289e-03" rms="1.1572819203138351e-01" purity="9.8629736900329590e-01" nType="-99"/>
        </Node>
      </Node>
    </BinaryTree>
    <BinaryTree type="DecisionTree" boostWeight="1.0000000000000000e+00" itree="326">
      <Node pos="s" depth="0" NCoef="0" IVar="3" Cut="6.8736484375000000e+04" cType="1" res="8.6622379720211029e-02" rms="2.8754010796546936e-01" purity="4.9965250492095947e-01" nType="0">
        <Node pos="l" depth="1" NCoef="0" IVar="3" Cut="2.6205951171875000e+04" cType="1" res="5.9280917048454285e-02" rms="3.1403601169586182e-01" purity="3.1844839453697205e-01" nType="0">
          <Node pos="l" depth="2" NCoef="0" IVar="4" Cut="4.7493018750000000e+05" cType="1" res="1.9872356206178665e-02" rms="2.6033881306648254e-01" purity="1.0712391138076782e-01" nType="0">
            <Node pos="l" depth="3" NCoef="0" IVar="-1" Cut="0.0000000000000000e+00" cType="1" res="7.0610397960990667e-04" rms="2.2915717959403992e-01" purity="7.8644603490829468e-02" nType="-99"/>
            <Node pos="r" depth="3" NCoef="0" IVar="-1" Cut="0.0000000000000000e+00" cType="1" res="6.3209761865437031e-03" rms="4.5891755819320679e-01" purity="4.3064796924591064e-01" nType="-99"/>
          </Node>
          <Node pos="r" depth="2" NCoef="0" IVar="2" Cut="4.4153021875000000e+05" cType="1" res="1.0263875126838684e-01" rms="3.5911443829536438e-01" purity="5.5095046758651733e-01" nType="0">
            <Node pos="l" depth="3" NCoef="0" IVar="-1" Cut="0.0000000000000000e+00" cType="1" res="9.8307861480861902e-04" rms="3.6918693780899048e-01" purity="4.8030012845993042e-01" nType="-99"/>
            <Node pos="r" depth="3" NCoef="0" IVar="-1" Cut="0.0000000000000000e+00" cType="1" res="2.7255406603217125e-03" rms="3.0843102931976318e-01" purity="8.0524915456771851e-01" nType="-99"/>
          </Node>
        </Node>
        <Node pos="r" depth="1" NCoef="0" IVar="1" Cut="1.2544667187500000e+05" cType="1" res="1.5594983100891113e-01" rms="1.8857765197753906e-01" purity="9.5911675691604614e-01" nType="0">
          <Node pos="l" depth="2" NCoef="0" IVar="3" Cut="9.8457492187500000e+04" cType="1" res="1.4222733676433563e-01" rms="2.2326616942882538e-01" purity="9.4108831882476807e-01" nType="0">
            <Node pos="l" depth="3" NCoef="0" IVar="-1" Cut="0.0000000000000000e+00" cType="1" res="1.3281516730785370e-03" rms="3.0797016620635986e-01" purity="8.8057285547256470e-01" nType="-99"/>
            <Node pos="r" depth="3" NCoef="0" IVar="-1" Cut="0.0000000000000000e+00" cType="1" res="1.9821482710540295e-03" rms="1.5095818042755127e-01" purity="9.7631675004959106e-01" nType="-99"/>
          </Node>
          <Node pos="r" depth="2" NCoef="0" IVar="-1" Cut="0.0000000000000000e+00" cType="1" res="2.2891636472195387e-03" rms="1.0992743074893951e-01" purity="9.8776632547378540e-01" nType="-99"/>
        </Node>
      </Node>
    </BinaryTree>
    <BinaryTree type="DecisionTree" boostWeight="1.0000000000000000e+00" itree="327">
      <Node pos="s" depth="0" NCoef="0" IVar="3" Cut="4.4463175781250000e+04" cType="1" res="7.6582528650760651e-02" rms="2.7882242202758789e-01" purity="4.9659511446952820e-01" nType="0">
        <Node pos="l" depth="1" NCoef="0" IVar="3" Cut="1.6969433593750000e+04" cType="1" res="2.6651130989193916e-02" rms="2.8769290447235107e-01" purity="1.6500863432884216e-01" nType="0">
          <Node pos="l" depth="2" NCoef="0" IVar="4" Cut="3.7141443750000000e+05" cType="1" res="-3.2820692285895348e-03" rms="1.9674834609031677e-01" purity="5.8754418045282364e-02" nType="0">
            <Node pos="l" depth="3" NCoef="0" IVar="-1" Cut="0.0000000000000000e+00" cType="1" res="1.1425031116232276e-03" rms="1.9620740413665771e-01" purity="6.4400359988212585e-02" nType="-99"/>
            <Node pos="r" depth="3" NCoef="0" IVar="-1" Cut="0.0000000000000000e+00" cType="1" res="-6.7539878189563751e-02" rms="1.7185704410076141e-01" purity="0.0000000000000000e+00" nType="-99"/>
          </Node>
          <Node pos="r" depth="2" NCoef="0" IVar="2" Cut="2.7461484375000000e+05" cType="1" res="4.9940433353185654e-02" rms="3.4030300378799438e-01" purity="2.4767893552780151e-01" nType="0">
            <Node pos="l" depth="3" NCoef="0" IVar="-1" Cut="0.0000000000000000e+00" cType="1" res="6.6478271037340164e-04" rms="2.9858210682868958e-01" purity="1.3508883118629456e-01" nType="-99"/>
            <Node pos="r" depth="3" NCoef="0" IVar="-1" Cut="0.0000000000000000e+00" cType="1" res="2.5734910741448402e-03" rms="3.7944221496582031e-01" purity="3.8486143946647644e-01" nType="-99"/>
          </Node>
        </Node>
        <Node pos="r" depth="1" NCoef="0" IVar="1" Cut="1.4585268750000000e+05" cType="1" res="1.3508957624435425e-01" rms="2.5594764947891235e-01" purity="8.8513112068176270e-01" nType="0">
          <Node pos="l" depth="2" NCoef="0" IVar="3" Cut="8.0107585937500000e+04" cType="1" res="1.1445885151624680e-01" rms="2.9254773259162903e-01" purity="8.4161049127578735e-01" nType="0">
            <Node pos="l" depth="3" NCoef="0" IVar="-1" Cut="0.0000000000000000e+00" cType="1" res="7.9075252870097756e-04" rms="3.8446509838104248e-01" purity="6.7727279663085938e-01" nType="-99"/>
            <Node pos="r" depth="3" NCoef="0" IVar="-1" Cut="0.0000000000000000e+00" cType="1" res="1.8552535912021995e-03" rms="1.9789390265941620e-01" purity="9.5788037776947021e-01" nType="-99"/>
          </Node>
          <Node pos="r" depth="2" NCoef="0" IVar="-1" Cut="0.0000000000000000e+00" cType="1" res="1.9554467871785164e-03" rms="1.3452464342117310e-01" purity="9.8136430978775024e-01" nType="-99"/>
        </Node>
      </Node>
    </BinaryTree>
    <BinaryTree type="DecisionTree" boostWeight="1.0000000000000000e+00" itree="328">
      <Node pos="s" depth="0" NCoef="0" IVar="3" Cut="6.8736484375000000e+04" cType="1" res="7.9580269753932953e-02" rms="2.7337196469306946e-01" purity="4.8610517382621765e-01" nType="0">
        <Node pos="l" depth="1" NCoef="0" IVar="3" Cut="3.2735208984375000e+04" cType="1" res="4.3019637465476990e-02" rms="2.9539677500724792e-01" purity="2.9136410355567932e-01" nType="0">
          <Node pos="l" depth="2" NCoef="0" IVar="5" Cut="8.6903960937500000e+04" cType="1" res="7.9962443560361862e-03" rms="2.4136449396610260e-01" purity="1.0768837481737137e-01" nType="0">
            <Node pos="l" depth="3" NCoef="0" IVar="-1" Cut="0.0000000000000000e+00" cType="1" res="2.0995226223021746e-03" rms="3.4722614288330078e-01" purity="3.1995236873626709e-01" nType="-99"/>
            <Node pos="r" depth="3" NCoef="0" IVar="-1" Cut="0.0000000000000000e+00" cType="1" res="8.2179576565977186e-05" rms="2.2901514172554016e-01" purity="9.0294443070888519e-02" nType="-99"/>
          </Node>
          <Node pos="r" depth="2" NCoef="0" IVar="2" Cut="2.7994300000000000e+05" cType="1" res="1.0477101802825928e-01" rms="3.6389398574829102e-01" purity="6.1521136760711670e-01" nType="0">
            <Node pos="l" depth="3" NCoef="0" IVar="-1" Cut="0.0000000000000000e+00" cType="1" res="9.8911498207598925e-04" rms="4.0769219398498535e-01" purity="4.6435743570327759e-01" nType="-99"/>
            <Node pos="r" depth="3" NCoef="0" IVar="-1" Cut="0.0000000000000000e+00" cType="1" res="1.6811314271762967e-03" rms="3.2216033339500427e-01" purity="7.3058998584747314e-01" nType="-99"/>
          </Node>
        </Node>
        <Node pos="r" depth="1" NCoef="0" IVar="5" Cut="8.8982117187500000e+04" cType="1" res="1.6952590644359589e-01" rms="1.8037419021129608e-01" purity="9.6520268917083740e-01" nType="0">
          <Node pos="l" depth="2" NCoef="0" IVar="-1" Cut="0.0000000000000000e+00" cType="1" res="1.6895594308152795e-03" rms="1.6518419981002808e-01" purity="9.7409933805465698e-01" nType="-99"/>
          <Node pos="r" depth="2" NCoef="0" IVar="1" Cut="1.0059082812500000e+05" cType="1" res="1.6143068671226501e-01" rms="1.8620696663856506e-01" purity="9.6121948957443237e-01" nType="0">
            <Node pos="l" depth="3" NCoef="0" IVar="-1" Cut="0.0000000000000000e+00" cType="1" res="1.7818392952904105e-03" rms="2.3460622131824493e-01" purity="9.3672448396682739e-01" nType="-99"/>
            <Node pos="r" depth="3" NCoef="0" IVar="-1" Cut="0.0000000000000000e+00" cType="1" res="2.2283694706857204e-03" rms="1.2054511159658432e-01" purity="9.8501133918762207e-01" nType="-99"/>
          </Node>
        </Node>
      </Node>
    </BinaryTree>
    <BinaryTree type="DecisionTree" boostWeight="1.0000000000000000e+00" itree="329">
      <Node pos="s" depth="0" NCoef="0" IVar="1" Cut="9.3462679687500000e+04" cType="1" res="7.4543461203575134e-02" rms="2.8556844592094421e-01" purity="4.8655575513839722e-01" nType="0">
        <Node pos="l" depth="1" NCoef="0" IVar="1" Cut="7.4069132812500000e+04" cType="1" res="2.8007049113512039e-02" rms="2.9312515258789062e-01" purity="2.9855543375015259e-01" nType="0">
          <Node pos="l" depth="2" NCoef="0" IVar="2" Cut="1.5945689062500000e+05" cType="1" res="1.0132004320621490e-01" rms="3.8143783807754517e-01" purity="6.0202401876449585e-01" nType="0">
            <Node pos="l" depth="3" NCoef="0" IVar="-1" Cut="0.0000000000000000e+00" cType="1" res="-3.5614350344985723e-03" rms="3.7168788909912109e-01" purity="3.2563179731369019e-01" nType="-99"/>
            <Node pos="r" depth="3" NCoef="0" IVar="-1" Cut="0.0000000000000000e+00" cType="1" res="2.1527330391108990e-03" rms="3.6716347932815552e-01" purity="6.7066019773483276e-01" nType="-99"/>
          </Node>
          <Node pos="r" depth="2" NCoef="0" IVar="3" Cut="1.1132085937500000e+05" cType="1" res="-1.4929054304957390e-02" rms="2.1457442641258240e-01" purity="1.2082760035991669e-01" nType="0">
            <Node pos="l" depth="3" NCoef="0" IVar="-1" Cut="0.0000000000000000e+00" cType="1" res="-2.7582643087953329e-03" rms="2.1113404631614685e-01" purity="8.1568203866481781e-02" nType="-99"/>
            <Node pos="r" depth="3" NCoef="0" IVar="-1" Cut="0.0000000000000000e+00" cType="1" res="1.7363299848511815e-03" rms="2.2717119753360748e-01" purity="9.4609010219573975e-01" nType="-99"/>
          </Node>
        </Node>
        <Node pos="r" depth="1" NCoef="0" IVar="3" Cut="5.4198226562500000e+04" cType="1" res="1.2668703496456146e-01" rms="2.6740208268165588e-01" purity="6.9720822572708130e-01" nType="0">
          <Node pos="l" depth="2" NCoef="0" IVar="3" Cut="3.6144667968750000e+04" cType="1" res="8.1174314022064209e-02" rms="3.2772228121757507e-01" purity="4.3657031655311584e-01" nType="0">
            <Node pos="l" depth="3" NCoef="0" IVar="-1" Cut="0.0000000000000000e+00" cType="1" res="1.0611021425575018e-03" rms="3.2202851772308350e-01" purity="2.2185561060905457e-01" nType="-99"/>
            <Node pos="r" depth="3" NCoef="0" IVar="-1" Cut="0.0000000000000000e+00" cType="1" res="1.1872771428897977e-03" rms="3.1227347254753113e-01" purity="7.9307430982589722e-01" nType="-99"/>
          </Node>
          <Node pos="r" depth="2" NCoef="0" IVar="0" Cut="1.3333333730697632e+00" cType="1" res="1.7309272289276123e-01" rms="1.7503136396408081e-01" purity="9.6295982599258423e-01" nType="0">
            <Node pos="l" depth="3" NCoef="0" IVar="-1" Cut="0.0000000000000000e+00" cType="1" res="1.7906558932736516e-03" rms="1.6466957330703735e-01" purity="9.6546435356140137e-01" nType="-99"/>
            <Node pos="r" depth="3" NCoef="0" IVar="-1" Cut="0.0000000000000000e+00" cType="1" res="1.9276114180684090e-03" rms="1.8990705907344818e-01" purity="9.5895797014236450e-01" nType="-99"/>
          </Node>
        </Node>
      </Node>
    </BinaryTree>
    <BinaryTree type="DecisionTree" boostWeight="1.0000000000000000e+00" itree="330">
      <Node pos="s" depth="0" NCoef="0" IVar="3" Cut="5.4198226562500000e+04" cType="1" res="8.2324385643005371e-02" rms="2.7360057830810547e-01" purity="4.9956244230270386e-01" nType="0">
        <Node pos="l" depth="1" NCoef="0" IVar="3" Cut="3.3571207031250000e+04" cType="1" res="3.9922155439853668e-02" rms="2.9438149929046631e-01" purity="2.3750345408916473e-01" nType="0">
          <Node pos="l" depth="2" NCoef="0" IVar="4" Cut="5.4217062500000000e+05" cType="1" res="1.5443341806530952e-02" rms="2.5163015723228455e-01" purity="1.2264555692672729e-01" nType="0">
            <Node pos="l" depth="3" NCoef="0" IVar="-1" Cut="0.0000000000000000e+00" cType="1" res="7.3151965625584126e-04" rms="2.3786823451519012e-01" purity="1.0310623049736023e-01" nType="-99"/>
            <Node pos="r" depth="3" NCoef="0" IVar="-1" Cut="0.0000000000000000e+00" cType="1" res="4.0103737264871597e-03" rms="3.9172938466072083e-01" purity="4.3747216463088989e-01" nType="-99"/>
          </Node>
          <Node pos="r" depth="2" NCoef="0" IVar="2" Cut="1.9974151562500000e+05" cType="1" res="1.0648521780967712e-01" rms="3.7957119941711426e-01" purity="5.4982632398605347e-01" nType="0">
            <Node pos="l" depth="3" NCoef="0" IVar="-1" Cut="0.0000000000000000e+00" cType="1" res="-1.4659911394119263e-03" rms="4.2304834723472595e-01" purity="2.8848376870155334e-01" nType="-99"/>
            <Node pos="r" depth="3" NCoef="0" IVar="-1" Cut="0.0000000000000000e+00" cType="1" res="1.3639586977660656e-03" rms="3.6784270405769348e-01" purity="5.8923721313476562e-01" nType="-99"/>
          </Node>
        </Node>
        <Node pos="r" depth="1" NCoef="0" IVar="1" Cut="1.0329192187500000e+05" cType="1" res="1.5253669023513794e-01" rms="2.1772889792919159e-01" purity="9.3349635601043701e-01" nType="0">
          <Node pos="l" depth="2" NCoef="0" IVar="3" Cut="8.4585773437500000e+04" cType="1" res="1.1595589667558670e-01" rms="2.8984671831130981e-01" purity="8.7204807996749878e-01" nType="0">
            <Node pos="l" depth="3" NCoef="0" IVar="-1" Cut="0.0000000000000000e+00" cType="1" res="5.1830394659191370e-04" rms="4.1570332646369934e-01" purity="6.9625383615493774e-01" nType="-99"/>
            <Node pos="r" depth="3" NCoef="0" IVar="-1" Cut="0.0000000000000000e+00" cType="1" res="1.6215018695220351e-03" rms="1.8142330646514893e-01" purity="9.6488350629806519e-01" nType="-99"/>
          </Node>
          <Node pos="r" depth="2" NCoef="0" IVar="0" Cut="1.1428571939468384e+00" cType="1" res="1.8328593671321869e-01" rms="1.2068857997655869e-01" purity="9.8514890670776367e-01" nType="0">
            <Node pos="l" depth="3" NCoef="0" IVar="-1" Cut="0.0000000000000000e+00" cType="1" res="1.4293933054432273e-03" rms="1.0425069928169250e-01" purity="9.8902702331542969e-01" nType="-99"/>
            <Node pos="r" depth="3" NCoef="0" IVar="-1" Cut="0.0000000000000000e+00" cType="1" res="2.0220291335135698e-03" rms="1.5051844716072083e-01" purity="9.7628235816955566e-01" nType="-99"/>
          </Node>
        </Node>
      </Node>
    </BinaryTree>
    <BinaryTree type="DecisionTree" boostWeight="1.0000000000000000e+00" itree="331">
      <Node pos="s" depth="0" NCoef="0" IVar="3" Cut="6.8798242187500000e+04" cType="1" res="7.7281430363655090e-02" rms="2.8387987613677979e-01" purity="4.8185911774635315e-01" nType="0">
        <Node pos="l" depth="1" NCoef="0" IVar="3" Cut="4.5899042968750000e+04" cType="1" res="4.7560047358274460e-02" rms="3.0680096149444580e-01" purity="2.9567316174507141e-01" nType="0">
          <Node pos="l" depth="2" NCoef="0" IVar="5" Cut="9.6352531250000000e+04" cType="1" res="2.9929617419838905e-02" rms="2.9027929902076721e-01" purity="1.8021216988563538e-01" nType="0">
            <Node pos="l" depth="3" NCoef="0" IVar="-1" Cut="0.0000000000000000e+00" cType="1" res="1.2815946247428656e-03" rms="2.8358632326126099e-01" purity="1.7538395524024963e-01" nType="-99"/>
            <Node pos="r" depth="3" NCoef="0" IVar="-1" Cut="0.0000000000000000e+00" cType="1" res="9.2580541968345642e-03" rms="4.8742133378982544e-01" purity="4.2302674055099487e-01" nType="-99"/>
          </Node>
          <Node pos="r" depth="2" NCoef="0" IVar="2" Cut="2.0171651562500000e+05" cType="1" res="1.1763010919094086e-01" rms="3.5663414001464844e-01" purity="7.5455939769744873e-01" nType="0">
            <Node pos="l" depth="3" NCoef="0" IVar="-1" Cut="0.0000000000000000e+00" cType="1" res="-1.7120377160608768e-03" rms="4.5111602544784546e-01" purity="4.7094285488128662e-01" nType="-99"/>
            <Node pos="r" depth="3" NCoef="0" IVar="-1" Cut="0.0000000000000000e+00" cType="1" res="9.4505766173824668e-04" rms="3.4036475419998169e-01" purity="7.8274226188659668e-01" nType="-99"/>
          </Node>
        </Node>
        <Node pos="r" depth="1" NCoef="0" IVar="1" Cut="1.1916937500000000e+05" cType="1" res="1.5314379334449768e-01" rms="1.9498783349990845e-01" purity="9.5708930492401123e-01" nType="0">
          <Node pos="l" depth="2" NCoef="0" IVar="3" Cut="9.8509882812500000e+04" cType="1" res="1.3821290433406830e-01" rms="2.3534509539604187e-01" purity="9.3566799163818359e-01" nType="0">
            <Node pos="l" depth="3" NCoef="0" IVar="-1" Cut="0.0000000000000000e+00" cType="1" res="9.8119780886918306e-04" rms="3.3976241946220398e-01" purity="8.5899800062179565e-01" nType="-99"/>
            <Node pos="r" depth="3" NCoef="0" IVar="-1" Cut="0.0000000000000000e+00" cType="1" res="2.1708162967115641e-03" rms="1.3637483119964600e-01" purity="9.8087149858474731e-01" nType="-99"/>
          </Node>
          <Node pos="r" depth="2" NCoef="0" IVar="-1" Cut="0.0000000000000000e+00" cType="1" res="1.7963899299502373e-03" rms="1.2490944564342499e-01" purity="9.8396289348602295e-01" nType="-99"/>
        </Node>
      </Node>
    </BinaryTree>
    <BinaryTree type="DecisionTree" boostWeight="1.0000000000000000e+00" itree="332">
      <Node pos="s" depth="0" NCoef="0" IVar="1" Cut="9.3450960937500000e+04" cType="1" res="9.5520190894603729e-02" rms="2.8403779864311218e-01" purity="5.2230995893478394e-01" nType="0">
        <Node pos="l" depth="1" NCoef="0" IVar="1" Cut="7.4058382812500000e+04" cType="1" res="5.3636506199836731e-02" rms="2.9478928446769714e-01" purity="3.4905159473419189e-01" nType="0">
          <Node pos="l" depth="2" NCoef="0" IVar="2" Cut="1.6076512500000000e+05" cType="1" res="1.2226480990648270e-01" rms="3.3761915564537048e-01" purity="6.5743434429168701e-01" nType="0">
            <Node pos="l" depth="3" NCoef="0" IVar="-1" Cut="0.0000000000000000e+00" cType="1" res="-5.3986487910151482e-03" rms="2.8124839067459106e-01" purity="2.0830741524696350e-01" nType="-99"/>
            <Node pos="r" depth="3" NCoef="0" IVar="-1" Cut="0.0000000000000000e+00" cType="1" res="2.3365216329693794e-03" rms="3.3348774909973145e-01" purity="7.2541433572769165e-01" nType="-99"/>
          </Node>
          <Node pos="r" depth="2" NCoef="0" IVar="3" Cut="8.5070023437500000e+04" cType="1" res="1.3074110262095928e-02" rms="2.5780352950096130e-01" purity="1.6678358614444733e-01" nType="0">
            <Node pos="l" depth="3" NCoef="0" IVar="-1" Cut="0.0000000000000000e+00" cType="1" res="1.6167649300768971e-04" rms="2.5724121928215027e-01" purity="9.6225030720233917e-02" nType="-99"/>
            <Node pos="r" depth="3" NCoef="0" IVar="-1" Cut="0.0000000000000000e+00" cType="1" res="1.6827189829200506e-03" rms="2.2638873755931854e-01" purity="9.4381588697433472e-01" nType="-99"/>
          </Node>
        </Node>
        <Node pos="r" depth="1" NCoef="0" IVar="4" Cut="2.1501931250000000e+05" cType="1" res="1.4067678153514862e-01" rms="2.6464596390724182e-01" purity="7.0910710096359253e-01" nType="0">
          <Node pos="l" depth="2" NCoef="0" IVar="1" Cut="1.0379594531250000e+05" cType="1" res="4.7676347196102142e-02" rms="2.7974188327789307e-01" purity="2.9171729087829590e-01" nType="0">
            <Node pos="l" depth="3" NCoef="0" IVar="-1" Cut="0.0000000000000000e+00" cType="1" res="-1.3066831743344665e-03" rms="1.8992398679256439e-01" purity="1.1045407503843307e-01" nType="-99"/>
            <Node pos="r" depth="3" NCoef="0" IVar="-1" Cut="0.0000000000000000e+00" cType="1" res="2.9042297974228859e-03" rms="3.7459811568260193e-01" purity="6.4611148834228516e-01" nType="-99"/>
          </Node>
          <Node pos="r" depth="2" NCoef="0" IVar="4" Cut="3.3935012500000000e+05" cType="1" res="1.5844431519508362e-01" rms="2.5787472724914551e-01" purity="7.8884863853454590e-01" nType="0">
            <Node pos="l" depth="3" NCoef="0" IVar="-1" Cut="0.0000000000000000e+00" cType="1" res="1.6309275524690747e-03" rms="2.6824355125427246e-01" purity="6.6143488883972168e-01" nType="-99"/>
            <Node pos="r" depth="3" NCoef="0" IVar="-1" Cut="0.0000000000000000e+00" cType="1" res="1.5165746444836259e-03" rms="2.4931800365447998e-01" purity="8.6622840166091919e-01" nType="-99"/>
          </Node>
        </Node>
      </Node>
    </BinaryTree>
    <BinaryTree type="DecisionTree" boostWeight="1.0000000000000000e+00" itree="333">
      <Node pos="s" depth="0" NCoef="0" IVar="3" Cut="5.4198226562500000e+04" cType="1" res="7.7209606766700745e-02" rms="2.8502455353736877e-01" purity="4.8688846826553345e-01" nType="0">
        <Node pos="l" depth="1" NCoef="0" IVar="3" Cut="3.3567148437500000e+04" cType="1" res="3.7399042397737503e-02" rms="3.0434873700141907e-01" purity="2.1941213309764862e-01" nType="0">
          <Node pos="l" depth="2" NCoef="0" IVar="1" Cut="7.4209273437500000e+04" cType="1" res="1.6673840582370758e-02" rms="2.6105195283889771e-01" purity="1.1240592598915100e-01" nType="0">
            <Node pos="l" depth="3" NCoef="0" IVar="-1" Cut="0.0000000000000000e+00" cType="1" res="5.5834250524640083e-03" rms="4.0260386466979980e-01" purity="2.1370768547058105e-01" nType="-99"/>
            <Node pos="r" depth="3" NCoef="0" IVar="-1" Cut="0.0000000000000000e+00" cType="1" res="6.5434724092483521e-04" rms="2.2494050860404968e-01" purity="9.4429120421409607e-02" nType="-99"/>
          </Node>
          <Node pos="r" depth="2" NCoef="0" IVar="1" Cut="8.4280648437500000e+04" cType="1" res="9.4957463443279266e-02" rms="3.9510586857795715e-01" purity="5.1659178733825684e-01" nType="0">
            <Node pos="l" depth="3" NCoef="0" IVar="-1" Cut="0.0000000000000000e+00" cType="1" res="2.1608087699860334e-03" rms="4.5263776183128357e-01" purity="6.4088928699493408e-01" nType="-99"/>
            <Node pos="r" depth="3" NCoef="0" IVar="-1" Cut="0.0000000000000000e+00" cType="1" res="1.0045988019555807e-03" rms="3.5409682989120483e-01" purity="4.5506009459495544e-01" nType="-99"/>
          </Node>
        </Node>
        <Node pos="r" depth="1" NCoef="0" IVar="1" Cut="1.3196950000000000e+05" cType="1" res="1.4243923127651215e-01" rms="2.3606383800506592e-01" purity="9.2514854669570923e-01" nType="0">
          <Node pos="l" depth="2" NCoef="0" IVar="3" Cut="7.9925757812500000e+04" cType="1" res="1.2500891089439392e-01" rms="2.7646055817604065e-01" purity="8.9359390735626221e-01" nType="0">
            <Node pos="l" depth="3" NCoef="0" IVar="-1" Cut="0.0000000000000000e+00" cType="1" res="6.8797491258010268e-04" rms="4.1764363646507263e-01" purity="7.2312808036804199e-01" nType="-99"/>
            <Node pos="r" depth="3" NCoef="0" IVar="-1" Cut="0.0000000000000000e+00" cType="1" res="1.7187952762469649e-03" rms="1.8640045821666718e-01" purity="9.6255421638488770e-01" nType="-99"/>
          </Node>
          <Node pos="r" depth="2" NCoef="0" IVar="-1" Cut="0.0000000000000000e+00" cType="1" res="2.1510873921215534e-03" rms="1.2222776561975479e-01" purity="9.8478114604949951e-01" nType="-99"/>
        </Node>
      </Node>
    </BinaryTree>
    <BinaryTree type="DecisionTree" boostWeight="1.0000000000000000e+00" itree="334">
      <Node pos="s" depth="0" NCoef="0" IVar="3" Cut="5.4259988281250000e+04" cType="1" res="8.2290560007095337e-02" rms="2.7881008386611938e-01" purity="5.0946217775344849e-01" nType="0">
        <Node pos="l" depth="1" NCoef="0" IVar="3" Cut="2.5900039062500000e+04" cType="1" res="4.5593068003654480e-02" rms="2.9819601774215698e-01" purity="2.5375822186470032e-01" nType="0">
          <Node pos="l" depth="2" NCoef="0" IVar="4" Cut="4.4294618750000000e+05" cType="1" res="1.6033200547099113e-02" rms="2.4655950069427490e-01" purity="1.1270181834697723e-01" nType="0">
            <Node pos="l" depth="3" NCoef="0" IVar="-1" Cut="0.0000000000000000e+00" cType="1" res="4.8574528773315251e-04" rms="2.1746398508548737e-01" purity="8.7931990623474121e-02" nType="-99"/>
            <Node pos="r" depth="3" NCoef="0" IVar="-1" Cut="0.0000000000000000e+00" cType="1" res="3.0468490440398455e-03" rms="4.2426908016204834e-01" purity="3.5968646407127380e-01" nType="-99"/>
          </Node>
          <Node pos="r" depth="2" NCoef="0" IVar="3" Cut="5.1553148437500000e+04" cType="1" res="8.7842509150505066e-02" rms="3.5509392619132996e-01" purity="4.5536786317825317e-01" nType="0">
            <Node pos="l" depth="3" NCoef="0" IVar="-1" Cut="0.0000000000000000e+00" cType="1" res="1.9776658155024052e-03" rms="3.6031904816627502e-01" purity="4.0601345896720886e-01" nType="-99"/>
            <Node pos="r" depth="3" NCoef="0" IVar="-1" Cut="0.0000000000000000e+00" cType="1" res="9.3442492652684450e-04" rms="2.9210102558135986e-01" purity="8.4093391895294189e-01" nType="-99"/>
          </Node>
        </Node>
        <Node pos="r" depth="1" NCoef="0" IVar="1" Cut="1.0168853906250000e+05" cType="1" res="1.4238658547401428e-01" rms="2.3151722550392151e-01" purity="9.2820435762405396e-01" nType="0">
          <Node pos="l" depth="2" NCoef="0" IVar="1" Cut="8.4620210937500000e+04" cType="1" res="1.1297911405563354e-01" rms="2.9184913635253906e-01" purity="8.7729066610336304e-01" nType="0">
            <Node pos="l" depth="3" NCoef="0" IVar="-1" Cut="0.0000000000000000e+00" cType="1" res="1.6711252974346280e-03" rms="2.4110299348831177e-01" purity="9.3374752998352051e-01" nType="-99"/>
            <Node pos="r" depth="3" NCoef="0" IVar="-1" Cut="0.0000000000000000e+00" cType="1" res="2.9975280631333590e-04" rms="3.9951431751251221e-01" purity="7.0191866159439087e-01" nType="-99"/>
          </Node>
          <Node pos="r" depth="2" NCoef="0" IVar="5" Cut="9.0534210937500000e+04" cType="1" res="1.7018787562847137e-01" rms="1.4885786175727844e-01" purity="9.7633713483810425e-01" nType="0">
            <Node pos="l" depth="3" NCoef="0" IVar="-1" Cut="0.0000000000000000e+00" cType="1" res="1.6614247579127550e-03" rms="1.6806703805923462e-01" purity="9.6931540966033936e-01" nType="-99"/>
            <Node pos="r" depth="3" NCoef="0" IVar="-1" Cut="0.0000000000000000e+00" cType="1" res="1.9262696150690317e-03" rms="1.2712249159812927e-01" purity="9.8313105106353760e-01" nType="-99"/>
          </Node>
        </Node>
      </Node>
    </BinaryTree>
    <BinaryTree type="DecisionTree" boostWeight="1.0000000000000000e+00" itree="335">
      <Node pos="s" depth="0" NCoef="0" IVar="3" Cut="4.8659894531250000e+04" cType="1" res="7.4798978865146637e-02" rms="2.8266441822052002e-01" purity="4.9897846579551697e-01" nType="0">
        <Node pos="l" depth="1" NCoef="0" IVar="3" Cut="3.7081828125000000e+04" cType="1" res="2.4728139862418175e-02" rms="3.0081319808959961e-01" purity="1.7528645694255829e-01" nType="0">
          <Node pos="l" depth="2" NCoef="0" IVar="5" Cut="9.6402835937500000e+04" cType="1" res="3.6297377198934555e-02" rms="2.8832945227622986e-01" purity="1.5205731987953186e-01" nType="0">
            <Node pos="l" depth="3" NCoef="0" IVar="-1" Cut="0.0000000000000000e+00" cType="1" res="2.7464977465569973e-03" rms="2.8222033381462097e-01" purity="1.4124718308448792e-01" nType="-99"/>
            <Node pos="r" depth="3" NCoef="0" IVar="-1" Cut="0.0000000000000000e+00" cType="1" res="1.0598484659567475e-03" rms="4.0617147088050842e-01" purity="5.3921490907669067e-01" nType="-99"/>
          </Node>
          <Node pos="r" depth="2" NCoef="0" IVar="2" Cut="2.9990815625000000e+05" cType="1" res="-5.8458641171455383e-02" rms="3.6808818578720093e-01" purity="3.4231197834014893e-01" nType="0">
            <Node pos="l" depth="3" NCoef="0" IVar="-1" Cut="0.0000000000000000e+00" cType="1" res="-1.0201445780694485e-02" rms="3.1878831982612610e-01" purity="1.4196154475212097e-01" nType="-99"/>
            <Node pos="r" depth="3" NCoef="0" IVar="-1" Cut="0.0000000000000000e+00" cType="1" res="1.0632420890033245e-03" rms="3.8808950781822205e-01" purity="5.6425744295120239e-01" nType="-99"/>
          </Node>
        </Node>
        <Node pos="r" depth="1" NCoef="0" IVar="1" Cut="1.0066286718750000e+05" cType="1" res="1.3832359015941620e-01" rms="2.4340985715389252e-01" purity="9.0964478254318237e-01" nType="0">
          <Node pos="l" depth="2" NCoef="0" IVar="3" Cut="8.4097281250000000e+04" cType="1" res="8.2177042961120605e-02" rms="3.2891431450843811e-01" purity="8.1305736303329468e-01" nType="0">
            <Node pos="l" depth="3" NCoef="0" IVar="-1" Cut="0.0000000000000000e+00" cType="1" res="2.9264160548336804e-04" rms="4.1860705614089966e-01" purity="6.4554953575134277e-01" nType="-99"/>
            <Node pos="r" depth="3" NCoef="0" IVar="-1" Cut="0.0000000000000000e+00" cType="1" res="1.6339753055945039e-03" rms="2.2469171881675720e-01" purity="9.4495385885238647e-01" nType="-99"/>
          </Node>
          <Node pos="r" depth="2" NCoef="0" IVar="5" Cut="9.0552585937500000e+04" cType="1" res="1.7811626195907593e-01" rms="1.4404216408729553e-01" purity="9.7809910774230957e-01" nType="0">
            <Node pos="l" depth="3" NCoef="0" IVar="-1" Cut="0.0000000000000000e+00" cType="1" res="1.6245665028691292e-03" rms="1.5832325816154480e-01" purity="9.7367864847183228e-01" nType="-99"/>
            <Node pos="r" depth="3" NCoef="0" IVar="-1" Cut="0.0000000000000000e+00" cType="1" res="1.1833740863949060e-03" rms="1.3195231556892395e-01" purity="9.8142838478088379e-01" nType="-99"/>
          </Node>
        </Node>
      </Node>
    </BinaryTree>
    <BinaryTree type="DecisionTree" boostWeight="1.0000000000000000e+00" itree="336">
      <Node pos="s" depth="0" NCoef="0" IVar="1" Cut="1.0034835937500000e+05" cType="1" res="8.4308840334415436e-02" rms="2.8058639168739319e-01" purity="5.0745910406112671e-01" nType="0">
        <Node pos="l" depth="1" NCoef="0" IVar="1" Cut="7.5107734375000000e+04" cType="1" res="4.5802362263202667e-02" rms="2.7707880735397339e-01" purity="3.2668837904930115e-01" nType="0">
          <Node pos="l" depth="2" NCoef="0" IVar="1" Cut="3.3036496093750000e+04" cType="1" res="1.5394602715969086e-01" rms="3.4706425666809082e-01" purity="6.8073922395706177e-01" nType="0">
            <Node pos="l" depth="3" NCoef="0" IVar="-1" Cut="0.0000000000000000e+00" cType="1" res="-5.2362029236974195e-05" rms="3.2687079906463623e-01" purity="3.6755439639091492e-01" nType="-99"/>
            <Node pos="r" depth="3" NCoef="0" IVar="-1" Cut="0.0000000000000000e+00" cType="1" res="2.5691192131489515e-03" rms="3.4171348810195923e-01" purity="7.5247937440872192e-01" nType="-99"/>
          </Node>
          <Node pos="r" depth="2" NCoef="0" IVar="3" Cut="8.6882109375000000e+04" cType="1" res="-1.0388296097517014e-02" rms="2.1176005899906158e-01" purity="1.4272615313529968e-01" nType="0">
            <Node pos="l" depth="3" NCoef="0" IVar="-1" Cut="0.0000000000000000e+00" cType="1" res="-4.5908936299383640e-03" rms="2.0434413850307465e-01" purity="6.2797345221042633e-02" nType="-99"/>
            <Node pos="r" depth="3" NCoef="0" IVar="-1" Cut="0.0000000000000000e+00" cType="1" res="1.3974444009363651e-03" rms="2.2285199165344238e-01" purity="9.4559603929519653e-01" nType="-99"/>
          </Node>
        </Node>
        <Node pos="r" depth="1" NCoef="0" IVar="3" Cut="2.6405187500000000e+04" cType="1" res="1.5685606002807617e-01" rms="2.7268543839454651e-01" purity="8.4803593158721924e-01" nType="0">
          <Node pos="l" depth="2" NCoef="0" IVar="4" Cut="2.5293564062500000e+05" cType="1" res="6.9377377629280090e-02" rms="4.4750073552131653e-01" purity="4.1213178634643555e-01" nType="0">
            <Node pos="l" depth="3" NCoef="0" IVar="-1" Cut="0.0000000000000000e+00" cType="1" res="-4.1044969111680984e-03" rms="3.3219572901725769e-01" purity="1.4729456603527069e-01" nType="-99"/>
            <Node pos="r" depth="3" NCoef="0" IVar="-1" Cut="0.0000000000000000e+00" cType="1" res="2.2151554003357887e-03" rms="4.8606523871421814e-01" purity="5.6045794486999512e-01" nType="-99"/>
          </Node>
          <Node pos="r" depth="2" NCoef="0" IVar="4" Cut="3.0580803125000000e+05" cType="1" res="1.7384882271289825e-01" rms="2.1937654912471771e-01" purity="9.3271040916442871e-01" nType="0">
            <Node pos="l" depth="3" NCoef="0" IVar="-1" Cut="0.0000000000000000e+00" cType="1" res="2.0082176197320223e-03" rms="2.6249116659164429e-01" purity="8.9997887611389160e-01" nType="-99"/>
            <Node pos="r" depth="3" NCoef="0" IVar="-1" Cut="0.0000000000000000e+00" cType="1" res="1.4498076634481549e-03" rms="1.9280867278575897e-01" purity="9.4941282272338867e-01" nType="-99"/>
          </Node>
        </Node>
      </Node>
    </BinaryTree>
    <BinaryTree type="DecisionTree" boostWeight="1.0000000000000000e+00" itree="337">
      <Node pos="s" depth="0" NCoef="0" IVar="1" Cut="1.2505362500000000e+05" cType="1" res="6.9126799702644348e-02" rms="2.8210076689720154e-01" purity="4.8135438561439514e-01" nType="0">
        <Node pos="l" depth="1" NCoef="0" IVar="3" Cut="7.5697859375000000e+04" cType="1" res="3.9387896656990051e-02" rms="2.8456687927246094e-01" purity="3.4582185745239258e-01" nType="0">
          <Node pos="l" depth="2" NCoef="0" IVar="5" Cut="9.6398648437500000e+04" cType="1" res="1.6052871942520142e-02" rms="2.9069328308105469e-01" purity="1.8320593237876892e-01" nType="0">
            <Node pos="l" depth="3" NCoef="0" IVar="-1" Cut="0.0000000000000000e+00" cType="1" res="3.9850553730502725e-04" rms="2.8685173392295837e-01" purity="1.7341057956218719e-01" nType="-99"/>
            <Node pos="r" depth="3" NCoef="0" IVar="-1" Cut="0.0000000000000000e+00" cType="1" res="2.1846522577106953e-03" rms="3.6922493577003479e-01" purity="5.6783270835876465e-01" nType="-99"/>
          </Node>
          <Node pos="r" depth="2" NCoef="0" IVar="3" Cut="1.4403503125000000e+05" cType="1" res="1.2378638982772827e-01" rms="2.4318525195121765e-01" purity="9.3397361040115356e-01" nType="0">
            <Node pos="l" depth="3" NCoef="0" IVar="-1" Cut="0.0000000000000000e+00" cType="1" res="1.1866643326357007e-03" rms="2.7750551700592041e-01" purity="9.1238796710968018e-01" nType="-99"/>
            <Node pos="r" depth="3" NCoef="0" IVar="-1" Cut="0.0000000000000000e+00" cType="1" res="2.3935190401971340e-03" rms="1.2830574810504913e-01" purity="9.8335587978363037e-01" nType="-99"/>
          </Node>
        </Node>
        <Node pos="r" depth="1" NCoef="0" IVar="3" Cut="4.0953507812500000e+04" cType="1" res="1.6311740875244141e-01" rms="2.5206094980239868e-01" purity="9.0970855951309204e-01" nType="0">
          <Node pos="l" depth="2" NCoef="0" IVar="5" Cut="8.9821234375000000e+04" cType="1" res="1.2592987716197968e-01" rms="4.0135234594345093e-01" purity="7.5047206878662109e-01" nType="0">
            <Node pos="l" depth="3" NCoef="0" IVar="-1" Cut="0.0000000000000000e+00" cType="1" res="1.8422363791614771e-03" rms="3.8442716002464294e-01" purity="8.1847113370895386e-01" nType="-99"/>
            <Node pos="r" depth="3" NCoef="0" IVar="-1" Cut="0.0000000000000000e+00" cType="1" res="5.8205344248563051e-04" rms="4.0013602375984192e-01" purity="6.7197948694229126e-01" nType="-99"/>
          </Node>
          <Node pos="r" depth="2" NCoef="0" IVar="3" Cut="7.7522281250000000e+04" cType="1" res="1.7925633490085602e-01" rms="1.4261488616466522e-01" purity="9.7881525754928589e-01" nType="0">
            <Node pos="l" depth="3" NCoef="0" IVar="-1" Cut="0.0000000000000000e+00" cType="1" res="1.9848779775202274e-03" rms="1.8065777420997620e-01" purity="9.6546769142150879e-01" nType="-99"/>
            <Node pos="r" depth="3" NCoef="0" IVar="-1" Cut="0.0000000000000000e+00" cType="1" res="1.8223295919597149e-03" rms="1.0216692835092545e-01" purity="9.8946422338485718e-01" nType="-99"/>
          </Node>
        </Node>
      </Node>
    </BinaryTree>
    <BinaryTree type="DecisionTree" boostWeight="1.0000000000000000e+00" itree="338">
      <Node pos="s" depth="0" NCoef="0" IVar="3" Cut="6.8850757812500000e+04" cType="1" res="6.3361965119838715e-02" rms="2.8005144000053406e-01" purity="4.7467187047004700e-01" nType="0">
        <Node pos="l" depth="1" NCoef="0" IVar="1" Cut="1.5585303125000000e+05" cType="1" res="2.9484998434782028e-02" rms="3.0002120137214661e-01" purity="2.6561430096626282e-01" nType="0">
          <Node pos="l" depth="2" NCoef="0" IVar="1" Cut="1.0099504687500000e+05" cType="1" res="1.8273549154400826e-02" rms="2.9152175784111023e-01" purity="2.0145012438297272e-01" nType="0">
            <Node pos="l" depth="3" NCoef="0" IVar="-1" Cut="0.0000000000000000e+00" cType="1" res="4.2731207940960303e-05" rms="2.6492226123809814e-01" purity="1.4045067131519318e-01" nType="-99"/>
            <Node pos="r" depth="3" NCoef="0" IVar="-1" Cut="0.0000000000000000e+00" cType="1" res="1.7490127356722951e-03" rms="4.0044280886650085e-01" purity="5.6484228372573853e-01" nType="-99"/>
          </Node>
          <Node pos="r" depth="2" NCoef="0" IVar="5" Cut="9.0579796875000000e+04" cType="1" res="1.2898807227611542e-01" rms="3.5159441828727722e-01" purity="8.3507978916168213e-01" nType="0">
            <Node pos="l" depth="3" NCoef="0" IVar="-1" Cut="0.0000000000000000e+00" cType="1" res="1.7643282189965248e-03" rms="3.5583975911140442e-01" purity="8.5538727045059204e-01" nType="-99"/>
            <Node pos="r" depth="3" NCoef="0" IVar="-1" Cut="0.0000000000000000e+00" cType="1" res="1.4324755175039172e-03" rms="3.4221959114074707e-01" purity="8.0966949462890625e-01" nType="-99"/>
          </Node>
        </Node>
        <Node pos="r" depth="1" NCoef="0" IVar="1" Cut="1.2541114062500000e+05" cType="1" res="1.4052633941173553e-01" rms="2.0850585401058197e-01" purity="9.5085960626602173e-01" nType="0">
          <Node pos="l" depth="2" NCoef="0" IVar="3" Cut="1.3779804687500000e+05" cType="1" res="1.2158388644456863e-01" rms="2.4879027903079987e-01" purity="9.2805600166320801e-01" nType="0">
            <Node pos="l" depth="3" NCoef="0" IVar="-1" Cut="0.0000000000000000e+00" cType="1" res="9.6491206204518676e-04" rms="3.0337926745414734e-01" purity="8.8963550329208374e-01" nType="-99"/>
            <Node pos="r" depth="3" NCoef="0" IVar="-1" Cut="0.0000000000000000e+00" cType="1" res="2.3220966104418039e-03" rms="1.1733097583055496e-01" purity="9.8604345321655273e-01" nType="-99"/>
          </Node>
          <Node pos="r" depth="2" NCoef="0" IVar="-1" Cut="0.0000000000000000e+00" cType="1" res="2.2450420074164867e-03" rms="1.1174078285694122e-01" purity="9.8736923933029175e-01" nType="-99"/>
        </Node>
      </Node>
    </BinaryTree>
    <BinaryTree type="DecisionTree" boostWeight="1.0000000000000000e+00" itree="339">
      <Node pos="s" depth="0" NCoef="0" IVar="3" Cut="5.4345996093750000e+04" cType="1" res="8.3256594836711884e-02" rms="2.8360956907272339e-01" purity="5.0723046064376831e-01" nType="0">
        <Node pos="l" depth="1" NCoef="0" IVar="3" Cut="2.5976386718750000e+04" cType="1" res="4.6368561685085297e-02" rms="3.0302339792251587e-01" purity="2.4778419733047485e-01" nType="0">
          <Node pos="l" depth="2" NCoef="0" IVar="4" Cut="4.7422734375000000e+05" cType="1" res="1.7703158780932426e-02" rms="2.4691027402877808e-01" purity="1.1068192124366760e-01" nType="0">
            <Node pos="l" depth="3" NCoef="0" IVar="-1" Cut="0.0000000000000000e+00" cType="1" res="3.8594760553678498e-05" rms="2.1488747000694275e-01" purity="7.7060051262378693e-02" nType="-99"/>
            <Node pos="r" depth="3" NCoef="0" IVar="-1" Cut="0.0000000000000000e+00" cType="1" res="3.8171608466655016e-03" rms="4.1946801543235779e-01" purity="4.4752719998359680e-01" nType="-99"/>
          </Node>
          <Node pos="r" depth="2" NCoef="0" IVar="5" Cut="9.0698609375000000e+04" cType="1" res="8.7760925292968750e-02" rms="3.6535251140594482e-01" purity="4.4575762748718262e-01" nType="0">
            <Node pos="l" depth="3" NCoef="0" IVar="-1" Cut="0.0000000000000000e+00" cType="1" res="1.0274265659973025e-03" rms="3.7664255499839783e-01" purity="5.3884899616241455e-01" nType="-99"/>
            <Node pos="r" depth="3" NCoef="0" IVar="-1" Cut="0.0000000000000000e+00" cType="1" res="7.1049656253308058e-04" rms="3.4511893987655640e-01" purity="3.4200641512870789e-01" nType="-99"/>
          </Node>
        </Node>
        <Node pos="r" depth="1" NCoef="0" IVar="1" Cut="1.2527707812500000e+05" cType="1" res="1.4282900094985962e-01" rms="2.3726709187030792e-01" purity="9.2622357606887817e-01" nType="0">
          <Node pos="l" depth="2" NCoef="0" IVar="1" Cut="9.8336773437500000e+04" cType="1" res="1.2270361185073853e-01" rms="2.8261885046958923e-01" purity="8.9122182130813599e-01" nType="0">
            <Node pos="l" depth="3" NCoef="0" IVar="-1" Cut="0.0000000000000000e+00" cType="1" res="1.2081130407750607e-03" rms="2.9698994755744934e-01" purity="8.7339246273040771e-01" nType="-99"/>
            <Node pos="r" depth="3" NCoef="0" IVar="-1" Cut="0.0000000000000000e+00" cType="1" res="1.8115499988198280e-03" rms="2.2597837448120117e-01" purity="9.4705700874328613e-01" nType="-99"/>
          </Node>
          <Node pos="r" depth="2" NCoef="0" IVar="-1" Cut="0.0000000000000000e+00" cType="1" res="2.0429729484021664e-03" rms="1.2065379321575165e-01" purity="9.8544639348983765e-01" nType="-99"/>
        </Node>
      </Node>
    </BinaryTree>
    <BinaryTree type="DecisionTree" boostWeight="1.0000000000000000e+00" itree="340">
      <Node pos="s" depth="0" NCoef="0" IVar="3" Cut="5.4312500000000000e+04" cType="1" res="8.4251552820205688e-02" rms="2.7612951397895813e-01" purity="5.1198315620422363e-01" nType="0">
        <Node pos="l" depth="1" NCoef="0" IVar="3" Cut="2.8534074218750000e+04" cType="1" res="4.2272385209798813e-02" rms="3.0175158381462097e-01" purity="2.3822483420372009e-01" nType="0">
          <Node pos="l" depth="2" NCoef="0" IVar="5" Cut="8.7854750000000000e+04" cType="1" res="1.0246520861983299e-02" rms="2.3306253552436829e-01" purity="1.1103827506303787e-01" nType="0">
            <Node pos="l" depth="3" NCoef="0" IVar="-1" Cut="0.0000000000000000e+00" cType="1" res="2.7275518514215946e-03" rms="3.5387572646141052e-01" purity="3.1352770328521729e-01" nType="-99"/>
            <Node pos="r" depth="3" NCoef="0" IVar="-1" Cut="0.0000000000000000e+00" cType="1" res="-2.6410626014694571e-04" rms="2.0834726095199585e-01" purity="8.3429433405399323e-02" nType="-99"/>
          </Node>
          <Node pos="r" depth="2" NCoef="0" IVar="1" Cut="7.8792093750000000e+04" cType="1" res="1.0169569402933121e-01" rms="3.9215105772018433e-01" purity="4.7421684861183167e-01" nType="0">
            <Node pos="l" depth="3" NCoef="0" IVar="-1" Cut="0.0000000000000000e+00" cType="1" res="2.6031243614852428e-03" rms="4.3870523571968079e-01" purity="6.3571143150329590e-01" nType="-99"/>
            <Node pos="r" depth="3" NCoef="0" IVar="-1" Cut="0.0000000000000000e+00" cType="1" res="1.0981482919305563e-03" rms="3.7256470322608948e-01" purity="4.2122441530227661e-01" nType="-99"/>
          </Node>
        </Node>
        <Node pos="r" depth="1" NCoef="0" IVar="1" Cut="9.5133726562500000e+04" cType="1" res="1.4948552846908569e-01" rms="2.1504615247249603e-01" purity="9.3739265203475952e-01" nType="0">
          <Node pos="l" depth="2" NCoef="0" IVar="1" Cut="8.7242960937500000e+04" cType="1" res="1.0028338432312012e-01" rms="2.8701630234718323e-01" purity="8.7298285961151123e-01" nType="0">
            <Node pos="l" depth="3" NCoef="0" IVar="-1" Cut="0.0000000000000000e+00" cType="1" res="1.5607671812176704e-03" rms="2.4648395180702209e-01" purity="9.2212486267089844e-01" nType="-99"/>
            <Node pos="r" depth="3" NCoef="0" IVar="-1" Cut="0.0000000000000000e+00" cType="1" res="-1.2986010871827602e-02" rms="4.0836790204048157e-01" purity="2.6877030730247498e-01" nType="-99"/>
          </Node>
          <Node pos="r" depth="2" NCoef="0" IVar="2" Cut="2.7799162500000000e+05" cType="1" res="1.7696160078048706e-01" rms="1.5478987991809845e-01" purity="9.7336119413375854e-01" nType="0">
            <Node pos="l" depth="3" NCoef="0" IVar="-1" Cut="0.0000000000000000e+00" cType="1" res="1.2198720360174775e-03" rms="2.1300983428955078e-01" purity="9.4246882200241089e-01" nType="-99"/>
            <Node pos="r" depth="3" NCoef="0" IVar="-1" Cut="0.0000000000000000e+00" cType="1" res="1.6094861784949899e-03" rms="1.3489761948585510e-01" purity="9.8156666755676270e-01" nType="-99"/>
          </Node>
        </Node>
      </Node>
    </BinaryTree>
    <BinaryTree type="DecisionTree" boostWeight="1.0000000000000000e+00" itree="341">
      <Node pos="s" depth="0" NCoef="0" IVar="3" Cut="6.8798242187500000e+04" cType="1" res="6.9501601159572601e-02" rms="2.6188439130783081e-01" purity="4.9973782896995544e-01" nType="0">
        <Node pos="l" depth="1" NCoef="0" IVar="1" Cut="9.3462679687500000e+04" cType="1" res="2.7779592201113701e-02" rms="2.8423392772674561e-01" purity="2.8028258681297302e-01" nType="0">
          <Node pos="l" depth="2" NCoef="0" IVar="1" Cut="8.1826148437500000e+04" cType="1" res="-1.1759500950574875e-02" rms="2.4795450270175934e-01" purity="1.3371640443801880e-01" nType="0">
            <Node pos="l" depth="3" NCoef="0" IVar="-1" Cut="0.0000000000000000e+00" cType="1" res="1.3650616165250540e-03" rms="3.6904492974281311e-01" purity="3.4426423907279968e-01" nType="-99"/>
            <Node pos="r" depth="3" NCoef="0" IVar="-1" Cut="0.0000000000000000e+00" cType="1" res="-3.7555541843175888e-02" rms="1.1779371649026871e-01" purity="8.4624979645013809e-03" nType="-99"/>
          </Node>
          <Node pos="r" depth="2" NCoef="0" IVar="2" Cut="2.6456506250000000e+05" cType="1" res="8.4029696881771088e-02" rms="3.2073116302490234e-01" purity="4.8879429697990417e-01" nType="0">
            <Node pos="l" depth="3" NCoef="0" IVar="-1" Cut="0.0000000000000000e+00" cType="1" res="-2.1329866722226143e-03" rms="2.3598958551883698e-01" purity="1.3300685584545135e-01" nType="-99"/>
            <Node pos="r" depth="3" NCoef="0" IVar="-1" Cut="0.0000000000000000e+00" cType="1" res="1.2881952570751309e-03" rms="3.3935618400573730e-01" purity="6.3968861103057861e-01" nType="-99"/>
          </Node>
        </Node>
        <Node pos="r" depth="1" NCoef="0" IVar="1" Cut="1.0373550781250000e+05" cType="1" res="1.5804268419742584e-01" rms="1.7648719251155853e-01" purity="9.6545851230621338e-01" nType="0">
          <Node pos="l" depth="2" NCoef="0" IVar="1" Cut="9.4984484375000000e+04" cType="1" res="1.4198972284793854e-01" rms="2.3267205059528351e-01" purity="9.3804967403411865e-01" nType="0">
            <Node pos="l" depth="3" NCoef="0" IVar="-1" Cut="0.0000000000000000e+00" cType="1" res="1.7001456581056118e-03" rms="2.3049499094486237e-01" purity="9.3834203481674194e-01" nType="-99"/>
            <Node pos="r" depth="3" NCoef="0" IVar="-1" Cut="0.0000000000000000e+00" cType="1" res="1.3784676557406783e-03" rms="2.4079024791717529e-01" purity="9.3641108274459839e-01" nType="-99"/>
          </Node>
          <Node pos="r" depth="2" NCoef="0" IVar="-1" Cut="0.0000000000000000e+00" cType="1" res="1.7298044404014945e-03" rms="1.0697779059410095e-01" purity="9.8847597837448120e-01" nType="-99"/>
        </Node>
      </Node>
    </BinaryTree>
    <BinaryTree type="DecisionTree" boostWeight="1.0000000000000000e+00" itree="342">
      <Node pos="s" depth="0" NCoef="0" IVar="3" Cut="6.8736484375000000e+04" cType="1" res="7.8074075281620026e-02" rms="2.6773002743721008e-01" purity="5.1039272546768188e-01" nType="0">
        <Node pos="l" depth="1" NCoef="0" IVar="1" Cut="9.3482273437500000e+04" cType="1" res="4.1107662022113800e-02" rms="2.9349109530448914e-01" purity="2.9881119728088379e-01" nType="0">
          <Node pos="l" depth="2" NCoef="0" IVar="3" Cut="6.2149621093750000e+04" cType="1" res="1.2567301746457815e-03" rms="2.6671174168586731e-01" purity="1.4273580908775330e-01" nType="0">
            <Node pos="l" depth="3" NCoef="0" IVar="-1" Cut="0.0000000000000000e+00" cType="1" res="-7.3160533793270588e-04" rms="2.6046872138977051e-01" purity="1.0666337609291077e-01" nType="-99"/>
            <Node pos="r" depth="3" NCoef="0" IVar="-1" Cut="0.0000000000000000e+00" cType="1" res="1.6673798672854900e-03" rms="3.2125911116600037e-01" purity="8.4976184368133545e-01" nType="-99"/>
          </Node>
          <Node pos="r" depth="2" NCoef="0" IVar="3" Cut="2.9440949218750000e+04" cType="1" res="9.6282593905925751e-02" rms="3.1884881854057312e-01" purity="5.1490277051925659e-01" nType="0">
            <Node pos="l" depth="3" NCoef="0" IVar="-1" Cut="0.0000000000000000e+00" cType="1" res="1.1093844659626484e-03" rms="3.0181634426116943e-01" purity="2.5480845570564270e-01" nType="-99"/>
            <Node pos="r" depth="3" NCoef="0" IVar="-1" Cut="0.0000000000000000e+00" cType="1" res="1.6869881656020880e-03" rms="3.2378774881362915e-01" purity="7.6750499010086060e-01" nType="-99"/>
          </Node>
        </Node>
        <Node pos="r" depth="1" NCoef="0" IVar="4" Cut="3.4782887500000000e+05" cType="1" res="1.5767197310924530e-01" rms="1.7683376371860504e-01" purity="9.6598029136657715e-01" nType="0">
          <Node pos="l" depth="2" NCoef="0" IVar="3" Cut="9.4282007812500000e+04" cType="1" res="1.3288713991641998e-01" rms="2.2126014530658722e-01" purity="9.4243896007537842e-01" nType="0">
            <Node pos="l" depth="3" NCoef="0" IVar="-1" Cut="0.0000000000000000e+00" cType="1" res="1.4214854454621673e-03" rms="3.0475419759750366e-01" purity="8.8484746217727661e-01" nType="-99"/>
            <Node pos="r" depth="3" NCoef="0" IVar="-1" Cut="0.0000000000000000e+00" cType="1" res="1.6929603880271316e-03" rms="1.3277144730091095e-01" purity="9.8155695199966431e-01" nType="-99"/>
          </Node>
          <Node pos="r" depth="2" NCoef="0" IVar="5" Cut="9.0249781250000000e+04" cType="1" res="1.6988724470138550e-01" rms="1.4866633713245392e-01" purity="9.7758257389068604e-01" nType="0">
            <Node pos="l" depth="3" NCoef="0" IVar="-1" Cut="0.0000000000000000e+00" cType="1" res="1.8498636782169342e-03" rms="1.3490767776966095e-01" purity="9.8369878530502319e-01" nType="-99"/>
            <Node pos="r" depth="3" NCoef="0" IVar="-1" Cut="0.0000000000000000e+00" cType="1" res="1.8187086097896099e-03" rms="1.5919208526611328e-01" purity="9.7200161218643188e-01" nType="-99"/>
          </Node>
        </Node>
      </Node>
    </BinaryTree>
    <BinaryTree type="DecisionTree" boostWeight="1.0000000000000000e+00" itree="343">
      <Node pos="s" depth="0" NCoef="0" IVar="3" Cut="6.8798242187500000e+04" cType="1" res="7.8151009976863861e-02" rms="2.6535251736640930e-01" purity="5.1091456413269043e-01" nType="0">
        <Node pos="l" depth="1" NCoef="0" IVar="3" Cut="4.2633453125000000e+04" cType="1" res="4.2230818420648575e-02" rms="2.9201775789260864e-01" purity="3.0297416448593140e-01" nType="0">
          <Node pos="l" depth="2" NCoef="0" IVar="2" Cut="4.4022640625000000e+05" cType="1" res="1.6488038003444672e-02" rms="2.6936012506484985e-01" purity="1.5535271167755127e-01" nType="0">
            <Node pos="l" depth="3" NCoef="0" IVar="-1" Cut="0.0000000000000000e+00" cType="1" res="4.9083324847742915e-04" rms="2.5223255157470703e-01" purity="1.1992407590150833e-01" nType="-99"/>
            <Node pos="r" depth="3" NCoef="0" IVar="-1" Cut="0.0000000000000000e+00" cType="1" res="2.5303608272224665e-03" rms="3.6761099100112915e-01" purity="4.3482637405395508e-01" nType="-99"/>
          </Node>
          <Node pos="r" depth="2" NCoef="0" IVar="2" Cut="1.9768109375000000e+05" cType="1" res="1.2070728093385696e-01" rms="3.4039798378944397e-01" purity="7.5299596786499023e-01" nType="0">
            <Node pos="l" depth="3" NCoef="0" IVar="-1" Cut="0.0000000000000000e+00" cType="1" res="-6.3157215481624007e-04" rms="4.1581204533576965e-01" purity="5.1941782236099243e-01" nType="-99"/>
            <Node pos="r" depth="3" NCoef="0" IVar="-1" Cut="0.0000000000000000e+00" cType="1" res="1.2065471382811666e-03" rms="3.2754138112068176e-01" purity="7.7753400802612305e-01" nType="-99"/>
          </Node>
        </Node>
        <Node pos="r" depth="1" NCoef="0" IVar="1" Cut="1.2572065625000000e+05" cType="1" res="1.5709419548511505e-01" rms="1.6935339570045471e-01" purity="9.6791315078735352e-01" nType="0">
          <Node pos="l" depth="2" NCoef="0" IVar="0" Cut="2.2857143878936768e+00" cType="1" res="1.4348974823951721e-01" rms="2.1284005045890808e-01" purity="9.4815164804458618e-01" nType="0">
            <Node pos="l" depth="3" NCoef="0" IVar="-1" Cut="0.0000000000000000e+00" cType="1" res="1.6849637031555176e-03" rms="1.9813159108161926e-01" purity="9.5534473657608032e-01" nType="-99"/>
            <Node pos="r" depth="3" NCoef="0" IVar="-1" Cut="0.0000000000000000e+00" cType="1" res="9.3779352027922869e-04" rms="3.1820115447044373e-01" purity="8.7489163875579834e-01" nType="-99"/>
          </Node>
          <Node pos="r" depth="2" NCoef="0" IVar="-1" Cut="0.0000000000000000e+00" cType="1" res="1.6332680825144053e-03" rms="8.7839342653751373e-02" purity="9.9223595857620239e-01" nType="-99"/>
        </Node>
      </Node>
    </BinaryTree>
    <BinaryTree type="DecisionTree" boostWeight="1.0000000000000000e+00" itree="344">
      <Node pos="s" depth="0" NCoef="0" IVar="3" Cut="4.4577453125000000e+04" cType="1" res="7.5139500200748444e-02" rms="2.7497807145118713e-01" purity="4.9629232287406921e-01" nType="0">
        <Node pos="l" depth="1" NCoef="0" IVar="2" Cut="4.3875165625000000e+05" cType="1" res="3.2170884311199188e-02" rms="2.8844028711318970e-01" purity="1.7031966149806976e-01" nType="0">
          <Node pos="l" depth="2" NCoef="0" IVar="1" Cut="6.6509539062500000e+04" cType="1" res="1.8895771354436874e-02" rms="2.7262461185455322e-01" purity="1.3266736268997192e-01" nType="0">
            <Node pos="l" depth="3" NCoef="0" IVar="-1" Cut="0.0000000000000000e+00" cType="1" res="1.9453499699011445e-03" rms="4.1220840811729431e-01" purity="2.9880601167678833e-01" nType="-99"/>
            <Node pos="r" depth="3" NCoef="0" IVar="-1" Cut="0.0000000000000000e+00" cType="1" res="6.2493042787536979e-04" rms="2.3831431567668915e-01" purity="1.0412661731243134e-01" nType="-99"/>
          </Node>
          <Node pos="r" depth="2" NCoef="0" IVar="2" Cut="5.0550831250000000e+05" cType="1" res="1.4059883356094360e-01" rms="3.7746453285217285e-01" purity="4.7785472869873047e-01" nType="0">
            <Node pos="l" depth="3" NCoef="0" IVar="-1" Cut="0.0000000000000000e+00" cType="1" res="2.0149191841483116e-03" rms="4.1167682409286499e-01" purity="5.9313982725143433e-01" nType="-99"/>
            <Node pos="r" depth="3" NCoef="0" IVar="-1" Cut="0.0000000000000000e+00" cType="1" res="4.4650118798017502e-04" rms="2.8962233662605286e-01" purity="3.6791971325874329e-01" nType="-99"/>
          </Node>
        </Node>
        <Node pos="r" depth="1" NCoef="0" IVar="4" Cut="2.0977406250000000e+05" cType="1" res="1.2655206024646759e-01" rms="2.4836495518684387e-01" purity="8.8632333278656006e-01" nType="0">
          <Node pos="l" depth="2" NCoef="0" IVar="3" Cut="5.9586562500000000e+04" cType="1" res="3.2376062124967575e-02" rms="3.4344482421875000e-01" purity="7.1448856592178345e-01" nType="0">
            <Node pos="l" depth="3" NCoef="0" IVar="-1" Cut="0.0000000000000000e+00" cType="1" res="-7.6919547282159328e-03" rms="3.5709667205810547e-01" purity="2.6130527257919312e-01" nType="-99"/>
            <Node pos="r" depth="3" NCoef="0" IVar="-1" Cut="0.0000000000000000e+00" cType="1" res="1.8413002835586667e-03" rms="2.9279625415802002e-01" purity="8.8565188646316528e-01" nType="-99"/>
          </Node>
          <Node pos="r" depth="2" NCoef="0" IVar="1" Cut="1.3213310937500000e+05" cType="1" res="1.3920907676219940e-01" rms="2.2971838712692261e-01" purity="9.0941751003265381e-01" nType="0">
            <Node pos="l" depth="3" NCoef="0" IVar="-1" Cut="0.0000000000000000e+00" cType="1" res="1.3217786327004433e-03" rms="2.6998460292816162e-01" purity="8.6388033628463745e-01" nType="-99"/>
            <Node pos="r" depth="3" NCoef="0" IVar="-1" Cut="0.0000000000000000e+00" cType="1" res="1.9555210601538420e-03" rms="1.4315402507781982e-01" purity="9.7874373197555542e-01" nType="-99"/>
          </Node>
        </Node>
      </Node>
    </BinaryTree>
    <BinaryTree type="DecisionTree" boostWeight="1.0000000000000000e+00" itree="345">
      <Node pos="s" depth="0" NCoef="0" IVar="1" Cut="1.0034389062500000e+05" cType="1" res="7.3505766689777374e-02" rms="2.7582505345344543e-01" purity="4.9331405758857727e-01" nType="0">
        <Node pos="l" depth="1" NCoef="0" IVar="1" Cut="7.9300140625000000e+04" cType="1" res="3.5420518368482590e-02" rms="2.7561339735984802e-01" purity="3.0481407046318054e-01" nType="0">
          <Node pos="l" depth="2" NCoef="0" IVar="1" Cut="3.7639132812500000e+04" cType="1" res="1.3374854624271393e-01" rms="3.5543882846832275e-01" purity="6.4094269275665283e-01" nType="0">
            <Node pos="l" depth="3" NCoef="0" IVar="-1" Cut="0.0000000000000000e+00" cType="1" res="5.2307936130091548e-04" rms="3.4996125102043152e-01" purity="4.3387484550476074e-01" nType="-99"/>
            <Node pos="r" depth="3" NCoef="0" IVar="-1" Cut="0.0000000000000000e+00" cType="1" res="2.1371718030422926e-03" rms="3.4953463077545166e-01" purity="7.0333409309387207e-01" nType="-99"/>
          </Node>
          <Node pos="r" depth="2" NCoef="0" IVar="3" Cut="1.1564621093750000e+05" cType="1" res="-2.2490456700325012e-02" rms="1.9299395382404327e-01" purity="1.0684874653816223e-01" nType="0">
            <Node pos="l" depth="3" NCoef="0" IVar="-1" Cut="0.0000000000000000e+00" cType="1" res="-3.1518228352069855e-03" rms="1.9028042256832123e-01" purity="7.4987895786762238e-02" nType="-99"/>
            <Node pos="r" depth="3" NCoef="0" IVar="-1" Cut="0.0000000000000000e+00" cType="1" res="2.2796376142650843e-03" rms="1.8175430595874786e-01" purity="9.6492040157318115e-01" nType="-99"/>
          </Node>
        </Node>
        <Node pos="r" depth="1" NCoef="0" IVar="2" Cut="3.1938328125000000e+05" cType="1" res="1.4551939070224762e-01" rms="2.6147955656051636e-01" purity="8.4973996877670288e-01" nType="0">
          <Node pos="l" depth="2" NCoef="0" IVar="3" Cut="1.9798177734375000e+04" cType="1" res="1.1010205000638962e-01" rms="3.2099023461341858e-01" purity="6.8734443187713623e-01" nType="0">
            <Node pos="l" depth="3" NCoef="0" IVar="-1" Cut="0.0000000000000000e+00" cType="1" res="-4.5709768310189247e-03" rms="2.7684277296066284e-01" purity="1.2887465953826904e-01" nType="-99"/>
            <Node pos="r" depth="3" NCoef="0" IVar="-1" Cut="0.0000000000000000e+00" cType="1" res="2.1861058194190264e-03" rms="3.1631392240524292e-01" purity="8.0797290802001953e-01" nType="-99"/>
          </Node>
          <Node pos="r" depth="2" NCoef="0" IVar="5" Cut="8.9639539062500000e+04" cType="1" res="1.5926113724708557e-01" rms="2.3290959000587463e-01" purity="9.1274857521057129e-01" nType="0">
            <Node pos="l" depth="3" NCoef="0" IVar="-1" Cut="0.0000000000000000e+00" cType="1" res="1.4993981458246708e-03" rms="2.3285533487796783e-01" purity="9.0360623598098755e-01" nType="-99"/>
            <Node pos="r" depth="3" NCoef="0" IVar="-1" Cut="0.0000000000000000e+00" cType="1" res="1.4515500515699387e-03" rms="2.3188060522079468e-01" purity="9.1719913482666016e-01" nType="-99"/>
          </Node>
        </Node>
      </Node>
    </BinaryTree>
    <BinaryTree type="DecisionTree" boostWeight="1.0000000000000000e+00" itree="346">
      <Node pos="s" depth="0" NCoef="0" IVar="3" Cut="6.8798242187500000e+04" cType="1" res="8.0431126058101654e-02" rms="2.7564552426338196e-01" purity="5.0668877363204956e-01" nType="0">
        <Node pos="l" depth="1" NCoef="0" IVar="3" Cut="3.6070121093750000e+04" cType="1" res="4.7284480184316635e-02" rms="3.0132728815078735e-01" purity="3.0662867426872253e-01" nType="0">
          <Node pos="l" depth="2" NCoef="0" IVar="1" Cut="7.4209273437500000e+04" cType="1" res="1.7887782305479050e-02" rms="2.6332169771194458e-01" purity="1.3217598199844360e-01" nType="0">
            <Node pos="l" depth="3" NCoef="0" IVar="-1" Cut="0.0000000000000000e+00" cType="1" res="3.1182211823761463e-03" rms="3.9811825752258301e-01" purity="2.2583939135074615e-01" nType="-99"/>
            <Node pos="r" depth="3" NCoef="0" IVar="-1" Cut="0.0000000000000000e+00" cType="1" res="6.6244462504982948e-04" rms="2.3034460842609406e-01" purity="1.1579025536775589e-01" nType="-99"/>
          </Node>
          <Node pos="r" depth="2" NCoef="0" IVar="2" Cut="2.5626764062500000e+05" cType="1" res="1.0867998749017715e-01" rms="3.6061489582061768e-01" purity="6.7097610235214233e-01" nType="0">
            <Node pos="l" depth="3" NCoef="0" IVar="-1" Cut="0.0000000000000000e+00" cType="1" res="7.3682086076587439e-04" rms="4.1833475232124329e-01" purity="4.8785376548767090e-01" nType="-99"/>
            <Node pos="r" depth="3" NCoef="0" IVar="-1" Cut="0.0000000000000000e+00" cType="1" res="1.7805245006456971e-03" rms="3.2012435793876648e-01" purity="7.6924461126327515e-01" nType="-99"/>
          </Node>
        </Node>
        <Node pos="r" depth="1" NCoef="0" IVar="2" Cut="2.9978265625000000e+05" cType="1" res="1.5612421929836273e-01" rms="1.8413223326206207e-01" purity="9.6354252099990845e-01" nType="0">
          <Node pos="l" depth="2" NCoef="0" IVar="2" Cut="2.2249307812500000e+05" cType="1" res="1.3889525830745697e-01" rms="2.3501390218734741e-01" purity="9.3844628334045410e-01" nType="0">
            <Node pos="l" depth="3" NCoef="0" IVar="-1" Cut="0.0000000000000000e+00" cType="1" res="1.6899368492886424e-03" rms="2.1661983430385590e-01" purity="9.5007789134979248e-01" nType="-99"/>
            <Node pos="r" depth="3" NCoef="0" IVar="-1" Cut="0.0000000000000000e+00" cType="1" res="1.7685457132756710e-03" rms="2.5389775633811951e-01" purity="9.2340064048767090e-01" nType="-99"/>
          </Node>
          <Node pos="r" depth="2" NCoef="0" IVar="5" Cut="9.0821609375000000e+04" cType="1" res="1.6699334979057312e-01" rms="1.4193284511566162e-01" purity="9.7937476634979248e-01" nType="0">
            <Node pos="l" depth="3" NCoef="0" IVar="-1" Cut="0.0000000000000000e+00" cType="1" res="1.9145051483064890e-03" rms="1.6505399346351624e-01" purity="9.7144925594329834e-01" nType="-99"/>
            <Node pos="r" depth="3" NCoef="0" IVar="-1" Cut="0.0000000000000000e+00" cType="1" res="1.5260301297530532e-03" rms="1.2499574571847916e-01" purity="9.8421210050582886e-01" nType="-99"/>
          </Node>
        </Node>
      </Node>
    </BinaryTree>
    <BinaryTree type="DecisionTree" boostWeight="1.0000000000000000e+00" itree="347">
      <Node pos="s" depth="0" NCoef="0" IVar="3" Cut="3.3024675781250000e+04" cType="1" res="7.4223272502422333e-02" rms="2.7722144126892090e-01" purity="4.7998186945915222e-01" nType="0">
        <Node pos="l" depth="1" NCoef="0" IVar="5" Cut="8.4994914062500000e+04" cType="1" res="1.8013138324022293e-02" rms="2.5176379084587097e-01" purity="1.2473478913307190e-01" nType="0">
          <Node pos="l" depth="2" NCoef="0" IVar="-1" Cut="0.0000000000000000e+00" cType="1" res="6.9991806522011757e-03" rms="4.7089844942092896e-01" purity="4.3167844414710999e-01" nType="-99"/>
          <Node pos="r" depth="2" NCoef="0" IVar="3" Cut="2.9880933593750000e+04" cType="1" res="1.0373642668128014e-02" rms="2.3705899715423584e-01" purity="1.1421678215265274e-01" nType="0">
            <Node pos="l" depth="3" NCoef="0" IVar="-1" Cut="0.0000000000000000e+00" cType="1" res="2.6873312890529633e-04" rms="2.2239975631237030e-01" purity="9.7983591258525848e-02" nType="-99"/>
            <Node pos="r" depth="3" NCoef="0" IVar="-1" Cut="0.0000000000000000e+00" cType="1" res="4.4989208690822124e-03" rms="3.5502266883850098e-01" purity="3.0418634414672852e-01" nType="-99"/>
          </Node>
        </Node>
        <Node pos="r" depth="1" NCoef="0" IVar="3" Cut="6.4425058593750000e+04" cType="1" res="1.2284601479768753e-01" rms="2.8879648447036743e-01" purity="7.8727680444717407e-01" nType="0">
          <Node pos="l" depth="2" NCoef="0" IVar="5" Cut="8.9598945312500000e+04" cType="1" res="8.5411824285984039e-02" rms="3.7683400511741638e-01" purity="5.5260610580444336e-01" nType="0">
            <Node pos="l" depth="3" NCoef="0" IVar="-1" Cut="0.0000000000000000e+00" cType="1" res="2.1042258013039827e-03" rms="3.9072966575622559e-01" purity="6.9243645668029785e-01" nType="-99"/>
            <Node pos="r" depth="3" NCoef="0" IVar="-1" Cut="0.0000000000000000e+00" cType="1" res="8.5780589142814279e-04" rms="3.6332589387893677e-01" purity="4.8134654760360718e-01" nType="-99"/>
          </Node>
          <Node pos="r" depth="2" NCoef="0" IVar="1" Cut="1.3210354687500000e+05" cType="1" res="1.4934800565242767e-01" rms="2.0055440068244934e-01" purity="9.5341479778289795e-01" nType="0">
            <Node pos="l" depth="3" NCoef="0" IVar="-1" Cut="0.0000000000000000e+00" cType="1" res="1.4177535194903612e-03" rms="2.5114980340003967e-01" purity="9.2532116174697876e-01" nType="-99"/>
            <Node pos="r" depth="3" NCoef="0" IVar="-1" Cut="0.0000000000000000e+00" cType="1" res="2.1346979774534702e-03" rms="8.7822124361991882e-02" purity="9.9223130941390991e-01" nType="-99"/>
          </Node>
        </Node>
      </Node>
    </BinaryTree>
    <BinaryTree type="DecisionTree" boostWeight="1.0000000000000000e+00" itree="348">
      <Node pos="s" depth="0" NCoef="0" IVar="3" Cut="4.8721656250000000e+04" cType="1" res="7.3511153459548950e-02" rms="2.7331838011741638e-01" purity="4.9476119875907898e-01" nType="0">
        <Node pos="l" depth="1" NCoef="0" IVar="3" Cut="1.1694655273437500e+04" cType="1" res="2.8330342844128609e-02" rms="2.8525921702384949e-01" purity="1.9752082228660583e-01" nType="0">
          <Node pos="l" depth="2" NCoef="0" IVar="4" Cut="3.0808843750000000e+05" cType="1" res="-1.0651985183358192e-02" rms="1.3656698167324066e-01" purity="3.0803313478827477e-02" nType="0">
            <Node pos="l" depth="3" NCoef="0" IVar="-1" Cut="0.0000000000000000e+00" cType="1" res="-1.3529880903661251e-02" rms="1.0065156221389771e-01" purity="1.2278862297534943e-02" nType="-99"/>
            <Node pos="r" depth="3" NCoef="0" IVar="-1" Cut="0.0000000000000000e+00" cType="1" res="1.3498321641236544e-03" rms="2.5096744298934937e-01" purity="1.3017682731151581e-01" nType="-99"/>
          </Node>
          <Node pos="r" depth="2" NCoef="0" IVar="5" Cut="8.6903976562500000e+04" cType="1" res="4.1083443909883499e-02" rms="3.1817084550857544e-01" purity="2.5206261873245239e-01" nType="0">
            <Node pos="l" depth="3" NCoef="0" IVar="-1" Cut="0.0000000000000000e+00" cType="1" res="2.1706107072532177e-03" rms="3.8509547710418701e-01" purity="4.5483011007308960e-01" nType="-99"/>
            <Node pos="r" depth="3" NCoef="0" IVar="-1" Cut="0.0000000000000000e+00" cType="1" res="1.4473402407020330e-03" rms="3.1063020229339600e-01" purity="2.3399777710437775e-01" nType="-99"/>
          </Node>
        </Node>
        <Node pos="r" depth="1" NCoef="0" IVar="4" Cut="1.8337079687500000e+05" cType="1" res="1.3655516505241394e-01" rms="2.4201865494251251e-01" purity="9.0952187776565552e-01" nType="0">
          <Node pos="l" depth="2" NCoef="0" IVar="-1" Cut="0.0000000000000000e+00" cType="1" res="5.8290001470595598e-04" rms="3.6747020483016968e-01" purity="7.3034316301345825e-01" nType="-99"/>
          <Node pos="r" depth="2" NCoef="0" IVar="1" Cut="1.4585268750000000e+05" cType="1" res="1.4347696304321289e-01" rms="2.2966992855072021e-01" purity="9.2135989665985107e-01" nType="0">
            <Node pos="l" depth="3" NCoef="0" IVar="-1" Cut="0.0000000000000000e+00" cType="1" res="1.6023652860894799e-03" rms="2.6823163032531738e-01" purity="8.8784289360046387e-01" nType="-99"/>
            <Node pos="r" depth="3" NCoef="0" IVar="-1" Cut="0.0000000000000000e+00" cType="1" res="1.4821932418271899e-03" rms="1.2749077379703522e-01" purity="9.8343300819396973e-01" nType="-99"/>
          </Node>
        </Node>
      </Node>
    </BinaryTree>
    <BinaryTree type="DecisionTree" boostWeight="1.0000000000000000e+00" itree="349">
      <Node pos="s" depth="0" NCoef="0" IVar="1" Cut="1.0035560937500000e+05" cType="1" res="8.5629895329475403e-02" rms="2.7801826596260071e-01" purity="5.1397216320037842e-01" nType="0">
        <Node pos="l" depth="1" NCoef="0" IVar="1" Cut="7.5114789062500000e+04" cType="1" res="4.7302298247814178e-02" rms="2.8225195407867432e-01" purity="3.1791022419929504e-01" nType="0">
          <Node pos="l" depth="2" NCoef="0" IVar="1" Cut="3.9040367187500000e+04" cType="1" res="1.3894166052341461e-01" rms="3.5174748301506042e-01" purity="6.5574026107788086e-01" nType="0">
            <Node pos="l" depth="3" NCoef="0" IVar="-1" Cut="0.0000000000000000e+00" cType="1" res="8.2593306433409452e-04" rms="3.2293352484703064e-01" purity="4.8130011558532715e-01" nType="-99"/>
            <Node pos="r" depth="3" NCoef="0" IVar="-1" Cut="0.0000000000000000e+00" cType="1" res="2.6525324210524559e-03" rms="3.5426723957061768e-01" purity="7.3021191358566284e-01" nType="-99"/>
          </Node>
          <Node pos="r" depth="2" NCoef="0" IVar="3" Cut="5.7804234375000000e+04" cType="1" res="4.5572970993816853e-03" rms="2.3101979494094849e-01" purity="1.6033004224300385e-01" nType="0">
            <Node pos="l" depth="3" NCoef="0" IVar="-1" Cut="0.0000000000000000e+00" cType="1" res="-6.9652949459850788e-03" rms="1.9780379533767700e-01" purity="3.7200614809989929e-02" nType="-99"/>
            <Node pos="r" depth="3" NCoef="0" IVar="-1" Cut="0.0000000000000000e+00" cType="1" res="1.0431165574118495e-03" rms="3.4252744913101196e-01" purity="8.1488478183746338e-01" nType="-99"/>
          </Node>
        </Node>
        <Node pos="r" depth="1" NCoef="0" IVar="3" Cut="5.4476886718750000e+04" cType="1" res="1.5268006920814514e-01" rms="2.5705832242965698e-01" purity="8.5696244239807129e-01" nType="0">
          <Node pos="l" depth="2" NCoef="0" IVar="3" Cut="4.1455062500000000e+04" cType="1" res="1.2505955994129181e-01" rms="3.7079867720603943e-01" purity="6.7328083515167236e-01" nType="0">
            <Node pos="l" depth="3" NCoef="0" IVar="-1" Cut="0.0000000000000000e+00" cType="1" res="1.7553728539496660e-03" rms="4.1810911893844604e-01" purity="5.2743136882781982e-01" nType="-99"/>
            <Node pos="r" depth="3" NCoef="0" IVar="-1" Cut="0.0000000000000000e+00" cType="1" res="8.9728145394474268e-04" rms="2.5333338975906372e-01" purity="9.2542517185211182e-01" nType="-99"/>
          </Node>
          <Node pos="r" depth="2" NCoef="0" IVar="3" Cut="1.0603505468750000e+05" cType="1" res="1.7168137431144714e-01" rms="1.2674899399280548e-01" purity="9.8332482576370239e-01" nType="0">
            <Node pos="l" depth="3" NCoef="0" IVar="-1" Cut="0.0000000000000000e+00" cType="1" res="1.7012645257636905e-03" rms="1.3902430236339569e-01" purity="9.7966551780700684e-01" nType="-99"/>
            <Node pos="r" depth="3" NCoef="0" IVar="-1" Cut="0.0000000000000000e+00" cType="1" res="2.0013283938169479e-03" rms="1.0467144846916199e-01" purity="9.8895013332366943e-01" nType="-99"/>
          </Node>
        </Node>
      </Node>
    </BinaryTree>
    <BinaryTree type="DecisionTree" boostWeight="1.0000000000000000e+00" itree="350">
      <Node pos="s" depth="0" NCoef="0" IVar="1" Cut="1.0034389062500000e+05" cType="1" res="8.4110915660858154e-02" rms="2.7871701121330261e-01" purity="5.1885569095611572e-01" nType="0">
        <Node pos="l" depth="1" NCoef="0" IVar="1" Cut="8.3514484375000000e+04" cType="1" res="4.0971007198095322e-02" rms="2.8080171346664429e-01" purity="3.1959354877471924e-01" nType="0">
          <Node pos="l" depth="2" NCoef="0" IVar="1" Cut="3.9243152343750000e+04" cType="1" res="9.7035743296146393e-02" rms="3.2805612683296204e-01" purity="5.8870267868041992e-01" nType="0">
            <Node pos="l" depth="3" NCoef="0" IVar="-1" Cut="0.0000000000000000e+00" cType="1" res="2.9719900339841843e-04" rms="3.4386470913887024e-01" purity="4.9205291271209717e-01" nType="-99"/>
            <Node pos="r" depth="3" NCoef="0" IVar="-1" Cut="0.0000000000000000e+00" cType="1" res="2.2989099379628897e-03" rms="3.1759688258171082e-01" purity="6.2128651142120361e-01" nType="-99"/>
          </Node>
          <Node pos="r" depth="2" NCoef="0" IVar="3" Cut="7.5616148437500000e+04" cType="1" res="-5.8456283295527101e-04" rms="2.3123040795326233e-01" purity="1.2012800574302673e-01" nType="0">
            <Node pos="l" depth="3" NCoef="0" IVar="-1" Cut="0.0000000000000000e+00" cType="1" res="-1.3927679974585772e-03" rms="2.2039209306240082e-01" purity="6.2676899135112762e-02" nType="-99"/>
            <Node pos="r" depth="3" NCoef="0" IVar="-1" Cut="0.0000000000000000e+00" cType="1" res="1.0655594523996115e-03" rms="3.2790839672088623e-01" purity="8.7191826105117798e-01" nType="-99"/>
          </Node>
        </Node>
        <Node pos="r" depth="1" NCoef="0" IVar="5" Cut="9.2601679687500000e+04" cType="1" res="1.5824374556541443e-01" rms="2.5881460309028625e-01" purity="8.6127340793609619e-01" nType="0">
          <Node pos="l" depth="2" NCoef="0" IVar="3" Cut="4.8659894531250000e+04" cType="1" res="1.4692220091819763e-01" rms="2.5058621168136597e-01" purity="8.5599780082702637e-01" nType="0">
            <Node pos="l" depth="3" NCoef="0" IVar="-1" Cut="0.0000000000000000e+00" cType="1" res="1.0832091793417931e-03" rms="3.8731947541236877e-01" purity="5.9075194597244263e-01" nType="-99"/>
            <Node pos="r" depth="3" NCoef="0" IVar="-1" Cut="0.0000000000000000e+00" cType="1" res="1.8116190331056714e-03" rms="1.3921065628528595e-01" purity="9.8050218820571899e-01" nType="-99"/>
          </Node>
          <Node pos="r" depth="2" NCoef="0" IVar="5" Cut="9.3827164062500000e+04" cType="1" res="1.9003017246723175e-01" rms="2.7817791700363159e-01" purity="8.7608510255813599e-01" nType="0">
            <Node pos="l" depth="3" NCoef="0" IVar="-1" Cut="0.0000000000000000e+00" cType="1" res="1.5370709588751197e-03" rms="2.8705376386642456e-01" purity="9.0303266048431396e-01" nType="-99"/>
            <Node pos="r" depth="3" NCoef="0" IVar="-1" Cut="0.0000000000000000e+00" cType="1" res="1.0385779896751046e-03" rms="2.6836431026458740e-01" purity="8.5264301300048828e-01" nType="-99"/>
          </Node>
        </Node>
      </Node>
    </BinaryTree>
    <BinaryTree type="DecisionTree" boostWeight="1.0000000000000000e+00" itree="351">
      <Node pos="s" depth="0" NCoef="0" IVar="3" Cut="4.8766871093750000e+04" cType="1" res="7.0709556341171265e-02" rms="2.7335792779922485e-01" purity="4.9113538861274719e-01" nType="0">
        <Node pos="l" depth="1" NCoef="0" IVar="4" Cut="3.7437828125000000e+05" cType="1" res="1.9244333729147911e-02" rms="2.7818793058395386e-01" purity="1.8614311516284943e-01" nType="0">
          <Node pos="l" depth="2" NCoef="0" IVar="2" Cut="4.2461484375000000e+05" cType="1" res="-1.4693655539304018e-03" rms="2.4538941681385040e-01" purity="1.2791302800178528e-01" nType="0">
            <Node pos="l" depth="3" NCoef="0" IVar="-1" Cut="0.0000000000000000e+00" cType="1" res="-8.2462484715506434e-04" rms="2.3893529176712036e-01" purity="1.0650966316461563e-01" nType="-99"/>
            <Node pos="r" depth="3" NCoef="0" IVar="-1" Cut="0.0000000000000000e+00" cType="1" res="2.7138476725667715e-03" rms="3.1396052241325378e-01" purity="4.9644643068313599e-01" nType="-99"/>
          </Node>
          <Node pos="r" depth="2" NCoef="0" IVar="0" Cut="3.8095238804817200e-01" cType="1" res="1.1123660206794739e-01" rms="3.7853145599365234e-01" purity="4.4475057721138000e-01" nType="0">
            <Node pos="l" depth="3" NCoef="0" IVar="-1" Cut="0.0000000000000000e+00" cType="1" res="-1.6049202531576157e-03" rms="3.3515501022338867e-01" purity="2.7769982814788818e-01" nType="-99"/>
            <Node pos="r" depth="3" NCoef="0" IVar="-1" Cut="0.0000000000000000e+00" cType="1" res="1.8598113674670458e-03" rms="3.7965115904808044e-01" purity="4.6968513727188110e-01" nType="-99"/>
          </Node>
        </Node>
        <Node pos="r" depth="1" NCoef="0" IVar="5" Cut="9.0620242187500000e+04" cType="1" res="1.4089633524417877e-01" rms="2.5010630488395691e-01" purity="9.0707492828369141e-01" nType="0">
          <Node pos="l" depth="2" NCoef="0" IVar="2" Cut="2.0013145312500000e+05" cType="1" res="1.6486230492591858e-01" rms="2.3995248973369598e-01" purity="9.2631131410598755e-01" nType="0">
            <Node pos="l" depth="3" NCoef="0" IVar="-1" Cut="0.0000000000000000e+00" cType="1" res="1.3632682384923100e-03" rms="3.1577762961387634e-01" purity="8.6553275585174561e-01" nType="-99"/>
            <Node pos="r" depth="3" NCoef="0" IVar="-1" Cut="0.0000000000000000e+00" cType="1" res="1.9748953636735678e-03" rms="2.2546513378620148e-01" purity="9.3493872880935669e-01" nType="-99"/>
          </Node>
          <Node pos="r" depth="2" NCoef="0" IVar="1" Cut="1.1128134375000000e+05" cType="1" res="1.1696852743625641e-01" rms="2.5763389468193054e-01" purity="8.8786911964416504e-01" nType="0">
            <Node pos="l" depth="3" NCoef="0" IVar="-1" Cut="0.0000000000000000e+00" cType="1" res="9.0746622299775481e-04" rms="3.2296204566955566e-01" purity="8.0096703767776489e-01" nType="-99"/>
            <Node pos="r" depth="3" NCoef="0" IVar="-1" Cut="0.0000000000000000e+00" cType="1" res="1.4332284918054938e-03" rms="1.5215258300304413e-01" purity="9.7557908296585083e-01" nType="-99"/>
          </Node>
        </Node>
      </Node>
    </BinaryTree>
    <BinaryTree type="DecisionTree" boostWeight="1.0000000000000000e+00" itree="352">
      <Node pos="s" depth="0" NCoef="0" IVar="3" Cut="7.5616148437500000e+04" cType="1" res="7.2880871593952179e-02" rms="2.7242892980575562e-01" purity="4.9620196223258972e-01" nType="0">
        <Node pos="l" depth="1" NCoef="0" IVar="1" Cut="1.7491946875000000e+05" cType="1" res="4.3501973152160645e-02" rms="2.9750767350196838e-01" purity="3.1207680702209473e-01" nType="0">
          <Node pos="l" depth="2" NCoef="0" IVar="1" Cut="1.1281103906250000e+05" cType="1" res="2.8361104428768158e-02" rms="2.9501488804817200e-01" purity="2.3711889982223511e-01" nType="0">
            <Node pos="l" depth="3" NCoef="0" IVar="-1" Cut="0.0000000000000000e+00" cType="1" res="5.2239059004932642e-04" rms="2.8284028172492981e-01" purity="1.5482406318187714e-01" nType="-99"/>
            <Node pos="r" depth="3" NCoef="0" IVar="-1" Cut="0.0000000000000000e+00" cType="1" res="1.4907555887475610e-03" rms="3.3921611309051514e-01" purity="7.8301775455474854e-01" nType="-99"/>
          </Node>
          <Node pos="r" depth="2" NCoef="0" IVar="-1" Cut="0.0000000000000000e+00" cType="1" res="1.5833551296964288e-03" rms="2.9030981659889221e-01" purity="8.9727866649627686e-01" nType="-99"/>
        </Node>
        <Node pos="r" depth="1" NCoef="0" IVar="1" Cut="1.1223053125000000e+05" cType="1" res="1.4814473688602448e-01" rms="1.7240826785564423e-01" purity="9.6789997816085815e-01" nType="0">
          <Node pos="l" depth="2" NCoef="0" IVar="3" Cut="1.0996614062500000e+05" cType="1" res="1.3154995441436768e-01" rms="2.1637547016143799e-01" purity="9.4815599918365479e-01" nType="0">
            <Node pos="l" depth="3" NCoef="0" IVar="-1" Cut="0.0000000000000000e+00" cType="1" res="9.7701617050915956e-04" rms="2.7416291832923889e-01" purity="9.1347426176071167e-01" nType="-99"/>
            <Node pos="r" depth="3" NCoef="0" IVar="-1" Cut="0.0000000000000000e+00" cType="1" res="2.0337719470262527e-03" rms="1.6118285059928894e-01" purity="9.7321361303329468e-01" nType="-99"/>
          </Node>
          <Node pos="r" depth="2" NCoef="0" IVar="-1" Cut="0.0000000000000000e+00" cType="1" res="1.4765862142667174e-03" rms="1.0171528160572052e-01" purity="9.8955184221267700e-01" nType="-99"/>
        </Node>
      </Node>
    </BinaryTree>
    <BinaryTree type="DecisionTree" boostWeight="1.0000000000000000e+00" itree="353">
      <Node pos="s" depth="0" NCoef="0" IVar="3" Cut="6.8843453125000000e+04" cType="1" res="7.5284041464328766e-02" rms="2.7565455436706543e-01" purity="5.0360131263732910e-01" nType="0">
        <Node pos="l" depth="1" NCoef="0" IVar="1" Cut="8.3939421875000000e+04" cType="1" res="4.0054198354482651e-02" rms="3.0616161227226257e-01" purity="2.8278306126594543e-01" nType="0">
          <Node pos="l" depth="2" NCoef="0" IVar="1" Cut="3.9413855468750000e+04" cType="1" res="1.0457863658666611e-01" rms="4.0701609849929810e-01" purity="3.6584481596946716e-01" nType="0">
            <Node pos="l" depth="3" NCoef="0" IVar="-1" Cut="0.0000000000000000e+00" cType="1" res="-4.2283381335437298e-03" rms="3.0068302154541016e-01" purity="1.7040088772773743e-01" nType="-99"/>
            <Node pos="r" depth="3" NCoef="0" IVar="-1" Cut="0.0000000000000000e+00" cType="1" res="2.8438961599022150e-03" rms="4.1818237304687500e-01" purity="4.2038300633430481e-01" nType="-99"/>
          </Node>
          <Node pos="r" depth="2" NCoef="0" IVar="1" Cut="1.5244195312500000e+05" cType="1" res="1.6617510467767715e-02" rms="2.5602325797080994e-01" purity="2.5261321663856506e-01" nType="0">
            <Node pos="l" depth="3" NCoef="0" IVar="-1" Cut="0.0000000000000000e+00" cType="1" res="-3.7989488919265568e-04" rms="2.3560479283332825e-01" purity="1.2853014469146729e-01" nType="-99"/>
            <Node pos="r" depth="3" NCoef="0" IVar="-1" Cut="0.0000000000000000e+00" cType="1" res="1.2620527995750308e-03" rms="3.1674495339393616e-01" purity="8.5570812225341797e-01" nType="-99"/>
          </Node>
        </Node>
        <Node pos="r" depth="1" NCoef="0" IVar="1" Cut="1.1128134375000000e+05" cType="1" res="1.4891476929187775e-01" rms="1.7570805549621582e-01" purity="9.6511363983154297e-01" nType="0">
          <Node pos="l" depth="2" NCoef="0" IVar="3" Cut="9.8541070312500000e+04" cType="1" res="1.2981626391410828e-01" rms="2.3050953447818756e-01" purity="9.3803560733795166e-01" nType="0">
            <Node pos="l" depth="3" NCoef="0" IVar="-1" Cut="0.0000000000000000e+00" cType="1" res="1.0271657956764102e-03" rms="3.5462245345115662e-01" purity="8.4525668621063232e-01" nType="-99"/>
            <Node pos="r" depth="3" NCoef="0" IVar="-1" Cut="0.0000000000000000e+00" cType="1" res="1.9306185422465205e-03" rms="1.3838592171669006e-01" purity="9.8004329204559326e-01" nType="-99"/>
          </Node>
          <Node pos="r" depth="2" NCoef="0" IVar="-1" Cut="0.0000000000000000e+00" cType="1" res="1.9710676278918982e-03" rms="9.2868179082870483e-02" purity="9.9133092164993286e-01" nType="-99"/>
        </Node>
      </Node>
    </BinaryTree>
    <BinaryTree type="DecisionTree" boostWeight="1.0000000000000000e+00" itree="354">
      <Node pos="s" depth="0" NCoef="0" IVar="1" Cut="1.0036485156250000e+05" cType="1" res="7.6363854110240936e-02" rms="2.6643812656402588e-01" purity="5.1138025522232056e-01" nType="0">
        <Node pos="l" depth="1" NCoef="0" IVar="1" Cut="8.3536875000000000e+04" cType="1" res="3.3109042793512344e-02" rms="2.6394602656364441e-01" purity="3.0454543232917786e-01" nType="0">
          <Node pos="l" depth="2" NCoef="0" IVar="4" Cut="1.7417271875000000e+05" cType="1" res="9.8043642938137054e-02" rms="3.1675413250923157e-01" purity="5.7266467809677124e-01" nType="0">
            <Node pos="l" depth="3" NCoef="0" IVar="-1" Cut="0.0000000000000000e+00" cType="1" res="-1.2180338380858302e-03" rms="2.8060224652290344e-01" purity="2.5172650814056396e-01" nType="-99"/>
            <Node pos="r" depth="3" NCoef="0" IVar="-1" Cut="0.0000000000000000e+00" cType="1" res="2.1491236984729767e-03" rms="3.1804043054580688e-01" purity="6.7754346132278442e-01" nType="-99"/>
          </Node>
          <Node pos="r" depth="2" NCoef="0" IVar="3" Cut="6.5555382812500000e+04" cType="1" res="-1.3149685226380825e-02" rms="2.0658643543720245e-01" purity="1.1354011297225952e-01" nType="0">
            <Node pos="l" depth="3" NCoef="0" IVar="-1" Cut="0.0000000000000000e+00" cType="1" res="-1.0350895114243031e-02" rms="1.8003949522972107e-01" purity="3.1795121729373932e-02" nType="-99"/>
            <Node pos="r" depth="3" NCoef="0" IVar="-1" Cut="0.0000000000000000e+00" cType="1" res="1.2860776623710990e-03" rms="3.4180796146392822e-01" purity="8.5400533676147461e-01" nType="-99"/>
          </Node>
        </Node>
        <Node pos="r" depth="1" NCoef="0" IVar="0" Cut="1.1428571939468384e+00" cType="1" res="1.5077835321426392e-01" rms="2.5398206710815430e-01" purity="8.6721366643905640e-01" nType="0">
          <Node pos="l" depth="2" NCoef="0" IVar="3" Cut="3.7230593750000000e+04" cType="1" res="1.3793827593326569e-01" rms="2.7238208055496216e-01" purity="8.2362204790115356e-01" nType="0">
            <Node pos="l" depth="3" NCoef="0" IVar="-1" Cut="0.0000000000000000e+00" cType="1" res="9.8795094527304173e-04" rms="4.2934066057205200e-01" purity="4.2043602466583252e-01" nType="-99"/>
            <Node pos="r" depth="3" NCoef="0" IVar="-1" Cut="0.0000000000000000e+00" cType="1" res="1.6342026647180319e-03" rms="1.8108512461185455e-01" purity="9.5980465412139893e-01" nType="-99"/>
          </Node>
          <Node pos="r" depth="2" NCoef="0" IVar="4" Cut="5.8540093750000000e+05" cType="1" res="1.7191953957080841e-01" rms="2.1872802078723907e-01" purity="9.3898719549179077e-01" nType="0">
            <Node pos="l" depth="3" NCoef="0" IVar="-1" Cut="0.0000000000000000e+00" cType="1" res="1.2294923653826118e-03" rms="2.5530183315277100e-01" purity="9.2102575302124023e-01" nType="-99"/>
            <Node pos="r" depth="3" NCoef="0" IVar="-1" Cut="0.0000000000000000e+00" cType="1" res="1.9452656852081418e-03" rms="1.7790687084197998e-01" purity="9.5525395870208740e-01" nType="-99"/>
          </Node>
        </Node>
      </Node>
    </BinaryTree>
    <BinaryTree type="DecisionTree" boostWeight="1.0000000000000000e+00" itree="355">
      <Node pos="s" depth="0" NCoef="0" IVar="3" Cut="4.8659894531250000e+04" cType="1" res="7.5012415647506714e-02" rms="2.7004078030586243e-01" purity="5.0026333332061768e-01" nType="0">
        <Node pos="l" depth="1" NCoef="0" IVar="3" Cut="3.4772132812500000e+04" cType="1" res="3.0627010390162468e-02" rms="2.7867716550827026e-01" purity="2.0316709578037262e-01" nType="0">
          <Node pos="l" depth="2" NCoef="0" IVar="5" Cut="8.6903625000000000e+04" cType="1" res="9.3080839142203331e-03" rms="2.4240270256996155e-01" purity="1.1578936129808426e-01" nType="0">
            <Node pos="l" depth="3" NCoef="0" IVar="-1" Cut="0.0000000000000000e+00" cType="1" res="2.5395245756953955e-03" rms="3.7656098604202271e-01" purity="3.9249190688133240e-01" nType="-99"/>
            <Node pos="r" depth="3" NCoef="0" IVar="-1" Cut="0.0000000000000000e+00" cType="1" res="-3.8114050403237343e-04" rms="2.2250355780124664e-01" purity="9.0974591672420502e-02" nType="-99"/>
          </Node>
          <Node pos="r" depth="2" NCoef="0" IVar="2" Cut="1.9241385937500000e+05" cType="1" res="1.1037287116050720e-01" rms="3.7457460165023804e-01" purity="5.3001350164413452e-01" nType="0">
            <Node pos="l" depth="3" NCoef="0" IVar="-1" Cut="0.0000000000000000e+00" cType="1" res="-1.2082487810403109e-03" rms="4.0133714675903320e-01" purity="3.4363755583763123e-01" nType="-99"/>
            <Node pos="r" depth="3" NCoef="0" IVar="-1" Cut="0.0000000000000000e+00" cType="1" res="9.7643869230523705e-04" rms="3.6719253659248352e-01" purity="5.5204236507415771e-01" nType="-99"/>
          </Node>
        </Node>
        <Node pos="r" depth="1" NCoef="0" IVar="4" Cut="1.7747190625000000e+05" cType="1" res="1.3615316152572632e-01" rms="2.4483096599578857e-01" purity="9.0951240062713623e-01" nType="0">
          <Node pos="l" depth="2" NCoef="0" IVar="-1" Cut="0.0000000000000000e+00" cType="1" res="2.2247761080507189e-04" rms="3.8400718569755554e-01" purity="7.4229454994201660e-01" nType="-99"/>
          <Node pos="r" depth="2" NCoef="0" IVar="4" Cut="2.7141581250000000e+05" cType="1" res="1.4349749684333801e-01" rms="2.3191964626312256e-01" purity="9.1943317651748657e-01" nType="0">
            <Node pos="l" depth="3" NCoef="0" IVar="-1" Cut="0.0000000000000000e+00" cType="1" res="1.2258260976523161e-03" rms="2.9986867308616638e-01" purity="8.5146653652191162e-01" nType="-99"/>
            <Node pos="r" depth="3" NCoef="0" IVar="-1" Cut="0.0000000000000000e+00" cType="1" res="1.4993689255788922e-03" rms="2.0464420318603516e-01" purity="9.4114482402801514e-01" nType="-99"/>
          </Node>
        </Node>
      </Node>
    </BinaryTree>
    <BinaryTree type="DecisionTree" boostWeight="1.0000000000000000e+00" itree="356">
      <Node pos="s" depth="0" NCoef="0" IVar="3" Cut="4.4610949218750000e+04" cType="1" res="8.2919888198375702e-02" rms="2.6705041527748108e-01" purity="5.2730947732925415e-01" nType="0">
        <Node pos="l" depth="1" NCoef="0" IVar="4" Cut="4.7458675000000000e+05" cType="1" res="2.2317890077829361e-02" rms="2.7499625086784363e-01" purity="1.7513349652290344e-01" nType="0">
          <Node pos="l" depth="2" NCoef="0" IVar="3" Cut="2.5583234375000000e+04" cType="1" res="1.1948634870350361e-02" rms="2.6354214549064636e-01" purity="1.4100958406925201e-01" nType="0">
            <Node pos="l" depth="3" NCoef="0" IVar="-1" Cut="0.0000000000000000e+00" cType="1" res="-1.4342647045850754e-03" rms="2.0351701974868774e-01" purity="6.5062195062637329e-02" nType="-99"/>
            <Node pos="r" depth="3" NCoef="0" IVar="-1" Cut="0.0000000000000000e+00" cType="1" res="1.9881972111761570e-03" rms="3.5522499680519104e-01" purity="3.0336880683898926e-01" nType="-99"/>
          </Node>
          <Node pos="r" depth="2" NCoef="0" IVar="3" Cut="2.5985089843750000e+04" cType="1" res="1.1957257241010666e-01" rms="3.5072925686836243e-01" purity="4.9518638849258423e-01" nType="0">
            <Node pos="l" depth="3" NCoef="0" IVar="-1" Cut="0.0000000000000000e+00" cType="1" res="2.9324553906917572e-03" rms="3.7392342090606689e-01" purity="5.1896762847900391e-01" nType="-99"/>
            <Node pos="r" depth="3" NCoef="0" IVar="-1" Cut="0.0000000000000000e+00" cType="1" res="3.3638780587352812e-04" rms="2.7625113725662231e-01" purity="4.5537343621253967e-01" nType="-99"/>
          </Node>
        </Node>
        <Node pos="r" depth="1" NCoef="0" IVar="5" Cut="8.9674460937500000e+04" cType="1" res="1.4739415049552917e-01" rms="2.4221791326999664e-01" purity="9.0198838710784912e-01" nType="0">
          <Node pos="l" depth="2" NCoef="0" IVar="3" Cut="8.0267093750000000e+04" cType="1" res="1.8570841848850250e-01" rms="2.1434454619884491e-01" purity="9.3947565555572510e-01" nType="0">
            <Node pos="l" depth="3" NCoef="0" IVar="-1" Cut="0.0000000000000000e+00" cType="1" res="8.1553339259698987e-04" rms="2.6821908354759216e-01" purity="8.9847195148468018e-01" nType="-99"/>
            <Node pos="r" depth="3" NCoef="0" IVar="-1" Cut="0.0000000000000000e+00" cType="1" res="1.8988912925124168e-03" rms="1.3121452927589417e-01" purity="9.8212218284606934e-01" nType="-99"/>
          </Node>
          <Node pos="r" depth="2" NCoef="0" IVar="1" Cut="1.3196950000000000e+05" cType="1" res="1.2234806269407272e-01" rms="2.5573727488517761e-01" purity="8.7748289108276367e-01" nType="0">
            <Node pos="l" depth="3" NCoef="0" IVar="-1" Cut="0.0000000000000000e+00" cType="1" res="1.2064030161127448e-03" rms="2.9883494973182678e-01" purity="8.1976974010467529e-01" nType="-99"/>
            <Node pos="r" depth="3" NCoef="0" IVar="-1" Cut="0.0000000000000000e+00" cType="1" res="1.5374915674328804e-03" rms="1.4070248603820801e-01" purity="9.7972625494003296e-01" nType="-99"/>
          </Node>
        </Node>
      </Node>
    </BinaryTree>
    <BinaryTree type="DecisionTree" boostWeight="1.0000000000000000e+00" itree="357">
      <Node pos="s" depth="0" NCoef="0" IVar="3" Cut="5.4305199218750000e+04" cType="1" res="6.1732504516839981e-02" rms="2.5838574767112732e-01" purity="4.8388874530792236e-01" nType="0">
        <Node pos="l" depth="1" NCoef="0" IVar="5" Cut="8.9750054687500000e+04" cType="1" res="1.2093632481992245e-02" rms="2.6866522431373596e-01" purity="2.0043505728244781e-01" nType="0">
          <Node pos="l" depth="2" NCoef="0" IVar="1" Cut="1.3382179687500000e+05" cType="1" res="5.3541354835033417e-02" rms="3.1786507368087769e-01" purity="3.1139409542083740e-01" nType="0">
            <Node pos="l" depth="3" NCoef="0" IVar="-1" Cut="0.0000000000000000e+00" cType="1" res="1.5470233047381043e-03" rms="3.0381259322166443e-01" purity="1.8266156315803528e-01" nType="-99"/>
            <Node pos="r" depth="3" NCoef="0" IVar="-1" Cut="0.0000000000000000e+00" cType="1" res="1.6502147773280740e-03" rms="3.5481062531471252e-01" purity="8.3743739128112793e-01" nType="-99"/>
          </Node>
          <Node pos="r" depth="2" NCoef="0" IVar="2" Cut="2.7289553125000000e+05" cType="1" res="-6.5362090244889259e-03" rms="2.4102094769477844e-01" purity="1.5056143701076508e-01" nType="0">
            <Node pos="l" depth="3" NCoef="0" IVar="-1" Cut="0.0000000000000000e+00" cType="1" res="-4.3608155101537704e-03" rms="1.9093729555606842e-01" purity="6.0151819139719009e-02" nType="-99"/>
            <Node pos="r" depth="3" NCoef="0" IVar="-1" Cut="0.0000000000000000e+00" cType="1" res="8.9282810222357512e-04" rms="2.9530155658721924e-01" purity="2.7898135781288147e-01" nType="-99"/>
          </Node>
        </Node>
        <Node pos="r" depth="1" NCoef="0" IVar="1" Cut="1.0073193750000000e+05" cType="1" res="1.4056771993637085e-01" rms="2.1915854513645172e-01" purity="9.3406277894973755e-01" nType="0">
          <Node pos="l" depth="2" NCoef="0" IVar="1" Cut="7.1266117187500000e+04" cType="1" res="1.1157157272100449e-01" rms="2.8657311201095581e-01" purity="8.7830728292465210e-01" nType="0">
            <Node pos="l" depth="3" NCoef="0" IVar="-1" Cut="0.0000000000000000e+00" cType="1" res="1.4486809959635139e-03" rms="2.1032483875751495e-01" purity="9.5066934823989868e-01" nType="-99"/>
            <Node pos="r" depth="3" NCoef="0" IVar="-1" Cut="0.0000000000000000e+00" cType="1" res="9.2785398010164499e-04" rms="3.7073940038681030e-01" purity="7.6539576053619385e-01" nType="-99"/>
          </Node>
          <Node pos="r" depth="2" NCoef="0" IVar="2" Cut="3.3541859375000000e+05" cType="1" res="1.6552238166332245e-01" rms="1.3169072568416595e-01" purity="9.8204714059829712e-01" nType="0">
            <Node pos="l" depth="3" NCoef="0" IVar="-1" Cut="0.0000000000000000e+00" cType="1" res="2.3719668388366699e-03" rms="1.7424699664115906e-01" purity="9.6749252080917358e-01" nType="-99"/>
            <Node pos="r" depth="3" NCoef="0" IVar="-1" Cut="0.0000000000000000e+00" cType="1" res="1.4086688170209527e-03" rms="1.1005553603172302e-01" purity="9.8780089616775513e-01" nType="-99"/>
          </Node>
        </Node>
      </Node>
    </BinaryTree>
    <BinaryTree type="DecisionTree" boostWeight="1.0000000000000000e+00" itree="358">
      <Node pos="s" depth="0" NCoef="0" IVar="3" Cut="4.4570152343750000e+04" cType="1" res="6.6678076982498169e-02" rms="2.6477664709091187e-01" purity="4.9817538261413574e-01" nType="0">
        <Node pos="l" depth="1" NCoef="0" IVar="1" Cut="1.2713942968750000e+05" cType="1" res="1.2682475149631500e-02" rms="2.6300287246704102e-01" purity="1.6020822525024414e-01" nType="0">
          <Node pos="l" depth="2" NCoef="0" IVar="3" Cut="3.8224605468750000e+04" cType="1" res="2.0883581601083279e-03" rms="2.4291193485260010e-01" purity="7.9004265367984772e-02" nType="0">
            <Node pos="l" depth="3" NCoef="0" IVar="-1" Cut="0.0000000000000000e+00" cType="1" res="1.3605966232717037e-03" rms="2.3464566469192505e-01" purity="6.9518461823463440e-02" nType="-99"/>
            <Node pos="r" depth="3" NCoef="0" IVar="-1" Cut="0.0000000000000000e+00" cType="1" res="-2.8518384788185358e-03" rms="3.2962915301322937e-01" purity="2.1916322410106659e-01" nType="-99"/>
          </Node>
          <Node pos="r" depth="2" NCoef="0" IVar="3" Cut="2.3383367187500000e+04" cType="1" res="9.1090016067028046e-02" rms="3.7070012092590332e-01" purity="7.6120239496231079e-01" nType="0">
            <Node pos="l" depth="3" NCoef="0" IVar="-1" Cut="0.0000000000000000e+00" cType="1" res="-2.2660501417703927e-04" rms="4.5612925291061401e-01" purity="5.2920633554458618e-01" nType="-99"/>
            <Node pos="r" depth="3" NCoef="0" IVar="-1" Cut="0.0000000000000000e+00" cType="1" res="2.0780141931027174e-03" rms="2.9399386048316956e-01" purity="8.9582026004791260e-01" nType="-99"/>
          </Node>
        </Node>
        <Node pos="r" depth="1" NCoef="0" IVar="2" Cut="2.1415585937500000e+05" cType="1" res="1.2883435189723969e-01" rms="2.5291255116462708e-01" purity="8.8722151517868042e-01" nType="0">
          <Node pos="l" depth="2" NCoef="0" IVar="3" Cut="6.8183531250000000e+04" cType="1" res="4.8632889986038208e-02" rms="3.2353261113166809e-01" purity="7.6901447772979736e-01" nType="0">
            <Node pos="l" depth="3" NCoef="0" IVar="-1" Cut="0.0000000000000000e+00" cType="1" res="-1.2468555942177773e-02" rms="3.3990547060966492e-01" purity="2.2199013829231262e-01" nType="-99"/>
            <Node pos="r" depth="3" NCoef="0" IVar="-1" Cut="0.0000000000000000e+00" cType="1" res="1.8011335050687194e-03" rms="2.5581148266792297e-01" purity="9.2949157953262329e-01" nType="-99"/>
          </Node>
          <Node pos="r" depth="2" NCoef="0" IVar="1" Cut="1.4594585937500000e+05" cType="1" res="1.4016614854335785e-01" rms="2.3911446332931519e-01" purity="9.0392321348190308e-01" nType="0">
            <Node pos="l" depth="3" NCoef="0" IVar="-1" Cut="0.0000000000000000e+00" cType="1" res="1.2491010129451752e-03" rms="2.7777293324470520e-01" purity="8.6297678947448730e-01" nType="-99"/>
            <Node pos="r" depth="3" NCoef="0" IVar="-1" Cut="0.0000000000000000e+00" cType="1" res="2.0212230738252401e-03" rms="1.3710099458694458e-01" purity="9.8062080144882202e-01" nType="-99"/>
          </Node>
        </Node>
      </Node>
    </BinaryTree>
    <BinaryTree type="DecisionTree" boostWeight="1.0000000000000000e+00" itree="359">
      <Node pos="s" depth="0" NCoef="0" IVar="3" Cut="6.8843453125000000e+04" cType="1" res="7.4263162910938263e-02" rms="2.7555906772613525e-01" purity="4.8556542396545410e-01" nType="0">
        <Node pos="l" depth="1" NCoef="0" IVar="2" Cut="3.6344700000000000e+05" cType="1" res="4.6796131879091263e-02" rms="2.9863950610160828e-01" purity="3.0016410350799561e-01" nType="0">
          <Node pos="l" depth="2" NCoef="0" IVar="1" Cut="7.3902617187500000e+04" cType="1" res="2.6708392426371574e-02" rms="2.9127532243728638e-01" purity="2.1778309345245361e-01" nType="0">
            <Node pos="l" depth="3" NCoef="0" IVar="-1" Cut="0.0000000000000000e+00" cType="1" res="1.9146680133417249e-03" rms="4.0871781110763550e-01" purity="4.4458520412445068e-01" nType="-99"/>
            <Node pos="r" depth="3" NCoef="0" IVar="-1" Cut="0.0000000000000000e+00" cType="1" res="2.1453338558785617e-04" rms="2.4580456316471100e-01" purity="1.5714585781097412e-01" nType="-99"/>
          </Node>
          <Node pos="r" depth="2" NCoef="0" IVar="1" Cut="8.4137460937500000e+04" cType="1" res="1.1339851468801498e-01" rms="3.1275457143783569e-01" purity="5.7330435514450073e-01" nType="0">
            <Node pos="l" depth="3" NCoef="0" IVar="-1" Cut="0.0000000000000000e+00" cType="1" res="5.4053086787462234e-03" rms="4.5218685269355774e-01" purity="5.6900131702423096e-01" nType="-99"/>
            <Node pos="r" depth="3" NCoef="0" IVar="-1" Cut="0.0000000000000000e+00" cType="1" res="8.5058051627129316e-04" rms="2.7437043190002441e-01" purity="5.7396370172500610e-01" nType="-99"/>
          </Node>
        </Node>
        <Node pos="r" depth="1" NCoef="0" IVar="1" Cut="1.2602377343750000e+05" cType="1" res="1.4467550814151764e-01" rms="1.8726235628128052e-01" purity="9.6084588766098022e-01" nType="0">
          <Node pos="l" depth="2" NCoef="0" IVar="0" Cut="3.8095238804817200e-01" cType="1" res="1.2889127433300018e-01" rms="2.3657709360122681e-01" purity="9.3608283996582031e-01" nType="0">
            <Node pos="l" depth="3" NCoef="0" IVar="-1" Cut="0.0000000000000000e+00" cType="1" res="2.3364166263490915e-03" rms="1.9265317916870117e-01" purity="9.5812201499938965e-01" nType="-99"/>
            <Node pos="r" depth="3" NCoef="0" IVar="-1" Cut="0.0000000000000000e+00" cType="1" res="1.5643176157027483e-03" rms="2.5561150908470154e-01" purity="9.2452752590179443e-01" nType="-99"/>
          </Node>
          <Node pos="r" depth="2" NCoef="0" IVar="-1" Cut="0.0000000000000000e+00" cType="1" res="1.6972979065030813e-03" rms="9.5301181077957153e-02" purity="9.9084079265594482e-01" nType="-99"/>
        </Node>
      </Node>
    </BinaryTree>
    <BinaryTree type="DecisionTree" boostWeight="1.0000000000000000e+00" itree="360">
      <Node pos="s" depth="0" NCoef="0" IVar="3" Cut="6.8936960937500000e+04" cType="1" res="8.1891380250453949e-02" rms="2.7546557784080505e-01" purity="5.2428573369979858e-01" nType="0">
        <Node pos="l" depth="1" NCoef="0" IVar="3" Cut="4.9315468750000000e+04" cType="1" res="5.5918626487255096e-02" rms="3.0144491791725159e-01" purity="3.2932460308074951e-01" nType="0">
          <Node pos="l" depth="2" NCoef="0" IVar="5" Cut="8.7869789062500000e+04" cType="1" res="3.4718837589025497e-02" rms="2.9115685820579529e-01" purity="2.0977982878684998e-01" nType="0">
            <Node pos="l" depth="3" NCoef="0" IVar="-1" Cut="0.0000000000000000e+00" cType="1" res="3.1200123485177755e-03" rms="3.8560974597930908e-01" purity="4.0782922506332397e-01" nType="-99"/>
            <Node pos="r" depth="3" NCoef="0" IVar="-1" Cut="0.0000000000000000e+00" cType="1" res="8.2462368300184608e-04" rms="2.7226778864860535e-01" purity="1.8150812387466431e-01" nType="-99"/>
          </Node>
          <Node pos="r" depth="2" NCoef="0" IVar="2" Cut="2.8271503125000000e+05" cType="1" res="1.4321981370449066e-01" rms="3.2634818553924561e-01" purity="8.2161253690719604e-01" nType="0">
            <Node pos="l" depth="3" NCoef="0" IVar="-1" Cut="0.0000000000000000e+00" cType="1" res="1.1510767508298159e-03" rms="3.8528987765312195e-01" purity="7.2942918539047241e-01" nType="-99"/>
            <Node pos="r" depth="3" NCoef="0" IVar="-1" Cut="0.0000000000000000e+00" cType="1" res="1.0106180561706424e-03" rms="2.7644011378288269e-01" purity="8.8491415977478027e-01" nType="-99"/>
          </Node>
        </Node>
        <Node pos="r" depth="1" NCoef="0" IVar="1" Cut="1.2527707812500000e+05" cType="1" res="1.3965725898742676e-01" rms="1.9419032335281372e-01" purity="9.5789772272109985e-01" nType="0">
          <Node pos="l" depth="2" NCoef="0" IVar="0" Cut="1.1428571939468384e+00" cType="1" res="1.2349560111761093e-01" rms="2.3793722689151764e-01" purity="9.3525737524032593e-01" nType="0">
            <Node pos="l" depth="3" NCoef="0" IVar="-1" Cut="0.0000000000000000e+00" cType="1" res="1.4479157980531454e-03" rms="2.0545126497745514e-01" purity="9.5153599977493286e-01" nType="-99"/>
            <Node pos="r" depth="3" NCoef="0" IVar="-1" Cut="0.0000000000000000e+00" cType="1" res="1.0623029666021466e-03" rms="3.0120176076889038e-01" purity="8.9488881826400757e-01" nType="-99"/>
          </Node>
          <Node pos="r" depth="2" NCoef="0" IVar="-1" Cut="0.0000000000000000e+00" cType="1" res="1.5916038537397981e-03" rms="1.0309591889381409e-01" purity="9.8929572105407715e-01" nType="-99"/>
        </Node>
      </Node>
    </BinaryTree>
    <BinaryTree type="DecisionTree" boostWeight="1.0000000000000000e+00" itree="361">
      <Node pos="s" depth="0" NCoef="0" IVar="1" Cut="1.0034835937500000e+05" cType="1" res="8.6616016924381256e-02" rms="2.8042978048324585e-01" purity="5.1457369327545166e-01" nType="0">
        <Node pos="l" depth="1" NCoef="0" IVar="1" Cut="7.5107859375000000e+04" cType="1" res="5.6147910654544830e-02" rms="2.8058901429176331e-01" purity="3.4562870860099792e-01" nType="0">
          <Node pos="l" depth="2" NCoef="0" IVar="1" Cut="3.3039492187500000e+04" cType="1" res="1.4396482706069946e-01" rms="3.3720818161964417e-01" purity="6.9676893949508667e-01" nType="0">
            <Node pos="l" depth="3" NCoef="0" IVar="-1" Cut="0.0000000000000000e+00" cType="1" res="7.3816982330754399e-04" rms="2.8832867741584778e-01" purity="4.9135959148406982e-01" nType="-99"/>
            <Node pos="r" depth="3" NCoef="0" IVar="-1" Cut="0.0000000000000000e+00" cType="1" res="2.4252098519355059e-03" rms="3.4300217032432556e-01" purity="7.5362312793731689e-01" nType="-99"/>
          </Node>
          <Node pos="r" depth="2" NCoef="0" IVar="3" Cut="1.1340936718750000e+05" cType="1" res="9.8204240202903748e-03" rms="2.3251339793205261e-01" purity="1.6038596630096436e-01" nType="0">
            <Node pos="l" depth="3" NCoef="0" IVar="-1" Cut="0.0000000000000000e+00" cType="1" res="1.0873538121813908e-04" rms="2.3330149054527283e-01" purity="1.1145455390214920e-01" nType="-99"/>
            <Node pos="r" depth="3" NCoef="0" IVar="-1" Cut="0.0000000000000000e+00" cType="1" res="1.8289060099050403e-03" rms="1.6474774479866028e-01" purity="9.7147524356842041e-01" nType="-99"/>
          </Node>
        </Node>
        <Node pos="r" depth="1" NCoef="0" IVar="4" Cut="1.8631370312500000e+05" cType="1" res="1.4655151963233948e-01" rms="2.7027165889739990e-01" purity="8.4691476821899414e-01" nType="0">
          <Node pos="l" depth="2" NCoef="0" IVar="-1" Cut="0.0000000000000000e+00" cType="1" res="8.9688587468117476e-04" rms="3.8811415433883667e-01" purity="3.8762512803077698e-01" nType="-99"/>
          <Node pos="r" depth="2" NCoef="0" IVar="2" Cut="3.2228287500000000e+05" cType="1" res="1.5059749782085419e-01" rms="2.6404353976249695e-01" purity="8.6389660835266113e-01" nType="0">
            <Node pos="l" depth="3" NCoef="0" IVar="-1" Cut="0.0000000000000000e+00" cType="1" res="1.4647563220933080e-03" rms="3.1134575605392456e-01" purity="7.5015228986740112e-01" nType="-99"/>
            <Node pos="r" depth="3" NCoef="0" IVar="-1" Cut="0.0000000000000000e+00" cType="1" res="1.8462053267285228e-03" rms="2.4115274846553802e-01" purity="9.1066884994506836e-01" nType="-99"/>
          </Node>
        </Node>
      </Node>
    </BinaryTree>
    <BinaryTree type="DecisionTree" boostWeight="1.0000000000000000e+00" itree="362">
      <Node pos="s" depth="0" NCoef="0" IVar="3" Cut="6.8843453125000000e+04" cType="1" res="7.2363868355751038e-02" rms="2.7307870984077454e-01" purity="4.9704110622406006e-01" nType="0">
        <Node pos="l" depth="1" NCoef="0" IVar="2" Cut="4.3696790625000000e+05" cType="1" res="3.7679206579923630e-02" rms="3.0129638314247131e-01" purity="2.7992141246795654e-01" nType="0">
          <Node pos="l" depth="2" NCoef="0" IVar="1" Cut="1.1672575781250000e+05" cType="1" res="2.1429087966680527e-02" rms="2.9185608029365540e-01" purity="2.1543465554714203e-01" nType="0">
            <Node pos="l" depth="3" NCoef="0" IVar="-1" Cut="0.0000000000000000e+00" cType="1" res="4.2063326691277325e-04" rms="2.6883965730667114e-01" purity="1.5220613777637482e-01" nType="-99"/>
            <Node pos="r" depth="3" NCoef="0" IVar="-1" Cut="0.0000000000000000e+00" cType="1" res="1.9511082209646702e-03" rms="4.1845133900642395e-01" purity="7.2638136148452759e-01" nType="-99"/>
          </Node>
          <Node pos="r" depth="2" NCoef="0" IVar="4" Cut="5.3189431250000000e+05" cType="1" res="1.2679030001163483e-01" rms="3.3480876684188843e-01" purity="6.3354873657226562e-01" nType="0">
            <Node pos="l" depth="3" NCoef="0" IVar="-1" Cut="0.0000000000000000e+00" cType="1" res="2.9525326099246740e-03" rms="3.5146149992942810e-01" purity="6.2248915433883667e-01" nType="-99"/>
            <Node pos="r" depth="3" NCoef="0" IVar="-1" Cut="0.0000000000000000e+00" cType="1" res="8.9639326324686408e-04" rms="2.9343503713607788e-01" purity="6.5012937784194946e-01" nType="-99"/>
          </Node>
        </Node>
        <Node pos="r" depth="1" NCoef="0" IVar="1" Cut="1.2527707812500000e+05" cType="1" res="1.4712886512279510e-01" rms="1.7734883725643158e-01" purity="9.6505635976791382e-01" nType="0">
          <Node pos="l" depth="2" NCoef="0" IVar="0" Cut="1.3333333730697632e+00" cType="1" res="1.3502971827983856e-01" rms="2.2160370647907257e-01" purity="9.4427096843719482e-01" nType="0">
            <Node pos="l" depth="3" NCoef="0" IVar="-1" Cut="0.0000000000000000e+00" cType="1" res="1.5317377401515841e-03" rms="1.9483382999897003e-01" purity="9.5713013410568237e-01" nType="-99"/>
            <Node pos="r" depth="3" NCoef="0" IVar="-1" Cut="0.0000000000000000e+00" cType="1" res="1.2565067736431956e-03" rms="2.7478161454200745e-01" purity="9.1278231143951416e-01" nType="-99"/>
          </Node>
          <Node pos="r" depth="2" NCoef="0" IVar="-1" Cut="0.0000000000000000e+00" cType="1" res="1.4348013792186975e-03" rms="9.8489701747894287e-02" purity="9.9020397663116455e-01" nType="-99"/>
        </Node>
      </Node>
    </BinaryTree>
    <BinaryTree type="DecisionTree" boostWeight="1.0000000000000000e+00" itree="363">
      <Node pos="s" depth="0" NCoef="0" IVar="3" Cut="6.8736484375000000e+04" cType="1" res="7.1295775473117828e-02" rms="2.7595224976539612e-01" purity="5.1490199565887451e-01" nType="0">
        <Node pos="l" depth="1" NCoef="0" IVar="3" Cut="2.9487767578125000e+04" cType="1" res="3.9930589497089386e-02" rms="3.0149808526039124e-01" purity="2.9812955856323242e-01" nType="0">
          <Node pos="l" depth="2" NCoef="0" IVar="3" Cut="2.8083236328125000e+04" cType="1" res="1.1540221748873591e-03" rms="2.3618593811988831e-01" purity="8.8138103485107422e-02" nType="0">
            <Node pos="l" depth="3" NCoef="0" IVar="-1" Cut="0.0000000000000000e+00" cType="1" res="-7.4492802377790213e-04" rms="2.2374467551708221e-01" purity="7.7054053544998169e-02" nType="-99"/>
            <Node pos="r" depth="3" NCoef="0" IVar="-1" Cut="0.0000000000000000e+00" cType="1" res="2.5531048886477947e-03" rms="3.9254930615425110e-01" purity="3.0791473388671875e-01" nType="-99"/>
          </Node>
          <Node pos="r" depth="2" NCoef="0" IVar="1" Cut="8.3991367187500000e+04" cType="1" res="9.1987222433090210e-02" rms="3.6512568593025208e-01" purity="5.8003813028335571e-01" nType="0">
            <Node pos="l" depth="3" NCoef="0" IVar="-1" Cut="0.0000000000000000e+00" cType="1" res="2.1707601845264435e-03" rms="4.2336860299110413e-01" purity="6.8103867769241333e-01" nType="-99"/>
            <Node pos="r" depth="3" NCoef="0" IVar="-1" Cut="0.0000000000000000e+00" cType="1" res="6.1972113326191902e-04" rms="3.2485112547874451e-01" purity="5.2705800533294678e-01" nType="-99"/>
          </Node>
        </Node>
        <Node pos="r" depth="1" NCoef="0" IVar="2" Cut="2.0458621875000000e+05" cType="1" res="1.3488395512104034e-01" rms="2.0051290094852448e-01" purity="9.5437538623809814e-01" nType="0">
          <Node pos="l" depth="2" NCoef="0" IVar="-1" Cut="0.0000000000000000e+00" cType="1" res="3.1193025643005967e-04" rms="3.5906714200973511e-01" purity="8.3740943670272827e-01" nType="-99"/>
          <Node pos="r" depth="2" NCoef="0" IVar="1" Cut="1.2544667187500000e+05" cType="1" res="1.4978207647800446e-01" rms="1.6050380468368530e-01" purity="9.7107493877410889e-01" nType="0">
            <Node pos="l" depth="3" NCoef="0" IVar="-1" Cut="0.0000000000000000e+00" cType="1" res="1.7204179894179106e-03" rms="2.0630618929862976e-01" purity="9.5100629329681396e-01" nType="-99"/>
            <Node pos="r" depth="3" NCoef="0" IVar="-1" Cut="0.0000000000000000e+00" cType="1" res="1.4001958770677447e-03" rms="8.6113281548023224e-02" purity="9.9253928661346436e-01" nType="-99"/>
          </Node>
        </Node>
      </Node>
    </BinaryTree>
    <BinaryTree type="DecisionTree" boostWeight="1.0000000000000000e+00" itree="364">
      <Node pos="s" depth="0" NCoef="0" IVar="3" Cut="4.4524941406250000e+04" cType="1" res="7.4829488992691040e-02" rms="2.7905765175819397e-01" purity="4.9726659059524536e-01" nType="0">
        <Node pos="l" depth="1" NCoef="0" IVar="2" Cut="3.7141518750000000e+05" cType="1" res="3.6336977034807205e-02" rms="2.9263526201248169e-01" purity="1.9334279000759125e-01" nType="0">
          <Node pos="l" depth="2" NCoef="0" IVar="1" Cut="1.1611150000000000e+05" cType="1" res="2.2100033238530159e-02" rms="2.7244421839714050e-01" purity="1.4079019427299500e-01" nType="0">
            <Node pos="l" depth="3" NCoef="0" IVar="-1" Cut="0.0000000000000000e+00" cType="1" res="1.0471608256921172e-03" rms="2.4163387715816498e-01" purity="9.0877979993820190e-02" nType="-99"/>
            <Node pos="r" depth="3" NCoef="0" IVar="-1" Cut="0.0000000000000000e+00" cType="1" res="1.9205728312954307e-03" rms="4.6834656596183777e-01" purity="6.5160959959030151e-01" nType="-99"/>
          </Node>
          <Node pos="r" depth="2" NCoef="0" IVar="4" Cut="5.9781743750000000e+05" cType="1" res="1.0218193382024765e-01" rms="3.6487102508544922e-01" purity="4.3639516830444336e-01" nType="0">
            <Node pos="l" depth="3" NCoef="0" IVar="-1" Cut="0.0000000000000000e+00" cType="1" res="2.3553469218313694e-03" rms="3.6366698145866394e-01" purity="4.5068585872650146e-01" nType="-99"/>
            <Node pos="r" depth="3" NCoef="0" IVar="-1" Cut="0.0000000000000000e+00" cType="1" res="-3.7265653372742236e-04" rms="3.5125109553337097e-01" purity="3.5612472891807556e-01" nType="-99"/>
          </Node>
        </Node>
        <Node pos="r" depth="1" NCoef="0" IVar="1" Cut="1.1105788281250000e+05" cType="1" res="1.2397596240043640e-01" rms="2.5230017304420471e-01" purity="8.8531029224395752e-01" nType="0">
          <Node pos="l" depth="2" NCoef="0" IVar="1" Cut="8.2650367187500000e+04" cType="1" res="8.0902300775051117e-02" rms="3.1236875057220459e-01" purity="8.0216765403747559e-01" nType="0">
            <Node pos="l" depth="3" NCoef="0" IVar="-1" Cut="0.0000000000000000e+00" cType="1" res="1.5108834486454725e-03" rms="2.8584098815917969e-01" purity="8.9785426855087280e-01" nType="-99"/>
            <Node pos="r" depth="3" NCoef="0" IVar="-1" Cut="0.0000000000000000e+00" cType="1" res="5.1125269237672910e-05" rms="3.3971488475799561e-01" purity="6.3813930749893188e-01" nType="-99"/>
          </Node>
          <Node pos="r" depth="2" NCoef="0" IVar="4" Cut="4.0628562500000000e+05" cType="1" res="1.7318925261497498e-01" rms="1.4268864691257477e-01" purity="9.8030394315719604e-01" nType="0">
            <Node pos="l" depth="3" NCoef="0" IVar="-1" Cut="0.0000000000000000e+00" cType="1" res="1.0667131282389164e-03" rms="1.4653466641902924e-01" purity="9.8129492998123169e-01" nType="-99"/>
            <Node pos="r" depth="3" NCoef="0" IVar="-1" Cut="0.0000000000000000e+00" cType="1" res="2.0785578526556492e-03" rms="1.3798522949218750e-01" purity="9.7955495119094849e-01" nType="-99"/>
          </Node>
        </Node>
      </Node>
    </BinaryTree>
    <BinaryTree type="DecisionTree" boostWeight="1.0000000000000000e+00" itree="365">
      <Node pos="s" depth="0" NCoef="0" IVar="1" Cut="1.0034389062500000e+05" cType="1" res="6.6840954124927521e-02" rms="2.7804890275001526e-01" purity="4.9200060963630676e-01" nType="0">
        <Node pos="l" depth="1" NCoef="0" IVar="1" Cut="7.0894695312500000e+04" cType="1" res="2.6923853904008865e-02" rms="2.7922007441520691e-01" purity="2.9872399568557739e-01" nType="0">
          <Node pos="l" depth="2" NCoef="0" IVar="2" Cut="1.6149548437500000e+05" cType="1" res="9.9677674472332001e-02" rms="3.4647217392921448e-01" purity="6.5115672349929810e-01" nType="0">
            <Node pos="l" depth="3" NCoef="0" IVar="-1" Cut="0.0000000000000000e+00" cType="1" res="-2.9204078018665314e-03" rms="3.2928553223609924e-01" purity="2.6578831672668457e-01" nType="-99"/>
            <Node pos="r" depth="3" NCoef="0" IVar="-1" Cut="0.0000000000000000e+00" cType="1" res="1.9238889217376709e-03" rms="3.3659088611602783e-01" purity="7.3697173595428467e-01" nType="-99"/>
          </Node>
          <Node pos="r" depth="2" NCoef="0" IVar="4" Cut="3.0131015625000000e+05" cType="1" res="-3.5953747574239969e-03" rms="2.3908244073390961e-01" purity="1.5088328719139099e-01" nType="0">
            <Node pos="l" depth="3" NCoef="0" IVar="-1" Cut="0.0000000000000000e+00" cType="1" res="-4.0230532176792622e-03" rms="1.9250449538230896e-01" purity="8.0006636679172516e-02" nType="-99"/>
            <Node pos="r" depth="3" NCoef="0" IVar="-1" Cut="0.0000000000000000e+00" cType="1" res="1.7836891347542405e-03" rms="3.2175856828689575e-01" purity="3.2891339063644409e-01" nType="-99"/>
          </Node>
        </Node>
        <Node pos="r" depth="1" NCoef="0" IVar="3" Cut="6.8736484375000000e+04" cType="1" res="1.4001715183258057e-01" rms="2.6045918464660645e-01" purity="8.4631633758544922e-01" nType="0">
          <Node pos="l" depth="2" NCoef="0" IVar="3" Cut="9.8205791015625000e+03" cType="1" res="1.2436849623918533e-01" rms="3.4007033705711365e-01" purity="7.2228813171386719e-01" nType="0">
            <Node pos="l" depth="3" NCoef="0" IVar="-1" Cut="0.0000000000000000e+00" cType="1" res="-6.0570094734430313e-02" rms="1.2984655797481537e-01" purity="0.0000000000000000e+00" nType="-99"/>
            <Node pos="r" depth="3" NCoef="0" IVar="-1" Cut="0.0000000000000000e+00" cType="1" res="1.2559603201225400e-03" rms="3.4272131323814392e-01" purity="7.6467037200927734e-01" nType="-99"/>
          </Node>
          <Node pos="r" depth="2" NCoef="0" IVar="-1" Cut="0.0000000000000000e+00" cType="1" res="1.6853866400197148e-03" rms="1.1484463512897491e-01" purity="9.8656070232391357e-01" nType="-99"/>
        </Node>
      </Node>
    </BinaryTree>
    <BinaryTree type="DecisionTree" boostWeight="1.0000000000000000e+00" itree="366">
      <Node pos="s" depth="0" NCoef="0" IVar="1" Cut="1.0034835937500000e+05" cType="1" res="7.3497615754604340e-02" rms="2.7199926972389221e-01" purity="5.0299924612045288e-01" nType="0">
        <Node pos="l" depth="1" NCoef="0" IVar="1" Cut="8.3521156250000000e+04" cType="1" res="3.9461560547351837e-02" rms="2.6901894807815552e-01" purity="3.3261892199516296e-01" nType="0">
          <Node pos="l" depth="2" NCoef="0" IVar="4" Cut="3.0448103125000000e+05" cType="1" res="9.5989577472209930e-02" rms="3.2209947705268860e-01" purity="6.0151219367980957e-01" nType="0">
            <Node pos="l" depth="3" NCoef="0" IVar="-1" Cut="0.0000000000000000e+00" cType="1" res="1.3654694193974137e-03" rms="3.3301442861557007e-01" purity="4.6803468465805054e-01" nType="-99"/>
            <Node pos="r" depth="3" NCoef="0" IVar="-1" Cut="0.0000000000000000e+00" cType="1" res="2.3743701167404652e-03" rms="2.9257825016975403e-01" purity="8.1985610723495483e-01" nType="-99"/>
          </Node>
          <Node pos="r" depth="2" NCoef="0" IVar="3" Cut="7.5747929687500000e+04" cType="1" res="-2.8647140134125948e-03" rms="2.1140748262405396e-01" purity="1.3128073513507843e-01" nType="0">
            <Node pos="l" depth="3" NCoef="0" IVar="-1" Cut="0.0000000000000000e+00" cType="1" res="-3.5293477121740580e-03" rms="1.9927485287189484e-01" purity="5.3273230791091919e-02" nType="-99"/>
            <Node pos="r" depth="3" NCoef="0" IVar="-1" Cut="0.0000000000000000e+00" cType="1" res="1.1129131307825446e-03" rms="2.6822358369827271e-01" purity="9.1991406679153442e-01" nType="-99"/>
          </Node>
        </Node>
        <Node pos="r" depth="1" NCoef="0" IVar="3" Cut="3.7356476562500000e+04" cType="1" res="1.4210876822471619e-01" rms="2.6493620872497559e-01" purity="8.4645825624465942e-01" nType="0">
          <Node pos="l" depth="2" NCoef="0" IVar="3" Cut="2.1459730468750000e+04" cType="1" res="1.0604126006364822e-01" rms="4.0265309810638428e-01" purity="5.5443418025970459e-01" nType="0">
            <Node pos="l" depth="3" NCoef="0" IVar="-1" Cut="0.0000000000000000e+00" cType="1" res="5.1266665104776621e-04" rms="3.5385954380035400e-01" purity="3.7997838854789734e-01" nType="-99"/>
            <Node pos="r" depth="3" NCoef="0" IVar="-1" Cut="0.0000000000000000e+00" cType="1" res="1.4674353878945112e-03" rms="4.3025329709053040e-01" purity="7.1479654312133789e-01" nType="-99"/>
          </Node>
          <Node pos="r" depth="2" NCoef="0" IVar="0" Cut="3.3333334326744080e-01" cType="1" res="1.5574254095554352e-01" rms="1.8644098937511444e-01" purity="9.5684546232223511e-01" nType="0">
            <Node pos="l" depth="3" NCoef="0" IVar="-1" Cut="0.0000000000000000e+00" cType="1" res="1.9662240520119667e-03" rms="1.7687126994132996e-01" purity="9.5936065912246704e-01" nType="-99"/>
            <Node pos="r" depth="3" NCoef="0" IVar="-1" Cut="0.0000000000000000e+00" cType="1" res="1.6228392487391829e-03" rms="1.9265580177307129e-01" purity="9.5505261421203613e-01" nType="-99"/>
          </Node>
        </Node>
      </Node>
    </BinaryTree>
    <BinaryTree type="DecisionTree" boostWeight="1.0000000000000000e+00" itree="367">
      <Node pos="s" depth="0" NCoef="0" IVar="1" Cut="1.0034389062500000e+05" cType="1" res="7.7759526669979095e-02" rms="2.5645691156387329e-01" purity="5.3466629981994629e-01" nType="0">
        <Node pos="l" depth="1" NCoef="0" IVar="1" Cut="7.9302054687500000e+04" cType="1" res="3.4158632159233093e-02" rms="2.5469592213630676e-01" purity="3.3444988727569580e-01" nType="0">
          <Node pos="l" depth="2" NCoef="0" IVar="1" Cut="2.4821078125000000e+04" cType="1" res="1.1120802164077759e-01" rms="3.1388208270072937e-01" purity="6.7514711618423462e-01" nType="0">
            <Node pos="l" depth="3" NCoef="0" IVar="-1" Cut="0.0000000000000000e+00" cType="1" res="-3.4731391351670027e-03" rms="2.4397489428520203e-01" purity="2.9299411177635193e-01" nType="-99"/>
            <Node pos="r" depth="3" NCoef="0" IVar="-1" Cut="0.0000000000000000e+00" cType="1" res="1.9745556637644768e-03" rms="3.1425154209136963e-01" purity="7.1286737918853760e-01" nType="-99"/>
          </Node>
          <Node pos="r" depth="2" NCoef="0" IVar="3" Cut="7.5752984375000000e+04" cType="1" res="-1.5926834195852280e-02" rms="1.9138224422931671e-01" purity="1.1298184096813202e-01" nType="0">
            <Node pos="l" depth="3" NCoef="0" IVar="-1" Cut="0.0000000000000000e+00" cType="1" res="-6.2477579340338707e-03" rms="1.7581427097320557e-01" purity="4.3040297925472260e-02" nType="-99"/>
            <Node pos="r" depth="3" NCoef="0" IVar="-1" Cut="0.0000000000000000e+00" cType="1" res="1.4677759027108550e-03" rms="2.8754496574401855e-01" purity="9.0278333425521851e-01" nType="-99"/>
          </Node>
        </Node>
        <Node pos="r" depth="1" NCoef="0" IVar="5" Cut="9.3474484375000000e+04" cType="1" res="1.5069909393787384e-01" rms="2.4243675172328949e-01" purity="8.6960673332214355e-01" nType="0">
          <Node pos="l" depth="2" NCoef="0" IVar="5" Cut="8.5888406250000000e+04" cType="1" res="1.5740819275379181e-01" rms="2.4277959764003754e-01" purity="8.7537837028503418e-01" nType="0">
            <Node pos="l" depth="3" NCoef="0" IVar="-1" Cut="0.0000000000000000e+00" cType="1" res="1.5978047158569098e-03" rms="2.3294346034526825e-01" purity="8.7166595458984375e-01" nType="-99"/>
            <Node pos="r" depth="3" NCoef="0" IVar="-1" Cut="0.0000000000000000e+00" cType="1" res="1.2347343144938350e-03" rms="2.4371649324893951e-01" purity="8.7589114904403687e-01" nType="-99"/>
          </Node>
          <Node pos="r" depth="2" NCoef="0" IVar="-1" Cut="0.0000000000000000e+00" cType="1" res="1.2565212091431022e-03" rms="2.3449243605136871e-01" purity="8.2849836349487305e-01" nType="-99"/>
        </Node>
      </Node>
    </BinaryTree>
    <BinaryTree type="DecisionTree" boostWeight="1.0000000000000000e+00" itree="368">
      <Node pos="s" depth="0" NCoef="0" IVar="2" Cut="2.7249453125000000e+05" cType="1" res="7.9918228089809418e-02" rms="2.8460025787353516e-01" purity="5.0839775800704956e-01" nType="0">
        <Node pos="l" depth="1" NCoef="0" IVar="1" Cut="9.6992593750000000e+04" cType="1" res="3.9030227810144424e-02" rms="2.8065645694732666e-01" purity="3.2916122674942017e-01" nType="0">
          <Node pos="l" depth="2" NCoef="0" IVar="2" Cut="1.3920495312500000e+05" cType="1" res="1.6339419409632683e-02" rms="2.6429229974746704e-01" purity="2.6594561338424683e-01" nType="0">
            <Node pos="l" depth="3" NCoef="0" IVar="-1" Cut="0.0000000000000000e+00" cType="1" res="-3.6980975419282913e-02" rms="2.3374642431735992e-01" purity="0.0000000000000000e+00" nType="-99"/>
            <Node pos="r" depth="3" NCoef="0" IVar="-1" Cut="0.0000000000000000e+00" cType="1" res="1.1134669184684753e-03" rms="2.6103314757347107e-01" purity="2.7553844451904297e-01" nType="-99"/>
          </Node>
          <Node pos="r" depth="2" NCoef="0" IVar="1" Cut="1.0067541406250000e+05" cType="1" res="1.4264318346977234e-01" rms="3.2619297504425049e-01" purity="6.1782240867614746e-01" nType="0">
            <Node pos="l" depth="3" NCoef="0" IVar="-1" Cut="0.0000000000000000e+00" cType="1" res="1.0044685332104564e-03" rms="2.1087624132633209e-01" purity="2.0368278026580811e-01" nType="-99"/>
            <Node pos="r" depth="3" NCoef="0" IVar="-1" Cut="0.0000000000000000e+00" cType="1" res="2.3364485241472721e-03" rms="3.4257960319519043e-01" purity="7.2491049766540527e-01" nType="-99"/>
          </Node>
        </Node>
        <Node pos="r" depth="1" NCoef="0" IVar="5" Cut="9.3487117187500000e+04" cType="1" res="1.1721244454383850e-01" rms="2.8304573893547058e-01" purity="6.7188054323196411e-01" nType="0">
          <Node pos="l" depth="2" NCoef="0" IVar="1" Cut="1.3200937500000000e+05" cType="1" res="1.0291446000337601e-01" rms="2.7218246459960938e-01" purity="6.5250301361083984e-01" nType="0">
            <Node pos="l" depth="3" NCoef="0" IVar="-1" Cut="0.0000000000000000e+00" cType="1" res="8.0754491500556469e-04" rms="2.9370248317718506e-01" purity="4.5197767019271851e-01" nType="-99"/>
            <Node pos="r" depth="3" NCoef="0" IVar="-1" Cut="0.0000000000000000e+00" cType="1" res="1.5021414728835225e-03" rms="2.3273855447769165e-01" purity="9.2871797084808350e-01" nType="-99"/>
          </Node>
          <Node pos="r" depth="2" NCoef="0" IVar="2" Cut="3.1292115625000000e+05" cType="1" res="1.9045057892799377e-01" rms="3.2341828942298889e-01" purity="7.7113777399063110e-01" nType="0">
            <Node pos="l" depth="3" NCoef="0" IVar="-1" Cut="0.0000000000000000e+00" cType="1" res="3.1294682994484901e-03" rms="3.7783294916152954e-01" purity="7.7951973676681519e-01" nType="-99"/>
            <Node pos="r" depth="3" NCoef="0" IVar="-1" Cut="0.0000000000000000e+00" cType="1" res="1.7970365006476641e-03" rms="2.6049527525901794e-01" purity="7.6732552051544189e-01" nType="-99"/>
          </Node>
        </Node>
      </Node>
    </BinaryTree>
    <BinaryTree type="DecisionTree" boostWeight="1.0000000000000000e+00" itree="369">
      <Node pos="s" depth="0" NCoef="0" IVar="1" Cut="1.0035560937500000e+05" cType="1" res="6.8856477737426758e-02" rms="2.7949526906013489e-01" purity="4.8493888974189758e-01" nType="0">
        <Node pos="l" depth="1" NCoef="0" IVar="3" Cut="7.5616148437500000e+04" cType="1" res="2.1850323304533958e-02" rms="2.7186962962150574e-01" purity="2.8079062700271606e-01" nType="0">
          <Node pos="l" depth="2" NCoef="0" IVar="1" Cut="2.8840105468750000e+04" cType="1" res="5.4266368970274925e-03" rms="2.7038121223449707e-01" purity="1.4839024841785431e-01" nType="0">
            <Node pos="l" depth="3" NCoef="0" IVar="-1" Cut="0.0000000000000000e+00" cType="1" res="-1.6171969473361969e-02" rms="2.2443558275699615e-01" purity="7.9841740429401398e-02" nType="-99"/>
            <Node pos="r" depth="3" NCoef="0" IVar="-1" Cut="0.0000000000000000e+00" cType="1" res="6.9775996962562203e-04" rms="2.7059876918792725e-01" purity="1.5183217823505402e-01" nType="-99"/>
          </Node>
          <Node pos="r" depth="2" NCoef="0" IVar="0" Cut="1.1428571939468384e+00" cType="1" res="1.0130544751882553e-01" rms="2.6495212316513062e-01" purity="9.2132216691970825e-01" nType="0">
            <Node pos="l" depth="3" NCoef="0" IVar="-1" Cut="0.0000000000000000e+00" cType="1" res="1.6625979915261269e-03" rms="2.1131534874439240e-01" purity="9.5110273361206055e-01" nType="-99"/>
            <Node pos="r" depth="3" NCoef="0" IVar="-1" Cut="0.0000000000000000e+00" cType="1" res="5.5021664593368769e-04" rms="3.4399616718292236e-01" purity="8.5908812284469604e-01" nType="-99"/>
          </Node>
        </Node>
        <Node pos="r" depth="1" NCoef="0" IVar="0" Cut="1.1428571939468384e+00" cType="1" res="1.5306083858013153e-01" rms="2.7313157916069031e-01" purity="8.5063934326171875e-01" nType="0">
          <Node pos="l" depth="2" NCoef="0" IVar="5" Cut="8.8812984375000000e+04" cType="1" res="1.6612650454044342e-01" rms="2.7776098251342773e-01" purity="8.3957993984222412e-01" nType="0">
            <Node pos="l" depth="3" NCoef="0" IVar="-1" Cut="0.0000000000000000e+00" cType="1" res="2.0367202814668417e-03" rms="2.8693854808807373e-01" purity="8.5760045051574707e-01" nType="-99"/>
            <Node pos="r" depth="3" NCoef="0" IVar="-1" Cut="0.0000000000000000e+00" cType="1" res="1.5065745683386922e-03" rms="2.7263200283050537e-01" purity="8.3295857906341553e-01" nType="-99"/>
          </Node>
          <Node pos="r" depth="2" NCoef="0" IVar="4" Cut="5.6847906250000000e+05" cType="1" res="1.1646145582199097e-01" rms="2.5620159506797791e-01" purity="8.8161891698837280e-01" nType="0">
            <Node pos="l" depth="3" NCoef="0" IVar="-1" Cut="0.0000000000000000e+00" cType="1" res="1.6370137454941869e-03" rms="2.9985472559928894e-01" purity="8.1336003541946411e-01" nType="-99"/>
            <Node pos="r" depth="3" NCoef="0" IVar="-1" Cut="0.0000000000000000e+00" cType="1" res="1.9405614584684372e-03" rms="2.1514619886875153e-01" purity="9.3411755561828613e-01" nType="-99"/>
          </Node>
        </Node>
      </Node>
    </BinaryTree>
    <BinaryTree type="DecisionTree" boostWeight="1.0000000000000000e+00" itree="370">
      <Node pos="s" depth="0" NCoef="0" IVar="3" Cut="5.8021097656250000e+04" cType="1" res="6.3615210354328156e-02" rms="2.6789790391921997e-01" purity="4.9203154444694519e-01" nType="0">
        <Node pos="l" depth="1" NCoef="0" IVar="1" Cut="9.3482273437500000e+04" cType="1" res="2.3849587887525558e-02" rms="2.8392437100410461e-01" purity="2.3953846096992493e-01" nType="0">
          <Node pos="l" depth="2" NCoef="0" IVar="1" Cut="6.6332992187500000e+04" cType="1" res="-2.5204510893672705e-03" rms="2.5550743937492371e-01" purity="1.2271614372730255e-01" nType="0">
            <Node pos="l" depth="3" NCoef="0" IVar="-1" Cut="0.0000000000000000e+00" cType="1" res="1.6914085717871785e-03" rms="3.9827862381935120e-01" purity="3.9228975772857666e-01" nType="-99"/>
            <Node pos="r" depth="3" NCoef="0" IVar="-1" Cut="0.0000000000000000e+00" cType="1" res="-8.0061703920364380e-03" rms="1.8403558433055878e-01" purity="3.9836790412664413e-02" nType="-99"/>
          </Node>
          <Node pos="r" depth="2" NCoef="0" IVar="4" Cut="4.9311221875000000e+05" cType="1" res="6.7870527505874634e-02" rms="3.2109797000885010e-01" purity="4.3455630540847778e-01" nType="0">
            <Node pos="l" depth="3" NCoef="0" IVar="-1" Cut="0.0000000000000000e+00" cType="1" res="1.1637649731710553e-03" rms="3.1118959188461304e-01" purity="3.5508230328559875e-01" nType="-99"/>
            <Node pos="r" depth="3" NCoef="0" IVar="-1" Cut="0.0000000000000000e+00" cType="1" res="1.2436772231012583e-03" rms="3.4333750605583191e-01" purity="7.4838340282440186e-01" nType="-99"/>
          </Node>
        </Node>
        <Node pos="r" depth="1" NCoef="0" IVar="1" Cut="1.1128134375000000e+05" cType="1" res="1.3381186127662659e-01" rms="2.2008810937404633e-01" purity="9.3774747848510742e-01" nType="0">
          <Node pos="l" depth="2" NCoef="0" IVar="1" Cut="8.2971515625000000e+04" cType="1" res="1.1068713665008545e-01" rms="2.8013932704925537e-01" purity="8.9388525485992432e-01" nType="0">
            <Node pos="l" depth="3" NCoef="0" IVar="-1" Cut="0.0000000000000000e+00" cType="1" res="1.6562391538172960e-03" rms="2.2497999668121338e-01" purity="9.4497609138488770e-01" nType="-99"/>
            <Node pos="r" depth="3" NCoef="0" IVar="-1" Cut="0.0000000000000000e+00" cType="1" res="8.3223654655739665e-04" rms="3.8928869366645813e-01" purity="7.5057280063629150e-01" nType="-99"/>
          </Node>
          <Node pos="r" depth="2" NCoef="0" IVar="-1" Cut="0.0000000000000000e+00" cType="1" res="1.6357098938897252e-03" rms="1.2673887610435486e-01" purity="9.8336511850357056e-01" nType="-99"/>
        </Node>
      </Node>
    </BinaryTree>
    <BinaryTree type="DecisionTree" boostWeight="1.0000000000000000e+00" itree="371">
      <Node pos="s" depth="0" NCoef="0" IVar="1" Cut="7.8732906250000000e+04" cType="1" res="7.8107602894306183e-02" rms="2.8206473588943481e-01" purity="4.9229916930198669e-01" nType="0">
        <Node pos="l" depth="1" NCoef="0" IVar="1" Cut="3.7421574218750000e+04" cType="1" res="1.5018083155155182e-01" rms="3.5161849856376648e-01" purity="6.6461557149887085e-01" nType="0">
          <Node pos="l" depth="2" NCoef="0" IVar="3" Cut="4.3948734375000000e+04" cType="1" res="3.9286594837903976e-03" rms="3.0103895068168640e-01" purity="4.4847753643989563e-01" nType="0">
            <Node pos="l" depth="3" NCoef="0" IVar="-1" Cut="0.0000000000000000e+00" cType="1" res="-1.1459548026323318e-02" rms="2.4054785072803497e-01" purity="7.5522907078266144e-02" nType="-99"/>
            <Node pos="r" depth="3" NCoef="0" IVar="-1" Cut="0.0000000000000000e+00" cType="1" res="1.4469401212409139e-03" rms="3.2976481318473816e-01" purity="8.5592985153198242e-01" nType="-99"/>
          </Node>
          <Node pos="r" depth="2" NCoef="0" IVar="3" Cut="4.8015773437500000e+04" cType="1" res="1.9360576570034027e-01" rms="3.5383677482604980e-01" purity="7.2879076004028320e-01" nType="0">
            <Node pos="l" depth="3" NCoef="0" IVar="-1" Cut="0.0000000000000000e+00" cType="1" res="3.0571131501346827e-03" rms="4.3207800388336182e-01" purity="5.2934527397155762e-01" nType="-99"/>
            <Node pos="r" depth="3" NCoef="0" IVar="-1" Cut="0.0000000000000000e+00" cType="1" res="1.6947945114225149e-03" rms="2.3515753448009491e-01" purity="9.3268138170242310e-01" nType="-99"/>
          </Node>
        </Node>
        <Node pos="r" depth="1" NCoef="0" IVar="3" Cut="5.4198226562500000e+04" cType="1" res="5.5235724896192551e-02" rms="2.5179767608642578e-01" purity="4.3761590123176575e-01" nType="0">
          <Node pos="l" depth="2" NCoef="0" IVar="2" Cut="3.2350790625000000e+05" cType="1" res="2.2176701575517654e-02" rms="2.5319561362266541e-01" purity="2.0277394354343414e-01" nType="0">
            <Node pos="l" depth="3" NCoef="0" IVar="-1" Cut="0.0000000000000000e+00" cType="1" res="-5.5789714679121971e-04" rms="2.1477161347866058e-01" purity="8.6219280958175659e-02" nType="-99"/>
            <Node pos="r" depth="3" NCoef="0" IVar="-1" Cut="0.0000000000000000e+00" cType="1" res="6.9575407542288303e-04" rms="3.1285011768341064e-01" purity="4.5342075824737549e-01" nType="-99"/>
          </Node>
          <Node pos="r" depth="2" NCoef="0" IVar="4" Cut="2.1740406250000000e+05" cType="1" res="1.2257342785596848e-01" rms="2.3495458066463470e-01" purity="9.1596388816833496e-01" nType="0">
            <Node pos="l" depth="3" NCoef="0" IVar="-1" Cut="0.0000000000000000e+00" cType="1" res="-5.4404226830229163e-04" rms="3.7830814719200134e-01" purity="6.6815251111984253e-01" nType="-99"/>
            <Node pos="r" depth="3" NCoef="0" IVar="-1" Cut="0.0000000000000000e+00" cType="1" res="1.4558339025825262e-03" rms="2.1676477789878845e-01" purity="9.3418329954147339e-01" nType="-99"/>
          </Node>
        </Node>
      </Node>
    </BinaryTree>
    <BinaryTree type="DecisionTree" boostWeight="1.0000000000000000e+00" itree="372">
      <Node pos="s" depth="0" NCoef="0" IVar="3" Cut="5.4198226562500000e+04" cType="1" res="8.8275246322154999e-02" rms="2.8970026969909668e-01" purity="5.1736110448837280e-01" nType="0">
        <Node pos="l" depth="1" NCoef="0" IVar="4" Cut="1.6417432812500000e+05" cType="1" res="6.0894984751939774e-02" rms="3.1696447730064392e-01" purity="2.7001723647117615e-01" nType="0">
          <Node pos="l" depth="2" NCoef="0" IVar="2" Cut="1.5050898437500000e+05" cType="1" res="1.3181264698505402e-01" rms="3.8582608103752136e-01" purity="2.5010102987289429e-01" nType="0">
            <Node pos="l" depth="3" NCoef="0" IVar="-1" Cut="0.0000000000000000e+00" cType="1" res="3.9653186686336994e-03" rms="4.9534308910369873e-01" purity="5.3767293691635132e-01" nType="-99"/>
            <Node pos="r" depth="3" NCoef="0" IVar="-1" Cut="0.0000000000000000e+00" cType="1" res="3.2498375512659550e-03" rms="2.8709095716476440e-01" purity="1.4979685842990875e-01" nType="-99"/>
          </Node>
          <Node pos="r" depth="2" NCoef="0" IVar="3" Cut="3.3567148437500000e+04" cType="1" res="4.7399535775184631e-02" rms="3.0019626021385193e-01" purity="2.7380722761154175e-01" nType="0">
            <Node pos="l" depth="3" NCoef="0" IVar="-1" Cut="0.0000000000000000e+00" cType="1" res="2.1827244199812412e-03" rms="2.6858696341514587e-01" purity="1.2782129645347595e-01" nType="-99"/>
            <Node pos="r" depth="3" NCoef="0" IVar="-1" Cut="0.0000000000000000e+00" cType="1" res="9.1258320026099682e-04" rms="3.5326671600341797e-01" purity="6.0249745845794678e-01" nType="-99"/>
          </Node>
        </Node>
        <Node pos="r" depth="1" NCoef="0" IVar="1" Cut="1.0386901562500000e+05" cType="1" res="1.3386186957359314e-01" rms="2.3035050928592682e-01" purity="9.2917507886886597e-01" nType="0">
          <Node pos="l" depth="2" NCoef="0" IVar="1" Cut="9.5127773437500000e+04" cType="1" res="1.0703387111425400e-01" rms="3.0440351366996765e-01" purity="8.6753356456756592e-01" nType="0">
            <Node pos="l" depth="3" NCoef="0" IVar="-1" Cut="0.0000000000000000e+00" cType="1" res="1.2894949177280068e-03" rms="2.9802358150482178e-01" purity="8.6625212430953979e-01" nType="-99"/>
            <Node pos="r" depth="3" NCoef="0" IVar="-1" Cut="0.0000000000000000e+00" cType="1" res="1.7105764709413052e-03" rms="3.2616031169891357e-01" purity="8.7500250339508057e-01" nType="-99"/>
          </Node>
          <Node pos="r" depth="2" NCoef="0" IVar="5" Cut="9.0618523437500000e+04" cType="1" res="1.5595649182796478e-01" rms="1.3916586339473724e-01" purity="9.7994095087051392e-01" nType="0">
            <Node pos="l" depth="3" NCoef="0" IVar="-1" Cut="0.0000000000000000e+00" cType="1" res="1.7740551847964525e-03" rms="1.5644383430480957e-01" purity="9.7423589229583740e-01" nType="-99"/>
            <Node pos="r" depth="3" NCoef="0" IVar="-1" Cut="0.0000000000000000e+00" cType="1" res="1.2344464194029570e-03" rms="1.2088251113891602e-01" purity="9.8510384559631348e-01" nType="-99"/>
          </Node>
        </Node>
      </Node>
    </BinaryTree>
    <BinaryTree type="DecisionTree" boostWeight="1.0000000000000000e+00" itree="373">
      <Node pos="s" depth="0" NCoef="0" IVar="1" Cut="1.0035560937500000e+05" cType="1" res="8.1586353480815887e-02" rms="2.6617208123207092e-01" purity="5.3192508220672607e-01" nType="0">
        <Node pos="l" depth="1" NCoef="0" IVar="1" Cut="7.9321351562500000e+04" cType="1" res="4.1455097496509552e-02" rms="2.7217954397201538e-01" purity="3.2586550712585449e-01" nType="0">
          <Node pos="l" depth="2" NCoef="0" IVar="1" Cut="3.7654453125000000e+04" cType="1" res="1.3386474549770355e-01" rms="3.4171271324157715e-01" purity="6.6107147932052612e-01" nType="0">
            <Node pos="l" depth="3" NCoef="0" IVar="-1" Cut="0.0000000000000000e+00" cType="1" res="4.5894499635323882e-04" rms="3.3635535836219788e-01" purity="4.1743722558021545e-01" nType="-99"/>
            <Node pos="r" depth="3" NCoef="0" IVar="-1" Cut="0.0000000000000000e+00" cType="1" res="2.5630018208175898e-03" rms="3.3567845821380615e-01" purity="7.3065978288650513e-01" nType="-99"/>
          </Node>
          <Node pos="r" depth="2" NCoef="0" IVar="3" Cut="7.5752984375000000e+04" cType="1" res="-1.2390532530844212e-02" rms="2.0330791175365448e-01" purity="1.3054628670215607e-01" nType="0">
            <Node pos="l" depth="3" NCoef="0" IVar="-1" Cut="0.0000000000000000e+00" cType="1" res="-4.0984675288200378e-03" rms="1.8427048623561859e-01" purity="5.0766147673130035e-02" nType="-99"/>
            <Node pos="r" depth="3" NCoef="0" IVar="-1" Cut="0.0000000000000000e+00" cType="1" res="1.2197783216834068e-03" rms="3.0986231565475464e-01" purity="8.8814973831176758e-01" nType="-99"/>
          </Node>
        </Node>
        <Node pos="r" depth="1" NCoef="0" IVar="3" Cut="4.8892753906250000e+04" cType="1" res="1.4758300781250000e-01" rms="2.4191918969154358e-01" purity="8.7079411745071411e-01" nType="0">
          <Node pos="l" depth="2" NCoef="0" IVar="3" Cut="3.2662324218750000e+04" cType="1" res="1.0870704799890518e-01" rms="3.8577708601951599e-01" purity="6.2378782033920288e-01" nType="0">
            <Node pos="l" depth="3" NCoef="0" IVar="-1" Cut="0.0000000000000000e+00" cType="1" res="7.0314726326614618e-04" rms="4.0203070640563965e-01" purity="4.2948827147483826e-01" nType="-99"/>
            <Node pos="r" depth="3" NCoef="0" IVar="-1" Cut="0.0000000000000000e+00" cType="1" res="1.5758598456159234e-03" rms="3.4117880463600159e-01" purity="8.6119264364242554e-01" nType="-99"/>
          </Node>
          <Node pos="r" depth="2" NCoef="0" IVar="4" Cut="3.9151881250000000e+05" cType="1" res="1.6534246504306793e-01" rms="1.2754739820957184e-01" purity="9.8363238573074341e-01" nType="0">
            <Node pos="l" depth="3" NCoef="0" IVar="-1" Cut="0.0000000000000000e+00" cType="1" res="1.6721022548153996e-03" rms="1.4742611348628998e-01" purity="9.7872591018676758e-01" nType="-99"/>
            <Node pos="r" depth="3" NCoef="0" IVar="-1" Cut="0.0000000000000000e+00" cType="1" res="1.3137566857039928e-03" rms="1.1450064927339554e-01" purity="9.8629939556121826e-01" nType="-99"/>
          </Node>
        </Node>
      </Node>
    </BinaryTree>
    <BinaryTree type="DecisionTree" boostWeight="1.0000000000000000e+00" itree="374">
      <Node pos="s" depth="0" NCoef="0" IVar="3" Cut="4.4676781250000000e+04" cType="1" res="7.6611228287220001e-02" rms="2.7155604958534241e-01" purity="5.0255537033081055e-01" nType="0">
        <Node pos="l" depth="1" NCoef="0" IVar="1" Cut="7.4225765625000000e+04" cType="1" res="2.9611365869641304e-02" rms="2.8914234042167664e-01" purity="1.7873688042163849e-01" nType="0">
          <Node pos="l" depth="2" NCoef="0" IVar="1" Cut="3.8677632812500000e+04" cType="1" res="9.5703914761543274e-02" rms="4.1375663876533508e-01" purity="3.1653556227684021e-01" nType="0">
            <Node pos="l" depth="3" NCoef="0" IVar="-1" Cut="0.0000000000000000e+00" cType="1" res="-6.5662525594234467e-03" rms="2.4576820433139801e-01" purity="9.8307125270366669e-02" nType="-99"/>
            <Node pos="r" depth="3" NCoef="0" IVar="-1" Cut="0.0000000000000000e+00" cType="1" res="3.0160630121827126e-03" rms="4.5617821812629700e-01" purity="4.3463575839996338e-01" nType="-99"/>
          </Node>
          <Node pos="r" depth="2" NCoef="0" IVar="1" Cut="1.3347896875000000e+05" cType="1" res="1.6785813495516777e-02" rms="2.5611254572868347e-01" purity="1.5199643373489380e-01" nType="0">
            <Node pos="l" depth="3" NCoef="0" IVar="-1" Cut="0.0000000000000000e+00" cType="1" res="1.3048578985035419e-03" rms="2.2566688060760498e-01" purity="6.9401569664478302e-02" nType="-99"/>
            <Node pos="r" depth="3" NCoef="0" IVar="-1" Cut="0.0000000000000000e+00" cType="1" res="7.9216383164748549e-04" rms="4.0739834308624268e-01" purity="7.4904674291610718e-01" nType="-99"/>
          </Node>
        </Node>
        <Node pos="r" depth="1" NCoef="0" IVar="5" Cut="9.4414687500000000e+04" cType="1" res="1.3399519026279449e-01" rms="2.3603717982769012e-01" purity="8.9791798591613770e-01" nType="0">
          <Node pos="l" depth="2" NCoef="0" IVar="1" Cut="1.3196950000000000e+05" cType="1" res="1.2712040543556213e-01" rms="2.3754802346229553e-01" purity="8.9099341630935669e-01" nType="0">
            <Node pos="l" depth="3" NCoef="0" IVar="-1" Cut="0.0000000000000000e+00" cType="1" res="1.3261407148092985e-03" rms="2.8255400061607361e-01" purity="8.3536148071289062e-01" nType="-99"/>
            <Node pos="r" depth="3" NCoef="0" IVar="-1" Cut="0.0000000000000000e+00" cType="1" res="2.0472204778343439e-03" rms="1.2697555124759674e-01" purity="9.8323875665664673e-01" nType="-99"/>
          </Node>
          <Node pos="r" depth="2" NCoef="0" IVar="-1" Cut="0.0000000000000000e+00" cType="1" res="1.7983687575906515e-03" rms="2.2060120105743408e-01" purity="9.4339746236801147e-01" nType="-99"/>
        </Node>
      </Node>
    </BinaryTree>
    <BinaryTree type="DecisionTree" boostWeight="1.0000000000000000e+00" itree="375">
      <Node pos="s" depth="0" NCoef="0" IVar="3" Cut="6.8850757812500000e+04" cType="1" res="6.6529333591461182e-02" rms="2.7010238170623779e-01" purity="5.0170254707336426e-01" nType="0">
        <Node pos="l" depth="1" NCoef="0" IVar="5" Cut="9.6399453125000000e+04" cType="1" res="3.3696781843900681e-02" rms="2.9555472731590271e-01" purity="2.8592795133590698e-01" nType="0">
          <Node pos="l" depth="2" NCoef="0" IVar="4" Cut="2.0611721875000000e+05" cType="1" res="2.7684943750500679e-02" rms="2.8968140482902527e-01" purity="2.7567103505134583e-01" nType="0">
            <Node pos="l" depth="3" NCoef="0" IVar="-1" Cut="0.0000000000000000e+00" cType="1" res="-8.3601748337969184e-04" rms="2.3000864684581757e-01" purity="1.2078417837619781e-01" nType="-99"/>
            <Node pos="r" depth="3" NCoef="0" IVar="-1" Cut="0.0000000000000000e+00" cType="1" res="1.2826144229620695e-03" rms="3.1936040520668030e-01" purity="3.7339416146278381e-01" nType="-99"/>
          </Node>
          <Node pos="r" depth="2" NCoef="0" IVar="-1" Cut="0.0000000000000000e+00" cType="1" res="2.7445524465292692e-03" rms="3.9834183454513550e-01" purity="6.0947674512863159e-01" nType="-99"/>
        </Node>
        <Node pos="r" depth="1" NCoef="0" IVar="1" Cut="1.0059082812500000e+05" cType="1" res="1.3633814454078674e-01" rms="1.8755903840065002e-01" purity="9.6048408746719360e-01" nType="0">
          <Node pos="l" depth="2" NCoef="0" IVar="1" Cut="7.9525984375000000e+04" cType="1" res="1.1075244098901749e-01" rms="2.5372841954231262e-01" purity="9.2502963542938232e-01" nType="0">
            <Node pos="l" depth="3" NCoef="0" IVar="-1" Cut="0.0000000000000000e+00" cType="1" res="1.4732180861756206e-03" rms="1.9916114211082458e-01" purity="9.5783704519271851e-01" nType="-99"/>
            <Node pos="r" depth="3" NCoef="0" IVar="-1" Cut="0.0000000000000000e+00" cType="1" res="4.6702986583113670e-04" rms="3.9250323176383972e-01" purity="7.9898005723953247e-01" nType="-99"/>
          </Node>
          <Node pos="r" depth="2" NCoef="0" IVar="-1" Cut="0.0000000000000000e+00" cType="1" res="1.9275209633633494e-03" rms="1.0340254008769989e-01" purity="9.8905873298645020e-01" nType="-99"/>
        </Node>
      </Node>
    </BinaryTree>
    <BinaryTree type="DecisionTree" boostWeight="1.0000000000000000e+00" itree="376">
      <Node pos="s" depth="0" NCoef="0" IVar="3" Cut="6.8736484375000000e+04" cType="1" res="6.1317384243011475e-02" rms="2.7304661273956299e-01" purity="4.7465011477470398e-01" nType="0">
        <Node pos="l" depth="1" NCoef="0" IVar="5" Cut="9.3549078125000000e+04" cType="1" res="3.0732970684766769e-02" rms="2.9551407694816589e-01" purity="2.7738267183303833e-01" nType="0">
          <Node pos="l" depth="2" NCoef="0" IVar="5" Cut="8.5318703125000000e+04" cType="1" res="1.6544489189982414e-02" rms="2.8778424859046936e-01" purity="2.4208781123161316e-01" nType="0">
            <Node pos="l" depth="3" NCoef="0" IVar="-1" Cut="0.0000000000000000e+00" cType="1" res="2.9797358438372612e-03" rms="4.0019115805625916e-01" purity="5.8685010671615601e-01" nType="-99"/>
            <Node pos="r" depth="3" NCoef="0" IVar="-1" Cut="0.0000000000000000e+00" cType="1" res="3.1201177625916898e-04" rms="2.7779734134674072e-01" purity="2.2310490906238556e-01" nType="-99"/>
          </Node>
          <Node pos="r" depth="2" NCoef="0" IVar="3" Cut="2.3087093750000000e+04" cType="1" res="1.2017347663640976e-01" rms="3.2631617784500122e-01" purity="4.9987229704856873e-01" nType="0">
            <Node pos="l" depth="3" NCoef="0" IVar="-1" Cut="0.0000000000000000e+00" cType="1" res="-6.2302798032760620e-03" rms="1.6782233119010925e-01" purity="7.7374726533889771e-02" nType="-99"/>
            <Node pos="r" depth="3" NCoef="0" IVar="-1" Cut="0.0000000000000000e+00" cType="1" res="1.2588638346642256e-03" rms="3.5033655166625977e-01" purity="7.0198619365692139e-01" nType="-99"/>
          </Node>
        </Node>
        <Node pos="r" depth="1" NCoef="0" IVar="1" Cut="1.2571450000000000e+05" cType="1" res="1.3667644560337067e-01" rms="1.8733820319175720e-01" purity="9.6071100234985352e-01" nType="0">
          <Node pos="l" depth="2" NCoef="0" IVar="2" Cut="2.1479896875000000e+05" cType="1" res="1.2501031160354614e-01" rms="2.2544272243976593e-01" purity="9.4183832406997681e-01" nType="0">
            <Node pos="l" depth="3" NCoef="0" IVar="-1" Cut="0.0000000000000000e+00" cType="1" res="1.7419115174561739e-03" rms="1.8126782774925232e-01" purity="9.6444922685623169e-01" nType="-99"/>
            <Node pos="r" depth="3" NCoef="0" IVar="-1" Cut="0.0000000000000000e+00" cType="1" res="1.6793886898085475e-03" rms="2.4749192595481873e-01" purity="9.2789208889007568e-01" nType="-99"/>
          </Node>
          <Node pos="r" depth="2" NCoef="0" IVar="-1" Cut="0.0000000000000000e+00" cType="1" res="2.3103060666471720e-03" rms="1.0861152410507202e-01" purity="9.8808670043945312e-01" nType="-99"/>
        </Node>
      </Node>
    </BinaryTree>
    <BinaryTree type="DecisionTree" boostWeight="1.0000000000000000e+00" itree="377">
      <Node pos="s" depth="0" NCoef="0" IVar="1" Cut="1.0037520312500000e+05" cType="1" res="5.7152424007654190e-02" rms="2.7643641829490662e-01" purity="4.7573947906494141e-01" nType="0">
        <Node pos="l" depth="1" NCoef="0" IVar="1" Cut="8.3539890625000000e+04" cType="1" res="2.3104319348931313e-02" rms="2.7312842011451721e-01" purity="2.9803362488746643e-01" nType="0">
          <Node pos="l" depth="2" NCoef="0" IVar="5" Cut="8.5005421875000000e+04" cType="1" res="8.0439902842044830e-02" rms="3.3521723747253418e-01" purity="5.6718909740447998e-01" nType="0">
            <Node pos="l" depth="3" NCoef="0" IVar="-1" Cut="0.0000000000000000e+00" cType="1" res="3.6576739512383938e-03" rms="4.5049375295639038e-01" purity="5.6367743015289307e-01" nType="-99"/>
            <Node pos="r" depth="3" NCoef="0" IVar="-1" Cut="0.0000000000000000e+00" cType="1" res="1.3442728668451309e-03" rms="3.2450771331787109e-01" purity="5.6739240884780884e-01" nType="-99"/>
          </Node>
          <Node pos="r" depth="2" NCoef="0" IVar="3" Cut="8.4967171875000000e+04" cType="1" res="-2.0183255895972252e-02" rms="2.0427058637142181e-01" purity="9.4824925065040588e-02" nType="0">
            <Node pos="l" depth="3" NCoef="0" IVar="-1" Cut="0.0000000000000000e+00" cType="1" res="-5.2012433297932148e-03" rms="1.9553796947002411e-01" purity="5.1477514207363129e-02" nType="-99"/>
            <Node pos="r" depth="3" NCoef="0" IVar="-1" Cut="0.0000000000000000e+00" cType="1" res="1.5276611084118485e-03" rms="3.0455356836318970e-01" purity="8.9199763536453247e-01" nType="-99"/>
          </Node>
        </Node>
        <Node pos="r" depth="1" NCoef="0" IVar="3" Cut="4.8766871093750000e+04" cType="1" res="1.2528108060359955e-01" rms="2.7035823464393616e-01" purity="8.3132058382034302e-01" nType="0">
          <Node pos="l" depth="2" NCoef="0" IVar="3" Cut="1.8678250000000000e+04" cType="1" res="6.6262677311897278e-02" rms="4.0080919861793518e-01" purity="5.4771167039871216e-01" nType="0">
            <Node pos="l" depth="3" NCoef="0" IVar="-1" Cut="0.0000000000000000e+00" cType="1" res="-3.4312324132770300e-03" rms="3.2536470890045166e-01" purity="2.0079261064529419e-01" nType="-99"/>
            <Node pos="r" depth="3" NCoef="0" IVar="-1" Cut="0.0000000000000000e+00" cType="1" res="9.2818838311359286e-04" rms="4.1448330879211426e-01" purity="7.0499563217163086e-01" nType="-99"/>
          </Node>
          <Node pos="r" depth="2" NCoef="0" IVar="4" Cut="3.2281981250000000e+05" cType="1" res="1.5427598357200623e-01" rms="1.6591376066207886e-01" purity="9.7065365314483643e-01" nType="0">
            <Node pos="l" depth="3" NCoef="0" IVar="-1" Cut="0.0000000000000000e+00" cType="1" res="1.4918100787326694e-03" rms="1.8608605861663818e-01" purity="9.6271097660064697e-01" nType="-99"/>
            <Node pos="r" depth="3" NCoef="0" IVar="-1" Cut="0.0000000000000000e+00" cType="1" res="1.6367977950721979e-03" rms="1.5405613183975220e-01" purity="9.7475665807723999e-01" nType="-99"/>
          </Node>
        </Node>
      </Node>
    </BinaryTree>
    <BinaryTree type="DecisionTree" boostWeight="1.0000000000000000e+00" itree="378">
      <Node pos="s" depth="0" NCoef="0" IVar="3" Cut="6.8798242187500000e+04" cType="1" res="6.5343290567398071e-02" rms="2.7207693457603455e-01" purity="4.8787200450897217e-01" nType="0">
        <Node pos="l" depth="1" NCoef="0" IVar="2" Cut="2.7811203125000000e+05" cType="1" res="3.3292900770902634e-02" rms="3.0013427138328552e-01" purity="2.7238932251930237e-01" nType="0">
          <Node pos="l" depth="2" NCoef="0" IVar="2" Cut="2.4560629687500000e+05" cType="1" res="4.5869085006415844e-03" rms="2.6422581076622009e-01" purity="1.5455490350723267e-01" nType="0">
            <Node pos="l" depth="3" NCoef="0" IVar="-1" Cut="0.0000000000000000e+00" cType="1" res="-3.2466708216816187e-03" rms="2.2809877991676331e-01" purity="9.4189926981925964e-02" nType="-99"/>
            <Node pos="r" depth="3" NCoef="0" IVar="-1" Cut="0.0000000000000000e+00" cType="1" res="1.9044390646740794e-03" rms="3.2842847704887390e-01" purity="3.2156795263290405e-01" nType="-99"/>
          </Node>
          <Node pos="r" depth="2" NCoef="0" IVar="3" Cut="1.6610037109375000e+04" cType="1" res="7.3816023766994476e-02" rms="3.4041580557823181e-01" purity="4.3873155117034912e-01" nType="0">
            <Node pos="l" depth="3" NCoef="0" IVar="-1" Cut="0.0000000000000000e+00" cType="1" res="1.1945650476263836e-04" rms="2.2863684594631195e-01" purity="1.2058988213539124e-01" nType="-99"/>
            <Node pos="r" depth="3" NCoef="0" IVar="-1" Cut="0.0000000000000000e+00" cType="1" res="1.5670509310439229e-03" rms="3.6677527427673340e-01" purity="5.4326301813125610e-01" nType="-99"/>
          </Node>
        </Node>
        <Node pos="r" depth="1" NCoef="0" IVar="1" Cut="1.0372934375000000e+05" cType="1" res="1.3628783822059631e-01" rms="1.7658226191997528e-01" purity="9.6484977006912231e-01" nType="0">
          <Node pos="l" depth="2" NCoef="0" IVar="3" Cut="1.0329799218750000e+05" cType="1" res="1.1162162572145462e-01" rms="2.3881079256534576e-01" purity="9.3299251794815063e-01" nType="0">
            <Node pos="l" depth="3" NCoef="0" IVar="-1" Cut="0.0000000000000000e+00" cType="1" res="8.4694963879883289e-04" rms="3.3850437402725220e-01" purity="8.5759210586547852e-01" nType="-99"/>
            <Node pos="r" depth="3" NCoef="0" IVar="-1" Cut="0.0000000000000000e+00" cType="1" res="2.1063790190964937e-03" rms="1.4296525716781616e-01" purity="9.7873979806900024e-01" nType="-99"/>
          </Node>
          <Node pos="r" depth="2" NCoef="0" IVar="-1" Cut="0.0000000000000000e+00" cType="1" res="1.6856348374858499e-03" rms="9.9997654557228088e-02" purity="9.8990124464035034e-01" nType="-99"/>
        </Node>
      </Node>
    </BinaryTree>
    <BinaryTree type="DecisionTree" boostWeight="1.0000000000000000e+00" itree="379">
      <Node pos="s" depth="0" NCoef="0" IVar="3" Cut="6.8843453125000000e+04" cType="1" res="7.4403315782546997e-02" rms="2.8163677453994751e-01" purity="4.9462839961051941e-01" nType="0">
        <Node pos="l" depth="1" NCoef="0" IVar="3" Cut="2.9599570312500000e+04" cType="1" res="5.0649974495172501e-02" rms="3.0433896183967590e-01" purity="3.0773368477821350e-01" nType="0">
          <Node pos="l" depth="2" NCoef="0" IVar="3" Cut="1.2782386718750000e+04" cType="1" res="1.8312785774469376e-02" rms="2.5263473391532898e-01" purity="1.2305831164121628e-01" nType="0">
            <Node pos="l" depth="3" NCoef="0" IVar="-1" Cut="0.0000000000000000e+00" cType="1" res="-2.1312600001692772e-03" rms="1.5484687685966492e-01" purity="3.9057869464159012e-02" nType="-99"/>
            <Node pos="r" depth="3" NCoef="0" IVar="-1" Cut="0.0000000000000000e+00" cType="1" res="1.8613261636346579e-03" rms="2.9700475931167603e-01" purity="1.7608298361301422e-01" nType="-99"/>
          </Node>
          <Node pos="r" depth="2" NCoef="0" IVar="2" Cut="1.9761235937500000e+05" cType="1" res="9.7779825329780579e-02" rms="3.6172977089881897e-01" purity="5.7688891887664795e-01" nType="0">
            <Node pos="l" depth="3" NCoef="0" IVar="-1" Cut="0.0000000000000000e+00" cType="1" res="-5.7402404490858316e-04" rms="3.8801947236061096e-01" purity="3.4023383259773254e-01" nType="-99"/>
            <Node pos="r" depth="3" NCoef="0" IVar="-1" Cut="0.0000000000000000e+00" cType="1" res="1.7258087173104286e-03" rms="3.5524159669876099e-01" purity="6.0824370384216309e-01" nType="-99"/>
          </Node>
        </Node>
        <Node pos="r" depth="1" NCoef="0" IVar="2" Cut="1.9906631250000000e+05" cType="1" res="1.3279063999652863e-01" rms="2.0450870692729950e-01" purity="9.5402842760086060e-01" nType="0">
          <Node pos="l" depth="2" NCoef="0" IVar="-1" Cut="0.0000000000000000e+00" cType="1" res="1.1530481278896332e-03" rms="3.0186262726783752e-01" purity="8.9773786067962646e-01" nType="-99"/>
          <Node pos="r" depth="2" NCoef="0" IVar="5" Cut="8.8730195312500000e+04" cType="1" res="1.4010494947433472e-01" rms="1.8239691853523254e-01" purity="9.6336793899536133e-01" nType="0">
            <Node pos="l" depth="3" NCoef="0" IVar="-1" Cut="0.0000000000000000e+00" cType="1" res="1.5816604718565941e-03" rms="1.7703133821487427e-01" purity="9.7062468528747559e-01" nType="-99"/>
            <Node pos="r" depth="3" NCoef="0" IVar="-1" Cut="0.0000000000000000e+00" cType="1" res="1.8490473739802837e-03" rms="1.8395775556564331e-01" purity="9.6067702770233154e-01" nType="-99"/>
          </Node>
        </Node>
      </Node>
    </BinaryTree>
    <BinaryTree type="DecisionTree" boostWeight="1.0000000000000000e+00" itree="380">
      <Node pos="s" depth="0" NCoef="0" IVar="1" Cut="1.0034389062500000e+05" cType="1" res="7.2264917194843292e-02" rms="2.6979738473892212e-01" purity="5.0853079557418823e-01" nType="0">
        <Node pos="l" depth="1" NCoef="0" IVar="1" Cut="7.9306421875000000e+04" cType="1" res="3.5393308848142624e-02" rms="2.7307355403900146e-01" purity="3.1166234612464905e-01" nType="0">
          <Node pos="l" depth="2" NCoef="0" IVar="3" Cut="3.3172445312500000e+04" cType="1" res="9.0169519186019897e-02" rms="3.1242486834526062e-01" purity="6.2924456596374512e-01" nType="0">
            <Node pos="l" depth="3" NCoef="0" IVar="-1" Cut="0.0000000000000000e+00" cType="1" res="-3.7642926909029484e-03" rms="2.9262676835060120e-01" purity="9.8554342985153198e-02" nType="-99"/>
            <Node pos="r" depth="3" NCoef="0" IVar="-1" Cut="0.0000000000000000e+00" cType="1" res="1.8134503625333309e-03" rms="3.0676299333572388e-01" purity="8.7143915891647339e-01" nType="-99"/>
          </Node>
          <Node pos="r" depth="2" NCoef="0" IVar="1" Cut="9.7335812500000000e+04" cType="1" res="5.4698660969734192e-03" rms="2.4381996691226959e-01" purity="1.3817185163497925e-01" nType="0">
            <Node pos="l" depth="3" NCoef="0" IVar="-1" Cut="0.0000000000000000e+00" cType="1" res="-5.9663399588316679e-04" rms="2.3146927356719971e-01" purity="1.1533837020397186e-01" nType="-99"/>
            <Node pos="r" depth="3" NCoef="0" IVar="-1" Cut="0.0000000000000000e+00" cType="1" res="3.1853176187723875e-03" rms="3.2876604795455933e-01" purity="4.0327125787734985e-01" nType="-99"/>
          </Node>
        </Node>
        <Node pos="r" depth="1" NCoef="0" IVar="5" Cut="9.0646859375000000e+04" cType="1" res="1.3755550980567932e-01" rms="2.5094032287597656e-01" purity="8.5713654756546021e-01" nType="0">
          <Node pos="l" depth="2" NCoef="0" IVar="5" Cut="8.7503429687500000e+04" cType="1" res="1.5084144473075867e-01" rms="2.6026308536529541e-01" purity="8.6410331726074219e-01" nType="0">
            <Node pos="l" depth="3" NCoef="0" IVar="-1" Cut="0.0000000000000000e+00" cType="1" res="1.5888492343947291e-03" rms="2.6400849223136902e-01" purity="8.4396404027938843e-01" nType="-99"/>
            <Node pos="r" depth="3" NCoef="0" IVar="-1" Cut="0.0000000000000000e+00" cType="1" res="1.8342671683058143e-03" rms="2.5819748640060425e-01" purity="8.7153041362762451e-01" nType="-99"/>
          </Node>
          <Node pos="r" depth="2" NCoef="0" IVar="2" Cut="3.2524812500000000e+05" cType="1" res="1.2363197654485703e-01" rms="2.3999509215354919e-01" purity="8.4983545541763306e-01" nType="0">
            <Node pos="l" depth="3" NCoef="0" IVar="-1" Cut="0.0000000000000000e+00" cType="1" res="1.1956398375332355e-03" rms="3.2528334856033325e-01" purity="6.3771390914916992e-01" nType="-99"/>
            <Node pos="r" depth="3" NCoef="0" IVar="-1" Cut="0.0000000000000000e+00" cType="1" res="1.6217768425121903e-03" rms="2.0055474340915680e-01" purity="9.2036956548690796e-01" nType="-99"/>
          </Node>
        </Node>
      </Node>
    </BinaryTree>
    <BinaryTree type="DecisionTree" boostWeight="1.0000000000000000e+00" itree="381">
      <Node pos="s" depth="0" NCoef="0" IVar="3" Cut="5.4259988281250000e+04" cType="1" res="7.2054475545883179e-02" rms="2.8245067596435547e-01" purity="4.8776701092720032e-01" nType="0">
        <Node pos="l" depth="1" NCoef="0" IVar="3" Cut="1.0432407226562500e+04" cType="1" res="4.7383036464452744e-02" rms="3.0635690689086914e-01" purity="2.5088334083557129e-01" nType="0">
          <Node pos="l" depth="2" NCoef="0" IVar="3" Cut="8.9558867187500000e+03" cType="1" res="-1.5465629287064075e-02" rms="1.0082478821277618e-01" purity="2.8033789247274399e-02" nType="0">
            <Node pos="l" depth="3" NCoef="0" IVar="-1" Cut="0.0000000000000000e+00" cType="1" res="-5.2415218204259872e-02" rms="5.5541157722473145e-02" purity="0.0000000000000000e+00" nType="-99"/>
            <Node pos="r" depth="3" NCoef="0" IVar="-1" Cut="0.0000000000000000e+00" cType="1" res="1.0118685895577073e-03" rms="1.7650437355041504e-01" purity="1.2407277524471283e-01" nType="-99"/>
          </Node>
          <Node pos="r" depth="2" NCoef="0" IVar="4" Cut="5.7422525000000000e+05" cType="1" res="6.1940360814332962e-02" rms="3.3483153581619263e-01" purity="3.0250087380409241e-01" nType="0">
            <Node pos="l" depth="3" NCoef="0" IVar="-1" Cut="0.0000000000000000e+00" cType="1" res="2.0155869424343109e-03" rms="3.3120986819267273e-01" purity="2.6778697967529297e-01" nType="-99"/>
            <Node pos="r" depth="3" NCoef="0" IVar="-1" Cut="0.0000000000000000e+00" cType="1" res="1.3577026547864079e-03" rms="3.5647040605545044e-01" purity="6.3506978750228882e-01" nType="-99"/>
          </Node>
        </Node>
        <Node pos="r" depth="1" NCoef="0" IVar="1" Cut="1.1144496093750000e+05" cType="1" res="1.1762863397598267e-01" rms="2.2488865256309509e-01" purity="9.2534887790679932e-01" nType="0">
          <Node pos="l" depth="2" NCoef="0" IVar="3" Cut="8.9429250000000000e+04" cType="1" res="9.1017365455627441e-02" rms="2.7418762445449829e-01" purity="8.7897038459777832e-01" nType="0">
            <Node pos="l" depth="3" NCoef="0" IVar="-1" Cut="0.0000000000000000e+00" cType="1" res="4.0370709029957652e-04" rms="3.7899488210678101e-01" purity="7.3493963479995728e-01" nType="-99"/>
            <Node pos="r" depth="3" NCoef="0" IVar="-1" Cut="0.0000000000000000e+00" cType="1" res="1.8176980083808303e-03" rms="1.7193858325481415e-01" purity="9.6802842617034912e-01" nType="-99"/>
          </Node>
          <Node pos="r" depth="2" NCoef="0" IVar="-1" Cut="0.0000000000000000e+00" cType="1" res="1.8119188025593758e-03" rms="1.4271306991577148e-01" purity="9.7896373271942139e-01" nType="-99"/>
        </Node>
      </Node>
    </BinaryTree>
    <BinaryTree type="DecisionTree" boostWeight="1.0000000000000000e+00" itree="382">
      <Node pos="s" depth="0" NCoef="0" IVar="3" Cut="3.7123617187500000e+04" cType="1" res="7.2260163724422455e-02" rms="2.6857882738113403e-01" purity="5.0760203599929810e-01" nType="0">
        <Node pos="l" depth="1" NCoef="0" IVar="2" Cut="3.7109978125000000e+05" cType="1" res="2.2628623992204666e-02" rms="2.6393285393714905e-01" purity="1.5229885280132294e-01" nType="0">
          <Node pos="l" depth="2" NCoef="0" IVar="1" Cut="1.3728821875000000e+05" cType="1" res="2.3085244465619326e-03" rms="2.3068602383136749e-01" purity="8.6647711694240570e-02" nType="0">
            <Node pos="l" depth="3" NCoef="0" IVar="-1" Cut="0.0000000000000000e+00" cType="1" res="-1.6922107897698879e-03" rms="2.0868408679962158e-01" purity="5.1836028695106506e-02" nType="-99"/>
            <Node pos="r" depth="3" NCoef="0" IVar="-1" Cut="0.0000000000000000e+00" cType="1" res="1.9368767971172929e-03" rms="4.5120611786842346e-01" purity="7.1297401189804077e-01" nType="-99"/>
          </Node>
          <Node pos="r" depth="2" NCoef="0" IVar="3" Cut="1.9524716796875000e+04" cType="1" res="1.1039047688245773e-01" rms="3.6221316456794739e-01" purity="4.3584394454956055e-01" nType="0">
            <Node pos="l" depth="3" NCoef="0" IVar="-1" Cut="0.0000000000000000e+00" cType="1" res="2.1046698384452611e-04" rms="3.0136948823928833e-01" purity="2.3068016767501831e-01" nType="-99"/>
            <Node pos="r" depth="3" NCoef="0" IVar="-1" Cut="0.0000000000000000e+00" cType="1" res="1.8374772043898702e-03" rms="3.8262361288070679e-01" purity="5.7575476169586182e-01" nType="-99"/>
          </Node>
        </Node>
        <Node pos="r" depth="1" NCoef="0" IVar="1" Cut="1.1138204687500000e+05" cType="1" res="1.1943063884973526e-01" rms="2.6442340016365051e-01" purity="8.4528690576553345e-01" nType="0">
          <Node pos="l" depth="2" NCoef="0" IVar="1" Cut="8.3081375000000000e+04" cType="1" res="8.9384004473686218e-02" rms="3.1655398011207581e-01" purity="7.4684071540832520e-01" nType="0">
            <Node pos="l" depth="3" NCoef="0" IVar="-1" Cut="0.0000000000000000e+00" cType="1" res="1.7986543243750930e-03" rms="2.8976696729660034e-01" purity="8.7156021595001221e-01" nType="-99"/>
            <Node pos="r" depth="3" NCoef="0" IVar="-1" Cut="0.0000000000000000e+00" cType="1" res="5.5050570517778397e-04" rms="3.3982709050178528e-01" purity="5.8805763721466064e-01" nType="-99"/>
          </Node>
          <Node pos="r" depth="2" NCoef="0" IVar="2" Cut="3.6027509375000000e+05" cType="1" res="1.5709765255451202e-01" rms="1.7146782577037811e-01" purity="9.6870076656341553e-01" nType="0">
            <Node pos="l" depth="3" NCoef="0" IVar="-1" Cut="0.0000000000000000e+00" cType="1" res="1.5426478348672390e-03" rms="2.1365129947662354e-01" purity="9.4598180055618286e-01" nType="-99"/>
            <Node pos="r" depth="3" NCoef="0" IVar="-1" Cut="0.0000000000000000e+00" cType="1" res="1.2874556705355644e-03" rms="1.4380058646202087e-01" purity="9.8039507865905762e-01" nType="-99"/>
          </Node>
        </Node>
      </Node>
    </BinaryTree>
    <BinaryTree type="DecisionTree" boostWeight="1.0000000000000000e+00" itree="383">
      <Node pos="s" depth="0" NCoef="0" IVar="3" Cut="3.7915406250000000e+04" cType="1" res="7.5932241976261139e-02" rms="2.7740839123725891e-01" purity="5.0931775569915771e-01" nType="0">
        <Node pos="l" depth="1" NCoef="0" IVar="1" Cut="6.9575375000000000e+04" cType="1" res="3.5822942852973938e-02" rms="2.8662493824958801e-01" purity="1.6371740400791168e-01" nType="0">
          <Node pos="l" depth="2" NCoef="0" IVar="1" Cut="3.9387550781250000e+04" cType="1" res="1.3224770128726959e-01" rms="4.3931919336318970e-01" purity="2.9644861817359924e-01" nType="0">
            <Node pos="l" depth="3" NCoef="0" IVar="-1" Cut="0.0000000000000000e+00" cType="1" res="-1.5836700797080994e-02" rms="2.1887269616127014e-01" purity="5.0775229930877686e-02" nType="-99"/>
            <Node pos="r" depth="3" NCoef="0" IVar="-1" Cut="0.0000000000000000e+00" cType="1" res="4.3876841664314270e-03" rms="4.9259123206138611e-01" purity="4.6061080694198608e-01" nType="-99"/>
          </Node>
          <Node pos="r" depth="2" NCoef="0" IVar="5" Cut="9.0658773437500000e+04" cType="1" res="1.9385537132620811e-02" rms="2.4779562652111053e-01" purity="1.4109088480472565e-01" nType="0">
            <Node pos="l" depth="3" NCoef="0" IVar="-1" Cut="0.0000000000000000e+00" cType="1" res="2.7902685105800629e-03" rms="2.9064047336578369e-01" purity="2.1276982128620148e-01" nType="-99"/>
            <Node pos="r" depth="3" NCoef="0" IVar="-1" Cut="0.0000000000000000e+00" cType="1" res="-1.4725296059623361e-03" rms="2.0156818628311157e-01" purity="8.2102067768573761e-02" nType="-99"/>
          </Node>
        </Node>
        <Node pos="r" depth="1" NCoef="0" IVar="3" Cut="7.3862171875000000e+04" cType="1" res="1.1543716490268707e-01" rms="2.6208806037902832e-01" purity="8.4971046447753906e-01" nType="0">
          <Node pos="l" depth="2" NCoef="0" IVar="3" Cut="4.1339187500000000e+04" cType="1" res="8.6599409580230713e-02" rms="3.4938532114028931e-01" purity="6.8922537565231323e-01" nType="0">
            <Node pos="l" depth="3" NCoef="0" IVar="-1" Cut="0.0000000000000000e+00" cType="1" res="-1.8964752089232206e-03" rms="3.2672804594039917e-01" purity="3.1121641397476196e-01" nType="-99"/>
            <Node pos="r" depth="3" NCoef="0" IVar="-1" Cut="0.0000000000000000e+00" cType="1" res="9.9137437064200640e-04" rms="3.4801420569419861e-01" purity="7.3631030321121216e-01" nType="-99"/>
          </Node>
          <Node pos="r" depth="2" NCoef="0" IVar="1" Cut="1.1202803906250000e+05" cType="1" res="1.3691130280494690e-01" rms="1.6691374778747559e-01" purity="9.6921622753143311e-01" nType="0">
            <Node pos="l" depth="3" NCoef="0" IVar="-1" Cut="0.0000000000000000e+00" cType="1" res="1.3235148508101702e-03" rms="2.1307362616062164e-01" purity="9.4849640130996704e-01" nType="-99"/>
            <Node pos="r" depth="3" NCoef="0" IVar="-1" Cut="0.0000000000000000e+00" cType="1" res="1.7712737899273634e-03" rms="9.4175472855567932e-02" purity="9.9107527732849121e-01" nType="-99"/>
          </Node>
        </Node>
      </Node>
    </BinaryTree>
    <BinaryTree type="DecisionTree" boostWeight="1.0000000000000000e+00" itree="384">
      <Node pos="s" depth="0" NCoef="0" IVar="3" Cut="5.4198226562500000e+04" cType="1" res="6.2151350080966949e-02" rms="2.6452305912971497e-01" purity="4.9334254860877991e-01" nType="0">
        <Node pos="l" depth="1" NCoef="0" IVar="3" Cut="2.5833761718750000e+04" cType="1" res="2.5688506662845612e-02" rms="2.7472367882728577e-01" purity="2.3270107805728912e-01" nType="0">
          <Node pos="l" depth="2" NCoef="0" IVar="4" Cut="4.7422734375000000e+05" cType="1" res="-2.8494659345597029e-03" rms="2.1920457482337952e-01" purity="8.0368079245090485e-02" nType="0">
            <Node pos="l" depth="3" NCoef="0" IVar="-1" Cut="0.0000000000000000e+00" cType="1" res="-1.9274624064564705e-03" rms="1.9284613430500031e-01" purity="5.6103300303220749e-02" nType="-99"/>
            <Node pos="r" depth="3" NCoef="0" IVar="-1" Cut="0.0000000000000000e+00" cType="1" res="4.2881374247372150e-03" rms="4.0111827850341797e-01" purity="3.6827081441879272e-01" nType="-99"/>
          </Node>
          <Node pos="r" depth="2" NCoef="0" IVar="5" Cut="8.9721023437500000e+04" cType="1" res="6.6147774457931519e-02" rms="3.3400490880012512e-01" purity="4.4866883754730225e-01" nType="0">
            <Node pos="l" depth="3" NCoef="0" IVar="-1" Cut="0.0000000000000000e+00" cType="1" res="1.8845432205125690e-03" rms="3.3810114860534668e-01" purity="5.9887385368347168e-01" nType="-99"/>
            <Node pos="r" depth="3" NCoef="0" IVar="-1" Cut="0.0000000000000000e+00" cType="1" res="6.0660898452624679e-04" rms="3.2694497704505920e-01" purity="3.6193436384201050e-01" nType="-99"/>
          </Node>
        </Node>
        <Node pos="r" depth="1" NCoef="0" IVar="1" Cut="1.0059082812500000e+05" cType="1" res="1.2242365628480911e-01" rms="2.3462641239166260e-01" purity="9.2417734861373901e-01" nType="0">
          <Node pos="l" depth="2" NCoef="0" IVar="3" Cut="8.9369531250000000e+04" cType="1" res="9.4155646860599518e-02" rms="3.0716031789779663e-01" purity="8.5964834690093994e-01" nType="0">
            <Node pos="l" depth="3" NCoef="0" IVar="-1" Cut="0.0000000000000000e+00" cType="1" res="4.7098778304643929e-04" rms="4.2774438858032227e-01" purity="7.0354646444320679e-01" nType="-99"/>
            <Node pos="r" depth="3" NCoef="0" IVar="-1" Cut="0.0000000000000000e+00" cType="1" res="2.1985538769513369e-03" rms="1.6645814478397369e-01" purity="9.7045016288757324e-01" nType="-99"/>
          </Node>
          <Node pos="r" depth="2" NCoef="0" IVar="5" Cut="9.0562578125000000e+04" cType="1" res="1.4569193124771118e-01" rms="1.4663925766944885e-01" purity="9.7729319334030151e-01" nType="0">
            <Node pos="l" depth="3" NCoef="0" IVar="-1" Cut="0.0000000000000000e+00" cType="1" res="1.1480438988655806e-03" rms="1.6466009616851807e-01" purity="9.7128468751907349e-01" nType="-99"/>
            <Node pos="r" depth="3" NCoef="0" IVar="-1" Cut="0.0000000000000000e+00" cType="1" res="1.9215933280065656e-03" rms="1.3154055178165436e-01" purity="9.8173689842224121e-01" nType="-99"/>
          </Node>
        </Node>
      </Node>
    </BinaryTree>
    <BinaryTree type="DecisionTree" boostWeight="1.0000000000000000e+00" itree="385">
      <Node pos="s" depth="0" NCoef="0" IVar="3" Cut="4.4463175781250000e+04" cType="1" res="5.8128476142883301e-02" rms="2.6937198638916016e-01" purity="4.8686465620994568e-01" nType="0">
        <Node pos="l" depth="1" NCoef="0" IVar="3" Cut="2.9653005859375000e+04" cType="1" res="1.5870252624154091e-02" rms="2.6766929030418396e-01" purity="1.6457062959671021e-01" nType="0">
          <Node pos="l" depth="2" NCoef="0" IVar="2" Cut="1.8088573437500000e+05" cType="1" res="1.2047797208651900e-03" rms="2.2725501656532288e-01" purity="9.5347836613655090e-02" nType="0">
            <Node pos="l" depth="3" NCoef="0" IVar="-1" Cut="0.0000000000000000e+00" cType="1" res="3.2271866220980883e-03" rms="3.7448611855506897e-01" purity="1.7388156056404114e-01" nType="-99"/>
            <Node pos="r" depth="3" NCoef="0" IVar="-1" Cut="0.0000000000000000e+00" cType="1" res="-8.6001981981098652e-04" rms="2.0432288944721222e-01" purity="8.7186262011528015e-02" nType="-99"/>
          </Node>
          <Node pos="r" depth="2" NCoef="0" IVar="5" Cut="8.9519585937500000e+04" cType="1" res="6.1443310230970383e-02" rms="3.6201930046081543e-01" purity="3.7968096137046814e-01" nType="0">
            <Node pos="l" depth="3" NCoef="0" IVar="-1" Cut="0.0000000000000000e+00" cType="1" res="1.9691414199769497e-03" rms="3.8859355449676514e-01" purity="5.7092541456222534e-01" nType="-99"/>
            <Node pos="r" depth="3" NCoef="0" IVar="-1" Cut="0.0000000000000000e+00" cType="1" res="5.7556095998734236e-04" rms="3.3830893039703369e-01" purity="2.8576320409774780e-01" nType="-99"/>
          </Node>
        </Node>
        <Node pos="r" depth="1" NCoef="0" IVar="2" Cut="2.0521675000000000e+05" cType="1" res="1.0975900292396545e-01" rms="2.6235651969909668e-01" purity="8.8063907623291016e-01" nType="0">
          <Node pos="l" depth="2" NCoef="0" IVar="1" Cut="8.0532312500000000e+04" cType="1" res="2.5562340393662453e-02" rms="3.6409157514572144e-01" purity="7.5027197599411011e-01" nType="0">
            <Node pos="l" depth="3" NCoef="0" IVar="-1" Cut="0.0000000000000000e+00" cType="1" res="1.1124152224510908e-03" rms="3.5815334320068359e-01" purity="8.3253329992294312e-01" nType="-99"/>
            <Node pos="r" depth="3" NCoef="0" IVar="-1" Cut="0.0000000000000000e+00" cType="1" res="-2.0134127698838711e-03" rms="3.4705865383148193e-01" purity="4.4506216049194336e-01" nType="-99"/>
          </Node>
          <Node pos="r" depth="2" NCoef="0" IVar="3" Cut="8.6760601562500000e+04" cType="1" res="1.2055597454309464e-01" rms="2.4419797956943512e-01" purity="8.9735680818557739e-01" nType="0">
            <Node pos="l" depth="3" NCoef="0" IVar="-1" Cut="0.0000000000000000e+00" cType="1" res="1.2482909951359034e-03" rms="3.2745265960693359e-01" purity="7.9600816965103149e-01" nType="-99"/>
            <Node pos="r" depth="3" NCoef="0" IVar="-1" Cut="0.0000000000000000e+00" cType="1" res="1.5179343754425645e-03" rms="1.4594405889511108e-01" purity="9.7760081291198730e-01" nType="-99"/>
          </Node>
        </Node>
      </Node>
    </BinaryTree>
    <BinaryTree type="DecisionTree" boostWeight="1.0000000000000000e+00" itree="386">
      <Node pos="s" depth="0" NCoef="0" IVar="3" Cut="4.8807667968750000e+04" cType="1" res="5.5747069418430328e-02" rms="2.6713043451309204e-01" purity="4.9067106842994690e-01" nType="0">
        <Node pos="l" depth="1" NCoef="0" IVar="3" Cut="3.4922300781250000e+04" cType="1" res="1.1371294967830181e-02" rms="2.7207437157630920e-01" purity="1.7655822634696960e-01" nType="0">
          <Node pos="l" depth="2" NCoef="0" IVar="4" Cut="2.1548487500000000e+05" cType="1" res="-4.2649325914680958e-03" rms="2.3592199385166168e-01" purity="9.5494627952575684e-02" nType="0">
            <Node pos="l" depth="3" NCoef="0" IVar="-1" Cut="0.0000000000000000e+00" cType="1" res="2.2751302458345890e-03" rms="2.4319398403167725e-01" purity="8.3255141973495483e-02" nType="-99"/>
            <Node pos="r" depth="3" NCoef="0" IVar="-1" Cut="0.0000000000000000e+00" cType="1" res="-2.9698228463530540e-03" rms="2.2449350357055664e-01" purity="1.0889639705419540e-01" nType="-99"/>
          </Node>
          <Node pos="r" depth="2" NCoef="0" IVar="4" Cut="2.6622534375000000e+05" cType="1" res="7.2352908551692963e-02" rms="3.7546923756599426e-01" purity="4.9270793795585632e-01" nType="0">
            <Node pos="l" depth="3" NCoef="0" IVar="-1" Cut="0.0000000000000000e+00" cType="1" res="1.3611237227451056e-04" rms="3.8211473822593689e-01" purity="3.6558717489242554e-01" nType="-99"/>
            <Node pos="r" depth="3" NCoef="0" IVar="-1" Cut="0.0000000000000000e+00" cType="1" res="9.1061828425154090e-04" rms="3.5691061615943909e-01" purity="6.1612212657928467e-01" nType="-99"/>
          </Node>
        </Node>
        <Node pos="r" depth="1" NCoef="0" IVar="1" Cut="1.0059082812500000e+05" cType="1" res="1.1449538916349411e-01" rms="2.4853795766830444e-01" purity="9.0651959180831909e-01" nType="0">
          <Node pos="l" depth="2" NCoef="0" IVar="1" Cut="4.1685210937500000e+04" cType="1" res="7.4913762509822845e-02" rms="3.1812906265258789e-01" purity="8.3116245269775391e-01" nType="0">
            <Node pos="l" depth="3" NCoef="0" IVar="-1" Cut="0.0000000000000000e+00" cType="1" res="-3.7528001121245325e-04" rms="3.7588834762573242e-01" purity="8.0274701118469238e-01" nType="-99"/>
            <Node pos="r" depth="3" NCoef="0" IVar="-1" Cut="0.0000000000000000e+00" cType="1" res="1.2294416083022952e-03" rms="3.0534023046493530e-01" purity="8.3558082580566406e-01" nType="-99"/>
          </Node>
          <Node pos="r" depth="2" NCoef="0" IVar="4" Cut="3.8035375000000000e+05" cType="1" res="1.5119519829750061e-01" rms="1.4969223737716675e-01" purity="9.7639018297195435e-01" nType="0">
            <Node pos="l" depth="3" NCoef="0" IVar="-1" Cut="0.0000000000000000e+00" cType="1" res="1.7715663416311145e-03" rms="1.5631802380084991e-01" purity="9.7457736730575562e-01" nType="-99"/>
            <Node pos="r" depth="3" NCoef="0" IVar="-1" Cut="0.0000000000000000e+00" cType="1" res="1.2379572726786137e-03" rms="1.4499577879905701e-01" purity="9.7751057147979736e-01" nType="-99"/>
          </Node>
        </Node>
      </Node>
    </BinaryTree>
    <BinaryTree type="DecisionTree" boostWeight="1.0000000000000000e+00" itree="387">
      <Node pos="s" depth="0" NCoef="0" IVar="3" Cut="6.8884250000000000e+04" cType="1" res="6.6390968859195709e-02" rms="2.6509842276573181e-01" purity="5.1147079467773438e-01" nType="0">
        <Node pos="l" depth="1" NCoef="0" IVar="2" Cut="2.8327593750000000e+05" cType="1" res="3.6361176520586014e-02" rms="2.9006353020668030e-01" purity="3.1387388706207275e-01" nType="0">
          <Node pos="l" depth="2" NCoef="0" IVar="5" Cut="9.3494203125000000e+04" cType="1" res="1.4887755969539285e-03" rms="2.7143847942352295e-01" purity="1.5765567123889923e-01" nType="0">
            <Node pos="l" depth="3" NCoef="0" IVar="-1" Cut="0.0000000000000000e+00" cType="1" res="-7.2742690099403262e-04" rms="2.5398555397987366e-01" purity="1.3341104984283447e-01" nType="-99"/>
            <Node pos="r" depth="3" NCoef="0" IVar="-1" Cut="0.0000000000000000e+00" cType="1" res="1.8823107238858938e-03" rms="3.6161139607429504e-01" purity="3.2921546697616577e-01" nType="-99"/>
          </Node>
          <Node pos="r" depth="2" NCoef="0" IVar="3" Cut="3.2923632812500000e+04" cType="1" res="8.1298664212226868e-02" rms="3.0663797259330750e-01" purity="5.1518082618713379e-01" nType="0">
            <Node pos="l" depth="3" NCoef="0" IVar="-1" Cut="0.0000000000000000e+00" cType="1" res="4.6152569120749831e-04" rms="2.7370426058769226e-01" purity="2.3350335657596588e-01" nType="-99"/>
            <Node pos="r" depth="3" NCoef="0" IVar="-1" Cut="0.0000000000000000e+00" cType="1" res="1.2005121679976583e-03" rms="3.2144328951835632e-01" purity="7.7981454133987427e-01" nType="-99"/>
          </Node>
        </Node>
        <Node pos="r" depth="1" NCoef="0" IVar="1" Cut="9.5065289062500000e+04" cType="1" res="1.3522128760814667e-01" rms="1.7805975675582886e-01" purity="9.6437627077102661e-01" nType="0">
          <Node pos="l" depth="2" NCoef="0" IVar="1" Cut="8.3234882812500000e+04" cType="1" res="1.2079013884067535e-01" rms="2.1715459227561951e-01" purity="9.4495546817779541e-01" nType="0">
            <Node pos="l" depth="3" NCoef="0" IVar="-1" Cut="0.0000000000000000e+00" cType="1" res="1.6771197551861405e-03" rms="1.7296928167343140e-01" purity="9.6826767921447754e-01" nType="-99"/>
            <Node pos="r" depth="3" NCoef="0" IVar="-1" Cut="0.0000000000000000e+00" cType="1" res="9.9532434251159430e-04" rms="3.4736654162406921e-01" purity="8.4237557649612427e-01" nType="-99"/>
          </Node>
          <Node pos="r" depth="2" NCoef="0" IVar="5" Cut="9.0765750000000000e+04" cType="1" res="1.4631976187229156e-01" rms="1.3978290557861328e-01" purity="9.7931206226348877e-01" nType="0">
            <Node pos="l" depth="3" NCoef="0" IVar="-1" Cut="0.0000000000000000e+00" cType="1" res="1.5416424721479416e-03" rms="1.5093667805194855e-01" purity="9.7630214691162109e-01" nType="-99"/>
            <Node pos="r" depth="3" NCoef="0" IVar="-1" Cut="0.0000000000000000e+00" cType="1" res="1.9089634297415614e-03" rms="1.2632285058498383e-01" purity="9.8260980844497681e-01" nType="-99"/>
          </Node>
        </Node>
      </Node>
    </BinaryTree>
    <BinaryTree type="DecisionTree" boostWeight="1.0000000000000000e+00" itree="388">
      <Node pos="s" depth="0" NCoef="0" IVar="3" Cut="6.8736484375000000e+04" cType="1" res="6.9724299013614655e-02" rms="2.7295291423797607e-01" purity="5.1166826486587524e-01" nType="0">
        <Node pos="l" depth="1" NCoef="0" IVar="2" Cut="2.7433150000000000e+05" cType="1" res="4.0598079562187195e-02" rms="3.0152231454849243e-01" purity="2.9138705134391785e-01" nType="0">
          <Node pos="l" depth="2" NCoef="0" IVar="1" Cut="6.9669046875000000e+04" cType="1" res="9.5887752249836922e-03" rms="2.7542227506637573e-01" purity="1.6230808198451996e-01" nType="0">
            <Node pos="l" depth="3" NCoef="0" IVar="-1" Cut="0.0000000000000000e+00" cType="1" res="2.0917796064168215e-03" rms="3.9875552058219910e-01" purity="4.0097653865814209e-01" nType="-99"/>
            <Node pos="r" depth="3" NCoef="0" IVar="-1" Cut="0.0000000000000000e+00" cType="1" res="-1.2990166433155537e-03" rms="2.2342486679553986e-01" purity="9.4264112412929535e-02" nType="-99"/>
          </Node>
          <Node pos="r" depth="2" NCoef="0" IVar="3" Cut="4.2633683593750000e+04" cType="1" res="8.0516330897808075e-02" rms="3.2782450318336487e-01" purity="4.5755028724670410e-01" nType="0">
            <Node pos="l" depth="3" NCoef="0" IVar="-1" Cut="0.0000000000000000e+00" cType="1" res="2.0719545427709818e-03" rms="3.3278754353523254e-01" purity="2.8001791238784790e-01" nType="-99"/>
            <Node pos="r" depth="3" NCoef="0" IVar="-1" Cut="0.0000000000000000e+00" cType="1" res="1.0065560927614570e-03" rms="3.0910646915435791e-01" purity="8.1928396224975586e-01" nType="-99"/>
          </Node>
        </Node>
        <Node pos="r" depth="1" NCoef="0" IVar="1" Cut="1.0185813281250000e+05" cType="1" res="1.2896220386028290e-01" rms="1.8944303691387177e-01" purity="9.5968377590179443e-01" nType="0">
          <Node pos="l" depth="2" NCoef="0" IVar="4" Cut="3.4625318750000000e+05" cType="1" res="1.0757075250148773e-01" rms="2.4624270200729370e-01" purity="9.2929661273956299e-01" nType="0">
            <Node pos="l" depth="3" NCoef="0" IVar="-1" Cut="0.0000000000000000e+00" cType="1" res="1.1519988765940070e-03" rms="2.8008750081062317e-01" purity="9.0350222587585449e-01" nType="-99"/>
            <Node pos="r" depth="3" NCoef="0" IVar="-1" Cut="0.0000000000000000e+00" cType="1" res="1.5782084083184600e-03" rms="2.0187187194824219e-01" purity="9.5596122741699219e-01" nType="-99"/>
          </Node>
          <Node pos="r" depth="2" NCoef="0" IVar="-1" Cut="0.0000000000000000e+00" cType="1" res="1.3483328511938453e-03" rms="1.2073538452386856e-01" purity="9.8499482870101929e-01" nType="-99"/>
        </Node>
      </Node>
    </BinaryTree>
    <BinaryTree type="DecisionTree" boostWeight="1.0000000000000000e+00" itree="389">
      <Node pos="s" depth="0" NCoef="0" IVar="3" Cut="4.8766871093750000e+04" cType="1" res="6.6354945302009583e-02" rms="2.8396287560462952e-01" purity="4.8154413700103760e-01" nType="0">
        <Node pos="l" depth="1" NCoef="0" IVar="3" Cut="3.2565332031250000e+04" cType="1" res="3.8409281522035599e-02" rms="2.9881682991981506e-01" purity="2.0150387287139893e-01" nType="0">
          <Node pos="l" depth="2" NCoef="0" IVar="2" Cut="2.6810615625000000e+05" cType="1" res="2.2209692746400833e-02" rms="2.6136505603790283e-01" purity="1.2618876993656158e-01" nType="0">
            <Node pos="l" depth="3" NCoef="0" IVar="-1" Cut="0.0000000000000000e+00" cType="1" res="6.3176575349643826e-04" rms="2.0696392655372620e-01" purity="5.9994544833898544e-02" nType="-99"/>
            <Node pos="r" depth="3" NCoef="0" IVar="-1" Cut="0.0000000000000000e+00" cType="1" res="2.0569732878357172e-03" rms="3.2720926403999329e-01" purity="2.3085162043571472e-01" nType="-99"/>
          </Node>
          <Node pos="r" depth="2" NCoef="0" IVar="1" Cut="8.3927703125000000e+04" cType="1" res="9.3140892684459686e-02" rms="3.9533689618110657e-01" purity="4.5596197247505188e-01" nType="0">
            <Node pos="l" depth="3" NCoef="0" IVar="-1" Cut="0.0000000000000000e+00" cType="1" res="2.7979663573205471e-03" rms="4.4957402348518372e-01" purity="6.1934185028076172e-01" nType="-99"/>
            <Node pos="r" depth="3" NCoef="0" IVar="-1" Cut="0.0000000000000000e+00" cType="1" res="1.1893383925780654e-03" rms="3.5489451885223389e-01" purity="3.7426102161407471e-01" nType="-99"/>
          </Node>
        </Node>
        <Node pos="r" depth="1" NCoef="0" IVar="1" Cut="1.1159375781250000e+05" cType="1" res="1.0780874639749527e-01" rms="2.5478839874267578e-01" purity="8.9694786071777344e-01" nType="0">
          <Node pos="l" depth="2" NCoef="0" IVar="3" Cut="8.4198859375000000e+04" cType="1" res="7.3380701243877411e-02" rms="3.1060299277305603e-01" purity="8.3298909664154053e-01" nType="0">
            <Node pos="l" depth="3" NCoef="0" IVar="-1" Cut="0.0000000000000000e+00" cType="1" res="2.3130900808610022e-04" rms="4.0252631902694702e-01" purity="6.7518460750579834e-01" nType="-99"/>
            <Node pos="r" depth="3" NCoef="0" IVar="-1" Cut="0.0000000000000000e+00" cType="1" res="1.7894912743940949e-03" rms="2.0460215210914612e-01" purity="9.5435947179794312e-01" nType="-99"/>
          </Node>
          <Node pos="r" depth="2" NCoef="0" IVar="5" Cut="9.0928273437500000e+04" cType="1" res="1.5133053064346313e-01" rms="1.4707852900028229e-01" purity="9.7780060768127441e-01" nType="0">
            <Node pos="l" depth="3" NCoef="0" IVar="-1" Cut="0.0000000000000000e+00" cType="1" res="1.8051293445751071e-03" rms="1.6390438377857208e-01" purity="9.7238826751708984e-01" nType="-99"/>
            <Node pos="r" depth="3" NCoef="0" IVar="-1" Cut="0.0000000000000000e+00" cType="1" res="1.8888892373070121e-03" rms="1.3094988465309143e-01" purity="9.8238372802734375e-01" nType="-99"/>
          </Node>
        </Node>
      </Node>
    </BinaryTree>
    <BinaryTree type="DecisionTree" boostWeight="1.0000000000000000e+00" itree="390">
      <Node pos="s" depth="0" NCoef="0" IVar="3" Cut="6.8736484375000000e+04" cType="1" res="5.3782854229211807e-02" rms="2.5871196389198303e-01" purity="4.7749304771423340e-01" nType="0">
        <Node pos="l" depth="1" NCoef="0" IVar="3" Cut="4.5839187500000000e+04" cType="1" res="2.6131218299269676e-02" rms="2.7544608712196350e-01" purity="2.8949099779129028e-01" nType="0">
          <Node pos="l" depth="2" NCoef="0" IVar="5" Cut="8.8800906250000000e+04" cType="1" res="7.4756378307938576e-03" rms="2.5825095176696777e-01" purity="1.6216430068016052e-01" nType="0">
            <Node pos="l" depth="3" NCoef="0" IVar="-1" Cut="0.0000000000000000e+00" cType="1" res="1.5132144326344132e-03" rms="3.2740035653114319e-01" purity="3.0768129229545593e-01" nType="-99"/>
            <Node pos="r" depth="3" NCoef="0" IVar="-1" Cut="0.0000000000000000e+00" cType="1" res="-3.2678511342965066e-04" rms="2.3684683442115784e-01" purity="1.2636499106884003e-01" nType="-99"/>
          </Node>
          <Node pos="r" depth="2" NCoef="0" IVar="5" Cut="8.9418593750000000e+04" cType="1" res="9.7555860877037048e-02" rms="3.2337534427642822e-01" purity="7.7697318792343140e-01" nType="0">
            <Node pos="l" depth="3" NCoef="0" IVar="-1" Cut="0.0000000000000000e+00" cType="1" res="1.8020207062363625e-03" rms="2.7291679382324219e-01" purity="8.7598747014999390e-01" nType="-99"/>
            <Node pos="r" depth="3" NCoef="0" IVar="-1" Cut="0.0000000000000000e+00" cType="1" res="6.8684917641803622e-04" rms="3.4687608480453491e-01" purity="7.0854270458221436e-01" nType="-99"/>
          </Node>
        </Node>
        <Node pos="r" depth="1" NCoef="0" IVar="1" Cut="1.3057017968750000e+05" cType="1" res="1.2427255511283875e-01" rms="1.9294403493404388e-01" purity="9.5674890279769897e-01" nType="0">
          <Node pos="l" depth="2" NCoef="0" IVar="3" Cut="1.0324125000000000e+05" cType="1" res="1.0809882730245590e-01" rms="2.3544527590274811e-01" purity="9.3367284536361694e-01" nType="0">
            <Node pos="l" depth="3" NCoef="0" IVar="-1" Cut="0.0000000000000000e+00" cType="1" res="1.1169434292241931e-03" rms="3.1563723087310791e-01" purity="8.7365037202835083e-01" nType="-99"/>
            <Node pos="r" depth="3" NCoef="0" IVar="-1" Cut="0.0000000000000000e+00" cType="1" res="2.0348848775029182e-03" rms="1.4817734062671661e-01" purity="9.7730129957199097e-01" nType="-99"/>
          </Node>
          <Node pos="r" depth="2" NCoef="0" IVar="-1" Cut="0.0000000000000000e+00" cType="1" res="1.6044186195358634e-03" rms="1.0572803765535355e-01" purity="9.8867076635360718e-01" nType="-99"/>
        </Node>
      </Node>
    </BinaryTree>
    <BinaryTree type="DecisionTree" boostWeight="1.0000000000000000e+00" itree="391">
      <Node pos="s" depth="0" NCoef="0" IVar="1" Cut="1.0034835937500000e+05" cType="1" res="6.5056577324867249e-02" rms="2.5557368993759155e-01" purity="5.1081311702728271e-01" nType="0">
        <Node pos="l" depth="1" NCoef="0" IVar="1" Cut="7.9314578125000000e+04" cType="1" res="2.0161461085081100e-02" rms="2.4715627729892731e-01" purity="2.9778304696083069e-01" nType="0">
          <Node pos="l" depth="2" NCoef="0" IVar="2" Cut="2.1536273437500000e+05" cType="1" res="9.5608577132225037e-02" rms="3.0981376767158508e-01" purity="6.4236438274383545e-01" nType="0">
            <Node pos="l" depth="3" NCoef="0" IVar="-1" Cut="0.0000000000000000e+00" cType="1" res="5.7198101421818137e-04" rms="3.0333718657493591e-01" purity="4.4795319437980652e-01" nType="-99"/>
            <Node pos="r" depth="3" NCoef="0" IVar="-1" Cut="0.0000000000000000e+00" cType="1" res="2.0571530330926180e-03" rms="3.0292707681655884e-01" purity="7.7903354167938232e-01" nType="-99"/>
          </Node>
          <Node pos="r" depth="2" NCoef="0" IVar="3" Cut="1.0306518750000000e+05" cType="1" res="-2.5214966386556625e-02" rms="1.8605013191699982e-01" purity="9.0540215373039246e-02" nType="0">
            <Node pos="l" depth="3" NCoef="0" IVar="-1" Cut="0.0000000000000000e+00" cType="1" res="-4.8468825407326221e-03" rms="1.8224944174289703e-01" purity="6.0264166444540024e-02" nType="-99"/>
            <Node pos="r" depth="3" NCoef="0" IVar="-1" Cut="0.0000000000000000e+00" cType="1" res="1.7592621734365821e-03" rms="2.3095047473907471e-01" purity="9.4235479831695557e-01" nType="-99"/>
          </Node>
        </Node>
        <Node pos="r" depth="1" NCoef="0" IVar="1" Cut="1.8449092187500000e+05" cType="1" res="1.3992206752300262e-01" rms="2.5181064009666443e-01" purity="8.6605459451675415e-01" nType="0">
          <Node pos="l" depth="2" NCoef="0" IVar="3" Cut="4.4741839843750000e+04" cType="1" res="1.5111184120178223e-01" rms="2.6455971598625183e-01" purity="8.3370023965835571e-01" nType="0">
            <Node pos="l" depth="3" NCoef="0" IVar="-1" Cut="0.0000000000000000e+00" cType="1" res="1.8249166896566749e-03" rms="4.0559396147727966e-01" purity="5.1662993431091309e-01" nType="-99"/>
            <Node pos="r" depth="3" NCoef="0" IVar="-1" Cut="0.0000000000000000e+00" cType="1" res="1.0908877011388540e-03" rms="1.6211122274398804e-01" purity="9.7484087944030762e-01" nType="-99"/>
          </Node>
          <Node pos="r" depth="2" NCoef="0" IVar="5" Cut="9.0603257812500000e+04" cType="1" res="1.1820247769355774e-01" rms="2.2341796755790710e-01" purity="9.2885494232177734e-01" nType="0">
            <Node pos="l" depth="3" NCoef="0" IVar="-1" Cut="0.0000000000000000e+00" cType="1" res="1.8824890721589327e-03" rms="2.0958124101161957e-01" purity="9.4064432382583618e-01" nType="-99"/>
            <Node pos="r" depth="3" NCoef="0" IVar="-1" Cut="0.0000000000000000e+00" cType="1" res="6.9002469535917044e-04" rms="2.3678658902645111e-01" purity="9.1610682010650635e-01" nType="-99"/>
          </Node>
        </Node>
      </Node>
    </BinaryTree>
    <BinaryTree type="DecisionTree" boostWeight="1.0000000000000000e+00" itree="392">
      <Node pos="s" depth="0" NCoef="0" IVar="1" Cut="1.0034835937500000e+05" cType="1" res="6.2872149050235748e-02" rms="2.7705359458923340e-01" purity="4.7804364562034607e-01" nType="0">
        <Node pos="l" depth="1" NCoef="0" IVar="1" Cut="8.3521304687500000e+04" cType="1" res="2.6896025985479355e-02" rms="2.7822005748748779e-01" purity="2.8266328573226929e-01" nType="0">
          <Node pos="l" depth="2" NCoef="0" IVar="1" Cut="3.9250195312500000e+04" cType="1" res="7.6129503548145294e-02" rms="3.3669060468673706e-01" purity="5.4633820056915283e-01" nType="0">
            <Node pos="l" depth="3" NCoef="0" IVar="-1" Cut="0.0000000000000000e+00" cType="1" res="-1.2725339038297534e-03" rms="3.0468401312828064e-01" purity="3.6992740631103516e-01" nType="-99"/>
            <Node pos="r" depth="3" NCoef="0" IVar="-1" Cut="0.0000000000000000e+00" cType="1" res="2.1408454049378633e-03" rms="3.3801370859146118e-01" purity="5.9502756595611572e-01" nType="-99"/>
          </Node>
          <Node pos="r" depth="2" NCoef="0" IVar="1" Cut="9.7144078125000000e+04" cType="1" res="-6.7391730844974518e-03" rms="2.2373205423355103e-01" purity="1.0252647101879120e-01" nType="0">
            <Node pos="l" depth="3" NCoef="0" IVar="-1" Cut="0.0000000000000000e+00" cType="1" res="-3.7294225767254829e-03" rms="2.0662133395671844e-01" purity="7.4429146945476532e-02" nType="-99"/>
            <Node pos="r" depth="3" NCoef="0" IVar="-1" Cut="0.0000000000000000e+00" cType="1" res="2.5498671457171440e-03" rms="3.2122167944908142e-01" purity="3.7536728382110596e-01" nType="-99"/>
          </Node>
        </Node>
        <Node pos="r" depth="1" NCoef="0" IVar="5" Cut="8.6912960937500000e+04" cType="1" res="1.3161404430866241e-01" rms="2.6138582825660706e-01" purity="8.5136955976486206e-01" nType="0">
          <Node pos="l" depth="2" NCoef="0" IVar="-1" Cut="0.0000000000000000e+00" cType="1" res="1.2165061198174953e-03" rms="2.7544960379600525e-01" purity="8.0831283330917358e-01" nType="-99"/>
          <Node pos="r" depth="2" NCoef="0" IVar="4" Cut="3.7780481250000000e+05" cType="1" res="1.3910922408103943e-01" rms="2.5862702727317810e-01" purity="8.5658639669418335e-01" nType="0">
            <Node pos="l" depth="3" NCoef="0" IVar="-1" Cut="0.0000000000000000e+00" cType="1" res="1.3498469488695264e-03" rms="2.9079589247703552e-01" purity="7.9725044965744019e-01" nType="-99"/>
            <Node pos="r" depth="3" NCoef="0" IVar="-1" Cut="0.0000000000000000e+00" cType="1" res="1.8221077043563128e-03" rms="2.1580269932746887e-01" purity="9.2261904478073120e-01" nType="-99"/>
          </Node>
        </Node>
      </Node>
    </BinaryTree>
    <BinaryTree type="DecisionTree" boostWeight="1.0000000000000000e+00" itree="393">
      <Node pos="s" depth="0" NCoef="0" IVar="1" Cut="7.4204796875000000e+04" cType="1" res="7.8001193702220917e-02" rms="2.8204593062400818e-01" purity="5.0035929679870605e-01" nType="0">
        <Node pos="l" depth="1" NCoef="0" IVar="1" Cut="3.8650570312500000e+04" cType="1" res="1.5096256136894226e-01" rms="3.5142725706100464e-01" purity="6.9773781299591064e-01" nType="0">
          <Node pos="l" depth="2" NCoef="0" IVar="2" Cut="1.6170228125000000e+05" cType="1" res="3.0553327873349190e-02" rms="2.8299850225448608e-01" purity="4.9075117707252502e-01" nType="0">
            <Node pos="l" depth="3" NCoef="0" IVar="-1" Cut="0.0000000000000000e+00" cType="1" res="-4.8043243587017059e-03" rms="2.8256082534790039e-01" purity="2.4347095191478729e-01" nType="-99"/>
            <Node pos="r" depth="3" NCoef="0" IVar="-1" Cut="0.0000000000000000e+00" cType="1" res="1.8478757701814175e-03" rms="2.6412692666053772e-01" purity="6.4511936902999878e-01" nType="-99"/>
          </Node>
          <Node pos="r" depth="2" NCoef="0" IVar="2" Cut="1.7402426562500000e+05" cType="1" res="1.9809423387050629e-01" rms="3.6413970589637756e-01" purity="7.7875840663909912e-01" nType="0">
            <Node pos="l" depth="3" NCoef="0" IVar="-1" Cut="0.0000000000000000e+00" cType="1" res="3.8277555722743273e-03" rms="4.7890076041221619e-01" purity="7.4145239591598511e-01" nType="-99"/>
            <Node pos="r" depth="3" NCoef="0" IVar="-1" Cut="0.0000000000000000e+00" cType="1" res="1.8327339785173535e-03" rms="3.0764281749725342e-01" purity="7.8879714012145996e-01" nType="-99"/>
          </Node>
        </Node>
        <Node pos="r" depth="1" NCoef="0" IVar="3" Cut="6.8850757812500000e+04" cType="1" res="5.7136695832014084e-02" rms="2.5499749183654785e-01" purity="4.4391563534736633e-01" nType="0">
          <Node pos="l" depth="2" NCoef="0" IVar="1" Cut="1.3351018750000000e+05" cType="1" res="2.9531221836805344e-02" rms="2.7137777209281921e-01" purity="2.5665435194969177e-01" nType="0">
            <Node pos="l" depth="3" NCoef="0" IVar="-1" Cut="0.0000000000000000e+00" cType="1" res="8.6639483924955130e-04" rms="2.5397482514381409e-01" purity="1.3397409021854401e-01" nType="-99"/>
            <Node pos="r" depth="3" NCoef="0" IVar="-1" Cut="0.0000000000000000e+00" cType="1" res="1.3036296004429460e-03" rms="3.2952275872230530e-01" purity="8.3768111467361450e-01" nType="-99"/>
          </Node>
          <Node pos="r" depth="2" NCoef="0" IVar="1" Cut="1.2777363281250000e+05" cType="1" res="1.3346938788890839e-01" rms="1.8234151601791382e-01" purity="9.6171718835830688e-01" nType="0">
            <Node pos="l" depth="3" NCoef="0" IVar="-1" Cut="0.0000000000000000e+00" cType="1" res="1.4774887822568417e-03" rms="2.4262329936027527e-01" purity="9.2993384599685669e-01" nType="-99"/>
            <Node pos="r" depth="3" NCoef="0" IVar="-1" Cut="0.0000000000000000e+00" cType="1" res="2.3392678704112768e-03" rms="1.0301838815212250e-01" purity="9.8928689956665039e-01" nType="-99"/>
          </Node>
        </Node>
      </Node>
    </BinaryTree>
    <BinaryTree type="DecisionTree" boostWeight="1.0000000000000000e+00" itree="394">
      <Node pos="s" depth="0" NCoef="0" IVar="1" Cut="1.0034835937500000e+05" cType="1" res="6.7168988287448883e-02" rms="2.6605927944183350e-01" purity="5.0102627277374268e-01" nType="0">
        <Node pos="l" depth="1" NCoef="0" IVar="1" Cut="7.9314445312500000e+04" cType="1" res="3.4316550940275192e-02" rms="2.6374912261962891e-01" purity="3.2501202821731567e-01" nType="0">
          <Node pos="l" depth="2" NCoef="0" IVar="1" Cut="3.1237048828125000e+04" cType="1" res="1.0107396543025970e-01" rms="3.2302066683769226e-01" purity="6.5242254734039307e-01" nType="0">
            <Node pos="l" depth="3" NCoef="0" IVar="-1" Cut="0.0000000000000000e+00" cType="1" res="-1.9508013501763344e-03" rms="2.7242550253868103e-01" purity="3.3671748638153076e-01" nType="-99"/>
            <Node pos="r" depth="3" NCoef="0" IVar="-1" Cut="0.0000000000000000e+00" cType="1" res="2.1810785401612520e-03" rms="3.2449176907539368e-01" purity="7.1007615327835083e-01" nType="-99"/>
          </Node>
          <Node pos="r" depth="2" NCoef="0" IVar="3" Cut="8.5163828125000000e+04" cType="1" res="-5.3205848671495914e-03" rms="2.1141564846038818e-01" purity="1.3061241805553436e-01" nType="0">
            <Node pos="l" depth="3" NCoef="0" IVar="-1" Cut="0.0000000000000000e+00" cType="1" res="-2.0306957885622978e-03" rms="2.0620925724506378e-01" purity="7.4643127620220184e-02" nType="-99"/>
            <Node pos="r" depth="3" NCoef="0" IVar="-1" Cut="0.0000000000000000e+00" cType="1" res="1.2818028917536139e-03" rms="2.4207960069179535e-01" purity="9.3577378988265991e-01" nType="-99"/>
          </Node>
        </Node>
        <Node pos="r" depth="1" NCoef="0" IVar="4" Cut="3.4089840625000000e+05" cType="1" res="1.3212311267852783e-01" rms="2.5856238603591919e-01" purity="8.4903234243392944e-01" nType="0">
          <Node pos="l" depth="2" NCoef="0" IVar="3" Cut="3.2833273437500000e+04" cType="1" res="1.0871259123086929e-01" rms="2.9647487401962280e-01" purity="7.3296052217483521e-01" nType="0">
            <Node pos="l" depth="3" NCoef="0" IVar="-1" Cut="0.0000000000000000e+00" cType="1" res="6.1367527814581990e-04" rms="3.7643826007843018e-01" purity="3.6415421962738037e-01" nType="-99"/>
            <Node pos="r" depth="3" NCoef="0" IVar="-1" Cut="0.0000000000000000e+00" cType="1" res="1.8032642547041178e-03" rms="2.3298926651477814e-01" purity="9.2389518022537231e-01" nType="-99"/>
          </Node>
          <Node pos="r" depth="2" NCoef="0" IVar="2" Cut="5.8489962500000000e+05" cType="1" res="1.4730043709278107e-01" rms="2.2940468788146973e-01" purity="9.2428314685821533e-01" nType="0">
            <Node pos="l" depth="3" NCoef="0" IVar="-1" Cut="0.0000000000000000e+00" cType="1" res="1.0173916816711426e-03" rms="2.3492041230201721e-01" purity="9.2006003856658936e-01" nType="-99"/>
            <Node pos="r" depth="3" NCoef="0" IVar="-1" Cut="0.0000000000000000e+00" cType="1" res="1.5927192289382219e-03" rms="2.1410016715526581e-01" purity="9.3361914157867432e-01" nType="-99"/>
          </Node>
        </Node>
      </Node>
    </BinaryTree>
    <BinaryTree type="DecisionTree" boostWeight="1.0000000000000000e+00" itree="395">
      <Node pos="s" depth="0" NCoef="0" IVar="3" Cut="5.4259988281250000e+04" cType="1" res="7.1518279612064362e-02" rms="2.7195060253143311e-01" purity="5.1019543409347534e-01" nType="0">
        <Node pos="l" depth="1" NCoef="0" IVar="1" Cut="7.8728429687500000e+04" cType="1" res="3.9494123309850693e-02" rms="2.9294544458389282e-01" purity="2.4491259455680847e-01" nType="0">
          <Node pos="l" depth="2" NCoef="0" IVar="3" Cut="1.5713881835937500e+04" cType="1" res="1.3726307451725006e-01" rms="4.0717518329620361e-01" purity="4.3751651048660278e-01" nType="0">
            <Node pos="l" depth="3" NCoef="0" IVar="-1" Cut="0.0000000000000000e+00" cType="1" res="-5.3331325761973858e-03" rms="2.4214951694011688e-01" purity="6.2305189669132233e-02" nType="-99"/>
            <Node pos="r" depth="3" NCoef="0" IVar="-1" Cut="0.0000000000000000e+00" cType="1" res="2.6555899530649185e-03" rms="4.3478259444236755e-01" purity="5.5231571197509766e-01" nType="-99"/>
          </Node>
          <Node pos="r" depth="2" NCoef="0" IVar="1" Cut="1.4228425000000000e+05" cType="1" res="1.2903602793812752e-02" rms="2.4649403989315033e-01" purity="1.9252949953079224e-01" nType="0">
            <Node pos="l" depth="3" NCoef="0" IVar="-1" Cut="0.0000000000000000e+00" cType="1" res="-9.8530712421052158e-05" rms="2.1712905168533325e-01" purity="9.2232704162597656e-02" nType="-99"/>
            <Node pos="r" depth="3" NCoef="0" IVar="-1" Cut="0.0000000000000000e+00" cType="1" res="1.3765218900516629e-03" rms="3.6788871884346008e-01" purity="8.0292034149169922e-01" nType="-99"/>
          </Node>
        </Node>
        <Node pos="r" depth="1" NCoef="0" IVar="1" Cut="1.1141539843750000e+05" cType="1" res="1.2222888320684433e-01" rms="2.2579038143157959e-01" purity="9.3027383089065552e-01" nType="0">
          <Node pos="l" depth="2" NCoef="0" IVar="1" Cut="9.7188429687500000e+04" cType="1" res="1.0269274562597275e-01" rms="2.7965292334556580e-01" purity="8.8781118392944336e-01" nType="0">
            <Node pos="l" depth="3" NCoef="0" IVar="-1" Cut="0.0000000000000000e+00" cType="1" res="1.1136708781123161e-03" rms="2.8394162654876709e-01" purity="8.7752801179885864e-01" nType="-99"/>
            <Node pos="r" depth="3" NCoef="0" IVar="-1" Cut="0.0000000000000000e+00" cType="1" res="1.9570454023778439e-03" rms="2.4100068211555481e-01" purity="9.4214481115341187e-01" nType="-99"/>
          </Node>
          <Node pos="r" depth="2" NCoef="0" IVar="-1" Cut="0.0000000000000000e+00" cType="1" res="1.8733505858108401e-03" rms="1.2217956036329269e-01" purity="9.8476308584213257e-01" nType="-99"/>
        </Node>
      </Node>
    </BinaryTree>
    <BinaryTree type="DecisionTree" boostWeight="1.0000000000000000e+00" itree="396">
      <Node pos="s" depth="0" NCoef="0" IVar="3" Cut="5.4259988281250000e+04" cType="1" res="7.8848429024219513e-02" rms="2.7739909291267395e-01" purity="5.2112758159637451e-01" nType="0">
        <Node pos="l" depth="1" NCoef="0" IVar="3" Cut="1.3012140625000000e+04" cType="1" res="5.3460463881492615e-02" rms="3.0295082926750183e-01" purity="2.6964840292930603e-01" nType="0">
          <Node pos="l" depth="2" NCoef="0" IVar="5" Cut="8.6937820312500000e+04" cType="1" res="-1.0073864832520485e-02" rms="1.5501533448696136e-01" purity="2.9697297140955925e-02" nType="0">
            <Node pos="l" depth="3" NCoef="0" IVar="-1" Cut="0.0000000000000000e+00" cType="1" res="1.2248943559825420e-02" rms="4.2928043007850647e-01" purity="2.4129150807857513e-01" nType="-99"/>
            <Node pos="r" depth="3" NCoef="0" IVar="-1" Cut="0.0000000000000000e+00" cType="1" res="-1.2501712888479233e-02" rms="1.0211849212646484e-01" purity="1.3964189216494560e-02" nType="-99"/>
          </Node>
          <Node pos="r" depth="2" NCoef="0" IVar="3" Cut="4.6397941406250000e+04" cType="1" res="7.4663057923316956e-02" rms="3.3554705977439880e-01" purity="3.4972456097602844e-01" nType="0">
            <Node pos="l" depth="3" NCoef="0" IVar="-1" Cut="0.0000000000000000e+00" cType="1" res="2.2044095676392317e-03" rms="3.3070492744445801e-01" purity="2.8351607918739319e-01" nType="-99"/>
            <Node pos="r" depth="3" NCoef="0" IVar="-1" Cut="0.0000000000000000e+00" cType="1" res="9.3806616496294737e-04" rms="3.5350158810615540e-01" purity="7.4916958808898926e-01" nType="-99"/>
          </Node>
        </Node>
        <Node pos="r" depth="1" NCoef="0" IVar="5" Cut="9.1602562500000000e+04" cType="1" res="1.2016414105892181e-01" rms="2.2374567389488220e-01" purity="9.3037813901901245e-01" nType="0">
          <Node pos="l" depth="2" NCoef="0" IVar="5" Cut="9.0118429687500000e+04" cType="1" res="1.3325501978397369e-01" rms="2.1632339060306549e-01" purity="9.3843013048171997e-01" nType="0">
            <Node pos="l" depth="3" NCoef="0" IVar="-1" Cut="0.0000000000000000e+00" cType="1" res="1.8145986832678318e-03" rms="2.1181453764438629e-01" purity="9.4855302572250366e-01" nType="-99"/>
            <Node pos="r" depth="3" NCoef="0" IVar="-1" Cut="0.0000000000000000e+00" cType="1" res="1.5203413786366582e-03" rms="2.2457133233547211e-01" purity="9.1775166988372803e-01" nType="-99"/>
          </Node>
          <Node pos="r" depth="2" NCoef="0" IVar="3" Cut="8.4692765625000000e+04" cType="1" res="9.5915280282497406e-02" rms="2.3496179282665253e-01" purity="9.1546314954757690e-01" nType="0">
            <Node pos="l" depth="3" NCoef="0" IVar="-1" Cut="0.0000000000000000e+00" cType="1" res="1.8348183948546648e-04" rms="3.5345137119293213e-01" purity="7.7440172433853149e-01" nType="-99"/>
            <Node pos="r" depth="3" NCoef="0" IVar="-1" Cut="0.0000000000000000e+00" cType="1" res="1.7814687453210354e-03" rms="1.3491165637969971e-01" purity="9.8082423210144043e-01" nType="-99"/>
          </Node>
        </Node>
      </Node>
    </BinaryTree>
    <BinaryTree type="DecisionTree" boostWeight="1.0000000000000000e+00" itree="397">
      <Node pos="s" depth="0" NCoef="0" IVar="1" Cut="1.0035560937500000e+05" cType="1" res="5.5171098560094833e-02" rms="2.6742070913314819e-01" purity="4.7574648261070251e-01" nType="0">
        <Node pos="l" depth="1" NCoef="0" IVar="3" Cut="9.8125007812500000e+04" cType="1" res="1.9298054277896881e-02" rms="2.6279008388519287e-01" purity="2.8970283269882202e-01" nType="0">
          <Node pos="l" depth="2" NCoef="0" IVar="5" Cut="9.0697867187500000e+04" cType="1" res="-7.4082890932913870e-05" rms="2.7372565865516663e-01" purity="1.6743046045303345e-01" nType="0">
            <Node pos="l" depth="3" NCoef="0" IVar="-1" Cut="0.0000000000000000e+00" cType="1" res="1.8790742615237832e-03" rms="3.1051582098007202e-01" purity="2.3444727063179016e-01" nType="-99"/>
            <Node pos="r" depth="3" NCoef="0" IVar="-1" Cut="0.0000000000000000e+00" cType="1" res="-3.4694280475378036e-03" rms="2.2876507043838501e-01" purity="1.0635633766651154e-01" nType="-99"/>
          </Node>
          <Node pos="r" depth="2" NCoef="0" IVar="0" Cut="3.3333334326744080e-01" cType="1" res="1.2821005284786224e-01" rms="1.4866575598716736e-01" purity="9.7712969779968262e-01" nType="0">
            <Node pos="l" depth="3" NCoef="0" IVar="-1" Cut="0.0000000000000000e+00" cType="1" res="2.3466302081942558e-03" rms="8.7835274636745453e-02" purity="9.9224513769149780e-01" nType="-99"/>
            <Node pos="r" depth="3" NCoef="0" IVar="-1" Cut="0.0000000000000000e+00" cType="1" res="1.7438856884837151e-03" rms="1.6437119245529175e-01" purity="9.7183799743652344e-01" nType="-99"/>
          </Node>
        </Node>
        <Node pos="r" depth="1" NCoef="0" IVar="3" Cut="4.4741839843750000e+04" cType="1" res="1.2631943821907043e-01" rms="2.6223838329315186e-01" purity="8.4473371505737305e-01" nType="0">
          <Node pos="l" depth="2" NCoef="0" IVar="5" Cut="8.8775421875000000e+04" cType="1" res="6.8421423435211182e-02" rms="4.1477829217910767e-01" purity="5.2918499708175659e-01" nType="0">
            <Node pos="l" depth="3" NCoef="0" IVar="-1" Cut="0.0000000000000000e+00" cType="1" res="1.9588300492614508e-03" rms="4.3011248111724854e-01" purity="6.0458844900131226e-01" nType="-99"/>
            <Node pos="r" depth="3" NCoef="0" IVar="-1" Cut="0.0000000000000000e+00" cType="1" res="5.1585573237389326e-04" rms="3.9899790287017822e-01" purity="4.9767097830772400e-01" nType="-99"/>
          </Node>
          <Node pos="r" depth="2" NCoef="0" IVar="0" Cut="3.8095238804817200e-01" cType="1" res="1.4982151985168457e-01" rms="1.5790969133377075e-01" purity="9.7282207012176514e-01" nType="0">
            <Node pos="l" depth="3" NCoef="0" IVar="-1" Cut="0.0000000000000000e+00" cType="1" res="1.8160815816372633e-03" rms="1.3539083302021027e-01" purity="9.8060101270675659e-01" nType="-99"/>
            <Node pos="r" depth="3" NCoef="0" IVar="-1" Cut="0.0000000000000000e+00" cType="1" res="1.4866762794554234e-03" rms="1.7039287090301514e-01" purity="9.6748375892639160e-01" nType="-99"/>
          </Node>
        </Node>
      </Node>
    </BinaryTree>
    <BinaryTree type="DecisionTree" boostWeight="1.0000000000000000e+00" itree="398">
      <Node pos="s" depth="0" NCoef="0" IVar="3" Cut="3.7915406250000000e+04" cType="1" res="6.0383614152669907e-02" rms="2.6899546384811401e-01" purity="4.8902821540832520e-01" nType="0">
        <Node pos="l" depth="1" NCoef="0" IVar="4" Cut="4.3185378125000000e+05" cType="1" res="1.7794169485569000e-02" rms="2.6589432358741760e-01" purity="1.3962250947952271e-01" nType="0">
          <Node pos="l" depth="2" NCoef="0" IVar="5" Cut="8.9687710937500000e+04" cType="1" res="7.5659411959350109e-03" rms="2.4878284335136414e-01" purity="1.0025158524513245e-01" nType="0">
            <Node pos="l" depth="3" NCoef="0" IVar="-1" Cut="0.0000000000000000e+00" cType="1" res="2.4640571791678667e-03" rms="3.2963821291923523e-01" purity="1.9122056663036346e-01" nType="-99"/>
            <Node pos="r" depth="3" NCoef="0" IVar="-1" Cut="0.0000000000000000e+00" cType="1" res="-1.1335166636854410e-03" rms="2.0590357482433319e-01" purity="6.4001597464084625e-02" nType="-99"/>
          </Node>
          <Node pos="r" depth="2" NCoef="0" IVar="3" Cut="1.8352771484375000e+04" cType="1" res="9.2359013855457306e-02" rms="3.5858088731765747e-01" purity="4.2664057016372681e-01" nType="0">
            <Node pos="l" depth="3" NCoef="0" IVar="-1" Cut="0.0000000000000000e+00" cType="1" res="-5.0451204879209399e-04" rms="2.8294849395751953e-01" purity="2.0325213670730591e-01" nType="-99"/>
            <Node pos="r" depth="3" NCoef="0" IVar="-1" Cut="0.0000000000000000e+00" cType="1" res="3.5460812505334616e-03" rms="3.7970033288002014e-01" purity="5.2971994876861572e-01" nType="-99"/>
          </Node>
        </Node>
        <Node pos="r" depth="1" NCoef="0" IVar="1" Cut="1.4546562500000000e+05" cType="1" res="1.0333085805177689e-01" rms="2.6525023579597473e-01" purity="8.4136939048767090e-01" nType="0">
          <Node pos="l" depth="2" NCoef="0" IVar="1" Cut="1.0095479687500000e+05" cType="1" res="8.4535464644432068e-02" rms="3.0274245142936707e-01" purity="7.8035950660705566e-01" nType="0">
            <Node pos="l" depth="3" NCoef="0" IVar="-1" Cut="0.0000000000000000e+00" cType="1" res="7.7287259045988321e-04" rms="3.3342698216438293e-01" purity="6.9959890842437744e-01" nType="-99"/>
            <Node pos="r" depth="3" NCoef="0" IVar="-1" Cut="0.0000000000000000e+00" cType="1" res="1.6794815892353654e-03" rms="2.0974029600620270e-01" purity="9.4573193788528442e-01" nType="-99"/>
          </Node>
          <Node pos="r" depth="2" NCoef="0" IVar="-1" Cut="0.0000000000000000e+00" cType="1" res="1.9321021391078830e-03" rms="1.3943280279636383e-01" purity="9.7974002361297607e-01" nType="-99"/>
        </Node>
      </Node>
    </BinaryTree>
    <BinaryTree type="DecisionTree" boostWeight="1.0000000000000000e+00" itree="399">
      <Node pos="s" depth="0" NCoef="0" IVar="3" Cut="6.8850757812500000e+04" cType="1" res="7.1890793740749359e-02" rms="2.6731574535369873e-01" purity="5.1889193058013916e-01" nType="0">
        <Node pos="l" depth="1" NCoef="0" IVar="3" Cut="2.6334554687500000e+04" cType="1" res="4.5397434383630753e-02" rms="2.9776680469512939e-01" purity="3.0260589718818665e-01" nType="0">
          <Node pos="l" depth="2" NCoef="0" IVar="4" Cut="4.9805131250000000e+05" cType="1" res="1.2508149258792400e-02" rms="2.2943136096000671e-01" purity="1.0789790004491806e-01" nType="0">
            <Node pos="l" depth="3" NCoef="0" IVar="-1" Cut="0.0000000000000000e+00" cType="1" res="7.8160280827432871e-04" rms="2.2273857891559601e-01" purity="8.1170663237571716e-02" nType="-99"/>
            <Node pos="r" depth="3" NCoef="0" IVar="-1" Cut="0.0000000000000000e+00" cType="1" res="2.0761643536388874e-03" rms="2.9077714681625366e-01" purity="4.6575891971588135e-01" nType="-99"/>
          </Node>
          <Node pos="r" depth="2" NCoef="0" IVar="2" Cut="2.7263100000000000e+05" cType="1" res="8.3417207002639771e-02" rms="3.5723283886909485e-01" purity="5.2768689393997192e-01" nType="0">
            <Node pos="l" depth="3" NCoef="0" IVar="-1" Cut="0.0000000000000000e+00" cType="1" res="4.2486505117267370e-04" rms="3.6364948749542236e-01" purity="3.1543970108032227e-01" nType="-99"/>
            <Node pos="r" depth="3" NCoef="0" IVar="-1" Cut="0.0000000000000000e+00" cType="1" res="1.7395311733707786e-03" rms="3.4344047307968140e-01" purity="6.8515801429748535e-01" nType="-99"/>
          </Node>
        </Node>
        <Node pos="r" depth="1" NCoef="0" IVar="1" Cut="1.1141539843750000e+05" cType="1" res="1.2639845907688141e-01" rms="1.7787617444992065e-01" purity="9.6388053894042969e-01" nType="0">
          <Node pos="l" depth="2" NCoef="0" IVar="3" Cut="9.8221664062500000e+04" cType="1" res="1.1344387382268906e-01" rms="2.1663165092468262e-01" purity="9.4470942020416260e-01" nType="0">
            <Node pos="l" depth="3" NCoef="0" IVar="-1" Cut="0.0000000000000000e+00" cType="1" res="7.3344644624739885e-04" rms="3.1429022550582886e-01" purity="8.7628400325775146e-01" nType="-99"/>
            <Node pos="r" depth="3" NCoef="0" IVar="-1" Cut="0.0000000000000000e+00" cType="1" res="1.8129927339032292e-03" rms="1.4553205668926239e-01" purity="9.7781497240066528e-01" nType="-99"/>
          </Node>
          <Node pos="r" depth="2" NCoef="0" IVar="-1" Cut="0.0000000000000000e+00" cType="1" res="1.5198414912447333e-03" rms="1.1515247821807861e-01" purity="9.8638975620269775e-01" nType="-99"/>
        </Node>
      </Node>
    </BinaryTree>
    <BinaryTree type="DecisionTree" boostWeight="1.0000000000000000e+00" itree="400">
      <Node pos="s" depth="0" NCoef="0" IVar="1" Cut="1.0034835937500000e+05" cType="1" res="6.2365554273128510e-02" rms="2.7860549092292786e-01" purity="4.8389968276023865e-01" nType="0">
        <Node pos="l" depth="1" NCoef="0" IVar="3" Cut="8.6732242187500000e+04" cType="1" res="1.1531094089150429e-02" rms="2.6700907945632935e-01" purity="2.7529540657997131e-01" nType="0">
          <Node pos="l" depth="2" NCoef="0" IVar="1" Cut="3.3040664062500000e+04" cType="1" res="-8.5112527012825012e-03" rms="2.7591457962989807e-01" purity="1.5051069855690002e-01" nType="0">
            <Node pos="l" depth="3" NCoef="0" IVar="-1" Cut="0.0000000000000000e+00" cType="1" res="-1.3115297071635723e-02" rms="2.4493326246738434e-01" purity="9.9015712738037109e-02" nType="-99"/>
            <Node pos="r" depth="3" NCoef="0" IVar="-1" Cut="0.0000000000000000e+00" cType="1" res="-2.9602912036352791e-05" rms="2.7576643228530884e-01" purity="1.5375079214572906e-01" nType="-99"/>
          </Node>
          <Node pos="r" depth="2" NCoef="0" IVar="0" Cut="3.3333334326744080e-01" cType="1" res="1.2274564802646637e-01" rms="1.7282013595104218e-01" purity="9.6772319078445435e-01" nType="0">
            <Node pos="l" depth="3" NCoef="0" IVar="-1" Cut="0.0000000000000000e+00" cType="1" res="2.3456302005797625e-03" rms="1.2379284203052521e-01" purity="9.8413562774658203e-01" nType="-99"/>
            <Node pos="r" depth="3" NCoef="0" IVar="-1" Cut="0.0000000000000000e+00" cType="1" res="1.7969439504668117e-03" rms="2.0119808614253998e-01" purity="9.5517295598983765e-01" nType="-99"/>
          </Node>
        </Node>
        <Node pos="r" depth="1" NCoef="0" IVar="2" Cut="5.8135012500000000e+05" cType="1" res="1.5370321273803711e-01" rms="2.7568787336349487e-01" purity="8.5871279239654541e-01" nType="0">
          <Node pos="l" depth="2" NCoef="0" IVar="4" Cut="2.9113065625000000e+05" cType="1" res="1.6439504921436310e-01" rms="2.9280507564544678e-01" purity="8.3647805452346802e-01" nType="0">
            <Node pos="l" depth="3" NCoef="0" IVar="-1" Cut="0.0000000000000000e+00" cType="1" res="2.0855525508522987e-03" rms="3.5243740677833557e-01" purity="6.7957890033721924e-01" nType="-99"/>
            <Node pos="r" depth="3" NCoef="0" IVar="-1" Cut="0.0000000000000000e+00" cType="1" res="1.3417234877124429e-03" rms="2.5724464654922485e-01" purity="9.1204088926315308e-01" nType="-99"/>
          </Node>
          <Node pos="r" depth="2" NCoef="0" IVar="-1" Cut="0.0000000000000000e+00" cType="1" res="1.8535135313868523e-03" rms="1.9765394926071167e-01" purity="9.3878269195556641e-01" nType="-99"/>
        </Node>
      </Node>
    </BinaryTree>
    <BinaryTree type="DecisionTree" boostWeight="1.0000000000000000e+00" itree="401">
      <Node pos="s" depth="0" NCoef="0" IVar="3" Cut="6.8843453125000000e+04" cType="1" res="6.5667681396007538e-02" rms="2.7197599411010742e-01" purity="4.9166309833526611e-01" nType="0">
        <Node pos="l" depth="1" NCoef="0" IVar="1" Cut="9.3450960937500000e+04" cType="1" res="3.9976011961698532e-02" rms="2.9727125167846680e-01" purity="2.9678153991699219e-01" nType="0">
          <Node pos="l" depth="2" NCoef="0" IVar="1" Cut="7.4058382812500000e+04" cType="1" res="1.1126158758997917e-02" rms="2.7171522378921509e-01" purity="1.6649846732616425e-01" nType="0">
            <Node pos="l" depth="3" NCoef="0" IVar="-1" Cut="0.0000000000000000e+00" cType="1" res="1.6321088187396526e-03" rms="3.8582706451416016e-01" purity="4.5315697789192200e-01" nType="-99"/>
            <Node pos="r" depth="3" NCoef="0" IVar="-1" Cut="0.0000000000000000e+00" cType="1" res="-4.8716100864112377e-03" rms="1.9753551483154297e-01" purity="4.6074189245700836e-02" nType="-99"/>
          </Node>
          <Node pos="r" depth="2" NCoef="0" IVar="3" Cut="1.9678462890625000e+04" cType="1" res="8.3003982901573181e-02" rms="3.2705441117286682e-01" purity="4.9109154939651489e-01" nType="0">
            <Node pos="l" depth="3" NCoef="0" IVar="-1" Cut="0.0000000000000000e+00" cType="1" res="-8.8367226999253035e-04" rms="2.3773179948329926e-01" purity="1.4303252100944519e-01" nType="-99"/>
            <Node pos="r" depth="3" NCoef="0" IVar="-1" Cut="0.0000000000000000e+00" cType="1" res="1.8461248837411404e-03" rms="3.5148918628692627e-01" purity="6.4655542373657227e-01" nType="-99"/>
          </Node>
        </Node>
        <Node pos="r" depth="1" NCoef="0" IVar="0" Cut="2.2857143878936768e+00" cType="1" res="1.2774446606636047e-01" rms="1.8365928530693054e-01" purity="9.6254026889801025e-01" nType="0">
          <Node pos="l" depth="2" NCoef="0" IVar="2" Cut="2.2055928125000000e+05" cType="1" res="1.3402929902076721e-01" rms="1.7114683985710144e-01" purity="9.6796584129333496e-01" nType="0">
            <Node pos="l" depth="3" NCoef="0" IVar="-1" Cut="0.0000000000000000e+00" cType="1" res="1.8467253539711237e-03" rms="1.6968454420566559e-01" purity="9.6981114149093628e-01" nType="-99"/>
            <Node pos="r" depth="3" NCoef="0" IVar="-1" Cut="0.0000000000000000e+00" cType="1" res="1.6841676551848650e-03" rms="1.7118111252784729e-01" purity="9.6744972467422485e-01" nType="-99"/>
          </Node>
          <Node pos="r" depth="2" NCoef="0" IVar="-1" Cut="0.0000000000000000e+00" cType="1" res="1.3190943282097578e-03" rms="2.4305191636085510e-01" purity="9.2948144674301147e-01" nType="-99"/>
        </Node>
      </Node>
    </BinaryTree>
    <BinaryTree type="DecisionTree" boostWeight="1.0000000000000000e+00" itree="402">
      <Node pos="s" depth="0" NCoef="0" IVar="3" Cut="6.8798242187500000e+04" cType="1" res="6.3426367938518524e-02" rms="2.7474758028984070e-01" purity="4.9864459037780762e-01" nType="0">
        <Node pos="l" depth="1" NCoef="0" IVar="5" Cut="8.4994187500000000e+04" cType="1" res="3.7149272859096527e-02" rms="3.0160075426101685e-01" purity="2.8401193022727966e-01" nType="0">
          <Node pos="l" depth="2" NCoef="0" IVar="3" Cut="2.1235083984375000e+04" cType="1" res="2.1885061264038086e-01" rms="4.3874299526214600e-01" purity="6.1290240287780762e-01" nType="0">
            <Node pos="l" depth="3" NCoef="0" IVar="-1" Cut="0.0000000000000000e+00" cType="1" res="1.0171735659241676e-02" rms="4.9448803067207336e-01" purity="4.9384540319442749e-01" nType="-99"/>
            <Node pos="r" depth="3" NCoef="0" IVar="-1" Cut="0.0000000000000000e+00" cType="1" res="1.5903809107840061e-03" rms="3.7535840272903442e-01" purity="6.9447809457778931e-01" nType="-99"/>
          </Node>
          <Node pos="r" depth="2" NCoef="0" IVar="3" Cut="2.6283757812500000e+04" cType="1" res="3.0275708064436913e-02" rms="2.9296070337295532e-01" purity="2.7157035470008850e-01" nType="0">
            <Node pos="l" depth="3" NCoef="0" IVar="-1" Cut="0.0000000000000000e+00" cType="1" res="-1.6617614892311394e-04" rms="2.1654585003852844e-01" purity="8.4673546254634857e-02" nType="-99"/>
            <Node pos="r" depth="3" NCoef="0" IVar="-1" Cut="0.0000000000000000e+00" cType="1" res="1.1977922404184937e-03" rms="3.5969522595405579e-01" purity="4.9309056997299194e-01" nType="-99"/>
          </Node>
        </Node>
        <Node pos="r" depth="1" NCoef="0" IVar="5" Cut="8.7798820312500000e+04" cType="1" res="1.1957759410142899e-01" rms="1.9438517093658447e-01" purity="9.5729064941406250e-01" nType="0">
          <Node pos="l" depth="2" NCoef="0" IVar="-1" Cut="0.0000000000000000e+00" cType="1" res="8.8476546807214618e-04" rms="2.9472547769546509e-01" purity="8.9964145421981812e-01" nType="-99"/>
          <Node pos="r" depth="2" NCoef="0" IVar="1" Cut="1.2527707812500000e+05" cType="1" res="1.2797808647155762e-01" rms="1.7455294728279114e-01" purity="9.6519827842712402e-01" nType="0">
            <Node pos="l" depth="3" NCoef="0" IVar="-1" Cut="0.0000000000000000e+00" cType="1" res="1.6159334918484092e-03" rms="2.1736602485179901e-01" purity="9.4484621286392212e-01" nType="-99"/>
            <Node pos="r" depth="3" NCoef="0" IVar="-1" Cut="0.0000000000000000e+00" cType="1" res="1.9069580594077706e-03" rms="8.3918012678623199e-02" purity="9.9289417266845703e-01" nType="-99"/>
          </Node>
        </Node>
      </Node>
    </BinaryTree>
    <BinaryTree type="DecisionTree" boostWeight="1.0000000000000000e+00" itree="403">
      <Node pos="s" depth="0" NCoef="0" IVar="3" Cut="6.8736484375000000e+04" cType="1" res="6.7447833716869354e-02" rms="2.8070265054702759e-01" purity="4.8517295718193054e-01" nType="0">
        <Node pos="l" depth="1" NCoef="0" IVar="3" Cut="2.9489261718750000e+04" cType="1" res="4.3427228927612305e-02" rms="3.0822065472602844e-01" purity="2.9500123858451843e-01" nType="0">
          <Node pos="l" depth="2" NCoef="0" IVar="5" Cut="8.8781750000000000e+04" cType="1" res="1.4065039344131947e-02" rms="2.4224819242954254e-01" purity="1.2092133611440659e-01" nType="0">
            <Node pos="l" depth="3" NCoef="0" IVar="-1" Cut="0.0000000000000000e+00" cType="1" res="1.8097717547789216e-03" rms="3.3566793799400330e-01" purity="2.8500699996948242e-01" nType="-99"/>
            <Node pos="r" depth="3" NCoef="0" IVar="-1" Cut="0.0000000000000000e+00" cType="1" res="-4.8052833881229162e-04" rms="2.0835047960281372e-01" purity="7.9357758164405823e-02" nType="-99"/>
          </Node>
          <Node pos="r" depth="2" NCoef="0" IVar="3" Cut="3.1360281250000000e+04" cType="1" res="8.7888874113559723e-02" rms="3.8302576541900635e-01" purity="5.5860143899917603e-01" nType="0">
            <Node pos="l" depth="3" NCoef="0" IVar="-1" Cut="0.0000000000000000e+00" cType="1" res="8.2616880536079407e-03" rms="4.5484930276870728e-01" purity="4.3321916460990906e-01" nType="-99"/>
            <Node pos="r" depth="3" NCoef="0" IVar="-1" Cut="0.0000000000000000e+00" cType="1" res="1.2342102127149701e-03" rms="3.7081155180931091e-01" purity="5.7227909564971924e-01" nType="-99"/>
          </Node>
        </Node>
        <Node pos="r" depth="1" NCoef="0" IVar="1" Cut="1.1128134375000000e+05" cType="1" res="1.2770864367485046e-01" rms="1.8182115256786346e-01" purity="9.6225929260253906e-01" nType="0">
          <Node pos="l" depth="2" NCoef="0" IVar="1" Cut="8.7685507812500000e+04" cType="1" res="1.1036454141139984e-01" rms="2.3876647651195526e-01" purity="9.3286478519439697e-01" nType="0">
            <Node pos="l" depth="3" NCoef="0" IVar="-1" Cut="0.0000000000000000e+00" cType="1" res="1.6453497810289264e-03" rms="2.0399725437164307e-01" purity="9.5581215620040894e-01" nType="-99"/>
            <Node pos="r" depth="3" NCoef="0" IVar="-1" Cut="0.0000000000000000e+00" cType="1" res="7.0029066409915686e-04" rms="3.4199437499046326e-01" purity="8.3451825380325317e-01" nType="-99"/>
          </Node>
          <Node pos="r" depth="2" NCoef="0" IVar="-1" Cut="0.0000000000000000e+00" cType="1" res="1.9274064106866717e-03" rms="1.0054448992013931e-01" purity="9.8975706100463867e-01" nType="-99"/>
        </Node>
      </Node>
    </BinaryTree>
    <BinaryTree type="DecisionTree" boostWeight="1.0000000000000000e+00" itree="404">
      <Node pos="s" depth="0" NCoef="0" IVar="3" Cut="6.8843453125000000e+04" cType="1" res="6.6800780594348907e-02" rms="2.7870425581932068e-01" purity="4.9997487664222717e-01" nType="0">
        <Node pos="l" depth="1" NCoef="0" IVar="3" Cut="1.3250762695312500e+04" cType="1" res="4.4170569628477097e-02" rms="3.0556192994117737e-01" purity="2.9153659939765930e-01" nType="0">
          <Node pos="l" depth="2" NCoef="0" IVar="1" Cut="7.4854265625000000e+04" cType="1" res="-9.5301456749439240e-03" rms="1.4305195212364197e-01" purity="3.0540345236659050e-02" nType="0">
            <Node pos="l" depth="3" NCoef="0" IVar="-1" Cut="0.0000000000000000e+00" cType="1" res="-5.1553595811128616e-02" rms="2.4487724527716637e-02" purity="0.0000000000000000e+00" nType="-99"/>
            <Node pos="r" depth="3" NCoef="0" IVar="-1" Cut="0.0000000000000000e+00" cType="1" res="-4.2741879587993026e-04" rms="1.5130527317523956e-01" purity="3.5063013434410095e-02" nType="-99"/>
          </Node>
          <Node pos="r" depth="2" NCoef="0" IVar="3" Cut="1.5897722656250000e+04" cType="1" res="6.1318024992942810e-02" rms="3.3975380659103394e-01" purity="3.7487670779228210e-01" nType="0">
            <Node pos="l" depth="3" NCoef="0" IVar="-1" Cut="0.0000000000000000e+00" cType="1" res="4.6910978853702545e-03" rms="4.1348600387573242e-01" purity="2.7465975284576416e-01" nType="-99"/>
            <Node pos="r" depth="3" NCoef="0" IVar="-1" Cut="0.0000000000000000e+00" cType="1" res="1.0050325654447079e-03" rms="3.2737088203430176e-01" purity="3.8650813698768616e-01" nType="-99"/>
          </Node>
        </Node>
        <Node pos="r" depth="1" NCoef="0" IVar="1" Cut="1.1272660937500000e+05" cType="1" res="1.1612013727426529e-01" rms="1.9982235133647919e-01" purity="9.5423668622970581e-01" nType="0">
          <Node pos="l" depth="2" NCoef="0" IVar="3" Cut="1.3779804687500000e+05" cType="1" res="9.1372169554233551e-02" rms="2.5741532444953918e-01" purity="9.2116743326187134e-01" nType="0">
            <Node pos="l" depth="3" NCoef="0" IVar="-1" Cut="0.0000000000000000e+00" cType="1" res="8.1585347652435303e-04" rms="2.9327625036239624e-01" purity="8.9547944068908691e-01" nType="-99"/>
            <Node pos="r" depth="3" NCoef="0" IVar="-1" Cut="0.0000000000000000e+00" cType="1" res="1.8845691811293364e-03" rms="1.2867061793804169e-01" purity="9.8308390378952026e-01" nType="-99"/>
          </Node>
          <Node pos="r" depth="2" NCoef="0" IVar="-1" Cut="0.0000000000000000e+00" cType="1" res="1.6317450208589435e-03" rms="1.0710755735635757e-01" purity="9.8835980892181396e-01" nType="-99"/>
        </Node>
      </Node>
    </BinaryTree>
    <BinaryTree type="DecisionTree" boostWeight="1.0000000000000000e+00" itree="405">
      <Node pos="s" depth="0" NCoef="0" IVar="3" Cut="5.4198226562500000e+04" cType="1" res="7.6570473611354828e-02" rms="2.7706849575042725e-01" purity="5.0907433032989502e-01" nType="0">
        <Node pos="l" depth="1" NCoef="0" IVar="3" Cut="1.5526382812500000e+04" cType="1" res="4.8708230257034302e-02" rms="3.0594104528427124e-01" purity="2.4932001531124115e-01" nType="0">
          <Node pos="l" depth="2" NCoef="0" IVar="0" Cut="1.1428571939468384e+00" cType="1" res="5.2732706535607576e-04" rms="1.8102060258388519e-01" purity="5.0311118364334106e-02" nType="0">
            <Node pos="l" depth="3" NCoef="0" IVar="-1" Cut="0.0000000000000000e+00" cType="1" res="-1.9152872264385223e-03" rms="1.4934809505939484e-01" purity="4.0257893502712250e-02" nType="-99"/>
            <Node pos="r" depth="3" NCoef="0" IVar="-1" Cut="0.0000000000000000e+00" cType="1" res="1.6724685207009315e-02" rms="3.5122022032737732e-01" purity="1.4629426598548889e-01" nType="-99"/>
          </Node>
          <Node pos="r" depth="2" NCoef="0" IVar="4" Cut="1.6092250000000000e+05" cType="1" res="7.2721153497695923e-02" rms="3.4954854846000671e-01" purity="3.4850424528121948e-01" nType="0">
            <Node pos="l" depth="3" NCoef="0" IVar="-1" Cut="0.0000000000000000e+00" cType="1" res="3.1004238408058882e-03" rms="4.1084560751914978e-01" purity="4.0307825803756714e-01" nType="-99"/>
            <Node pos="r" depth="3" NCoef="0" IVar="-1" Cut="0.0000000000000000e+00" cType="1" res="1.6551426379010081e-03" rms="3.3556911349296570e-01" purity="3.3937004208564758e-01" nType="-99"/>
          </Node>
        </Node>
        <Node pos="r" depth="1" NCoef="0" IVar="1" Cut="1.0175697656250000e+05" cType="1" res="1.2232804298400879e-01" rms="2.1390148997306824e-01" purity="9.3566334247589111e-01" nType="0">
          <Node pos="l" depth="2" NCoef="0" IVar="1" Cut="8.8949515625000000e+04" cType="1" res="9.4581097364425659e-02" rms="2.8678354620933533e-01" purity="8.7544834613800049e-01" nType="0">
            <Node pos="l" depth="3" NCoef="0" IVar="-1" Cut="0.0000000000000000e+00" cType="1" res="1.5343797858804464e-03" rms="2.5616365671157837e-01" purity="9.1092842817306519e-01" nType="-99"/>
            <Node pos="r" depth="3" NCoef="0" IVar="-1" Cut="0.0000000000000000e+00" cType="1" res="-1.4298036694526672e-04" rms="3.9259698987007141e-01" purity="6.9461643695831299e-01" nType="-99"/>
          </Node>
          <Node pos="r" depth="2" NCoef="0" IVar="5" Cut="9.0679765625000000e+04" cType="1" res="1.4450387656688690e-01" rms="1.2442895025014877e-01" purity="9.8378831148147583e-01" nType="0">
            <Node pos="l" depth="3" NCoef="0" IVar="-1" Cut="0.0000000000000000e+00" cType="1" res="2.1910241339355707e-03" rms="1.3272377848625183e-01" purity="9.8103421926498413e-01" nType="-99"/>
            <Node pos="r" depth="3" NCoef="0" IVar="-1" Cut="0.0000000000000000e+00" cType="1" res="1.3121301308274269e-03" rms="1.1777325719594955e-01" purity="9.8582595586776733e-01" nType="-99"/>
          </Node>
        </Node>
      </Node>
    </BinaryTree>
    <BinaryTree type="DecisionTree" boostWeight="1.0000000000000000e+00" itree="406">
      <Node pos="s" depth="0" NCoef="0" IVar="3" Cut="6.8884250000000000e+04" cType="1" res="6.2977917492389679e-02" rms="2.6028805971145630e-01" purity="5.0914376974105835e-01" nType="0">
        <Node pos="l" depth="1" NCoef="0" IVar="1" Cut="1.4545448437500000e+05" cType="1" res="3.0661445111036301e-02" rms="2.8741219639778137e-01" purity="2.7722790837287903e-01" nType="0">
          <Node pos="l" depth="2" NCoef="0" IVar="1" Cut="8.1833125000000000e+04" cType="1" res="1.6678569838404655e-02" rms="2.7885112166404724e-01" purity="1.8875052034854889e-01" nType="0">
            <Node pos="l" depth="3" NCoef="0" IVar="-1" Cut="0.0000000000000000e+00" cType="1" res="1.3810485834255815e-03" rms="3.5633745789527893e-01" purity="4.0729874372482300e-01" nType="-99"/>
            <Node pos="r" depth="3" NCoef="0" IVar="-1" Cut="0.0000000000000000e+00" cType="1" res="-3.6367625580169261e-04" rms="2.4009823799133301e-01" purity="1.0623389482498169e-01" nType="-99"/>
          </Node>
          <Node pos="r" depth="2" NCoef="0" IVar="5" Cut="9.0475914062500000e+04" cType="1" res="1.2194608896970749e-01" rms="3.2348808646202087e-01" purity="8.5483622550964355e-01" nType="0">
            <Node pos="l" depth="3" NCoef="0" IVar="-1" Cut="0.0000000000000000e+00" cType="1" res="1.8411150667816401e-03" rms="3.1411072611808777e-01" purity="8.8038223981857300e-01" nType="-99"/>
            <Node pos="r" depth="3" NCoef="0" IVar="-1" Cut="0.0000000000000000e+00" cType="1" res="5.1063555292785168e-04" rms="3.2788550853729248e-01" purity="8.1262713670730591e-01" nType="-99"/>
          </Node>
        </Node>
        <Node pos="r" depth="1" NCoef="0" IVar="1" Cut="1.0329192187500000e+05" cType="1" res="1.2630376219749451e-01" rms="1.8050585687160492e-01" purity="9.6359521150588989e-01" nType="0">
          <Node pos="l" depth="2" NCoef="0" IVar="0" Cut="1.1428571939468384e+00" cType="1" res="1.0168245434761047e-01" rms="2.5397679209709167e-01" purity="9.2548662424087524e-01" nType="0">
            <Node pos="l" depth="3" NCoef="0" IVar="-1" Cut="0.0000000000000000e+00" cType="1" res="1.4580567367374897e-03" rms="2.1395330131053925e-01" purity="9.4828635454177856e-01" nType="-99"/>
            <Node pos="r" depth="3" NCoef="0" IVar="-1" Cut="0.0000000000000000e+00" cType="1" res="7.0599111495539546e-04" rms="3.1727421283721924e-01" purity="8.7733870744705200e-01" nType="-99"/>
          </Node>
          <Node pos="r" depth="2" NCoef="0" IVar="-1" Cut="0.0000000000000000e+00" cType="1" res="1.5255692414939404e-03" rms="9.2096947133541107e-02" purity="9.9145090579986572e-01" nType="-99"/>
        </Node>
      </Node>
    </BinaryTree>
    <BinaryTree type="DecisionTree" boostWeight="1.0000000000000000e+00" itree="407">
      <Node pos="s" depth="0" NCoef="0" IVar="3" Cut="6.5989953125000000e+04" cType="1" res="6.3580356538295746e-02" rms="2.6982963085174561e-01" purity="4.9989348649978638e-01" nType="0">
        <Node pos="l" depth="1" NCoef="0" IVar="1" Cut="1.3174604687500000e+05" cType="1" res="3.6133006215095520e-02" rms="2.9428976774215698e-01" purity="2.9641351103782654e-01" nType="0">
          <Node pos="l" depth="2" NCoef="0" IVar="1" Cut="1.0892586718750000e+05" cType="1" res="1.6529768705368042e-02" rms="2.8429362177848816e-01" purity="1.7852078378200531e-01" nType="0">
            <Node pos="l" depth="3" NCoef="0" IVar="-1" Cut="0.0000000000000000e+00" cType="1" res="3.2960198586806655e-04" rms="2.7407747507095337e-01" purity="1.3848876953125000e-01" nType="-99"/>
            <Node pos="r" depth="3" NCoef="0" IVar="-1" Cut="0.0000000000000000e+00" cType="1" res="8.0548028927296400e-04" rms="3.6011779308319092e-01" purity="6.8340307474136353e-01" nType="-99"/>
          </Node>
          <Node pos="r" depth="2" NCoef="0" IVar="1" Cut="1.8591282812500000e+05" cType="1" res="1.2904229760169983e-01" rms="3.2181417942047119e-01" purity="8.5516476631164551e-01" nType="0">
            <Node pos="l" depth="3" NCoef="0" IVar="-1" Cut="0.0000000000000000e+00" cType="1" res="1.1736026499420404e-03" rms="3.1695717573165894e-01" purity="8.6119806766510010e-01" nType="-99"/>
            <Node pos="r" depth="3" NCoef="0" IVar="-1" Cut="0.0000000000000000e+00" cType="1" res="1.2000752612948418e-03" rms="3.2020816206932068e-01" purity="8.4793061017990112e-01" nType="-99"/>
          </Node>
        </Node>
        <Node pos="r" depth="1" NCoef="0" IVar="1" Cut="1.2544667187500000e+05" cType="1" res="1.2540106475353241e-01" rms="1.9029104709625244e-01" purity="9.5819908380508423e-01" nType="0">
          <Node pos="l" depth="2" NCoef="0" IVar="3" Cut="9.5820765625000000e+04" cType="1" res="1.1608327925205231e-01" rms="2.2646634280681610e-01" purity="9.3944191932678223e-01" nType="0">
            <Node pos="l" depth="3" NCoef="0" IVar="-1" Cut="0.0000000000000000e+00" cType="1" res="9.2157081235200167e-04" rms="3.2939314842224121e-01" purity="8.6515104770660400e-01" nType="-99"/>
            <Node pos="r" depth="3" NCoef="0" IVar="-1" Cut="0.0000000000000000e+00" cType="1" res="2.0542026031762362e-03" rms="1.4510898292064667e-01" purity="9.7822642326354980e-01" nType="-99"/>
          </Node>
          <Node pos="r" depth="2" NCoef="0" IVar="-1" Cut="0.0000000000000000e+00" cType="1" res="1.5679562930017710e-03" rms="1.1001148074865341e-01" purity="9.8775476217269897e-01" nType="-99"/>
        </Node>
      </Node>
    </BinaryTree>
    <BinaryTree type="DecisionTree" boostWeight="1.0000000000000000e+00" itree="408">
      <Node pos="s" depth="0" NCoef="0" IVar="3" Cut="6.8736484375000000e+04" cType="1" res="6.8581812083721161e-02" rms="2.7147305011749268e-01" purity="5.0306159257888794e-01" nType="0">
        <Node pos="l" depth="1" NCoef="0" IVar="1" Cut="9.3455429687500000e+04" cType="1" res="4.2861375957727432e-02" rms="2.9884630441665649e-01" purity="2.9818987846374512e-01" nType="0">
          <Node pos="l" depth="2" NCoef="0" IVar="1" Cut="7.4062078125000000e+04" cType="1" res="1.5903797000646591e-02" rms="2.7344825863838196e-01" purity="1.6670630872249603e-01" nType="0">
            <Node pos="l" depth="3" NCoef="0" IVar="-1" Cut="0.0000000000000000e+00" cType="1" res="1.2787383748218417e-03" rms="3.7283146381378174e-01" purity="4.2394021153450012e-01" nType="-99"/>
            <Node pos="r" depth="3" NCoef="0" IVar="-1" Cut="0.0000000000000000e+00" cType="1" res="-4.8456923104822636e-04" rms="2.2166012227535248e-01" purity="6.8902544677257538e-02" nType="-99"/>
          </Node>
          <Node pos="r" depth="2" NCoef="0" IVar="3" Cut="2.6176332031250000e+04" cType="1" res="8.3340771496295929e-02" rms="3.2924953103065491e-01" purity="4.9562519788742065e-01" nType="0">
            <Node pos="l" depth="3" NCoef="0" IVar="-1" Cut="0.0000000000000000e+00" cType="1" res="1.1248016962781549e-03" rms="3.0522638559341431e-01" purity="1.9872446358203888e-01" nType="-99"/>
            <Node pos="r" depth="3" NCoef="0" IVar="-1" Cut="0.0000000000000000e+00" cType="1" res="2.0075351931154728e-03" rms="3.3885917067527771e-01" purity="7.1251845359802246e-01" nType="-99"/>
          </Node>
        </Node>
        <Node pos="r" depth="1" NCoef="0" IVar="4" Cut="3.2344512500000000e+05" cType="1" res="1.2614552676677704e-01" rms="1.8429350852966309e-01" purity="9.6157544851303101e-01" nType="0">
          <Node pos="l" depth="2" NCoef="0" IVar="3" Cut="8.1516273437500000e+04" cType="1" res="1.1308685690164566e-01" rms="2.2711442410945892e-01" purity="9.3858546018600464e-01" nType="0">
            <Node pos="l" depth="3" NCoef="0" IVar="-1" Cut="0.0000000000000000e+00" cType="1" res="4.6696150093339384e-04" rms="3.8124272227287292e-01" purity="7.9896330833435059e-01" nType="-99"/>
            <Node pos="r" depth="3" NCoef="0" IVar="-1" Cut="0.0000000000000000e+00" cType="1" res="1.5221291687339544e-03" rms="1.7141616344451904e-01" purity="9.6878033876419067e-01" nType="-99"/>
          </Node>
          <Node pos="r" depth="2" NCoef="0" IVar="0" Cut="2.2857143878936768e+00" cType="1" res="1.3313736021518707e-01" rms="1.5617790818214417e-01" purity="9.7388476133346558e-01" nType="0">
            <Node pos="l" depth="3" NCoef="0" IVar="-1" Cut="0.0000000000000000e+00" cType="1" res="2.0596976391971111e-03" rms="1.3728740811347961e-01" purity="9.8033785820007324e-01" nType="-99"/>
            <Node pos="r" depth="3" NCoef="0" IVar="-1" Cut="0.0000000000000000e+00" cType="1" res="1.3789054937660694e-03" rms="2.0647291839122772e-01" purity="9.5152658224105835e-01" nType="-99"/>
          </Node>
        </Node>
      </Node>
    </BinaryTree>
    <BinaryTree type="DecisionTree" boostWeight="1.0000000000000000e+00" itree="409">
      <Node pos="s" depth="0" NCoef="0" IVar="3" Cut="6.8798242187500000e+04" cType="1" res="7.8721202909946442e-02" rms="2.7853474020957947e-01" purity="5.2116096019744873e-01" nType="0">
        <Node pos="l" depth="1" NCoef="0" IVar="2" Cut="3.6512284375000000e+05" cType="1" res="5.8348309248685837e-02" rms="3.1080171465873718e-01" purity="3.2259830832481384e-01" nType="0">
          <Node pos="l" depth="2" NCoef="0" IVar="3" Cut="2.6283757812500000e+04" cType="1" res="3.7762023508548737e-02" rms="3.0043849349021912e-01" purity="2.3189532756805420e-01" nType="0">
            <Node pos="l" depth="3" NCoef="0" IVar="-1" Cut="0.0000000000000000e+00" cType="1" res="1.2169112451374531e-03" rms="2.1865960955619812e-01" purity="7.4932225048542023e-02" nType="-99"/>
            <Node pos="r" depth="3" NCoef="0" IVar="-1" Cut="0.0000000000000000e+00" cType="1" res="1.3937603216618299e-03" rms="3.8291540741920471e-01" purity="4.5145007967948914e-01" nType="-99"/>
          </Node>
          <Node pos="r" depth="2" NCoef="0" IVar="2" Cut="5.8417281250000000e+05" cType="1" res="1.2324554473161697e-01" rms="3.3319514989852905e-01" purity="6.0853505134582520e-01" nType="0">
            <Node pos="l" depth="3" NCoef="0" IVar="-1" Cut="0.0000000000000000e+00" cType="1" res="1.0577705688774586e-03" rms="3.3716294169425964e-01" purity="5.9779113531112671e-01" nType="-99"/>
            <Node pos="r" depth="3" NCoef="0" IVar="-1" Cut="0.0000000000000000e+00" cType="1" res="3.7557815085165203e-04" rms="2.9959091544151306e-01" purity="6.4736092090606689e-01" nType="-99"/>
          </Node>
        </Node>
        <Node pos="r" depth="1" NCoef="0" IVar="1" Cut="1.1128134375000000e+05" cType="1" res="1.2423884123563766e-01" rms="1.7915403842926025e-01" purity="9.6479463577270508e-01" nType="0">
          <Node pos="l" depth="2" NCoef="0" IVar="0" Cut="1.1428571939468384e+00" cType="1" res="1.0436628758907318e-01" rms="2.3724481463432312e-01" purity="9.3633288145065308e-01" nType="0">
            <Node pos="l" depth="3" NCoef="0" IVar="-1" Cut="0.0000000000000000e+00" cType="1" res="1.8597162561491132e-03" rms="1.8754047155380249e-01" purity="9.5993423461914062e-01" nType="-99"/>
            <Node pos="r" depth="3" NCoef="0" IVar="-1" Cut="0.0000000000000000e+00" cType="1" res="7.3412811616435647e-04" rms="3.2087284326553345e-01" purity="8.7986904382705688e-01" nType="-99"/>
          </Node>
          <Node pos="r" depth="2" NCoef="0" IVar="-1" Cut="0.0000000000000000e+00" cType="1" res="1.8605071818456054e-03" rms="1.0467285662889481e-01" purity="9.8894000053405762e-01" nType="-99"/>
        </Node>
      </Node>
    </BinaryTree>
    <BinaryTree type="DecisionTree" boostWeight="1.0000000000000000e+00" itree="410">
      <Node pos="s" depth="0" NCoef="0" IVar="3" Cut="4.4463175781250000e+04" cType="1" res="5.6140329688787460e-02" rms="2.5717952847480774e-01" purity="5.0246322154998779e-01" nType="0">
        <Node pos="l" depth="1" NCoef="0" IVar="3" Cut="3.3880664062500000e+04" cType="1" res="7.5018755160272121e-03" rms="2.5604185461997986e-01" purity="1.6162815690040588e-01" nType="0">
          <Node pos="l" depth="2" NCoef="0" IVar="5" Cut="8.5952000000000000e+04" cType="1" res="-6.7417840473353863e-03" rms="2.2433350980281830e-01" purity="1.0047923773527145e-01" nType="0">
            <Node pos="l" depth="3" NCoef="0" IVar="-1" Cut="0.0000000000000000e+00" cType="1" res="-2.2214934229850769e-02" rms="1.6570207476615906e-01" purity="5.7862821966409683e-02" nType="-99"/>
            <Node pos="r" depth="3" NCoef="0" IVar="-1" Cut="0.0000000000000000e+00" cType="1" res="-2.6344717480242252e-04" rms="2.2495307028293610e-01" purity="1.0186177492141724e-01" nType="-99"/>
          </Node>
          <Node pos="r" depth="2" NCoef="0" IVar="1" Cut="8.3927703125000000e+04" cType="1" res="7.5202606618404388e-02" rms="3.6387866735458374e-01" purity="4.5227167010307312e-01" nType="0">
            <Node pos="l" depth="3" NCoef="0" IVar="-1" Cut="0.0000000000000000e+00" cType="1" res="1.7995052039623260e-03" rms="4.2812275886535645e-01" purity="5.9164452552795410e-01" nType="-99"/>
            <Node pos="r" depth="3" NCoef="0" IVar="-1" Cut="0.0000000000000000e+00" cType="1" res="1.0096045443788171e-03" rms="3.2237583398818970e-01" purity="3.8561889529228210e-01" nType="-99"/>
          </Node>
        </Node>
        <Node pos="r" depth="1" NCoef="0" IVar="3" Cut="8.6753500000000000e+04" cType="1" res="1.1177830398082733e-01" rms="2.4699695408344269e-01" purity="8.9234757423400879e-01" nType="0">
          <Node pos="l" depth="2" NCoef="0" IVar="1" Cut="1.1357598437500000e+05" cType="1" res="8.6329534649848938e-02" rms="3.3769917488098145e-01" purity="7.8176444768905640e-01" nType="0">
            <Node pos="l" depth="3" NCoef="0" IVar="-1" Cut="0.0000000000000000e+00" cType="1" res="8.5370737360790372e-04" rms="3.9887741208076477e-01" purity="6.6718262434005737e-01" nType="-99"/>
            <Node pos="r" depth="3" NCoef="0" IVar="-1" Cut="0.0000000000000000e+00" cType="1" res="1.6735607059672475e-03" rms="2.1420022845268250e-01" purity="9.4851982593536377e-01" nType="-99"/>
          </Node>
          <Node pos="r" depth="2" NCoef="0" IVar="0" Cut="3.8095238804817200e-01" cType="1" res="1.3249105215072632e-01" rms="1.2995243072509766e-01" purity="9.8235118389129639e-01" nType="0">
            <Node pos="l" depth="3" NCoef="0" IVar="-1" Cut="0.0000000000000000e+00" cType="1" res="1.3047183165326715e-03" rms="8.3690926432609558e-02" purity="9.9292647838592529e-01" nType="-99"/>
            <Node pos="r" depth="3" NCoef="0" IVar="-1" Cut="0.0000000000000000e+00" cType="1" res="1.6475132433697581e-03" rms="1.4874351024627686e-01" purity="9.7655415534973145e-01" nType="-99"/>
          </Node>
        </Node>
      </Node>
    </BinaryTree>
    <BinaryTree type="DecisionTree" boostWeight="1.0000000000000000e+00" itree="411">
      <Node pos="s" depth="0" NCoef="0" IVar="3" Cut="6.8736484375000000e+04" cType="1" res="6.0434620827436447e-02" rms="2.6893660426139832e-01" purity="4.9831116199493408e-01" nType="0">
        <Node pos="l" depth="1" NCoef="0" IVar="2" Cut="2.7396493750000000e+05" cType="1" res="3.4607604146003723e-02" rms="2.9543206095695496e-01" purity="2.9031631350517273e-01" nType="0">
          <Node pos="l" depth="2" NCoef="0" IVar="1" Cut="5.8364031250000000e+04" cType="1" res="-2.3985195439308882e-03" rms="2.4936638772487640e-01" purity="1.5859022736549377e-01" nType="0">
            <Node pos="l" depth="3" NCoef="0" IVar="-1" Cut="0.0000000000000000e+00" cType="1" res="1.7160226125270128e-03" rms="3.7307330965995789e-01" purity="3.9447525143623352e-01" nType="-99"/>
            <Node pos="r" depth="3" NCoef="0" IVar="-1" Cut="0.0000000000000000e+00" cType="1" res="-1.8080640584230423e-03" rms="2.0868308842182159e-01" purity="1.0654918849468231e-01" nType="-99"/>
          </Node>
          <Node pos="r" depth="2" NCoef="0" IVar="3" Cut="2.6353046875000000e+04" cType="1" res="8.1366002559661865e-02" rms="3.3922502398490906e-01" purity="4.5675635337829590e-01" nType="0">
            <Node pos="l" depth="3" NCoef="0" IVar="-1" Cut="0.0000000000000000e+00" cType="1" res="1.7698109149932861e-03" rms="2.9812344908714294e-01" purity="2.2218348085880280e-01" nType="-99"/>
            <Node pos="r" depth="3" NCoef="0" IVar="-1" Cut="0.0000000000000000e+00" cType="1" res="1.8856363603845239e-03" rms="3.6537966132164001e-01" purity="6.4820426702499390e-01" nType="-99"/>
          </Node>
        </Node>
        <Node pos="r" depth="1" NCoef="0" IVar="1" Cut="9.5199343750000000e+04" cType="1" res="1.1784543842077255e-01" rms="1.8522609770298004e-01" purity="9.6066248416900635e-01" nType="0">
          <Node pos="l" depth="2" NCoef="0" IVar="1" Cut="8.3316367187500000e+04" cType="1" res="8.8222347199916840e-02" rms="2.4860593676567078e-01" purity="9.2572140693664551e-01" nType="0">
            <Node pos="l" depth="3" NCoef="0" IVar="-1" Cut="0.0000000000000000e+00" cType="1" res="1.4513286296278238e-03" rms="2.0993253588676453e-01" purity="9.5201432704925537e-01" nType="-99"/>
            <Node pos="r" depth="3" NCoef="0" IVar="-1" Cut="0.0000000000000000e+00" cType="1" res="1.4608426135964692e-04" rms="3.7627345323562622e-01" purity="7.9721927642822266e-01" nType="-99"/>
          </Node>
          <Node pos="r" depth="2" NCoef="0" IVar="0" Cut="1.1428571939468384e+00" cType="1" res="1.3651394844055176e-01" rms="1.2680311501026154e-01" purity="9.8268234729766846e-01" nType="0">
            <Node pos="l" depth="3" NCoef="0" IVar="-1" Cut="0.0000000000000000e+00" cType="1" res="1.6297611873596907e-03" rms="1.2059816718101501e-01" purity="9.8456031084060669e-01" nType="-99"/>
            <Node pos="r" depth="3" NCoef="0" IVar="-1" Cut="0.0000000000000000e+00" cType="1" res="1.9480918999761343e-03" rms="1.3472336530685425e-01" purity="9.8008090257644653e-01" nType="-99"/>
          </Node>
        </Node>
      </Node>
    </BinaryTree>
    <BinaryTree type="DecisionTree" boostWeight="1.0000000000000000e+00" itree="412">
      <Node pos="s" depth="0" NCoef="0" IVar="3" Cut="6.8843453125000000e+04" cType="1" res="6.2693461775779724e-02" rms="2.7022826671600342e-01" purity="5.0446271896362305e-01" nType="0">
        <Node pos="l" depth="1" NCoef="0" IVar="3" Cut="2.6323007812500000e+04" cType="1" res="3.7201877683401108e-02" rms="2.9651910066604614e-01" purity="3.0261182785034180e-01" nType="0">
          <Node pos="l" depth="2" NCoef="0" IVar="5" Cut="9.4498710937500000e+04" cType="1" res="6.9806695682927966e-04" rms="2.2352638840675354e-01" purity="9.8182909190654755e-02" nType="0">
            <Node pos="l" depth="3" NCoef="0" IVar="-1" Cut="0.0000000000000000e+00" cType="1" res="5.9145526029169559e-04" rms="2.2511017322540283e-01" purity="1.0245595127344131e-01" nType="-99"/>
            <Node pos="r" depth="3" NCoef="0" IVar="-1" Cut="0.0000000000000000e+00" cType="1" res="-7.6236188411712646e-02" rms="1.4977088570594788e-01" purity="0.0000000000000000e+00" nType="-99"/>
          </Node>
          <Node pos="r" depth="2" NCoef="0" IVar="3" Cut="3.4418230468750000e+04" cType="1" res="7.8052610158920288e-02" rms="3.5671189427375793e-01" purity="5.3138446807861328e-01" nType="0">
            <Node pos="l" depth="3" NCoef="0" IVar="-1" Cut="0.0000000000000000e+00" cType="1" res="5.0939340144395828e-03" rms="3.9294636249542236e-01" purity="3.1363639235496521e-01" nType="-99"/>
            <Node pos="r" depth="3" NCoef="0" IVar="-1" Cut="0.0000000000000000e+00" cType="1" res="8.8476896053180099e-04" rms="3.3870035409927368e-01" purity="6.2207525968551636e-01" nType="-99"/>
          </Node>
        </Node>
        <Node pos="r" depth="1" NCoef="0" IVar="1" Cut="1.0342598437500000e+05" cType="1" res="1.2025997787714005e-01" rms="1.8599295616149902e-01" purity="9.6029371023178101e-01" nType="0">
          <Node pos="l" depth="2" NCoef="0" IVar="1" Cut="8.6085359375000000e+04" cType="1" res="9.6941523253917694e-02" rms="2.4906665086746216e-01" purity="9.2566716670989990e-01" nType="0">
            <Node pos="l" depth="3" NCoef="0" IVar="-1" Cut="0.0000000000000000e+00" cType="1" res="1.4465553686022758e-03" rms="2.0506185293197632e-01" purity="9.5446360111236572e-01" nType="-99"/>
            <Node pos="r" depth="3" NCoef="0" IVar="-1" Cut="0.0000000000000000e+00" cType="1" res="2.9642524896189570e-04" rms="3.6993795633316040e-01" purity="8.0766850709915161e-01" nType="-99"/>
          </Node>
          <Node pos="r" depth="2" NCoef="0" IVar="-1" Cut="0.0000000000000000e+00" cType="1" res="1.9025029614567757e-03" rms="1.0905478149652481e-01" purity="9.8795264959335327e-01" nType="-99"/>
        </Node>
      </Node>
    </BinaryTree>
    <BinaryTree type="DecisionTree" boostWeight="1.0000000000000000e+00" itree="413">
      <Node pos="s" depth="0" NCoef="0" IVar="3" Cut="5.4345996093750000e+04" cType="1" res="6.5309777855873108e-02" rms="2.6853722333908081e-01" purity="5.1093262434005737e-01" nType="0">
        <Node pos="l" depth="1" NCoef="0" IVar="1" Cut="8.3927703125000000e+04" cType="1" res="3.2279156148433685e-02" rms="2.9283618927001953e-01" purity="2.3386284708976746e-01" nType="0">
          <Node pos="l" depth="2" NCoef="0" IVar="3" Cut="1.8250746093750000e+04" cType="1" res="8.2962527871131897e-02" rms="3.7442138791084290e-01" purity="3.1653931736946106e-01" nType="0">
            <Node pos="l" depth="3" NCoef="0" IVar="-1" Cut="0.0000000000000000e+00" cType="1" res="-3.6101834848523140e-03" rms="2.0061668753623962e-01" purity="5.1234427839517593e-02" nType="-99"/>
            <Node pos="r" depth="3" NCoef="0" IVar="-1" Cut="0.0000000000000000e+00" cType="1" res="2.9246259946376085e-03" rms="4.3388924002647400e-01" purity="4.6629363298416138e-01" nType="-99"/>
          </Node>
          <Node pos="r" depth="2" NCoef="0" IVar="2" Cut="2.4844190625000000e+05" cType="1" res="1.3713581487536430e-02" rms="2.5402036309242249e-01" purity="2.0357802510261536e-01" nType="0">
            <Node pos="l" depth="3" NCoef="0" IVar="-1" Cut="0.0000000000000000e+00" cType="1" res="-1.6699615865945816e-02" rms="1.3689394295215607e-01" purity="1.9209817051887512e-02" nType="-99"/>
            <Node pos="r" depth="3" NCoef="0" IVar="-1" Cut="0.0000000000000000e+00" cType="1" res="1.4766950625926256e-03" rms="3.0570384860038757e-01" purity="3.2980594038963318e-01" nType="-99"/>
          </Node>
        </Node>
        <Node pos="r" depth="1" NCoef="0" IVar="1" Cut="1.3203793750000000e+05" cType="1" res="1.1552739143371582e-01" rms="2.1723984181880951e-01" purity="9.3217146396636963e-01" nType="0">
          <Node pos="l" depth="2" NCoef="0" IVar="1" Cut="9.7383234375000000e+04" cType="1" res="1.0293062031269073e-01" rms="2.5478377938270569e-01" purity="9.0333580970764160e-01" nType="0">
            <Node pos="l" depth="3" NCoef="0" IVar="-1" Cut="0.0000000000000000e+00" cType="1" res="1.0145666310563684e-03" rms="2.8166007995605469e-01" purity="8.7122946977615356e-01" nType="-99"/>
            <Node pos="r" depth="3" NCoef="0" IVar="-1" Cut="0.0000000000000000e+00" cType="1" res="1.3838721206411719e-03" rms="1.8132933974266052e-01" purity="9.6541321277618408e-01" nType="-99"/>
          </Node>
          <Node pos="r" depth="2" NCoef="0" IVar="-1" Cut="0.0000000000000000e+00" cType="1" res="1.6603120602667332e-03" rms="1.1031322181224823e-01" purity="9.8770594596862793e-01" nType="-99"/>
        </Node>
      </Node>
    </BinaryTree>
    <BinaryTree type="DecisionTree" boostWeight="1.0000000000000000e+00" itree="414">
      <Node pos="s" depth="0" NCoef="0" IVar="1" Cut="1.0034389062500000e+05" cType="1" res="5.5774997919797897e-02" rms="2.5861543416976929e-01" purity="4.9902239441871643e-01" nType="0">
        <Node pos="l" depth="1" NCoef="0" IVar="3" Cut="7.5666039062500000e+04" cType="1" res="1.5258060768246651e-02" rms="2.4822551012039185e-01" purity="3.0195158720016479e-01" nType="0">
          <Node pos="l" depth="2" NCoef="0" IVar="5" Cut="8.8776500000000000e+04" cType="1" res="-1.0386475361883640e-02" rms="2.5115004181861877e-01" purity="1.2679605185985565e-01" nType="0">
            <Node pos="l" depth="3" NCoef="0" IVar="-1" Cut="0.0000000000000000e+00" cType="1" res="2.2398387081921101e-03" rms="3.3268633484840393e-01" purity="2.7931144833564758e-01" nType="-99"/>
            <Node pos="r" depth="3" NCoef="0" IVar="-1" Cut="0.0000000000000000e+00" cType="1" res="-2.9674523975700140e-03" rms="2.2710034251213074e-01" purity="9.4099320471286774e-02" nType="-99"/>
          </Node>
          <Node pos="r" depth="2" NCoef="0" IVar="0" Cut="1.3333333730697632e+00" cType="1" res="1.1007380485534668e-01" rms="2.1164755523204803e-01" purity="9.4955545663833618e-01" nType="0">
            <Node pos="l" depth="3" NCoef="0" IVar="-1" Cut="0.0000000000000000e+00" cType="1" res="1.8015992827713490e-03" rms="1.6392934322357178e-01" purity="9.7041058540344238e-01" nType="-99"/>
            <Node pos="r" depth="3" NCoef="0" IVar="-1" Cut="0.0000000000000000e+00" cType="1" res="1.0370740201324224e-03" rms="2.9218065738677979e-01" purity="8.9853346347808838e-01" nType="-99"/>
          </Node>
        </Node>
        <Node pos="r" depth="1" NCoef="0" IVar="3" Cut="4.8659894531250000e+04" cType="1" res="1.2833309173583984e-01" rms="2.6097491383552551e-01" purity="8.5193860530853271e-01" nType="0">
          <Node pos="l" depth="2" NCoef="0" IVar="3" Cut="9.3150126953125000e+03" cType="1" res="1.0814774036407471e-01" rms="3.9079618453979492e-01" purity="6.2572604417800903e-01" nType="0">
            <Node pos="l" depth="3" NCoef="0" IVar="-1" Cut="0.0000000000000000e+00" cType="1" res="-1.4372518286108971e-02" rms="2.9384183883666992e-01" purity="7.0005416870117188e-02" nType="-99"/>
            <Node pos="r" depth="3" NCoef="0" IVar="-1" Cut="0.0000000000000000e+00" cType="1" res="1.4472939074039459e-03" rms="3.9556607604026794e-01" purity="6.7856419086456299e-01" nType="-99"/>
          </Node>
          <Node pos="r" depth="2" NCoef="0" IVar="5" Cut="9.0614156250000000e+04" cType="1" res="1.3955081999301910e-01" rms="1.4398847520351410e-01" purity="9.7765314579010010e-01" nType="0">
            <Node pos="l" depth="3" NCoef="0" IVar="-1" Cut="0.0000000000000000e+00" cType="1" res="1.6976280603557825e-03" rms="1.5219971537590027e-01" purity="9.7403687238693237e-01" nType="-99"/>
            <Node pos="r" depth="3" NCoef="0" IVar="-1" Cut="0.0000000000000000e+00" cType="1" res="1.6884814249351621e-03" rms="1.3655209541320801e-01" purity="9.8054373264312744e-01" nType="-99"/>
          </Node>
        </Node>
      </Node>
    </BinaryTree>
    <BinaryTree type="DecisionTree" boostWeight="1.0000000000000000e+00" itree="415">
      <Node pos="s" depth="0" NCoef="0" IVar="3" Cut="4.8659894531250000e+04" cType="1" res="6.5562911331653595e-02" rms="2.7096217870712280e-01" purity="5.1034045219421387e-01" nType="0">
        <Node pos="l" depth="1" NCoef="0" IVar="5" Cut="8.5004968750000000e+04" cType="1" res="3.2186422497034073e-02" rms="2.9080015420913696e-01" purity="2.0104284584522247e-01" nType="0">
          <Node pos="l" depth="2" NCoef="0" IVar="-1" Cut="0.0000000000000000e+00" cType="1" res="5.0484542734920979e-03" rms="4.1586059331893921e-01" purity="4.9173042178153992e-01" nType="-99"/>
          <Node pos="r" depth="2" NCoef="0" IVar="4" Cut="4.9716640625000000e+05" cType="1" res="2.7019668370485306e-02" rms="2.8418222069740295e-01" purity="1.9121038913726807e-01" nType="0">
            <Node pos="l" depth="3" NCoef="0" IVar="-1" Cut="0.0000000000000000e+00" cType="1" res="1.3308597262948751e-03" rms="2.7783551812171936e-01" purity="1.5509457886219025e-01" nType="-99"/>
            <Node pos="r" depth="3" NCoef="0" IVar="-1" Cut="0.0000000000000000e+00" cType="1" res="1.5631450805813074e-03" rms="3.3014994859695435e-01" purity="5.1323419809341431e-01" nType="-99"/>
          </Node>
        </Node>
        <Node pos="r" depth="1" NCoef="0" IVar="1" Cut="1.2558950000000000e+05" cType="1" res="1.0879560559988022e-01" rms="2.3595198988914490e-01" purity="9.1097480058670044e-01" nType="0">
          <Node pos="l" depth="2" NCoef="0" IVar="3" Cut="7.9321007812500000e+04" cType="1" res="8.1824757158756256e-02" rms="2.9403641819953918e-01" purity="8.5357558727264404e-01" nType="0">
            <Node pos="l" depth="3" NCoef="0" IVar="-1" Cut="0.0000000000000000e+00" cType="1" res="4.0458433795720339e-04" rms="3.9941298961639404e-01" purity="6.9246286153793335e-01" nType="-99"/>
            <Node pos="r" depth="3" NCoef="0" IVar="-1" Cut="0.0000000000000000e+00" cType="1" res="1.6073477454483509e-03" rms="1.8631452322006226e-01" purity="9.6227675676345825e-01" nType="-99"/>
          </Node>
          <Node pos="r" depth="2" NCoef="0" IVar="-1" Cut="0.0000000000000000e+00" cType="1" res="1.2738436926156282e-03" rms="1.1091816425323486e-01" purity="9.8761349916458130e-01" nType="-99"/>
        </Node>
      </Node>
    </BinaryTree>
    <BinaryTree type="DecisionTree" boostWeight="1.0000000000000000e+00" itree="416">
      <Node pos="s" depth="0" NCoef="0" IVar="1" Cut="1.0034389062500000e+05" cType="1" res="6.6401474177837372e-02" rms="2.7763715386390686e-01" purity="4.9160099029541016e-01" nType="0">
        <Node pos="l" depth="1" NCoef="0" IVar="1" Cut="7.5094031250000000e+04" cType="1" res="3.6142095923423767e-02" rms="2.8286859393119812e-01" purity="3.0146068334579468e-01" nType="0">
          <Node pos="l" depth="2" NCoef="0" IVar="1" Cut="2.7023988281250000e+04" cType="1" res="1.1904425173997879e-01" rms="3.5724896192550659e-01" purity="6.4573872089385986e-01" nType="0">
            <Node pos="l" depth="3" NCoef="0" IVar="-1" Cut="0.0000000000000000e+00" cType="1" res="-1.0581963695585728e-02" rms="2.5586158037185669e-01" purity="1.4833526313304901e-01" nType="-99"/>
            <Node pos="r" depth="3" NCoef="0" IVar="-1" Cut="0.0000000000000000e+00" cType="1" res="2.6263163890689611e-03" rms="3.5831665992736816e-01" purity="7.1025401353836060e-01" nType="-99"/>
          </Node>
          <Node pos="r" depth="2" NCoef="0" IVar="3" Cut="1.1573249218750000e+05" cType="1" res="-4.9929800443351269e-03" rms="2.2646796703338623e-01" purity="1.3063398003578186e-01" nType="0">
            <Node pos="l" depth="3" NCoef="0" IVar="-1" Cut="0.0000000000000000e+00" cType="1" res="-1.4996846439316869e-03" rms="2.2579239308834076e-01" purity="8.6477741599082947e-02" nType="-99"/>
            <Node pos="r" depth="3" NCoef="0" IVar="-1" Cut="0.0000000000000000e+00" cType="1" res="1.3655250659212470e-03" rms="2.0645418763160706e-01" purity="9.5501214265823364e-01" nType="-99"/>
          </Node>
        </Node>
        <Node pos="r" depth="1" NCoef="0" IVar="4" Cut="1.8631370312500000e+05" cType="1" res="1.2316162884235382e-01" rms="2.5815281271934509e-01" purity="8.4826374053955078e-01" nType="0">
          <Node pos="l" depth="2" NCoef="0" IVar="-1" Cut="0.0000000000000000e+00" cType="1" res="1.2500720331445336e-03" rms="4.0763568878173828e-01" purity="4.3158769607543945e-01" nType="-99"/>
          <Node pos="r" depth="2" NCoef="0" IVar="4" Cut="4.6977315625000000e+05" cType="1" res="1.2630310654640198e-01" rms="2.5031214952468872e-01" purity="8.6380583047866821e-01" nType="0">
            <Node pos="l" depth="3" NCoef="0" IVar="-1" Cut="0.0000000000000000e+00" cType="1" res="1.5954028349369764e-03" rms="2.9551264643669128e-01" purity="7.8254616260528564e-01" nType="-99"/>
            <Node pos="r" depth="3" NCoef="0" IVar="-1" Cut="0.0000000000000000e+00" cType="1" res="1.7648400971665978e-03" rms="1.8693785369396210e-01" purity="9.5400273799896240e-01" nType="-99"/>
          </Node>
        </Node>
      </Node>
    </BinaryTree>
    <BinaryTree type="DecisionTree" boostWeight="1.0000000000000000e+00" itree="417">
      <Node pos="s" depth="0" NCoef="0" IVar="1" Cut="1.0034389062500000e+05" cType="1" res="6.8748451769351959e-02" rms="2.6926416158676147e-01" purity="5.2537232637405396e-01" nType="0">
        <Node pos="l" depth="1" NCoef="0" IVar="1" Cut="7.9306421875000000e+04" cType="1" res="3.5562746226787567e-02" rms="2.8157427906990051e-01" purity="3.2859212160110474e-01" nType="0">
          <Node pos="l" depth="2" NCoef="0" IVar="1" Cut="3.7641281250000000e+04" cType="1" res="1.0662194341421127e-01" rms="3.4863957762718201e-01" purity="6.5360301733016968e-01" nType="0">
            <Node pos="l" depth="3" NCoef="0" IVar="-1" Cut="0.0000000000000000e+00" cType="1" res="-3.0235553276725113e-04" rms="3.1513991951942444e-01" purity="4.3274018168449402e-01" nType="-99"/>
            <Node pos="r" depth="3" NCoef="0" IVar="-1" Cut="0.0000000000000000e+00" cType="1" res="2.2196408826857805e-03" rms="3.5029625892639160e-01" purity="7.2199016809463501e-01" nType="-99"/>
          </Node>
          <Node pos="r" depth="2" NCoef="0" IVar="3" Cut="1.1336210156250000e+05" cType="1" res="-7.4266293086111546e-03" rms="2.2093312442302704e-01" purity="1.3196714222431183e-01" nType="0">
            <Node pos="l" depth="3" NCoef="0" IVar="-1" Cut="0.0000000000000000e+00" cType="1" res="-2.8750856872648001e-03" rms="2.2124072909355164e-01" purity="7.6446227729320526e-02" nType="-99"/>
            <Node pos="r" depth="3" NCoef="0" IVar="-1" Cut="0.0000000000000000e+00" cType="1" res="1.4319998444989324e-03" rms="1.5081171691417694e-01" purity="9.7641670703887939e-01" nType="-99"/>
          </Node>
        </Node>
        <Node pos="r" depth="1" NCoef="0" IVar="3" Cut="5.4305199218750000e+04" cType="1" res="1.2763853371143341e-01" rms="2.3462252318859100e-01" purity="8.7457090616226196e-01" nType="0">
          <Node pos="l" depth="2" NCoef="0" IVar="5" Cut="8.7812914062500000e+04" cType="1" res="9.8287925124168396e-02" rms="3.6340734362602234e-01" purity="6.6385966539382935e-01" nType="0">
            <Node pos="l" depth="3" NCoef="0" IVar="-1" Cut="0.0000000000000000e+00" cType="1" res="2.0948457531630993e-03" rms="3.5038551688194275e-01" purity="7.4613833427429199e-01" nType="-99"/>
            <Node pos="r" depth="3" NCoef="0" IVar="-1" Cut="0.0000000000000000e+00" cType="1" res="1.2487749336287379e-03" rms="3.6335745453834534e-01" purity="6.4279007911682129e-01" nType="-99"/>
          </Node>
          <Node pos="r" depth="2" NCoef="0" IVar="4" Cut="3.9734056250000000e+05" cType="1" res="1.4317858219146729e-01" rms="1.1650059372186661e-01" purity="9.8613464832305908e-01" nType="0">
            <Node pos="l" depth="3" NCoef="0" IVar="-1" Cut="0.0000000000000000e+00" cType="1" res="1.6372656682506204e-03" rms="1.2200682610273361e-01" purity="9.8519420623779297e-01" nType="-99"/>
            <Node pos="r" depth="3" NCoef="0" IVar="-1" Cut="0.0000000000000000e+00" cType="1" res="1.3099960051476955e-03" rms="1.1250544339418411e-01" purity="9.8672580718994141e-01" nType="-99"/>
          </Node>
        </Node>
      </Node>
    </BinaryTree>
    <BinaryTree type="DecisionTree" boostWeight="1.0000000000000000e+00" itree="418">
      <Node pos="s" depth="0" NCoef="0" IVar="4" Cut="2.2739684375000000e+05" cType="1" res="6.2751442193984985e-02" rms="2.7295976877212524e-01" purity="5.0546145439147949e-01" nType="0">
        <Node pos="l" depth="1" NCoef="0" IVar="5" Cut="8.6870437500000000e+04" cType="1" res="1.4265523292124271e-02" rms="2.7340894937515259e-01" purity="2.3251308500766754e-01" nType="0">
          <Node pos="l" depth="2" NCoef="0" IVar="4" Cut="1.6025912500000000e+05" cType="1" res="1.3714042305946350e-01" rms="3.6957752704620361e-01" purity="4.6346694231033325e-01" nType="0">
            <Node pos="l" depth="3" NCoef="0" IVar="-1" Cut="0.0000000000000000e+00" cType="1" res="7.9082986339926720e-03" rms="4.5614275336265564e-01" purity="4.5263540744781494e-01" nType="-99"/>
            <Node pos="r" depth="3" NCoef="0" IVar="-1" Cut="0.0000000000000000e+00" cType="1" res="9.7334134625270963e-04" rms="2.4426674842834473e-01" purity="4.7180083394050598e-01" nType="-99"/>
          </Node>
          <Node pos="r" depth="2" NCoef="0" IVar="4" Cut="1.2922557812500000e+05" cType="1" res="1.5162709169089794e-03" rms="2.5808423757553101e-01" purity="2.0854978263378143e-01" nType="0">
            <Node pos="l" depth="3" NCoef="0" IVar="-1" Cut="0.0000000000000000e+00" cType="1" res="-5.3767804056406021e-03" rms="3.2581809163093567e-01" purity="1.0539090633392334e-01" nType="-99"/>
            <Node pos="r" depth="3" NCoef="0" IVar="-1" Cut="0.0000000000000000e+00" cType="1" res="6.7694450262933969e-04" rms="2.4945357441902161e-01" purity="2.1559283137321472e-01" nType="-99"/>
          </Node>
        </Node>
        <Node pos="r" depth="1" NCoef="0" IVar="1" Cut="9.3593531250000000e+04" cType="1" res="9.0425319969654083e-02" rms="2.6881095767021179e-01" purity="6.6124975681304932e-01" nType="0">
          <Node pos="l" depth="2" NCoef="0" IVar="1" Cut="7.8080335937500000e+04" cType="1" res="5.3650949150323868e-02" rms="2.8749066591262817e-01" purity="4.7514691948890686e-01" nType="0">
            <Node pos="l" depth="3" NCoef="0" IVar="-1" Cut="0.0000000000000000e+00" cType="1" res="1.6549048013985157e-03" rms="3.0426248908042908e-01" purity="7.8997933864593506e-01" nType="-99"/>
            <Node pos="r" depth="3" NCoef="0" IVar="-1" Cut="0.0000000000000000e+00" cType="1" res="4.3089778046123683e-04" rms="2.6562428474426270e-01" purity="2.2721034288406372e-01" nType="-99"/>
          </Node>
          <Node pos="r" depth="2" NCoef="0" IVar="5" Cut="9.2529460937500000e+04" cType="1" res="1.1723641306161880e-01" rms="2.5095489621162415e-01" purity="7.9693186283111572e-01" nType="0">
            <Node pos="l" depth="3" NCoef="0" IVar="-1" Cut="0.0000000000000000e+00" cType="1" res="1.0669815819710493e-03" rms="2.4158141016960144e-01" purity="7.9264467954635620e-01" nType="-99"/>
            <Node pos="r" depth="3" NCoef="0" IVar="-1" Cut="0.0000000000000000e+00" cType="1" res="1.3933475129306316e-03" rms="2.7012750506401062e-01" purity="8.0804777145385742e-01" nType="-99"/>
          </Node>
        </Node>
      </Node>
    </BinaryTree>
    <BinaryTree type="DecisionTree" boostWeight="1.0000000000000000e+00" itree="419">
      <Node pos="s" depth="0" NCoef="0" IVar="1" Cut="1.0034389062500000e+05" cType="1" res="5.2762635052204132e-02" rms="2.5917506217956543e-01" purity="4.8669564723968506e-01" nType="0">
        <Node pos="l" depth="1" NCoef="0" IVar="1" Cut="6.6688101562500000e+04" cType="1" res="2.2491609677672386e-02" rms="2.4955821037292480e-01" purity="3.0868220329284668e-01" nType="0">
          <Node pos="l" depth="2" NCoef="0" IVar="1" Cut="4.3224851562500000e+04" cType="1" res="9.9683217704296112e-02" rms="3.0337917804718018e-01" purity="6.6422277688980103e-01" nType="0">
            <Node pos="l" depth="3" NCoef="0" IVar="-1" Cut="0.0000000000000000e+00" cType="1" res="-1.3308573397807777e-04" rms="2.7164962887763977e-01" purity="4.7614067792892456e-01" nType="-99"/>
            <Node pos="r" depth="3" NCoef="0" IVar="-1" Cut="0.0000000000000000e+00" cType="1" res="2.3658447898924351e-03" rms="3.0265638232231140e-01" purity="7.9973918199539185e-01" nType="-99"/>
          </Node>
          <Node pos="r" depth="2" NCoef="0" IVar="3" Cut="1.1336210156250000e+05" cType="1" res="-4.4865040108561516e-03" rms="2.2151331603527069e-01" purity="1.8442240357398987e-01" nType="0">
            <Node pos="l" depth="3" NCoef="0" IVar="-1" Cut="0.0000000000000000e+00" cType="1" res="-1.3833964476361871e-03" rms="2.2161518037319183e-01" purity="1.0988334566354752e-01" nType="-99"/>
            <Node pos="r" depth="3" NCoef="0" IVar="-1" Cut="0.0000000000000000e+00" cType="1" res="1.2723262188956141e-03" rms="1.8322180211544037e-01" purity="9.6436667442321777e-01" nType="-99"/>
          </Node>
        </Node>
        <Node pos="r" depth="1" NCoef="0" IVar="4" Cut="2.4878681250000000e+05" cType="1" res="1.1236293613910675e-01" rms="2.6729753613471985e-01" purity="8.3718448877334595e-01" nType="0">
          <Node pos="l" depth="2" NCoef="0" IVar="2" Cut="2.5126585937500000e+05" cType="1" res="4.1012872010469437e-02" rms="2.9788658022880554e-01" purity="6.1368209123611450e-01" nType="0">
            <Node pos="l" depth="3" NCoef="0" IVar="-1" Cut="0.0000000000000000e+00" cType="1" res="-1.9517650362104177e-03" rms="3.1143277883529663e-01" purity="3.7429788708686829e-01" nType="-99"/>
            <Node pos="r" depth="3" NCoef="0" IVar="-1" Cut="0.0000000000000000e+00" cType="1" res="9.8826538305729628e-04" rms="2.7563956379890442e-01" purity="7.4787676334381104e-01" nType="-99"/>
          </Node>
          <Node pos="r" depth="2" NCoef="0" IVar="1" Cut="1.8449064062500000e+05" cType="1" res="1.2925507128238678e-01" rms="2.5664046406745911e-01" purity="8.9009875059127808e-01" nType="0">
            <Node pos="l" depth="3" NCoef="0" IVar="-1" Cut="0.0000000000000000e+00" cType="1" res="1.7260226886719465e-03" rms="2.6388612389564514e-01" purity="8.6991804838180542e-01" nType="-99"/>
            <Node pos="r" depth="3" NCoef="0" IVar="-1" Cut="0.0000000000000000e+00" cType="1" res="1.5994157874956727e-03" rms="2.4221390485763550e-01" purity="9.2311185598373413e-01" nType="-99"/>
          </Node>
        </Node>
      </Node>
    </BinaryTree>
    <BinaryTree type="DecisionTree" boostWeight="1.0000000000000000e+00" itree="420">
      <Node pos="s" depth="0" NCoef="0" IVar="1" Cut="1.0034835937500000e+05" cType="1" res="5.6939020752906799e-02" rms="2.6778709888458252e-01" purity="4.9418213963508606e-01" nType="0">
        <Node pos="l" depth="1" NCoef="0" IVar="1" Cut="7.9314031250000000e+04" cType="1" res="1.9776223227381706e-02" rms="2.5744888186454773e-01" purity="3.0119970440864563e-01" nType="0">
          <Node pos="l" depth="2" NCoef="0" IVar="1" Cut="3.7644191406250000e+04" cType="1" res="8.4094919264316559e-02" rms="3.1992036104202271e-01" purity="6.3833767175674438e-01" nType="0">
            <Node pos="l" depth="3" NCoef="0" IVar="-1" Cut="0.0000000000000000e+00" cType="1" res="1.1189070937689394e-04" rms="3.1197479367256165e-01" purity="4.2354986071586609e-01" nType="-99"/>
            <Node pos="r" depth="3" NCoef="0" IVar="-1" Cut="0.0000000000000000e+00" cType="1" res="1.7316136509180069e-03" rms="3.1821370124816895e-01" purity="7.0686578750610352e-01" nType="-99"/>
          </Node>
          <Node pos="r" depth="2" NCoef="0" IVar="1" Cut="9.7342734375000000e+04" cType="1" res="-1.8200682476162910e-02" rms="2.0272663235664368e-01" purity="1.0213696956634521e-01" nType="0">
            <Node pos="l" depth="3" NCoef="0" IVar="-1" Cut="0.0000000000000000e+00" cType="1" res="-3.3790469169616699e-03" rms="1.9021908938884735e-01" purity="8.8776268064975739e-02" nType="-99"/>
            <Node pos="r" depth="3" NCoef="0" IVar="-1" Cut="0.0000000000000000e+00" cType="1" res="2.3884715046733618e-03" rms="3.1739878654479980e-01" purity="2.9510617256164551e-01" nType="-99"/>
          </Node>
        </Node>
        <Node pos="r" depth="1" NCoef="0" IVar="5" Cut="9.3516234375000000e+04" cType="1" res="1.2456858158111572e-01" rms="2.7295508980751038e-01" purity="8.4537518024444580e-01" nType="0">
          <Node pos="l" depth="2" NCoef="0" IVar="5" Cut="9.2344062500000000e+04" cType="1" res="1.2962765991687775e-01" rms="2.6729771494865417e-01" purity="8.5060846805572510e-01" nType="0">
            <Node pos="l" depth="3" NCoef="0" IVar="-1" Cut="0.0000000000000000e+00" cType="1" res="1.6918008914217353e-03" rms="2.5859889388084412e-01" purity="8.5028672218322754e-01" nType="-99"/>
            <Node pos="r" depth="3" NCoef="0" IVar="-1" Cut="0.0000000000000000e+00" cType="1" res="2.4183471687138081e-03" rms="3.1971901655197144e-01" purity="8.5290372371673584e-01" nType="-99"/>
          </Node>
          <Node pos="r" depth="2" NCoef="0" IVar="-1" Cut="0.0000000000000000e+00" cType="1" res="1.8448324408382177e-03" rms="3.0450502038002014e-01" purity="8.1213402748107910e-01" nType="-99"/>
        </Node>
      </Node>
    </BinaryTree>
    <BinaryTree type="DecisionTree" boostWeight="1.0000000000000000e+00" itree="421">
      <Node pos="s" depth="0" NCoef="0" IVar="3" Cut="4.8659894531250000e+04" cType="1" res="6.0798585414886475e-02" rms="2.6756858825683594e-01" purity="4.9904435873031616e-01" nType="0">
        <Node pos="l" depth="1" NCoef="0" IVar="4" Cut="2.4999821875000000e+05" cType="1" res="1.8386287614703178e-02" rms="2.7879697084426880e-01" purity="1.8246117234230042e-01" nType="0">
          <Node pos="l" depth="2" NCoef="0" IVar="5" Cut="8.5952000000000000e+04" cType="1" res="-1.3232847675681114e-02" rms="2.2292263805866241e-01" purity="7.5529687106609344e-02" nType="0">
            <Node pos="l" depth="3" NCoef="0" IVar="-1" Cut="0.0000000000000000e+00" cType="1" res="-7.9379007220268250e-02" rms="1.3476772606372833e-01" purity="0.0000000000000000e+00" nType="-99"/>
            <Node pos="r" depth="3" NCoef="0" IVar="-1" Cut="0.0000000000000000e+00" cType="1" res="-1.4784509548917413e-03" rms="2.2438725829124451e-01" purity="7.8136257827281952e-02" nType="-99"/>
          </Node>
          <Node pos="r" depth="2" NCoef="0" IVar="5" Cut="9.2564812500000000e+04" cType="1" res="6.1597231775522232e-02" rms="3.3586412668228149e-01" purity="3.2859456539154053e-01" nType="0">
            <Node pos="l" depth="3" NCoef="0" IVar="-1" Cut="0.0000000000000000e+00" cType="1" res="6.6668936051428318e-04" rms="3.2080900669097900e-01" purity="2.8750073909759521e-01" nType="-99"/>
            <Node pos="r" depth="3" NCoef="0" IVar="-1" Cut="0.0000000000000000e+00" cType="1" res="1.5431790379807353e-03" rms="3.6659276485443115e-01" purity="4.5076778531074524e-01" nType="-99"/>
          </Node>
        </Node>
        <Node pos="r" depth="1" NCoef="0" IVar="1" Cut="1.0059082812500000e+05" cType="1" res="1.1580481380224228e-01" rms="2.4140803515911102e-01" purity="9.0963393449783325e-01" nType="0">
          <Node pos="l" depth="2" NCoef="0" IVar="2" Cut="2.7801593750000000e+05" cType="1" res="8.9660890400409698e-02" rms="3.0233281850814819e-01" purity="8.4168374538421631e-01" nType="0">
            <Node pos="l" depth="3" NCoef="0" IVar="-1" Cut="0.0000000000000000e+00" cType="1" res="1.2867200421169400e-03" rms="2.8182375431060791e-01" purity="8.6646920442581177e-01" nType="-99"/>
            <Node pos="r" depth="3" NCoef="0" IVar="-1" Cut="0.0000000000000000e+00" cType="1" res="3.5011864383704960e-04" rms="3.3548551797866821e-01" purity="7.8454107046127319e-01" nType="-99"/>
          </Node>
          <Node pos="r" depth="2" NCoef="0" IVar="4" Cut="4.2742643750000000e+05" cType="1" res="1.4046604931354523e-01" rms="1.6055017709732056e-01" purity="9.7373050451278687e-01" nType="0">
            <Node pos="l" depth="3" NCoef="0" IVar="-1" Cut="0.0000000000000000e+00" cType="1" res="1.5706582926213741e-03" rms="1.7870895564556122e-01" purity="9.6909016370773315e-01" nType="-99"/>
            <Node pos="r" depth="3" NCoef="0" IVar="-1" Cut="0.0000000000000000e+00" cType="1" res="1.6439799219369888e-03" rms="1.4463923871517181e-01" purity="9.7722399234771729e-01" nType="-99"/>
          </Node>
        </Node>
      </Node>
    </BinaryTree>
    <BinaryTree type="DecisionTree" boostWeight="1.0000000000000000e+00" itree="422">
      <Node pos="s" depth="0" NCoef="0" IVar="3" Cut="4.4524941406250000e+04" cType="1" res="5.9353146702051163e-02" rms="2.6462885737419128e-01" purity="4.9309971928596497e-01" nType="0">
        <Node pos="l" depth="1" NCoef="0" IVar="1" Cut="1.2715934375000000e+05" cType="1" res="2.0582804456353188e-02" rms="2.6846987009048462e-01" purity="1.8782564997673035e-01" nType="0">
          <Node pos="l" depth="2" NCoef="0" IVar="0" Cut="2.1428570747375488e+00" cType="1" res="1.9548451527953148e-03" rms="2.4277125298976898e-01" purity="8.2631051540374756e-02" nType="0">
            <Node pos="l" depth="3" NCoef="0" IVar="-1" Cut="0.0000000000000000e+00" cType="1" res="-9.1565580805763602e-04" rms="2.2451226413249969e-01" purity="7.1876004338264465e-02" nType="-99"/>
            <Node pos="r" depth="3" NCoef="0" IVar="-1" Cut="0.0000000000000000e+00" cType="1" res="9.8922913894057274e-03" rms="4.3611401319503784e-01" purity="2.7381220459938049e-01" nType="-99"/>
          </Node>
          <Node pos="r" depth="2" NCoef="0" IVar="5" Cut="9.0631257812500000e+04" cType="1" res="1.2921597063541412e-01" rms="3.6724603176116943e-01" purity="8.0129170417785645e-01" nType="0">
            <Node pos="l" depth="3" NCoef="0" IVar="-1" Cut="0.0000000000000000e+00" cType="1" res="1.8497994169592857e-03" rms="3.3975499868392944e-01" purity="8.5033994913101196e-01" nType="-99"/>
            <Node pos="r" depth="3" NCoef="0" IVar="-1" Cut="0.0000000000000000e+00" cType="1" res="4.3662550160661340e-04" rms="4.0178462862968445e-01" purity="7.1581465005874634e-01" nType="-99"/>
          </Node>
        </Node>
        <Node pos="r" depth="1" NCoef="0" IVar="4" Cut="1.9255915625000000e+05" cType="1" res="1.0938526690006256e-01" rms="2.5088447332382202e-01" purity="8.8704782724380493e-01" nType="0">
          <Node pos="l" depth="2" NCoef="0" IVar="3" Cut="6.1282761718750000e+04" cType="1" res="5.2512794733047485e-02" rms="3.0436980724334717e-01" purity="7.6277488470077515e-01" nType="0">
            <Node pos="l" depth="3" NCoef="0" IVar="-1" Cut="0.0000000000000000e+00" cType="1" res="-2.3132453206926584e-03" rms="3.6714425683021545e-01" purity="4.2258477210998535e-01" nType="-99"/>
            <Node pos="r" depth="3" NCoef="0" IVar="-1" Cut="0.0000000000000000e+00" cType="1" res="1.8602050840854645e-03" rms="2.4990905821323395e-01" purity="9.0812879800796509e-01" nType="-99"/>
          </Node>
          <Node pos="r" depth="2" NCoef="0" IVar="0" Cut="3.8095238804817200e-01" cType="1" res="1.1572411656379700e-01" rms="2.4337682127952576e-01" purity="9.0089899301528931e-01" nType="0">
            <Node pos="l" depth="3" NCoef="0" IVar="-1" Cut="0.0000000000000000e+00" cType="1" res="1.7032828181982040e-03" rms="2.2530347108840942e-01" purity="9.2077666521072388e-01" nType="-99"/>
            <Node pos="r" depth="3" NCoef="0" IVar="-1" Cut="0.0000000000000000e+00" cType="1" res="1.1316820746287704e-03" rms="2.5035962462425232e-01" purity="8.9226412773132324e-01" nType="-99"/>
          </Node>
        </Node>
      </Node>
    </BinaryTree>
    <BinaryTree type="DecisionTree" boostWeight="1.0000000000000000e+00" itree="423">
      <Node pos="s" depth="0" NCoef="0" IVar="3" Cut="3.7870195312500000e+04" cType="1" res="7.0456027984619141e-02" rms="2.8005763888359070e-01" purity="5.0721746683120728e-01" nType="0">
        <Node pos="l" depth="1" NCoef="0" IVar="3" Cut="1.2706012695312500e+04" cType="1" res="3.7946742027997971e-02" rms="2.8638127446174622e-01" purity="1.6331169009208679e-01" nType="0">
          <Node pos="l" depth="2" NCoef="0" IVar="5" Cut="9.2591875000000000e+04" cType="1" res="-1.0340067557990551e-02" rms="1.3034206628799438e-01" purity="2.8567098081111908e-02" nType="0">
            <Node pos="l" depth="3" NCoef="0" IVar="-1" Cut="0.0000000000000000e+00" cType="1" res="-8.2862339913845062e-03" rms="8.4322065114974976e-02" purity="1.5684572979807854e-02" nType="-99"/>
            <Node pos="r" depth="3" NCoef="0" IVar="-1" Cut="0.0000000000000000e+00" cType="1" res="7.1062613278627396e-03" rms="2.3487529158592224e-01" purity="8.1945665180683136e-02" nType="-99"/>
          </Node>
          <Node pos="r" depth="2" NCoef="0" IVar="4" Cut="1.5546654687500000e+05" cType="1" res="6.0479503124952316e-02" rms="3.3280938863754272e-01" purity="2.2618952393531799e-01" nType="0">
            <Node pos="l" depth="3" NCoef="0" IVar="-1" Cut="0.0000000000000000e+00" cType="1" res="5.2957995794713497e-03" rms="4.3421435356140137e-01" purity="3.0758294463157654e-01" nType="-99"/>
            <Node pos="r" depth="3" NCoef="0" IVar="-1" Cut="0.0000000000000000e+00" cType="1" res="1.5863170847296715e-03" rms="3.1078892946243286e-01" purity="2.1424826979637146e-01" nType="-99"/>
          </Node>
        </Node>
        <Node pos="r" depth="1" NCoef="0" IVar="2" Cut="1.9877798437500000e+05" cType="1" res="1.0250182449817657e-01" rms="2.6987528800964355e-01" purity="8.4622013568878174e-01" nType="0">
          <Node pos="l" depth="2" NCoef="0" IVar="2" Cut="1.6678440625000000e+05" cType="1" res="3.4350950270891190e-02" rms="3.4069383144378662e-01" purity="7.4217379093170166e-01" nType="0">
            <Node pos="l" depth="3" NCoef="0" IVar="-1" Cut="0.0000000000000000e+00" cType="1" res="-4.6045165508985519e-03" rms="4.6118476986885071e-01" purity="5.0654667615890503e-01" nType="-99"/>
            <Node pos="r" depth="3" NCoef="0" IVar="-1" Cut="0.0000000000000000e+00" cType="1" res="1.4475074131041765e-03" rms="2.6198482513427734e-01" purity="8.0793505907058716e-01" nType="-99"/>
          </Node>
          <Node pos="r" depth="2" NCoef="0" IVar="1" Cut="1.3210825000000000e+05" cType="1" res="1.1137782037258148e-01" rms="2.5790977478027344e-01" purity="8.5977113246917725e-01" nType="0">
            <Node pos="l" depth="3" NCoef="0" IVar="-1" Cut="0.0000000000000000e+00" cType="1" res="1.4395745238289237e-03" rms="3.0462002754211426e-01" purity="7.8649437427520752e-01" nType="-99"/>
            <Node pos="r" depth="3" NCoef="0" IVar="-1" Cut="0.0000000000000000e+00" cType="1" res="1.1531850323081017e-03" rms="1.5698389708995819e-01" purity="9.7432810068130493e-01" nType="-99"/>
          </Node>
        </Node>
      </Node>
    </BinaryTree>
    <BinaryTree type="DecisionTree" boostWeight="1.0000000000000000e+00" itree="424">
      <Node pos="s" depth="0" NCoef="0" IVar="4" Cut="1.9322465625000000e+05" cType="1" res="6.7282252013683319e-02" rms="2.6906907558441162e-01" purity="5.1327568292617798e-01" nType="0">
        <Node pos="l" depth="1" NCoef="0" IVar="3" Cut="6.3196640625000000e+04" cType="1" res="6.2367301434278488e-03" rms="2.3464494943618774e-01" purity="2.0975007116794586e-01" nType="0">
          <Node pos="l" depth="2" NCoef="0" IVar="2" Cut="2.5627142187500000e+05" cType="1" res="-1.0986382141709328e-02" rms="2.2874297201633453e-01" purity="1.0678346455097198e-01" nType="0">
            <Node pos="l" depth="3" NCoef="0" IVar="-1" Cut="0.0000000000000000e+00" cType="1" res="-4.8297559842467308e-03" rms="1.8880049884319305e-01" purity="7.0536166429519653e-02" nType="-99"/>
            <Node pos="r" depth="3" NCoef="0" IVar="-1" Cut="0.0000000000000000e+00" cType="1" res="3.4930850379168987e-03" rms="3.4207293391227722e-01" purity="2.8032088279724121e-01" nType="-99"/>
          </Node>
          <Node pos="r" depth="2" NCoef="0" IVar="-1" Cut="0.0000000000000000e+00" cType="1" res="1.4323337236419320e-03" rms="2.4039173126220703e-01" purity="9.1842830181121826e-01" nType="-99"/>
        </Node>
        <Node pos="r" depth="1" NCoef="0" IVar="1" Cut="1.4565603125000000e+05" cType="1" res="8.5580512881278992e-02" rms="2.7594184875488281e-01" purity="6.0425674915313721e-01" nType="0">
          <Node pos="l" depth="2" NCoef="0" IVar="1" Cut="7.5746281250000000e+04" cType="1" res="7.0418223738670349e-02" rms="2.9636141657829285e-01" purity="4.7337445616722107e-01" nType="0">
            <Node pos="l" depth="3" NCoef="0" IVar="-1" Cut="0.0000000000000000e+00" cType="1" res="1.7587512265890837e-03" rms="3.2094457745552063e-01" purity="7.8749644756317139e-01" nType="-99"/>
            <Node pos="r" depth="3" NCoef="0" IVar="-1" Cut="0.0000000000000000e+00" cType="1" res="1.6469832044094801e-03" rms="2.8506904840469360e-01" purity="3.6722058057785034e-01" nType="-99"/>
          </Node>
          <Node pos="r" depth="2" NCoef="0" IVar="0" Cut="1.3333333730697632e+00" cType="1" res="1.2431313097476959e-01" rms="2.1024665236473083e-01" purity="9.3860024213790894e-01" nType="0">
            <Node pos="l" depth="3" NCoef="0" IVar="-1" Cut="0.0000000000000000e+00" cType="1" res="1.2527171056717634e-03" rms="2.3666033148765564e-01" purity="9.1332620382308960e-01" nType="-99"/>
            <Node pos="r" depth="3" NCoef="0" IVar="-1" Cut="0.0000000000000000e+00" cType="1" res="8.9661631500348449e-04" rms="1.7247830331325531e-01" purity="9.6817952394485474e-01" nType="-99"/>
          </Node>
        </Node>
      </Node>
    </BinaryTree>
    <BinaryTree type="DecisionTree" boostWeight="1.0000000000000000e+00" itree="425">
      <Node pos="s" depth="0" NCoef="0" IVar="3" Cut="6.8936960937500000e+04" cType="1" res="5.7767871767282486e-02" rms="2.6155674457550049e-01" purity="5.0520062446594238e-01" nType="0">
        <Node pos="l" depth="1" NCoef="0" IVar="2" Cut="1.9310795312500000e+05" cType="1" res="2.9214853420853615e-02" rms="2.8729289770126343e-01" purity="2.8828990459442139e-01" nType="0">
          <Node pos="l" depth="2" NCoef="0" IVar="1" Cut="4.2373515625000000e+04" cType="1" res="-4.8859469592571259e-02" rms="2.3263618350028992e-01" purity="1.0889501124620438e-01" nType="0">
            <Node pos="l" depth="3" NCoef="0" IVar="-1" Cut="0.0000000000000000e+00" cType="1" res="-2.7834400534629822e-02" rms="1.9713577628135681e-01" purity="3.1443726271390915e-02" nType="-99"/>
            <Node pos="r" depth="3" NCoef="0" IVar="-1" Cut="0.0000000000000000e+00" cType="1" res="-8.9192710584029555e-04" rms="2.3475572466850281e-01" purity="1.3972064852714539e-01" nType="-99"/>
          </Node>
          <Node pos="r" depth="2" NCoef="0" IVar="3" Cut="2.6420792968750000e+04" cType="1" res="4.0496446192264557e-02" rms="2.9263532161712646e-01" purity="3.1421208381652832e-01" nType="0">
            <Node pos="l" depth="3" NCoef="0" IVar="-1" Cut="0.0000000000000000e+00" cType="1" res="1.0461335768923163e-03" rms="2.2915294766426086e-01" purity="1.1135417222976685e-01" nType="-99"/>
            <Node pos="r" depth="3" NCoef="0" IVar="-1" Cut="0.0000000000000000e+00" cType="1" res="8.4781157784163952e-04" rms="3.4684371948242188e-01" purity="5.3902047872543335e-01" nType="-99"/>
          </Node>
        </Node>
        <Node pos="r" depth="1" NCoef="0" IVar="1" Cut="1.0329192187500000e+05" cType="1" res="1.1791737377643585e-01" rms="1.8253855407238007e-01" purity="9.6214264631271362e-01" nType="0">
          <Node pos="l" depth="2" NCoef="0" IVar="1" Cut="8.5847531250000000e+04" cType="1" res="1.0022665560245514e-01" rms="2.3699666559696198e-01" purity="9.3395358324050903e-01" nType="0">
            <Node pos="l" depth="3" NCoef="0" IVar="-1" Cut="0.0000000000000000e+00" cType="1" res="1.5779499663040042e-03" rms="1.9736948609352112e-01" purity="9.5807808637619019e-01" nType="-99"/>
            <Node pos="r" depth="3" NCoef="0" IVar="-1" Cut="0.0000000000000000e+00" cType="1" res="4.0040528983809054e-04" rms="3.8201627135276794e-01" purity="8.0100792646408081e-01" nType="-99"/>
          </Node>
          <Node pos="r" depth="2" NCoef="0" IVar="-1" Cut="0.0000000000000000e+00" cType="1" res="1.3473585713654757e-03" rms="1.0730155557394028e-01" purity="9.8835515975952148e-01" nType="-99"/>
        </Node>
      </Node>
    </BinaryTree>
    <BinaryTree type="DecisionTree" boostWeight="1.0000000000000000e+00" itree="426">
      <Node pos="s" depth="0" NCoef="0" IVar="3" Cut="8.8866960937500000e+04" cType="1" res="5.3058173507452011e-02" rms="2.7065831422805786e-01" purity="4.8163658380508423e-01" nType="0">
        <Node pos="l" depth="1" NCoef="0" IVar="1" Cut="1.3173915625000000e+05" cType="1" res="3.3060058951377869e-02" rms="2.9406186938285828e-01" purity="3.4066420793533325e-01" nType="0">
          <Node pos="l" depth="2" NCoef="0" IVar="1" Cut="9.7522375000000000e+04" cType="1" res="1.9898653030395508e-02" rms="2.8988224267959595e-01" purity="2.3675866425037384e-01" nType="0">
            <Node pos="l" depth="3" NCoef="0" IVar="-1" Cut="0.0000000000000000e+00" cType="1" res="3.1912789563648403e-04" rms="2.7582377195358276e-01" purity="1.8612885475158691e-01" nType="-99"/>
            <Node pos="r" depth="3" NCoef="0" IVar="-1" Cut="0.0000000000000000e+00" cType="1" res="1.4221323654055595e-03" rms="3.4772083163261414e-01" purity="5.0548779964447021e-01" nType="-99"/>
          </Node>
          <Node pos="r" depth="2" NCoef="0" IVar="3" Cut="3.4385222656250000e+04" cType="1" res="9.8986104130744934e-02" rms="3.0575117468833923e-01" purity="8.6113166809082031e-01" nType="0">
            <Node pos="l" depth="3" NCoef="0" IVar="-1" Cut="0.0000000000000000e+00" cType="1" res="-7.8839686466380954e-05" rms="4.2725190520286560e-01" purity="6.5008544921875000e-01" nType="-99"/>
            <Node pos="r" depth="3" NCoef="0" IVar="-1" Cut="0.0000000000000000e+00" cType="1" res="1.1521432315930724e-03" rms="2.2059291601181030e-01" purity="9.5139527320861816e-01" nType="-99"/>
          </Node>
        </Node>
        <Node pos="r" depth="1" NCoef="0" IVar="1" Cut="1.1145093750000000e+05" cType="1" res="1.2356115132570267e-01" rms="1.4241133630275726e-01" purity="9.7863203287124634e-01" nType="0">
          <Node pos="l" depth="2" NCoef="0" IVar="0" Cut="3.8095238804817200e-01" cType="1" res="1.1177960783243179e-01" rms="1.8085262179374695e-01" purity="9.6487426757812500e-01" nType="0">
            <Node pos="l" depth="3" NCoef="0" IVar="-1" Cut="0.0000000000000000e+00" cType="1" res="2.2552292793989182e-03" rms="1.2963843345642090e-01" purity="9.8220902681350708e-01" nType="-99"/>
            <Node pos="r" depth="3" NCoef="0" IVar="-1" Cut="0.0000000000000000e+00" cType="1" res="1.7295544967055321e-03" rms="2.0658697187900543e-01" purity="9.5372122526168823e-01" nType="-99"/>
          </Node>
          <Node pos="r" depth="2" NCoef="0" IVar="-1" Cut="0.0000000000000000e+00" cType="1" res="1.5703575918450952e-03" rms="8.7837621569633484e-02" purity="9.9224114418029785e-01" nType="-99"/>
        </Node>
      </Node>
    </BinaryTree>
    <BinaryTree type="DecisionTree" boostWeight="1.0000000000000000e+00" itree="427">
      <Node pos="s" depth="0" NCoef="0" IVar="2" Cut="2.4245792187500000e+05" cType="1" res="6.7259766161441803e-02" rms="2.8372704982757568e-01" purity="5.0238305330276489e-01" nType="0">
        <Node pos="l" depth="1" NCoef="0" IVar="3" Cut="8.3994101562500000e+04" cType="1" res="1.4887412078678608e-02" rms="2.5708082318305969e-01" purity="2.9685044288635254e-01" nType="0">
          <Node pos="l" depth="2" NCoef="0" IVar="5" Cut="9.4462171875000000e+04" cType="1" res="-3.9130947552621365e-03" rms="2.6476639509201050e-01" purity="1.6941846907138824e-01" nType="0">
            <Node pos="l" depth="3" NCoef="0" IVar="-1" Cut="0.0000000000000000e+00" cType="1" res="-9.5989013789221644e-04" rms="2.5005173683166504e-01" purity="1.5096516907215118e-01" nType="-99"/>
            <Node pos="r" depth="3" NCoef="0" IVar="-1" Cut="0.0000000000000000e+00" cType="1" res="3.7996028549969196e-03" rms="3.9120757579803467e-01" purity="4.2794555425643921e-01" nType="-99"/>
          </Node>
          <Node pos="r" depth="2" NCoef="0" IVar="-1" Cut="0.0000000000000000e+00" cType="1" res="1.4461182290688157e-03" rms="1.8317832052707672e-01" purity="9.6400821208953857e-01" nType="-99"/>
        </Node>
        <Node pos="r" depth="1" NCoef="0" IVar="5" Cut="9.3476039062500000e+04" cType="1" res="9.8082773387432098e-02" rms="2.9396906495094299e-01" purity="6.2334638833999634e-01" nType="0">
          <Node pos="l" depth="2" NCoef="0" IVar="2" Cut="4.3295012500000000e+05" cType="1" res="8.5821159183979034e-02" rms="2.8901723027229309e-01" purity="5.9484845399856567e-01" nType="0">
            <Node pos="l" depth="3" NCoef="0" IVar="-1" Cut="0.0000000000000000e+00" cType="1" res="1.1371322907507420e-03" rms="2.8960806131362915e-01" purity="5.1673293113708496e-01" nType="-99"/>
            <Node pos="r" depth="3" NCoef="0" IVar="-1" Cut="0.0000000000000000e+00" cType="1" res="2.0798463374376297e-03" rms="2.8406405448913574e-01" purity="7.7613800764083862e-01" nType="-99"/>
          </Node>
          <Node pos="r" depth="2" NCoef="0" IVar="5" Cut="9.3835460937500000e+04" cType="1" res="1.5586061775684357e-01" rms="3.0979695916175842e-01" purity="7.5763148069381714e-01" nType="0">
            <Node pos="l" depth="3" NCoef="0" IVar="-1" Cut="0.0000000000000000e+00" cType="1" res="3.0533503741025925e-03" rms="3.5726231336593628e-01" purity="8.2715427875518799e-01" nType="-99"/>
            <Node pos="r" depth="3" NCoef="0" IVar="-1" Cut="0.0000000000000000e+00" cType="1" res="1.2645348906517029e-03" rms="2.5004911422729492e-01" purity="7.2628200054168701e-01" nType="-99"/>
          </Node>
        </Node>
      </Node>
    </BinaryTree>
    <BinaryTree type="DecisionTree" boostWeight="1.0000000000000000e+00" itree="428">
      <Node pos="s" depth="0" NCoef="0" IVar="3" Cut="6.8950085937500000e+04" cType="1" res="6.3008114695549011e-02" rms="2.7496013045310974e-01" purity="5.0033682584762573e-01" nType="0">
        <Node pos="l" depth="1" NCoef="0" IVar="1" Cut="7.8732906250000000e+04" cType="1" res="4.1661545634269714e-02" rms="3.0336731672286987e-01" purity="2.9748699069023132e-01" nType="0">
          <Node pos="l" depth="2" NCoef="0" IVar="5" Cut="8.8781750000000000e+04" cType="1" res="1.2320448458194733e-01" rms="4.2460414767265320e-01" purity="4.3562781810760498e-01" nType="0">
            <Node pos="l" depth="3" NCoef="0" IVar="-1" Cut="0.0000000000000000e+00" cType="1" res="-1.3627156149595976e-03" rms="3.6868137121200562e-01" purity="2.8080797195434570e-01" nType="-99"/>
            <Node pos="r" depth="3" NCoef="0" IVar="-1" Cut="0.0000000000000000e+00" cType="1" res="3.0645029619336128e-03" rms="4.2885988950729370e-01" purity="4.8285031318664551e-01" nType="-99"/>
          </Node>
          <Node pos="r" depth="2" NCoef="0" IVar="2" Cut="2.4652779687500000e+05" cType="1" res="2.0976427942514420e-02" rms="2.5986316800117493e-01" purity="2.6244458556175232e-01" nType="0">
            <Node pos="l" depth="3" NCoef="0" IVar="-1" Cut="0.0000000000000000e+00" cType="1" res="-5.6750127114355564e-03" rms="1.3249173760414124e-01" purity="4.4091958552598953e-02" nType="-99"/>
            <Node pos="r" depth="3" NCoef="0" IVar="-1" Cut="0.0000000000000000e+00" cType="1" res="1.1171099031344056e-03" rms="3.0972492694854736e-01" purity="3.9965236186981201e-01" nType="-99"/>
          </Node>
        </Node>
        <Node pos="r" depth="1" NCoef="0" IVar="1" Cut="1.0329192187500000e+05" cType="1" res="1.1134087294340134e-01" rms="1.8718336522579193e-01" purity="9.5962792634963989e-01" nType="0">
          <Node pos="l" depth="2" NCoef="0" IVar="1" Cut="9.0114539062500000e+04" cType="1" res="8.2656070590019226e-02" rms="2.5575691461563110e-01" purity="9.2054837942123413e-01" nType="0">
            <Node pos="l" depth="3" NCoef="0" IVar="-1" Cut="0.0000000000000000e+00" cType="1" res="1.3739786809310317e-03" rms="2.2788989543914795e-01" purity="9.4079810380935669e-01" nType="-99"/>
            <Node pos="r" depth="3" NCoef="0" IVar="-1" Cut="0.0000000000000000e+00" cType="1" res="-1.6598723595961928e-03" rms="4.1527903079986572e-01" purity="7.1988236904144287e-01" nType="-99"/>
          </Node>
          <Node pos="r" depth="2" NCoef="0" IVar="-1" Cut="0.0000000000000000e+00" cType="1" res="1.1067683808505535e-03" rms="1.1559972912073135e-01" purity="9.8629885911941528e-01" nType="-99"/>
        </Node>
      </Node>
    </BinaryTree>
    <BinaryTree type="DecisionTree" boostWeight="1.0000000000000000e+00" itree="429">
      <Node pos="s" depth="0" NCoef="0" IVar="1" Cut="1.0034389062500000e+05" cType="1" res="5.9976197779178619e-02" rms="2.6853996515274048e-01" purity="4.9263185262680054e-01" nType="0">
        <Node pos="l" depth="1" NCoef="0" IVar="1" Cut="7.5101289062500000e+04" cType="1" res="2.3330986499786377e-02" rms="2.6187753677368164e-01" purity="2.8900748491287231e-01" nType="0">
          <Node pos="l" depth="2" NCoef="0" IVar="1" Cut="3.9043273437500000e+04" cType="1" res="1.0470927506685257e-01" rms="3.3256947994232178e-01" purity="6.5426367521286011e-01" nType="0">
            <Node pos="l" depth="3" NCoef="0" IVar="-1" Cut="0.0000000000000000e+00" cType="1" res="-4.2012220364995301e-04" rms="2.6898798346519470e-01" purity="4.5298895239830017e-01" nType="-99"/>
            <Node pos="r" depth="3" NCoef="0" IVar="-1" Cut="0.0000000000000000e+00" cType="1" res="2.2351813968271017e-03" rms="3.4384682774543762e-01" purity="7.3821085691452026e-01" nType="-99"/>
          </Node>
          <Node pos="r" depth="2" NCoef="0" IVar="3" Cut="3.8014234375000000e+04" cType="1" res="-1.4884348958730698e-02" rms="2.1041782200336456e-01" purity="1.1748276650905609e-01" nType="0">
            <Node pos="l" depth="3" NCoef="0" IVar="-1" Cut="0.0000000000000000e+00" cType="1" res="-1.4040350215509534e-03" rms="1.5565699338912964e-01" purity="2.5320598855614662e-02" nType="-99"/>
            <Node pos="r" depth="3" NCoef="0" IVar="-1" Cut="0.0000000000000000e+00" cType="1" res="-1.4875162160024047e-03" rms="3.3697956800460815e-01" purity="4.4949656724929810e-01" nType="-99"/>
          </Node>
        </Node>
        <Node pos="r" depth="1" NCoef="0" IVar="2" Cut="3.1853246875000000e+05" cType="1" res="1.2393871694803238e-01" rms="2.6804253458976746e-01" purity="8.4804880619049072e-01" nType="0">
          <Node pos="l" depth="2" NCoef="0" IVar="3" Cut="3.9869519531250000e+04" cType="1" res="9.0472251176834106e-02" rms="2.9972687363624573e-01" purity="7.1491247415542603e-01" nType="0">
            <Node pos="l" depth="3" NCoef="0" IVar="-1" Cut="0.0000000000000000e+00" cType="1" res="6.8816175917163491e-04" rms="3.7535399198532104e-01" purity="3.3494052290916443e-01" nType="-99"/>
            <Node pos="r" depth="3" NCoef="0" IVar="-1" Cut="0.0000000000000000e+00" cType="1" res="1.6087337862700224e-03" rms="2.3974762856960297e-01" purity="9.2636585235595703e-01" nType="-99"/>
          </Node>
          <Node pos="r" depth="2" NCoef="0" IVar="4" Cut="3.8676478125000000e+05" cType="1" res="1.3832762837409973e-01" rms="2.5184056162834167e-01" purity="9.0529072284698486e-01" nType="0">
            <Node pos="l" depth="3" NCoef="0" IVar="-1" Cut="0.0000000000000000e+00" cType="1" res="8.8830088498070836e-04" rms="2.8962746262550354e-01" purity="8.6454826593399048e-01" nType="-99"/>
            <Node pos="r" depth="3" NCoef="0" IVar="-1" Cut="0.0000000000000000e+00" cType="1" res="1.6031478298828006e-03" rms="2.2490780055522919e-01" purity="9.2894798517227173e-01" nType="-99"/>
          </Node>
        </Node>
      </Node>
    </BinaryTree>
    <BinaryTree type="DecisionTree" boostWeight="1.0000000000000000e+00" itree="430">
      <Node pos="s" depth="0" NCoef="0" IVar="3" Cut="5.4305199218750000e+04" cType="1" res="6.0731425881385803e-02" rms="2.6661384105682373e-01" purity="4.9647563695907593e-01" nType="0">
        <Node pos="l" depth="1" NCoef="0" IVar="3" Cut="3.1099044921875000e+04" cType="1" res="3.5196341574192047e-02" rms="2.8512561321258545e-01" purity="2.5264298915863037e-01" nType="0">
          <Node pos="l" depth="2" NCoef="0" IVar="3" Cut="1.6371071289062500e+04" cType="1" res="6.6850385628640652e-03" rms="2.3710636794567108e-01" purity="1.0988962650299072e-01" nType="0">
            <Node pos="l" depth="3" NCoef="0" IVar="-1" Cut="0.0000000000000000e+00" cType="1" res="2.2919725161045790e-03" rms="2.3258693516254425e-01" purity="9.7941815853118896e-02" nType="-99"/>
            <Node pos="r" depth="3" NCoef="0" IVar="-1" Cut="0.0000000000000000e+00" cType="1" res="-2.0109212491661310e-03" rms="2.3906351625919342e-01" purity="1.2432368099689484e-01" nType="-99"/>
          </Node>
          <Node pos="r" depth="2" NCoef="0" IVar="2" Cut="2.8504487500000000e+05" cType="1" res="9.3266546726226807e-02" rms="3.5685375332832336e-01" purity="5.4339486360549927e-01" nType="0">
            <Node pos="l" depth="3" NCoef="0" IVar="-1" Cut="0.0000000000000000e+00" cType="1" res="1.1558618862181902e-03" rms="3.8658934831619263e-01" purity="3.6996975541114807e-01" nType="-99"/>
            <Node pos="r" depth="3" NCoef="0" IVar="-1" Cut="0.0000000000000000e+00" cType="1" res="7.4551487341523170e-04" rms="3.2137346267700195e-01" purity="7.0630568265914917e-01" nType="-99"/>
          </Node>
        </Node>
        <Node pos="r" depth="1" NCoef="0" IVar="1" Cut="1.2527707812500000e+05" cType="1" res="1.0609310865402222e-01" rms="2.2298628091812134e-01" purity="9.2963099479675293e-01" nType="0">
          <Node pos="l" depth="2" NCoef="0" IVar="3" Cut="1.2467404687500000e+05" cType="1" res="8.5322588682174683e-02" rms="2.7435463666915894e-01" purity="8.8839983940124512e-01" nType="0">
            <Node pos="l" depth="3" NCoef="0" IVar="-1" Cut="0.0000000000000000e+00" cType="1" res="6.9372565485537052e-04" rms="3.4274837374687195e-01" purity="8.1838202476501465e-01" nType="-99"/>
            <Node pos="r" depth="3" NCoef="0" IVar="-1" Cut="0.0000000000000000e+00" cType="1" res="1.7080787802115083e-03" rms="1.1878132820129395e-01" purity="9.8562568426132202e-01" nType="-99"/>
          </Node>
          <Node pos="r" depth="2" NCoef="0" IVar="-1" Cut="0.0000000000000000e+00" cType="1" res="2.0537397358566523e-03" rms="1.1184385418891907e-01" purity="9.8735111951828003e-01" nType="-99"/>
        </Node>
      </Node>
    </BinaryTree>
    <BinaryTree type="DecisionTree" boostWeight="1.0000000000000000e+00" itree="431">
      <Node pos="s" depth="0" NCoef="0" IVar="2" Cut="2.4245792187500000e+05" cType="1" res="7.1442089974880219e-02" rms="2.6584157347679138e-01" purity="5.1610958576202393e-01" nType="0">
        <Node pos="l" depth="1" NCoef="0" IVar="1" Cut="5.7518800781250000e+04" cType="1" res="2.4908661842346191e-02" rms="2.5848218798637390e-01" purity="2.9816243052482605e-01" nType="0">
          <Node pos="l" depth="2" NCoef="0" IVar="1" Cut="3.8013359375000000e+04" cType="1" res="9.4641558825969696e-02" rms="3.3216467499732971e-01" purity="5.9569978713989258e-01" nType="0">
            <Node pos="l" depth="3" NCoef="0" IVar="-1" Cut="0.0000000000000000e+00" cType="1" res="-1.0025750380009413e-03" rms="2.4615576863288879e-01" purity="3.7861955165863037e-01" nType="-99"/>
            <Node pos="r" depth="3" NCoef="0" IVar="-1" Cut="0.0000000000000000e+00" cType="1" res="2.4695144966244698e-03" rms="3.5796943306922913e-01" purity="7.7635014057159424e-01" nType="-99"/>
          </Node>
          <Node pos="r" depth="2" NCoef="0" IVar="3" Cut="8.3794734375000000e+04" cType="1" res="-3.5452776501188055e-05" rms="2.2109676897525787e-01" purity="1.9173054397106171e-01" nType="0">
            <Node pos="l" depth="3" NCoef="0" IVar="-1" Cut="0.0000000000000000e+00" cType="1" res="-1.8955643754452467e-03" rms="2.2095021605491638e-01" purity="9.6711806952953339e-02" nType="-99"/>
            <Node pos="r" depth="3" NCoef="0" IVar="-1" Cut="0.0000000000000000e+00" cType="1" res="2.0518079400062561e-03" rms="1.8480041623115540e-01" purity="9.6312069892883301e-01" nType="-99"/>
          </Node>
        </Node>
        <Node pos="r" depth="1" NCoef="0" IVar="1" Cut="1.0045424218750000e+05" cType="1" res="9.7614251077175140e-02" rms="2.6634407043457031e-01" purity="6.3869130611419678e-01" nType="0">
          <Node pos="l" depth="2" NCoef="0" IVar="1" Cut="7.5212062500000000e+04" cType="1" res="6.9054037332534790e-02" rms="2.8607478737831116e-01" purity="3.8994631171226501e-01" nType="0">
            <Node pos="l" depth="3" NCoef="0" IVar="-1" Cut="0.0000000000000000e+00" cType="1" res="2.0211040973663330e-03" rms="3.1102994084358215e-01" purity="8.2704633474349976e-01" nType="-99"/>
            <Node pos="r" depth="3" NCoef="0" IVar="-1" Cut="0.0000000000000000e+00" cType="1" res="1.0772803798317909e-03" rms="2.5967344641685486e-01" purity="2.1389049291610718e-01" nType="-99"/>
          </Node>
          <Node pos="r" depth="2" NCoef="0" IVar="5" Cut="8.9706156250000000e+04" cType="1" res="1.2581115961074829e-01" rms="2.4202856421470642e-01" purity="8.8427209854125977e-01" nType="0">
            <Node pos="l" depth="3" NCoef="0" IVar="-1" Cut="0.0000000000000000e+00" cType="1" res="1.2279595248401165e-03" rms="2.5597366690635681e-01" purity="8.9235043525695801e-01" nType="-99"/>
            <Node pos="r" depth="3" NCoef="0" IVar="-1" Cut="0.0000000000000000e+00" cType="1" res="1.0778802679851651e-03" rms="2.3086489737033844e-01" purity="8.7886345386505127e-01" nType="-99"/>
          </Node>
        </Node>
      </Node>
    </BinaryTree>
    <BinaryTree type="DecisionTree" boostWeight="1.0000000000000000e+00" itree="432">
      <Node pos="s" depth="0" NCoef="0" IVar="1" Cut="1.4545448437500000e+05" cType="1" res="6.3636153936386108e-02" rms="2.7063697576522827e-01" purity="5.0097268819808960e-01" nType="0">
        <Node pos="l" depth="1" NCoef="0" IVar="1" Cut="1.0091897656250000e+05" cType="1" res="4.4764131307601929e-02" rms="2.7564537525177002e-01" purity="3.8845208287239075e-01" nType="0">
          <Node pos="l" depth="2" NCoef="0" IVar="1" Cut="8.3977906250000000e+04" cType="1" res="2.2685902193188667e-02" rms="2.6527991890907288e-01" purity="2.9987162351608276e-01" nType="0">
            <Node pos="l" depth="3" NCoef="0" IVar="-1" Cut="0.0000000000000000e+00" cType="1" res="1.4763529179617763e-03" rms="3.2390028238296509e-01" purity="5.5124533176422119e-01" nType="-99"/>
            <Node pos="r" depth="3" NCoef="0" IVar="-1" Cut="0.0000000000000000e+00" cType="1" res="-9.1055512893944979e-04" rms="2.0591673254966736e-01" purity="1.1519556492567062e-01" nType="-99"/>
          </Node>
          <Node pos="r" depth="2" NCoef="0" IVar="1" Cut="1.0304058593750000e+05" cType="1" res="1.4066903293132782e-01" rms="2.9836380481719971e-01" purity="7.7323371171951294e-01" nType="0">
            <Node pos="l" depth="3" NCoef="0" IVar="-1" Cut="0.0000000000000000e+00" cType="1" res="4.4098021462559700e-03" rms="4.2920991778373718e-01" purity="5.6159234046936035e-01" nType="-99"/>
            <Node pos="r" depth="3" NCoef="0" IVar="-1" Cut="0.0000000000000000e+00" cType="1" res="1.2806117301806808e-03" rms="2.7952650189399719e-01" purity="7.9439479112625122e-01" nType="-99"/>
          </Node>
        </Node>
        <Node pos="r" depth="1" NCoef="0" IVar="0" Cut="3.8095238804817200e-01" cType="1" res="1.3620048761367798e-01" rms="2.3683172464370728e-01" purity="9.3362265825271606e-01" nType="0">
          <Node pos="l" depth="2" NCoef="0" IVar="-1" Cut="0.0000000000000000e+00" cType="1" res="1.4781135832890868e-03" rms="2.6521447300910950e-01" purity="9.2146801948547363e-01" nType="-99"/>
          <Node pos="r" depth="2" NCoef="0" IVar="2" Cut="4.1974587500000000e+05" cType="1" res="1.1251262575387955e-01" rms="2.0971016585826874e-01" purity="9.4284361600875854e-01" nType="0">
            <Node pos="l" depth="3" NCoef="0" IVar="-1" Cut="0.0000000000000000e+00" cType="1" res="1.1265426874160767e-03" rms="2.1588818728923798e-01" purity="9.3385970592498779e-01" nType="-99"/>
            <Node pos="r" depth="3" NCoef="0" IVar="-1" Cut="0.0000000000000000e+00" cType="1" res="1.9049659604206681e-03" rms="2.0412588119506836e-01" purity="9.5073968172073364e-01" nType="-99"/>
          </Node>
        </Node>
      </Node>
    </BinaryTree>
    <BinaryTree type="DecisionTree" boostWeight="1.0000000000000000e+00" itree="433">
      <Node pos="s" depth="0" NCoef="0" IVar="4" Cut="1.7417271875000000e+05" cType="1" res="6.7715704441070557e-02" rms="2.7407640218734741e-01" purity="4.9642467498779297e-01" nType="0">
        <Node pos="l" depth="1" NCoef="0" IVar="3" Cut="2.5839289062500000e+04" cType="1" res="-7.5067011639475822e-03" rms="2.6305243372917175e-01" purity="1.2963058054447174e-01" nType="0">
          <Node pos="l" depth="2" NCoef="0" IVar="2" Cut="1.4976375000000000e+05" cType="1" res="2.2016540169715881e-02" rms="2.4460260570049286e-01" purity="6.9846644997596741e-02" nType="0">
            <Node pos="l" depth="3" NCoef="0" IVar="-1" Cut="0.0000000000000000e+00" cType="1" res="2.9913091566413641e-03" rms="4.1833552718162537e-01" purity="2.6890355348587036e-01" nType="-99"/>
            <Node pos="r" depth="3" NCoef="0" IVar="-1" Cut="0.0000000000000000e+00" cType="1" res="-1.8820519326254725e-03" rms="1.9080573320388794e-01" purity="3.7469532340764999e-02" nType="-99"/>
          </Node>
          <Node pos="r" depth="2" NCoef="0" IVar="4" Cut="1.5798064062500000e+05" cType="1" res="-7.6277799904346466e-02" rms="2.9026570916175842e-01" purity="2.6889058947563171e-01" nType="0">
            <Node pos="l" depth="3" NCoef="0" IVar="-1" Cut="0.0000000000000000e+00" cType="1" res="-1.0797744616866112e-02" rms="2.8328278660774231e-01" purity="1.4337779581546783e-01" nType="-99"/>
            <Node pos="r" depth="3" NCoef="0" IVar="-1" Cut="0.0000000000000000e+00" cType="1" res="-3.0672634602524340e-04" rms="2.8006681799888611e-01" purity="3.9002600312232971e-01" nType="-99"/>
          </Node>
        </Node>
        <Node pos="r" depth="1" NCoef="0" IVar="1" Cut="9.3539578125000000e+04" cType="1" res="7.9982258379459381e-02" rms="2.7388003468513489e-01" purity="5.5623793601989746e-01" nType="0">
          <Node pos="l" depth="2" NCoef="0" IVar="1" Cut="7.8025132812500000e+04" cType="1" res="5.2773382514715195e-02" rms="2.7547535300254822e-01" purity="3.9674746990203857e-01" nType="0">
            <Node pos="l" depth="3" NCoef="0" IVar="-1" Cut="0.0000000000000000e+00" cType="1" res="2.0216759294271469e-03" rms="3.2668966054916382e-01" purity="7.6728528738021851e-01" nType="-99"/>
            <Node pos="r" depth="3" NCoef="0" IVar="-1" Cut="0.0000000000000000e+00" cType="1" res="-1.3398925075307488e-03" rms="2.0800010859966278e-01" purity="1.3431496918201447e-01" nType="-99"/>
          </Node>
          <Node pos="r" depth="2" NCoef="0" IVar="5" Cut="8.9734351562500000e+04" cType="1" res="1.0715028643608093e-01" rms="2.6955121755599976e-01" purity="7.1548902988433838e-01" nType="0">
            <Node pos="l" depth="3" NCoef="0" IVar="-1" Cut="0.0000000000000000e+00" cType="1" res="1.2371675111353397e-03" rms="2.5979095697402954e-01" purity="7.7210229635238647e-01" nType="-99"/>
            <Node pos="r" depth="3" NCoef="0" IVar="-1" Cut="0.0000000000000000e+00" cType="1" res="1.4729637186974287e-03" rms="2.7487525343894958e-01" purity="6.7957127094268799e-01" nType="-99"/>
          </Node>
        </Node>
      </Node>
    </BinaryTree>
    <BinaryTree type="DecisionTree" boostWeight="1.0000000000000000e+00" itree="434">
      <Node pos="s" depth="0" NCoef="0" IVar="3" Cut="6.8736484375000000e+04" cType="1" res="5.7423237711191177e-02" rms="2.5700545310974121e-01" purity="5.0590777397155762e-01" nType="0">
        <Node pos="l" depth="1" NCoef="0" IVar="2" Cut="3.7304403125000000e+05" cType="1" res="3.1231103464961052e-02" rms="2.8064036369323730e-01" purity="2.9816666245460510e-01" nType="0">
          <Node pos="l" depth="2" NCoef="0" IVar="1" Cut="6.9942117187500000e+04" cType="1" res="1.4875472523272038e-02" rms="2.7221184968948364e-01" purity="2.1750505268573761e-01" nType="0">
            <Node pos="l" depth="3" NCoef="0" IVar="-1" Cut="0.0000000000000000e+00" cType="1" res="1.6350030200555921e-03" rms="3.9051198959350586e-01" purity="4.4842690229415894e-01" nType="-99"/>
            <Node pos="r" depth="3" NCoef="0" IVar="-1" Cut="0.0000000000000000e+00" cType="1" res="-2.1281682711560279e-04" rms="2.3192663490772247e-01" purity="1.6350021958351135e-01" nType="-99"/>
          </Node>
          <Node pos="r" depth="2" NCoef="0" IVar="1" Cut="9.6552460937500000e+04" cType="1" res="8.9324720203876495e-02" rms="3.0163699388504028e-01" purity="5.8466887474060059e-01" nType="0">
            <Node pos="l" depth="3" NCoef="0" IVar="-1" Cut="0.0000000000000000e+00" cType="1" res="1.3007821980863810e-03" rms="2.9136547446250916e-01" purity="2.3641948401927948e-01" nType="-99"/>
            <Node pos="r" depth="3" NCoef="0" IVar="-1" Cut="0.0000000000000000e+00" cType="1" res="1.0240633273497224e-03" rms="3.0262395739555359e-01" purity="8.0473232269287109e-01" nType="-99"/>
          </Node>
        </Node>
        <Node pos="r" depth="1" NCoef="0" IVar="2" Cut="3.2180981250000000e+05" cType="1" res="1.1504637449979782e-01" rms="1.8238981068134308e-01" purity="9.6294164657592773e-01" nType="0">
          <Node pos="l" depth="2" NCoef="0" IVar="1" Cut="9.3955640625000000e+04" cType="1" res="9.5006152987480164e-02" rms="2.4234676361083984e-01" purity="9.3346190452575684e-01" nType="0">
            <Node pos="l" depth="3" NCoef="0" IVar="-1" Cut="0.0000000000000000e+00" cType="1" res="1.3323409948498011e-03" rms="2.7202013134956360e-01" purity="9.1262590885162354e-01" nType="-99"/>
            <Node pos="r" depth="3" NCoef="0" IVar="-1" Cut="0.0000000000000000e+00" cType="1" res="1.8541543977335095e-03" rms="1.7425478994846344e-01" purity="9.6894717216491699e-01" nType="-99"/>
          </Node>
          <Node pos="r" depth="2" NCoef="0" IVar="4" Cut="4.2469706250000000e+05" cType="1" res="1.2861447036266327e-01" rms="1.2477384507656097e-01" purity="9.8290061950683594e-01" nType="0">
            <Node pos="l" depth="3" NCoef="0" IVar="-1" Cut="0.0000000000000000e+00" cType="1" res="8.8029919425025582e-04" rms="8.6358733475208282e-02" purity="9.9189734458923340e-01" nType="-99"/>
            <Node pos="r" depth="3" NCoef="0" IVar="-1" Cut="0.0000000000000000e+00" cType="1" res="1.8003328004851937e-03" rms="1.4317950606346130e-01" purity="9.7730177640914917e-01" nType="-99"/>
          </Node>
        </Node>
      </Node>
    </BinaryTree>
    <BinaryTree type="DecisionTree" boostWeight="1.0000000000000000e+00" itree="435">
      <Node pos="s" depth="0" NCoef="0" IVar="1" Cut="1.0043197656250000e+05" cType="1" res="6.1860304325819016e-02" rms="2.6667135953903198e-01" purity="4.9872839450836182e-01" nType="0">
        <Node pos="l" depth="1" NCoef="0" IVar="1" Cut="7.5183812500000000e+04" cType="1" res="3.3134479075670242e-02" rms="2.7396830916404724e-01" purity="2.9765233397483826e-01" nType="0">
          <Node pos="l" depth="2" NCoef="0" IVar="4" Cut="1.3717231250000000e+05" cType="1" res="1.1441508680582047e-01" rms="3.5309097170829773e-01" purity="6.3213127851486206e-01" nType="0">
            <Node pos="l" depth="3" NCoef="0" IVar="-1" Cut="0.0000000000000000e+00" cType="1" res="-5.6860949844121933e-03" rms="2.8610032796859741e-01" purity="1.4525878429412842e-01" nType="-99"/>
            <Node pos="r" depth="3" NCoef="0" IVar="-1" Cut="0.0000000000000000e+00" cType="1" res="2.1670006681233644e-03" rms="3.5353332757949829e-01" purity="6.8535536527633667e-01" nType="-99"/>
          </Node>
          <Node pos="r" depth="2" NCoef="0" IVar="3" Cut="7.5616148437500000e+04" cType="1" res="-4.4820536859333515e-03" rms="2.1823054552078247e-01" purity="1.4285604655742645e-01" nType="0">
            <Node pos="l" depth="3" NCoef="0" IVar="-1" Cut="0.0000000000000000e+00" cType="1" res="-1.7611153889447451e-03" rms="2.0735910534858704e-01" purity="7.6074890792369843e-02" nType="-99"/>
            <Node pos="r" depth="3" NCoef="0" IVar="-1" Cut="0.0000000000000000e+00" cType="1" res="9.6053193556144834e-04" rms="3.0364146828651428e-01" purity="8.8904660940170288e-01" nType="-99"/>
          </Node>
        </Node>
        <Node pos="r" depth="1" NCoef="0" IVar="2" Cut="3.1898428125000000e+05" cType="1" res="1.1296953260898590e-01" rms="2.4497817456722260e-01" purity="8.5648459196090698e-01" nType="0">
          <Node pos="l" depth="2" NCoef="0" IVar="3" Cut="3.9606507812500000e+04" cType="1" res="7.5716927647590637e-02" rms="2.8053399920463562e-01" purity="7.2959131002426147e-01" nType="0">
            <Node pos="l" depth="3" NCoef="0" IVar="-1" Cut="0.0000000000000000e+00" cType="1" res="-8.9835422113537788e-04" rms="3.7707033753395081e-01" purity="2.7669861912727356e-01" nType="-99"/>
            <Node pos="r" depth="3" NCoef="0" IVar="-1" Cut="0.0000000000000000e+00" cType="1" res="1.4722270425409079e-03" rms="2.0051442086696625e-01" purity="9.4789326190948486e-01" nType="-99"/>
          </Node>
          <Node pos="r" depth="2" NCoef="0" IVar="4" Cut="3.7829037500000000e+05" cType="1" res="1.2928867340087891e-01" rms="2.2573162615299225e-01" purity="9.1207230091094971e-01" nType="0">
            <Node pos="l" depth="3" NCoef="0" IVar="-1" Cut="0.0000000000000000e+00" cType="1" res="1.2192553840577602e-03" rms="2.5542622804641724e-01" purity="8.8217198848724365e-01" nType="-99"/>
            <Node pos="r" depth="3" NCoef="0" IVar="-1" Cut="0.0000000000000000e+00" cType="1" res="1.8364192219451070e-03" rms="2.0376281440258026e-01" purity="9.2987143993377686e-01" nType="-99"/>
          </Node>
        </Node>
      </Node>
    </BinaryTree>
    <BinaryTree type="DecisionTree" boostWeight="1.0000000000000000e+00" itree="436">
      <Node pos="s" depth="0" NCoef="0" IVar="3" Cut="4.8721656250000000e+04" cType="1" res="5.2933391183614731e-02" rms="2.5860488414764404e-01" purity="4.9914246797561646e-01" nType="0">
        <Node pos="l" depth="1" NCoef="0" IVar="1" Cut="1.7489954687500000e+05" cType="1" res="1.1629467830061913e-02" rms="2.7112579345703125e-01" purity="1.7668086290359497e-01" nType="0">
          <Node pos="l" depth="2" NCoef="0" IVar="1" Cut="8.1787179687500000e+04" cType="1" res="6.2499814666807652e-03" rms="2.6048797369003296e-01" purity="1.2793634831905365e-01" nType="0">
            <Node pos="l" depth="3" NCoef="0" IVar="-1" Cut="0.0000000000000000e+00" cType="1" res="1.4477104414254427e-03" rms="3.7098726630210876e-01" purity="2.7669122815132141e-01" nType="-99"/>
            <Node pos="r" depth="3" NCoef="0" IVar="-1" Cut="0.0000000000000000e+00" cType="1" res="-1.2576065491884947e-03" rms="2.1219815313816071e-01" purity="8.1337243318557739e-02" nType="-99"/>
          </Node>
          <Node pos="r" depth="2" NCoef="0" IVar="-1" Cut="0.0000000000000000e+00" cType="1" res="8.4760971367359161e-04" rms="3.7594720721244812e-01" purity="8.0612426996231079e-01" nType="-99"/>
        </Node>
        <Node pos="r" depth="1" NCoef="0" IVar="2" Cut="2.0304935937500000e+05" cType="1" res="1.0635278373956680e-01" rms="2.3073403537273407e-01" purity="9.1619008779525757e-01" nType="0">
          <Node pos="l" depth="2" NCoef="0" IVar="0" Cut="2.8571429848670959e-01" cType="1" res="3.9620343595743179e-02" rms="3.1457245349884033e-01" purity="8.2249325513839722e-01" nType="0">
            <Node pos="l" depth="3" NCoef="0" IVar="-1" Cut="0.0000000000000000e+00" cType="1" res="1.8282620003446937e-03" rms="2.6841565966606140e-01" purity="8.6010462045669556e-01" nType="-99"/>
            <Node pos="r" depth="3" NCoef="0" IVar="-1" Cut="0.0000000000000000e+00" cType="1" res="-3.8046692498028278e-04" rms="3.4704342484474182e-01" purity="7.8382796049118042e-01" nType="-99"/>
          </Node>
          <Node pos="r" depth="2" NCoef="0" IVar="3" Cut="9.5024445312500000e+04" cType="1" res="1.1370683461427689e-01" rms="2.1830067038536072e-01" purity="9.2651569843292236e-01" nType="0">
            <Node pos="l" depth="3" NCoef="0" IVar="-1" Cut="0.0000000000000000e+00" cType="1" res="9.9540827795863152e-04" rms="2.9749026894569397e-01" purity="8.5447031259536743e-01" nType="-99"/>
            <Node pos="r" depth="3" NCoef="0" IVar="-1" Cut="0.0000000000000000e+00" cType="1" res="1.8346466822549701e-03" rms="1.1523494869470596e-01" purity="9.8655754327774048e-01" nType="-99"/>
          </Node>
        </Node>
      </Node>
    </BinaryTree>
    <BinaryTree type="DecisionTree" boostWeight="1.0000000000000000e+00" itree="437">
      <Node pos="s" depth="0" NCoef="0" IVar="1" Cut="1.0034389062500000e+05" cType="1" res="5.8011054992675781e-02" rms="2.6503798365592957e-01" purity="4.9347904324531555e-01" nType="0">
        <Node pos="l" depth="1" NCoef="0" IVar="3" Cut="7.5666039062500000e+04" cType="1" res="2.1445048972964287e-02" rms="2.6125431060791016e-01" purity="2.8571072220802307e-01" nType="0">
          <Node pos="l" depth="2" NCoef="0" IVar="3" Cut="6.4882128906250000e+04" cType="1" res="5.8366637676954269e-03" rms="2.6623216271400452e-01" purity="1.5040133893489838e-01" nType="0">
            <Node pos="l" depth="3" NCoef="0" IVar="-1" Cut="0.0000000000000000e+00" cType="1" res="-2.8138919151388109e-04" rms="2.5761729478836060e-01" purity="1.1123735457658768e-01" nType="-99"/>
            <Node pos="r" depth="3" NCoef="0" IVar="-1" Cut="0.0000000000000000e+00" cType="1" res="1.0310811921954155e-03" rms="3.5601776838302612e-01" purity="8.4177434444427490e-01" nType="-99"/>
          </Node>
          <Node pos="r" depth="2" NCoef="0" IVar="3" Cut="1.0981499218750000e+05" cType="1" res="9.7511306405067444e-02" rms="2.2019113600254059e-01" purity="9.4513052701950073e-01" nType="0">
            <Node pos="l" depth="3" NCoef="0" IVar="-1" Cut="0.0000000000000000e+00" cType="1" res="9.6481799846515059e-04" rms="3.1356790661811829e-01" purity="8.8374024629592896e-01" nType="-99"/>
            <Node pos="r" depth="3" NCoef="0" IVar="-1" Cut="0.0000000000000000e+00" cType="1" res="2.2642845287919044e-03" rms="1.3415068387985229e-01" purity="9.8137986660003662e-01" nType="-99"/>
          </Node>
        </Node>
        <Node pos="r" depth="1" NCoef="0" IVar="4" Cut="2.1010882812500000e+05" cType="1" res="1.2164682894945145e-01" rms="2.5948837399482727e-01" purity="8.5505813360214233e-01" nType="0">
          <Node pos="l" depth="2" NCoef="0" IVar="2" Cut="2.3328196875000000e+05" cType="1" res="3.8490276783704758e-02" rms="2.8287491202354431e-01" purity="5.2996408939361572e-01" nType="0">
            <Node pos="l" depth="3" NCoef="0" IVar="-1" Cut="0.0000000000000000e+00" cType="1" res="1.1723090428858995e-03" rms="2.7913171052932739e-01" purity="4.7369033098220825e-01" nType="-99"/>
            <Node pos="r" depth="3" NCoef="0" IVar="-1" Cut="0.0000000000000000e+00" cType="1" res="3.1378865242004395e-04" rms="2.8277516365051270e-01" purity="5.6851434707641602e-01" nType="-99"/>
          </Node>
          <Node pos="r" depth="2" NCoef="0" IVar="1" Cut="1.8448895312500000e+05" cType="1" res="1.2859056890010834e-01" rms="2.5622147321701050e-01" purity="8.8220399618148804e-01" nType="0">
            <Node pos="l" depth="3" NCoef="0" IVar="-1" Cut="0.0000000000000000e+00" cType="1" res="1.5416645910590887e-03" rms="2.7335131168365479e-01" purity="8.5017621517181396e-01" nType="-99"/>
            <Node pos="r" depth="3" NCoef="0" IVar="-1" Cut="0.0000000000000000e+00" cType="1" res="1.0032334830611944e-03" rms="2.2418688237667084e-01" purity="9.3267554044723511e-01" nType="-99"/>
          </Node>
        </Node>
      </Node>
    </BinaryTree>
    <BinaryTree type="DecisionTree" boostWeight="1.0000000000000000e+00" itree="438">
      <Node pos="s" depth="0" NCoef="0" IVar="3" Cut="4.8721656250000000e+04" cType="1" res="5.4349284619092941e-02" rms="2.7192193269729614e-01" purity="4.8591744899749756e-01" nType="0">
        <Node pos="l" depth="1" NCoef="0" IVar="4" Cut="2.5551018750000000e+05" cType="1" res="2.5589730590581894e-02" rms="2.8702968358993530e-01" purity="1.9890448451042175e-01" nType="0">
          <Node pos="l" depth="2" NCoef="0" IVar="0" Cut="2.3809523880481720e-01" cType="1" res="-1.5316334320232272e-03" rms="2.3994505405426025e-01" purity="1.0244004428386688e-01" nType="0">
            <Node pos="l" depth="3" NCoef="0" IVar="-1" Cut="0.0000000000000000e+00" cType="1" res="1.2699830112978816e-03" rms="2.5238594412803650e-01" purity="1.1489353328943253e-01" nType="-99"/>
            <Node pos="r" depth="3" NCoef="0" IVar="-1" Cut="0.0000000000000000e+00" cType="1" res="-7.9836947843432426e-03" rms="1.7926947772502899e-01" purity="5.8052718639373779e-02" nType="-99"/>
          </Node>
          <Node pos="r" depth="2" NCoef="0" IVar="2" Cut="5.2543643750000000e+05" cType="1" res="6.5625540912151337e-02" rms="3.4106415510177612e-01" purity="3.4130260348320007e-01" nType="0">
            <Node pos="l" depth="3" NCoef="0" IVar="-1" Cut="0.0000000000000000e+00" cType="1" res="1.4363166410475969e-03" rms="3.4566798806190491e-01" purity="3.4016257524490356e-01" nType="-99"/>
            <Node pos="r" depth="3" NCoef="0" IVar="-1" Cut="0.0000000000000000e+00" cType="1" res="-2.7769587468355894e-03" rms="2.7200978994369507e-01" purity="3.4957969188690186e-01" nType="-99"/>
          </Node>
        </Node>
        <Node pos="r" depth="1" NCoef="0" IVar="1" Cut="1.2527707812500000e+05" cType="1" res="9.6107952296733856e-02" rms="2.4235390126705170e-01" purity="9.0265822410583496e-01" nType="0">
          <Node pos="l" depth="2" NCoef="0" IVar="3" Cut="7.9377171875000000e+04" cType="1" res="7.1997284889221191e-02" rms="2.9336881637573242e-01" purity="8.4592014551162720e-01" nType="0">
            <Node pos="l" depth="3" NCoef="0" IVar="-1" Cut="0.0000000000000000e+00" cType="1" res="2.0081942784599960e-04" rms="4.0507075190544128e-01" purity="6.5317827463150024e-01" nType="-99"/>
            <Node pos="r" depth="3" NCoef="0" IVar="-1" Cut="0.0000000000000000e+00" cType="1" res="1.6367096686735749e-03" rms="1.9238473474979401e-01" purity="9.5927780866622925e-01" nType="-99"/>
          </Node>
          <Node pos="r" depth="2" NCoef="0" IVar="-1" Cut="0.0000000000000000e+00" cType="1" res="1.5907044289633632e-03" rms="1.4073325693607330e-01" purity="9.7962027788162231e-01" nType="-99"/>
        </Node>
      </Node>
    </BinaryTree>
    <BinaryTree type="DecisionTree" boostWeight="1.0000000000000000e+00" itree="439">
      <Node pos="s" depth="0" NCoef="0" IVar="3" Cut="7.5659101562500000e+04" cType="1" res="6.5034210681915283e-02" rms="2.7411115169525146e-01" purity="4.9668204784393311e-01" nType="0">
        <Node pos="l" depth="1" NCoef="0" IVar="1" Cut="8.3927703125000000e+04" cType="1" res="4.5068655163049698e-02" rms="3.0242595076560974e-01" purity="3.1843096017837524e-01" nType="0">
          <Node pos="l" depth="2" NCoef="0" IVar="1" Cut="7.0225914062500000e+04" cType="1" res="9.7149826586246490e-02" rms="3.9048722386360168e-01" purity="3.8572829961776733e-01" nType="0">
            <Node pos="l" depth="3" NCoef="0" IVar="-1" Cut="0.0000000000000000e+00" cType="1" res="2.5423048064112663e-03" rms="4.2299392819404602e-01" purity="4.9902421236038208e-01" nType="-99"/>
            <Node pos="r" depth="3" NCoef="0" IVar="-1" Cut="0.0000000000000000e+00" cType="1" res="4.5327993575483561e-05" rms="2.9965811967849731e-01" purity="1.7840920388698578e-01" nType="-99"/>
          </Node>
          <Node pos="r" depth="2" NCoef="0" IVar="2" Cut="3.3252575000000000e+05" cType="1" res="2.5847760960459709e-02" rms="2.5994533300399780e-01" purity="2.9359441995620728e-01" nType="0">
            <Node pos="l" depth="3" NCoef="0" IVar="-1" Cut="0.0000000000000000e+00" cType="1" res="-2.7112953830510378e-04" rms="2.2805152833461761e-01" purity="1.4931200444698334e-01" nType="-99"/>
            <Node pos="r" depth="3" NCoef="0" IVar="-1" Cut="0.0000000000000000e+00" cType="1" res="8.9925300562754273e-04" rms="3.0301290750503540e-01" purity="5.6283921003341675e-01" nType="-99"/>
          </Node>
        </Node>
        <Node pos="r" depth="1" NCoef="0" IVar="0" Cut="3.8095238804817200e-01" cType="1" res="1.1805375665426254e-01" rms="1.6708277165889740e-01" purity="9.7003686428070068e-01" nType="0">
          <Node pos="l" depth="2" NCoef="0" IVar="5" Cut="9.0658437500000000e+04" cType="1" res="0.0000000000000000e+00" rms="0.0000000000000000e+00" purity="9.8246222734451294e-01" nType="0">
            <Node pos="l" depth="3" NCoef="0" IVar="-1" Cut="0.0000000000000000e+00" cType="1" res="2.1466473117470741e-03" rms="1.7861855030059814e-01" purity="9.6607297658920288e-01" nType="-99"/>
            <Node pos="r" depth="3" NCoef="0" IVar="-1" Cut="0.0000000000000000e+00" cType="1" res="1.6949458513408899e-03" rms="8.7949424982070923e-02" purity="9.9185389280319214e-01" nType="-99"/>
          </Node>
          <Node pos="r" depth="2" NCoef="0" IVar="1" Cut="1.0329192187500000e+05" cType="1" res="1.1046065390110016e-01" rms="1.8361203372478485e-01" purity="9.6347934007644653e-01" nType="0">
            <Node pos="l" depth="3" NCoef="0" IVar="-1" Cut="0.0000000000000000e+00" cType="1" res="1.1603782186284661e-03" rms="2.3800741136074066e-01" purity="9.3657356500625610e-01" nType="-99"/>
            <Node pos="r" depth="3" NCoef="0" IVar="-1" Cut="0.0000000000000000e+00" cType="1" res="1.0721447179093957e-03" rms="1.2720540165901184e-01" purity="9.8356622457504272e-01" nType="-99"/>
          </Node>
        </Node>
      </Node>
    </BinaryTree>
    <BinaryTree type="DecisionTree" boostWeight="1.0000000000000000e+00" itree="440">
      <Node pos="s" depth="0" NCoef="0" IVar="1" Cut="1.0035560937500000e+05" cType="1" res="6.2697581946849823e-02" rms="2.7559816837310791e-01" purity="5.0722384452819824e-01" nType="0">
        <Node pos="l" depth="1" NCoef="0" IVar="1" Cut="8.3522750000000000e+04" cType="1" res="3.4849416464567184e-02" rms="2.7136275172233582e-01" purity="3.3306178450584412e-01" nType="0">
          <Node pos="l" depth="2" NCoef="0" IVar="1" Cut="4.2659937500000000e+04" cType="1" res="9.0269863605499268e-02" rms="3.2240012288093567e-01" purity="6.1508846282958984e-01" nType="0">
            <Node pos="l" depth="3" NCoef="0" IVar="-1" Cut="0.0000000000000000e+00" cType="1" res="2.9032610473223031e-04" rms="2.6090267300605774e-01" purity="5.5429792404174805e-01" nType="-99"/>
            <Node pos="r" depth="3" NCoef="0" IVar="-1" Cut="0.0000000000000000e+00" cType="1" res="2.0735980942845345e-03" rms="3.3880946040153503e-01" purity="6.3900607824325562e-01" nType="-99"/>
          </Node>
          <Node pos="r" depth="2" NCoef="0" IVar="2" Cut="4.4456209375000000e+05" cType="1" res="-9.8319491371512413e-03" rms="2.1150206029415131e-01" purity="1.0568474233150482e-01" nType="0">
            <Node pos="l" depth="3" NCoef="0" IVar="-1" Cut="0.0000000000000000e+00" cType="1" res="-2.4318316718563437e-04" rms="2.1207781136035919e-01" purity="1.0963729768991470e-01" nType="-99"/>
            <Node pos="r" depth="3" NCoef="0" IVar="-1" Cut="0.0000000000000000e+00" cType="1" res="-2.3932546377182007e-02" rms="1.7784965038299561e-01" purity="5.1214791834354401e-02" nType="-99"/>
          </Node>
        </Node>
        <Node pos="r" depth="1" NCoef="0" IVar="3" Cut="2.6162103515625000e+04" cType="1" res="1.1679866164922714e-01" rms="2.7571961283683777e-01" purity="8.4557133913040161e-01" nType="0">
          <Node pos="l" depth="2" NCoef="0" IVar="5" Cut="9.1438398437500000e+04" cType="1" res="6.2081187963485718e-02" rms="4.5202785730361938e-01" purity="4.1611629724502563e-01" nType="0">
            <Node pos="l" depth="3" NCoef="0" IVar="-1" Cut="0.0000000000000000e+00" cType="1" res="-4.8759451601654291e-04" rms="3.9110767841339111e-01" purity="3.7215119600296021e-01" nType="-99"/>
            <Node pos="r" depth="3" NCoef="0" IVar="-1" Cut="0.0000000000000000e+00" cType="1" res="4.9818078987300396e-03" rms="5.0445073843002319e-01" purity="4.8129922151565552e-01" nType="-99"/>
          </Node>
          <Node pos="r" depth="2" NCoef="0" IVar="0" Cut="1.1428571939468384e+00" cType="1" res="1.2764975428581238e-01" rms="2.2330455482006073e-01" purity="9.3073713779449463e-01" nType="0">
            <Node pos="l" depth="3" NCoef="0" IVar="-1" Cut="0.0000000000000000e+00" cType="1" res="1.5967560466378927e-03" rms="2.2538709640502930e-01" purity="9.2700046300888062e-01" nType="-99"/>
            <Node pos="r" depth="3" NCoef="0" IVar="-1" Cut="0.0000000000000000e+00" cType="1" res="1.0467446409165859e-03" rms="2.1763427555561066e-01" purity="9.3912017345428467e-01" nType="-99"/>
          </Node>
        </Node>
      </Node>
    </BinaryTree>
    <BinaryTree type="DecisionTree" boostWeight="1.0000000000000000e+00" itree="441">
      <Node pos="s" depth="0" NCoef="0" IVar="1" Cut="1.0034835937500000e+05" cType="1" res="6.5623886883258820e-02" rms="2.6881772279739380e-01" purity="5.0794184207916260e-01" nType="0">
        <Node pos="l" depth="1" NCoef="0" IVar="1" Cut="7.5107859375000000e+04" cType="1" res="2.6388283818960190e-02" rms="2.6802805066108704e-01" purity="2.8687363862991333e-01" nType="0">
          <Node pos="l" depth="2" NCoef="0" IVar="1" Cut="2.1020962890625000e+04" cType="1" res="8.6694195866584778e-02" rms="3.3873024582862854e-01" purity="6.2563973665237427e-01" nType="0">
            <Node pos="l" depth="3" NCoef="0" IVar="-1" Cut="0.0000000000000000e+00" cType="1" res="-9.0998485684394836e-02" rms="1.8683423101902008e-01" purity="0.0000000000000000e+00" nType="-99"/>
            <Node pos="r" depth="3" NCoef="0" IVar="-1" Cut="0.0000000000000000e+00" cType="1" res="1.8250934081152081e-03" rms="3.3983844518661499e-01" purity="6.6805195808410645e-01" nType="-99"/>
          </Node>
          <Node pos="r" depth="2" NCoef="0" IVar="3" Cut="8.4967171875000000e+04" cType="1" res="8.6114980513229966e-04" rms="2.2691190242767334e-01" purity="1.4347596466541290e-01" nType="0">
            <Node pos="l" depth="3" NCoef="0" IVar="-1" Cut="0.0000000000000000e+00" cType="1" res="-7.3775759665295482e-04" rms="2.2353881597518921e-01" purity="8.6302816867828369e-02" nType="-99"/>
            <Node pos="r" depth="3" NCoef="0" IVar="-1" Cut="0.0000000000000000e+00" cType="1" res="1.5592537820339203e-03" rms="2.4637457728385925e-01" purity="9.3370336294174194e-01" nType="-99"/>
          </Node>
        </Node>
        <Node pos="r" depth="1" NCoef="0" IVar="3" Cut="2.4201152343750000e+04" cType="1" res="1.2831792235374451e-01" rms="2.5797286629676819e-01" purity="8.6118370294570923e-01" nType="0">
          <Node pos="l" depth="2" NCoef="0" IVar="3" Cut="1.0458106445312500e+04" cType="1" res="7.4977248907089233e-02" rms="4.0560132265090942e-01" purity="4.3925791978836060e-01" nType="0">
            <Node pos="l" depth="3" NCoef="0" IVar="-1" Cut="0.0000000000000000e+00" cType="1" res="-5.7488169521093369e-02" rms="1.1581254750490189e-01" purity="0.0000000000000000e+00" nType="-99"/>
            <Node pos="r" depth="3" NCoef="0" IVar="-1" Cut="0.0000000000000000e+00" cType="1" res="2.1567405201494694e-03" rms="4.4059768319129944e-01" purity="5.5898422002792358e-01" nType="-99"/>
          </Node>
          <Node pos="r" depth="2" NCoef="0" IVar="4" Cut="3.6894456250000000e+05" cType="1" res="1.3750419020652771e-01" rms="2.2159565985202789e-01" purity="9.3384730815887451e-01" nType="0">
            <Node pos="l" depth="3" NCoef="0" IVar="-1" Cut="0.0000000000000000e+00" cType="1" res="1.0556022170931101e-03" rms="2.5455504655838013e-01" purity="9.0843367576599121e-01" nType="-99"/>
            <Node pos="r" depth="3" NCoef="0" IVar="-1" Cut="0.0000000000000000e+00" cType="1" res="1.2261936208233237e-03" rms="1.8476592004299164e-01" purity="9.5640110969543457e-01" nType="-99"/>
          </Node>
        </Node>
      </Node>
    </BinaryTree>
    <BinaryTree type="DecisionTree" boostWeight="1.0000000000000000e+00" itree="442">
      <Node pos="s" depth="0" NCoef="0" IVar="3" Cut="5.6117492187500000e+04" cType="1" res="6.1406750231981277e-02" rms="2.7034714818000793e-01" purity="5.0074732303619385e-01" nType="0">
        <Node pos="l" depth="1" NCoef="0" IVar="2" Cut="4.3749693750000000e+05" cType="1" res="3.3958323299884796e-02" rms="2.9677861928939819e-01" purity="2.5186085700988770e-01" nType="0">
          <Node pos="l" depth="2" NCoef="0" IVar="2" Cut="3.1176862500000000e+05" cType="1" res="2.1576970815658569e-02" rms="2.8291493654251099e-01" purity="1.9981537759304047e-01" nType="0">
            <Node pos="l" depth="3" NCoef="0" IVar="-1" Cut="0.0000000000000000e+00" cType="1" res="7.4492412386462092e-04" rms="2.7091124653816223e-01" purity="1.3885244727134705e-01" nType="-99"/>
            <Node pos="r" depth="3" NCoef="0" IVar="-1" Cut="0.0000000000000000e+00" cType="1" res="1.3652424095198512e-03" rms="3.1764647364616394e-01" purity="4.1338092088699341e-01" nType="-99"/>
          </Node>
          <Node pos="r" depth="2" NCoef="0" IVar="2" Cut="5.0430618750000000e+05" cType="1" res="1.1184846609830856e-01" rms="3.6277329921722412e-01" purity="5.7927489280700684e-01" nType="0">
            <Node pos="l" depth="3" NCoef="0" IVar="-1" Cut="0.0000000000000000e+00" cType="1" res="5.8706533163785934e-03" rms="4.5389485359191895e-01" purity="5.7946592569351196e-01" nType="-99"/>
            <Node pos="r" depth="3" NCoef="0" IVar="-1" Cut="0.0000000000000000e+00" cType="1" res="7.1097025647759438e-04" rms="2.6369169354438782e-01" purity="5.7915234565734863e-01" nType="-99"/>
          </Node>
        </Node>
        <Node pos="r" depth="1" NCoef="0" IVar="3" Cut="8.1450312500000000e+04" cType="1" res="1.0977227985858917e-01" rms="2.0738299190998077e-01" purity="9.3929803371429443e-01" nType="0">
          <Node pos="l" depth="2" NCoef="0" IVar="3" Cut="6.3364355468750000e+04" cType="1" res="8.8031202554702759e-02" rms="3.1077411770820618e-01" purity="8.4767627716064453e-01" nType="0">
            <Node pos="l" depth="3" NCoef="0" IVar="-1" Cut="0.0000000000000000e+00" cType="1" res="3.4373757080174983e-04" rms="3.9312508702278137e-01" purity="6.9535404443740845e-01" nType="-99"/>
            <Node pos="r" depth="3" NCoef="0" IVar="-1" Cut="0.0000000000000000e+00" cType="1" res="1.2255831388756633e-03" rms="2.7615648508071899e-01" purity="8.9729523658752441e-01" nType="-99"/>
          </Node>
          <Node pos="r" depth="2" NCoef="0" IVar="1" Cut="9.5278476562500000e+04" cType="1" res="1.1907552182674408e-01" rms="1.4069284498691559e-01" purity="9.7850400209426880e-01" nType="0">
            <Node pos="l" depth="3" NCoef="0" IVar="-1" Cut="0.0000000000000000e+00" cType="1" res="1.5573612181469798e-03" rms="1.8274806439876556e-01" purity="9.6232694387435913e-01" nType="-99"/>
            <Node pos="r" depth="3" NCoef="0" IVar="-1" Cut="0.0000000000000000e+00" cType="1" res="1.7173333326354623e-03" rms="9.9651455879211426e-02" purity="9.8988628387451172e-01" nType="-99"/>
          </Node>
        </Node>
      </Node>
    </BinaryTree>
    <BinaryTree type="DecisionTree" boostWeight="1.0000000000000000e+00" itree="443">
      <Node pos="s" depth="0" NCoef="0" IVar="3" Cut="4.4524941406250000e+04" cType="1" res="5.2982341498136520e-02" rms="2.5262549519538879e-01" purity="5.0296485424041748e-01" nType="0">
        <Node pos="l" depth="1" NCoef="0" IVar="4" Cut="3.7022737500000000e+05" cType="1" res="6.0982331633567810e-03" rms="2.5970906019210815e-01" purity="1.5477155148983002e-01" nType="0">
          <Node pos="l" depth="2" NCoef="0" IVar="1" Cut="1.1348081250000000e+05" cType="1" res="-1.5848238253965974e-03" rms="2.3578615486621857e-01" purity="1.1744005978107452e-01" nType="0">
            <Node pos="l" depth="3" NCoef="0" IVar="-1" Cut="0.0000000000000000e+00" cType="1" res="-2.3766832891851664e-03" rms="1.9798451662063599e-01" purity="5.4659117013216019e-02" nType="-99"/>
            <Node pos="r" depth="3" NCoef="0" IVar="-1" Cut="0.0000000000000000e+00" cType="1" res="1.4362540096044540e-03" rms="4.3312150239944458e-01" purity="6.5958613157272339e-01" nType="-99"/>
          </Node>
          <Node pos="r" depth="2" NCoef="0" IVar="3" Cut="3.6085730468750000e+04" cType="1" res="4.4770959764719009e-02" rms="3.5400810837745667e-01" purity="3.4267991781234741e-01" nType="0">
            <Node pos="l" depth="3" NCoef="0" IVar="-1" Cut="0.0000000000000000e+00" cType="1" res="2.4347465950995684e-03" rms="3.5027927160263062e-01" purity="3.5151252150535583e-01" nType="-99"/>
            <Node pos="r" depth="3" NCoef="0" IVar="-1" Cut="0.0000000000000000e+00" cType="1" res="-6.1943987384438515e-03" rms="3.1995517015457153e-01" purity="2.7913510799407959e-01" nType="-99"/>
          </Node>
        </Node>
        <Node pos="r" depth="1" NCoef="0" IVar="1" Cut="1.0059082812500000e+05" cType="1" res="1.0619699209928513e-01" rms="2.3318177461624146e-01" purity="8.9817321300506592e-01" nType="0">
          <Node pos="l" depth="2" NCoef="0" IVar="1" Cut="7.9558453125000000e+04" cType="1" res="8.8714659214019775e-02" rms="2.7768033742904663e-01" purity="8.3375120162963867e-01" nType="0">
            <Node pos="l" depth="3" NCoef="0" IVar="-1" Cut="0.0000000000000000e+00" cType="1" res="1.8483685562387109e-03" rms="2.2166287899017334e-01" purity="9.4142264127731323e-01" nType="-99"/>
            <Node pos="r" depth="3" NCoef="0" IVar="-1" Cut="0.0000000000000000e+00" cType="1" res="-5.6864519137889147e-04" rms="3.5520881414413452e-01" purity="5.7149940729141235e-01" nType="-99"/>
          </Node>
          <Node pos="r" depth="2" NCoef="0" IVar="5" Cut="9.0618523437500000e+04" cType="1" res="1.2493584305047989e-01" rms="1.7125563323497772e-01" purity="9.6722537279129028e-01" nType="0">
            <Node pos="l" depth="3" NCoef="0" IVar="-1" Cut="0.0000000000000000e+00" cType="1" res="1.3586381683126092e-03" rms="1.8048655986785889e-01" purity="9.6257472038269043e-01" nType="-99"/>
            <Node pos="r" depth="3" NCoef="0" IVar="-1" Cut="0.0000000000000000e+00" cType="1" res="1.3852304546162486e-03" rms="1.6209828853607178e-01" purity="9.7135901451110840e-01" nType="-99"/>
          </Node>
        </Node>
      </Node>
    </BinaryTree>
    <BinaryTree type="DecisionTree" boostWeight="1.0000000000000000e+00" itree="444">
      <Node pos="s" depth="0" NCoef="0" IVar="1" Cut="1.0034835937500000e+05" cType="1" res="5.4258555173873901e-02" rms="2.8454944491386414e-01" purity="4.7630876302719116e-01" nType="0">
        <Node pos="l" depth="1" NCoef="0" IVar="1" Cut="8.3521265625000000e+04" cType="1" res="3.0799886211752892e-02" rms="2.7454042434692383e-01" purity="3.1495243310928345e-01" nType="0">
          <Node pos="l" depth="2" NCoef="0" IVar="2" Cut="3.7277562500000000e+05" cType="1" res="8.6351603269577026e-02" rms="3.3259886503219604e-01" purity="5.8839756250381470e-01" nType="0">
            <Node pos="l" depth="3" NCoef="0" IVar="-1" Cut="0.0000000000000000e+00" cType="1" res="1.3821150641888380e-03" rms="3.2994371652603149e-01" purity="5.4695397615432739e-01" nType="-99"/>
            <Node pos="r" depth="3" NCoef="0" IVar="-1" Cut="0.0000000000000000e+00" cType="1" res="2.8811465017497540e-03" rms="3.2561725378036499e-01" purity="8.2257312536239624e-01" nType="-99"/>
          </Node>
          <Node pos="r" depth="2" NCoef="0" IVar="3" Cut="8.3367937500000000e+04" cType="1" res="-1.3315211981534958e-02" rms="2.0732346177101135e-01" purity="9.7802370786666870e-02" nType="0">
            <Node pos="l" depth="3" NCoef="0" IVar="-1" Cut="0.0000000000000000e+00" cType="1" res="-4.7977427020668983e-03" rms="1.9952750205993652e-01" purity="5.1848325878381729e-02" nType="-99"/>
            <Node pos="r" depth="3" NCoef="0" IVar="-1" Cut="0.0000000000000000e+00" cType="1" res="9.9895615130662918e-04" rms="2.9256036877632141e-01" purity="9.0489059686660767e-01" nType="-99"/>
          </Node>
        </Node>
        <Node pos="r" depth="1" NCoef="0" IVar="4" Cut="4.7326896875000000e+05" cType="1" res="1.0515604168176651e-01" rms="2.9887315630912781e-01" purity="8.2639825344085693e-01" nType="0">
          <Node pos="l" depth="2" NCoef="0" IVar="2" Cut="2.6320837500000000e+05" cType="1" res="8.8741585612297058e-02" rms="3.3827984333038330e-01" purity="7.5050389766693115e-01" nType="0">
            <Node pos="l" depth="3" NCoef="0" IVar="-1" Cut="0.0000000000000000e+00" cType="1" res="2.3795604647602886e-04" rms="3.4891712665557861e-01" purity="5.0279915332794189e-01" nType="-99"/>
            <Node pos="r" depth="3" NCoef="0" IVar="-1" Cut="0.0000000000000000e+00" cType="1" res="1.4682676410302520e-03" rms="3.3349207043647766e-01" purity="8.0827605724334717e-01" nType="-99"/>
          </Node>
          <Node pos="r" depth="2" NCoef="0" IVar="3" Cut="5.2519773437500000e+04" cType="1" res="1.2923799455165863e-01" rms="2.2696562111377716e-01" purity="9.3774414062500000e-01" nType="0">
            <Node pos="l" depth="3" NCoef="0" IVar="-1" Cut="0.0000000000000000e+00" cType="1" res="1.4608701458200812e-03" rms="3.9558538794517517e-01" purity="8.0185467004776001e-01" nType="-99"/>
            <Node pos="r" depth="3" NCoef="0" IVar="-1" Cut="0.0000000000000000e+00" cType="1" res="1.4092087512835860e-03" rms="1.3077689707279205e-01" purity="9.8224496841430664e-01" nType="-99"/>
          </Node>
        </Node>
      </Node>
    </BinaryTree>
    <BinaryTree type="DecisionTree" boostWeight="1.0000000000000000e+00" itree="445">
      <Node pos="s" depth="0" NCoef="0" IVar="3" Cut="7.5659101562500000e+04" cType="1" res="6.0023132711648941e-02" rms="2.6476931571960449e-01" purity="5.0740379095077515e-01" nType="0">
        <Node pos="l" depth="1" NCoef="0" IVar="3" Cut="2.5325476562500000e+04" cType="1" res="3.7222612649202347e-02" rms="2.9394319653511047e-01" purity="3.1680005788803101e-01" nType="0">
          <Node pos="l" depth="2" NCoef="0" IVar="4" Cut="5.4634381250000000e+05" cType="1" res="3.8977635558694601e-03" rms="2.2230650484561920e-01" purity="8.7533965706825256e-02" nType="0">
            <Node pos="l" depth="3" NCoef="0" IVar="-1" Cut="0.0000000000000000e+00" cType="1" res="-6.2008859822526574e-04" rms="2.0584399998188019e-01" purity="6.7329846322536469e-02" nType="-99"/>
            <Node pos="r" depth="3" NCoef="0" IVar="-1" Cut="0.0000000000000000e+00" cType="1" res="3.2481015659868717e-03" rms="3.8506877422332764e-01" purity="4.1157811880111694e-01" nType="-99"/>
          </Node>
          <Node pos="r" depth="2" NCoef="0" IVar="1" Cut="8.4056312500000000e+04" cType="1" res="7.0165552198886871e-02" rms="3.4753149747848511e-01" purity="5.4343867301940918e-01" nType="0">
            <Node pos="l" depth="3" NCoef="0" IVar="-1" Cut="0.0000000000000000e+00" cType="1" res="1.7176449764519930e-03" rms="4.1674515604972839e-01" purity="6.3261693716049194e-01" nType="-99"/>
            <Node pos="r" depth="3" NCoef="0" IVar="-1" Cut="0.0000000000000000e+00" cType="1" res="8.4721553139388561e-04" rms="3.0816531181335449e-01" purity="5.0404000282287598e-01" nType="-99"/>
          </Node>
        </Node>
        <Node pos="r" depth="1" NCoef="0" IVar="1" Cut="1.1145093750000000e+05" cType="1" res="1.1551320552825928e-01" rms="1.6152167320251465e-01" purity="9.7127979993820190e-01" nType="0">
          <Node pos="l" depth="2" NCoef="0" IVar="1" Cut="8.7571078125000000e+04" cType="1" res="1.0371430963277817e-01" rms="2.0274704694747925e-01" purity="9.5358902215957642e-01" nType="0">
            <Node pos="l" depth="3" NCoef="0" IVar="-1" Cut="0.0000000000000000e+00" cType="1" res="1.7019051592797041e-03" rms="1.7357376217842102e-01" purity="9.6801143884658813e-01" nType="-99"/>
            <Node pos="r" depth="3" NCoef="0" IVar="-1" Cut="0.0000000000000000e+00" cType="1" res="1.0820447932928801e-03" rms="2.9087814688682556e-01" purity="8.9379400014877319e-01" nType="-99"/>
          </Node>
          <Node pos="r" depth="2" NCoef="0" IVar="-1" Cut="0.0000000000000000e+00" cType="1" res="1.8009881023317575e-03" rms="9.7889013588428497e-02" purity="9.9035805463790894e-01" nType="-99"/>
        </Node>
      </Node>
    </BinaryTree>
    <BinaryTree type="DecisionTree" boostWeight="1.0000000000000000e+00" itree="446">
      <Node pos="s" depth="0" NCoef="0" IVar="3" Cut="5.4312500000000000e+04" cType="1" res="5.2996564656496048e-02" rms="2.5658032298088074e-01" purity="5.0143545866012573e-01" nType="0">
        <Node pos="l" depth="1" NCoef="0" IVar="3" Cut="2.7570817871093750e+03" cType="1" res="1.6756322234869003e-02" rms="2.7813339233398438e-01" purity="2.2031308710575104e-01" nType="0">
          <Node pos="l" depth="2" NCoef="0" IVar="-1" Cut="0.0000000000000000e+00" cType="1" res="2.5078423321247101e-02" rms="4.1618436574935913e-01" purity="2.6012700796127319e-01" nType="-99"/>
          <Node pos="r" depth="2" NCoef="0" IVar="1" Cut="1.7489954687500000e+05" cType="1" res="1.1962372809648514e-02" rms="2.7227294445037842e-01" purity="2.1939823031425476e-01" nType="0">
            <Node pos="l" depth="3" NCoef="0" IVar="-1" Cut="0.0000000000000000e+00" cType="1" res="2.8380163712427020e-04" rms="2.6521423459053040e-01" purity="1.5702013671398163e-01" nType="-99"/>
            <Node pos="r" depth="3" NCoef="0" IVar="-1" Cut="0.0000000000000000e+00" cType="1" res="8.5965107427909970e-04" rms="3.2689020037651062e-01" purity="8.6053264141082764e-01" nType="-99"/>
          </Node>
        </Node>
        <Node pos="r" depth="1" NCoef="0" IVar="1" Cut="1.3196950000000000e+05" cType="1" res="1.0943657159805298e-01" rms="2.0652879774570465e-01" purity="9.3925118446350098e-01" nType="0">
          <Node pos="l" depth="2" NCoef="0" IVar="3" Cut="8.4395375000000000e+04" cType="1" res="9.7695074975490570e-02" rms="2.4443341791629791e-01" purity="9.1124314069747925e-01" nType="0">
            <Node pos="l" depth="3" NCoef="0" IVar="-1" Cut="0.0000000000000000e+00" cType="1" res="6.1228085542097688e-04" rms="3.4609240293502808e-01" purity="8.0473834276199341e-01" nType="-99"/>
            <Node pos="r" depth="3" NCoef="0" IVar="-1" Cut="0.0000000000000000e+00" cType="1" res="1.4458772493526340e-03" rms="1.5084047615528107e-01" purity="9.7537600994110107e-01" nType="-99"/>
          </Node>
          <Node pos="r" depth="2" NCoef="0" IVar="-1" Cut="0.0000000000000000e+00" cType="1" res="2.0891739986836910e-03" rms="1.1423810571432114e-01" purity="9.8672550916671753e-01" nType="-99"/>
        </Node>
      </Node>
    </BinaryTree>
    <BinaryTree type="DecisionTree" boostWeight="1.0000000000000000e+00" itree="447">
      <Node pos="s" depth="0" NCoef="0" IVar="1" Cut="1.0034389062500000e+05" cType="1" res="6.1140555888414383e-02" rms="2.6694712042808533e-01" purity="5.1117098331451416e-01" nType="0">
        <Node pos="l" depth="1" NCoef="0" IVar="1" Cut="8.3508281250000000e+04" cType="1" res="2.9927590861916542e-02" rms="2.7214550971984863e-01" purity="2.9779431223869324e-01" nType="0">
          <Node pos="l" depth="2" NCoef="0" IVar="1" Cut="2.5622150390625000e+04" cType="1" res="9.0437382459640503e-02" rms="3.3762201666831970e-01" purity="5.7198631763458252e-01" nType="0">
            <Node pos="l" depth="3" NCoef="0" IVar="-1" Cut="0.0000000000000000e+00" cType="1" res="-2.6279513258486986e-03" rms="2.2669231891632080e-01" purity="2.8159707784652710e-01" nType="-99"/>
            <Node pos="r" depth="3" NCoef="0" IVar="-1" Cut="0.0000000000000000e+00" cType="1" res="2.3259513545781374e-03" rms="3.4372702240943909e-01" purity="6.0073238611221313e-01" nType="-99"/>
          </Node>
          <Node pos="r" depth="2" NCoef="0" IVar="3" Cut="1.1560157812500000e+05" cType="1" res="-1.3143651187419891e-02" rms="2.0293502509593964e-01" purity="1.0262279957532883e-01" nType="0">
            <Node pos="l" depth="3" NCoef="0" IVar="-1" Cut="0.0000000000000000e+00" cType="1" res="-3.0709432903677225e-03" rms="2.0115607976913452e-01" purity="6.5608955919742584e-02" nType="-99"/>
            <Node pos="r" depth="3" NCoef="0" IVar="-1" Cut="0.0000000000000000e+00" cType="1" res="2.1644090302288532e-03" rms="1.9470813870429993e-01" purity="9.6019256114959717e-01" nType="-99"/>
          </Node>
        </Node>
        <Node pos="r" depth="1" NCoef="0" IVar="3" Cut="4.8766871093750000e+04" cType="1" res="1.1208978295326233e-01" rms="2.5000053644180298e-01" purity="8.5946780443191528e-01" nType="0">
          <Node pos="l" depth="2" NCoef="0" IVar="4" Cut="4.4039406250000000e+05" cType="1" res="7.3010012507438660e-02" rms="3.9332261681556702e-01" purity="6.0015469789505005e-01" nType="0">
            <Node pos="l" depth="3" NCoef="0" IVar="-1" Cut="0.0000000000000000e+00" cType="1" res="7.8044593101367354e-04" rms="3.9228966832160950e-01" purity="5.0431764125823975e-01" nType="-99"/>
            <Node pos="r" depth="3" NCoef="0" IVar="-1" Cut="0.0000000000000000e+00" cType="1" res="1.0894176084548235e-03" rms="3.8496199250221252e-01" purity="8.1870323419570923e-01" nType="-99"/>
          </Node>
          <Node pos="r" depth="2" NCoef="0" IVar="4" Cut="3.6414628125000000e+05" cType="1" res="1.3032354414463043e-01" rms="1.3577778637409210e-01" purity="9.8045760393142700e-01" nType="0">
            <Node pos="l" depth="3" NCoef="0" IVar="-1" Cut="0.0000000000000000e+00" cType="1" res="1.7754135187715292e-03" rms="1.4342486858367920e-01" purity="9.7836130857467651e-01" nType="-99"/>
            <Node pos="r" depth="3" NCoef="0" IVar="-1" Cut="0.0000000000000000e+00" cType="1" res="1.5618185279890895e-03" rms="1.3011156022548676e-01" purity="9.8173046112060547e-01" nType="-99"/>
          </Node>
        </Node>
      </Node>
    </BinaryTree>
    <BinaryTree type="DecisionTree" boostWeight="1.0000000000000000e+00" itree="448">
      <Node pos="s" depth="0" NCoef="0" IVar="3" Cut="6.8736484375000000e+04" cType="1" res="6.4701497554779053e-02" rms="2.6448416709899902e-01" purity="5.2725046873092651e-01" nType="0">
        <Node pos="l" depth="1" NCoef="0" IVar="3" Cut="1.9679304687500000e+04" cType="1" res="4.3696340173482895e-02" rms="2.9163190722465515e-01" purity="3.2442963123321533e-01" nType="0">
          <Node pos="l" depth="2" NCoef="0" IVar="3" Cut="1.4072923828125000e+04" cType="1" res="-4.2041982524096966e-03" rms="1.9257859885692596e-01" purity="5.9473689645528793e-02" nType="0">
            <Node pos="l" depth="3" NCoef="0" IVar="-1" Cut="0.0000000000000000e+00" cType="1" res="2.1354011259973049e-03" rms="1.8290749192237854e-01" purity="6.6640488803386688e-02" nType="-99"/>
            <Node pos="r" depth="3" NCoef="0" IVar="-1" Cut="0.0000000000000000e+00" cType="1" res="-1.0530306957662106e-02" rms="2.0711894333362579e-01" purity="4.4233050197362900e-02" nType="-99"/>
          </Node>
          <Node pos="r" depth="2" NCoef="0" IVar="1" Cut="9.3450960937500000e+04" cType="1" res="7.3255173861980438e-02" rms="3.3519652485847473e-01" purity="4.8793068528175354e-01" nType="0">
            <Node pos="l" depth="3" NCoef="0" IVar="-1" Cut="0.0000000000000000e+00" cType="1" res="1.2196640018373728e-03" rms="3.4942647814750671e-01" purity="3.0462333559989929e-01" nType="-99"/>
            <Node pos="r" depth="3" NCoef="0" IVar="-1" Cut="0.0000000000000000e+00" cType="1" res="1.0760315926745534e-03" rms="3.1586253643035889e-01" purity="6.8312889337539673e-01" nType="-99"/>
          </Node>
        </Node>
        <Node pos="r" depth="1" NCoef="0" IVar="1" Cut="1.0182259375000000e+05" cType="1" res="1.0956769436597824e-01" rms="1.8641152977943420e-01" purity="9.6046781539916992e-01" nType="0">
          <Node pos="l" depth="2" NCoef="0" IVar="1" Cut="8.9049289062500000e+04" cType="1" res="9.2854917049407959e-02" rms="2.4600002169609070e-01" purity="9.2872714996337891e-01" nType="0">
            <Node pos="l" depth="3" NCoef="0" IVar="-1" Cut="0.0000000000000000e+00" cType="1" res="1.5455003594979644e-03" rms="2.1875753998756409e-01" purity="9.4867110252380371e-01" nType="-99"/>
            <Node pos="r" depth="3" NCoef="0" IVar="-1" Cut="0.0000000000000000e+00" cType="1" res="-3.4789662458933890e-04" rms="4.0064084529876709e-01" purity="7.4910575151443481e-01" nType="-99"/>
          </Node>
          <Node pos="r" depth="2" NCoef="0" IVar="-1" Cut="0.0000000000000000e+00" cType="1" res="1.6344700707122684e-03" rms="1.1570644378662109e-01" purity="9.8627442121505737e-01" nType="-99"/>
        </Node>
      </Node>
    </BinaryTree>
    <BinaryTree type="DecisionTree" boostWeight="1.0000000000000000e+00" itree="449">
      <Node pos="s" depth="0" NCoef="0" IVar="1" Cut="1.0038213281250000e+05" cType="1" res="6.0893140733242035e-02" rms="2.6582372188568115e-01" purity="5.0697195529937744e-01" nType="0">
        <Node pos="l" depth="1" NCoef="0" IVar="3" Cut="5.7804234375000000e+04" cType="1" res="2.7987321838736534e-02" rms="2.6466289162635803e-01" purity="3.1585296988487244e-01" nType="0">
          <Node pos="l" depth="2" NCoef="0" IVar="1" Cut="7.5136476562500000e+04" cType="1" res="4.6820747666060925e-03" rms="2.6005402207374573e-01" purity="1.1458360403776169e-01" nType="0">
            <Node pos="l" depth="3" NCoef="0" IVar="-1" Cut="0.0000000000000000e+00" cType="1" res="1.3714220840483904e-03" rms="4.2511573433876038e-01" purity="3.5555431246757507e-01" nType="-99"/>
            <Node pos="r" depth="3" NCoef="0" IVar="-1" Cut="0.0000000000000000e+00" cType="1" res="-3.0260889325290918e-03" rms="1.8377539515495300e-01" purity="4.5053519308567047e-02" nType="-99"/>
          </Node>
          <Node pos="r" depth="2" NCoef="0" IVar="1" Cut="8.7758117187500000e+04" cType="1" res="9.5714658498764038e-02" rms="2.6628747582435608e-01" purity="9.0076148509979248e-01" nType="0">
            <Node pos="l" depth="3" NCoef="0" IVar="-1" Cut="0.0000000000000000e+00" cType="1" res="1.4216394629329443e-03" rms="2.2905166447162628e-01" purity="9.3211412429809570e-01" nType="-99"/>
            <Node pos="r" depth="3" NCoef="0" IVar="-1" Cut="0.0000000000000000e+00" cType="1" res="5.0017394823953509e-04" rms="4.0541058778762817e-01" purity="7.3474335670471191e-01" nType="-99"/>
          </Node>
        </Node>
        <Node pos="r" depth="1" NCoef="0" IVar="0" Cut="2.2857143878936768e+00" cType="1" res="1.2142805755138397e-01" rms="2.5717446208000183e-01" purity="8.5856235027313232e-01" nType="0">
          <Node pos="l" depth="2" NCoef="0" IVar="5" Cut="8.7865742187500000e+04" cType="1" res="1.1307418346405029e-01" rms="2.5803217291831970e-01" purity="8.4077644348144531e-01" nType="0">
            <Node pos="l" depth="3" NCoef="0" IVar="-1" Cut="0.0000000000000000e+00" cType="1" res="1.3629010645672679e-03" rms="2.4332460761070251e-01" purity="8.4535807371139526e-01" nType="-99"/>
            <Node pos="r" depth="3" NCoef="0" IVar="-1" Cut="0.0000000000000000e+00" cType="1" res="1.5115224523469806e-03" rms="2.6053279638290405e-01" purity="8.3972567319869995e-01" nType="-99"/>
          </Node>
          <Node pos="r" depth="2" NCoef="0" IVar="-1" Cut="0.0000000000000000e+00" cType="1" res="2.6664978358894587e-03" rms="2.4831384420394897e-01" purity="9.5005518198013306e-01" nType="-99"/>
        </Node>
      </Node>
    </BinaryTree>
    <BinaryTree type="DecisionTree" boostWeight="1.0000000000000000e+00" itree="450">
      <Node pos="s" depth="0" NCoef="0" IVar="1" Cut="1.0036485156250000e+05" cType="1" res="6.1789449304342270e-02" rms="2.7092701196670532e-01" purity="4.9742296338081360e-01" nType="0">
        <Node pos="l" depth="1" NCoef="0" IVar="1" Cut="8.3536875000000000e+04" cType="1" res="3.2449334859848022e-02" rms="2.7438190579414368e-01" purity="3.0239182710647583e-01" nType="0">
          <Node pos="l" depth="2" NCoef="0" IVar="2" Cut="2.1555918750000000e+05" cType="1" res="8.9955225586891174e-02" rms="3.4121063351631165e-01" purity="5.8071500062942505e-01" nType="0">
            <Node pos="l" depth="3" NCoef="0" IVar="-1" Cut="0.0000000000000000e+00" cType="1" res="-2.3302108456846327e-04" rms="3.1746453046798706e-01" purity="4.0975841879844666e-01" nType="-99"/>
            <Node pos="r" depth="3" NCoef="0" IVar="-1" Cut="0.0000000000000000e+00" cType="1" res="2.6218544226139784e-03" rms="3.4044712781906128e-01" purity="7.0676791667938232e-01" nType="-99"/>
          </Node>
          <Node pos="r" depth="2" NCoef="0" IVar="1" Cut="9.7960085937500000e+04" cType="1" res="-9.9215768277645111e-03" rms="2.0184582471847534e-01" purity="9.7320526838302612e-02" nType="0">
            <Node pos="l" depth="3" NCoef="0" IVar="-1" Cut="0.0000000000000000e+00" cType="1" res="-2.6440953370183706e-03" rms="1.9414919614791870e-01" purity="8.0850139260292053e-02" nType="-99"/>
            <Node pos="r" depth="3" NCoef="0" IVar="-1" Cut="0.0000000000000000e+00" cType="1" res="3.3892558421939611e-03" rms="2.8182706236839294e-01" purity="3.7003451585769653e-01" nType="-99"/>
          </Node>
        </Node>
        <Node pos="r" depth="1" NCoef="0" IVar="5" Cut="8.7860187500000000e+04" cType="1" res="1.1508195847272873e-01" rms="2.5607758760452271e-01" purity="8.5167169570922852e-01" nType="0">
          <Node pos="l" depth="2" NCoef="0" IVar="0" Cut="2.8571429848670959e-01" cType="1" res="7.8008323907852173e-02" rms="2.8450876474380493e-01" purity="8.1678998470306396e-01" nType="0">
            <Node pos="l" depth="3" NCoef="0" IVar="-1" Cut="0.0000000000000000e+00" cType="1" res="8.8456366211175919e-04" rms="2.9484727978706360e-01" purity="7.7668839693069458e-01" nType="-99"/>
            <Node pos="r" depth="3" NCoef="0" IVar="-1" Cut="0.0000000000000000e+00" cType="1" res="1.5000259736552835e-03" rms="2.7421829104423523e-01" purity="8.5491794347763062e-01" nType="-99"/>
          </Node>
          <Node pos="r" depth="2" NCoef="0" IVar="5" Cut="8.9765617187500000e+04" cType="1" res="1.2226904183626175e-01" rms="2.4955581128597260e-01" purity="8.5843390226364136e-01" nType="0">
            <Node pos="l" depth="3" NCoef="0" IVar="-1" Cut="0.0000000000000000e+00" cType="1" res="1.1530865449458361e-03" rms="2.5329124927520752e-01" purity="8.8875979185104370e-01" nType="-99"/>
            <Node pos="r" depth="3" NCoef="0" IVar="-1" Cut="0.0000000000000000e+00" cType="1" res="1.4748466201126575e-03" rms="2.4666583538055420e-01" purity="8.4579437971115112e-01" nType="-99"/>
          </Node>
        </Node>
      </Node>
    </BinaryTree>
    <BinaryTree type="DecisionTree" boostWeight="1.0000000000000000e+00" itree="451">
      <Node pos="s" depth="0" NCoef="0" IVar="3" Cut="6.8884250000000000e+04" cType="1" res="5.6948322802782059e-02" rms="2.7170005440711975e-01" purity="4.9866038560867310e-01" nType="0">
        <Node pos="l" depth="1" NCoef="0" IVar="2" Cut="1.9565887500000000e+05" cType="1" res="3.2871223986148834e-02" rms="3.0228263139724731e-01" purity="2.8324154019355774e-01" nType="0">
          <Node pos="l" depth="2" NCoef="0" IVar="1" Cut="5.1466425781250000e+04" cType="1" res="-4.0219243615865707e-02" rms="2.3154039680957794e-01" purity="1.1243730038404465e-01" nType="0">
            <Node pos="l" depth="3" NCoef="0" IVar="-1" Cut="0.0000000000000000e+00" cType="1" res="-1.1832100339233875e-02" rms="2.6132532954216003e-01" purity="9.2618890106678009e-02" nType="-99"/>
            <Node pos="r" depth="3" NCoef="0" IVar="-1" Cut="0.0000000000000000e+00" cType="1" res="-9.9086202681064606e-04" rms="2.1044772863388062e-01" purity="1.2121818214654922e-01" nType="-99"/>
          </Node>
          <Node pos="r" depth="2" NCoef="0" IVar="3" Cut="1.6608921875000000e+04" cType="1" res="4.4918488711118698e-02" rms="3.1076294183731079e-01" purity="3.1139466166496277e-01" nType="0">
            <Node pos="l" depth="3" NCoef="0" IVar="-1" Cut="0.0000000000000000e+00" cType="1" res="-2.9333561542443931e-04" rms="1.7516255378723145e-01" purity="6.5448999404907227e-02" nType="-99"/>
            <Node pos="r" depth="3" NCoef="0" IVar="-1" Cut="0.0000000000000000e+00" cType="1" res="1.7898955848067999e-03" rms="3.5489678382873535e-01" purity="4.2676755785942078e-01" nType="-99"/>
          </Node>
        </Node>
        <Node pos="r" depth="1" NCoef="0" IVar="1" Cut="1.2544667187500000e+05" cType="1" res="1.0895416140556335e-01" rms="1.7874088883399963e-01" purity="9.6395885944366455e-01" nType="0">
          <Node pos="l" depth="2" NCoef="0" IVar="3" Cut="1.7230996875000000e+05" cType="1" res="9.6472702920436859e-02" rms="2.1988911926746368e-01" purity="9.4424271583557129e-01" nType="0">
            <Node pos="l" depth="3" NCoef="0" IVar="-1" Cut="0.0000000000000000e+00" cType="1" res="1.1880222009494901e-03" rms="2.5127536058425903e-01" purity="9.2634755373001099e-01" nType="-99"/>
            <Node pos="r" depth="3" NCoef="0" IVar="-1" Cut="0.0000000000000000e+00" cType="1" res="1.8377159722149372e-03" rms="9.0367190539836884e-02" purity="9.9181795120239258e-01" nType="-99"/>
          </Node>
          <Node pos="r" depth="2" NCoef="0" IVar="-1" Cut="0.0000000000000000e+00" cType="1" res="1.9040734041482210e-03" rms="9.5425836741924286e-02" purity="9.9081259965896606e-01" nType="-99"/>
        </Node>
      </Node>
    </BinaryTree>
    <BinaryTree type="DecisionTree" boostWeight="1.0000000000000000e+00" itree="452">
      <Node pos="s" depth="0" NCoef="0" IVar="1" Cut="1.0039114062500000e+05" cType="1" res="5.4346464574337006e-02" rms="2.6410210132598877e-01" purity="4.9405923485755920e-01" nType="0">
        <Node pos="l" depth="1" NCoef="0" IVar="1" Cut="8.3561929687500000e+04" cType="1" res="2.3465523496270180e-02" rms="2.6580575108528137e-01" purity="3.0220228433609009e-01" nType="0">
          <Node pos="l" depth="2" NCoef="0" IVar="4" Cut="2.8745337500000000e+05" cType="1" res="7.4191123247146606e-02" rms="3.0663377046585083e-01" purity="5.8237797021865845e-01" nType="0">
            <Node pos="l" depth="3" NCoef="0" IVar="-1" Cut="0.0000000000000000e+00" cType="1" res="7.7390973456203938e-04" rms="3.0359801650047302e-01" purity="4.3574529886245728e-01" nType="-99"/>
            <Node pos="r" depth="3" NCoef="0" IVar="-1" Cut="0.0000000000000000e+00" cType="1" res="2.0409796852618456e-03" rms="2.9792615771293640e-01" purity="7.9903715848922729e-01" nType="-99"/>
          </Node>
          <Node pos="r" depth="2" NCoef="0" IVar="3" Cut="3.8014234375000000e+04" cType="1" res="-1.7595496028661728e-02" rms="2.1900957822799683e-01" purity="7.5407549738883972e-02" nType="0">
            <Node pos="l" depth="3" NCoef="0" IVar="-1" Cut="0.0000000000000000e+00" cType="1" res="6.0094203799962997e-03" rms="1.6482570767402649e-01" purity="2.8162645176053047e-02" nType="-99"/>
            <Node pos="r" depth="3" NCoef="0" IVar="-1" Cut="0.0000000000000000e+00" cType="1" res="-4.6987039968371391e-03" rms="3.5273534059524536e-01" purity="2.7525228261947632e-01" nType="-99"/>
          </Node>
        </Node>
        <Node pos="r" depth="1" NCoef="0" IVar="3" Cut="4.4696035156250000e+04" cType="1" res="1.1270608752965927e-01" rms="2.5067064166069031e-01" purity="8.5663557052612305e-01" nType="0">
          <Node pos="l" depth="2" NCoef="0" IVar="3" Cut="2.5624623046875000e+04" cType="1" res="8.0313675105571747e-02" rms="3.8102105259895325e-01" purity="5.9392708539962769e-01" nType="0">
            <Node pos="l" depth="3" NCoef="0" IVar="-1" Cut="0.0000000000000000e+00" cType="1" res="1.8834602087736130e-04" rms="3.9458137750625610e-01" purity="3.7003612518310547e-01" nType="-99"/>
            <Node pos="r" depth="3" NCoef="0" IVar="-1" Cut="0.0000000000000000e+00" cType="1" res="2.1602506749331951e-03" rms="3.5763287544250488e-01" purity="7.8183013200759888e-01" nType="-99"/>
          </Node>
          <Node pos="r" depth="2" NCoef="0" IVar="0" Cut="3.8095238804817200e-01" cType="1" res="1.2689110636711121e-01" rms="1.6160702705383301e-01" purity="9.7167873382568359e-01" nType="0">
            <Node pos="l" depth="3" NCoef="0" IVar="-1" Cut="0.0000000000000000e+00" cType="1" res="2.0386502146720886e-03" rms="1.5088112652301788e-01" purity="9.7737812995910645e-01" nType="-99"/>
            <Node pos="r" depth="3" NCoef="0" IVar="-1" Cut="0.0000000000000000e+00" cType="1" res="1.6950992867350578e-03" rms="1.6722458600997925e-01" purity="9.6765488386154175e-01" nType="-99"/>
          </Node>
        </Node>
      </Node>
    </BinaryTree>
    <BinaryTree type="DecisionTree" boostWeight="1.0000000000000000e+00" itree="453">
      <Node pos="s" depth="0" NCoef="0" IVar="3" Cut="7.5616148437500000e+04" cType="1" res="4.9614042043685913e-02" rms="2.6171529293060303e-01" purity="4.9118191003799438e-01" nType="0">
        <Node pos="l" depth="1" NCoef="0" IVar="1" Cut="1.5585303125000000e+05" cType="1" res="2.6045678183436394e-02" rms="2.8591704368591309e-01" purity="3.0312746763229370e-01" nType="0">
          <Node pos="l" depth="2" NCoef="0" IVar="1" Cut="1.0099504687500000e+05" cType="1" res="1.6722559928894043e-02" rms="2.8079494833946228e-01" purity="2.3052598536014557e-01" nType="0">
            <Node pos="l" depth="3" NCoef="0" IVar="-1" Cut="0.0000000000000000e+00" cType="1" res="-5.7038571685552597e-04" rms="2.5394189357757568e-01" purity="1.3081766664981842e-01" nType="-99"/>
            <Node pos="r" depth="3" NCoef="0" IVar="-1" Cut="0.0000000000000000e+00" cType="1" res="1.4483270933851600e-03" rms="3.5821160674095154e-01" purity="6.6465365886688232e-01" nType="-99"/>
          </Node>
          <Node pos="r" depth="2" NCoef="0" IVar="2" Cut="3.9305937500000000e+05" cType="1" res="9.8302103579044342e-02" rms="3.1360948085784912e-01" purity="8.6580675840377808e-01" nType="0">
            <Node pos="l" depth="3" NCoef="0" IVar="-1" Cut="0.0000000000000000e+00" cType="1" res="8.9977140305563807e-04" rms="3.7638875842094421e-01" purity="7.8519910573959351e-01" nType="-99"/>
            <Node pos="r" depth="3" NCoef="0" IVar="-1" Cut="0.0000000000000000e+00" cType="1" res="1.5366723528131843e-03" rms="2.8076133131980896e-01" purity="9.0030986070632935e-01" nType="-99"/>
          </Node>
        </Node>
        <Node pos="r" depth="1" NCoef="0" IVar="2" Cut="2.2055928125000000e+05" cType="1" res="1.0934907197952271e-01" rms="1.7299354076385498e-01" purity="9.6781384944915771e-01" nType="0">
          <Node pos="l" depth="2" NCoef="0" IVar="-1" Cut="0.0000000000000000e+00" cType="1" res="1.4082408742979169e-03" rms="1.4944033324718475e-01" purity="9.7722059488296509e-01" nType="-99"/>
          <Node pos="r" depth="2" NCoef="0" IVar="1" Cut="1.2622627343750000e+05" cType="1" res="1.0302145779132843e-01" rms="1.7925144731998444e-01" purity="9.6487516164779663e-01" nType="0">
            <Node pos="l" depth="3" NCoef="0" IVar="-1" Cut="0.0000000000000000e+00" cType="1" res="1.1528263567015529e-03" rms="2.2241036593914032e-01" purity="9.4444513320922852e-01" nType="-99"/>
            <Node pos="r" depth="3" NCoef="0" IVar="-1" Cut="0.0000000000000000e+00" cType="1" res="1.8640314228832722e-03" rms="1.1171469092369080e-01" purity="9.8736327886581421e-01" nType="-99"/>
          </Node>
        </Node>
      </Node>
    </BinaryTree>
    <BinaryTree type="DecisionTree" boostWeight="1.0000000000000000e+00" itree="454">
      <Node pos="s" depth="0" NCoef="0" IVar="3" Cut="6.8736484375000000e+04" cType="1" res="6.3793510198593140e-02" rms="2.6559206843376160e-01" purity="5.1052367687225342e-01" nType="0">
        <Node pos="l" depth="1" NCoef="0" IVar="2" Cut="2.7844496875000000e+05" cType="1" res="3.9854720234870911e-02" rms="2.9674273729324341e-01" purity="3.0650243163108826e-01" nType="0">
          <Node pos="l" depth="2" NCoef="0" IVar="1" Cut="1.1280264843750000e+05" cType="1" res="1.1362981051206589e-02" rms="2.6761427521705627e-01" purity="1.6332039237022400e-01" nType="0">
            <Node pos="l" depth="3" NCoef="0" IVar="-1" Cut="0.0000000000000000e+00" cType="1" res="7.5217314588371664e-05" rms="2.5084418058395386e-01" purity="1.3014571368694305e-01" nType="-99"/>
            <Node pos="r" depth="3" NCoef="0" IVar="-1" Cut="0.0000000000000000e+00" cType="1" res="1.6538512427359819e-03" rms="4.2298138141632080e-01" purity="6.7434531450271606e-01" nType="-99"/>
          </Node>
          <Node pos="r" depth="2" NCoef="0" IVar="4" Cut="2.0015607812500000e+05" cType="1" res="7.7081680297851562e-02" rms="3.2724389433860779e-01" purity="4.9358230829238892e-01" nType="0">
            <Node pos="l" depth="3" NCoef="0" IVar="-1" Cut="0.0000000000000000e+00" cType="1" res="3.2364414073526859e-03" rms="3.0779692530632019e-01" purity="4.8105025291442871e-01" nType="-99"/>
            <Node pos="r" depth="3" NCoef="0" IVar="-1" Cut="0.0000000000000000e+00" cType="1" res="1.2951175449416041e-03" rms="3.2862788438796997e-01" purity="4.9534824490547180e-01" nType="-99"/>
          </Node>
        </Node>
        <Node pos="r" depth="1" NCoef="0" IVar="1" Cut="1.0168853906250000e+05" cType="1" res="1.1767571419477463e-01" rms="1.6406670212745667e-01" purity="9.6974134445190430e-01" nType="0">
          <Node pos="l" depth="2" NCoef="0" IVar="1" Cut="8.4614031250000000e+04" cType="1" res="1.0958252102136612e-01" rms="2.0940600335597992e-01" purity="9.4936853647232056e-01" nType="0">
            <Node pos="l" depth="3" NCoef="0" IVar="-1" Cut="0.0000000000000000e+00" cType="1" res="1.7455931520089507e-03" rms="1.5330898761749268e-01" purity="9.7572910785675049e-01" nType="-99"/>
            <Node pos="r" depth="3" NCoef="0" IVar="-1" Cut="0.0000000000000000e+00" cType="1" res="9.9190848413854837e-04" rms="3.6074694991111755e-01" purity="8.3526510000228882e-01" nType="-99"/>
          </Node>
          <Node pos="r" depth="2" NCoef="0" IVar="-1" Cut="0.0000000000000000e+00" cType="1" res="1.5378968091681600e-03" rms="1.0164408385753632e-01" purity="9.8954600095748901e-01" nType="-99"/>
        </Node>
      </Node>
    </BinaryTree>
    <BinaryTree type="DecisionTree" boostWeight="1.0000000000000000e+00" itree="455">
      <Node pos="s" depth="0" NCoef="0" IVar="1" Cut="1.0036485156250000e+05" cType="1" res="5.6451261043548584e-02" rms="2.7336367964744568e-01" purity="4.9215453863143921e-01" nType="0">
        <Node pos="l" depth="1" NCoef="0" IVar="1" Cut="7.9327992187500000e+04" cType="1" res="2.8731854632496834e-02" rms="2.7300238609313965e-01" purity="2.9867228865623474e-01" nType="0">
          <Node pos="l" depth="2" NCoef="0" IVar="1" Cut="3.1251361328125000e+04" cType="1" res="1.0236878693103790e-01" rms="3.4386098384857178e-01" purity="6.4377975463867188e-01" nType="0">
            <Node pos="l" depth="3" NCoef="0" IVar="-1" Cut="0.0000000000000000e+00" cType="1" res="-1.2055248953402042e-03" rms="3.0083510279655457e-01" purity="3.4976696968078613e-01" nType="-99"/>
            <Node pos="r" depth="3" NCoef="0" IVar="-1" Cut="0.0000000000000000e+00" cType="1" res="2.2752790246158838e-03" rms="3.4511584043502808e-01" purity="7.0092445611953735e-01" nType="-99"/>
          </Node>
          <Node pos="r" depth="2" NCoef="0" IVar="4" Cut="4.8196831250000000e+05" cType="1" res="-1.4690416865050793e-02" rms="2.0897926390171051e-01" purity="9.5169104635715485e-02" nType="0">
            <Node pos="l" depth="3" NCoef="0" IVar="-1" Cut="0.0000000000000000e+00" cType="1" res="-4.0151514112949371e-03" rms="1.8015025556087494e-01" purity="6.3011705875396729e-02" nType="-99"/>
            <Node pos="r" depth="3" NCoef="0" IVar="-1" Cut="0.0000000000000000e+00" cType="1" res="2.4764526169747114e-03" rms="3.6272016167640686e-01" purity="3.6501628160476685e-01" nType="-99"/>
          </Node>
        </Node>
        <Node pos="r" depth="1" NCoef="0" IVar="3" Cut="4.4570152343750000e+04" cType="1" res="1.0711187869310379e-01" rms="2.6667901873588562e-01" purity="8.4576702117919922e-01" nType="0">
          <Node pos="l" depth="2" NCoef="0" IVar="3" Cut="1.7045054687500000e+04" cType="1" res="7.7426679432392120e-02" rms="4.0710258483886719e-01" purity="5.7108080387115479e-01" nType="0">
            <Node pos="l" depth="3" NCoef="0" IVar="-1" Cut="0.0000000000000000e+00" cType="1" res="-2.4907558690756559e-04" rms="4.0052708983421326e-01" purity="2.2547958791255951e-01" nType="-99"/>
            <Node pos="r" depth="3" NCoef="0" IVar="-1" Cut="0.0000000000000000e+00" cType="1" res="1.1779833585023880e-03" rms="4.0529155731201172e-01" purity="7.0025569200515747e-01" nType="-99"/>
          </Node>
          <Node pos="r" depth="2" NCoef="0" IVar="4" Cut="3.0113087500000000e+05" cType="1" res="1.2036710977554321e-01" rms="1.6822747886180878e-01" purity="9.6842175722122192e-01" nType="0">
            <Node pos="l" depth="3" NCoef="0" IVar="-1" Cut="0.0000000000000000e+00" cType="1" res="1.6897903988137841e-03" rms="1.8689258396625519e-01" purity="9.6027398109436035e-01" nType="-99"/>
            <Node pos="r" depth="3" NCoef="0" IVar="-1" Cut="0.0000000000000000e+00" cType="1" res="1.9205739954486489e-03" rms="1.5970009565353394e-01" purity="9.7171628475189209e-01" nType="-99"/>
          </Node>
        </Node>
      </Node>
    </BinaryTree>
    <BinaryTree type="DecisionTree" boostWeight="1.0000000000000000e+00" itree="456">
      <Node pos="s" depth="0" NCoef="0" IVar="3" Cut="4.8721656250000000e+04" cType="1" res="6.5956935286521912e-02" rms="2.7775967121124268e-01" purity="5.0340604782104492e-01" nType="0">
        <Node pos="l" depth="1" NCoef="0" IVar="3" Cut="1.4009110351562500e+04" cType="1" res="4.2782563716173172e-02" rms="3.0268234014511108e-01" purity="2.2303707897663116e-01" nType="0">
          <Node pos="l" depth="2" NCoef="0" IVar="4" Cut="4.6758587500000000e+05" cType="1" res="-2.8106777463108301e-03" rms="1.7045207321643829e-01" purity="3.8356930017471313e-02" nType="0">
            <Node pos="l" depth="3" NCoef="0" IVar="-1" Cut="0.0000000000000000e+00" cType="1" res="-1.0012427344918251e-02" rms="1.2946553528308868e-01" purity="1.8472256138920784e-02" nType="-99"/>
            <Node pos="r" depth="3" NCoef="0" IVar="-1" Cut="0.0000000000000000e+00" cType="1" res="8.8165402412414551e-03" rms="4.1427561640739441e-01" purity="3.2938554883003235e-01" nType="-99"/>
          </Node>
          <Node pos="r" depth="2" NCoef="0" IVar="5" Cut="9.3550140625000000e+04" cType="1" res="6.2787398695945740e-02" rms="3.4315419197082520e-01" purity="3.0406874418258667e-01" nType="0">
            <Node pos="l" depth="3" NCoef="0" IVar="-1" Cut="0.0000000000000000e+00" cType="1" res="1.9061386119574308e-03" rms="3.3740544319152832e-01" purity="2.8323960304260254e-01" nType="-99"/>
            <Node pos="r" depth="3" NCoef="0" IVar="-1" Cut="0.0000000000000000e+00" cType="1" res="1.1949216714128852e-03" rms="3.7635749578475952e-01" purity="4.5370376110076904e-01" nType="-99"/>
          </Node>
        </Node>
        <Node pos="r" depth="1" NCoef="0" IVar="1" Cut="9.4909492187500000e+04" cType="1" res="9.9381200969219208e-02" rms="2.3322568833827972e-01" purity="9.0778070688247681e-01" nType="0">
          <Node pos="l" depth="2" NCoef="0" IVar="1" Cut="8.3099398437500000e+04" cType="1" res="6.5502785146236420e-02" rms="2.8080648183822632e-01" purity="8.4357035160064697e-01" nType="0">
            <Node pos="l" depth="3" NCoef="0" IVar="-1" Cut="0.0000000000000000e+00" cType="1" res="1.3620577519759536e-03" rms="2.3687903583049774e-01" purity="9.3033117055892944e-01" nType="-99"/>
            <Node pos="r" depth="3" NCoef="0" IVar="-1" Cut="0.0000000000000000e+00" cType="1" res="-1.0439483448863029e-03" rms="3.7184625864028931e-01" purity="5.3433763980865479e-01" nType="-99"/>
          </Node>
          <Node pos="r" depth="2" NCoef="0" IVar="0" Cut="3.8095238804817200e-01" cType="1" res="1.2618644535541534e-01" rms="1.8280014395713806e-01" purity="9.5858520269393921e-01" nType="0">
            <Node pos="l" depth="3" NCoef="0" IVar="-1" Cut="0.0000000000000000e+00" cType="1" res="1.5899729914963245e-03" rms="1.5091219544410706e-01" purity="9.6815562248229980e-01" nType="-99"/>
            <Node pos="r" depth="3" NCoef="0" IVar="-1" Cut="0.0000000000000000e+00" cType="1" res="1.6848025843501091e-03" rms="2.0196382701396942e-01" purity="9.5164835453033447e-01" nType="-99"/>
          </Node>
        </Node>
      </Node>
    </BinaryTree>
    <BinaryTree type="DecisionTree" boostWeight="1.0000000000000000e+00" itree="457">
      <Node pos="s" depth="0" NCoef="0" IVar="1" Cut="1.0035560937500000e+05" cType="1" res="6.1224486678838730e-02" rms="2.7524915337562561e-01" purity="4.9092331528663635e-01" nType="0">
        <Node pos="l" depth="1" NCoef="0" IVar="1" Cut="7.9321351562500000e+04" cType="1" res="2.8493298217654228e-02" rms="2.6055848598480225e-01" purity="3.0978122353553772e-01" nType="0">
          <Node pos="l" depth="2" NCoef="0" IVar="2" Cut="3.7109978125000000e+05" cType="1" res="8.1043459475040436e-02" rms="3.2324987649917603e-01" purity="6.2278342247009277e-01" nType="0">
            <Node pos="l" depth="3" NCoef="0" IVar="-1" Cut="0.0000000000000000e+00" cType="1" res="1.2923963367938995e-03" rms="3.1873387098312378e-01" purity="5.8074742555618286e-01" nType="-99"/>
            <Node pos="r" depth="3" NCoef="0" IVar="-1" Cut="0.0000000000000000e+00" cType="1" res="2.8917419258505106e-03" rms="3.2303142547607422e-01" purity="8.5460013151168823e-01" nType="-99"/>
          </Node>
          <Node pos="r" depth="2" NCoef="0" IVar="3" Cut="7.5666039062500000e+04" cType="1" res="-6.9891655584797263e-04" rms="2.1253919601440430e-01" purity="1.3590492308139801e-01" nType="0">
            <Node pos="l" depth="3" NCoef="0" IVar="-1" Cut="0.0000000000000000e+00" cType="1" res="-2.4617987219244242e-03" rms="1.9940030574798584e-01" purity="5.7094015181064606e-02" nType="-99"/>
            <Node pos="r" depth="3" NCoef="0" IVar="-1" Cut="0.0000000000000000e+00" cType="1" res="9.0809370158240199e-04" rms="2.9300335049629211e-01" purity="9.0208756923675537e-01" nType="-99"/>
          </Node>
        </Node>
        <Node pos="r" depth="1" NCoef="0" IVar="2" Cut="3.1853246875000000e+05" cType="1" res="1.2425789982080460e-01" rms="2.9134914278984070e-01" purity="8.3976489305496216e-01" nType="0">
          <Node pos="l" depth="2" NCoef="0" IVar="5" Cut="8.8780789062500000e+04" cType="1" res="1.6647209227085114e-01" rms="3.6058887839317322e-01" purity="7.4222612380981445e-01" nType="0">
            <Node pos="l" depth="3" NCoef="0" IVar="-1" Cut="0.0000000000000000e+00" cType="1" res="2.9777325689792633e-03" rms="3.2473215460777283e-01" purity="8.4030914306640625e-01" nType="-99"/>
            <Node pos="r" depth="3" NCoef="0" IVar="-1" Cut="0.0000000000000000e+00" cType="1" res="2.4282094091176987e-03" rms="3.7451618909835815e-01" purity="6.8264245986938477e-01" nType="-99"/>
          </Node>
          <Node pos="r" depth="2" NCoef="0" IVar="3" Cut="5.4691812500000000e+04" cType="1" res="1.0113985836505890e-01" rms="2.4218514561653137e-01" purity="8.9318066835403442e-01" nType="0">
            <Node pos="l" depth="3" NCoef="0" IVar="-1" Cut="0.0000000000000000e+00" cType="1" res="7.8534521162509918e-04" rms="3.6845123767852783e-01" purity="7.1005463600158691e-01" nType="-99"/>
            <Node pos="r" depth="3" NCoef="0" IVar="-1" Cut="0.0000000000000000e+00" cType="1" res="1.7004190012812614e-03" rms="1.3812428712844849e-01" purity="9.8149698972702026e-01" nType="-99"/>
          </Node>
        </Node>
      </Node>
    </BinaryTree>
    <BinaryTree type="DecisionTree" boostWeight="1.0000000000000000e+00" itree="458">
      <Node pos="s" depth="0" NCoef="0" IVar="1" Cut="9.3482273437500000e+04" cType="1" res="5.5789202451705933e-02" rms="2.7067196369171143e-01" purity="4.9780139327049255e-01" nType="0">
        <Node pos="l" depth="1" NCoef="0" IVar="3" Cut="8.4049687500000000e+04" cType="1" res="2.1789651364088058e-02" rms="2.7023681998252869e-01" purity="3.2511451840400696e-01" nType="0">
          <Node pos="l" depth="2" NCoef="0" IVar="3" Cut="4.3961726562500000e+04" cType="1" res="3.6733259912580252e-03" rms="2.8342723846435547e-01" purity="1.7842924594879150e-01" nType="0">
            <Node pos="l" depth="3" NCoef="0" IVar="-1" Cut="0.0000000000000000e+00" cType="1" res="1.8842765130102634e-03" rms="2.5197112560272217e-01" purity="9.4555646181106567e-02" nType="-99"/>
            <Node pos="r" depth="3" NCoef="0" IVar="-1" Cut="0.0000000000000000e+00" cType="1" res="-8.3005707710981369e-04" rms="3.9355602860450745e-01" purity="5.6784629821777344e-01" nType="-99"/>
          </Node>
          <Node pos="r" depth="2" NCoef="0" IVar="0" Cut="3.8095238804817200e-01" cType="1" res="1.0061859339475632e-01" rms="1.8332548439502716e-01" purity="9.6338123083114624e-01" nType="0">
            <Node pos="l" depth="3" NCoef="0" IVar="-1" Cut="0.0000000000000000e+00" cType="1" res="2.1634749136865139e-03" rms="1.1069139838218689e-01" purity="9.8756307363510132e-01" nType="-99"/>
            <Node pos="r" depth="3" NCoef="0" IVar="-1" Cut="0.0000000000000000e+00" cType="1" res="1.4445580309256911e-03" rms="2.1761555969715118e-01" purity="9.4685894250869751e-01" nType="-99"/>
          </Node>
        </Node>
        <Node pos="r" depth="1" NCoef="0" IVar="3" Cut="4.8659894531250000e+04" cType="1" res="9.4053298234939575e-02" rms="2.6601335406303406e-01" purity="6.9214832782745361e-01" nType="0">
          <Node pos="l" depth="2" NCoef="0" IVar="4" Cut="4.4508418750000000e+05" cType="1" res="6.4104512333869934e-02" rms="3.3346009254455566e-01" purity="4.0651944279670715e-01" nType="0">
            <Node pos="l" depth="3" NCoef="0" IVar="-1" Cut="0.0000000000000000e+00" cType="1" res="1.4910715399309993e-03" rms="3.2047888636589050e-01" purity="3.2180806994438171e-01" nType="-99"/>
            <Node pos="r" depth="3" NCoef="0" IVar="-1" Cut="0.0000000000000000e+00" cType="1" res="1.0580591624602675e-03" rms="3.6694607138633728e-01" purity="6.8560367822647095e-01" nType="-99"/>
          </Node>
          <Node pos="r" depth="2" NCoef="0" IVar="0" Cut="3.3333334326744080e-01" cType="1" res="1.2155524641275406e-01" rms="1.7903608083724976e-01" purity="9.5444118976593018e-01" nType="0">
            <Node pos="l" depth="3" NCoef="0" IVar="-1" Cut="0.0000000000000000e+00" cType="1" res="1.8145832000300288e-03" rms="1.9801096618175507e-01" purity="9.4966387748718262e-01" nType="-99"/>
            <Node pos="r" depth="3" NCoef="0" IVar="-1" Cut="0.0000000000000000e+00" cType="1" res="1.0305928299203515e-03" rms="1.7151242494583130e-01" purity="9.5614087581634521e-01" nType="-99"/>
          </Node>
        </Node>
      </Node>
    </BinaryTree>
    <BinaryTree type="DecisionTree" boostWeight="1.0000000000000000e+00" itree="459">
      <Node pos="s" depth="0" NCoef="0" IVar="1" Cut="1.0043304687500000e+05" cType="1" res="5.6493341922760010e-02" rms="2.6625883579254150e-01" purity="5.0484257936477661e-01" nType="0">
        <Node pos="l" depth="1" NCoef="0" IVar="1" Cut="6.6775414062500000e+04" cType="1" res="2.8009690344333649e-02" rms="2.7010172605514526e-01" purity="3.1766802072525024e-01" nType="0">
          <Node pos="l" depth="2" NCoef="0" IVar="1" Cut="3.8128878906250000e+04" cType="1" res="1.1179263144731522e-01" rms="3.4086513519287109e-01" purity="6.8678885698318481e-01" nType="0">
            <Node pos="l" depth="3" NCoef="0" IVar="-1" Cut="0.0000000000000000e+00" cType="1" res="9.2222544481046498e-05" rms="3.0430033802986145e-01" purity="4.6948793530464172e-01" nType="-99"/>
            <Node pos="r" depth="3" NCoef="0" IVar="-1" Cut="0.0000000000000000e+00" cType="1" res="1.9786374177783728e-03" rms="3.4511187672615051e-01" purity="7.9863655567169189e-01" nType="-99"/>
          </Node>
          <Node pos="r" depth="2" NCoef="0" IVar="3" Cut="7.5557476562500000e+04" cType="1" res="-5.9249871410429478e-03" rms="2.2682389616966248e-01" purity="1.6816271841526031e-01" nType="0">
            <Node pos="l" depth="3" NCoef="0" IVar="-1" Cut="0.0000000000000000e+00" cType="1" res="-2.0696981810033321e-03" rms="2.1936418116092682e-01" purity="7.7893890440464020e-02" nType="-99"/>
            <Node pos="r" depth="3" NCoef="0" IVar="-1" Cut="0.0000000000000000e+00" cType="1" res="1.0928693227469921e-03" rms="2.6934236288070679e-01" purity="9.0957909822463989e-01" nType="-99"/>
          </Node>
        </Node>
        <Node pos="r" depth="1" NCoef="0" IVar="3" Cut="5.4411828125000000e+04" cType="1" res="1.0977637767791748e-01" rms="2.5036224722862244e-01" purity="8.5498118400573730e-01" nType="0">
          <Node pos="l" depth="2" NCoef="0" IVar="3" Cut="1.8289595703125000e+04" cType="1" res="8.9273855090141296e-02" rms="3.5525956749916077e-01" purity="6.7673289775848389e-01" nType="0">
            <Node pos="l" depth="3" NCoef="0" IVar="-1" Cut="0.0000000000000000e+00" cType="1" res="-1.6358065186068416e-03" rms="3.1925165653228760e-01" purity="2.1917887032032013e-01" nType="-99"/>
            <Node pos="r" depth="3" NCoef="0" IVar="-1" Cut="0.0000000000000000e+00" cType="1" res="7.6222309144213796e-04" rms="3.5488626360893250e-01" purity="7.9648220539093018e-01" nType="-99"/>
          </Node>
          <Node pos="r" depth="2" NCoef="0" IVar="4" Cut="4.6580743750000000e+05" cType="1" res="1.2449246644973755e-01" rms="1.2870284914970398e-01" purity="9.8292231559753418e-01" nType="0">
            <Node pos="l" depth="3" NCoef="0" IVar="-1" Cut="0.0000000000000000e+00" cType="1" res="1.0966693516820669e-03" rms="1.2865681946277618e-01" purity="9.8300838470458984e-01" nType="-99"/>
            <Node pos="r" depth="3" NCoef="0" IVar="-1" Cut="0.0000000000000000e+00" cType="1" res="1.9247529562562704e-03" rms="1.2833075225353241e-01" purity="9.8282825946807861e-01" nType="-99"/>
          </Node>
        </Node>
      </Node>
    </BinaryTree>
    <BinaryTree type="DecisionTree" boostWeight="1.0000000000000000e+00" itree="460">
      <Node pos="s" depth="0" NCoef="0" IVar="1" Cut="1.0034389062500000e+05" cType="1" res="5.6289859116077423e-02" rms="2.6744630932807922e-01" purity="4.9839544296264648e-01" nType="0">
        <Node pos="l" depth="1" NCoef="0" IVar="1" Cut="7.9299054687500000e+04" cType="1" res="2.6725139468908310e-02" rms="2.5853627920150757e-01" purity="3.0883449316024780e-01" nType="0">
          <Node pos="l" depth="2" NCoef="0" IVar="1" Cut="4.0843726562500000e+04" cType="1" res="8.4005139768123627e-02" rms="3.2592812180519104e-01" purity="6.3346856832504272e-01" nType="0">
            <Node pos="l" depth="3" NCoef="0" IVar="-1" Cut="0.0000000000000000e+00" cType="1" res="-3.6321455263532698e-04" rms="3.4325757622718811e-01" purity="4.2843505740165710e-01" nType="-99"/>
            <Node pos="r" depth="3" NCoef="0" IVar="-1" Cut="0.0000000000000000e+00" cType="1" res="1.6793517861515284e-03" rms="3.1083181500434875e-01" purity="7.1441906690597534e-01" nType="-99"/>
          </Node>
          <Node pos="r" depth="2" NCoef="0" IVar="1" Cut="9.7325726562500000e+04" cType="1" res="-5.8010201901197433e-03" rms="2.0384703576564789e-01" purity="1.2449267506599426e-01" nType="0">
            <Node pos="l" depth="3" NCoef="0" IVar="-1" Cut="0.0000000000000000e+00" cType="1" res="-2.0168367773294449e-03" rms="1.9165535271167755e-01" purity="9.7118102014064789e-02" nType="-99"/>
            <Node pos="r" depth="3" NCoef="0" IVar="-1" Cut="0.0000000000000000e+00" cType="1" res="2.4747718125581741e-03" rms="2.7859690785408020e-01" purity="4.2433443665504456e-01" nType="-99"/>
          </Node>
        </Node>
        <Node pos="r" depth="1" NCoef="0" IVar="4" Cut="3.6573103125000000e+05" cType="1" res="1.0999499261379242e-01" rms="2.7489757537841797e-01" purity="8.4273809194564819e-01" nType="0">
          <Node pos="l" depth="2" NCoef="0" IVar="3" Cut="3.6561417968750000e+04" cType="1" res="6.9759078323841095e-02" rms="3.3662679791450500e-01" purity="6.8832600116729736e-01" nType="0">
            <Node pos="l" depth="3" NCoef="0" IVar="-1" Cut="0.0000000000000000e+00" cType="1" res="4.0190885192714632e-04" rms="3.9054685831069946e-01" purity="3.4300974011421204e-01" nType="-99"/>
            <Node pos="r" depth="3" NCoef="0" IVar="-1" Cut="0.0000000000000000e+00" cType="1" res="1.5256153419613838e-03" rms="2.9314973950386047e-01" purity="9.0151166915893555e-01" nType="-99"/>
          </Node>
          <Node pos="r" depth="2" NCoef="0" IVar="1" Cut="1.8449610937500000e+05" cType="1" res="1.3398471474647522e-01" rms="2.2698239982128143e-01" purity="9.3480277061462402e-01" nType="0">
            <Node pos="l" depth="3" NCoef="0" IVar="-1" Cut="0.0000000000000000e+00" cType="1" res="1.2203466612845659e-03" rms="2.3411709070205688e-01" purity="9.3045395612716675e-01" nType="-99"/>
            <Node pos="r" depth="3" NCoef="0" IVar="-1" Cut="0.0000000000000000e+00" cType="1" res="8.8314805179834366e-04" rms="2.1197646856307983e-01" purity="9.4005578756332397e-01" nType="-99"/>
          </Node>
        </Node>
      </Node>
    </BinaryTree>
    <BinaryTree type="DecisionTree" boostWeight="1.0000000000000000e+00" itree="461">
      <Node pos="s" depth="0" NCoef="0" IVar="3" Cut="5.4259988281250000e+04" cType="1" res="5.2680365741252899e-02" rms="2.5606903433799744e-01" purity="4.8938953876495361e-01" nType="0">
        <Node pos="l" depth="1" NCoef="0" IVar="5" Cut="8.8783257812500000e+04" cType="1" res="1.9725637510418892e-02" rms="2.6926469802856445e-01" purity="2.2299157083034515e-01" nType="0">
          <Node pos="l" depth="2" NCoef="0" IVar="1" Cut="7.4268460937500000e+04" cType="1" res="8.0148175358772278e-02" rms="3.2557249069213867e-01" purity="3.9756631851196289e-01" nType="0">
            <Node pos="l" depth="3" NCoef="0" IVar="-1" Cut="0.0000000000000000e+00" cType="1" res="3.0928694177418947e-03" rms="3.9656263589859009e-01" purity="4.9849495291709900e-01" nType="-99"/>
            <Node pos="r" depth="3" NCoef="0" IVar="-1" Cut="0.0000000000000000e+00" cType="1" res="1.2099778978154063e-03" rms="2.8664419054985046e-01" purity="3.5723587870597839e-01" nType="-99"/>
          </Node>
          <Node pos="r" depth="2" NCoef="0" IVar="5" Cut="9.2886132812500000e+04" cType="1" res="4.5165866613388062e-03" rms="2.5084331631660461e-01" purity="1.7904910445213318e-01" nType="0">
            <Node pos="l" depth="3" NCoef="0" IVar="-1" Cut="0.0000000000000000e+00" cType="1" res="-4.3425642070360482e-04" rms="2.2261965274810791e-01" purity="1.5652978420257568e-01" nType="-99"/>
            <Node pos="r" depth="3" NCoef="0" IVar="-1" Cut="0.0000000000000000e+00" cType="1" res="1.7446405254304409e-03" rms="3.3332049846649170e-01" purity="2.6394969224929810e-01" nType="-99"/>
          </Node>
        </Node>
        <Node pos="r" depth="1" NCoef="0" IVar="0" Cut="3.8095238804817200e-01" cType="1" res="1.0739130526781082e-01" rms="2.2196048498153687e-01" purity="9.3165940046310425e-01" nType="0">
          <Node pos="l" depth="2" NCoef="0" IVar="2" Cut="2.2139978125000000e+05" cType="1" res="0.0000000000000000e+00" rms="0.0000000000000000e+00" purity="9.3421131372451782e-01" nType="0">
            <Node pos="l" depth="3" NCoef="0" IVar="-1" Cut="0.0000000000000000e+00" cType="1" res="1.6050179256126285e-03" rms="2.7042749524116516e-01" purity="8.6236912012100220e-01" nType="-99"/>
            <Node pos="r" depth="3" NCoef="0" IVar="-1" Cut="0.0000000000000000e+00" cType="1" res="1.9705598242580891e-03" rms="1.9796143472194672e-01" purity="9.5057696104049683e-01" nType="-99"/>
          </Node>
          <Node pos="r" depth="2" NCoef="0" IVar="1" Cut="1.3213310937500000e+05" cType="1" res="9.7409129142761230e-02" rms="2.2508504986763000e-01" purity="9.3037635087966919e-01" nType="0">
            <Node pos="l" depth="3" NCoef="0" IVar="-1" Cut="0.0000000000000000e+00" cType="1" res="1.0720893042162061e-03" rms="2.7262946963310242e-01" purity="8.9296180009841919e-01" nType="-99"/>
            <Node pos="r" depth="3" NCoef="0" IVar="-1" Cut="0.0000000000000000e+00" cType="1" res="1.3227107701823115e-03" rms="1.3208974897861481e-01" purity="9.8198026418685913e-01" nType="-99"/>
          </Node>
        </Node>
      </Node>
    </BinaryTree>
    <BinaryTree type="DecisionTree" boostWeight="1.0000000000000000e+00" itree="462">
      <Node pos="s" depth="0" NCoef="0" IVar="1" Cut="1.0035560937500000e+05" cType="1" res="5.8527145534753799e-02" rms="2.7485907077789307e-01" purity="4.9404722452163696e-01" nType="0">
        <Node pos="l" depth="1" NCoef="0" IVar="1" Cut="7.9321351562500000e+04" cType="1" res="3.1846765428781509e-02" rms="2.7394208312034607e-01" purity="3.0248358845710754e-01" nType="0">
          <Node pos="l" depth="2" NCoef="0" IVar="1" Cut="4.7268515625000000e+04" cType="1" res="9.0710997581481934e-02" rms="3.3504420518875122e-01" purity="6.2378019094467163e-01" nType="0">
            <Node pos="l" depth="3" NCoef="0" IVar="-1" Cut="0.0000000000000000e+00" cType="1" res="2.8744401060976088e-04" rms="3.2474792003631592e-01" purity="4.8499429225921631e-01" nType="-99"/>
            <Node pos="r" depth="3" NCoef="0" IVar="-1" Cut="0.0000000000000000e+00" cType="1" res="2.1143718622624874e-03" rms="3.3221423625946045e-01" purity="7.0079404115676880e-01" nType="-99"/>
          </Node>
          <Node pos="r" depth="2" NCoef="0" IVar="0" Cut="1.2857142686843872e+00" cType="1" res="-2.2395316045731306e-04" rms="2.2771646082401276e-01" purity="1.2743309140205383e-01" nType="0">
            <Node pos="l" depth="3" NCoef="0" IVar="-1" Cut="0.0000000000000000e+00" cType="1" res="-2.5578073691576719e-03" rms="1.7473998665809631e-01" purity="8.0574810504913330e-02" nType="-99"/>
            <Node pos="r" depth="3" NCoef="0" IVar="-1" Cut="0.0000000000000000e+00" cType="1" res="2.2855149582028389e-03" rms="3.6461299657821655e-01" purity="3.2073250412940979e-01" nType="-99"/>
          </Node>
        </Node>
        <Node pos="r" depth="1" NCoef="0" IVar="3" Cut="5.4305199218750000e+04" cType="1" res="1.0834854096174240e-01" rms="2.6958450675010681e-01" purity="8.5176199674606323e-01" nType="0">
          <Node pos="l" depth="2" NCoef="0" IVar="3" Cut="3.8835796875000000e+04" cType="1" res="8.7673477828502655e-02" rms="3.8973319530487061e-01" purity="6.5529984235763550e-01" nType="0">
            <Node pos="l" depth="3" NCoef="0" IVar="-1" Cut="0.0000000000000000e+00" cType="1" res="1.5436150133609772e-03" rms="4.3271964788436890e-01" purity="5.2536624670028687e-01" nType="-99"/>
            <Node pos="r" depth="3" NCoef="0" IVar="-1" Cut="0.0000000000000000e+00" cType="1" res="1.2342653935775161e-03" rms="2.9018795490264893e-01" purity="8.9645355939865112e-01" nType="-99"/>
          </Node>
          <Node pos="r" depth="2" NCoef="0" IVar="0" Cut="1.3333333730697632e+00" cType="1" res="1.2159930169582367e-01" rms="1.4647930860519409e-01" purity="9.7767567634582520e-01" nType="0">
            <Node pos="l" depth="3" NCoef="0" IVar="-1" Cut="0.0000000000000000e+00" cType="1" res="1.6745517496019602e-03" rms="1.4201466739177704e-01" purity="9.7916704416275024e-01" nType="-99"/>
            <Node pos="r" depth="3" NCoef="0" IVar="-1" Cut="0.0000000000000000e+00" cType="1" res="1.8734917975962162e-03" rms="1.5393091738224030e-01" purity="9.7476553916931152e-01" nType="-99"/>
          </Node>
        </Node>
      </Node>
    </BinaryTree>
    <BinaryTree type="DecisionTree" boostWeight="1.0000000000000000e+00" itree="463">
      <Node pos="s" depth="0" NCoef="0" IVar="3" Cut="4.8865695312500000e+04" cType="1" res="4.9515020102262497e-02" rms="2.5960016250610352e-01" purity="4.9249401688575745e-01" nType="0">
        <Node pos="l" depth="1" NCoef="0" IVar="3" Cut="4.1919609375000000e+04" cType="1" res="1.2398049235343933e-02" rms="2.6280307769775391e-01" purity="1.8624824285507202e-01" nType="0">
          <Node pos="l" depth="2" NCoef="0" IVar="1" Cut="1.3875959375000000e+05" cType="1" res="5.4772733710706234e-03" rms="2.4659787118434906e-01" purity="1.4419533312320709e-01" nType="0">
            <Node pos="l" depth="3" NCoef="0" IVar="-1" Cut="0.0000000000000000e+00" cType="1" res="-1.3042457794654183e-05" rms="2.2833557426929474e-01" purity="8.1128776073455811e-02" nType="-99"/>
            <Node pos="r" depth="3" NCoef="0" IVar="-1" Cut="0.0000000000000000e+00" cType="1" res="9.5839874120429158e-04" rms="3.7900608777999878e-01" purity="7.7129155397415161e-01" nType="-99"/>
          </Node>
          <Node pos="r" depth="2" NCoef="0" IVar="2" Cut="2.9270740625000000e+05" cType="1" res="7.8778110444545746e-02" rms="3.7865087389945984e-01" purity="5.8959531784057617e-01" nType="0">
            <Node pos="l" depth="3" NCoef="0" IVar="-1" Cut="0.0000000000000000e+00" cType="1" res="2.0171311916783452e-04" rms="3.7926572561264038e-01" purity="4.4630420207977295e-01" nType="-99"/>
            <Node pos="r" depth="3" NCoef="0" IVar="-1" Cut="0.0000000000000000e+00" cType="1" res="5.8104278286918998e-04" rms="3.6617442965507507e-01" purity="7.2699332237243652e-01" nType="-99"/>
          </Node>
        </Node>
        <Node pos="r" depth="1" NCoef="0" IVar="1" Cut="1.0059082812500000e+05" cType="1" res="9.9756851792335510e-02" rms="2.4645139276981354e-01" purity="9.0703082084655762e-01" nType="0">
          <Node pos="l" depth="2" NCoef="0" IVar="5" Cut="8.9950890625000000e+04" cType="1" res="7.2331994771957397e-02" rms="3.1670629978179932e-01" purity="8.3061462640762329e-01" nType="0">
            <Node pos="l" depth="3" NCoef="0" IVar="-1" Cut="0.0000000000000000e+00" cType="1" res="1.3546150876209140e-03" rms="3.2041105628013611e-01" purity="8.6491000652313232e-01" nType="-99"/>
            <Node pos="r" depth="3" NCoef="0" IVar="-1" Cut="0.0000000000000000e+00" cType="1" res="6.3008465804159641e-04" rms="3.1214344501495361e-01" purity="8.1099379062652588e-01" nType="-99"/>
          </Node>
          <Node pos="r" depth="2" NCoef="0" IVar="5" Cut="9.0562578125000000e+04" cType="1" res="1.2400536239147186e-01" rms="1.5653453767299652e-01" purity="9.7459650039672852e-01" nType="0">
            <Node pos="l" depth="3" NCoef="0" IVar="-1" Cut="0.0000000000000000e+00" cType="1" res="1.5272361924871802e-03" rms="1.7131651937961578e-01" purity="9.6867054700851440e-01" nType="-99"/>
            <Node pos="r" depth="3" NCoef="0" IVar="-1" Cut="0.0000000000000000e+00" cType="1" res="1.5762170078232884e-03" rms="1.4279997348785400e-01" purity="9.7938865423202515e-01" nType="-99"/>
          </Node>
        </Node>
      </Node>
    </BinaryTree>
    <BinaryTree type="DecisionTree" boostWeight="1.0000000000000000e+00" itree="464">
      <Node pos="s" depth="0" NCoef="0" IVar="1" Cut="9.3462679687500000e+04" cType="1" res="5.4488081485033035e-02" rms="2.7150276303291321e-01" purity="4.9189507961273193e-01" nType="0">
        <Node pos="l" depth="1" NCoef="0" IVar="4" Cut="4.7798709375000000e+05" cType="1" res="2.3171801120042801e-02" rms="2.7154502272605896e-01" purity="3.2602241635322571e-01" nType="0">
          <Node pos="l" depth="2" NCoef="0" IVar="3" Cut="7.2107390625000000e+04" cType="1" res="1.1373119428753853e-02" rms="2.6089301705360413e-01" purity="2.7395811676979065e-01" nType="0">
            <Node pos="l" depth="3" NCoef="0" IVar="-1" Cut="0.0000000000000000e+00" cType="1" res="-4.1385216172784567e-04" rms="2.5839513540267944e-01" purity="1.2089014053344727e-01" nType="-99"/>
            <Node pos="r" depth="3" NCoef="0" IVar="-1" Cut="0.0000000000000000e+00" cType="1" res="1.0099282953888178e-03" rms="2.6091137528419495e-01" purity="9.2114269733428955e-01" nType="-99"/>
          </Node>
          <Node pos="r" depth="2" NCoef="0" IVar="5" Cut="9.0830562500000000e+04" cType="1" res="1.0194495320320129e-01" rms="3.2321465015411377e-01" purity="6.7362648248672485e-01" nType="0">
            <Node pos="l" depth="3" NCoef="0" IVar="-1" Cut="0.0000000000000000e+00" cType="1" res="2.4582799524068832e-03" rms="3.3434161543846130e-01" purity="7.3377364873886108e-01" nType="-99"/>
            <Node pos="r" depth="3" NCoef="0" IVar="-1" Cut="0.0000000000000000e+00" cType="1" res="6.7466741893440485e-04" rms="2.9401478171348572e-01" purity="6.0397171974182129e-01" nType="-99"/>
          </Node>
        </Node>
        <Node pos="r" depth="1" NCoef="0" IVar="4" Cut="3.4556337500000000e+05" cType="1" res="9.1878980398178101e-02" rms="2.6667827367782593e-01" purity="6.8994301557540894e-01" nType="0">
          <Node pos="l" depth="2" NCoef="0" IVar="3" Cut="3.6806453125000000e+04" cType="1" res="6.7186914384365082e-02" rms="2.7956086397171021e-01" purity="5.2519816160202026e-01" nType="0">
            <Node pos="l" depth="3" NCoef="0" IVar="-1" Cut="0.0000000000000000e+00" cType="1" res="8.4451597649604082e-04" rms="2.9385089874267578e-01" purity="1.4285594224929810e-01" nType="-99"/>
            <Node pos="r" depth="3" NCoef="0" IVar="-1" Cut="0.0000000000000000e+00" cType="1" res="1.4266824582591653e-03" rms="2.5514900684356689e-01" purity="8.7202614545822144e-01" nType="-99"/>
          </Node>
          <Node pos="r" depth="2" NCoef="0" IVar="2" Cut="4.6538850000000000e+05" cType="1" res="1.1699327826499939e-01" rms="2.5041794776916504e-01" purity="8.5750502347946167e-01" nType="0">
            <Node pos="l" depth="3" NCoef="0" IVar="-1" Cut="0.0000000000000000e+00" cType="1" res="8.4939342923462391e-04" rms="2.6644566655158997e-01" purity="8.5235095024108887e-01" nType="-99"/>
            <Node pos="r" depth="3" NCoef="0" IVar="-1" Cut="0.0000000000000000e+00" cType="1" res="1.5426977770403028e-03" rms="2.2183723747730255e-01" purity="8.6451470851898193e-01" nType="-99"/>
          </Node>
        </Node>
      </Node>
    </BinaryTree>
    <BinaryTree type="DecisionTree" boostWeight="1.0000000000000000e+00" itree="465">
      <Node pos="s" depth="0" NCoef="0" IVar="3" Cut="6.8736484375000000e+04" cType="1" res="5.3002115339040756e-02" rms="2.6417422294616699e-01" purity="5.0012123584747314e-01" nType="0">
        <Node pos="l" depth="1" NCoef="0" IVar="1" Cut="1.3640723437500000e+05" cType="1" res="2.9531920328736305e-02" rms="2.9074314236640930e-01" purity="2.9063230752944946e-01" nType="0">
          <Node pos="l" depth="2" NCoef="0" IVar="4" Cut="4.7458675000000000e+05" cType="1" res="1.2655042111873627e-02" rms="2.8230807185173035e-01" purity="1.6915072500705719e-01" nType="0">
            <Node pos="l" depth="3" NCoef="0" IVar="-1" Cut="0.0000000000000000e+00" cType="1" res="4.2925882735289633e-04" rms="2.6667749881744385e-01" purity="1.5395991504192352e-01" nType="-99"/>
            <Node pos="r" depth="3" NCoef="0" IVar="-1" Cut="0.0000000000000000e+00" cType="1" res="3.1297719106078148e-03" rms="4.0626239776611328e-01" purity="3.2826253771781921e-01" nType="-99"/>
          </Node>
          <Node pos="r" depth="2" NCoef="0" IVar="0" Cut="2.8571429848670959e-01" cType="1" res="1.1045470833778381e-01" rms="3.1590270996093750e-01" purity="8.7312322854995728e-01" nType="0">
            <Node pos="l" depth="3" NCoef="0" IVar="-1" Cut="0.0000000000000000e+00" cType="1" res="1.5782766276970506e-03" rms="3.1804546713829041e-01" purity="8.7943625450134277e-01" nType="-99"/>
            <Node pos="r" depth="3" NCoef="0" IVar="-1" Cut="0.0000000000000000e+00" cType="1" res="8.3266664296388626e-04" rms="3.0848979949951172e-01" purity="8.6655443906784058e-01" nType="-99"/>
          </Node>
        </Node>
        <Node pos="r" depth="1" NCoef="0" IVar="1" Cut="1.2527707812500000e+05" cType="1" res="1.0475794970989227e-01" rms="1.8270900845527649e-01" purity="9.6208029985427856e-01" nType="0">
          <Node pos="l" depth="2" NCoef="0" IVar="3" Cut="1.0326898437500000e+05" cType="1" res="9.7886838018894196e-02" rms="2.1287454664707184e-01" purity="9.4733977317810059e-01" nType="0">
            <Node pos="l" depth="3" NCoef="0" IVar="-1" Cut="0.0000000000000000e+00" cType="1" res="1.1125687742605805e-03" rms="2.8634661436080933e-01" purity="9.0000271797180176e-01" nType="-99"/>
            <Node pos="r" depth="3" NCoef="0" IVar="-1" Cut="0.0000000000000000e+00" cType="1" res="1.8236886244267225e-03" rms="1.3951756060123444e-01" purity="9.8017060756683350e-01" nType="-99"/>
          </Node>
          <Node pos="r" depth="2" NCoef="0" IVar="-1" Cut="0.0000000000000000e+00" cType="1" res="1.3197864172980189e-03" rms="1.1773013323545456e-01" purity="9.8594844341278076e-01" nType="-99"/>
        </Node>
      </Node>
    </BinaryTree>
    <BinaryTree type="DecisionTree" boostWeight="1.0000000000000000e+00" itree="466">
      <Node pos="s" depth="0" NCoef="0" IVar="1" Cut="1.0034389062500000e+05" cType="1" res="5.1476478576660156e-02" rms="2.5628790259361267e-01" purity="5.0457853078842163e-01" nType="0">
        <Node pos="l" depth="1" NCoef="0" IVar="1" Cut="7.5099921875000000e+04" cType="1" res="1.6826562583446503e-02" rms="2.4873207509517670e-01" purity="3.1780582666397095e-01" nType="0">
          <Node pos="l" depth="2" NCoef="0" IVar="1" Cut="4.2047820312500000e+04" cType="1" res="6.7981548607349396e-02" rms="3.1146839261054993e-01" purity="6.6411828994750977e-01" nType="0">
            <Node pos="l" depth="3" NCoef="0" IVar="-1" Cut="0.0000000000000000e+00" cType="1" res="5.9936341131106019e-05" rms="2.8868091106414795e-01" purity="5.7138329744338989e-01" nType="-99"/>
            <Node pos="r" depth="3" NCoef="0" IVar="-1" Cut="0.0000000000000000e+00" cType="1" res="1.6693203942850232e-03" rms="3.1845295429229736e-01" purity="7.2596597671508789e-01" nType="-99"/>
          </Node>
          <Node pos="r" depth="2" NCoef="0" IVar="3" Cut="1.1350376562500000e+05" cType="1" res="-9.3981521204113960e-03" rms="2.0450247824192047e-01" purity="1.4026796817779541e-01" nType="0">
            <Node pos="l" depth="3" NCoef="0" IVar="-1" Cut="0.0000000000000000e+00" cType="1" res="-1.5598071040585637e-03" rms="2.0376685261726379e-01" purity="9.5979243516921997e-02" nType="-99"/>
            <Node pos="r" depth="3" NCoef="0" IVar="-1" Cut="0.0000000000000000e+00" cType="1" res="1.8180980114266276e-03" rms="1.8272972106933594e-01" purity="9.6469604969024658e-01" nType="-99"/>
          </Node>
        </Node>
        <Node pos="r" depth="1" NCoef="0" IVar="3" Cut="2.6268734375000000e+04" cType="1" res="1.1639953404664993e-01" rms="2.5762102007865906e-01" purity="8.5453200340270996e-01" nType="0">
          <Node pos="l" depth="2" NCoef="0" IVar="3" Cut="2.0081574218750000e+04" cType="1" res="6.5286934375762939e-02" rms="3.9026087522506714e-01" purity="4.8226571083068848e-01" nType="0">
            <Node pos="l" depth="3" NCoef="0" IVar="-1" Cut="0.0000000000000000e+00" cType="1" res="1.4126350870355964e-03" rms="3.8492959737777710e-01" purity="4.8586192727088928e-01" nType="-99"/>
            <Node pos="r" depth="3" NCoef="0" IVar="-1" Cut="0.0000000000000000e+00" cType="1" res="-2.0146907772868872e-03" rms="3.7475666403770447e-01" purity="4.6809512376785278e-01" nType="-99"/>
          </Node>
          <Node pos="r" depth="2" NCoef="0" IVar="5" Cut="9.0386210937500000e+04" cType="1" res="1.2784382700920105e-01" rms="2.1543332934379578e-01" purity="9.3788379430770874e-01" nType="0">
            <Node pos="l" depth="3" NCoef="0" IVar="-1" Cut="0.0000000000000000e+00" cType="1" res="1.0374146513640881e-03" rms="2.3350143432617188e-01" purity="9.2423701286315918e-01" nType="-99"/>
            <Node pos="r" depth="3" NCoef="0" IVar="-1" Cut="0.0000000000000000e+00" cType="1" res="1.3783542672172189e-03" rms="2.0048072934150696e-01" purity="9.4768244028091431e-01" nType="-99"/>
          </Node>
        </Node>
      </Node>
    </BinaryTree>
    <BinaryTree type="DecisionTree" boostWeight="1.0000000000000000e+00" itree="467">
      <Node pos="s" depth="0" NCoef="0" IVar="3" Cut="8.8866960937500000e+04" cType="1" res="5.0395738333463669e-02" rms="2.5542402267456055e-01" purity="5.0741219520568848e-01" nType="0">
        <Node pos="l" depth="1" NCoef="0" IVar="1" Cut="1.0034835937500000e+05" cType="1" res="2.9910163953900337e-02" rms="2.8178218007087708e-01" purity="3.4693658351898193e-01" nType="0">
          <Node pos="l" depth="2" NCoef="0" IVar="1" Cut="7.5107859375000000e+04" cType="1" res="1.0495061986148357e-02" rms="2.6440724730491638e-01" purity="1.9582524895668030e-01" nType="0">
            <Node pos="l" depth="3" NCoef="0" IVar="-1" Cut="0.0000000000000000e+00" cType="1" res="1.5366874868050218e-03" rms="3.8100081682205200e-01" purity="5.3207677602767944e-01" nType="-99"/>
            <Node pos="r" depth="3" NCoef="0" IVar="-1" Cut="0.0000000000000000e+00" cType="1" res="-4.3983552604913712e-03" rms="1.8952172994613647e-01" purity="6.2955945730209351e-02" nType="-99"/>
          </Node>
          <Node pos="r" depth="2" NCoef="0" IVar="3" Cut="2.1388843750000000e+04" cType="1" res="8.1571333110332489e-02" rms="3.1777513027191162e-01" purity="7.4902504682540894e-01" nType="0">
            <Node pos="l" depth="3" NCoef="0" IVar="-1" Cut="0.0000000000000000e+00" cType="1" res="-9.8680735391099006e-05" rms="3.8055166602134705e-01" purity="3.0234163999557495e-01" nType="-99"/>
            <Node pos="r" depth="3" NCoef="0" IVar="-1" Cut="0.0000000000000000e+00" cType="1" res="1.4690657844766974e-03" rms="2.9612970352172852e-01" purity="8.6134850978851318e-01" nType="-99"/>
          </Node>
        </Node>
        <Node pos="r" depth="1" NCoef="0" IVar="1" Cut="1.2527707812500000e+05" cType="1" res="1.1079650372266769e-01" rms="1.3640549778938293e-01" purity="9.8056703805923462e-01" nType="0">
          <Node pos="l" depth="2" NCoef="0" IVar="0" Cut="1.1428571939468384e+00" cType="1" res="1.0321005433797836e-01" rms="1.6513717174530029e-01" purity="9.7116136550903320e-01" nType="0">
            <Node pos="l" depth="3" NCoef="0" IVar="-1" Cut="0.0000000000000000e+00" cType="1" res="1.5317039797082543e-03" rms="1.3399049639701843e-01" purity="9.8118424415588379e-01" nType="-99"/>
            <Node pos="r" depth="3" NCoef="0" IVar="-1" Cut="0.0000000000000000e+00" cType="1" res="1.4599562855437398e-03" rms="2.2071629762649536e-01" purity="9.4715428352355957e-01" nType="-99"/>
          </Node>
          <Node pos="r" depth="2" NCoef="0" IVar="-1" Cut="0.0000000000000000e+00" cType="1" res="1.4669819502159953e-03" rms="8.5375487804412842e-02" purity="9.9266982078552246e-01" nType="-99"/>
        </Node>
      </Node>
    </BinaryTree>
    <BinaryTree type="DecisionTree" boostWeight="1.0000000000000000e+00" itree="468">
      <Node pos="s" depth="0" NCoef="0" IVar="3" Cut="4.8721656250000000e+04" cType="1" res="5.6770440191030502e-02" rms="2.6816335320472717e-01" purity="5.0694566965103149e-01" nType="0">
        <Node pos="l" depth="1" NCoef="0" IVar="3" Cut="3.7145671875000000e+04" cType="1" res="1.7779855057597160e-02" rms="2.8857836127281189e-01" purity="1.6582249104976654e-01" nType="0">
          <Node pos="l" depth="2" NCoef="0" IVar="3" Cut="1.4223243164062500e+04" cType="1" res="2.6933521032333374e-02" rms="2.7751868963241577e-01" purity="1.4042361080646515e-01" nType="0">
            <Node pos="l" depth="3" NCoef="0" IVar="-1" Cut="0.0000000000000000e+00" cType="1" res="-2.6632722001522779e-03" rms="1.5580198168754578e-01" purity="3.6277219653129578e-02" nType="-99"/>
            <Node pos="r" depth="3" NCoef="0" IVar="-1" Cut="0.0000000000000000e+00" cType="1" res="2.6266358327120543e-03" rms="3.2948428392410278e-01" purity="2.0513492822647095e-01" nType="-99"/>
          </Node>
          <Node pos="r" depth="2" NCoef="0" IVar="0" Cut="1.3333333730697632e+00" cType="1" res="-4.8165775835514069e-02" rms="3.5132598876953125e-01" purity="3.4880337119102478e-01" nType="0">
            <Node pos="l" depth="3" NCoef="0" IVar="-1" Cut="0.0000000000000000e+00" cType="1" res="-3.3257226459681988e-04" rms="3.6235189437866211e-01" purity="3.9582374691963196e-01" nType="-99"/>
            <Node pos="r" depth="3" NCoef="0" IVar="-1" Cut="0.0000000000000000e+00" cType="1" res="-9.8815523087978363e-03" rms="2.7779528498649597e-01" purity="1.8963694572448730e-01" nType="-99"/>
          </Node>
        </Node>
        <Node pos="r" depth="1" NCoef="0" IVar="1" Cut="1.0069682812500000e+05" cType="1" res="1.0345833003520966e-01" rms="2.3302741348743439e-01" purity="9.1541147232055664e-01" nType="0">
          <Node pos="l" depth="2" NCoef="0" IVar="3" Cut="7.9376359375000000e+04" cType="1" res="8.3605237305164337e-02" rms="2.9446819424629211e-01" purity="8.4841740131378174e-01" nType="0">
            <Node pos="l" depth="3" NCoef="0" IVar="-1" Cut="0.0000000000000000e+00" cType="1" res="5.6262902216985822e-04" rms="4.0547683835029602e-01" purity="6.7813813686370850e-01" nType="-99"/>
            <Node pos="r" depth="3" NCoef="0" IVar="-1" Cut="0.0000000000000000e+00" cType="1" res="1.6616362845525146e-03" rms="1.7864675819873810e-01" purity="9.6547245979309082e-01" nType="-99"/>
          </Node>
          <Node pos="r" depth="2" NCoef="0" IVar="0" Cut="1.3333333730697632e+00" cType="1" res="1.2100569158792496e-01" rms="1.5811330080032349e-01" purity="9.7462487220764160e-01" nType="0">
            <Node pos="l" depth="3" NCoef="0" IVar="-1" Cut="0.0000000000000000e+00" cType="1" res="1.6948088305070996e-03" rms="1.5963459014892578e-01" purity="9.7490864992141724e-01" nType="-99"/>
            <Node pos="r" depth="3" NCoef="0" IVar="-1" Cut="0.0000000000000000e+00" cType="1" res="1.6952559817582369e-03" rms="1.5502049028873444e-01" purity="9.7418653964996338e-01" nType="-99"/>
          </Node>
        </Node>
      </Node>
    </BinaryTree>
    <BinaryTree type="DecisionTree" boostWeight="1.0000000000000000e+00" itree="469">
      <Node pos="s" depth="0" NCoef="0" IVar="3" Cut="5.4259988281250000e+04" cType="1" res="5.0375565886497498e-02" rms="2.6937884092330933e-01" purity="4.8961520195007324e-01" nType="0">
        <Node pos="l" depth="1" NCoef="0" IVar="2" Cut="2.7229806250000000e+05" cType="1" res="2.3145794868469238e-02" rms="2.8403207659721375e-01" purity="2.3348036408424377e-01" nType="0">
          <Node pos="l" depth="2" NCoef="0" IVar="1" Cut="6.6113828125000000e+04" cType="1" res="-7.2306240908801556e-03" rms="2.3298758268356323e-01" purity="1.0826018452644348e-01" nType="0">
            <Node pos="l" depth="3" NCoef="0" IVar="-1" Cut="0.0000000000000000e+00" cType="1" res="1.8426415044814348e-03" rms="3.8712558150291443e-01" purity="3.5354509949684143e-01" nType="-99"/>
            <Node pos="r" depth="3" NCoef="0" IVar="-1" Cut="0.0000000000000000e+00" cType="1" res="-4.8722503706812859e-03" rms="1.6807906329631805e-01" purity="4.7148495912551880e-02" nType="-99"/>
          </Node>
          <Node pos="r" depth="2" NCoef="0" IVar="1" Cut="7.4493718750000000e+04" cType="1" res="6.2974847853183746e-02" rms="3.3538252115249634e-01" purity="3.9766699075698853e-01" nType="0">
            <Node pos="l" depth="3" NCoef="0" IVar="-1" Cut="0.0000000000000000e+00" cType="1" res="2.5718486867845058e-03" rms="4.9630889296531677e-01" purity="5.7281237840652466e-01" nType="-99"/>
            <Node pos="r" depth="3" NCoef="0" IVar="-1" Cut="0.0000000000000000e+00" cType="1" res="1.5820144908502698e-03" rms="3.1580835580825806e-01" purity="3.8399413228034973e-01" nType="-99"/>
          </Node>
        </Node>
        <Node pos="r" depth="1" NCoef="0" IVar="4" Cut="1.8875881250000000e+05" cType="1" res="9.6636340022087097e-02" rms="2.3534734547138214e-01" purity="9.2476379871368408e-01" nType="0">
          <Node pos="l" depth="2" NCoef="0" IVar="-1" Cut="0.0000000000000000e+00" cType="1" res="-3.7901726318523288e-04" rms="4.0106502175331116e-01" purity="7.3220664262771606e-01" nType="-99"/>
          <Node pos="r" depth="2" NCoef="0" IVar="0" Cut="3.8095238804817200e-01" cType="1" res="1.0444185882806778e-01" rms="2.1789509057998657e-01" purity="9.3739968538284302e-01" nType="0">
            <Node pos="l" depth="3" NCoef="0" IVar="-1" Cut="0.0000000000000000e+00" cType="1" res="1.3543372042477131e-03" rms="1.8575058877468109e-01" purity="9.5703202486038208e-01" nType="-99"/>
            <Node pos="r" depth="3" NCoef="0" IVar="-1" Cut="0.0000000000000000e+00" cType="1" res="1.3589189620688558e-03" rms="2.3278813064098358e-01" purity="9.2643868923187256e-01" nType="-99"/>
          </Node>
        </Node>
      </Node>
    </BinaryTree>
    <BinaryTree type="DecisionTree" boostWeight="1.0000000000000000e+00" itree="470">
      <Node pos="s" depth="0" NCoef="0" IVar="1" Cut="1.0035560937500000e+05" cType="1" res="5.7721555233001709e-02" rms="2.6836025714874268e-01" purity="5.1196151971817017e-01" nType="0">
        <Node pos="l" depth="1" NCoef="0" IVar="1" Cut="8.3528140625000000e+04" cType="1" res="3.2282661646604538e-02" rms="2.6383367180824280e-01" purity="3.3533787727355957e-01" nType="0">
          <Node pos="l" depth="2" NCoef="0" IVar="3" Cut="2.2128535156250000e+04" cType="1" res="7.5524590909481049e-02" rms="3.1411150097846985e-01" purity="6.0393911600112915e-01" nType="0">
            <Node pos="l" depth="3" NCoef="0" IVar="-1" Cut="0.0000000000000000e+00" cType="1" res="1.9156261114403605e-03" rms="2.6373925805091858e-01" purity="8.9370675384998322e-02" nType="-99"/>
            <Node pos="r" depth="3" NCoef="0" IVar="-1" Cut="0.0000000000000000e+00" cType="1" res="1.6638383967801929e-03" rms="3.2624232769012451e-01" purity="7.7298247814178467e-01" nType="-99"/>
          </Node>
          <Node pos="r" depth="2" NCoef="0" IVar="3" Cut="8.6779507812500000e+04" cType="1" res="-1.0666222078725696e-03" rms="2.1129079163074493e-01" purity="1.2818571925163269e-01" nType="0">
            <Node pos="l" depth="3" NCoef="0" IVar="-1" Cut="0.0000000000000000e+00" cType="1" res="-1.1349453125149012e-03" rms="2.0731861889362335e-01" purity="7.1660429239273071e-02" nType="-99"/>
            <Node pos="r" depth="3" NCoef="0" IVar="-1" Cut="0.0000000000000000e+00" cType="1" res="1.8715170444920659e-03" rms="2.3223775625228882e-01" purity="9.3974643945693970e-01" nType="-99"/>
          </Node>
        </Node>
        <Node pos="r" depth="1" NCoef="0" IVar="5" Cut="8.6867507812500000e+04" cType="1" res="1.0544657707214355e-01" rms="2.7026829123497009e-01" purity="8.4331899881362915e-01" nType="0">
          <Node pos="l" depth="2" NCoef="0" IVar="-1" Cut="0.0000000000000000e+00" cType="1" res="1.0285873431712389e-03" rms="2.3237054049968719e-01" purity="8.3647501468658447e-01" nType="-99"/>
          <Node pos="r" depth="2" NCoef="0" IVar="5" Cut="8.8219117187500000e+04" cType="1" res="1.1065015941858292e-01" rms="2.7513363957405090e-01" purity="8.4434682130813599e-01" nType="0">
            <Node pos="l" depth="3" NCoef="0" IVar="-1" Cut="0.0000000000000000e+00" cType="1" res="2.1229994017630816e-03" rms="3.3650058507919312e-01" purity="8.6258047819137573e-01" nType="-99"/>
            <Node pos="r" depth="3" NCoef="0" IVar="-1" Cut="0.0000000000000000e+00" cType="1" res="1.6134423203766346e-03" rms="2.6556944847106934e-01" purity="8.4212619066238403e-01" nType="-99"/>
          </Node>
        </Node>
      </Node>
    </BinaryTree>
    <BinaryTree type="DecisionTree" boostWeight="1.0000000000000000e+00" itree="471">
      <Node pos="s" depth="0" NCoef="0" IVar="3" Cut="4.4678953125000000e+04" cType="1" res="4.7825321555137634e-02" rms="2.5660762190818787e-01" purity="4.9377864599227905e-01" nType="0">
        <Node pos="l" depth="1" NCoef="0" IVar="3" Cut="4.2548808593750000e+04" cType="1" res="2.8667782898992300e-03" rms="2.5917273759841919e-01" purity="1.4826811850070953e-01" nType="0">
          <Node pos="l" depth="2" NCoef="0" IVar="5" Cut="9.2599445312500000e+04" cType="1" res="6.4266617409884930e-03" rms="2.5749647617340088e-01" purity="1.4681071043014526e-01" nType="0">
            <Node pos="l" depth="3" NCoef="0" IVar="-1" Cut="0.0000000000000000e+00" cType="1" res="-1.9173265900462866e-04" rms="2.3751980066299438e-01" purity="1.3351365923881531e-01" nType="-99"/>
            <Node pos="r" depth="3" NCoef="0" IVar="-1" Cut="0.0000000000000000e+00" cType="1" res="2.5637939106673002e-03" rms="3.2264018058776855e-01" purity="1.9963976740837097e-01" nType="-99"/>
          </Node>
          <Node pos="r" depth="2" NCoef="0" IVar="-1" Cut="0.0000000000000000e+00" cType="1" res="-8.2956328988075256e-03" rms="2.8007590770721436e-01" purity="2.2011765837669373e-01" nType="-99"/>
        </Node>
        <Node pos="r" depth="1" NCoef="0" IVar="1" Cut="1.0066286718750000e+05" cType="1" res="9.9852122366428375e-02" rms="2.4345554411411285e-01" purity="8.9360946416854858e-01" nType="0">
          <Node pos="l" depth="2" NCoef="0" IVar="5" Cut="9.0664531250000000e+04" cType="1" res="7.3400013148784637e-02" rms="3.0780276656150818e-01" purity="8.0556809902191162e-01" nType="0">
            <Node pos="l" depth="3" NCoef="0" IVar="-1" Cut="0.0000000000000000e+00" cType="1" res="1.4600502327084541e-03" rms="2.8736150264739990e-01" purity="8.5489034652709961e-01" nType="-99"/>
            <Node pos="r" depth="3" NCoef="0" IVar="-1" Cut="0.0000000000000000e+00" cType="1" res="3.4931275877170265e-04" rms="3.1998711824417114e-01" purity="7.5346875190734863e-01" nType="-99"/>
          </Node>
          <Node pos="r" depth="2" NCoef="0" IVar="0" Cut="1.1428571939468384e+00" cType="1" res="1.2363699823617935e-01" rms="1.6180394589900970e-01" purity="9.7277337312698364e-01" nType="0">
            <Node pos="l" depth="3" NCoef="0" IVar="-1" Cut="0.0000000000000000e+00" cType="1" res="1.1566270841285586e-03" rms="1.5748685598373413e-01" purity="9.7514486312866211e-01" nType="-99"/>
            <Node pos="r" depth="3" NCoef="0" IVar="-1" Cut="0.0000000000000000e+00" cType="1" res="1.7764827935025096e-03" rms="1.6663463413715363e-01" purity="9.6915841102600098e-01" nType="-99"/>
          </Node>
        </Node>
      </Node>
    </BinaryTree>
    <BinaryTree type="DecisionTree" boostWeight="1.0000000000000000e+00" itree="472">
      <Node pos="s" depth="0" NCoef="0" IVar="3" Cut="4.8721656250000000e+04" cType="1" res="5.9093367308378220e-02" rms="2.7178978919982910e-01" purity="5.0755190849304199e-01" nType="0">
        <Node pos="l" depth="1" NCoef="0" IVar="1" Cut="1.5587295312500000e+05" cType="1" res="3.2406087964773178e-02" rms="2.8944379091262817e-01" purity="2.1496281027793884e-01" nType="0">
          <Node pos="l" depth="2" NCoef="0" IVar="1" Cut="7.3545531250000000e+04" cType="1" res="2.2811949253082275e-02" rms="2.7924838662147522e-01" purity="1.4187711477279663e-01" nType="0">
            <Node pos="l" depth="3" NCoef="0" IVar="-1" Cut="0.0000000000000000e+00" cType="1" res="2.3751095868647099e-03" rms="4.3477031588554382e-01" purity="3.4048226475715637e-01" nType="-99"/>
            <Node pos="r" depth="3" NCoef="0" IVar="-1" Cut="0.0000000000000000e+00" cType="1" res="7.2440871736034751e-04" rms="2.2855673730373383e-01" purity="9.8550349473953247e-02" nType="-99"/>
          </Node>
          <Node pos="r" depth="2" NCoef="0" IVar="-1" Cut="0.0000000000000000e+00" cType="1" res="1.3258998515084386e-03" rms="3.5449540615081787e-01" purity="8.3687609434127808e-01" nType="-99"/>
        </Node>
        <Node pos="r" depth="1" NCoef="0" IVar="2" Cut="2.1114503125000000e+05" cType="1" res="9.5717005431652069e-02" rms="2.4073635041713715e-01" purity="9.0907949209213257e-01" nType="0">
          <Node pos="l" depth="2" NCoef="0" IVar="1" Cut="7.4294312500000000e+04" cType="1" res="1.8519341945648193e-02" rms="3.2939904928207397e-01" purity="8.1104063987731934e-01" nType="0">
            <Node pos="l" depth="3" NCoef="0" IVar="-1" Cut="0.0000000000000000e+00" cType="1" res="8.7732326937839389e-04" rms="3.0352947115898132e-01" purity="8.7904381752014160e-01" nType="-99"/>
            <Node pos="r" depth="3" NCoef="0" IVar="-1" Cut="0.0000000000000000e+00" cType="1" res="-4.6519041061401367e-03" rms="3.9203265309333801e-01" purity="4.6052613854408264e-01" nType="-99"/>
          </Node>
          <Node pos="r" depth="2" NCoef="0" IVar="4" Cut="7.2559212500000000e+05" cType="1" res="1.0907794535160065e-01" rms="2.1907801926136017e-01" purity="9.2604744434356689e-01" nType="0">
            <Node pos="l" depth="3" NCoef="0" IVar="-1" Cut="0.0000000000000000e+00" cType="1" res="1.4127939939498901e-03" rms="2.1755081415176392e-01" purity="9.2712152004241943e-01" nType="-99"/>
            <Node pos="r" depth="3" NCoef="0" IVar="-1" Cut="0.0000000000000000e+00" cType="1" res="1.2980193132534623e-03" rms="2.2422476112842560e-01" purity="9.1902256011962891e-01" nType="-99"/>
          </Node>
        </Node>
      </Node>
    </BinaryTree>
    <BinaryTree type="DecisionTree" boostWeight="1.0000000000000000e+00" itree="473">
      <Node pos="s" depth="0" NCoef="0" IVar="3" Cut="4.8721656250000000e+04" cType="1" res="5.3292088210582733e-02" rms="2.6525264978408813e-01" purity="4.9642151594161987e-01" nType="0">
        <Node pos="l" depth="1" NCoef="0" IVar="3" Cut="4.6386429687500000e+04" cType="1" res="2.2039102390408516e-02" rms="2.8002652525901794e-01" purity="1.9735851883888245e-01" nType="0">
          <Node pos="l" depth="2" NCoef="0" IVar="5" Cut="8.8766484375000000e+04" cType="1" res="1.6540380194783211e-02" rms="2.7480155229568481e-01" purity="1.7518547177314758e-01" nType="0">
            <Node pos="l" depth="3" NCoef="0" IVar="-1" Cut="0.0000000000000000e+00" cType="1" res="1.8100314773619175e-03" rms="3.5396155714988708e-01" purity="3.0547314882278442e-01" nType="-99"/>
            <Node pos="r" depth="3" NCoef="0" IVar="-1" Cut="0.0000000000000000e+00" cType="1" res="4.3735126382671297e-04" rms="2.5201904773712158e-01" purity="1.4525113999843597e-01" nType="-99"/>
          </Node>
          <Node pos="r" depth="2" NCoef="0" IVar="-1" Cut="0.0000000000000000e+00" cType="1" res="2.6010093279182911e-03" rms="3.6049029231071472e-01" purity="7.3114883899688721e-01" nType="-99"/>
        </Node>
        <Node pos="r" depth="1" NCoef="0" IVar="1" Cut="1.0059082812500000e+05" cType="1" res="9.6442565321922302e-02" rms="2.3669768869876862e-01" purity="9.0933281183242798e-01" nType="0">
          <Node pos="l" depth="2" NCoef="0" IVar="5" Cut="9.0664531250000000e+04" cType="1" res="7.3908738791942596e-02" rms="3.0061030387878418e-01" purity="8.3796811103820801e-01" nType="0">
            <Node pos="l" depth="3" NCoef="0" IVar="-1" Cut="0.0000000000000000e+00" cType="1" res="1.6151273157447577e-03" rms="2.8444942831993103e-01" purity="8.7465339899063110e-01" nType="-99"/>
            <Node pos="r" depth="3" NCoef="0" IVar="-1" Cut="0.0000000000000000e+00" cType="1" res="6.3557212706655264e-04" rms="3.1192687153816223e-01" purity="8.0082607269287109e-01" nType="-99"/>
          </Node>
          <Node pos="r" depth="2" NCoef="0" IVar="4" Cut="3.9680581250000000e+05" cType="1" res="1.1730261892080307e-01" rms="1.5274357795715332e-01" purity="9.7539669275283813e-01" nType="0">
            <Node pos="l" depth="3" NCoef="0" IVar="-1" Cut="0.0000000000000000e+00" cType="1" res="1.5899366699159145e-03" rms="1.6470402479171753e-01" purity="9.7112894058227539e-01" nType="-99"/>
            <Node pos="r" depth="3" NCoef="0" IVar="-1" Cut="0.0000000000000000e+00" cType="1" res="1.2961227912455797e-03" rms="1.4428026974201202e-01" purity="9.7798240184783936e-01" nType="-99"/>
          </Node>
        </Node>
      </Node>
    </BinaryTree>
    <BinaryTree type="DecisionTree" boostWeight="1.0000000000000000e+00" itree="474">
      <Node pos="s" depth="0" NCoef="0" IVar="3" Cut="6.8850757812500000e+04" cType="1" res="5.0861097872257233e-02" rms="2.6676034927368164e-01" purity="5.0958883762359619e-01" nType="0">
        <Node pos="l" depth="1" NCoef="0" IVar="4" Cut="3.6104734375000000e+05" cType="1" res="2.4965200573205948e-02" rms="2.9526373744010925e-01" purity="2.8428989648818970e-01" nType="0">
          <Node pos="l" depth="2" NCoef="0" IVar="5" Cut="9.6402179687500000e+04" cType="1" res="7.6209213584661484e-03" rms="2.7030426263809204e-01" purity="2.0779201388359070e-01" nType="0">
            <Node pos="l" depth="3" NCoef="0" IVar="-1" Cut="0.0000000000000000e+00" cType="1" res="1.0245810699416324e-04" rms="2.6618149876594543e-01" purity="1.9080774486064911e-01" nType="-99"/>
            <Node pos="r" depth="3" NCoef="0" IVar="-1" Cut="0.0000000000000000e+00" cType="1" res="1.4452949399128556e-03" rms="3.2836490869522095e-01" purity="6.5138798952102661e-01" nType="-99"/>
          </Node>
          <Node pos="r" depth="2" NCoef="0" IVar="3" Cut="2.0159925781250000e+04" cType="1" res="8.3187155425548553e-02" rms="3.6078682541847229e-01" purity="5.4108113050460815e-01" nType="0">
            <Node pos="l" depth="3" NCoef="0" IVar="-1" Cut="0.0000000000000000e+00" cType="1" res="6.3766194507479668e-03" rms="4.1572058200836182e-01" purity="4.1740840673446655e-01" nType="-99"/>
            <Node pos="r" depth="3" NCoef="0" IVar="-1" Cut="0.0000000000000000e+00" cType="1" res="7.1232271147891879e-04" rms="3.2785540819168091e-01" purity="5.9262448549270630e-01" nType="-99"/>
          </Node>
        </Node>
        <Node pos="r" depth="1" NCoef="0" IVar="1" Cut="6.8769367187500000e+04" cType="1" res="1.0267982631921768e-01" rms="1.8729171156883240e-01" purity="9.6042096614837646e-01" nType="0">
          <Node pos="l" depth="2" NCoef="0" IVar="-1" Cut="0.0000000000000000e+00" cType="1" res="1.1549839982762933e-03" rms="2.1976412832736969e-01" purity="9.4673961400985718e-01" nType="-99"/>
          <Node pos="r" depth="2" NCoef="0" IVar="5" Cut="8.8963882812500000e+04" cType="1" res="1.1125741899013519e-01" rms="1.7342711985111237e-01" purity="9.6530812978744507e-01" nType="0">
            <Node pos="l" depth="3" NCoef="0" IVar="-1" Cut="0.0000000000000000e+00" cType="1" res="1.7051399918273091e-03" rms="1.4806495606899261e-01" purity="9.8016202449798584e-01" nType="-99"/>
            <Node pos="r" depth="3" NCoef="0" IVar="-1" Cut="0.0000000000000000e+00" cType="1" res="1.2766820145770907e-03" rms="1.8180792033672333e-01" purity="9.5944386720657349e-01" nType="-99"/>
          </Node>
        </Node>
      </Node>
    </BinaryTree>
    <BinaryTree type="DecisionTree" boostWeight="1.0000000000000000e+00" itree="475">
      <Node pos="s" depth="0" NCoef="0" IVar="3" Cut="6.8850757812500000e+04" cType="1" res="4.2389553040266037e-02" rms="2.7639192342758179e-01" purity="4.6837934851646423e-01" nType="0">
        <Node pos="l" depth="1" NCoef="0" IVar="1" Cut="6.9575375000000000e+04" cType="1" res="2.5689991191029549e-02" rms="2.9400372505187988e-01" purity="2.8431957960128784e-01" nType="0">
          <Node pos="l" depth="2" NCoef="0" IVar="4" Cut="1.3537878125000000e+05" cType="1" res="8.9751929044723511e-02" rms="4.1187891364097595e-01" purity="4.4457501173019409e-01" nType="0">
            <Node pos="l" depth="3" NCoef="0" IVar="-1" Cut="0.0000000000000000e+00" cType="1" res="-2.3483935743570328e-02" rms="1.5780957043170929e-01" purity="4.8716317862272263e-02" nType="-99"/>
            <Node pos="r" depth="3" NCoef="0" IVar="-1" Cut="0.0000000000000000e+00" cType="1" res="1.8111357931047678e-03" rms="4.3070200085639954e-01" purity="5.0983238220214844e-01" nType="-99"/>
          </Node>
          <Node pos="r" depth="2" NCoef="0" IVar="1" Cut="1.2445439843750000e+05" cType="1" res="1.3678835704922676e-02" rms="2.6443132758140564e-01" purity="2.5427284836769104e-01" nType="0">
            <Node pos="l" depth="3" NCoef="0" IVar="-1" Cut="0.0000000000000000e+00" cType="1" res="-1.0283815936418250e-04" rms="2.3775902390480042e-01" purity="1.1743676662445068e-01" nType="-99"/>
            <Node pos="r" depth="3" NCoef="0" IVar="-1" Cut="0.0000000000000000e+00" cType="1" res="9.1279344633221626e-04" rms="3.4686115384101868e-01" purity="8.1771159172058105e-01" nType="-99"/>
          </Node>
        </Node>
        <Node pos="r" depth="1" NCoef="0" IVar="1" Cut="6.1912613281250000e+04" cType="1" res="8.5595533251762390e-02" rms="2.1866294741630554e-01" purity="9.4458830356597900e-01" nType="0">
          <Node pos="l" depth="2" NCoef="0" IVar="-1" Cut="0.0000000000000000e+00" cType="1" res="3.3038936089724302e-04" rms="3.0928596854209900e-01" purity="8.8416647911071777e-01" nType="-99"/>
          <Node pos="r" depth="2" NCoef="0" IVar="0" Cut="3.8095238804817200e-01" cType="1" res="1.0382317751646042e-01" rms="1.8156695365905762e-01" purity="9.6141171455383301e-01" nType="0">
            <Node pos="l" depth="3" NCoef="0" IVar="-1" Cut="0.0000000000000000e+00" cType="1" res="2.1483148448169231e-03" rms="1.3813659548759460e-01" purity="9.7798949480056763e-01" nType="-99"/>
            <Node pos="r" depth="3" NCoef="0" IVar="-1" Cut="0.0000000000000000e+00" cType="1" res="1.5063319588080049e-03" rms="2.0174388587474823e-01" purity="9.5170438289642334e-01" nType="-99"/>
          </Node>
        </Node>
      </Node>
    </BinaryTree>
    <BinaryTree type="DecisionTree" boostWeight="1.0000000000000000e+00" itree="476">
      <Node pos="s" depth="0" NCoef="0" IVar="1" Cut="1.0035560937500000e+05" cType="1" res="6.0622148215770721e-02" rms="2.6342996954917908e-01" purity="5.0736749172210693e-01" nType="0">
        <Node pos="l" depth="1" NCoef="0" IVar="1" Cut="8.3528140625000000e+04" cType="1" res="3.7285163998603821e-02" rms="2.6140666007995605e-01" purity="3.2822471857070923e-01" nType="0">
          <Node pos="l" depth="2" NCoef="0" IVar="1" Cut="2.9041332031250000e+04" cType="1" res="9.2323459684848785e-02" rms="3.1097319722175598e-01" purity="6.0560715198516846e-01" nType="0">
            <Node pos="l" depth="3" NCoef="0" IVar="-1" Cut="0.0000000000000000e+00" cType="1" res="-4.5280866324901581e-03" rms="2.0590001344680786e-01" purity="2.4859757721424103e-01" nType="-99"/>
            <Node pos="r" depth="3" NCoef="0" IVar="-1" Cut="0.0000000000000000e+00" cType="1" res="1.7009542789310217e-03" rms="3.1536787748336792e-01" purity="6.4511233568191528e-01" nType="-99"/>
          </Node>
          <Node pos="r" depth="2" NCoef="0" IVar="3" Cut="1.1330651562500000e+05" cType="1" res="-4.6564396470785141e-03" rms="2.0650926232337952e-01" purity="1.1684703081846237e-01" nType="0">
            <Node pos="l" depth="3" NCoef="0" IVar="-1" Cut="0.0000000000000000e+00" cType="1" res="-1.6816024435684085e-03" rms="2.0536814630031586e-01" purity="7.4673309922218323e-02" nType="-99"/>
            <Node pos="r" depth="3" NCoef="0" IVar="-1" Cut="0.0000000000000000e+00" cType="1" res="1.1775024468079209e-03" rms="1.8847815692424774e-01" purity="9.6302217245101929e-01" nType="-99"/>
          </Node>
        </Node>
        <Node pos="r" depth="1" NCoef="0" IVar="2" Cut="3.1898428125000000e+05" cType="1" res="1.0551950335502625e-01" rms="2.6148569583892822e-01" purity="8.5201525688171387e-01" nType="0">
          <Node pos="l" depth="2" NCoef="0" IVar="1" Cut="1.1896754687500000e+05" cType="1" res="8.3176709711551666e-02" rms="3.3050596714019775e-01" purity="7.0026493072509766e-01" nType="0">
            <Node pos="l" depth="3" NCoef="0" IVar="-1" Cut="0.0000000000000000e+00" cType="1" res="2.3739817552268505e-03" rms="3.3695185184478760e-01" purity="6.5441793203353882e-01" nType="-99"/>
            <Node pos="r" depth="3" NCoef="0" IVar="-1" Cut="0.0000000000000000e+00" cType="1" res="4.7788547817617655e-04" rms="3.1294792890548706e-01" purity="7.6176559925079346e-01" nType="-99"/>
          </Node>
          <Node pos="r" depth="2" NCoef="0" IVar="4" Cut="3.2216046875000000e+05" cType="1" res="1.1415955424308777e-01" rms="2.2870630025863647e-01" purity="9.1069769859313965e-01" nType="0">
            <Node pos="l" depth="3" NCoef="0" IVar="-1" Cut="0.0000000000000000e+00" cType="1" res="1.7727601807564497e-03" rms="2.6450067758560181e-01" purity="8.6138647794723511e-01" nType="-99"/>
            <Node pos="r" depth="3" NCoef="0" IVar="-1" Cut="0.0000000000000000e+00" cType="1" res="1.6600701492279768e-03" rms="2.1505886316299438e-01" purity="9.2668914794921875e-01" nType="-99"/>
          </Node>
        </Node>
      </Node>
    </BinaryTree>
    <BinaryTree type="DecisionTree" boostWeight="1.0000000000000000e+00" itree="477">
      <Node pos="s" depth="0" NCoef="0" IVar="3" Cut="5.4411828125000000e+04" cType="1" res="5.4478183388710022e-02" rms="2.6686418056488037e-01" purity="5.0042402744293213e-01" nType="0">
        <Node pos="l" depth="1" NCoef="0" IVar="5" Cut="8.9752507812500000e+04" cType="1" res="2.6331953704357147e-02" rms="2.8754532337188721e-01" purity="2.3049676418304443e-01" nType="0">
          <Node pos="l" depth="2" NCoef="0" IVar="3" Cut="2.0891939453125000e+04" cType="1" res="8.0336235463619232e-02" rms="3.3738401532173157e-01" purity="3.6335065960884094e-01" nType="0">
            <Node pos="l" depth="3" NCoef="0" IVar="-1" Cut="0.0000000000000000e+00" cType="1" res="1.1866252170875669e-03" rms="2.4385067820549011e-01" purity="1.7311728000640869e-01" nType="-99"/>
            <Node pos="r" depth="3" NCoef="0" IVar="-1" Cut="0.0000000000000000e+00" cType="1" res="2.9568893369287252e-03" rms="3.9432647824287415e-01" purity="5.2394658327102661e-01" nType="-99"/>
          </Node>
          <Node pos="r" depth="2" NCoef="0" IVar="1" Cut="5.4245382812500000e+04" cType="1" res="6.1985081993043423e-04" rms="2.5652253627777100e-01" purity="1.6724340617656708e-01" nType="0">
            <Node pos="l" depth="3" NCoef="0" IVar="-1" Cut="0.0000000000000000e+00" cType="1" res="2.2318132687360048e-03" rms="4.2147809267044067e-01" purity="3.1430909037590027e-01" nType="-99"/>
            <Node pos="r" depth="3" NCoef="0" IVar="-1" Cut="0.0000000000000000e+00" cType="1" res="-6.8538513733074069e-04" rms="2.3168319463729858e-01" purity="1.5240544080734253e-01" nType="-99"/>
          </Node>
        </Node>
        <Node pos="r" depth="1" NCoef="0" IVar="1" Cut="1.0059082812500000e+05" cType="1" res="9.9429644644260406e-02" rms="2.2275309264659882e-01" purity="9.3151646852493286e-01" nType="0">
          <Node pos="l" depth="2" NCoef="0" IVar="5" Cut="9.0735585937500000e+04" cType="1" res="7.9864487051963806e-02" rms="2.9390040040016174e-01" purity="8.7417900562286377e-01" nType="0">
            <Node pos="l" depth="3" NCoef="0" IVar="-1" Cut="0.0000000000000000e+00" cType="1" res="2.0273912232369184e-03" rms="2.9397073388099670e-01" purity="8.9358925819396973e-01" nType="-99"/>
            <Node pos="r" depth="3" NCoef="0" IVar="-1" Cut="0.0000000000000000e+00" cType="1" res="7.3430582415312529e-04" rms="2.8984862565994263e-01" purity="8.5744351148605347e-01" nType="-99"/>
          </Node>
          <Node pos="r" depth="2" NCoef="0" IVar="0" Cut="1.3333333730697632e+00" cType="1" res="1.1697009205818176e-01" rms="1.2654462456703186e-01" purity="9.8292034864425659e-01" nType="0">
            <Node pos="l" depth="3" NCoef="0" IVar="-1" Cut="0.0000000000000000e+00" cType="1" res="1.5035785036161542e-03" rms="1.1832198500633240e-01" purity="9.8484569787979126e-01" nType="-99"/>
            <Node pos="r" depth="3" NCoef="0" IVar="-1" Cut="0.0000000000000000e+00" cType="1" res="1.2313757324591279e-03" rms="1.3915234804153442e-01" purity="9.7962176799774170e-01" nType="-99"/>
          </Node>
        </Node>
      </Node>
    </BinaryTree>
    <BinaryTree type="DecisionTree" boostWeight="1.0000000000000000e+00" itree="478">
      <Node pos="s" depth="0" NCoef="0" IVar="1" Cut="1.0034389062500000e+05" cType="1" res="6.0104541480541229e-02" rms="2.6719981431961060e-01" purity="5.1388400793075562e-01" nType="0">
        <Node pos="l" depth="1" NCoef="0" IVar="5" Cut="8.9738695312500000e+04" cType="1" res="3.1748335808515549e-02" rms="2.7130171656608582e-01" purity="3.0972069501876831e-01" nType="0">
          <Node pos="l" depth="2" NCoef="0" IVar="3" Cut="2.6127931640625000e+04" cType="1" res="8.4112621843814850e-02" rms="3.1952145695686340e-01" purity="4.3497186899185181e-01" nType="0">
            <Node pos="l" depth="3" NCoef="0" IVar="-1" Cut="0.0000000000000000e+00" cType="1" res="7.7017303556203842e-03" rms="2.6287505030632019e-01" purity="9.2200994491577148e-02" nType="-99"/>
            <Node pos="r" depth="3" NCoef="0" IVar="-1" Cut="0.0000000000000000e+00" cType="1" res="2.3075202479958534e-03" rms="3.5184246301651001e-01" purity="6.8811285495758057e-01" nType="-99"/>
          </Node>
          <Node pos="r" depth="2" NCoef="0" IVar="3" Cut="6.6048632812500000e+04" cType="1" res="8.4284869953989983e-03" rms="2.4321238696575165e-01" purity="2.5394147634506226e-01" nType="0">
            <Node pos="l" depth="3" NCoef="0" IVar="-1" Cut="0.0000000000000000e+00" cType="1" res="-4.6962109627202153e-04" rms="2.3611538112163544e-01" purity="1.1239410936832428e-01" nType="-99"/>
            <Node pos="r" depth="3" NCoef="0" IVar="-1" Cut="0.0000000000000000e+00" cType="1" res="1.2163189239799976e-03" rms="2.6393315196037292e-01" purity="9.0977919101715088e-01" nType="-99"/>
          </Node>
        </Node>
        <Node pos="r" depth="1" NCoef="0" IVar="5" Cut="8.7854750000000000e+04" cType="1" res="1.0833034664392471e-01" rms="2.5287508964538574e-01" purity="8.6110752820968628e-01" nType="0">
          <Node pos="l" depth="2" NCoef="0" IVar="0" Cut="3.8095238804817200e-01" cType="1" res="3.7222348153591156e-02" rms="2.6755395531654358e-01" purity="8.0027943849563599e-01" nType="0">
            <Node pos="l" depth="3" NCoef="0" IVar="-1" Cut="0.0000000000000000e+00" cType="1" res="9.3788543017581105e-04" rms="2.2484970092773438e-01" purity="8.3498871326446533e-01" nType="-99"/>
            <Node pos="r" depth="3" NCoef="0" IVar="-1" Cut="0.0000000000000000e+00" cType="1" res="-8.3867862122133374e-04" rms="3.2842490077018738e-01" purity="7.2529572248458862e-01" nType="-99"/>
          </Node>
          <Node pos="r" depth="2" NCoef="0" IVar="5" Cut="9.4818070312500000e+04" cType="1" res="1.1857258528470993e-01" rms="2.4902261793613434e-01" purity="8.6986905336380005e-01" nType="0">
            <Node pos="l" depth="3" NCoef="0" IVar="-1" Cut="0.0000000000000000e+00" cType="1" res="1.1028839508071542e-03" rms="2.5129532814025879e-01" purity="8.6051124334335327e-01" nType="-99"/>
            <Node pos="r" depth="3" NCoef="0" IVar="-1" Cut="0.0000000000000000e+00" cType="1" res="1.0805710917338729e-03" rms="2.2976513206958771e-01" purity="9.2268174886703491e-01" nType="-99"/>
          </Node>
        </Node>
      </Node>
    </BinaryTree>
    <BinaryTree type="DecisionTree" boostWeight="1.0000000000000000e+00" itree="479">
      <Node pos="s" depth="0" NCoef="0" IVar="3" Cut="6.8736484375000000e+04" cType="1" res="5.1774762570858002e-02" rms="2.7067509293556213e-01" purity="5.0120288133621216e-01" nType="0">
        <Node pos="l" depth="1" NCoef="0" IVar="5" Cut="9.6356218750000000e+04" cType="1" res="3.0084853991866112e-02" rms="3.0041992664337158e-01" purity="2.7191206812858582e-01" nType="0">
          <Node pos="l" depth="2" NCoef="0" IVar="2" Cut="1.9545207812500000e+05" cType="1" res="2.3155812174081802e-02" rms="2.9461824893951416e-01" purity="2.5779765844345093e-01" nType="0">
            <Node pos="l" depth="3" NCoef="0" IVar="-1" Cut="0.0000000000000000e+00" cType="1" res="-4.6862466260790825e-03" rms="2.3778058588504791e-01" purity="9.5094591379165649e-02" nType="-99"/>
            <Node pos="r" depth="3" NCoef="0" IVar="-1" Cut="0.0000000000000000e+00" cType="1" res="1.2089667143300176e-03" rms="3.0226126313209534e-01" purity="2.8786465525627136e-01" nType="-99"/>
          </Node>
          <Node pos="r" depth="2" NCoef="0" IVar="-1" Cut="0.0000000000000000e+00" cType="1" res="9.1540580615401268e-04" rms="3.8470655679702759e-01" purity="6.6850739717483521e-01" nType="-99"/>
        </Node>
        <Node pos="r" depth="1" NCoef="0" IVar="2" Cut="3.1109737500000000e+05" cType="1" res="9.4986714422702789e-02" rms="1.9135743379592896e-01" purity="9.5800995826721191e-01" nType="0">
          <Node pos="l" depth="2" NCoef="0" IVar="3" Cut="9.8142937500000000e+04" cType="1" res="7.0429302752017975e-02" rms="2.4686618149280548e-01" purity="9.2746931314468384e-01" nType="0">
            <Node pos="l" depth="3" NCoef="0" IVar="-1" Cut="0.0000000000000000e+00" cType="1" res="3.9376091444864869e-04" rms="3.4950935840606689e-01" purity="8.4590113162994385e-01" nType="-99"/>
            <Node pos="r" depth="3" NCoef="0" IVar="-1" Cut="0.0000000000000000e+00" cType="1" res="1.6760034486651421e-03" rms="1.6190822422504425e-01" purity="9.7148197889328003e-01" nType="-99"/>
          </Node>
          <Node pos="r" depth="2" NCoef="0" IVar="4" Cut="4.1839193750000000e+05" cType="1" res="1.1235052347183228e-01" rms="1.3671173155307770e-01" purity="9.7960424423217773e-01" nType="0">
            <Node pos="l" depth="3" NCoef="0" IVar="-1" Cut="0.0000000000000000e+00" cType="1" res="1.2060812441632152e-03" rms="1.0758754611015320e-01" purity="9.8716402053833008e-01" nType="-99"/>
            <Node pos="r" depth="3" NCoef="0" IVar="-1" Cut="0.0000000000000000e+00" cType="1" res="1.9366500200703740e-03" rms="1.4996580779552460e-01" purity="9.7534465789794922e-01" nType="-99"/>
          </Node>
        </Node>
      </Node>
    </BinaryTree>
    <BinaryTree type="DecisionTree" boostWeight="1.0000000000000000e+00" itree="480">
      <Node pos="s" depth="0" NCoef="0" IVar="1" Cut="1.0034389062500000e+05" cType="1" res="5.8039862662553787e-02" rms="2.6283740997314453e-01" purity="5.1027727127075195e-01" nType="0">
        <Node pos="l" depth="1" NCoef="0" IVar="1" Cut="7.5093007812500000e+04" cType="1" res="3.1937707215547562e-02" rms="2.6159399747848511e-01" purity="3.2158538699150085e-01" nType="0">
          <Node pos="l" depth="2" NCoef="0" IVar="4" Cut="1.2648003125000000e+05" cType="1" res="9.3711256980895996e-02" rms="3.2371494174003601e-01" purity="6.7840117216110229e-01" nType="0">
            <Node pos="l" depth="3" NCoef="0" IVar="-1" Cut="0.0000000000000000e+00" cType="1" res="-1.5396466478705406e-03" rms="3.2505729794502258e-01" purity="2.6507195830345154e-01" nType="-99"/>
            <Node pos="r" depth="3" NCoef="0" IVar="-1" Cut="0.0000000000000000e+00" cType="1" res="1.9026453373953700e-03" rms="3.2117003202438354e-01" purity="7.1137320995330811e-01" nType="-99"/>
          </Node>
          <Node pos="r" depth="2" NCoef="0" IVar="3" Cut="5.6074542968750000e+04" cType="1" res="-1.0969992727041245e-03" rms="2.1413832902908325e-01" purity="1.3077063858509064e-01" nType="0">
            <Node pos="l" depth="3" NCoef="0" IVar="-1" Cut="0.0000000000000000e+00" cType="1" res="-3.9805588312447071e-03" rms="1.7123188078403473e-01" purity="3.7099711596965790e-02" nType="-99"/>
            <Node pos="r" depth="3" NCoef="0" IVar="-1" Cut="0.0000000000000000e+00" cType="1" res="9.8522368352860212e-04" rms="3.8851031661033630e-01" purity="7.5973927974700928e-01" nType="-99"/>
          </Node>
        </Node>
        <Node pos="r" depth="1" NCoef="0" IVar="4" Cut="1.8631370312500000e+05" cType="1" res="1.0587478429079056e-01" rms="2.5834420323371887e-01" purity="8.5607486963272095e-01" nType="0">
          <Node pos="l" depth="2" NCoef="0" IVar="-1" Cut="0.0000000000000000e+00" cType="1" res="-5.0634826038731262e-05" rms="4.0792381763458252e-01" purity="3.6813047528266907e-01" nType="-99"/>
          <Node pos="r" depth="2" NCoef="0" IVar="5" Cut="8.7811257812500000e+04" cType="1" res="1.0937822610139847e-01" rms="2.5121697783470154e-01" purity="8.7194883823394775e-01" nType="0">
            <Node pos="l" depth="3" NCoef="0" IVar="-1" Cut="0.0000000000000000e+00" cType="1" res="2.2647429723292589e-03" rms="2.5450855493545532e-01" purity="9.0358191728591919e-01" nType="-99"/>
            <Node pos="r" depth="3" NCoef="0" IVar="-1" Cut="0.0000000000000000e+00" cType="1" res="9.8880811128765345e-04" rms="2.4958223104476929e-01" purity="8.6414635181427002e-01" nType="-99"/>
          </Node>
        </Node>
      </Node>
    </BinaryTree>
    <BinaryTree type="DecisionTree" boostWeight="1.0000000000000000e+00" itree="481">
      <Node pos="s" depth="0" NCoef="0" IVar="3" Cut="5.4198226562500000e+04" cType="1" res="4.9866475164890289e-02" rms="2.7634888887405396e-01" purity="4.7586077451705933e-01" nType="0">
        <Node pos="l" depth="1" NCoef="0" IVar="5" Cut="9.6358218750000000e+04" cType="1" res="2.8096431866288185e-02" rms="2.9499131441116333e-01" purity="2.2385947406291962e-01" nType="0">
          <Node pos="l" depth="2" NCoef="0" IVar="1" Cut="7.8775679687500000e+04" cType="1" res="2.2447623312473297e-02" rms="2.8750690817832947e-01" purity="2.1565574407577515e-01" nType="0">
            <Node pos="l" depth="3" NCoef="0" IVar="-1" Cut="0.0000000000000000e+00" cType="1" res="2.4328280705958605e-03" rms="4.0458565950393677e-01" purity="3.6882501840591431e-01" nType="-99"/>
            <Node pos="r" depth="3" NCoef="0" IVar="-1" Cut="0.0000000000000000e+00" cType="1" res="4.5435139327310026e-04" rms="2.4773308634757996e-01" purity="1.7777825891971588e-01" nType="-99"/>
          </Node>
          <Node pos="r" depth="2" NCoef="0" IVar="-1" Cut="0.0000000000000000e+00" cType="1" res="6.3145528547465801e-03" rms="4.5527741312980652e-01" purity="5.4384821653366089e-01" nType="-99"/>
        </Node>
        <Node pos="r" depth="1" NCoef="0" IVar="1" Cut="1.1171875781250000e+05" cType="1" res="8.8451385498046875e-02" rms="2.3486582934856415e-01" purity="9.2250418663024902e-01" nType="0">
          <Node pos="l" depth="2" NCoef="0" IVar="1" Cut="8.3312093750000000e+04" cType="1" res="6.6542692482471466e-02" rms="3.0019417405128479e-01" purity="8.6510115861892700e-01" nType="0">
            <Node pos="l" depth="3" NCoef="0" IVar="-1" Cut="0.0000000000000000e+00" cType="1" res="1.2701654341071844e-03" rms="2.5316345691680908e-01" purity="9.2604976892471313e-01" nType="-99"/>
            <Node pos="r" depth="3" NCoef="0" IVar="-1" Cut="0.0000000000000000e+00" cType="1" res="4.1338280425406992e-04" rms="3.7753459811210632e-01" purity="7.3746287822723389e-01" nType="-99"/>
          </Node>
          <Node pos="r" depth="2" NCoef="0" IVar="-1" Cut="0.0000000000000000e+00" cType="1" res="1.2264419347047806e-03" rms="1.3943895697593689e-01" purity="9.7959822416305542e-01" nType="-99"/>
        </Node>
      </Node>
    </BinaryTree>
    <BinaryTree type="DecisionTree" boostWeight="1.0000000000000000e+00" itree="482">
      <Node pos="s" depth="0" NCoef="0" IVar="3" Cut="6.8798242187500000e+04" cType="1" res="5.3938914090394974e-02" rms="2.5930076837539673e-01" purity="5.1997017860412598e-01" nType="0">
        <Node pos="l" depth="1" NCoef="0" IVar="3" Cut="1.3191832031250000e+04" cType="1" res="3.0775135383009911e-02" rms="2.8721114993095398e-01" purity="3.1741490960121155e-01" nType="0">
          <Node pos="l" depth="2" NCoef="0" IVar="5" Cut="8.8805015625000000e+04" cType="1" res="-2.1625166758894920e-02" rms="1.0804813355207443e-01" purity="1.2807361781597137e-02" nType="0">
            <Node pos="l" depth="3" NCoef="0" IVar="-1" Cut="0.0000000000000000e+00" cType="1" res="-6.0879845172166824e-02" rms="9.8994240164756775e-02" purity="0.0000000000000000e+00" nType="-99"/>
            <Node pos="r" depth="3" NCoef="0" IVar="-1" Cut="0.0000000000000000e+00" cType="1" res="-1.0104330256581306e-02" rms="1.0845867544412613e-01" purity="1.5258573926985264e-02" nType="-99"/>
          </Node>
          <Node pos="r" depth="2" NCoef="0" IVar="3" Cut="6.3440121093750000e+04" cType="1" res="4.6186815947294235e-02" rms="3.1980165839195251e-01" purity="4.0700432658195496e-01" nType="0">
            <Node pos="l" depth="3" NCoef="0" IVar="-1" Cut="0.0000000000000000e+00" cType="1" res="9.7785133402794600e-04" rms="3.2635852694511414e-01" purity="3.6051550507545471e-01" nType="-99"/>
            <Node pos="r" depth="3" NCoef="0" IVar="-1" Cut="0.0000000000000000e+00" cType="1" res="1.6721991123631597e-03" rms="2.1939693391323090e-01" purity="9.2481219768524170e-01" nType="-99"/>
          </Node>
        </Node>
        <Node pos="r" depth="1" NCoef="0" IVar="0" Cut="1.1428571939468384e+00" cType="1" res="1.0505756735801697e-01" rms="1.7256313562393188e-01" purity="9.6697628498077393e-01" nType="0">
          <Node pos="l" depth="2" NCoef="0" IVar="0" Cut="4.7619048506021500e-02" cType="1" res="1.1539393663406372e-01" rms="1.4798659086227417e-01" purity="9.7611576318740845e-01" nType="0">
            <Node pos="l" depth="3" NCoef="0" IVar="-1" Cut="0.0000000000000000e+00" cType="1" res="1.7628916539251804e-03" rms="1.3622973859310150e-01" purity="9.8020666837692261e-01" nType="-99"/>
            <Node pos="r" depth="3" NCoef="0" IVar="-1" Cut="0.0000000000000000e+00" cType="1" res="1.6590922605246305e-03" rms="1.6152180731296539e-01" purity="9.7082346677780151e-01" nType="-99"/>
          </Node>
          <Node pos="r" depth="2" NCoef="0" IVar="4" Cut="4.9693446875000000e+05" cType="1" res="8.4736153483390808e-02" rms="2.1128953993320465e-01" purity="9.4900774955749512e-01" nType="0">
            <Node pos="l" depth="3" NCoef="0" IVar="-1" Cut="0.0000000000000000e+00" cType="1" res="1.0753700044006109e-03" rms="2.7085810899734497e-01" purity="9.0864700078964233e-01" nType="-99"/>
            <Node pos="r" depth="3" NCoef="0" IVar="-1" Cut="0.0000000000000000e+00" cType="1" res="1.6167237190529704e-03" rms="1.7830409109592438e-01" purity="9.6590578556060791e-01" nType="-99"/>
          </Node>
        </Node>
      </Node>
    </BinaryTree>
    <BinaryTree type="DecisionTree" boostWeight="1.0000000000000000e+00" itree="483">
      <Node pos="s" depth="0" NCoef="0" IVar="3" Cut="6.8798242187500000e+04" cType="1" res="6.0693174600601196e-02" rms="2.7142685651779175e-01" purity="5.0471121072769165e-01" nType="0">
        <Node pos="l" depth="1" NCoef="0" IVar="3" Cut="2.6281273437500000e+04" cType="1" res="4.3372467160224915e-02" rms="2.9780566692352295e-01" purity="3.2081744074821472e-01" nType="0">
          <Node pos="l" depth="2" NCoef="0" IVar="4" Cut="3.7141443750000000e+05" cType="1" res="1.6889492049813271e-02" rms="2.4010108411312103e-01" purity="1.0847084969282150e-01" nType="0">
            <Node pos="l" depth="3" NCoef="0" IVar="-1" Cut="0.0000000000000000e+00" cType="1" res="7.4888544622808695e-04" rms="2.1490053832530975e-01" purity="7.0240534842014313e-02" nType="-99"/>
            <Node pos="r" depth="3" NCoef="0" IVar="-1" Cut="0.0000000000000000e+00" cType="1" res="3.0483594164252281e-03" rms="3.5077244043350220e-01" purity="3.4501391649246216e-01" nType="-99"/>
          </Node>
          <Node pos="r" depth="2" NCoef="0" IVar="2" Cut="2.7289553125000000e+05" cType="1" res="7.2170771658420563e-02" rms="3.4763431549072266e-01" purity="5.5172890424728394e-01" nType="0">
            <Node pos="l" depth="3" NCoef="0" IVar="-1" Cut="0.0000000000000000e+00" cType="1" res="-1.5484815230593085e-04" rms="3.6249250173568726e-01" purity="2.8112292289733887e-01" nType="-99"/>
            <Node pos="r" depth="3" NCoef="0" IVar="-1" Cut="0.0000000000000000e+00" cType="1" res="1.1460847454145551e-03" rms="3.2989257574081421e-01" purity="7.1469354629516602e-01" nType="-99"/>
          </Node>
        </Node>
        <Node pos="r" depth="1" NCoef="0" IVar="0" Cut="2.2857143878936768e+00" cType="1" res="1.0385821014642715e-01" rms="1.8341481685638428e-01" purity="9.6299391984939575e-01" nType="0">
          <Node pos="l" depth="2" NCoef="0" IVar="5" Cut="9.1608093750000000e+04" cType="1" res="1.0698212683200836e-01" rms="1.7640286684036255e-01" purity="9.6570253372192383e-01" nType="0">
            <Node pos="l" depth="3" NCoef="0" IVar="-1" Cut="0.0000000000000000e+00" cType="1" res="1.7063586274161935e-03" rms="1.7546075582504272e-01" purity="9.6643084287643433e-01" nType="-99"/>
            <Node pos="r" depth="3" NCoef="0" IVar="-1" Cut="0.0000000000000000e+00" cType="1" res="1.7621220322325826e-03" rms="1.7786750197410583e-01" purity="9.6424955129623413e-01" nType="-99"/>
          </Node>
          <Node pos="r" depth="2" NCoef="0" IVar="-1" Cut="0.0000000000000000e+00" cType="1" res="1.3528625713661313e-03" rms="2.1832069754600525e-01" purity="9.4753861427307129e-01" nType="-99"/>
        </Node>
      </Node>
    </BinaryTree>
    <BinaryTree type="DecisionTree" boostWeight="1.0000000000000000e+00" itree="484">
      <Node pos="s" depth="0" NCoef="0" IVar="3" Cut="6.8843453125000000e+04" cType="1" res="5.0888460129499435e-02" rms="2.6955395936965942e-01" purity="5.0128680467605591e-01" nType="0">
        <Node pos="l" depth="1" NCoef="0" IVar="5" Cut="9.3551070312500000e+04" cType="1" res="2.7903158217668533e-02" rms="2.9851138591766357e-01" purity="2.8512176871299744e-01" nType="0">
          <Node pos="l" depth="2" NCoef="0" IVar="5" Cut="9.0611625000000000e+04" cType="1" res="1.6744410619139671e-02" rms="2.8442546725273132e-01" purity="2.6437011361122131e-01" nType="0">
            <Node pos="l" depth="3" NCoef="0" IVar="-1" Cut="0.0000000000000000e+00" cType="1" res="1.1893541086465120e-03" rms="3.1220737099647522e-01" purity="3.2862445712089539e-01" nType="-99"/>
            <Node pos="r" depth="3" NCoef="0" IVar="-1" Cut="0.0000000000000000e+00" cType="1" res="-2.9963196720927954e-04" rms="2.4985268712043762e-01" purity="1.9665785133838654e-01" nType="-99"/>
          </Node>
          <Node pos="r" depth="2" NCoef="0" IVar="2" Cut="4.0672028125000000e+05" cType="1" res="1.0626728087663651e-01" rms="3.7384244799613953e-01" purity="4.3085360527038574e-01" nType="0">
            <Node pos="l" depth="3" NCoef="0" IVar="-1" Cut="0.0000000000000000e+00" cType="1" res="2.5053496938198805e-03" rms="3.7508642673492432e-01" purity="4.3712329864501953e-01" nType="-99"/>
            <Node pos="r" depth="3" NCoef="0" IVar="-1" Cut="0.0000000000000000e+00" cType="1" res="-2.7265411335974932e-03" rms="3.0804383754730225e-01" purity="3.8834509253501892e-01" nType="-99"/>
          </Node>
        </Node>
        <Node pos="r" depth="1" NCoef="0" IVar="1" Cut="1.0168853906250000e+05" cType="1" res="9.9840208888053894e-02" rms="1.8467524647712708e-01" purity="9.6165317296981812e-01" nType="0">
          <Node pos="l" depth="2" NCoef="0" IVar="3" Cut="1.0332650000000000e+05" cType="1" res="8.7895117700099945e-02" rms="2.3760966956615448e-01" purity="9.3464934825897217e-01" nType="0">
            <Node pos="l" depth="3" NCoef="0" IVar="-1" Cut="0.0000000000000000e+00" cType="1" res="7.5187138281762600e-04" rms="3.3796086907386780e-01" purity="8.6356842517852783e-01" nType="-99"/>
            <Node pos="r" depth="3" NCoef="0" IVar="-1" Cut="0.0000000000000000e+00" cType="1" res="2.0726628135889769e-03" rms="1.3506448268890381e-01" purity="9.8082256317138672e-01" nType="-99"/>
          </Node>
          <Node pos="r" depth="2" NCoef="0" IVar="5" Cut="9.0579164062500000e+04" cType="1" res="1.1067668348550797e-01" rms="1.1653020977973938e-01" purity="9.8615080118179321e-01" nType="0">
            <Node pos="l" depth="3" NCoef="0" IVar="-1" Cut="0.0000000000000000e+00" cType="1" res="1.9030247349292040e-03" rms="1.4030230045318604e-01" purity="9.7979670763015747e-01" nType="-99"/>
            <Node pos="r" depth="3" NCoef="0" IVar="-1" Cut="0.0000000000000000e+00" cType="1" res="2.0988273900002241e-03" rms="9.3495942652225494e-02" purity="9.9110257625579834e-01" nType="-99"/>
          </Node>
        </Node>
      </Node>
    </BinaryTree>
    <BinaryTree type="DecisionTree" boostWeight="1.0000000000000000e+00" itree="485">
      <Node pos="s" depth="0" NCoef="0" IVar="3" Cut="4.8659894531250000e+04" cType="1" res="5.2264902740716934e-02" rms="2.5781914591789246e-01" purity="5.2111095190048218e-01" nType="0">
        <Node pos="l" depth="1" NCoef="0" IVar="5" Cut="9.6369851562500000e+04" cType="1" res="2.3064861074090004e-02" rms="2.7800554037094116e-01" purity="2.0510174334049225e-01" nType="0">
          <Node pos="l" depth="2" NCoef="0" IVar="3" Cut="4.6337492187500000e+04" cType="1" res="1.6815448179841042e-02" rms="2.7066472172737122e-01" purity="1.9086900353431702e-01" nType="0">
            <Node pos="l" depth="3" NCoef="0" IVar="-1" Cut="0.0000000000000000e+00" cType="1" res="7.7409378718584776e-04" rms="2.6801863312721252e-01" purity="1.6548109054565430e-01" nType="-99"/>
            <Node pos="r" depth="3" NCoef="0" IVar="-1" Cut="0.0000000000000000e+00" cType="1" res="3.0908948974683881e-04" rms="2.9553508758544922e-01" purity="7.1887248754501343e-01" nType="-99"/>
          </Node>
          <Node pos="r" depth="2" NCoef="0" IVar="-1" Cut="0.0000000000000000e+00" cType="1" res="1.2450853828340769e-03" rms="4.0144190192222595e-01" purity="6.2658852338790894e-01" nType="-99"/>
        </Node>
        <Node pos="r" depth="1" NCoef="0" IVar="1" Cut="1.4578978125000000e+05" cType="1" res="8.8787369430065155e-02" rms="2.2481460869312286e-01" purity="9.1636490821838379e-01" nType="0">
          <Node pos="l" depth="2" NCoef="0" IVar="1" Cut="9.4738421875000000e+04" cType="1" res="7.0625960826873779e-02" rms="2.7397820353507996e-01" purity="8.6914360523223877e-01" nType="0">
            <Node pos="l" depth="3" NCoef="0" IVar="-1" Cut="0.0000000000000000e+00" cType="1" res="6.9548172177746892e-04" rms="2.9905000329017639e-01" purity="8.2920867204666138e-01" nType="-99"/>
            <Node pos="r" depth="3" NCoef="0" IVar="-1" Cut="0.0000000000000000e+00" cType="1" res="1.5009046765044332e-03" rms="2.2634267807006836e-01" purity="9.2863214015960693e-01" nType="-99"/>
          </Node>
          <Node pos="r" depth="2" NCoef="0" IVar="-1" Cut="0.0000000000000000e+00" cType="1" res="1.0037894826382399e-03" rms="1.1180520802736282e-01" purity="9.8723459243774414e-01" nType="-99"/>
        </Node>
      </Node>
    </BinaryTree>
    <BinaryTree type="DecisionTree" boostWeight="1.0000000000000000e+00" itree="486">
      <Node pos="s" depth="0" NCoef="0" IVar="1" Cut="1.0035560937500000e+05" cType="1" res="5.1402658224105835e-02" rms="2.6741725206375122e-01" purity="4.9605470895767212e-01" nType="0">
        <Node pos="l" depth="1" NCoef="0" IVar="1" Cut="7.0908117187500000e+04" cType="1" res="1.4652117155492306e-02" rms="2.6093319058418274e-01" purity="2.8455203771591187e-01" nType="0">
          <Node pos="l" depth="2" NCoef="0" IVar="1" Cut="3.1642121093750000e+04" cType="1" res="6.4941376447677612e-02" rms="3.3267778158187866e-01" purity="6.2927454710006714e-01" nType="0">
            <Node pos="l" depth="3" NCoef="0" IVar="-1" Cut="0.0000000000000000e+00" cType="1" res="-9.8754873033612967e-04" rms="2.7142992615699768e-01" purity="3.9825811982154846e-01" nType="-99"/>
            <Node pos="r" depth="3" NCoef="0" IVar="-1" Cut="0.0000000000000000e+00" cType="1" res="1.4801194192841649e-03" rms="3.4400144219398499e-01" purity="7.0354270935058594e-01" nType="-99"/>
          </Node>
          <Node pos="r" depth="2" NCoef="0" IVar="3" Cut="1.3972993750000000e+05" cType="1" res="-5.5989376269280910e-03" rms="2.2250312566757202e-01" purity="1.4573523402214050e-01" nType="0">
            <Node pos="l" depth="3" NCoef="0" IVar="-1" Cut="0.0000000000000000e+00" cType="1" res="-6.8206887226551771e-04" rms="2.2281804680824280e-01" purity="1.1885012686252594e-01" nType="-99"/>
            <Node pos="r" depth="3" NCoef="0" IVar="-1" Cut="0.0000000000000000e+00" cType="1" res="2.2276367526501417e-03" rms="1.8185853958129883e-01" purity="9.6578341722488403e-01" nType="-99"/>
          </Node>
        </Node>
        <Node pos="r" depth="1" NCoef="0" IVar="5" Cut="8.9753523437500000e+04" cType="1" res="1.1419848352670670e-01" rms="2.6667332649230957e-01" purity="8.5745030641555786e-01" nType="0">
          <Node pos="l" depth="2" NCoef="0" IVar="4" Cut="4.2462875000000000e+05" cType="1" res="1.4012974500656128e-01" rms="2.7790585160255432e-01" purity="8.6418741941452026e-01" nType="0">
            <Node pos="l" depth="3" NCoef="0" IVar="-1" Cut="0.0000000000000000e+00" cType="1" res="7.3803332634270191e-04" rms="2.8787389397621155e-01" purity="8.4095978736877441e-01" nType="-99"/>
            <Node pos="r" depth="3" NCoef="0" IVar="-1" Cut="0.0000000000000000e+00" cType="1" res="1.5328247100114822e-03" rms="2.4540518224239349e-01" purity="9.0809452533721924e-01" nType="-99"/>
          </Node>
          <Node pos="r" depth="2" NCoef="0" IVar="0" Cut="1.1428571939468384e+00" cType="1" res="9.6996009349822998e-02" rms="2.5751644372940063e-01" purity="8.5298103094100952e-01" nType="0">
            <Node pos="l" depth="3" NCoef="0" IVar="-1" Cut="0.0000000000000000e+00" cType="1" res="1.2921025045216084e-03" rms="2.9146653413772583e-01" purity="7.8234052658081055e-01" nType="-99"/>
            <Node pos="r" depth="3" NCoef="0" IVar="-1" Cut="0.0000000000000000e+00" cType="1" res="1.6338488785549998e-03" rms="2.0320133864879608e-01" purity="9.4308429956436157e-01" nType="-99"/>
          </Node>
        </Node>
      </Node>
    </BinaryTree>
    <BinaryTree type="DecisionTree" boostWeight="1.0000000000000000e+00" itree="487">
      <Node pos="s" depth="0" NCoef="0" IVar="1" Cut="1.0034835937500000e+05" cType="1" res="5.7799436151981354e-02" rms="2.7619189023971558e-01" purity="5.0627315044403076e-01" nType="0">
        <Node pos="l" depth="1" NCoef="0" IVar="5" Cut="8.9738695312500000e+04" cType="1" res="3.0004313215613365e-02" rms="2.8162634372711182e-01" purity="3.1448000669479370e-01" nType="0">
          <Node pos="l" depth="2" NCoef="0" IVar="1" Cut="3.7310285156250000e+04" cType="1" res="7.0441707968711853e-02" rms="3.3150935173034668e-01" purity="4.2567867040634155e-01" nType="0">
            <Node pos="l" depth="3" NCoef="0" IVar="-1" Cut="0.0000000000000000e+00" cType="1" res="-2.1165132056921721e-03" rms="3.6448922753334045e-01" purity="3.7528121471405029e-01" nType="-99"/>
            <Node pos="r" depth="3" NCoef="0" IVar="-1" Cut="0.0000000000000000e+00" cType="1" res="2.5829232763499022e-03" rms="3.2280960679054260e-01" purity="4.3248942494392395e-01" nType="-99"/>
          </Node>
          <Node pos="r" depth="2" NCoef="0" IVar="1" Cut="5.8280984375000000e+04" cType="1" res="1.1855368502438068e-02" rms="2.5401389598846436e-01" purity="2.6457226276397705e-01" nType="0">
            <Node pos="l" depth="3" NCoef="0" IVar="-1" Cut="0.0000000000000000e+00" cType="1" res="1.7509899334982038e-03" rms="3.4399402141571045e-01" purity="6.5139722824096680e-01" nType="-99"/>
            <Node pos="r" depth="3" NCoef="0" IVar="-1" Cut="0.0000000000000000e+00" cType="1" res="-6.8307615583762527e-04" rms="2.2162793576717377e-01" purity="1.6711476445198059e-01" nType="-99"/>
          </Node>
        </Node>
        <Node pos="r" depth="1" NCoef="0" IVar="2" Cut="4.4998765625000000e+05" cType="1" res="1.0892056673765182e-01" rms="2.5820967555046082e-01" purity="8.5902148485183716e-01" nType="0">
          <Node pos="l" depth="2" NCoef="0" IVar="2" Cut="3.8753606250000000e+05" cType="1" res="1.1747913807630539e-01" rms="2.7521282434463501e-01" purity="8.3272105455398560e-01" nType="0">
            <Node pos="l" depth="3" NCoef="0" IVar="-1" Cut="0.0000000000000000e+00" cType="1" res="1.4775611925870180e-03" rms="2.8623336553573608e-01" purity="7.8778994083404541e-01" nType="-99"/>
            <Node pos="r" depth="3" NCoef="0" IVar="-1" Cut="0.0000000000000000e+00" cType="1" res="8.5000443505123258e-04" rms="2.3603533208370209e-01" purity="9.3609035015106201e-01" nType="-99"/>
          </Node>
          <Node pos="r" depth="2" NCoef="0" IVar="1" Cut="1.8449610937500000e+05" cType="1" res="8.9845485985279083e-02" rms="2.1431402862071991e-01" purity="9.1763937473297119e-01" nType="0">
            <Node pos="l" depth="3" NCoef="0" IVar="-1" Cut="0.0000000000000000e+00" cType="1" res="1.3865733053535223e-03" rms="2.3105238378047943e-01" purity="8.5568749904632568e-01" nType="-99"/>
            <Node pos="r" depth="3" NCoef="0" IVar="-1" Cut="0.0000000000000000e+00" cType="1" res="1.9080373458564281e-03" rms="2.0457555353641510e-01" purity="9.4578188657760620e-01" nType="-99"/>
          </Node>
        </Node>
      </Node>
    </BinaryTree>
    <BinaryTree type="DecisionTree" boostWeight="1.0000000000000000e+00" itree="488">
      <Node pos="s" depth="0" NCoef="0" IVar="5" Cut="9.3547140625000000e+04" cType="1" res="5.8229267597198486e-02" rms="2.7071240544319153e-01" purity="5.0482493638992310e-01" nType="0">
        <Node pos="l" depth="1" NCoef="0" IVar="3" Cut="5.4259988281250000e+04" cType="1" res="4.6791929751634598e-02" rms="2.6290190219879150e-01" purity="4.7753903269767761e-01" nType="0">
          <Node pos="l" depth="2" NCoef="0" IVar="5" Cut="9.0608281250000000e+04" cType="1" res="2.5767927989363670e-02" rms="2.7838110923767090e-01" purity="2.2836472094058990e-01" nType="0">
            <Node pos="l" depth="3" NCoef="0" IVar="-1" Cut="0.0000000000000000e+00" cType="1" res="1.6283716540783644e-03" rms="3.0543470382690430e-01" purity="2.9838746786117554e-01" nType="-99"/>
            <Node pos="r" depth="3" NCoef="0" IVar="-1" Cut="0.0000000000000000e+00" cType="1" res="1.3704052253160626e-04" rms="2.4400408565998077e-01" purity="1.5340001881122589e-01" nType="-99"/>
          </Node>
          <Node pos="r" depth="2" NCoef="0" IVar="3" Cut="1.0581904687500000e+05" cType="1" res="8.4349989891052246e-02" rms="2.2792387008666992e-01" purity="9.2267340421676636e-01" nType="0">
            <Node pos="l" depth="3" NCoef="0" IVar="-1" Cut="0.0000000000000000e+00" cType="1" res="9.4743992667645216e-04" rms="2.8362709283828735e-01" purity="8.7120658159255981e-01" nType="-99"/>
            <Node pos="r" depth="3" NCoef="0" IVar="-1" Cut="0.0000000000000000e+00" cType="1" res="1.6024835640564561e-03" rms="1.3980717957019806e-01" purity="9.7982037067413330e-01" nType="-99"/>
          </Node>
        </Node>
        <Node pos="r" depth="1" NCoef="0" IVar="1" Cut="8.6654007812500000e+04" cType="1" res="1.2562632560729980e-01" rms="3.0419021844863892e-01" purity="6.6561305522918701e-01" nType="0">
          <Node pos="l" depth="2" NCoef="0" IVar="0" Cut="2.8571429848670959e-01" cType="1" res="1.8117801845073700e-01" rms="3.6095237731933594e-01" purity="6.1930847167968750e-01" nType="0">
            <Node pos="l" depth="3" NCoef="0" IVar="-1" Cut="0.0000000000000000e+00" cType="1" res="2.9948956798762083e-03" rms="3.8714858889579773e-01" purity="6.2708860635757446e-01" nType="-99"/>
            <Node pos="r" depth="3" NCoef="0" IVar="-1" Cut="0.0000000000000000e+00" cType="1" res="1.7188793281093240e-03" rms="2.7348926663398743e-01" purity="6.0599875450134277e-01" nType="-99"/>
          </Node>
          <Node pos="r" depth="2" NCoef="0" IVar="3" Cut="4.4942738281250000e+04" cType="1" res="7.8005746006965637e-02" rms="2.3506151139736176e-01" purity="7.0530670881271362e-01" nType="0">
            <Node pos="l" depth="3" NCoef="0" IVar="-1" Cut="0.0000000000000000e+00" cType="1" res="-6.8850909883622080e-05" rms="2.8688353300094604e-01" purity="2.3695801198482513e-01" nType="-99"/>
            <Node pos="r" depth="3" NCoef="0" IVar="-1" Cut="0.0000000000000000e+00" cType="1" res="1.4916028594598174e-03" rms="1.8940511345863342e-01" purity="9.5267415046691895e-01" nType="-99"/>
          </Node>
        </Node>
      </Node>
    </BinaryTree>
    <BinaryTree type="DecisionTree" boostWeight="1.0000000000000000e+00" itree="489">
      <Node pos="s" depth="0" NCoef="0" IVar="1" Cut="1.0034835937500000e+05" cType="1" res="5.3221877664327621e-02" rms="2.6619306206703186e-01" purity="5.0330597162246704e-01" nType="0">
        <Node pos="l" depth="1" NCoef="0" IVar="1" Cut="8.3518523437500000e+04" cType="1" res="2.4576077237725258e-02" rms="2.7175825834274292e-01" purity="3.0283853411674500e-01" nType="0">
          <Node pos="l" depth="2" NCoef="0" IVar="1" Cut="4.2652867187500000e+04" cType="1" res="6.2149878591299057e-02" rms="3.2478314638137817e-01" purity="5.7225233316421509e-01" nType="0">
            <Node pos="l" depth="3" NCoef="0" IVar="-1" Cut="0.0000000000000000e+00" cType="1" res="-1.5868985428824089e-05" rms="3.1832325458526611e-01" purity="4.8217442631721497e-01" nType="-99"/>
            <Node pos="r" depth="3" NCoef="0" IVar="-1" Cut="0.0000000000000000e+00" cType="1" res="1.5153215499594808e-03" rms="3.2405447959899902e-01" purity="6.0611248016357422e-01" nType="-99"/>
          </Node>
          <Node pos="r" depth="2" NCoef="0" IVar="5" Cut="9.0545234375000000e+04" cType="1" res="-3.3618770539760590e-03" rms="2.2023329138755798e-01" purity="1.0251620411872864e-01" nType="0">
            <Node pos="l" depth="3" NCoef="0" IVar="-1" Cut="0.0000000000000000e+00" cType="1" res="2.2049671970307827e-03" rms="2.6127734780311584e-01" purity="1.7204952239990234e-01" nType="-99"/>
            <Node pos="r" depth="3" NCoef="0" IVar="-1" Cut="0.0000000000000000e+00" cType="1" res="-5.8505185879766941e-03" rms="1.8568998575210571e-01" purity="5.6824900209903717e-02" nType="-99"/>
          </Node>
        </Node>
        <Node pos="r" depth="1" NCoef="0" IVar="5" Cut="9.4504593750000000e+04" cType="1" res="1.0399850457906723e-01" rms="2.4803070724010468e-01" purity="8.5864812135696411e-01" nType="0">
          <Node pos="l" depth="2" NCoef="0" IVar="3" Cut="5.4431082031250000e+04" cType="1" res="9.1055229306221008e-02" rms="2.5534135103225708e-01" purity="8.4725064039230347e-01" nType="0">
            <Node pos="l" depth="3" NCoef="0" IVar="-1" Cut="0.0000000000000000e+00" cType="1" res="9.2892919201403856e-04" rms="3.6673948168754578e-01" purity="6.4251750707626343e-01" nType="-99"/>
            <Node pos="r" depth="3" NCoef="0" IVar="-1" Cut="0.0000000000000000e+00" cType="1" res="1.3234093785285950e-03" rms="1.3771253824234009e-01" purity="9.8029381036758423e-01" nType="-99"/>
          </Node>
          <Node pos="r" depth="2" NCoef="0" IVar="-1" Cut="0.0000000000000000e+00" cType="1" res="8.3788769552484155e-04" rms="1.9261811673641205e-01" purity="9.1767120361328125e-01" nType="-99"/>
        </Node>
      </Node>
    </BinaryTree>
    <BinaryTree type="DecisionTree" boostWeight="1.0000000000000000e+00" itree="490">
      <Node pos="s" depth="0" NCoef="0" IVar="1" Cut="1.0034389062500000e+05" cType="1" res="3.1019158661365509e-02" rms="2.6510992646217346e-01" purity="4.4699281454086304e-01" nType="0">
        <Node pos="l" depth="1" NCoef="0" IVar="5" Cut="9.3547140625000000e+04" cType="1" res="-3.5735280835069716e-04" rms="2.5355038046836853e-01" purity="2.6365843415260315e-01" nType="0">
          <Node pos="l" depth="2" NCoef="0" IVar="3" Cut="8.5022765625000000e+04" cType="1" res="-1.3300870545208454e-02" rms="2.4106352031230927e-01" purity="2.2676749527454376e-01" nType="0">
            <Node pos="l" depth="3" NCoef="0" IVar="-1" Cut="0.0000000000000000e+00" cType="1" res="-2.0136837847530842e-03" rms="2.4047198891639709e-01" purity="1.2100731581449509e-01" nType="-99"/>
            <Node pos="r" depth="3" NCoef="0" IVar="-1" Cut="0.0000000000000000e+00" cType="1" res="1.1873216135427356e-03" rms="2.2473916411399841e-01" purity="9.4426584243774414e-01" nType="-99"/>
          </Node>
          <Node pos="r" depth="2" NCoef="0" IVar="1" Cut="7.9354492187500000e+04" cType="1" res="8.4314420819282532e-02" rms="3.1052342057228088e-01" purity="5.0498545169830322e-01" nType="0">
            <Node pos="l" depth="3" NCoef="0" IVar="-1" Cut="0.0000000000000000e+00" cType="1" res="2.1706346888095140e-03" rms="3.4621658921241760e-01" purity="6.9851899147033691e-01" nType="-99"/>
            <Node pos="r" depth="3" NCoef="0" IVar="-1" Cut="0.0000000000000000e+00" cType="1" res="8.0424430780112743e-04" rms="2.3696987330913544e-01" purity="2.4637460708618164e-01" nType="-99"/>
          </Node>
        </Node>
        <Node pos="r" depth="1" NCoef="0" IVar="3" Cut="4.4837679687500000e+04" cType="1" res="9.6011765301227570e-02" rms="2.7647587656974792e-01" purity="8.2674759626388550e-01" nType="0">
          <Node pos="l" depth="2" NCoef="0" IVar="3" Cut="1.3109616210937500e+04" cType="1" res="6.6086970269680023e-02" rms="4.0313088893890381e-01" purity="5.6594550609588623e-01" nType="0">
            <Node pos="l" depth="3" NCoef="0" IVar="-1" Cut="0.0000000000000000e+00" cType="1" res="2.0295428112149239e-03" rms="3.6305394768714905e-01" purity="4.1476997733116150e-01" nType="-99"/>
            <Node pos="r" depth="3" NCoef="0" IVar="-1" Cut="0.0000000000000000e+00" cType="1" res="6.7525694612413645e-04" rms="4.1330036520957947e-01" purity="6.2141084671020508e-01" nType="-99"/>
          </Node>
          <Node pos="r" depth="2" NCoef="0" IVar="0" Cut="1.3333333730697632e+00" cType="1" res="1.1239770799875259e-01" rms="1.6896027326583862e-01" purity="9.6955519914627075e-01" nType="0">
            <Node pos="l" depth="3" NCoef="0" IVar="-1" Cut="0.0000000000000000e+00" cType="1" res="1.9952403381466866e-03" rms="1.6415716707706451e-01" purity="9.7202634811401367e-01" nType="-99"/>
            <Node pos="r" depth="3" NCoef="0" IVar="-1" Cut="0.0000000000000000e+00" cType="1" res="1.2916292762383819e-03" rms="1.7379222810268402e-01" purity="9.6655637025833130e-01" nType="-99"/>
          </Node>
        </Node>
      </Node>
    </BinaryTree>
    <BinaryTree type="DecisionTree" boostWeight="1.0000000000000000e+00" itree="491">
      <Node pos="s" depth="0" NCoef="0" IVar="3" Cut="4.8659894531250000e+04" cType="1" res="4.8458617180585861e-02" rms="2.5459462404251099e-01" purity="5.0577217340469360e-01" nType="0">
        <Node pos="l" depth="1" NCoef="0" IVar="2" Cut="1.8952059375000000e+05" cType="1" res="1.7656303942203522e-02" rms="2.6965919137001038e-01" purity="2.0298188924789429e-01" nType="0">
          <Node pos="l" depth="2" NCoef="0" IVar="1" Cut="4.9627730468750000e+04" cType="1" res="-3.8610741496086121e-02" rms="2.4245040118694305e-01" purity="8.0633603036403656e-02" nType="0">
            <Node pos="l" depth="3" NCoef="0" IVar="-1" Cut="0.0000000000000000e+00" cType="1" res="-1.9521124660968781e-02" rms="2.2700068354606628e-01" purity="5.0421092659235001e-02" nType="-99"/>
            <Node pos="r" depth="3" NCoef="0" IVar="-1" Cut="0.0000000000000000e+00" cType="1" res="-1.1272964184172451e-04" rms="2.4569000303745270e-01" purity="1.0151624679565430e-01" nType="-99"/>
          </Node>
          <Node pos="r" depth="2" NCoef="0" IVar="1" Cut="8.4142218750000000e+04" cType="1" res="2.5250626727938652e-02" rms="2.7223470807075500e-01" purity="2.1949516236782074e-01" nType="0">
            <Node pos="l" depth="3" NCoef="0" IVar="-1" Cut="0.0000000000000000e+00" cType="1" res="1.8610788974910975e-03" rms="3.5108974575996399e-01" purity="3.1628185510635376e-01" nType="-99"/>
            <Node pos="r" depth="3" NCoef="0" IVar="-1" Cut="0.0000000000000000e+00" cType="1" res="6.1592395650222898e-04" rms="2.4795123934745789e-01" purity="1.9665245711803436e-01" nType="-99"/>
          </Node>
        </Node>
        <Node pos="r" depth="1" NCoef="0" IVar="1" Cut="1.4568907812500000e+05" cType="1" res="8.9935496449470520e-02" rms="2.2624303400516510e-01" purity="9.1349464654922485e-01" nType="0">
          <Node pos="l" depth="2" NCoef="0" IVar="3" Cut="7.8998625000000000e+04" cType="1" res="7.8066214919090271e-02" rms="2.6266357302665710e-01" purity="8.7670397758483887e-01" nType="0">
            <Node pos="l" depth="3" NCoef="0" IVar="-1" Cut="0.0000000000000000e+00" cType="1" res="5.4996099788695574e-04" rms="3.6138987541198730e-01" purity="7.3141670227050781e-01" nType="-99"/>
            <Node pos="r" depth="3" NCoef="0" IVar="-1" Cut="0.0000000000000000e+00" cType="1" res="1.7796137835830450e-03" rms="1.6940936446189880e-01" purity="9.6891748905181885e-01" nType="-99"/>
          </Node>
          <Node pos="r" depth="2" NCoef="0" IVar="-1" Cut="0.0000000000000000e+00" cType="1" res="1.5069819055497646e-03" rms="1.3006049394607544e-01" purity="9.8272413015365601e-01" nType="-99"/>
        </Node>
      </Node>
    </BinaryTree>
    <BinaryTree type="DecisionTree" boostWeight="1.0000000000000000e+00" itree="492">
      <Node pos="s" depth="0" NCoef="0" IVar="2" Cut="3.1113421875000000e+05" cType="1" res="5.2734028548002243e-02" rms="2.5722494721412659e-01" purity="5.0880223512649536e-01" nType="0">
        <Node pos="l" depth="1" NCoef="0" IVar="4" Cut="2.9293881250000000e+05" cType="1" res="2.5030734017491341e-02" rms="2.5529003143310547e-01" purity="3.4373065829277039e-01" nType="0">
          <Node pos="l" depth="2" NCoef="0" IVar="3" Cut="8.0905429687500000e+04" cType="1" res="-1.6281929565593600e-03" rms="2.3339144885540009e-01" purity="2.4629953503608704e-01" nType="0">
            <Node pos="l" depth="3" NCoef="0" IVar="-1" Cut="0.0000000000000000e+00" cType="1" res="-1.1083694407716393e-03" rms="2.3661200702190399e-01" purity="1.5344414114952087e-01" nType="-99"/>
            <Node pos="r" depth="3" NCoef="0" IVar="-1" Cut="0.0000000000000000e+00" cType="1" res="1.3782066525891423e-03" rms="1.7973747849464417e-01" purity="9.6393656730651855e-01" nType="-99"/>
          </Node>
          <Node pos="r" depth="2" NCoef="0" IVar="2" Cut="2.9255675000000000e+05" cType="1" res="1.0843377560377121e-01" rms="2.9912060499191284e-01" purity="6.4854604005813599e-01" nType="0">
            <Node pos="l" depth="3" NCoef="0" IVar="-1" Cut="0.0000000000000000e+00" cType="1" res="1.5833134530112147e-03" rms="2.7851605415344238e-01" purity="6.2960964441299438e-01" nType="-99"/>
            <Node pos="r" depth="3" NCoef="0" IVar="-1" Cut="0.0000000000000000e+00" cType="1" res="3.4959600307047367e-03" rms="3.6362329125404358e-01" purity="7.3812478780746460e-01" nType="-99"/>
          </Node>
        </Node>
        <Node pos="r" depth="1" NCoef="0" IVar="4" Cut="4.1621787500000000e+05" cType="1" res="9.0452954173088074e-02" rms="2.5504356622695923e-01" purity="7.3355263471603394e-01" nType="0">
          <Node pos="l" depth="2" NCoef="0" IVar="1" Cut="1.0087436718750000e+05" cType="1" res="1.0953512042760849e-01" rms="2.8086254000663757e-01" purity="6.5760087966918945e-01" nType="0">
            <Node pos="l" depth="3" NCoef="0" IVar="-1" Cut="0.0000000000000000e+00" cType="1" res="2.7100713923573494e-03" rms="3.0229577422142029e-01" purity="2.6572629809379578e-01" nType="-99"/>
            <Node pos="r" depth="3" NCoef="0" IVar="-1" Cut="0.0000000000000000e+00" cType="1" res="1.3110431609675288e-03" rms="2.6028740406036377e-01" purity="9.0111380815505981e-01" nType="-99"/>
          </Node>
          <Node pos="r" depth="2" NCoef="0" IVar="1" Cut="1.4629173437500000e+05" cType="1" res="7.1623653173446655e-02" rms="2.2512257099151611e-01" purity="8.0849790573120117e-01" nType="0">
            <Node pos="l" depth="3" NCoef="0" IVar="-1" Cut="0.0000000000000000e+00" cType="1" res="6.1459187418222427e-04" rms="2.5184550881385803e-01" purity="6.2927412986755371e-01" nType="-99"/>
            <Node pos="r" depth="3" NCoef="0" IVar="-1" Cut="0.0000000000000000e+00" cType="1" res="1.5820668777450919e-03" rms="1.9303204119205475e-01" purity="9.5529180765151978e-01" nType="-99"/>
          </Node>
        </Node>
      </Node>
    </BinaryTree>
    <BinaryTree type="DecisionTree" boostWeight="1.0000000000000000e+00" itree="493">
      <Node pos="s" depth="0" NCoef="0" IVar="3" Cut="6.8736484375000000e+04" cType="1" res="5.2863918244838715e-02" rms="2.6986899971961975e-01" purity="5.0630259513854980e-01" nType="0">
        <Node pos="l" depth="1" NCoef="0" IVar="5" Cut="9.6402835937500000e+04" cType="1" res="3.3386319875717163e-02" rms="2.9788339138031006e-01" purity="3.1142851710319519e-01" nType="0">
          <Node pos="l" depth="2" NCoef="0" IVar="3" Cut="6.2185960937500000e+04" cType="1" res="2.7532877400517464e-02" rms="2.9439681768417358e-01" purity="2.9651013016700745e-01" nType="0">
            <Node pos="l" depth="3" NCoef="0" IVar="-1" Cut="0.0000000000000000e+00" cType="1" res="6.6516036167740822e-04" rms="2.9219651222229004e-01" purity="2.7376300096511841e-01" nType="-99"/>
            <Node pos="r" depth="3" NCoef="0" IVar="-1" Cut="0.0000000000000000e+00" cType="1" res="1.7547382740303874e-03" rms="3.2840994000434875e-01" purity="8.5194873809814453e-01" nType="-99"/>
          </Node>
          <Node pos="r" depth="2" NCoef="0" IVar="-1" Cut="0.0000000000000000e+00" cType="1" res="1.2871824437752366e-03" rms="3.4423822164535522e-01" purity="7.0754605531692505e-01" nType="-99"/>
        </Node>
        <Node pos="r" depth="1" NCoef="0" IVar="1" Cut="1.0373550781250000e+05" cType="1" res="9.8486684262752533e-02" rms="1.8056592345237732e-01" purity="9.6275997161865234e-01" nType="0">
          <Node pos="l" depth="2" NCoef="0" IVar="1" Cut="9.0713421875000000e+04" cType="1" res="8.6397849023342133e-02" rms="2.3134855926036835e-01" purity="9.3701088428497314e-01" nType="0">
            <Node pos="l" depth="3" NCoef="0" IVar="-1" Cut="0.0000000000000000e+00" cType="1" res="1.4529812615364790e-03" rms="2.0961779356002808e-01" purity="9.5111167430877686e-01" nType="-99"/>
            <Node pos="r" depth="3" NCoef="0" IVar="-1" Cut="0.0000000000000000e+00" cType="1" res="1.1910437751794234e-04" rms="3.6373013257980347e-01" purity="8.1130772829055786e-01" nType="-99"/>
          </Node>
          <Node pos="r" depth="2" NCoef="0" IVar="-1" Cut="0.0000000000000000e+00" cType="1" res="1.6873616259545088e-03" rms="1.0866322368383408e-01" purity="9.8800969123840332e-01" nType="-99"/>
        </Node>
      </Node>
    </BinaryTree>
    <BinaryTree type="DecisionTree" boostWeight="1.0000000000000000e+00" itree="494">
      <Node pos="s" depth="0" NCoef="0" IVar="5" Cut="9.3547140625000000e+04" cType="1" res="5.8121591806411743e-02" rms="2.7012827992439270e-01" purity="4.9932661652565002e-01" nType="0">
        <Node pos="l" depth="1" NCoef="0" IVar="5" Cut="8.8257859375000000e+04" cType="1" res="4.5205876231193542e-02" rms="2.5939878821372986e-01" purity="4.7093498706817627e-01" nType="0">
          <Node pos="l" depth="2" NCoef="0" IVar="5" Cut="8.3220570312500000e+04" cType="1" res="1.0521941632032394e-01" rms="2.8641739487648010e-01" purity="6.9402360916137695e-01" nType="0">
            <Node pos="l" depth="3" NCoef="0" IVar="-1" Cut="0.0000000000000000e+00" cType="1" res="5.5896857520565391e-04" rms="2.3320522904396057e-01" purity="6.9851344823837280e-01" nType="-99"/>
            <Node pos="r" depth="3" NCoef="0" IVar="-1" Cut="0.0000000000000000e+00" cType="1" res="1.6459701582789421e-03" rms="2.8930693864822388e-01" purity="6.9366008043289185e-01" nType="-99"/>
          </Node>
          <Node pos="r" depth="2" NCoef="0" IVar="3" Cut="5.6723253906250000e+04" cType="1" res="2.8690826147794724e-02" rms="2.4892888963222504e-01" purity="4.0954351425170898e-01" nType="0">
            <Node pos="l" depth="3" NCoef="0" IVar="-1" Cut="0.0000000000000000e+00" cType="1" res="2.3678845900576562e-04" rms="2.5225493311882019e-01" purity="1.9755557179450989e-01" nType="-99"/>
            <Node pos="r" depth="3" NCoef="0" IVar="-1" Cut="0.0000000000000000e+00" cType="1" res="1.3552653836086392e-03" rms="2.3256483674049377e-01" purity="9.1811186075210571e-01" nType="-99"/>
          </Node>
        </Node>
        <Node pos="r" depth="1" NCoef="0" IVar="5" Cut="9.3909039062500000e+04" cType="1" res="1.3275285065174103e-01" rms="3.1506428122520447e-01" purity="6.6338282823562622e-01" nType="0">
          <Node pos="l" depth="2" NCoef="0" IVar="0" Cut="2.3809523880481720e-01" cType="1" res="2.3812505602836609e-01" rms="3.5907959938049316e-01" purity="6.7901843786239624e-01" nType="0">
            <Node pos="l" depth="3" NCoef="0" IVar="-1" Cut="0.0000000000000000e+00" cType="1" res="2.6343697682023048e-03" rms="3.7557372450828552e-01" purity="5.9178745746612549e-01" nType="-99"/>
            <Node pos="r" depth="3" NCoef="0" IVar="-1" Cut="0.0000000000000000e+00" cType="1" res="3.3544087782502174e-03" rms="3.3081820607185364e-01" purity="7.6693862676620483e-01" nType="-99"/>
          </Node>
          <Node pos="r" depth="2" NCoef="0" IVar="5" Cut="9.6664742187500000e+04" cType="1" res="1.0209908336400986e-01" rms="2.9404717683792114e-01" purity="6.5883421897888184e-01" nType="0">
            <Node pos="l" depth="3" NCoef="0" IVar="-1" Cut="0.0000000000000000e+00" cType="1" res="1.6533840680494905e-03" rms="2.8738197684288025e-01" purity="5.8950430154800415e-01" nType="-99"/>
            <Node pos="r" depth="3" NCoef="0" IVar="-1" Cut="0.0000000000000000e+00" cType="1" res="1.4877914218232036e-03" rms="2.9570540785789490e-01" purity="8.0198329687118530e-01" nType="-99"/>
          </Node>
        </Node>
      </Node>
    </BinaryTree>
    <BinaryTree type="DecisionTree" boostWeight="1.0000000000000000e+00" itree="495">
      <Node pos="s" depth="0" NCoef="0" IVar="3" Cut="4.4463175781250000e+04" cType="1" res="6.1665743589401245e-02" rms="2.6848191022872925e-01" purity="5.1835823059082031e-01" nType="0">
        <Node pos="l" depth="1" NCoef="0" IVar="2" Cut="3.7109978125000000e+05" cType="1" res="3.3951468765735626e-02" rms="2.8902494907379150e-01" purity="2.0194071531295776e-01" nType="0">
          <Node pos="l" depth="2" NCoef="0" IVar="2" Cut="2.5814879687500000e+05" cType="1" res="1.8742786720395088e-02" rms="2.6951628923416138e-01" purity="1.3232320547103882e-01" nType="0">
            <Node pos="l" depth="3" NCoef="0" IVar="-1" Cut="0.0000000000000000e+00" cType="1" res="-6.3092174241319299e-04" rms="2.2894009947776794e-01" purity="7.2685971856117249e-02" nType="-99"/>
            <Node pos="r" depth="3" NCoef="0" IVar="-1" Cut="0.0000000000000000e+00" cType="1" res="1.9512862199917436e-03" rms="3.2720118761062622e-01" purity="2.4160137772560120e-01" nType="-99"/>
          </Node>
          <Node pos="r" depth="2" NCoef="0" IVar="5" Cut="8.8720656250000000e+04" cType="1" res="9.3666948378086090e-02" rms="3.4906300902366638e-01" purity="4.7528731822967529e-01" nType="0">
            <Node pos="l" depth="3" NCoef="0" IVar="-1" Cut="0.0000000000000000e+00" cType="1" res="2.5335121899843216e-03" rms="3.8671454787254333e-01" purity="6.7574799060821533e-01" nType="-99"/>
            <Node pos="r" depth="3" NCoef="0" IVar="-1" Cut="0.0000000000000000e+00" cType="1" res="1.9372897222638130e-03" rms="3.2927855849266052e-01" purity="4.1194900870323181e-01" nType="-99"/>
          </Node>
        </Node>
        <Node pos="r" depth="1" NCoef="0" IVar="5" Cut="9.4376812500000000e+04" cType="1" res="9.5041468739509583e-02" rms="2.3717321455478668e-01" purity="8.9941316843032837e-01" nType="0">
          <Node pos="l" depth="2" NCoef="0" IVar="3" Cut="7.0652312500000000e+04" cType="1" res="9.0357206761837006e-02" rms="2.3855532705783844e-01" purity="8.9407563209533691e-01" nType="0">
            <Node pos="l" depth="3" NCoef="0" IVar="-1" Cut="0.0000000000000000e+00" cType="1" res="9.3713798560202122e-04" rms="3.4189841151237488e-01" purity="7.3405385017395020e-01" nType="-99"/>
            <Node pos="r" depth="3" NCoef="0" IVar="-1" Cut="0.0000000000000000e+00" cType="1" res="1.4696512371301651e-03" rms="1.6748560965061188e-01" purity="9.6897208690643311e-01" nType="-99"/>
          </Node>
          <Node pos="r" depth="2" NCoef="0" IVar="-1" Cut="0.0000000000000000e+00" cType="1" res="1.7059063538908958e-03" rms="2.2375331819057465e-01" purity="9.3867743015289307e-01" nType="-99"/>
        </Node>
      </Node>
    </BinaryTree>
    <BinaryTree type="DecisionTree" boostWeight="1.0000000000000000e+00" itree="496">
      <Node pos="s" depth="0" NCoef="0" IVar="2" Cut="3.1234012500000000e+05" cType="1" res="5.6742683053016663e-02" rms="2.7709653973579407e-01" purity="4.9907922744750977e-01" nType="0">
        <Node pos="l" depth="1" NCoef="0" IVar="1" Cut="1.1702223437500000e+05" cType="1" res="3.3238787204027176e-02" rms="2.8213930130004883e-01" purity="3.4400370717048645e-01" nType="0">
          <Node pos="l" depth="2" NCoef="0" IVar="2" Cut="1.3820103125000000e+05" cType="1" res="2.2467810660600662e-02" rms="2.7032321691513062e-01" purity="2.9360324144363403e-01" nType="0">
            <Node pos="l" depth="3" NCoef="0" IVar="-1" Cut="0.0000000000000000e+00" cType="1" res="-1.5108234249055386e-02" rms="2.6662638783454895e-01" purity="1.0558878630399704e-01" nType="-99"/>
            <Node pos="r" depth="3" NCoef="0" IVar="-1" Cut="0.0000000000000000e+00" cType="1" res="1.0229464387521148e-03" rms="2.6844009757041931e-01" purity="2.9874873161315918e-01" nType="-99"/>
          </Node>
          <Node pos="r" depth="2" NCoef="0" IVar="1" Cut="1.3070818750000000e+05" cType="1" res="1.3163635134696960e-01" rms="3.5846370458602905e-01" purity="8.0443376302719116e-01" nType="0">
            <Node pos="l" depth="3" NCoef="0" IVar="-1" Cut="0.0000000000000000e+00" cType="1" res="3.2737751025706530e-03" rms="3.8008731603622437e-01" purity="7.9214918613433838e-01" nType="-99"/>
            <Node pos="r" depth="3" NCoef="0" IVar="-1" Cut="0.0000000000000000e+00" cType="1" res="1.0227333987131715e-03" rms="3.2188794016838074e-01" purity="8.1420451402664185e-01" nType="-99"/>
          </Node>
        </Node>
        <Node pos="r" depth="1" NCoef="0" IVar="2" Cut="4.9616712500000000e+05" cType="1" res="9.0074375271797180e-02" rms="2.6624953746795654e-01" purity="7.1899718046188354e-01" nType="0">
          <Node pos="l" depth="2" NCoef="0" IVar="2" Cut="3.9109668750000000e+05" cType="1" res="1.0706982761621475e-01" rms="2.7459651231765747e-01" purity="6.9944399595260620e-01" nType="0">
            <Node pos="l" depth="3" NCoef="0" IVar="-1" Cut="0.0000000000000000e+00" cType="1" res="1.1920778779312968e-03" rms="2.7037164568901062e-01" purity="6.0001552104949951e-01" nType="-99"/>
            <Node pos="r" depth="3" NCoef="0" IVar="-1" Cut="0.0000000000000000e+00" cType="1" res="9.9656276870518923e-04" rms="2.6973289251327515e-01" purity="7.9605072736740112e-01" nType="-99"/>
          </Node>
          <Node pos="r" depth="2" NCoef="0" IVar="3" Cut="7.7663070312500000e+04" cType="1" res="4.8415340483188629e-02" rms="2.3954042792320251e-01" purity="7.6692575216293335e-01" nType="0">
            <Node pos="l" depth="3" NCoef="0" IVar="-1" Cut="0.0000000000000000e+00" cType="1" res="-3.0078188865445554e-04" rms="3.0957624316215515e-01" purity="5.2653008699417114e-01" nType="-99"/>
            <Node pos="r" depth="3" NCoef="0" IVar="-1" Cut="0.0000000000000000e+00" cType="1" res="8.4668840281665325e-04" rms="1.3039024174213409e-01" purity="9.8163259029388428e-01" nType="-99"/>
          </Node>
        </Node>
      </Node>
    </BinaryTree>
    <BinaryTree type="DecisionTree" boostWeight="1.0000000000000000e+00" itree="497">
      <Node pos="s" depth="0" NCoef="0" IVar="1" Cut="1.3642714062500000e+05" cType="1" res="5.3368881344795227e-02" rms="2.7201601862907410e-01" purity="5.0324368476867676e-01" nType="0">
        <Node pos="l" depth="1" NCoef="0" IVar="1" Cut="1.0072788281250000e+05" cType="1" res="3.7332855165004730e-02" rms="2.8073209524154663e-01" purity="3.8041901588439941e-01" nType="0">
          <Node pos="l" depth="2" NCoef="0" IVar="3" Cut="1.5110804687500000e+05" cType="1" res="1.5086766332387924e-02" rms="2.7116808295249939e-01" purity="2.8289210796356201e-01" nType="0">
            <Node pos="l" depth="3" NCoef="0" IVar="-1" Cut="0.0000000000000000e+00" cType="1" res="4.5590769150294363e-04" rms="2.7631002664566040e-01" purity="2.4137197434902191e-01" nType="-99"/>
            <Node pos="r" depth="3" NCoef="0" IVar="-1" Cut="0.0000000000000000e+00" cType="1" res="1.3751311926171184e-03" rms="1.3092267513275146e-01" purity="9.8268389701843262e-01" nType="-99"/>
          </Node>
          <Node pos="r" depth="2" NCoef="0" IVar="1" Cut="1.0242271875000000e+05" cType="1" res="1.2802131474018097e-01" rms="3.0014404654502869e-01" purity="7.7799749374389648e-01" nType="0">
            <Node pos="l" depth="3" NCoef="0" IVar="-1" Cut="0.0000000000000000e+00" cType="1" res="3.9828424341976643e-03" rms="4.3116408586502075e-01" purity="6.0410946607589722e-01" nType="-99"/>
            <Node pos="r" depth="3" NCoef="0" IVar="-1" Cut="0.0000000000000000e+00" cType="1" res="9.4473001081496477e-04" rms="2.7652290463447571e-01" purity="7.9841482639312744e-01" nType="-99"/>
          </Node>
        </Node>
        <Node pos="r" depth="1" NCoef="0" IVar="4" Cut="4.0406346875000000e+05" cType="1" res="1.0944867134094238e-01" rms="2.3043471574783325e-01" purity="9.3277543783187866e-01" nType="0">
          <Node pos="l" depth="2" NCoef="0" IVar="4" Cut="2.8193671875000000e+05" cType="1" res="1.2756708264350891e-01" rms="2.8104537725448608e-01" purity="9.0192449092864990e-01" nType="0">
            <Node pos="l" depth="3" NCoef="0" IVar="-1" Cut="0.0000000000000000e+00" cType="1" res="1.7327616224065423e-03" rms="2.9079982638359070e-01" purity="8.8276088237762451e-01" nType="-99"/>
            <Node pos="r" depth="3" NCoef="0" IVar="-1" Cut="0.0000000000000000e+00" cType="1" res="1.7855437472462654e-03" rms="2.7238142490386963e-01" purity="9.1808438301086426e-01" nType="-99"/>
          </Node>
          <Node pos="r" depth="2" NCoef="0" IVar="-1" Cut="0.0000000000000000e+00" cType="1" res="1.4815666945651174e-03" rms="1.8320038914680481e-01" purity="9.5555800199508667e-01" nType="-99"/>
        </Node>
      </Node>
    </BinaryTree>
    <BinaryTree type="DecisionTree" boostWeight="1.0000000000000000e+00" itree="498">
      <Node pos="s" depth="0" NCoef="0" IVar="3" Cut="6.8736484375000000e+04" cType="1" res="4.3300818651914597e-02" rms="2.5391122698783875e-01" purity="5.0342094898223877e-01" nType="0">
        <Node pos="l" depth="1" NCoef="0" IVar="1" Cut="9.3450960937500000e+04" cType="1" res="1.8830483779311180e-02" rms="2.7499803900718689e-01" purity="2.8935357928276062e-01" nType="0">
          <Node pos="l" depth="2" NCoef="0" IVar="5" Cut="8.8800781250000000e+04" cType="1" res="-1.6461983323097229e-02" rms="2.4401393532752991e-01" purity="1.1182242631912231e-01" nType="0">
            <Node pos="l" depth="3" NCoef="0" IVar="-1" Cut="0.0000000000000000e+00" cType="1" res="2.4830619804561138e-03" rms="3.4782755374908447e-01" purity="2.2265999019145966e-01" nType="-99"/>
            <Node pos="r" depth="3" NCoef="0" IVar="-1" Cut="0.0000000000000000e+00" cType="1" res="-2.9379625339061022e-03" rms="2.1425786614418030e-01" purity="8.8686935603618622e-02" nType="-99"/>
          </Node>
          <Node pos="r" depth="2" NCoef="0" IVar="3" Cut="2.9440949218750000e+04" cType="1" res="6.5000131726264954e-02" rms="3.0479532480239868e-01" purity="5.2160006761550903e-01" nType="0">
            <Node pos="l" depth="3" NCoef="0" IVar="-1" Cut="0.0000000000000000e+00" cType="1" res="7.2411895962432027e-04" rms="2.8781875967979431e-01" purity="2.5795322656631470e-01" nType="-99"/>
            <Node pos="r" depth="3" NCoef="0" IVar="-1" Cut="0.0000000000000000e+00" cType="1" res="1.3409033417701721e-03" rms="3.1436631083488464e-01" purity="7.6496291160583496e-01" nType="-99"/>
          </Node>
        </Node>
        <Node pos="r" depth="1" NCoef="0" IVar="1" Cut="9.4841054687500000e+04" cType="1" res="9.5291353762149811e-02" rms="1.9183219969272614e-01" purity="9.5823585987091064e-01" nType="0">
          <Node pos="l" depth="2" NCoef="0" IVar="1" Cut="8.6941921875000000e+04" cType="1" res="7.4211329221725464e-02" rms="2.4166136980056763e-01" purity="9.3020093441009521e-01" nType="0">
            <Node pos="l" depth="3" NCoef="0" IVar="-1" Cut="0.0000000000000000e+00" cType="1" res="1.1736515443772078e-03" rms="2.1359524130821228e-01" purity="9.4995731115341187e-01" nType="-99"/>
            <Node pos="r" depth="3" NCoef="0" IVar="-1" Cut="0.0000000000000000e+00" cType="1" res="-1.2941783061251044e-03" rms="4.4708320498466492e-01" purity="6.6670638322830200e-01" nType="-99"/>
          </Node>
          <Node pos="r" depth="2" NCoef="0" IVar="4" Cut="4.8350093750000000e+05" cType="1" res="1.1359303444623947e-01" rms="1.3162513077259064e-01" purity="9.8257589340209961e-01" nType="0">
            <Node pos="l" depth="3" NCoef="0" IVar="-1" Cut="0.0000000000000000e+00" cType="1" res="1.7268387600779533e-03" rms="1.3129189610481262e-01" purity="9.8404610157012939e-01" nType="-99"/>
            <Node pos="r" depth="3" NCoef="0" IVar="-1" Cut="0.0000000000000000e+00" cType="1" res="1.7675074050202966e-03" rms="1.3114191591739655e-01" purity="9.8081851005554199e-01" nType="-99"/>
          </Node>
        </Node>
      </Node>
    </BinaryTree>
    <BinaryTree type="DecisionTree" boostWeight="1.0000000000000000e+00" itree="499">
      <Node pos="s" depth="0" NCoef="0" IVar="3" Cut="5.4198226562500000e+04" cType="1" res="4.1877623647451401e-02" rms="2.5627139210700989e-01" purity="4.8595336079597473e-01" nType="0">
        <Node pos="l" depth="1" NCoef="0" IVar="3" Cut="5.1609785156250000e+04" cType="1" res="1.3119419105350971e-02" rms="2.6632270216941833e-01" purity="2.2378113865852356e-01" nType="0">
          <Node pos="l" depth="2" NCoef="0" IVar="1" Cut="1.2715056250000000e+05" cType="1" res="8.1918891519308090e-03" rms="2.6180475950241089e-01" purity="2.0768254995346069e-01" nType="0">
            <Node pos="l" depth="3" NCoef="0" IVar="-1" Cut="0.0000000000000000e+00" cType="1" res="-5.2107723604422063e-05" rms="2.3935043811798096e-01" purity="1.1124843358993530e-01" nType="-99"/>
            <Node pos="r" depth="3" NCoef="0" IVar="-1" Cut="0.0000000000000000e+00" cType="1" res="6.4478383865207434e-04" rms="3.6470198631286621e-01" purity="7.8817337751388550e-01" nType="-99"/>
          </Node>
          <Node pos="r" depth="2" NCoef="0" IVar="-1" Cut="0.0000000000000000e+00" cType="1" res="2.9158857651054859e-03" rms="3.5128387808799744e-01" purity="7.7665477991104126e-01" nType="-99"/>
        </Node>
        <Node pos="r" depth="1" NCoef="0" IVar="5" Cut="8.9720960937500000e+04" cType="1" res="9.0363956987857819e-02" rms="2.3037703335285187e-01" purity="9.2797565460205078e-01" nType="0">
          <Node pos="l" depth="2" NCoef="0" IVar="3" Cut="7.8340875000000000e+04" cType="1" res="1.1192250996828079e-01" rms="2.0018067955970764e-01" purity="9.5530688762664795e-01" nType="0">
            <Node pos="l" depth="3" NCoef="0" IVar="-1" Cut="0.0000000000000000e+00" cType="1" res="1.8430225318297744e-03" rms="2.6456475257873535e-01" purity="9.1803073883056641e-01" nType="-99"/>
            <Node pos="r" depth="3" NCoef="0" IVar="-1" Cut="0.0000000000000000e+00" cType="1" res="1.6672345809638500e-03" rms="1.5201447904109955e-01" purity="9.7554254531860352e-01" nType="-99"/>
          </Node>
          <Node pos="r" depth="2" NCoef="0" IVar="5" Cut="9.3498515625000000e+04" cType="1" res="7.6414033770561218e-02" rms="2.4696353077888489e-01" purity="9.1029036045074463e-01" nType="0">
            <Node pos="l" depth="3" NCoef="0" IVar="-1" Cut="0.0000000000000000e+00" cType="1" res="9.0461928630247712e-04" rms="2.6218405365943909e-01" purity="8.9458590745925903e-01" nType="-99"/>
            <Node pos="r" depth="3" NCoef="0" IVar="-1" Cut="0.0000000000000000e+00" cType="1" res="1.6181879909709096e-03" rms="1.9838292896747589e-01" purity="9.5034807920455933e-01" nType="-99"/>
          </Node>
        </Node>
      </Node>
    </BinaryTree>
    <BinaryTree type="DecisionTree" boostWeight="1.0000000000000000e+00" itree="500">
      <Node pos="s" depth="0" NCoef="0" IVar="3" Cut="5.4312500000000000e+04" cType="1" res="4.1565995663404465e-02" rms="2.6167291402816772e-01" purity="4.8138132691383362e-01" nType="0">
        <Node pos="l" depth="1" NCoef="0" IVar="1" Cut="7.4225765625000000e+04" cType="1" res="1.7126372084021568e-02" rms="2.8009301424026489e-01" purity="2.1700686216354370e-01" nType="0">
          <Node pos="l" depth="2" NCoef="0" IVar="1" Cut="3.8679281250000000e+04" cType="1" res="8.3389014005661011e-02" rms="4.2025199532508850e-01" purity="3.7231153249740601e-01" nType="0">
            <Node pos="l" depth="3" NCoef="0" IVar="-1" Cut="0.0000000000000000e+00" cType="1" res="-2.0526284351944923e-03" rms="3.1075683236122131e-01" purity="1.6181321442127228e-01" nType="-99"/>
            <Node pos="r" depth="3" NCoef="0" IVar="-1" Cut="0.0000000000000000e+00" cType="1" res="2.2357685957103968e-03" rms="4.5891177654266357e-01" purity="4.9513468146324158e-01" nType="-99"/>
          </Node>
          <Node pos="r" depth="2" NCoef="0" IVar="1" Cut="1.3347496875000000e+05" cType="1" res="3.5628515761345625e-03" rms="2.3932562768459320e-01" purity="1.8521703779697418e-01" nType="0">
            <Node pos="l" depth="3" NCoef="0" IVar="-1" Cut="0.0000000000000000e+00" cType="1" res="-1.2004682794213295e-03" rms="2.0827390253543854e-01" purity="7.1611225605010986e-02" nType="-99"/>
            <Node pos="r" depth="3" NCoef="0" IVar="-1" Cut="0.0000000000000000e+00" cType="1" res="6.8956945324316621e-04" rms="3.5929802060127258e-01" purity="8.1116968393325806e-01" nType="-99"/>
          </Node>
        </Node>
        <Node pos="r" depth="1" NCoef="0" IVar="1" Cut="1.1145093750000000e+05" cType="1" res="8.2947477698326111e-02" rms="2.2102420032024384e-01" purity="9.2902356386184692e-01" nType="0">
          <Node pos="l" depth="2" NCoef="0" IVar="3" Cut="8.9500203125000000e+04" cType="1" res="5.7320918887853622e-02" rms="2.8040722012519836e-01" purity="8.7554824352264404e-01" nType="0">
            <Node pos="l" depth="3" NCoef="0" IVar="-1" Cut="0.0000000000000000e+00" cType="1" res="7.0937319833319634e-05" rms="3.8005295395851135e-01" purity="7.3711222410202026e-01" nType="-99"/>
            <Node pos="r" depth="3" NCoef="0" IVar="-1" Cut="0.0000000000000000e+00" cType="1" res="1.3839981984347105e-03" rms="1.8331965804100037e-01" purity="9.6426087617874146e-01" nType="-99"/>
          </Node>
          <Node pos="r" depth="2" NCoef="0" IVar="4" Cut="4.4411878125000000e+05" cType="1" res="1.0768982023000717e-01" rms="1.3731840252876282e-01" purity="9.8065376281738281e-01" nType="0">
            <Node pos="l" depth="3" NCoef="0" IVar="-1" Cut="0.0000000000000000e+00" cType="1" res="1.5583371277898550e-03" rms="1.3770641386508942e-01" purity="9.8066896200180054e-01" nType="-99"/>
            <Node pos="r" depth="3" NCoef="0" IVar="-1" Cut="0.0000000000000000e+00" cType="1" res="1.7151931533589959e-03" rms="1.3673280179500580e-01" purity="9.8063832521438599e-01" nType="-99"/>
          </Node>
        </Node>
      </Node>
    </BinaryTree>
    <BinaryTree type="DecisionTree" boostWeight="1.0000000000000000e+00" itree="501">
      <Node pos="s" depth="0" NCoef="0" IVar="3" Cut="6.8736484375000000e+04" cType="1" res="4.0130682289600372e-02" rms="2.5006347894668579e-01" purity="4.8024195432662964e-01" nType="0">
        <Node pos="l" depth="1" NCoef="0" IVar="1" Cut="6.9575375000000000e+04" cType="1" res="1.2561397626996040e-02" rms="2.7346763014793396e-01" purity="2.6528128981590271e-01" nType="0">
          <Node pos="l" depth="2" NCoef="0" IVar="3" Cut="1.3497072265625000e+04" cType="1" res="9.0140752494335175e-02" rms="4.1020652651786804e-01" purity="4.2562955617904663e-01" nType="0">
            <Node pos="l" depth="3" NCoef="0" IVar="-1" Cut="0.0000000000000000e+00" cType="1" res="-5.4975111037492752e-02" rms="2.8641423210501671e-02" purity="0.0000000000000000e+00" nType="-99"/>
            <Node pos="r" depth="3" NCoef="0" IVar="-1" Cut="0.0000000000000000e+00" cType="1" res="1.9830190576612949e-03" rms="4.4566890597343445e-01" purity="5.1727932691574097e-01" nType="-99"/>
          </Node>
          <Node pos="r" depth="2" NCoef="0" IVar="1" Cut="1.2441560937500000e+05" cType="1" res="-1.8542064353823662e-03" rms="2.3682746291160583e-01" purity="2.3548574745655060e-01" nType="0">
            <Node pos="l" depth="3" NCoef="0" IVar="-1" Cut="0.0000000000000000e+00" cType="1" res="-2.0269381348043680e-03" rms="2.0058365166187286e-01" purity="9.2122569680213928e-02" nType="-99"/>
            <Node pos="r" depth="3" NCoef="0" IVar="-1" Cut="0.0000000000000000e+00" cType="1" res="8.0356042599305511e-04" rms="3.3782204985618591e-01" purity="8.2319468259811401e-01" nType="-99"/>
          </Node>
        </Node>
        <Node pos="r" depth="1" NCoef="0" IVar="0" Cut="2.2857143878936768e+00" cType="1" res="1.0266040265560150e-01" rms="1.7060887813568115e-01" purity="9.6779304742813110e-01" nType="0">
          <Node pos="l" depth="2" NCoef="0" IVar="5" Cut="8.9656320312500000e+04" cType="1" res="1.0727547854185104e-01" rms="1.6042573750019073e-01" purity="9.7166192531585693e-01" nType="0">
            <Node pos="l" depth="3" NCoef="0" IVar="-1" Cut="0.0000000000000000e+00" cType="1" res="1.9225962460041046e-03" rms="1.6651502251625061e-01" purity="9.7284668684005737e-01" nType="-99"/>
            <Node pos="r" depth="3" NCoef="0" IVar="-1" Cut="0.0000000000000000e+00" cType="1" res="1.5514389378950000e-03" rms="1.5789638459682465e-01" purity="9.7120666503906250e-01" nType="-99"/>
          </Node>
          <Node pos="r" depth="2" NCoef="0" IVar="-1" Cut="0.0000000000000000e+00" cType="1" res="1.1662725592032075e-03" rms="2.1162919700145721e-01" purity="9.4910937547683716e-01" nType="-99"/>
        </Node>
      </Node>
    </BinaryTree>
    <BinaryTree type="DecisionTree" boostWeight="1.0000000000000000e+00" itree="502">
      <Node pos="s" depth="0" NCoef="0" IVar="3" Cut="3.2765363281250000e+04" cType="1" res="4.4300679117441177e-02" rms="2.5902214646339417e-01" purity="4.9492698907852173e-01" nType="0">
        <Node pos="l" depth="1" NCoef="0" IVar="4" Cut="4.9529934375000000e+05" cType="1" res="4.1822153143584728e-03" rms="2.2676064074039459e-01" purity="1.1706732213497162e-01" nType="0">
          <Node pos="l" depth="2" NCoef="0" IVar="2" Cut="4.2857646875000000e+05" cType="1" res="-9.8524615168571472e-03" rms="2.0160028338432312e-01" purity="7.4481956660747528e-02" nType="0">
            <Node pos="l" depth="3" NCoef="0" IVar="-1" Cut="0.0000000000000000e+00" cType="1" res="-2.7793047484010458e-03" rms="1.8407626450061798e-01" purity="5.2814476191997528e-02" nType="-99"/>
            <Node pos="r" depth="3" NCoef="0" IVar="-1" Cut="0.0000000000000000e+00" cType="1" res="2.2078435868024826e-03" rms="3.4953868389129639e-01" purity="3.6098930239677429e-01" nType="-99"/>
          </Node>
          <Node pos="r" depth="2" NCoef="0" IVar="3" Cut="2.0576345703125000e+04" cType="1" res="1.3891087472438812e-01" rms="3.6720642447471619e-01" purity="5.2587407827377319e-01" nType="0">
            <Node pos="l" depth="3" NCoef="0" IVar="-1" Cut="0.0000000000000000e+00" cType="1" res="3.3245941158384085e-03" rms="3.9838367700576782e-01" purity="5.5594736337661743e-01" nType="-99"/>
            <Node pos="r" depth="3" NCoef="0" IVar="-1" Cut="0.0000000000000000e+00" cType="1" res="-1.7317061428911984e-04" rms="2.4913211166858673e-01" purity="4.7653689980506897e-01" nType="-99"/>
          </Node>
        </Node>
        <Node pos="r" depth="1" NCoef="0" IVar="4" Cut="2.3810268750000000e+05" cType="1" res="7.6162107288837433e-02" rms="2.7793091535568237e-01" purity="7.9501688480377197e-01" nType="0">
          <Node pos="l" depth="2" NCoef="0" IVar="4" Cut="1.4025568750000000e+05" cType="1" res="3.8373112678527832e-02" rms="3.3732032775878906e-01" purity="6.1527854204177856e-01" nType="0">
            <Node pos="l" depth="3" NCoef="0" IVar="-1" Cut="0.0000000000000000e+00" cType="1" res="2.8337216936051846e-03" rms="3.7843763828277588e-01" purity="7.3008477687835693e-01" nType="-99"/>
            <Node pos="r" depth="3" NCoef="0" IVar="-1" Cut="0.0000000000000000e+00" cType="1" res="3.6625933717004955e-04" rms="3.2437729835510254e-01" purity="6.0037118196487427e-01" nType="-99"/>
          </Node>
          <Node pos="r" depth="2" NCoef="0" IVar="0" Cut="2.2857143878936768e+00" cType="1" res="8.8709816336631775e-02" rms="2.5393146276473999e-01" purity="8.5469847917556763e-01" nType="0">
            <Node pos="l" depth="3" NCoef="0" IVar="-1" Cut="0.0000000000000000e+00" cType="1" res="1.3014547294005752e-03" rms="2.4400261044502258e-01" purity="8.6707019805908203e-01" nType="-99"/>
            <Node pos="r" depth="3" NCoef="0" IVar="-1" Cut="0.0000000000000000e+00" cType="1" res="7.7770074130967259e-04" rms="2.9472163319587708e-01" purity="7.8977501392364502e-01" nType="-99"/>
          </Node>
        </Node>
      </Node>
    </BinaryTree>
    <BinaryTree type="DecisionTree" boostWeight="1.0000000000000000e+00" itree="503">
      <Node pos="s" depth="0" NCoef="0" IVar="3" Cut="3.7922710937500000e+04" cType="1" res="5.5479597300291061e-02" rms="2.7698567509651184e-01" purity="4.9977460503578186e-01" nType="0">
        <Node pos="l" depth="1" NCoef="0" IVar="5" Cut="8.9706828125000000e+04" cType="1" res="3.1780246645212173e-02" rms="2.7916079759597778e-01" purity="1.5999153256416321e-01" nType="0">
          <Node pos="l" depth="2" NCoef="0" IVar="3" Cut="2.8948396484375000e+04" cType="1" res="8.7965570390224457e-02" rms="3.5864761471748352e-01" purity="2.4584373831748962e-01" nType="0">
            <Node pos="l" depth="3" NCoef="0" IVar="-1" Cut="0.0000000000000000e+00" cType="1" res="2.4630816187709570e-03" rms="3.0800139904022217e-01" purity="1.6903756558895111e-01" nType="-99"/>
            <Node pos="r" depth="3" NCoef="0" IVar="-1" Cut="0.0000000000000000e+00" cType="1" res="5.1561333239078522e-03" rms="4.6186858415603638e-01" purity="5.1143723726272583e-01" nType="-99"/>
          </Node>
          <Node pos="r" depth="2" NCoef="0" IVar="4" Cut="4.8159828125000000e+05" cType="1" res="7.9354960471391678e-03" rms="2.3346681892871857e-01" purity="1.2355634570121765e-01" nType="0">
            <Node pos="l" depth="3" NCoef="0" IVar="-1" Cut="0.0000000000000000e+00" cType="1" res="-5.9553090250119567e-04" rms="2.1546871960163116e-01" purity="7.6368659734725952e-02" nType="-99"/>
            <Node pos="r" depth="3" NCoef="0" IVar="-1" Cut="0.0000000000000000e+00" cType="1" res="1.1161721777170897e-03" rms="3.2889083027839661e-01" purity="4.9275106191635132e-01" nType="-99"/>
          </Node>
        </Node>
        <Node pos="r" depth="1" NCoef="0" IVar="1" Cut="1.3174604687500000e+05" cType="1" res="7.9332977533340454e-02" rms="2.7270719408988953e-01" purity="8.4176605939865112e-01" nType="0">
          <Node pos="l" depth="2" NCoef="0" IVar="1" Cut="8.0155789062500000e+04" cType="1" res="6.7771568894386292e-02" rms="3.0965963006019592e-01" purity="7.7921885251998901e-01" nType="0">
            <Node pos="l" depth="3" NCoef="0" IVar="-1" Cut="0.0000000000000000e+00" cType="1" res="1.4334933366626501e-03" rms="2.9284888505935669e-01" purity="8.9750778675079346e-01" nType="-99"/>
            <Node pos="r" depth="3" NCoef="0" IVar="-1" Cut="0.0000000000000000e+00" cType="1" res="4.1063595563173294e-04" rms="3.2039961218833923e-01" purity="6.5812379121780396e-01" nType="-99"/>
          </Node>
          <Node pos="r" depth="2" NCoef="0" IVar="1" Cut="1.8593501562500000e+05" cType="1" res="1.0281427204608917e-01" rms="1.7274072766304016e-01" purity="9.6879982948303223e-01" nType="0">
            <Node pos="l" depth="3" NCoef="0" IVar="-1" Cut="0.0000000000000000e+00" cType="1" res="1.7372167203575373e-03" rms="1.5548507869243622e-01" purity="9.7504651546478271e-01" nType="-99"/>
            <Node pos="r" depth="3" NCoef="0" IVar="-1" Cut="0.0000000000000000e+00" cType="1" res="1.5867239562794566e-03" rms="1.8769581615924835e-01" purity="9.6263808012008667e-01" nType="-99"/>
          </Node>
        </Node>
      </Node>
    </BinaryTree>
    <BinaryTree type="DecisionTree" boostWeight="1.0000000000000000e+00" itree="504">
      <Node pos="s" depth="0" NCoef="0" IVar="1" Cut="9.3514617187500000e+04" cType="1" res="6.0758907347917557e-02" rms="2.7742046117782593e-01" purity="5.1212310791015625e-01" nType="0">
        <Node pos="l" depth="1" NCoef="0" IVar="1" Cut="8.1879421875000000e+04" cType="1" res="3.3404719084501266e-02" rms="2.8024718165397644e-01" purity="3.2600021362304688e-01" nType="0">
          <Node pos="l" depth="2" NCoef="0" IVar="1" Cut="3.8662000000000000e+04" cType="1" res="8.1489644944667816e-02" rms="3.3516672253608704e-01" purity="6.0049676895141602e-01" nType="0">
            <Node pos="l" depth="3" NCoef="0" IVar="-1" Cut="0.0000000000000000e+00" cType="1" res="2.0092572958674282e-04" rms="2.6220265030860901e-01" purity="4.9677592515945435e-01" nType="-99"/>
            <Node pos="r" depth="3" NCoef="0" IVar="-1" Cut="0.0000000000000000e+00" cType="1" res="2.1936502307653427e-03" rms="3.5401579737663269e-01" purity="6.3730961084365845e-01" nType="-99"/>
          </Node>
          <Node pos="r" depth="2" NCoef="0" IVar="2" Cut="4.5620025000000000e+05" cType="1" res="-8.3151860162615776e-03" rms="2.1323107182979584e-01" purity="8.7838791310787201e-02" nType="0">
            <Node pos="l" depth="3" NCoef="0" IVar="-1" Cut="0.0000000000000000e+00" cType="1" res="-2.9037785716354847e-03" rms="1.7836751043796539e-01" purity="7.1042291820049286e-02" nType="-99"/>
            <Node pos="r" depth="3" NCoef="0" IVar="-1" Cut="0.0000000000000000e+00" cType="1" res="1.0376087389886379e-02" rms="4.3879577517509460e-01" purity="2.9892694950103760e-01" nType="-99"/>
          </Node>
        </Node>
        <Node pos="r" depth="1" NCoef="0" IVar="0" Cut="3.8095238804817200e-01" cType="1" res="8.9722573757171631e-02" rms="2.7140709757804871e-01" purity="7.0919722318649292e-01" nType="0">
          <Node pos="l" depth="2" NCoef="0" IVar="3" Cut="4.6151101562500000e+04" cType="1" res="0.0000000000000000e+00" rms="0.0000000000000000e+00" purity="5.8455336093902588e-01" nType="0">
            <Node pos="l" depth="3" NCoef="0" IVar="-1" Cut="0.0000000000000000e+00" cType="1" res="7.2389615525025874e-05" rms="2.8426307439804077e-01" purity="2.7736467123031616e-01" nType="-99"/>
            <Node pos="r" depth="3" NCoef="0" IVar="-1" Cut="0.0000000000000000e+00" cType="1" res="1.2200161581858993e-03" rms="1.8768081068992615e-01" purity="9.4765251874923706e-01" nType="-99"/>
          </Node>
          <Node pos="r" depth="2" NCoef="0" IVar="1" Cut="1.4950089062500000e+05" cType="1" res="1.1705764383077621e-01" rms="2.8148534893989563e-01" purity="7.9235219955444336e-01" nType="0">
            <Node pos="l" depth="3" NCoef="0" IVar="-1" Cut="0.0000000000000000e+00" cType="1" res="1.3512927107512951e-03" rms="3.2231822609901428e-01" purity="6.8142080307006836e-01" nType="-99"/>
            <Node pos="r" depth="3" NCoef="0" IVar="-1" Cut="0.0000000000000000e+00" cType="1" res="1.6171574825420976e-03" rms="2.1028685569763184e-01" purity="9.4237697124481201e-01" nType="-99"/>
          </Node>
        </Node>
      </Node>
    </BinaryTree>
    <BinaryTree type="DecisionTree" boostWeight="1.0000000000000000e+00" itree="505">
      <Node pos="s" depth="0" NCoef="0" IVar="1" Cut="1.0034835937500000e+05" cType="1" res="5.8361586183309555e-02" rms="2.8206244111061096e-01" purity="5.0126814842224121e-01" nType="0">
        <Node pos="l" depth="1" NCoef="0" IVar="1" Cut="6.6694312500000000e+04" cType="1" res="3.5242084413766861e-02" rms="2.8475889563560486e-01" purity="3.2444062829017639e-01" nType="0">
          <Node pos="l" depth="2" NCoef="0" IVar="1" Cut="3.2833867187500000e+04" cType="1" res="1.1573906242847443e-01" rms="3.5987311601638794e-01" purity="6.6309154033660889e-01" nType="0">
            <Node pos="l" depth="3" NCoef="0" IVar="-1" Cut="0.0000000000000000e+00" cType="1" res="-1.9387512002140284e-03" rms="3.0135568976402283e-01" purity="3.2560548186302185e-01" nType="-99"/>
            <Node pos="r" depth="3" NCoef="0" IVar="-1" Cut="0.0000000000000000e+00" cType="1" res="2.3607506882399321e-03" rms="3.6193084716796875e-01" purity="7.6975739002227783e-01" nType="-99"/>
          </Node>
          <Node pos="r" depth="2" NCoef="0" IVar="3" Cut="6.5406480468750000e+04" cType="1" res="5.7933330535888672e-03" rms="2.4522577226161957e-01" purity="2.0054972171783447e-01" nType="0">
            <Node pos="l" depth="3" NCoef="0" IVar="-1" Cut="0.0000000000000000e+00" cType="1" res="-1.4068667078390718e-03" rms="2.3529355227947235e-01" purity="6.8590641021728516e-02" nType="-99"/>
            <Node pos="r" depth="3" NCoef="0" IVar="-1" Cut="0.0000000000000000e+00" cType="1" res="9.9895754829049110e-04" rms="2.8298321366310120e-01" purity="8.9493161439895630e-01" nType="-99"/>
          </Node>
        </Node>
        <Node pos="r" depth="1" NCoef="0" IVar="5" Cut="9.2570156250000000e+04" cType="1" res="1.0336624830961227e-01" rms="2.7114218473434448e-01" purity="8.4548240900039673e-01" nType="0">
          <Node pos="l" depth="2" NCoef="0" IVar="5" Cut="9.0948273437500000e+04" cType="1" res="8.9228197932243347e-02" rms="2.7293825149536133e-01" purity="8.3249682188034058e-01" nType="0">
            <Node pos="l" depth="3" NCoef="0" IVar="-1" Cut="0.0000000000000000e+00" cType="1" res="1.5179150504991412e-03" rms="2.7960184216499329e-01" purity="8.3635014295578003e-01" nType="-99"/>
            <Node pos="r" depth="3" NCoef="0" IVar="-1" Cut="0.0000000000000000e+00" cType="1" res="8.3977880422025919e-04" rms="2.5055712461471558e-01" purity="8.2266497611999512e-01" nType="-99"/>
          </Node>
          <Node pos="r" depth="2" NCoef="0" IVar="2" Cut="3.2828159375000000e+05" cType="1" res="1.3816723227500916e-01" rms="2.6345688104629517e-01" purity="8.7744659185409546e-01" nType="0">
            <Node pos="l" depth="3" NCoef="0" IVar="-1" Cut="0.0000000000000000e+00" cType="1" res="2.6514220517128706e-03" rms="3.8771274685859680e-01" purity="7.2770607471466064e-01" nType="-99"/>
            <Node pos="r" depth="3" NCoef="0" IVar="-1" Cut="0.0000000000000000e+00" cType="1" res="1.0348804062232375e-03" rms="1.9965445995330811e-01" purity="9.3075245618820190e-01" nType="-99"/>
          </Node>
        </Node>
      </Node>
    </BinaryTree>
    <BinaryTree type="DecisionTree" boostWeight="1.0000000000000000e+00" itree="506">
      <Node pos="s" depth="0" NCoef="0" IVar="3" Cut="6.8798242187500000e+04" cType="1" res="5.4561354219913483e-02" rms="2.7089157700538635e-01" purity="5.0824165344238281e-01" nType="0">
        <Node pos="l" depth="1" NCoef="0" IVar="3" Cut="1.3204000000000000e+04" cType="1" res="3.7573959678411484e-02" rms="3.0125039815902710e-01" purity="3.0217912793159485e-01" nType="0">
          <Node pos="l" depth="2" NCoef="0" IVar="1" Cut="1.0461152343750000e+05" cType="1" res="-6.1864819144830108e-04" rms="1.5652407705783844e-01" purity="4.7842033207416534e-02" nType="0">
            <Node pos="l" depth="3" NCoef="0" IVar="-1" Cut="0.0000000000000000e+00" cType="1" res="-3.1347658485174179e-02" rms="7.3266476392745972e-02" purity="5.0019430927932262e-03" nType="-99"/>
            <Node pos="r" depth="3" NCoef="0" IVar="-1" Cut="0.0000000000000000e+00" cType="1" res="2.0975486841052771e-03" rms="4.1114577651023865e-01" purity="3.8770776987075806e-01" nType="-99"/>
          </Node>
          <Node pos="r" depth="2" NCoef="0" IVar="1" Cut="8.3927703125000000e+04" cType="1" res="4.9763910472393036e-02" rms="3.3359155058860779e-01" purity="3.8335603475570679e-01" nType="0">
            <Node pos="l" depth="3" NCoef="0" IVar="-1" Cut="0.0000000000000000e+00" cType="1" res="1.8036849796772003e-03" rms="4.2567318677902222e-01" purity="4.4350239634513855e-01" nType="-99"/>
            <Node pos="r" depth="3" NCoef="0" IVar="-1" Cut="0.0000000000000000e+00" cType="1" res="8.2171650137752295e-04" rms="2.9102385044097900e-01" purity="3.6166238784790039e-01" nType="-99"/>
          </Node>
        </Node>
        <Node pos="r" depth="1" NCoef="0" IVar="1" Cut="1.3165967187500000e+05" cType="1" res="9.1965340077877045e-02" rms="1.8194043636322021e-01" purity="9.6196389198303223e-01" nType="0">
          <Node pos="l" depth="2" NCoef="0" IVar="1" Cut="9.7744164062500000e+04" cType="1" res="8.1777721643447876e-02" rms="2.2170588374137878e-01" purity="9.4218826293945312e-01" nType="0">
            <Node pos="l" depth="3" NCoef="0" IVar="-1" Cut="0.0000000000000000e+00" cType="1" res="1.2371578486636281e-03" rms="2.4037623405456543e-01" purity="9.2939400672912598e-01" nType="-99"/>
            <Node pos="r" depth="3" NCoef="0" IVar="-1" Cut="0.0000000000000000e+00" cType="1" res="1.1446684366092086e-03" rms="1.7477451264858246e-01" purity="9.6866816282272339e-01" nType="-99"/>
          </Node>
          <Node pos="r" depth="2" NCoef="0" IVar="-1" Cut="0.0000000000000000e+00" cType="1" res="1.9741433206945658e-03" rms="1.0283509641885757e-01" purity="9.8929744958877563e-01" nType="-99"/>
        </Node>
      </Node>
    </BinaryTree>
    <BinaryTree type="DecisionTree" boostWeight="1.0000000000000000e+00" itree="507">
      <Node pos="s" depth="0" NCoef="0" IVar="3" Cut="6.8850757812500000e+04" cType="1" res="5.1019597798585892e-02" rms="2.6410534977912903e-01" purity="4.9741706252098083e-01" nType="0">
        <Node pos="l" depth="1" NCoef="0" IVar="3" Cut="4.2681539062500000e+04" cType="1" res="3.5868763923645020e-02" rms="2.8400149941444397e-01" purity="3.2817280292510986e-01" nType="0">
          <Node pos="l" depth="2" NCoef="0" IVar="1" Cut="7.4209273437500000e+04" cType="1" res="1.7596114426851273e-02" rms="2.6791509985923767e-01" purity="1.7180049419403076e-01" nType="0">
            <Node pos="l" depth="3" NCoef="0" IVar="-1" Cut="0.0000000000000000e+00" cType="1" res="2.8969352133572102e-03" rms="4.3848845362663269e-01" purity="3.2921695709228516e-01" nType="-99"/>
            <Node pos="r" depth="3" NCoef="0" IVar="-1" Cut="0.0000000000000000e+00" cType="1" res="-3.4280068939551711e-04" rms="2.1342435479164124e-01" purity="1.4147563278675079e-01" nType="-99"/>
          </Node>
          <Node pos="r" depth="2" NCoef="0" IVar="5" Cut="8.9477578125000000e+04" cType="1" res="8.7534561753273010e-02" rms="3.1960427761077881e-01" purity="7.7031445503234863e-01" nType="0">
            <Node pos="l" depth="3" NCoef="0" IVar="-1" Cut="0.0000000000000000e+00" cType="1" res="1.0405062930658460e-03" rms="3.1165155768394470e-01" purity="8.4435409307479858e-01" nType="-99"/>
            <Node pos="r" depth="3" NCoef="0" IVar="-1" Cut="0.0000000000000000e+00" cType="1" res="7.2669266955927014e-04" rms="3.1941977143287659e-01" purity="7.2646296024322510e-01" nType="-99"/>
          </Node>
        </Node>
        <Node pos="r" depth="1" NCoef="0" IVar="4" Cut="3.1369925000000000e+05" cType="1" res="9.2175424098968506e-02" rms="1.9445124268531799e-01" purity="9.5715326070785522e-01" nType="0">
          <Node pos="l" depth="2" NCoef="0" IVar="0" Cut="1.4285714924335480e-01" cType="1" res="7.4181415140628815e-02" rms="2.3732024431228638e-01" purity="9.3103975057601929e-01" nType="0">
            <Node pos="l" depth="3" NCoef="0" IVar="-1" Cut="0.0000000000000000e+00" cType="1" res="1.7102124402299523e-03" rms="1.9206599891185760e-01" purity="9.5891869068145752e-01" nType="-99"/>
            <Node pos="r" depth="3" NCoef="0" IVar="-1" Cut="0.0000000000000000e+00" cType="1" res="4.6613666927441955e-04" rms="2.9645615816116333e-01" purity="8.8040041923522949e-01" nType="-99"/>
          </Node>
          <Node pos="r" depth="2" NCoef="0" IVar="0" Cut="2.2857143878936768e+00" cType="1" res="1.0132019966840744e-01" rms="1.6779838502407074e-01" purity="9.7042447328567505e-01" nType="0">
            <Node pos="l" depth="3" NCoef="0" IVar="-1" Cut="0.0000000000000000e+00" cType="1" res="1.7205560579895973e-03" rms="1.5006265044212341e-01" purity="9.7772657871246338e-01" nType="-99"/>
            <Node pos="r" depth="3" NCoef="0" IVar="-1" Cut="0.0000000000000000e+00" cType="1" res="1.0406114161014557e-03" rms="2.3117086291313171e-01" purity="9.3502175807952881e-01" nType="-99"/>
          </Node>
        </Node>
      </Node>
    </BinaryTree>
    <BinaryTree type="DecisionTree" boostWeight="1.0000000000000000e+00" itree="508">
      <Node pos="s" depth="0" NCoef="0" IVar="1" Cut="1.0038213281250000e+05" cType="1" res="5.0349570810794830e-02" rms="2.6056796312332153e-01" purity="5.1188933849334717e-01" nType="0">
        <Node pos="l" depth="1" NCoef="0" IVar="3" Cut="6.5347808593750000e+04" cType="1" res="1.6600687056779861e-02" rms="2.5781610608100891e-01" purity="3.0028715729713440e-01" nType="0">
          <Node pos="l" depth="2" NCoef="0" IVar="3" Cut="4.6676695312500000e+04" cType="1" res="-3.9847036823630333e-03" rms="2.5847819447517395e-01" purity="1.1166419088840485e-01" nType="0">
            <Node pos="l" depth="3" NCoef="0" IVar="-1" Cut="0.0000000000000000e+00" cType="1" res="8.5998885333538055e-04" rms="2.3527233302593231e-01" purity="8.3499334752559662e-02" nType="-99"/>
            <Node pos="r" depth="3" NCoef="0" IVar="-1" Cut="0.0000000000000000e+00" cType="1" res="-2.7500847354531288e-03" rms="4.1041526198387146e-01" purity="3.9559513330459595e-01" nType="-99"/>
          </Node>
          <Node pos="r" depth="2" NCoef="0" IVar="1" Cut="8.7768484375000000e+04" cType="1" res="8.4712661802768707e-02" rms="2.4350917339324951e-01" purity="9.2439401149749756e-01" nType="0">
            <Node pos="l" depth="3" NCoef="0" IVar="-1" Cut="0.0000000000000000e+00" cType="1" res="1.7758451867848635e-03" rms="2.0211118459701538e-01" purity="9.5356881618499756e-01" nType="-99"/>
            <Node pos="r" depth="3" NCoef="0" IVar="-1" Cut="0.0000000000000000e+00" cType="1" res="2.1583952184300870e-04" rms="3.8955712318420410e-01" purity="7.6905405521392822e-01" nType="-99"/>
          </Node>
        </Node>
        <Node pos="r" depth="1" NCoef="0" IVar="5" Cut="8.8780789062500000e+04" cType="1" res="1.0693485289812088e-01" rms="2.5529563426971436e-01" purity="8.6667358875274658e-01" nType="0">
          <Node pos="l" depth="2" NCoef="0" IVar="3" Cut="3.9414519531250000e+04" cType="1" res="7.2205305099487305e-02" rms="2.7302750945091248e-01" purity="8.3179402351379395e-01" nType="0">
            <Node pos="l" depth="3" NCoef="0" IVar="-1" Cut="0.0000000000000000e+00" cType="1" res="3.8017350016161799e-04" rms="4.0813329815864563e-01" purity="5.1124507188796997e-01" nType="-99"/>
            <Node pos="r" depth="3" NCoef="0" IVar="-1" Cut="0.0000000000000000e+00" cType="1" res="1.4055932406336069e-03" rms="1.9591233134269714e-01" purity="9.5314270257949829e-01" nType="-99"/>
          </Node>
          <Node pos="r" depth="2" NCoef="0" IVar="5" Cut="8.9954843750000000e+04" cType="1" res="1.1680602282285690e-01" rms="2.4914430081844330e-01" purity="8.7658739089965820e-01" nType="0">
            <Node pos="l" depth="3" NCoef="0" IVar="-1" Cut="0.0000000000000000e+00" cType="1" res="8.3375669782981277e-04" rms="2.4037857353687286e-01" purity="9.1307526826858521e-01" nType="-99"/>
            <Node pos="r" depth="3" NCoef="0" IVar="-1" Cut="0.0000000000000000e+00" cType="1" res="1.2801134726032615e-03" rms="2.4941900372505188e-01" purity="8.6405926942825317e-01" nType="-99"/>
          </Node>
        </Node>
      </Node>
    </BinaryTree>
    <BinaryTree type="DecisionTree" boostWeight="1.0000000000000000e+00" itree="509">
      <Node pos="s" depth="0" NCoef="0" IVar="3" Cut="6.8736484375000000e+04" cType="1" res="4.1796978563070297e-02" rms="2.5439631938934326e-01" purity="5.0439709424972534e-01" nType="0">
        <Node pos="l" depth="1" NCoef="0" IVar="3" Cut="2.6217947265625000e+04" cType="1" res="1.5673579648137093e-02" rms="2.7937111258506775e-01" purity="2.9175430536270142e-01" nType="0">
          <Node pos="l" depth="2" NCoef="0" IVar="4" Cut="4.7869059375000000e+05" cType="1" res="-8.9805675670504570e-03" rms="2.0140217244625092e-01" purity="7.6021715998649597e-02" nType="0">
            <Node pos="l" depth="3" NCoef="0" IVar="-1" Cut="0.0000000000000000e+00" cType="1" res="-2.6954077184200287e-03" rms="1.8171918392181396e-01" purity="5.3543522953987122e-02" nType="-99"/>
            <Node pos="r" depth="3" NCoef="0" IVar="-1" Cut="0.0000000000000000e+00" cType="1" res="1.7310780240222812e-03" rms="3.5851663351058960e-01" purity="3.4924396872520447e-01" nType="-99"/>
          </Node>
          <Node pos="r" depth="2" NCoef="0" IVar="2" Cut="2.0096437500000000e+05" cType="1" res="4.2379058897495270e-02" rms="3.4246307611465454e-01" purity="5.2543681859970093e-01" nType="0">
            <Node pos="l" depth="3" NCoef="0" IVar="-1" Cut="0.0000000000000000e+00" cType="1" res="-2.5706794112920761e-03" rms="3.5705137252807617e-01" purity="2.4751377105712891e-01" nType="-99"/>
            <Node pos="r" depth="3" NCoef="0" IVar="-1" Cut="0.0000000000000000e+00" cType="1" res="9.4823341351002455e-04" rms="3.3705592155456543e-01" purity="5.7013094425201416e-01" nType="-99"/>
          </Node>
        </Node>
        <Node pos="r" depth="1" NCoef="0" IVar="0" Cut="3.8095238804817200e-01" cType="1" res="9.8379492759704590e-02" rms="1.7653277516365051e-01" purity="9.6497523784637451e-01" nType="0">
          <Node pos="l" depth="2" NCoef="0" IVar="3" Cut="9.0965687500000000e+04" cType="1" res="0.0000000000000000e+00" rms="0.0000000000000000e+00" purity="9.7962194681167603e-01" nType="0">
            <Node pos="l" depth="3" NCoef="0" IVar="-1" Cut="0.0000000000000000e+00" cType="1" res="1.9658447708934546e-03" rms="2.0168800652027130e-01" purity="9.5352321863174438e-01" nType="-99"/>
            <Node pos="r" depth="3" NCoef="0" IVar="-1" Cut="0.0000000000000000e+00" cType="1" res="1.4921334804967046e-03" rms="1.0086745768785477e-01" purity="9.8969614505767822e-01" nType="-99"/>
          </Node>
          <Node pos="r" depth="2" NCoef="0" IVar="1" Cut="1.1141539843750000e+05" cType="1" res="8.8502898812294006e-02" rms="1.9338928163051605e-01" purity="9.5725810527801514e-01" nType="0">
            <Node pos="l" depth="3" NCoef="0" IVar="-1" Cut="0.0000000000000000e+00" cType="1" res="1.0683475993573666e-03" rms="2.5536128878593445e-01" purity="9.2298281192779541e-01" nType="-99"/>
            <Node pos="r" depth="3" NCoef="0" IVar="-1" Cut="0.0000000000000000e+00" cType="1" res="1.6927386168390512e-03" rms="1.1538489162921906e-01" purity="9.8640632629394531e-01" nType="-99"/>
          </Node>
        </Node>
      </Node>
    </BinaryTree>
    <BinaryTree type="DecisionTree" boostWeight="1.0000000000000000e+00" itree="510">
      <Node pos="s" depth="0" NCoef="0" IVar="2" Cut="3.1093778125000000e+05" cType="1" res="4.8890523612499237e-02" rms="2.6734635233879089e-01" purity="4.9942740797996521e-01" nType="0">
        <Node pos="l" depth="1" NCoef="0" IVar="4" Cut="3.5134234375000000e+05" cType="1" res="2.3925291374325752e-02" rms="2.5796666741371155e-01" purity="3.4947875142097473e-01" nType="0">
          <Node pos="l" depth="2" NCoef="0" IVar="3" Cut="7.6736273437500000e+04" cType="1" res="9.0725086629390717e-03" rms="2.5117668509483337e-01" purity="2.8740686178207397e-01" nType="0">
            <Node pos="l" depth="3" NCoef="0" IVar="-1" Cut="0.0000000000000000e+00" cType="1" res="-4.3886728235520422e-04" rms="2.5750294327735901e-01" purity="1.5642568469047546e-01" nType="-99"/>
            <Node pos="r" depth="3" NCoef="0" IVar="-1" Cut="0.0000000000000000e+00" cType="1" res="1.3360882876440883e-03" rms="1.9597533345222473e-01" purity="9.5766717195510864e-01" nType="-99"/>
          </Node>
          <Node pos="r" depth="2" NCoef="0" IVar="0" Cut="1.1428571939468384e+00" cType="1" res="1.0816463083028793e-01" rms="2.7893829345703125e-01" purity="7.0152699947357178e-01" nType="0">
            <Node pos="l" depth="3" NCoef="0" IVar="-1" Cut="0.0000000000000000e+00" cType="1" res="2.4436980020254850e-03" rms="2.6725834608078003e-01" purity="8.3031290769577026e-01" nType="-99"/>
            <Node pos="r" depth="3" NCoef="0" IVar="-1" Cut="0.0000000000000000e+00" cType="1" res="1.0877787135541439e-03" rms="2.7224653959274292e-01" purity="6.3461977243423462e-01" nType="-99"/>
          </Node>
        </Node>
        <Node pos="r" depth="1" NCoef="0" IVar="5" Cut="8.9689476562500000e+04" cType="1" res="8.4288515150547028e-02" rms="2.7626737952232361e-01" purity="7.1203821897506714e-01" nType="0">
          <Node pos="l" depth="2" NCoef="0" IVar="4" Cut="4.6106606250000000e+05" cType="1" res="1.1345237493515015e-01" rms="2.9303449392318726e-01" purity="7.7797049283981323e-01" nType="0">
            <Node pos="l" depth="3" NCoef="0" IVar="-1" Cut="0.0000000000000000e+00" cType="1" res="9.4011571491137147e-04" rms="2.9604855179786682e-01" purity="7.7408498525619507e-01" nType="-99"/>
            <Node pos="r" depth="3" NCoef="0" IVar="-1" Cut="0.0000000000000000e+00" cType="1" res="4.8584400792606175e-04" rms="2.6352581381797791e-01" purity="7.8764897584915161e-01" nType="-99"/>
          </Node>
          <Node pos="r" depth="2" NCoef="0" IVar="0" Cut="1.2857142686843872e+00" cType="1" res="6.9214567542076111e-02" rms="2.6593798398971558e-01" purity="6.7795974016189575e-01" nType="0">
            <Node pos="l" depth="3" NCoef="0" IVar="-1" Cut="0.0000000000000000e+00" cType="1" res="8.0234539927914739e-04" rms="2.5799763202667236e-01" purity="6.2790590524673462e-01" nType="-99"/>
            <Node pos="r" depth="3" NCoef="0" IVar="-1" Cut="0.0000000000000000e+00" cType="1" res="2.1480871364474297e-03" rms="2.7640110254287720e-01" purity="7.7376174926757812e-01" nType="-99"/>
          </Node>
        </Node>
      </Node>
    </BinaryTree>
    <BinaryTree type="DecisionTree" boostWeight="1.0000000000000000e+00" itree="511">
      <Node pos="s" depth="0" NCoef="0" IVar="3" Cut="6.8798242187500000e+04" cType="1" res="4.5633390545845032e-02" rms="2.6612171530723572e-01" purity="5.0367838144302368e-01" nType="0">
        <Node pos="l" depth="1" NCoef="0" IVar="5" Cut="9.4498710937500000e+04" cType="1" res="2.4134848266839981e-02" rms="2.9553183913230896e-01" purity="2.8097492456436157e-01" nType="0">
          <Node pos="l" depth="2" NCoef="0" IVar="5" Cut="8.9433765625000000e+04" cType="1" res="1.6558861359953880e-02" rms="2.9083505272865295e-01" purity="2.5803491473197937e-01" nType="0">
            <Node pos="l" depth="3" NCoef="0" IVar="-1" Cut="0.0000000000000000e+00" cType="1" res="1.6665189759805799e-03" rms="3.4295898675918579e-01" purity="4.0124055743217468e-01" nType="-99"/>
            <Node pos="r" depth="3" NCoef="0" IVar="-1" Cut="0.0000000000000000e+00" cType="1" res="-1.5053784591145813e-04" rms="2.6276066899299622e-01" purity="1.9606000185012817e-01" nType="-99"/>
          </Node>
          <Node pos="r" depth="2" NCoef="0" IVar="3" Cut="2.2976634765625000e+04" cType="1" res="1.1341355741024017e-01" rms="3.3338674902915955e-01" purity="5.5130994319915771e-01" nType="0">
            <Node pos="l" depth="3" NCoef="0" IVar="-1" Cut="0.0000000000000000e+00" cType="1" res="-2.2703204303979874e-03" rms="2.9829666018486023e-01" purity="1.0549954324960709e-01" nType="-99"/>
            <Node pos="r" depth="3" NCoef="0" IVar="-1" Cut="0.0000000000000000e+00" cType="1" res="9.0942473616451025e-04" rms="3.3281990885734558e-01" purity="7.2403693199157715e-01" nType="-99"/>
          </Node>
        </Node>
        <Node pos="r" depth="1" NCoef="0" IVar="1" Cut="1.1141539843750000e+05" cType="1" res="8.9764147996902466e-02" rms="1.8443661928176880e-01" purity="9.6082901954650879e-01" nType="0">
          <Node pos="l" depth="2" NCoef="0" IVar="5" Cut="9.0664531250000000e+04" cType="1" res="7.7955648303031921e-02" rms="2.2759701311588287e-01" purity="9.3832045793533325e-01" nType="0">
            <Node pos="l" depth="3" NCoef="0" IVar="-1" Cut="0.0000000000000000e+00" cType="1" res="1.0584628907963634e-03" rms="2.0295049250125885e-01" purity="9.5382791757583618e-01" nType="-99"/>
            <Node pos="r" depth="3" NCoef="0" IVar="-1" Cut="0.0000000000000000e+00" cType="1" res="8.5263920482248068e-04" rms="2.6155859231948853e-01" purity="9.1174095869064331e-01" nType="-99"/>
          </Node>
          <Node pos="r" depth="2" NCoef="0" IVar="-1" Cut="0.0000000000000000e+00" cType="1" res="1.6561329830437899e-03" rms="1.1774449795484543e-01" purity="9.8592054843902588e-01" nType="-99"/>
        </Node>
      </Node>
    </BinaryTree>
    <BinaryTree type="DecisionTree" boostWeight="1.0000000000000000e+00" itree="512">
      <Node pos="s" depth="0" NCoef="0" IVar="4" Cut="2.1984146875000000e+05" cType="1" res="5.5074699223041534e-02" rms="2.7011772990226746e-01" purity="5.1399457454681396e-01" nType="0">
        <Node pos="l" depth="1" NCoef="0" IVar="1" Cut="6.4616542968750000e+04" cType="1" res="2.0184351131320000e-02" rms="2.7536904811859131e-01" purity="2.2890828549861908e-01" nType="0">
          <Node pos="l" depth="2" NCoef="0" IVar="1" Cut="2.9542060546875000e+04" cType="1" res="7.7420651912689209e-02" rms="3.6314108967781067e-01" purity="5.1443207263946533e-01" nType="0">
            <Node pos="l" depth="3" NCoef="0" IVar="-1" Cut="0.0000000000000000e+00" cType="1" res="-6.3130883499979973e-03" rms="1.5530514717102051e-01" purity="1.7199502885341644e-01" nType="-99"/>
            <Node pos="r" depth="3" NCoef="0" IVar="-1" Cut="0.0000000000000000e+00" cType="1" res="2.7818300295621157e-03" rms="3.9674577116966248e-01" purity="6.2245005369186401e-01" nType="-99"/>
          </Node>
          <Node pos="r" depth="2" NCoef="0" IVar="4" Cut="2.0562854687500000e+05" cType="1" res="3.1917947344481945e-03" rms="2.4068319797515869e-01" purity="1.4414076507091522e-01" nType="0">
            <Node pos="l" depth="3" NCoef="0" IVar="-1" Cut="0.0000000000000000e+00" cType="1" res="1.7121129203587770e-03" rms="2.4364620447158813e-01" purity="1.4023263752460480e-01" nType="-99"/>
            <Node pos="r" depth="3" NCoef="0" IVar="-1" Cut="0.0000000000000000e+00" cType="1" res="-6.8642143160104752e-03" rms="2.1097677946090698e-01" purity="1.6493347287178040e-01" nType="-99"/>
          </Node>
        </Node>
        <Node pos="r" depth="1" NCoef="0" IVar="1" Cut="9.3593531250000000e+04" cType="1" res="7.2064757347106934e-02" rms="2.6587069034576416e-01" purity="6.5281909704208374e-01" nType="0">
          <Node pos="l" depth="2" NCoef="0" IVar="1" Cut="7.8080335937500000e+04" cType="1" res="4.7910075634717941e-02" rms="2.7555897831916809e-01" purity="4.8399534821510315e-01" nType="0">
            <Node pos="l" depth="3" NCoef="0" IVar="-1" Cut="0.0000000000000000e+00" cType="1" res="1.8170928815379739e-03" rms="3.2818672060966492e-01" purity="8.0469030141830444e-01" nType="-99"/>
            <Node pos="r" depth="3" NCoef="0" IVar="-1" Cut="0.0000000000000000e+00" cType="1" res="-1.2882289011031389e-03" rms="1.9766026735305786e-01" purity="2.1757683157920837e-01" nType="-99"/>
          </Node>
          <Node pos="r" depth="2" NCoef="0" IVar="2" Cut="2.6678084375000000e+05" cType="1" res="9.1162405908107758e-02" rms="2.5634720921516418e-01" purity="7.8629779815673828e-01" nType="0">
            <Node pos="l" depth="3" NCoef="0" IVar="-1" Cut="0.0000000000000000e+00" cType="1" res="7.4441375909373164e-04" rms="2.3528471589088440e-01" purity="5.4828071594238281e-01" nType="-99"/>
            <Node pos="r" depth="3" NCoef="0" IVar="-1" Cut="0.0000000000000000e+00" cType="1" res="1.2401054846122861e-03" rms="2.5858506560325623e-01" purity="8.2914483547210693e-01" nType="-99"/>
          </Node>
        </Node>
      </Node>
    </BinaryTree>
    <BinaryTree type="DecisionTree" boostWeight="1.0000000000000000e+00" itree="513">
      <Node pos="s" depth="0" NCoef="0" IVar="3" Cut="6.8850757812500000e+04" cType="1" res="5.1471583545207977e-02" rms="2.6151499152183533e-01" purity="5.1948922872543335e-01" nType="0">
        <Node pos="l" depth="1" NCoef="0" IVar="3" Cut="1.9783263671875000e+04" cType="1" res="3.1361889094114304e-02" rms="2.8935757279396057e-01" purity="3.1279435753822327e-01" nType="0">
          <Node pos="l" depth="2" NCoef="0" IVar="2" Cut="4.7648462500000000e+05" cType="1" res="-1.2911288067698479e-02" rms="1.7866021394729614e-01" purity="4.7400459647178650e-02" nType="0">
            <Node pos="l" depth="3" NCoef="0" IVar="-1" Cut="0.0000000000000000e+00" cType="1" res="-2.2392489481717348e-03" rms="1.7514088749885559e-01" purity="4.6995878219604492e-02" nType="-99"/>
            <Node pos="r" depth="3" NCoef="0" IVar="-1" Cut="0.0000000000000000e+00" cType="1" res="-1.4401793479919434e-02" rms="2.1832785010337830e-01" purity="5.4812837392091751e-02" nType="-99"/>
          </Node>
          <Node pos="r" depth="2" NCoef="0" IVar="5" Cut="9.0672453125000000e+04" cType="1" res="5.8910410851240158e-02" rms="3.3761876821517944e-01" purity="4.7793292999267578e-01" nType="0">
            <Node pos="l" depth="3" NCoef="0" IVar="-1" Cut="0.0000000000000000e+00" cType="1" res="1.2780083343386650e-03" rms="3.6090180277824402e-01" purity="5.3264302015304565e-01" nType="-99"/>
            <Node pos="r" depth="3" NCoef="0" IVar="-1" Cut="0.0000000000000000e+00" cType="1" res="5.6212669005617499e-04" rms="3.0992814898490906e-01" purity="4.2393535375595093e-01" nType="-99"/>
          </Node>
        </Node>
        <Node pos="r" depth="1" NCoef="0" IVar="2" Cut="3.2037478125000000e+05" cType="1" res="9.4649285078048706e-02" rms="1.8090257048606873e-01" purity="9.6328550577163696e-01" nType="0">
          <Node pos="l" depth="2" NCoef="0" IVar="4" Cut="2.9788165625000000e+05" cType="1" res="8.1519298255443573e-02" rms="2.3159065842628479e-01" purity="9.3838906288146973e-01" nType="0">
            <Node pos="l" depth="3" NCoef="0" IVar="-1" Cut="0.0000000000000000e+00" cType="1" res="7.6392630580812693e-04" rms="2.6498162746429443e-01" purity="9.1387230157852173e-01" nType="-99"/>
            <Node pos="r" depth="3" NCoef="0" IVar="-1" Cut="0.0000000000000000e+00" cType="1" res="1.8726000562310219e-03" rms="1.8384446203708649e-01" purity="9.6631342172622681e-01" nType="-99"/>
          </Node>
          <Node pos="r" depth="2" NCoef="0" IVar="0" Cut="1.1428571939468384e+00" cType="1" res="1.0457386076450348e-01" rms="1.2920065224170685e-01" purity="9.8210406303405762e-01" nType="0">
            <Node pos="l" depth="3" NCoef="0" IVar="-1" Cut="0.0000000000000000e+00" cType="1" res="1.6756840050220490e-03" rms="1.0211449116468430e-01" purity="9.8946642875671387e-01" nType="-99"/>
            <Node pos="r" depth="3" NCoef="0" IVar="-1" Cut="0.0000000000000000e+00" cType="1" res="1.7414983594790101e-03" rms="1.5948884189128876e-01" purity="9.7150492668151855e-01" nType="-99"/>
          </Node>
        </Node>
      </Node>
    </BinaryTree>
    <BinaryTree type="DecisionTree" boostWeight="1.0000000000000000e+00" itree="514">
      <Node pos="s" depth="0" NCoef="0" IVar="3" Cut="6.8964757812500000e+04" cType="1" res="5.3397342562675476e-02" rms="2.6255044341087341e-01" purity="5.1666921377182007e-01" nType="0">
        <Node pos="l" depth="1" NCoef="0" IVar="4" Cut="1.6417432812500000e+05" cType="1" res="3.4835163503885269e-02" rms="2.9249826073646545e-01" purity="3.0073398351669312e-01" nType="0">
          <Node pos="l" depth="2" NCoef="0" IVar="4" Cut="1.5433276562500000e+05" cType="1" res="8.5394360125064850e-02" rms="3.4385344386100769e-01" purity="2.4391257762908936e-01" nType="0">
            <Node pos="l" depth="3" NCoef="0" IVar="-1" Cut="0.0000000000000000e+00" cType="1" res="3.9136018604040146e-03" rms="3.7777623534202576e-01" purity="2.9991361498832703e-01" nType="-99"/>
            <Node pos="r" depth="3" NCoef="0" IVar="-1" Cut="0.0000000000000000e+00" cType="1" res="-5.6005711667239666e-03" rms="1.5972547233104706e-01" purity="8.2979723811149597e-02" nType="-99"/>
          </Node>
          <Node pos="r" depth="2" NCoef="0" IVar="1" Cut="1.5591351562500000e+05" cType="1" res="2.5636421516537666e-02" rms="2.8117564320564270e-01" purity="3.1107205152511597e-01" nType="0">
            <Node pos="l" depth="3" NCoef="0" IVar="-1" Cut="0.0000000000000000e+00" cType="1" res="5.4809852736070752e-04" rms="2.7215304970741272e-01" purity="2.2440463304519653e-01" nType="-99"/>
            <Node pos="r" depth="3" NCoef="0" IVar="-1" Cut="0.0000000000000000e+00" cType="1" res="1.1162381852045655e-03" rms="3.2550746202468872e-01" purity="8.6598271131515503e-01" nType="-99"/>
          </Node>
        </Node>
        <Node pos="r" depth="1" NCoef="0" IVar="1" Cut="9.4841054687500000e+04" cType="1" res="9.1774269938468933e-02" rms="1.7994694411754608e-01" purity="9.6311104297637939e-01" nType="0">
          <Node pos="l" depth="2" NCoef="0" IVar="1" Cut="8.6974109375000000e+04" cType="1" res="7.3904342949390411e-02" rms="2.3021441698074341e-01" purity="9.3665754795074463e-01" nType="0">
            <Node pos="l" depth="3" NCoef="0" IVar="-1" Cut="0.0000000000000000e+00" cType="1" res="1.2565621873363853e-03" rms="2.0036551356315613e-01" purity="9.5585435628890991e-01" nType="-99"/>
            <Node pos="r" depth="3" NCoef="0" IVar="-1" Cut="0.0000000000000000e+00" cType="1" res="-2.8989595011807978e-04" rms="4.1481369733810425e-01" purity="7.4504631757736206e-01" nType="-99"/>
          </Node>
          <Node pos="r" depth="2" NCoef="0" IVar="4" Cut="4.8350093750000000e+05" cType="1" res="1.0477472096681595e-01" rms="1.3030754029750824e-01" purity="9.8235607147216797e-01" nType="0">
            <Node pos="l" depth="3" NCoef="0" IVar="-1" Cut="0.0000000000000000e+00" cType="1" res="1.2441899161785841e-03" rms="1.3037419319152832e-01" purity="9.8308420181274414e-01" nType="-99"/>
            <Node pos="r" depth="3" NCoef="0" IVar="-1" Cut="0.0000000000000000e+00" cType="1" res="1.8660342320799828e-03" rms="1.2979920208454132e-01" purity="9.8149049282073975e-01" nType="-99"/>
          </Node>
        </Node>
      </Node>
    </BinaryTree>
    <BinaryTree type="DecisionTree" boostWeight="1.0000000000000000e+00" itree="515">
      <Node pos="s" depth="0" NCoef="0" IVar="4" Cut="3.2611146875000000e+05" cType="1" res="4.8484750092029572e-02" rms="2.6934954524040222e-01" purity="4.8804283142089844e-01" nType="0">
        <Node pos="l" depth="1" NCoef="0" IVar="4" Cut="3.1356778125000000e+05" cType="1" res="2.1646892651915550e-02" rms="2.6105070114135742e-01" purity="3.2049378752708435e-01" nType="0">
          <Node pos="l" depth="2" NCoef="0" IVar="3" Cut="6.4182070312500000e+04" cType="1" res="9.8799970000982285e-03" rms="2.4357774853706360e-01" purity="3.0224913358688354e-01" nType="0">
            <Node pos="l" depth="3" NCoef="0" IVar="-1" Cut="0.0000000000000000e+00" cType="1" res="-4.3553285649977624e-04" rms="2.3962636291980743e-01" purity="1.6654339432716370e-01" nType="-99"/>
            <Node pos="r" depth="3" NCoef="0" IVar="-1" Cut="0.0000000000000000e+00" cType="1" res="1.1395913315936923e-03" rms="2.4569039046764374e-01" purity="9.2540770769119263e-01" nType="-99"/>
          </Node>
          <Node pos="r" depth="2" NCoef="0" IVar="-1" Cut="0.0000000000000000e+00" cType="1" res="7.0217037573456764e-03" rms="4.2991799116134644e-01" purity="6.7678254842758179e-01" nType="-99"/>
        </Node>
        <Node pos="r" depth="1" NCoef="0" IVar="0" Cut="2.2857143878936768e+00" cType="1" res="9.0363293886184692e-02" rms="2.7665859460830688e-01" purity="7.4949109554290771e-01" nType="0">
          <Node pos="l" depth="2" NCoef="0" IVar="5" Cut="9.0703398437500000e+04" cType="1" res="1.0231280326843262e-01" rms="2.7125084400177002e-01" purity="7.6427119970321655e-01" nType="0">
            <Node pos="l" depth="3" NCoef="0" IVar="-1" Cut="0.0000000000000000e+00" cType="1" res="2.5830965023487806e-03" rms="3.2515308260917664e-01" purity="7.7553504705429077e-01" nType="-99"/>
            <Node pos="r" depth="3" NCoef="0" IVar="-1" Cut="0.0000000000000000e+00" cType="1" res="9.7989058122038841e-04" rms="2.1931645274162292e-01" purity="7.5578105449676514e-01" nType="-99"/>
          </Node>
          <Node pos="r" depth="2" NCoef="0" IVar="5" Cut="8.9035007812500000e+04" cType="1" res="3.6995448172092438e-02" rms="2.9374656081199646e-01" purity="6.8348133563995361e-01" nType="0">
            <Node pos="l" depth="3" NCoef="0" IVar="-1" Cut="0.0000000000000000e+00" cType="1" res="-1.4725568471476436e-03" rms="3.2128241658210754e-01" purity="6.4341688156127930e-01" nType="-99"/>
            <Node pos="r" depth="3" NCoef="0" IVar="-1" Cut="0.0000000000000000e+00" cType="1" res="1.3768955832347274e-03" rms="2.8166380524635315e-01" purity="6.9258028268814087e-01" nType="-99"/>
          </Node>
        </Node>
      </Node>
    </BinaryTree>
    <BinaryTree type="DecisionTree" boostWeight="1.0000000000000000e+00" itree="516">
      <Node pos="s" depth="0" NCoef="0" IVar="1" Cut="1.0035560937500000e+05" cType="1" res="4.5961964875459671e-02" rms="2.6089450716972351e-01" purity="4.9785116314888000e-01" nType="0">
        <Node pos="l" depth="1" NCoef="0" IVar="1" Cut="8.3528015625000000e+04" cType="1" res="1.8350739032030106e-02" rms="2.5559473037719727e-01" purity="2.9676535725593567e-01" nType="0">
          <Node pos="l" depth="2" NCoef="0" IVar="4" Cut="1.4847701562500000e+05" cType="1" res="5.2780244499444962e-02" rms="3.1105881929397583e-01" purity="5.6276702880859375e-01" nType="0">
            <Node pos="l" depth="3" NCoef="0" IVar="-1" Cut="0.0000000000000000e+00" cType="1" res="-2.8236098587512970e-03" rms="3.3013156056404114e-01" purity="2.1608544886112213e-01" nType="-99"/>
            <Node pos="r" depth="3" NCoef="0" IVar="-1" Cut="0.0000000000000000e+00" cType="1" res="1.4626609627157450e-03" rms="3.0413925647735596e-01" purity="6.1786800622940063e-01" nType="-99"/>
          </Node>
          <Node pos="r" depth="2" NCoef="0" IVar="1" Cut="9.5548023437500000e+04" cType="1" res="-5.4124253802001476e-03" rms="2.0555694401264191e-01" purity="1.1317164450883865e-01" nType="0">
            <Node pos="l" depth="3" NCoef="0" IVar="-1" Cut="0.0000000000000000e+00" cType="1" res="-3.3446419984102249e-03" rms="1.9978260993957520e-01" purity="6.7525610327720642e-02" nType="-99"/>
            <Node pos="r" depth="3" NCoef="0" IVar="-1" Cut="0.0000000000000000e+00" cType="1" res="8.7067106505855918e-04" rms="2.2508271038532257e-01" purity="3.3921512961387634e-01" nType="-99"/>
          </Node>
        </Node>
        <Node pos="r" depth="1" NCoef="0" IVar="4" Cut="1.9670926562500000e+05" cType="1" res="9.4788812100887299e-02" rms="2.6300996541976929e-01" purity="8.5344505310058594e-01" nType="0">
          <Node pos="l" depth="2" NCoef="0" IVar="-1" Cut="0.0000000000000000e+00" cType="1" res="-1.1179256252944469e-03" rms="3.4540900588035583e-01" purity="3.1333446502685547e-01" nType="-99"/>
          <Node pos="r" depth="2" NCoef="0" IVar="2" Cut="3.2209987500000000e+05" cType="1" res="1.0053621977567673e-01" rms="2.5739192962646484e-01" purity="8.7610435485839844e-01" nType="0">
            <Node pos="l" depth="3" NCoef="0" IVar="-1" Cut="0.0000000000000000e+00" cType="1" res="9.8442507442086935e-04" rms="3.0808597803115845e-01" purity="7.6118803024291992e-01" nType="-99"/>
            <Node pos="r" depth="3" NCoef="0" IVar="-1" Cut="0.0000000000000000e+00" cType="1" res="1.1422885581851006e-03" rms="2.3457175493240356e-01" purity="9.1889101266860962e-01" nType="-99"/>
          </Node>
        </Node>
      </Node>
    </BinaryTree>
    <BinaryTree type="DecisionTree" boostWeight="1.0000000000000000e+00" itree="517">
      <Node pos="s" depth="0" NCoef="0" IVar="3" Cut="5.4198226562500000e+04" cType="1" res="5.0504207611083984e-02" rms="2.6076209545135498e-01" purity="5.1020795106887817e-01" nType="0">
        <Node pos="l" depth="1" NCoef="0" IVar="5" Cut="9.0697867187500000e+04" cType="1" res="2.4055741727352142e-02" rms="2.8383192420005798e-01" purity="2.3675991594791412e-01" nType="0">
          <Node pos="l" depth="2" NCoef="0" IVar="3" Cut="1.2944345703125000e+04" cType="1" res="5.4302658885717392e-02" rms="3.1624454259872437e-01" purity="2.9952248930931091e-01" nType="0">
            <Node pos="l" depth="3" NCoef="0" IVar="-1" Cut="0.0000000000000000e+00" cType="1" res="-7.0161283947527409e-03" rms="1.1575552821159363e-01" purity="2.1485177800059319e-02" nType="-99"/>
            <Node pos="r" depth="3" NCoef="0" IVar="-1" Cut="0.0000000000000000e+00" cType="1" res="1.8679611384868622e-03" rms="3.5522109270095825e-01" purity="3.9134222269058228e-01" nType="-99"/>
          </Node>
          <Node pos="r" depth="2" NCoef="0" IVar="5" Cut="9.6665710937500000e+04" cType="1" res="-4.0985951200127602e-03" rms="2.4660065770149231e-01" purity="1.7833946645259857e-01" nType="0">
            <Node pos="l" depth="3" NCoef="0" IVar="-1" Cut="0.0000000000000000e+00" cType="1" res="-7.7099521877244115e-04" rms="2.3586468398571014e-01" purity="1.5705749392509460e-01" nType="-99"/>
            <Node pos="r" depth="3" NCoef="0" IVar="-1" Cut="0.0000000000000000e+00" cType="1" res="8.2563696196302772e-04" rms="3.6579516530036926e-01" purity="5.8190524578094482e-01" nType="-99"/>
          </Node>
        </Node>
        <Node pos="r" depth="1" NCoef="0" IVar="1" Cut="1.0168853906250000e+05" cType="1" res="9.1690748929977417e-02" rms="2.1365052461624146e-01" purity="9.3603157997131348e-01" nType="0">
          <Node pos="l" depth="2" NCoef="0" IVar="5" Cut="9.0495210937500000e+04" cType="1" res="7.4614673852920532e-02" rms="2.7808943390846252e-01" purity="8.8310897350311279e-01" nType="0">
            <Node pos="l" depth="3" NCoef="0" IVar="-1" Cut="0.0000000000000000e+00" cType="1" res="1.3697084505110979e-03" rms="2.5940102338790894e-01" purity="9.1713935136795044e-01" nType="-99"/>
            <Node pos="r" depth="3" NCoef="0" IVar="-1" Cut="0.0000000000000000e+00" cType="1" res="5.9713236987590790e-04" rms="2.9265490174293518e-01" purity="8.4499895572662354e-01" nType="-99"/>
          </Node>
          <Node pos="r" depth="2" NCoef="0" IVar="0" Cut="1.1428571939468384e+00" cType="1" res="1.0627567023038864e-01" rms="1.3461160659790039e-01" purity="9.8123347759246826e-01" nType="0">
            <Node pos="l" depth="3" NCoef="0" IVar="-1" Cut="0.0000000000000000e+00" cType="1" res="1.3860093895345926e-03" rms="1.2672813236713409e-01" purity="9.8357546329498291e-01" nType="-99"/>
            <Node pos="r" depth="3" NCoef="0" IVar="-1" Cut="0.0000000000000000e+00" cType="1" res="1.0670063784345984e-03" rms="1.4703683555126190e-01" purity="9.7703808546066284e-01" nType="-99"/>
          </Node>
        </Node>
      </Node>
    </BinaryTree>
    <BinaryTree type="DecisionTree" boostWeight="1.0000000000000000e+00" itree="518">
      <Node pos="s" depth="0" NCoef="0" IVar="3" Cut="5.4198226562500000e+04" cType="1" res="4.7000724822282791e-02" rms="2.6634311676025391e-01" purity="5.0419092178344727e-01" nType="0">
        <Node pos="l" depth="1" NCoef="0" IVar="3" Cut="5.1590910156250000e+04" cType="1" res="1.8511414527893066e-02" rms="2.8977209329605103e-01" purity="2.1186514198780060e-01" nType="0">
          <Node pos="l" depth="2" NCoef="0" IVar="1" Cut="8.8689234375000000e+04" cType="1" res="1.1647970415651798e-02" rms="2.8650331497192383e-01" purity="1.8141721189022064e-01" nType="0">
            <Node pos="l" depth="3" NCoef="0" IVar="-1" Cut="0.0000000000000000e+00" cType="1" res="1.8580696778371930e-03" rms="3.1151533126831055e-01" purity="1.6085869073867798e-01" nType="-99"/>
            <Node pos="r" depth="3" NCoef="0" IVar="-1" Cut="0.0000000000000000e+00" cType="1" res="-7.4728613253682852e-04" rms="2.6040676236152649e-01" purity="1.9944912195205688e-01" nType="-99"/>
          </Node>
          <Node pos="r" depth="2" NCoef="0" IVar="-1" Cut="0.0000000000000000e+00" cType="1" res="2.0723883062601089e-03" rms="3.1910774111747742e-01" purity="8.3335435390472412e-01" nType="-99"/>
        </Node>
        <Node pos="r" depth="1" NCoef="0" IVar="4" Cut="3.1369925000000000e+05" cType="1" res="8.8832810521125793e-02" rms="2.2105571627616882e-01" purity="9.3342536687850952e-01" nType="0">
          <Node pos="l" depth="2" NCoef="0" IVar="0" Cut="2.3809523880481720e-01" cType="1" res="6.0084797441959381e-02" rms="2.8954991698265076e-01" purity="8.7162917852401733e-01" nType="0">
            <Node pos="l" depth="3" NCoef="0" IVar="-1" Cut="0.0000000000000000e+00" cType="1" res="1.2106215581297874e-03" rms="2.6400542259216309e-01" purity="9.0060609579086304e-01" nType="-99"/>
            <Node pos="r" depth="3" NCoef="0" IVar="-1" Cut="0.0000000000000000e+00" cType="1" res="8.2268037658650428e-05" rms="3.2438799738883972e-01" purity="8.1846547126770020e-01" nType="-99"/>
          </Node>
          <Node pos="r" depth="2" NCoef="0" IVar="4" Cut="5.2876862500000000e+05" cType="1" res="1.0155307501554489e-01" rms="1.8128222227096558e-01" purity="9.6076858043670654e-01" nType="0">
            <Node pos="l" depth="3" NCoef="0" IVar="-1" Cut="0.0000000000000000e+00" cType="1" res="1.7286799848079681e-03" rms="1.8597716093063354e-01" purity="9.6220850944519043e-01" nType="-99"/>
            <Node pos="r" depth="3" NCoef="0" IVar="-1" Cut="0.0000000000000000e+00" cType="1" res="1.4697097940370440e-03" rms="1.7431361973285675e-01" purity="9.5914268493652344e-01" nType="-99"/>
          </Node>
        </Node>
      </Node>
    </BinaryTree>
    <BinaryTree type="DecisionTree" boostWeight="1.0000000000000000e+00" itree="519">
      <Node pos="s" depth="0" NCoef="0" IVar="3" Cut="6.8736484375000000e+04" cType="1" res="4.3250862509012222e-02" rms="2.6389461755752563e-01" purity="4.8437398672103882e-01" nType="0">
        <Node pos="l" depth="1" NCoef="0" IVar="3" Cut="4.5836863281250000e+04" cType="1" res="2.6749039068818092e-02" rms="2.8472328186035156e-01" purity="2.9577419161796570e-01" nType="0">
          <Node pos="l" depth="2" NCoef="0" IVar="5" Cut="9.3517851562500000e+04" cType="1" res="1.4207972213625908e-02" rms="2.7060696482658386e-01" purity="1.8166792392730713e-01" nType="0">
            <Node pos="l" depth="3" NCoef="0" IVar="-1" Cut="0.0000000000000000e+00" cType="1" res="2.5083802756853402e-04" rms="2.5918155908584595e-01" purity="1.5056578814983368e-01" nType="-99"/>
            <Node pos="r" depth="3" NCoef="0" IVar="-1" Cut="0.0000000000000000e+00" cType="1" res="8.8703003711998463e-04" rms="3.2778397202491760e-01" purity="3.8844063878059387e-01" nType="-99"/>
          </Node>
          <Node pos="r" depth="2" NCoef="0" IVar="5" Cut="8.9624968750000000e+04" cType="1" res="7.7517814934253693e-02" rms="3.3104068040847778e-01" purity="7.5769948959350586e-01" nType="0">
            <Node pos="l" depth="3" NCoef="0" IVar="-1" Cut="0.0000000000000000e+00" cType="1" res="8.1700325245037675e-04" rms="3.0689236521720886e-01" purity="8.5058021545410156e-01" nType="-99"/>
            <Node pos="r" depth="3" NCoef="0" IVar="-1" Cut="0.0000000000000000e+00" cType="1" res="4.5971421059221029e-04" rms="3.4107404947280884e-01" purity="6.9519889354705811e-01" nType="-99"/>
          </Node>
        </Node>
        <Node pos="r" depth="1" NCoef="0" IVar="1" Cut="1.2012970312500000e+05" cType="1" res="8.4516078233718872e-02" rms="1.9667680561542511e-01" purity="9.5599508285522461e-01" nType="0">
          <Node pos="l" depth="2" NCoef="0" IVar="3" Cut="1.0322634375000000e+05" cType="1" res="7.0466756820678711e-02" rms="2.4374790489673615e-01" purity="9.3072956800460815e-01" nType="0">
            <Node pos="l" depth="3" NCoef="0" IVar="-1" Cut="0.0000000000000000e+00" cType="1" res="3.9914721855893731e-04" rms="3.5569369792938232e-01" purity="8.4511840343475342e-01" nType="-99"/>
            <Node pos="r" depth="3" NCoef="0" IVar="-1" Cut="0.0000000000000000e+00" cType="1" res="1.6629354795441031e-03" rms="1.3446106016635895e-01" purity="9.8113363981246948e-01" nType="-99"/>
          </Node>
          <Node pos="r" depth="2" NCoef="0" IVar="-1" Cut="0.0000000000000000e+00" cType="1" res="1.4947103336453438e-03" rms="1.0790279507637024e-01" purity="9.8824852705001831e-01" nType="-99"/>
        </Node>
      </Node>
    </BinaryTree>
    <BinaryTree type="DecisionTree" boostWeight="1.0000000000000000e+00" itree="520">
      <Node pos="s" depth="0" NCoef="0" IVar="3" Cut="4.8721656250000000e+04" cType="1" res="4.8099163919687271e-02" rms="2.6451212167739868e-01" purity="5.0535130500793457e-01" nType="0">
        <Node pos="l" depth="1" NCoef="0" IVar="5" Cut="8.6902242187500000e+04" cType="1" res="2.2808745503425598e-02" rms="2.7784737944602966e-01" purity="2.0539353787899017e-01" nType="0">
          <Node pos="l" depth="2" NCoef="0" IVar="5" Cut="8.4731515625000000e+04" cType="1" res="1.2640817463397980e-01" rms="3.8083651661872864e-01" purity="4.4779178500175476e-01" nType="0">
            <Node pos="l" depth="3" NCoef="0" IVar="-1" Cut="0.0000000000000000e+00" cType="1" res="-1.0203373385593295e-03" rms="3.5401377081871033e-01" purity="2.5793352723121643e-01" nType="-99"/>
            <Node pos="r" depth="3" NCoef="0" IVar="-1" Cut="0.0000000000000000e+00" cType="1" res="2.5654139462858438e-03" rms="3.7739384174346924e-01" purity="5.0964426994323730e-01" nType="-99"/>
          </Node>
          <Node pos="r" depth="2" NCoef="0" IVar="1" Cut="5.5230121093750000e+04" cType="1" res="1.3216972351074219e-02" rms="2.6425883173942566e-01" purity="1.8295104801654816e-01" nType="0">
            <Node pos="l" depth="3" NCoef="0" IVar="-1" Cut="0.0000000000000000e+00" cType="1" res="2.3393004667013884e-03" rms="4.1000604629516602e-01" purity="2.8711837530136108e-01" nType="-99"/>
            <Node pos="r" depth="3" NCoef="0" IVar="-1" Cut="0.0000000000000000e+00" cType="1" res="3.3455280936323106e-04" rms="2.4393388628959656e-01" purity="1.7252930998802185e-01" nType="-99"/>
          </Node>
        </Node>
        <Node pos="r" depth="1" NCoef="0" IVar="2" Cut="2.1114503125000000e+05" cType="1" res="8.1901356577873230e-02" rms="2.4145916104316711e-01" purity="9.0626317262649536e-01" nType="0">
          <Node pos="l" depth="2" NCoef="0" IVar="3" Cut="7.2260359375000000e+04" cType="1" res="1.7395697534084320e-02" rms="3.3321312069892883e-01" purity="7.9604357481002808e-01" nType="0">
            <Node pos="l" depth="3" NCoef="0" IVar="-1" Cut="0.0000000000000000e+00" cType="1" res="-1.5072332462295890e-03" rms="3.8055774569511414e-01" purity="5.3257882595062256e-01" nType="-99"/>
            <Node pos="r" depth="3" NCoef="0" IVar="-1" Cut="0.0000000000000000e+00" cType="1" res="7.2979822289198637e-04" rms="3.0588081479072571e-01" purity="8.9538908004760742e-01" nType="-99"/>
          </Node>
          <Node pos="r" depth="2" NCoef="0" IVar="5" Cut="8.7796632812500000e+04" cType="1" res="9.2671304941177368e-02" rms="2.2065402567386627e-01" purity="9.2466562986373901e-01" nType="0">
            <Node pos="l" depth="3" NCoef="0" IVar="-1" Cut="0.0000000000000000e+00" cType="1" res="1.7276152502745390e-03" rms="1.6378587484359741e-01" purity="9.6832096576690674e-01" nType="-99"/>
            <Node pos="r" depth="3" NCoef="0" IVar="-1" Cut="0.0000000000000000e+00" cType="1" res="1.4429074944928288e-03" rms="2.3019969463348389e-01" purity="9.1556614637374878e-01" nType="-99"/>
          </Node>
        </Node>
      </Node>
    </BinaryTree>
    <BinaryTree type="DecisionTree" boostWeight="1.0000000000000000e+00" itree="521">
      <Node pos="s" depth="0" NCoef="0" IVar="3" Cut="6.6048632812500000e+04" cType="1" res="3.3895984292030334e-02" rms="2.5392308831214905e-01" purity="4.7675889730453491e-01" nType="0">
        <Node pos="l" depth="1" NCoef="0" IVar="1" Cut="9.3489203125000000e+04" cType="1" res="9.5636807382106781e-03" rms="2.7140933275222778e-01" purity="2.7013742923736572e-01" nType="0">
          <Node pos="l" depth="2" NCoef="0" IVar="1" Cut="7.4096507812500000e+04" cType="1" res="-9.0103140100836754e-03" rms="2.4135686457157135e-01" purity="1.4173272252082825e-01" nType="0">
            <Node pos="l" depth="3" NCoef="0" IVar="-1" Cut="0.0000000000000000e+00" cType="1" res="7.7020056778565049e-04" rms="3.6711880564689636e-01" purity="4.1079932451248169e-01" nType="-99"/>
            <Node pos="r" depth="3" NCoef="0" IVar="-1" Cut="0.0000000000000000e+00" cType="1" res="-6.5127564594149590e-03" rms="1.6593891382217407e-01" purity="3.8259059190750122e-02" nType="-99"/>
          </Node>
          <Node pos="r" depth="2" NCoef="0" IVar="2" Cut="2.6453406250000000e+05" cType="1" res="3.7540804594755173e-02" rms="3.0914700031280518e-01" purity="4.6354728937149048e-01" nType="0">
            <Node pos="l" depth="3" NCoef="0" IVar="-1" Cut="0.0000000000000000e+00" cType="1" res="-1.5445102471858263e-03" rms="2.6594096422195435e-01" purity="1.2935344874858856e-01" nType="-99"/>
            <Node pos="r" depth="3" NCoef="0" IVar="-1" Cut="0.0000000000000000e+00" cType="1" res="7.2914164047688246e-04" rms="3.2393905520439148e-01" purity="6.1860042810440063e-01" nType="-99"/>
          </Node>
        </Node>
        <Node pos="r" depth="1" NCoef="0" IVar="5" Cut="9.2546687500000000e+04" cType="1" res="9.0227693319320679e-02" rms="1.9663740694522858e-01" purity="9.5510828495025635e-01" nType="0">
          <Node pos="l" depth="2" NCoef="0" IVar="2" Cut="2.1328839062500000e+05" cType="1" res="8.0421179533004761e-02" rms="2.1061399579048157e-01" purity="9.4729667901992798e-01" nType="0">
            <Node pos="l" depth="3" NCoef="0" IVar="-1" Cut="0.0000000000000000e+00" cType="1" res="5.4270593682304025e-04" rms="2.8739088773727417e-01" purity="8.9424705505371094e-01" nType="-99"/>
            <Node pos="r" depth="3" NCoef="0" IVar="-1" Cut="0.0000000000000000e+00" cType="1" res="1.3938164338469505e-03" rms="1.8812978267669678e-01" purity="9.5894724130630493e-01" nType="-99"/>
          </Node>
          <Node pos="r" depth="2" NCoef="0" IVar="-1" Cut="0.0000000000000000e+00" cType="1" res="1.5459167771041393e-03" rms="1.5871851146221161e-01" purity="9.7263979911804199e-01" nType="-99"/>
        </Node>
      </Node>
    </BinaryTree>
    <BinaryTree type="DecisionTree" boostWeight="1.0000000000000000e+00" itree="522">
      <Node pos="s" depth="0" NCoef="0" IVar="3" Cut="6.8736484375000000e+04" cType="1" res="4.6467754989862442e-02" rms="2.5612702965736389e-01" purity="4.9628284573554993e-01" nType="0">
        <Node pos="l" depth="1" NCoef="0" IVar="1" Cut="1.7494443750000000e+05" cType="1" res="2.5588911026716232e-02" rms="2.8077620267868042e-01" purity="2.9564467072486877e-01" nType="0">
          <Node pos="l" depth="2" NCoef="0" IVar="4" Cut="2.0892856250000000e+05" cType="1" res="1.6152592375874519e-02" rms="2.7510279417037964e-01" purity="2.3224928975105286e-01" nType="0">
            <Node pos="l" depth="3" NCoef="0" IVar="-1" Cut="0.0000000000000000e+00" cType="1" res="-1.0162286926060915e-03" rms="2.2446526587009430e-01" purity="1.0809187591075897e-01" nType="-99"/>
            <Node pos="r" depth="3" NCoef="0" IVar="-1" Cut="0.0000000000000000e+00" cType="1" res="7.3417020030319691e-04" rms="3.0470827221870422e-01" purity="3.2105490565299988e-01" nType="-99"/>
          </Node>
          <Node pos="r" depth="2" NCoef="0" IVar="-1" Cut="0.0000000000000000e+00" cType="1" res="1.3424310600385070e-03" rms="3.1563058495521545e-01" purity="8.8465225696563721e-01" nType="-99"/>
        </Node>
        <Node pos="r" depth="1" NCoef="0" IVar="2" Cut="2.0820309375000000e+05" cType="1" res="9.5107086002826691e-02" rms="1.7717029154300690e-01" purity="9.6368938684463501e-01" nType="0">
          <Node pos="l" depth="2" NCoef="0" IVar="-1" Cut="0.0000000000000000e+00" cType="1" res="1.7122839344665408e-03" rms="1.9573180377483368e-01" purity="9.5974165201187134e-01" nType="-99"/>
          <Node pos="r" depth="2" NCoef="0" IVar="0" Cut="3.8095238804817200e-01" cType="1" res="8.8684678077697754e-02" rms="1.7261931300163269e-01" purity="9.6445196866989136e-01" nType="0">
            <Node pos="l" depth="3" NCoef="0" IVar="-1" Cut="0.0000000000000000e+00" cType="1" res="1.5675481408834457e-03" rms="1.3060255348682404e-01" purity="9.7992521524429321e-01" nType="-99"/>
            <Node pos="r" depth="3" NCoef="0" IVar="-1" Cut="0.0000000000000000e+00" cType="1" res="1.4546709135174751e-03" rms="1.9419004023075104e-01" purity="9.5433789491653442e-01" nType="-99"/>
          </Node>
        </Node>
      </Node>
    </BinaryTree>
    <BinaryTree type="DecisionTree" boostWeight="1.0000000000000000e+00" itree="523">
      <Node pos="s" depth="0" NCoef="0" IVar="3" Cut="6.8850757812500000e+04" cType="1" res="4.7990180552005768e-02" rms="2.7003368735313416e-01" purity="5.0190174579620361e-01" nType="0">
        <Node pos="l" depth="1" NCoef="0" IVar="3" Cut="2.6334554687500000e+04" cType="1" res="2.9979178681969643e-02" rms="2.9767945408821106e-01" purity="3.0423572659492493e-01" nType="0">
          <Node pos="l" depth="2" NCoef="0" IVar="0" Cut="1.3333333730697632e+00" cType="1" res="7.5634489767253399e-03" rms="2.3725667595863342e-01" purity="9.8412528634071350e-02" nType="0">
            <Node pos="l" depth="3" NCoef="0" IVar="-1" Cut="0.0000000000000000e+00" cType="1" res="-1.1143075535073876e-03" rms="2.0515331625938416e-01" purity="6.7681059241294861e-02" nType="-99"/>
            <Node pos="r" depth="3" NCoef="0" IVar="-1" Cut="0.0000000000000000e+00" cType="1" res="4.3685361742973328e-03" rms="3.5802257061004639e-01" purity="2.7247706055641174e-01" nType="-99"/>
          </Node>
          <Node pos="r" depth="2" NCoef="0" IVar="3" Cut="3.0382500000000000e+04" cType="1" res="5.5408429354429245e-02" rms="3.5222730040550232e-01" purity="5.3772932291030884e-01" nType="0">
            <Node pos="l" depth="3" NCoef="0" IVar="-1" Cut="0.0000000000000000e+00" cType="1" res="3.5361242480576038e-03" rms="3.7972670793533325e-01" purity="3.8076981902122498e-01" nType="-99"/>
            <Node pos="r" depth="3" NCoef="0" IVar="-1" Cut="0.0000000000000000e+00" cType="1" res="7.1340403519570827e-04" rms="3.4414225816726685e-01" purity="5.7155853509902954e-01" nType="-99"/>
          </Node>
        </Node>
        <Node pos="r" depth="1" NCoef="0" IVar="0" Cut="1.1428571939468384e+00" cType="1" res="8.9931614696979523e-02" rms="1.8399935960769653e-01" purity="9.6219795942306519e-01" nType="0">
          <Node pos="l" depth="2" NCoef="0" IVar="5" Cut="9.0735585937500000e+04" cType="1" res="1.0058323293924332e-01" rms="1.5915644168853760e-01" purity="9.7169792652130127e-01" nType="0">
            <Node pos="l" depth="3" NCoef="0" IVar="-1" Cut="0.0000000000000000e+00" cType="1" res="1.5146866207942367e-03" rms="1.5414744615554810e-01" purity="9.7511649131774902e-01" nType="-99"/>
            <Node pos="r" depth="3" NCoef="0" IVar="-1" Cut="0.0000000000000000e+00" cType="1" res="1.5233864542096853e-03" rms="1.6495969891548157e-01" purity="9.6729636192321777e-01" nType="-99"/>
          </Node>
          <Node pos="r" depth="2" NCoef="0" IVar="4" Cut="4.2263584375000000e+05" cType="1" res="7.1398422122001648e-02" rms="2.1942621469497681e-01" purity="9.4566851854324341e-01" nType="0">
            <Node pos="l" depth="3" NCoef="0" IVar="-1" Cut="0.0000000000000000e+00" cType="1" res="1.6554785543121397e-04" rms="3.4438952803611755e-01" purity="8.6150270700454712e-01" nType="-99"/>
            <Node pos="r" depth="3" NCoef="0" IVar="-1" Cut="0.0000000000000000e+00" cType="1" res="1.5183619689196348e-03" rms="1.7127978801727295e-01" purity="9.6682739257812500e-01" nType="-99"/>
          </Node>
        </Node>
      </Node>
    </BinaryTree>
    <BinaryTree type="DecisionTree" boostWeight="1.0000000000000000e+00" itree="524">
      <Node pos="s" depth="0" NCoef="0" IVar="3" Cut="6.8798242187500000e+04" cType="1" res="4.9805607646703720e-02" rms="2.7418503165245056e-01" purity="4.8802340030670166e-01" nType="0">
        <Node pos="l" depth="1" NCoef="0" IVar="1" Cut="8.3927703125000000e+04" cType="1" res="3.3014584332704544e-02" rms="3.0191257596015930e-01" purity="2.8766170144081116e-01" nType="0">
          <Node pos="l" depth="2" NCoef="0" IVar="1" Cut="3.9401621093750000e+04" cType="1" res="7.4329502880573273e-02" rms="3.9578005671501160e-01" purity="3.4474137425422668e-01" nType="0">
            <Node pos="l" depth="3" NCoef="0" IVar="-1" Cut="0.0000000000000000e+00" cType="1" res="-1.4409864088520408e-03" rms="3.3088031411170959e-01" purity="2.1398200094699860e-01" nType="-99"/>
            <Node pos="r" depth="3" NCoef="0" IVar="-1" Cut="0.0000000000000000e+00" cType="1" res="2.3007872514426708e-03" rms="4.0880227088928223e-01" purity="3.8467851281166077e-01" nType="-99"/>
          </Node>
          <Node pos="r" depth="2" NCoef="0" IVar="5" Cut="9.0673726562500000e+04" cType="1" res="1.9221564754843712e-02" rms="2.6177659630775452e-01" purity="2.6860561966896057e-01" nType="0">
            <Node pos="l" depth="3" NCoef="0" IVar="-1" Cut="0.0000000000000000e+00" cType="1" res="9.7491429187357426e-04" rms="2.8685003519058228e-01" purity="3.5952654480934143e-01" nType="-99"/>
            <Node pos="r" depth="3" NCoef="0" IVar="-1" Cut="0.0000000000000000e+00" cType="1" res="-5.6813651463016868e-04" rms="2.3315405845642090e-01" purity="1.8526372313499451e-01" nType="-99"/>
          </Node>
        </Node>
        <Node pos="r" depth="1" NCoef="0" IVar="2" Cut="2.1921667187500000e+05" cType="1" res="8.9413523674011230e-02" rms="1.8778578937053680e-01" purity="9.6065151691436768e-01" nType="0">
          <Node pos="l" depth="2" NCoef="0" IVar="-1" Cut="0.0000000000000000e+00" cType="1" res="1.2202534126117826e-03" rms="2.0217186212539673e-01" purity="9.5704197883605957e-01" nType="-99"/>
          <Node pos="r" depth="2" NCoef="0" IVar="1" Cut="9.5234882812500000e+04" cType="1" res="8.3167411386966705e-02" rms="1.8390245735645294e-01" purity="9.6144020557403564e-01" nType="0">
            <Node pos="l" depth="3" NCoef="0" IVar="-1" Cut="0.0000000000000000e+00" cType="1" res="1.0018873726949096e-03" rms="2.5452780723571777e-01" purity="9.2184746265411377e-01" nType="-99"/>
            <Node pos="r" depth="3" NCoef="0" IVar="-1" Cut="0.0000000000000000e+00" cType="1" res="1.8893388332799077e-03" rms="1.2992727756500244e-01" purity="9.8222368955612183e-01" nType="-99"/>
          </Node>
        </Node>
      </Node>
    </BinaryTree>
    <BinaryTree type="DecisionTree" boostWeight="1.0000000000000000e+00" itree="525">
      <Node pos="s" depth="0" NCoef="0" IVar="3" Cut="6.8736484375000000e+04" cType="1" res="4.2350366711616516e-02" rms="2.6485416293144226e-01" purity="4.7872695326805115e-01" nType="0">
        <Node pos="l" depth="1" NCoef="0" IVar="3" Cut="5.8875925781250000e+04" cType="1" res="2.4347210302948952e-02" rms="2.9045054316520691e-01" purity="2.8080955147743225e-01" nType="0">
          <Node pos="l" depth="2" NCoef="0" IVar="1" Cut="1.7489954687500000e+05" cType="1" res="1.8732370808720589e-02" rms="2.8736594319343567e-01" purity="2.3532892763614655e-01" nType="0">
            <Node pos="l" depth="3" NCoef="0" IVar="-1" Cut="0.0000000000000000e+00" cType="1" res="6.9194333627820015e-04" rms="2.8386676311492920e-01" purity="1.7682668566703796e-01" nType="-99"/>
            <Node pos="r" depth="3" NCoef="0" IVar="-1" Cut="0.0000000000000000e+00" cType="1" res="8.7505031842738390e-04" rms="3.1580460071563721e-01" purity="8.6488670110702515e-01" nType="-99"/>
          </Node>
          <Node pos="r" depth="2" NCoef="0" IVar="3" Cut="6.3101082031250000e+04" cType="1" res="9.3836076557636261e-02" rms="3.1812053918838501e-01" purity="8.4367436170578003e-01" nType="0">
            <Node pos="l" depth="3" NCoef="0" IVar="-1" Cut="0.0000000000000000e+00" cType="1" res="1.2333469931036234e-03" rms="3.2870164513587952e-01" purity="8.3955830335617065e-01" nType="-99"/>
            <Node pos="r" depth="3" NCoef="0" IVar="-1" Cut="0.0000000000000000e+00" cType="1" res="1.1448679724708200e-03" rms="3.0384138226509094e-01" purity="8.4824526309967041e-01" nType="-99"/>
          </Node>
        </Node>
        <Node pos="r" depth="1" NCoef="0" IVar="1" Cut="1.0073193750000000e+05" cType="1" res="8.6345307528972626e-02" rms="1.8079097568988800e-01" purity="9.6238464117050171e-01" nType="0">
          <Node pos="l" depth="2" NCoef="0" IVar="0" Cut="2.3333332538604736e+00" cType="1" res="7.1912668645381927e-02" rms="2.3224005103111267e-01" purity="9.3557751178741455e-01" nType="0">
            <Node pos="l" depth="3" NCoef="0" IVar="-1" Cut="0.0000000000000000e+00" cType="1" res="1.1111083440482616e-03" rms="2.1909180283546448e-01" purity="9.4288027286529541e-01" nType="-99"/>
            <Node pos="r" depth="3" NCoef="0" IVar="-1" Cut="0.0000000000000000e+00" cType="1" res="-5.7369386922800913e-05" rms="3.2284045219421387e-01" purity="8.6625319719314575e-01" nType="-99"/>
          </Node>
          <Node pos="r" depth="2" NCoef="0" IVar="-1" Cut="0.0000000000000000e+00" cType="1" res="1.8042678711935878e-03" rms="1.1461440473794937e-01" purity="9.8659408092498779e-01" nType="-99"/>
        </Node>
      </Node>
    </BinaryTree>
    <BinaryTree type="DecisionTree" boostWeight="1.0000000000000000e+00" itree="526">
      <Node pos="s" depth="0" NCoef="0" IVar="3" Cut="5.4312500000000000e+04" cType="1" res="4.4372599571943283e-02" rms="2.5484347343444824e-01" purity="5.0638741254806519e-01" nType="0">
        <Node pos="l" depth="1" NCoef="0" IVar="5" Cut="8.5016640625000000e+04" cType="1" res="2.0260103046894073e-02" rms="2.7897706627845764e-01" purity="2.3275983333587646e-01" nType="0">
          <Node pos="l" depth="2" NCoef="0" IVar="3" Cut="2.1816179687500000e+04" cType="1" res="1.6861046850681305e-01" rms="3.8131707906723022e-01" purity="6.0214304924011230e-01" nType="0">
            <Node pos="l" depth="3" NCoef="0" IVar="-1" Cut="0.0000000000000000e+00" cType="1" res="8.9400773867964745e-03" rms="5.0519251823425293e-01" purity="3.8921308517456055e-01" nType="-99"/>
            <Node pos="r" depth="3" NCoef="0" IVar="-1" Cut="0.0000000000000000e+00" cType="1" res="9.4622961478307843e-04" rms="2.6213291287422180e-01" purity="7.3752301931381226e-01" nType="-99"/>
          </Node>
          <Node pos="r" depth="2" NCoef="0" IVar="1" Cut="1.3641148437500000e+05" cType="1" res="1.3742501847445965e-02" rms="2.7175360918045044e-01" purity="2.1653138101100922e-01" nType="0">
            <Node pos="l" depth="3" NCoef="0" IVar="-1" Cut="0.0000000000000000e+00" cType="1" res="2.2863724734634161e-04" rms="2.5375393033027649e-01" purity="1.3142976164817810e-01" nType="-99"/>
            <Node pos="r" depth="3" NCoef="0" IVar="-1" Cut="0.0000000000000000e+00" cType="1" res="9.3102134997025132e-04" rms="3.6904802918434143e-01" purity="8.1650733947753906e-01" nType="-99"/>
          </Node>
        </Node>
        <Node pos="r" depth="1" NCoef="0" IVar="1" Cut="1.0066286718750000e+05" cType="1" res="8.2269869744777679e-02" rms="2.0578429102897644e-01" purity="9.3644386529922485e-01" nType="0">
          <Node pos="l" depth="2" NCoef="0" IVar="1" Cut="8.8038851562500000e+04" cType="1" res="5.8383625000715256e-02" rms="2.7351269125938416e-01" purity="8.7644463777542114e-01" nType="0">
            <Node pos="l" depth="3" NCoef="0" IVar="-1" Cut="0.0000000000000000e+00" cType="1" res="1.2030613142997026e-03" rms="2.3199607431888580e-01" purity="9.2352885007858276e-01" nType="-99"/>
            <Node pos="r" depth="3" NCoef="0" IVar="-1" Cut="0.0000000000000000e+00" cType="1" res="-5.7653938711155206e-05" rms="4.1128078103065491e-01" purity="6.5402781963348389e-01" nType="-99"/>
          </Node>
          <Node pos="r" depth="2" NCoef="0" IVar="2" Cut="3.2209987500000000e+05" cType="1" res="9.9853940308094025e-02" rms="1.3311931490898132e-01" purity="9.8061293363571167e-01" nType="0">
            <Node pos="l" depth="3" NCoef="0" IVar="-1" Cut="0.0000000000000000e+00" cType="1" res="1.2232372537255287e-03" rms="1.6655366122722626e-01" purity="9.6735304594039917e-01" nType="-99"/>
            <Node pos="r" depth="3" NCoef="0" IVar="-1" Cut="0.0000000000000000e+00" cType="1" res="1.5808179741725326e-03" rms="1.1681946367025375e-01" purity="9.8594069480895996e-01" nType="-99"/>
          </Node>
        </Node>
      </Node>
    </BinaryTree>
    <BinaryTree type="DecisionTree" boostWeight="1.0000000000000000e+00" itree="527">
      <Node pos="s" depth="0" NCoef="0" IVar="3" Cut="9.7260398437500000e+04" cType="1" res="4.1783869266510010e-02" rms="2.6533684134483337e-01" purity="5.0174176692962646e-01" nType="0">
        <Node pos="l" depth="1" NCoef="0" IVar="1" Cut="1.7491068750000000e+05" cType="1" res="2.7541920542716980e-02" rms="2.9014632105827332e-01" purity="3.7208029627799988e-01" nType="0">
          <Node pos="l" depth="2" NCoef="0" IVar="1" Cut="1.1278396875000000e+05" cType="1" res="1.9140530377626419e-02" rms="2.9266610741615295e-01" purity="2.9823449254035950e-01" nType="0">
            <Node pos="l" depth="3" NCoef="0" IVar="-1" Cut="0.0000000000000000e+00" cType="1" res="1.5225644165184349e-04" rms="2.8455722332000732e-01" purity="2.0119698345661163e-01" nType="-99"/>
            <Node pos="r" depth="3" NCoef="0" IVar="-1" Cut="0.0000000000000000e+00" cType="1" res="1.1782770743593574e-03" rms="3.1889861822128296e-01" purity="8.2293540239334106e-01" nType="-99"/>
          </Node>
          <Node pos="r" depth="2" NCoef="0" IVar="-1" Cut="0.0000000000000000e+00" cType="1" res="8.6955091683194041e-04" rms="2.6299765706062317e-01" purity="9.1173082590103149e-01" nType="-99"/>
        </Node>
        <Node pos="r" depth="1" NCoef="0" IVar="5" Cut="8.9785890625000000e+04" cType="1" res="9.4750426709651947e-02" rms="1.2486242502927780e-01" purity="9.8395967483520508e-01" nType="0">
          <Node pos="l" depth="2" NCoef="0" IVar="-1" Cut="0.0000000000000000e+00" cType="1" res="1.9296952523291111e-03" rms="1.6044729948043823e-01" purity="9.7365754842758179e-01" nType="-99"/>
          <Node pos="r" depth="2" NCoef="0" IVar="3" Cut="1.4127601562500000e+05" cType="1" res="9.9220603704452515e-02" rms="1.0698647052049637e-01" purity="9.8809450864791870e-01" nType="0">
            <Node pos="l" depth="3" NCoef="0" IVar="-1" Cut="0.0000000000000000e+00" cType="1" res="1.3545039109885693e-03" rms="1.3015408813953400e-01" purity="9.8219335079193115e-01" nType="-99"/>
            <Node pos="r" depth="3" NCoef="0" IVar="-1" Cut="0.0000000000000000e+00" cType="1" res="1.8615089356899261e-03" rms="7.9906113445758820e-02" purity="9.9348187446594238e-01" nType="-99"/>
          </Node>
        </Node>
      </Node>
    </BinaryTree>
    <BinaryTree type="DecisionTree" boostWeight="1.0000000000000000e+00" itree="528">
      <Node pos="s" depth="0" NCoef="0" IVar="3" Cut="4.8659894531250000e+04" cType="1" res="4.5496698468923569e-02" rms="2.7693617343902588e-01" purity="4.9246087670326233e-01" nType="0">
        <Node pos="l" depth="1" NCoef="0" IVar="5" Cut="9.6397984375000000e+04" cType="1" res="2.3316139355301857e-02" rms="2.9427319765090942e-01" purity="1.8643984198570251e-01" nType="0">
          <Node pos="l" depth="2" NCoef="0" IVar="5" Cut="9.1330468750000000e+04" cType="1" res="1.7029883340001106e-02" rms="2.8879973292350769e-01" purity="1.7237627506256104e-01" nType="0">
            <Node pos="l" depth="3" NCoef="0" IVar="-1" Cut="0.0000000000000000e+00" cType="1" res="2.5631525204516947e-04" rms="2.7072495222091675e-01" purity="1.7047484219074249e-01" nType="-99"/>
            <Node pos="r" depth="3" NCoef="0" IVar="-1" Cut="0.0000000000000000e+00" cType="1" res="2.4721047375351191e-03" rms="3.1279936432838440e-01" purity="1.7521080374717712e-01" nType="-99"/>
          </Node>
          <Node pos="r" depth="2" NCoef="0" IVar="-1" Cut="0.0000000000000000e+00" cType="1" res="1.2829946354031563e-03" rms="3.8167029619216919e-01" purity="6.0986280441284180e-01" nType="-99"/>
        </Node>
        <Node pos="r" depth="1" NCoef="0" IVar="4" Cut="3.1670515625000000e+05" cType="1" res="7.5295552611351013e-02" rms="2.4867703020572662e-01" purity="9.0358996391296387e-01" nType="0">
          <Node pos="l" depth="2" NCoef="0" IVar="4" Cut="2.4194768750000000e+05" cType="1" res="4.5219097286462784e-02" rms="3.1744751334190369e-01" purity="8.2672232389450073e-01" nType="0">
            <Node pos="l" depth="3" NCoef="0" IVar="-1" Cut="0.0000000000000000e+00" cType="1" res="9.7854284103959799e-04" rms="2.9350700974464417e-01" purity="8.3521348237991333e-01" nType="-99"/>
            <Node pos="r" depth="3" NCoef="0" IVar="-1" Cut="0.0000000000000000e+00" cType="1" res="-2.5969608032028191e-05" rms="3.4863317012786865e-01" purity="8.1262212991714478e-01" nType="-99"/>
          </Node>
          <Node pos="r" depth="2" NCoef="0" IVar="0" Cut="3.0476191043853760e+00" cType="1" res="9.2514343559741974e-02" rms="1.9681699573993683e-01" purity="9.4759678840637207e-01" nType="0">
            <Node pos="l" depth="3" NCoef="0" IVar="-1" Cut="0.0000000000000000e+00" cType="1" res="1.4171163784340024e-03" rms="1.9006058573722839e-01" purity="9.5171844959259033e-01" nType="-99"/>
            <Node pos="r" depth="3" NCoef="0" IVar="-1" Cut="0.0000000000000000e+00" cType="1" res="8.8870467152446508e-04" rms="2.4869190156459808e-01" purity="9.0753310918807983e-01" nType="-99"/>
          </Node>
        </Node>
      </Node>
    </BinaryTree>
    <BinaryTree type="DecisionTree" boostWeight="1.0000000000000000e+00" itree="529">
      <Node pos="s" depth="0" NCoef="0" IVar="1" Cut="1.0034389062500000e+05" cType="1" res="3.9287518709897995e-02" rms="2.6152142882347107e-01" purity="4.8160430788993835e-01" nType="0">
        <Node pos="l" depth="1" NCoef="0" IVar="1" Cut="7.5101289062500000e+04" cType="1" res="1.3545934110879898e-02" rms="2.4757598340511322e-01" purity="2.9470476508140564e-01" nType="0">
          <Node pos="l" depth="2" NCoef="0" IVar="2" Cut="2.1390201562500000e+05" cType="1" res="6.4882464706897736e-02" rms="2.9471591114997864e-01" purity="6.5193015336990356e-01" nType="0">
            <Node pos="l" depth="3" NCoef="0" IVar="-1" Cut="0.0000000000000000e+00" cType="1" res="1.9535553292371333e-04" rms="2.7113959193229675e-01" purity="5.0265264511108398e-01" nType="-99"/>
            <Node pos="r" depth="3" NCoef="0" IVar="-1" Cut="0.0000000000000000e+00" cType="1" res="1.6308142803609371e-03" rms="3.0465045571327209e-01" purity="7.7969962358474731e-01" nType="-99"/>
          </Node>
          <Node pos="r" depth="2" NCoef="0" IVar="3" Cut="1.1336210156250000e+05" cType="1" res="-1.0564911179244518e-02" rms="2.1787266433238983e-01" purity="1.2692938745021820e-01" nType="0">
            <Node pos="l" depth="3" NCoef="0" IVar="-1" Cut="0.0000000000000000e+00" cType="1" res="-2.1462796721607447e-03" rms="2.1819826960563660e-01" purity="8.7462224066257477e-02" nType="-99"/>
            <Node pos="r" depth="3" NCoef="0" IVar="-1" Cut="0.0000000000000000e+00" cType="1" res="2.1367680747061968e-03" rms="1.8092672526836395e-01" purity="9.6566510200500488e-01" nType="-99"/>
          </Node>
        </Node>
        <Node pos="r" depth="1" NCoef="0" IVar="0" Cut="3.3333334326744080e-01" cType="1" res="8.8699541985988617e-02" rms="2.7983552217483521e-01" purity="8.4036570787429810e-01" nType="0">
          <Node pos="l" depth="2" NCoef="0" IVar="5" Cut="8.9773609375000000e+04" cType="1" res="0.0000000000000000e+00" rms="0.0000000000000000e+00" purity="7.8187483549118042e-01" nType="0">
            <Node pos="l" depth="3" NCoef="0" IVar="-1" Cut="0.0000000000000000e+00" cType="1" res="2.2883031051605940e-03" rms="3.2240915298461914e-01" purity="8.0385726690292358e-01" nType="-99"/>
            <Node pos="r" depth="3" NCoef="0" IVar="-1" Cut="0.0000000000000000e+00" cType="1" res="1.2668408453464508e-03" rms="3.0721157789230347e-01" purity="7.6559072732925415e-01" nType="-99"/>
          </Node>
          <Node pos="r" depth="2" NCoef="0" IVar="4" Cut="5.2837656250000000e+05" cType="1" res="7.6916545629501343e-02" rms="2.5174656510353088e-01" purity="8.8119167089462280e-01" nType="0">
            <Node pos="l" depth="3" NCoef="0" IVar="-1" Cut="0.0000000000000000e+00" cType="1" res="1.0632029734551907e-03" rms="3.1432867050170898e-01" purity="7.8755307197570801e-01" nType="-99"/>
            <Node pos="r" depth="3" NCoef="0" IVar="-1" Cut="0.0000000000000000e+00" cType="1" res="1.3607264263555408e-03" rms="1.8216623365879059e-01" purity="9.5886051654815674e-01" nType="-99"/>
          </Node>
        </Node>
      </Node>
    </BinaryTree>
    <BinaryTree type="DecisionTree" boostWeight="1.0000000000000000e+00" itree="530">
      <Node pos="s" depth="0" NCoef="0" IVar="3" Cut="4.8659894531250000e+04" cType="1" res="4.6296983957290649e-02" rms="2.6201415061950684e-01" purity="4.9480995535850525e-01" nType="0">
        <Node pos="l" depth="1" NCoef="0" IVar="2" Cut="4.5909940625000000e+05" cType="1" res="2.3488895967602730e-02" rms="2.8300175070762634e-01" purity="2.0272912085056305e-01" nType="0">
          <Node pos="l" depth="2" NCoef="0" IVar="3" Cut="4.1714683593750000e+04" cType="1" res="1.4256363734602928e-02" rms="2.6711481809616089e-01" purity="1.6117978096008301e-01" nType="0">
            <Node pos="l" depth="3" NCoef="0" IVar="-1" Cut="0.0000000000000000e+00" cType="1" res="3.5480930819176137e-04" rms="2.4884617328643799e-01" purity="1.1425103992223740e-01" nType="-99"/>
            <Node pos="r" depth="3" NCoef="0" IVar="-1" Cut="0.0000000000000000e+00" cType="1" res="6.8722525611519814e-04" rms="3.8764029741287231e-01" purity="6.0682493448257446e-01" nType="-99"/>
          </Node>
          <Node pos="r" depth="2" NCoef="0" IVar="5" Cut="9.0703398437500000e+04" cType="1" res="9.7687065601348877e-02" rms="3.7965348362922668e-01" purity="5.3664463758468628e-01" nType="0">
            <Node pos="l" depth="3" NCoef="0" IVar="-1" Cut="0.0000000000000000e+00" cType="1" res="2.2614893969148397e-03" rms="3.9714968204498291e-01" purity="6.6349971294403076e-01" nType="-99"/>
            <Node pos="r" depth="3" NCoef="0" IVar="-1" Cut="0.0000000000000000e+00" cType="1" res="-1.1773805599659681e-03" rms="3.0889365077018738e-01" purity="3.5327616333961487e-01" nType="-99"/>
          </Node>
        </Node>
        <Node pos="r" depth="1" NCoef="0" IVar="1" Cut="1.1128134375000000e+05" cType="1" res="7.8885629773139954e-02" rms="2.2472755610942841e-01" purity="9.1214072704315186e-01" nType="0">
          <Node pos="l" depth="2" NCoef="0" IVar="1" Cut="9.6967218750000000e+04" cType="1" res="5.5144455283880234e-02" rms="2.8698199987411499e-01" purity="8.4298419952392578e-01" nType="0">
            <Node pos="l" depth="3" NCoef="0" IVar="-1" Cut="0.0000000000000000e+00" cType="1" res="5.4923933930695057e-04" rms="3.0392730236053467e-01" purity="8.1199377775192261e-01" nType="-99"/>
            <Node pos="r" depth="3" NCoef="0" IVar="-1" Cut="0.0000000000000000e+00" cType="1" res="1.2805879814550281e-03" rms="2.0680730044841766e-01" purity="9.4484853744506836e-01" nType="-99"/>
          </Node>
          <Node pos="r" depth="2" NCoef="0" IVar="5" Cut="9.0614156250000000e+04" cType="1" res="1.0295367240905762e-01" rms="1.3060244917869568e-01" purity="9.8224937915802002e-01" nType="0">
            <Node pos="l" depth="3" NCoef="0" IVar="-1" Cut="0.0000000000000000e+00" cType="1" res="1.7400055658072233e-03" rms="1.4015959203243256e-01" purity="9.7944557666778564e-01" nType="-99"/>
            <Node pos="r" depth="3" NCoef="0" IVar="-1" Cut="0.0000000000000000e+00" cType="1" res="1.7639563884586096e-03" rms="1.2304248660802841e-01" purity="9.8428905010223389e-01" nType="-99"/>
          </Node>
        </Node>
      </Node>
    </BinaryTree>
    <BinaryTree type="DecisionTree" boostWeight="1.0000000000000000e+00" itree="531">
      <Node pos="s" depth="0" NCoef="0" IVar="3" Cut="5.4312500000000000e+04" cType="1" res="4.4966522604227066e-02" rms="2.6466754078865051e-01" purity="4.9646493792533875e-01" nType="0">
        <Node pos="l" depth="1" NCoef="0" IVar="4" Cut="1.6417432812500000e+05" cType="1" res="1.7322987318038940e-02" rms="2.8865903615951538e-01" purity="2.1807405352592468e-01" nType="0">
          <Node pos="l" depth="2" NCoef="0" IVar="2" Cut="1.7961156250000000e+05" cType="1" res="7.3565430939197540e-02" rms="3.3542883396148682e-01" purity="1.9492316246032715e-01" nType="0">
            <Node pos="l" depth="3" NCoef="0" IVar="-1" Cut="0.0000000000000000e+00" cType="1" res="5.5247256532311440e-03" rms="4.7671392560005188e-01" purity="3.4045088291168213e-01" nType="-99"/>
            <Node pos="r" depth="3" NCoef="0" IVar="-1" Cut="0.0000000000000000e+00" cType="1" res="1.5674719179514796e-04" rms="1.8994767963886261e-01" purity="1.1659691482782364e-01" nType="-99"/>
          </Node>
          <Node pos="r" depth="2" NCoef="0" IVar="3" Cut="4.1422570312500000e+04" cType="1" res="6.2818890437483788e-03" rms="2.7722027897834778e-01" purity="2.2261889278888702e-01" nType="0">
            <Node pos="l" depth="3" NCoef="0" IVar="-1" Cut="0.0000000000000000e+00" cType="1" res="-3.1552338623441756e-04" rms="2.5678339600563049e-01" purity="1.4073266088962555e-01" nType="-99"/>
            <Node pos="r" depth="3" NCoef="0" IVar="-1" Cut="0.0000000000000000e+00" cType="1" res="1.0344029869884253e-03" rms="3.5799747705459595e-01" purity="6.3331550359725952e-01" nType="-99"/>
          </Node>
        </Node>
        <Node pos="r" depth="1" NCoef="0" IVar="0" Cut="1.1428571939468384e+00" cType="1" res="8.8607139885425568e-02" rms="2.1443113684654236e-01" purity="9.3595820665359497e-01" nType="0">
          <Node pos="l" depth="2" NCoef="0" IVar="5" Cut="9.3532843750000000e+04" cType="1" res="9.7061112523078918e-02" rms="1.9799779355525970e-01" purity="9.4188904762268066e-01" nType="0">
            <Node pos="l" depth="3" NCoef="0" IVar="-1" Cut="0.0000000000000000e+00" cType="1" res="1.2991195544600487e-03" rms="1.9352981448173523e-01" purity="9.3897885084152222e-01" nType="-99"/>
            <Node pos="r" depth="3" NCoef="0" IVar="-1" Cut="0.0000000000000000e+00" cType="1" res="2.1060721483081579e-03" rms="2.1668824553489685e-01" purity="9.5745289325714111e-01" nType="-99"/>
          </Node>
          <Node pos="r" depth="2" NCoef="0" IVar="2" Cut="3.4647981250000000e+05" cType="1" res="7.3471829295158386e-02" rms="2.4032835662364960e-01" purity="9.2534011602401733e-01" nType="0">
            <Node pos="l" depth="3" NCoef="0" IVar="-1" Cut="0.0000000000000000e+00" cType="1" res="6.8477820605039597e-04" rms="2.7483922243118286e-01" purity="8.9716607332229614e-01" nType="-99"/>
            <Node pos="r" depth="3" NCoef="0" IVar="-1" Cut="0.0000000000000000e+00" cType="1" res="1.5568077797070146e-03" rms="2.0734831690788269e-01" purity="9.4709753990173340e-01" nType="-99"/>
          </Node>
        </Node>
      </Node>
    </BinaryTree>
    <BinaryTree type="DecisionTree" boostWeight="1.0000000000000000e+00" itree="532">
      <Node pos="s" depth="0" NCoef="0" IVar="3" Cut="7.5659101562500000e+04" cType="1" res="3.3354520797729492e-02" rms="2.5276944041252136e-01" purity="4.7984281182289124e-01" nType="0">
        <Node pos="l" depth="1" NCoef="0" IVar="5" Cut="8.8800781250000000e+04" cType="1" res="1.1474296450614929e-02" rms="2.7727693319320679e-01" purity="2.8917819261550903e-01" nType="0">
          <Node pos="l" depth="2" NCoef="0" IVar="1" Cut="1.0349457812500000e+05" cType="1" res="6.5910644829273224e-02" rms="3.3996820449829102e-01" purity="4.4826811552047729e-01" nType="0">
            <Node pos="l" depth="3" NCoef="0" IVar="-1" Cut="0.0000000000000000e+00" cType="1" res="1.7304426291957498e-03" rms="3.3493638038635254e-01" purity="2.3289754986763000e-01" nType="-99"/>
            <Node pos="r" depth="3" NCoef="0" IVar="-1" Cut="0.0000000000000000e+00" cType="1" res="1.6985080437734723e-03" rms="3.4006887674331665e-01" purity="8.0783444643020630e-01" nType="-99"/>
          </Node>
          <Node pos="r" depth="2" NCoef="0" IVar="0" Cut="2.1428570747375488e+00" cType="1" res="-3.0332813039422035e-03" rms="2.5606569647789001e-01" purity="2.4677990376949310e-01" nType="0">
            <Node pos="l" depth="3" NCoef="0" IVar="-1" Cut="0.0000000000000000e+00" cType="1" res="-4.8481559497304261e-04" rms="2.4505949020385742e-01" purity="2.2420014441013336e-01" nType="-99"/>
            <Node pos="r" depth="3" NCoef="0" IVar="-1" Cut="0.0000000000000000e+00" cType="1" res="1.9981756340712309e-03" rms="3.5454407334327698e-01" purity="5.2426463365554810e-01" nType="-99"/>
          </Node>
        </Node>
        <Node pos="r" depth="1" NCoef="0" IVar="1" Cut="1.0329192187500000e+05" cType="1" res="8.9739069342613220e-02" rms="1.6125889122486115e-01" purity="9.7117859125137329e-01" nType="0">
          <Node pos="l" depth="2" NCoef="0" IVar="3" Cut="1.0989007031250000e+05" cType="1" res="7.9512760043144226e-02" rms="2.0657812058925629e-01" purity="9.5129424333572388e-01" nType="0">
            <Node pos="l" depth="3" NCoef="0" IVar="-1" Cut="0.0000000000000000e+00" cType="1" res="9.0088538127020001e-04" rms="2.9493641853332520e-01" purity="8.9599031209945679e-01" nType="-99"/>
            <Node pos="r" depth="3" NCoef="0" IVar="-1" Cut="0.0000000000000000e+00" cType="1" res="1.9729305058717728e-03" rms="1.2984976172447205e-01" purity="9.8262768983840942e-01" nType="-99"/>
          </Node>
          <Node pos="r" depth="2" NCoef="0" IVar="-1" Cut="0.0000000000000000e+00" cType="1" res="1.7397830961272120e-03" rms="1.0569303482770920e-01" purity="9.8866599798202515e-01" nType="-99"/>
        </Node>
      </Node>
    </BinaryTree>
    <BinaryTree type="DecisionTree" boostWeight="1.0000000000000000e+00" itree="533">
      <Node pos="s" depth="0" NCoef="0" IVar="3" Cut="4.4463175781250000e+04" cType="1" res="3.5152502357959747e-02" rms="2.5699526071548462e-01" purity="4.8347127437591553e-01" nType="0">
        <Node pos="l" depth="1" NCoef="0" IVar="4" Cut="2.5403123437500000e+05" cType="1" res="1.0007452219724655e-02" rms="2.5619038939476013e-01" purity="1.8132443726062775e-01" nType="0">
          <Node pos="l" depth="2" NCoef="0" IVar="3" Cut="3.5998398437500000e+04" cType="1" res="-1.3776591047644615e-02" rms="2.0990805327892303e-01" purity="7.9147055745124817e-02" nType="0">
            <Node pos="l" depth="3" NCoef="0" IVar="-1" Cut="0.0000000000000000e+00" cType="1" res="-1.0675207013264298e-03" rms="1.9672498106956482e-01" purity="6.4001433551311493e-02" nType="-99"/>
            <Node pos="r" depth="3" NCoef="0" IVar="-1" Cut="0.0000000000000000e+00" cType="1" res="-4.3266150169074535e-03" rms="3.0129906535148621e-01" purity="2.3318135738372803e-01" nType="-99"/>
          </Node>
          <Node pos="r" depth="2" NCoef="0" IVar="5" Cut="9.3474484375000000e+04" cType="1" res="4.5898973941802979e-02" rms="3.0991172790527344e-01" purity="3.3551615476608276e-01" nType="0">
            <Node pos="l" depth="3" NCoef="0" IVar="-1" Cut="0.0000000000000000e+00" cType="1" res="7.9118274152278900e-04" rms="2.9555809497833252e-01" purity="2.8257527947425842e-01" nType="-99"/>
            <Node pos="r" depth="3" NCoef="0" IVar="-1" Cut="0.0000000000000000e+00" cType="1" res="8.6264387937262654e-04" rms="3.4771102666854858e-01" purity="5.8757102489471436e-01" nType="-99"/>
          </Node>
        </Node>
        <Node pos="r" depth="1" NCoef="0" IVar="4" Cut="2.8745337500000000e+05" cType="1" res="6.7771479487419128e-02" rms="2.5435832142829895e-01" purity="8.7542599439620972e-01" nType="0">
          <Node pos="l" depth="2" NCoef="0" IVar="3" Cut="7.6350093750000000e+04" cType="1" res="3.4101780503988266e-02" rms="2.9825553297996521e-01" purity="7.8677165508270264e-01" nType="0">
            <Node pos="l" depth="3" NCoef="0" IVar="-1" Cut="0.0000000000000000e+00" cType="1" res="-2.4536851924494840e-05" rms="3.5318136215209961e-01" purity="6.5910631418228149e-01" nType="-99"/>
            <Node pos="r" depth="3" NCoef="0" IVar="-1" Cut="0.0000000000000000e+00" cType="1" res="1.6417186707258224e-03" rms="1.9172520935535431e-01" purity="9.5844751596450806e-01" nType="-99"/>
          </Node>
          <Node pos="r" depth="2" NCoef="0" IVar="0" Cut="3.0476191043853760e+00" cType="1" res="8.3936497569084167e-02" rms="2.2857400774955750e-01" purity="9.1798949241638184e-01" nType="0">
            <Node pos="l" depth="3" NCoef="0" IVar="-1" Cut="0.0000000000000000e+00" cType="1" res="1.0527904378250241e-03" rms="2.2705462574958801e-01" purity="9.2127931118011475e-01" nType="-99"/>
            <Node pos="r" depth="3" NCoef="0" IVar="-1" Cut="0.0000000000000000e+00" cType="1" res="9.2262151883915067e-04" rms="2.3807106912136078e-01" purity="8.8782215118408203e-01" nType="-99"/>
          </Node>
        </Node>
      </Node>
    </BinaryTree>
    <BinaryTree type="DecisionTree" boostWeight="1.0000000000000000e+00" itree="534">
      <Node pos="s" depth="0" NCoef="0" IVar="1" Cut="1.0036485156250000e+05" cType="1" res="4.9128558486700058e-02" rms="2.7249202132225037e-01" purity="4.9917432665824890e-01" nType="0">
        <Node pos="l" depth="1" NCoef="0" IVar="1" Cut="7.5118718750000000e+04" cType="1" res="2.6425493881106377e-02" rms="2.7470955252647400e-01" purity="3.0860951542854309e-01" nType="0">
          <Node pos="l" depth="2" NCoef="0" IVar="1" Cut="2.7043417968750000e+04" cType="1" res="8.9532658457756042e-02" rms="3.5440707206726074e-01" purity="6.4783215522766113e-01" nType="0">
            <Node pos="l" depth="3" NCoef="0" IVar="-1" Cut="0.0000000000000000e+00" cType="1" res="-2.2654579952359200e-03" rms="2.5533109903335571e-01" purity="2.4420002102851868e-01" nType="-99"/>
            <Node pos="r" depth="3" NCoef="0" IVar="-1" Cut="0.0000000000000000e+00" cType="1" res="1.9247253658249974e-03" rms="3.6226803064346313e-01" purity="7.0338410139083862e-01" nType="-99"/>
          </Node>
          <Node pos="r" depth="2" NCoef="0" IVar="3" Cut="7.5557476562500000e+04" cType="1" res="-3.9931409992277622e-03" rms="2.2011953592300415e-01" purity="1.4509890973567963e-01" nType="0">
            <Node pos="l" depth="3" NCoef="0" IVar="-1" Cut="0.0000000000000000e+00" cType="1" res="-2.3092716000974178e-03" rms="2.1170049905776978e-01" purity="6.5994299948215485e-02" nType="-99"/>
            <Node pos="r" depth="3" NCoef="0" IVar="-1" Cut="0.0000000000000000e+00" cType="1" res="8.8912545470520854e-04" rms="2.7968999743461609e-01" purity="9.0583032369613647e-01" nType="-99"/>
          </Node>
        </Node>
        <Node pos="r" depth="1" NCoef="0" IVar="3" Cut="2.6333791015625000e+04" cType="1" res="9.0764164924621582e-02" rms="2.6333966851234436e-01" purity="8.4865510463714600e-01" nType="0">
          <Node pos="l" depth="2" NCoef="0" IVar="3" Cut="1.2714152343750000e+04" cType="1" res="-5.2747102454304695e-03" rms="3.9520397782325745e-01" purity="3.7477120757102966e-01" nType="0">
            <Node pos="l" depth="3" NCoef="0" IVar="-1" Cut="0.0000000000000000e+00" cType="1" res="2.8575586620718241e-03" rms="3.9758062362670898e-01" purity="3.2075646519660950e-01" nType="-99"/>
            <Node pos="r" depth="3" NCoef="0" IVar="-1" Cut="0.0000000000000000e+00" cType="1" res="-2.2282763384282589e-03" rms="3.7562122941017151e-01" purity="4.1811582446098328e-01" nType="-99"/>
          </Node>
          <Node pos="r" depth="2" NCoef="0" IVar="4" Cut="3.7041234375000000e+05" cType="1" res="1.0822271555662155e-01" rms="2.2711284458637238e-01" purity="9.3480068445205688e-01" nType="0">
            <Node pos="l" depth="3" NCoef="0" IVar="-1" Cut="0.0000000000000000e+00" cType="1" res="1.3345608022063971e-03" rms="2.7987712621688843e-01" purity="8.9963340759277344e-01" nType="-99"/>
            <Node pos="r" depth="3" NCoef="0" IVar="-1" Cut="0.0000000000000000e+00" cType="1" res="1.1173187522217631e-03" rms="1.8059781193733215e-01" purity="9.5811349153518677e-01" nType="-99"/>
          </Node>
        </Node>
      </Node>
    </BinaryTree>
    <BinaryTree type="DecisionTree" boostWeight="1.0000000000000000e+00" itree="535">
      <Node pos="s" depth="0" NCoef="0" IVar="2" Cut="3.1093778125000000e+05" cType="1" res="4.7024410218000412e-02" rms="2.6879221200942993e-01" purity="5.0569283962249756e-01" nType="0">
        <Node pos="l" depth="1" NCoef="0" IVar="2" Cut="1.3667231250000000e+05" cType="1" res="2.6537898927927017e-02" rms="2.7085217833518982e-01" purity="3.5628300905227661e-01" nType="0">
          <Node pos="l" depth="2" NCoef="0" IVar="-1" Cut="0.0000000000000000e+00" cType="1" res="-1.1035881936550140e-02" rms="3.5650169849395752e-01" purity="1.3872765004634857e-01" nType="-99"/>
          <Node pos="r" depth="2" NCoef="0" IVar="2" Cut="1.5327079687500000e+05" cType="1" res="3.2572492957115173e-02" rms="2.6556813716888428e-01" purity="3.6203989386558533e-01" nType="0">
            <Node pos="l" depth="3" NCoef="0" IVar="-1" Cut="0.0000000000000000e+00" cType="1" res="3.1469687819480896e-03" rms="4.4629091024398804e-01" purity="6.4914113283157349e-01" nType="-99"/>
            <Node pos="r" depth="3" NCoef="0" IVar="-1" Cut="0.0000000000000000e+00" cType="1" res="7.7276013325899839e-04" rms="2.4992164969444275e-01" purity="3.5086339712142944e-01" nType="-99"/>
          </Node>
        </Node>
        <Node pos="r" depth="1" NCoef="0" IVar="5" Cut="9.0749062500000000e+04" cType="1" res="7.6836809515953064e-02" rms="2.6292973756790161e-01" purity="7.2311711311340332e-01" nType="0">
          <Node pos="l" depth="2" NCoef="0" IVar="5" Cut="9.0306554687500000e+04" cType="1" res="1.0033613443374634e-01" rms="2.9285109043121338e-01" purity="7.5514680147171021e-01" nType="0">
            <Node pos="l" depth="3" NCoef="0" IVar="-1" Cut="0.0000000000000000e+00" cType="1" res="7.4377190321683884e-04" rms="2.6515156030654907e-01" purity="7.6713144779205322e-01" nType="-99"/>
            <Node pos="r" depth="3" NCoef="0" IVar="-1" Cut="0.0000000000000000e+00" cType="1" res="4.2047356255352497e-03" rms="4.0601924061775208e-01" purity="6.7581665515899658e-01" nType="-99"/>
          </Node>
          <Node pos="r" depth="2" NCoef="0" IVar="3" Cut="6.9217710937500000e+04" cType="1" res="5.2431888878345490e-02" rms="2.2514966130256653e-01" purity="6.8985313177108765e-01" nType="0">
            <Node pos="l" depth="3" NCoef="0" IVar="-1" Cut="0.0000000000000000e+00" cType="1" res="3.6469835322350264e-04" rms="2.7864620089530945e-01" purity="4.3303185701370239e-01" nType="-99"/>
            <Node pos="r" depth="3" NCoef="0" IVar="-1" Cut="0.0000000000000000e+00" cType="1" res="1.6723381122574210e-03" rms="1.3127271831035614e-01" purity="9.7974169254302979e-01" nType="-99"/>
          </Node>
        </Node>
      </Node>
    </BinaryTree>
    <BinaryTree type="DecisionTree" boostWeight="1.0000000000000000e+00" itree="536">
      <Node pos="s" depth="0" NCoef="0" IVar="3" Cut="9.7368960937500000e+04" cType="1" res="3.8118556141853333e-02" rms="2.6234567165374756e-01" purity="4.8151835799217224e-01" nType="0">
        <Node pos="l" depth="1" NCoef="0" IVar="3" Cut="2.3304841796875000e+04" cType="1" res="2.2896414622664452e-02" rms="2.8620523214340210e-01" purity="3.4709885716438293e-01" nType="0">
          <Node pos="l" depth="2" NCoef="0" IVar="3" Cut="2.2203625000000000e+04" cType="1" res="-3.3995620906352997e-03" rms="2.0132619142532349e-01" purity="8.5672229528427124e-02" nType="0">
            <Node pos="l" depth="3" NCoef="0" IVar="-1" Cut="0.0000000000000000e+00" cType="1" res="-1.5867498004809022e-03" rms="1.8797016143798828e-01" purity="7.1502365171909332e-02" nType="-99"/>
            <Node pos="r" depth="3" NCoef="0" IVar="-1" Cut="0.0000000000000000e+00" cType="1" res="2.8743362054228783e-03" rms="3.3475497364997864e-01" purity="3.2531094551086426e-01" nType="-99"/>
          </Node>
          <Node pos="r" depth="2" NCoef="0" IVar="5" Cut="8.9668000000000000e+04" cType="1" res="4.3034605681896210e-02" rms="3.3566233515739441e-01" purity="5.4730665683746338e-01" nType="0">
            <Node pos="l" depth="3" NCoef="0" IVar="-1" Cut="0.0000000000000000e+00" cType="1" res="1.8145969370380044e-03" rms="3.7709742784500122e-01" purity="6.3440257310867310e-01" nType="-99"/>
            <Node pos="r" depth="3" NCoef="0" IVar="-1" Cut="0.0000000000000000e+00" cType="1" res="5.0047290278598666e-04" rms="3.1315079331398010e-01" purity="5.0775802135467529e-01" nType="-99"/>
          </Node>
        </Node>
        <Node pos="r" depth="1" NCoef="0" IVar="0" Cut="3.3333334326744080e-01" cType="1" res="9.4977974891662598e-02" rms="1.2585037946701050e-01" purity="9.8361712694168091e-01" nType="0">
          <Node pos="l" depth="2" NCoef="0" IVar="-1" Cut="0.0000000000000000e+00" cType="1" res="2.2145763505250216e-03" rms="8.4446243941783905e-02" purity="9.9321544170379639e-01" nType="-99"/>
          <Node pos="r" depth="2" NCoef="0" IVar="3" Cut="1.4143551562500000e+05" cType="1" res="8.9534223079681396e-02" rms="1.3827726244926453e-01" purity="9.7988224029541016e-01" nType="0">
            <Node pos="l" depth="3" NCoef="0" IVar="-1" Cut="0.0000000000000000e+00" cType="1" res="1.3883876381441951e-03" rms="1.5212205052375793e-01" purity="9.7533577680587769e-01" nType="-99"/>
            <Node pos="r" depth="3" NCoef="0" IVar="-1" Cut="0.0000000000000000e+00" cType="1" res="1.8473376985639334e-03" rms="1.2084557861089706e-01" purity="9.8495429754257202e-01" nType="-99"/>
          </Node>
        </Node>
      </Node>
    </BinaryTree>
    <BinaryTree type="DecisionTree" boostWeight="1.0000000000000000e+00" itree="537">
      <Node pos="s" depth="0" NCoef="0" IVar="1" Cut="9.3455429687500000e+04" cType="1" res="5.5428575724363327e-02" rms="2.6839604973793030e-01" purity="5.0994825363159180e-01" nType="0">
        <Node pos="l" depth="1" NCoef="0" IVar="5" Cut="9.3493140625000000e+04" cType="1" res="2.7516024187207222e-02" rms="2.6933246850967407e-01" purity="3.4190893173217773e-01" nType="0">
          <Node pos="l" depth="2" NCoef="0" IVar="1" Cut="2.7520820312500000e+04" cType="1" res="9.5607619732618332e-03" rms="2.5208994746208191e-01" purity="2.9819542169570923e-01" nType="0">
            <Node pos="l" depth="3" NCoef="0" IVar="-1" Cut="0.0000000000000000e+00" cType="1" res="-1.1670777574181557e-02" rms="2.6886931061744690e-01" purity="1.5832203626632690e-01" nType="-99"/>
            <Node pos="r" depth="3" NCoef="0" IVar="-1" Cut="0.0000000000000000e+00" cType="1" res="7.0295057957991958e-04" rms="2.4849100410938263e-01" purity="3.0578911304473877e-01" nType="-99"/>
          </Node>
          <Node pos="r" depth="2" NCoef="0" IVar="0" Cut="2.8571429848670959e-01" cType="1" res="1.3486458361148834e-01" rms="3.3591786026954651e-01" purity="6.0325753688812256e-01" nType="0">
            <Node pos="l" depth="3" NCoef="0" IVar="-1" Cut="0.0000000000000000e+00" cType="1" res="2.7722942177206278e-03" rms="3.5953512787818909e-01" purity="5.5736917257308960e-01" nType="-99"/>
            <Node pos="r" depth="3" NCoef="0" IVar="-1" Cut="0.0000000000000000e+00" cType="1" res="1.2986372457817197e-03" rms="2.8854233026504517e-01" purity="6.5754067897796631e-01" nType="-99"/>
          </Node>
        </Node>
        <Node pos="r" depth="1" NCoef="0" IVar="4" Cut="2.4230164062500000e+05" cType="1" res="8.6731530725955963e-02" rms="2.6385247707366943e-01" purity="6.9839853048324585e-01" nType="0">
          <Node pos="l" depth="2" NCoef="0" IVar="3" Cut="4.8168515625000000e+04" cType="1" res="1.4586324803531170e-02" rms="2.4471317231655121e-01" purity="3.6399030685424805e-01" nType="0">
            <Node pos="l" depth="3" NCoef="0" IVar="-1" Cut="0.0000000000000000e+00" cType="1" res="-1.8014083616435528e-03" rms="2.2854937613010406e-01" purity="1.3107573986053467e-01" nType="-99"/>
            <Node pos="r" depth="3" NCoef="0" IVar="-1" Cut="0.0000000000000000e+00" cType="1" res="9.7416888456791639e-04" rms="2.6155474781990051e-01" purity="8.8466888666152954e-01" nType="-99"/>
          </Node>
          <Node pos="r" depth="2" NCoef="0" IVar="4" Cut="3.9263606250000000e+05" cType="1" res="1.1079954355955124e-01" rms="2.6561185717582703e-01" purity="8.0995881557464600e-01" nType="0">
            <Node pos="l" depth="3" NCoef="0" IVar="-1" Cut="0.0000000000000000e+00" cType="1" res="1.0352887911722064e-03" rms="2.8988426923751831e-01" purity="7.4411338567733765e-01" nType="-99"/>
            <Node pos="r" depth="3" NCoef="0" IVar="-1" Cut="0.0000000000000000e+00" cType="1" res="9.6233852673321962e-04" rms="2.3777516186237335e-01" purity="8.7006819248199463e-01" nType="-99"/>
          </Node>
        </Node>
      </Node>
    </BinaryTree>
    <BinaryTree type="DecisionTree" boostWeight="1.0000000000000000e+00" itree="538">
      <Node pos="s" depth="0" NCoef="0" IVar="3" Cut="5.4198226562500000e+04" cType="1" res="5.0015296787023544e-02" rms="2.6793491840362549e-01" purity="5.0662493705749512e-01" nType="0">
        <Node pos="l" depth="1" NCoef="0" IVar="5" Cut="9.3550140625000000e+04" cType="1" res="3.0625747516751289e-02" rms="2.9271063208580017e-01" purity="2.4644756317138672e-01" nType="0">
          <Node pos="l" depth="2" NCoef="0" IVar="3" Cut="5.1616027343750000e+04" cType="1" res="2.0168848335742950e-02" rms="2.7770203351974487e-01" purity="2.2564110159873962e-01" nType="0">
            <Node pos="l" depth="3" NCoef="0" IVar="-1" Cut="0.0000000000000000e+00" cType="1" res="7.5153668876737356e-04" rms="2.7277112007141113e-01" purity="1.9962897896766663e-01" nType="-99"/>
            <Node pos="r" depth="3" NCoef="0" IVar="-1" Cut="0.0000000000000000e+00" cType="1" res="1.0703448206186295e-03" rms="3.4453344345092773e-01" purity="8.1602925062179565e-01" nType="-99"/>
          </Node>
          <Node pos="r" depth="2" NCoef="0" IVar="3" Cut="2.8448257812500000e+04" cType="1" res="1.0494560748338699e-01" rms="3.7446591258049011e-01" purity="3.9432430267333984e-01" nType="0">
            <Node pos="l" depth="3" NCoef="0" IVar="-1" Cut="0.0000000000000000e+00" cType="1" res="3.4723167773336172e-03" rms="3.8561028242111206e-01" purity="3.5147950053215027e-01" nType="-99"/>
            <Node pos="r" depth="3" NCoef="0" IVar="-1" Cut="0.0000000000000000e+00" cType="1" res="-2.0170083735138178e-04" rms="3.2072192430496216e-01" purity="4.8844641447067261e-01" nType="-99"/>
          </Node>
        </Node>
        <Node pos="r" depth="1" NCoef="0" IVar="2" Cut="3.6108175000000000e+05" cType="1" res="8.1784695386886597e-02" rms="2.1772626042366028e-01" purity="9.3292045593261719e-01" nType="0">
          <Node pos="l" depth="2" NCoef="0" IVar="5" Cut="9.3363687500000000e+04" cType="1" res="6.6931866109371185e-02" rms="2.6275762915611267e-01" purity="8.9761173725128174e-01" nType="0">
            <Node pos="l" depth="3" NCoef="0" IVar="-1" Cut="0.0000000000000000e+00" cType="1" res="1.0901584755629301e-03" rms="2.7489972114562988e-01" purity="8.8463622331619263e-01" nType="-99"/>
            <Node pos="r" depth="3" NCoef="0" IVar="-1" Cut="0.0000000000000000e+00" cType="1" res="1.9671646878123283e-03" rms="1.9566546380519867e-01" purity="9.5361447334289551e-01" nType="-99"/>
          </Node>
          <Node pos="r" depth="2" NCoef="0" IVar="0" Cut="3.8095238804817200e-01" cType="1" res="9.8752766847610474e-02" rms="1.4881718158721924e-01" purity="9.7325760126113892e-01" nType="0">
            <Node pos="l" depth="3" NCoef="0" IVar="-1" Cut="0.0000000000000000e+00" cType="1" res="1.7384360544383526e-03" rms="1.0511732846498489e-01" purity="9.8716658353805542e-01" nType="-99"/>
            <Node pos="r" depth="3" NCoef="0" IVar="-1" Cut="0.0000000000000000e+00" cType="1" res="1.0152560425922275e-03" rms="1.6522631049156189e-01" purity="9.6652972698211670e-01" nType="-99"/>
          </Node>
        </Node>
      </Node>
    </BinaryTree>
    <BinaryTree type="DecisionTree" boostWeight="1.0000000000000000e+00" itree="539">
      <Node pos="s" depth="0" NCoef="0" IVar="1" Cut="1.0034389062500000e+05" cType="1" res="4.9191977828741074e-02" rms="2.7575975656509399e-01" purity="4.9455508589744568e-01" nType="0">
        <Node pos="l" depth="1" NCoef="0" IVar="1" Cut="7.5099921875000000e+04" cType="1" res="3.0077703297138214e-02" rms="2.8058832883834839e-01" purity="3.1163874268531799e-01" nType="0">
          <Node pos="l" depth="2" NCoef="0" IVar="1" Cut="3.3034281250000000e+04" cType="1" res="9.0850226581096649e-02" rms="3.4417751431465149e-01" purity="6.7463183403015137e-01" nType="0">
            <Node pos="l" depth="3" NCoef="0" IVar="-1" Cut="0.0000000000000000e+00" cType="1" res="-1.1210384545847774e-03" rms="3.3477044105529785e-01" purity="3.5304614901542664e-01" nType="-99"/>
            <Node pos="r" depth="3" NCoef="0" IVar="-1" Cut="0.0000000000000000e+00" cType="1" res="1.9966401159763336e-03" rms="3.3901056647300720e-01" purity="7.5425666570663452e-01" nType="-99"/>
          </Node>
          <Node pos="r" depth="2" NCoef="0" IVar="1" Cut="9.6733992187500000e+04" cType="1" res="-4.6309910248965025e-04" rms="2.3659211397171021e-01" purity="1.2921908497810364e-01" nType="0">
            <Node pos="l" depth="3" NCoef="0" IVar="-1" Cut="0.0000000000000000e+00" cType="1" res="-1.1843518586829305e-03" rms="2.2874653339385986e-01" purity="1.0527342557907104e-01" nType="-99"/>
            <Node pos="r" depth="3" NCoef="0" IVar="-1" Cut="0.0000000000000000e+00" cType="1" res="2.3183629382401705e-03" rms="2.8704094886779785e-01" purity="3.6539986729621887e-01" nType="-99"/>
          </Node>
        </Node>
        <Node pos="r" depth="1" NCoef="0" IVar="3" Cut="4.4676781250000000e+04" cType="1" res="8.5967510938644409e-02" rms="2.6233476400375366e-01" purity="8.4648299217224121e-01" nType="0">
          <Node pos="l" depth="2" NCoef="0" IVar="3" Cut="1.0848017578125000e+04" cType="1" res="5.4063029587268829e-02" rms="4.3018755316734314e-01" purity="5.2467751502990723e-01" nType="0">
            <Node pos="l" depth="3" NCoef="0" IVar="-1" Cut="0.0000000000000000e+00" cType="1" res="8.1307878717780113e-03" rms="4.5181179046630859e-01" purity="3.5725980997085571e-01" nType="-99"/>
            <Node pos="r" depth="3" NCoef="0" IVar="-1" Cut="0.0000000000000000e+00" cType="1" res="4.0130087290890515e-04" rms="4.1756385564804077e-01" purity="5.6666141748428345e-01" nType="-99"/>
          </Node>
          <Node pos="r" depth="2" NCoef="0" IVar="5" Cut="9.0614156250000000e+04" cType="1" res="9.8777748644351959e-02" rms="1.4687907695770264e-01" purity="9.7569388151168823e-01" nType="0">
            <Node pos="l" depth="3" NCoef="0" IVar="-1" Cut="0.0000000000000000e+00" cType="1" res="1.5664603561162949e-03" rms="1.6352246701717377e-01" purity="9.6989470720291138e-01" nType="-99"/>
            <Node pos="r" depth="3" NCoef="0" IVar="-1" Cut="0.0000000000000000e+00" cType="1" res="1.7227430362254381e-03" rms="1.2943635880947113e-01" purity="9.8095291852951050e-01" nType="-99"/>
          </Node>
        </Node>
      </Node>
    </BinaryTree>
    <BinaryTree type="DecisionTree" boostWeight="1.0000000000000000e+00" itree="540">
      <Node pos="s" depth="0" NCoef="0" IVar="3" Cut="4.4463175781250000e+04" cType="1" res="4.1559182107448578e-02" rms="2.5172880291938782e-01" purity="5.1608330011367798e-01" nType="0">
        <Node pos="l" depth="1" NCoef="0" IVar="1" Cut="9.3801101562500000e+04" cType="1" res="7.7817589044570923e-03" rms="2.6099184155464172e-01" purity="1.6465552151203156e-01" nType="0">
          <Node pos="l" depth="2" NCoef="0" IVar="3" Cut="4.3950761718750000e+03" cType="1" res="-1.1734618805348873e-02" rms="1.9904802739620209e-01" purity="6.6584751009941101e-02" nType="0">
            <Node pos="l" depth="3" NCoef="0" IVar="-1" Cut="0.0000000000000000e+00" cType="1" res="3.4910514950752258e-02" rms="2.6794981956481934e-01" purity="8.7738133966922760e-02" nType="-99"/>
            <Node pos="r" depth="3" NCoef="0" IVar="-1" Cut="0.0000000000000000e+00" cType="1" res="-2.3687435314059258e-03" rms="1.9259531795978546e-01" purity="6.5223589539527893e-02" nType="-99"/>
          </Node>
          <Node pos="r" depth="2" NCoef="0" IVar="0" Cut="2.3333332538604736e+00" cType="1" res="4.4824838638305664e-02" rms="3.4656837582588196e-01" purity="3.5079878568649292e-01" nType="0">
            <Node pos="l" depth="3" NCoef="0" IVar="-1" Cut="0.0000000000000000e+00" cType="1" res="9.6526951529085636e-04" rms="3.3470743894577026e-01" purity="3.1892442703247070e-01" nType="-99"/>
            <Node pos="r" depth="3" NCoef="0" IVar="-1" Cut="0.0000000000000000e+00" cType="1" res="5.8459308929741383e-03" rms="4.0775159001350403e-01" purity="6.9710654020309448e-01" nType="-99"/>
          </Node>
        </Node>
        <Node pos="r" depth="1" NCoef="0" IVar="4" Cut="3.7879087500000000e+05" cType="1" res="7.7998325228691101e-02" rms="2.3597705364227295e-01" purity="8.9520424604415894e-01" nType="0">
          <Node pos="l" depth="2" NCoef="0" IVar="0" Cut="2.8571429848670959e-01" cType="1" res="5.5688500404357910e-02" rms="2.8469961881637573e-01" purity="8.3239877223968506e-01" nType="0">
            <Node pos="l" depth="3" NCoef="0" IVar="-1" Cut="0.0000000000000000e+00" cType="1" res="1.3359882868826389e-03" rms="2.5239229202270508e-01" purity="8.6839514970779419e-01" nType="-99"/>
            <Node pos="r" depth="3" NCoef="0" IVar="-1" Cut="0.0000000000000000e+00" cType="1" res="1.1782548244809732e-04" rms="3.1828701496124268e-01" purity="7.8213995695114136e-01" nType="-99"/>
          </Node>
          <Node pos="r" depth="2" NCoef="0" IVar="2" Cut="3.1114209375000000e+05" cType="1" res="9.5937080681324005e-02" rms="1.8591623008251190e-01" purity="9.4570440053939819e-01" nType="0">
            <Node pos="l" depth="3" NCoef="0" IVar="-1" Cut="0.0000000000000000e+00" cType="1" res="1.7423103563487530e-03" rms="1.9812119007110596e-01" purity="9.4847583770751953e-01" nType="-99"/>
            <Node pos="r" depth="3" NCoef="0" IVar="-1" Cut="0.0000000000000000e+00" cType="1" res="9.1951445210725069e-04" rms="1.7849627137184143e-01" purity="9.4454884529113770e-01" nType="-99"/>
          </Node>
        </Node>
      </Node>
    </BinaryTree>
    <BinaryTree type="DecisionTree" boostWeight="1.0000000000000000e+00" itree="541">
      <Node pos="s" depth="0" NCoef="0" IVar="3" Cut="4.4570152343750000e+04" cType="1" res="5.0088390707969666e-02" rms="2.5396600365638733e-01" purity="5.1970827579498291e-01" nType="0">
        <Node pos="l" depth="1" NCoef="0" IVar="4" Cut="3.7133778125000000e+05" cType="1" res="2.3741692304611206e-02" rms="2.7367499470710754e-01" purity="1.8669162690639496e-01" nType="0">
          <Node pos="l" depth="2" NCoef="0" IVar="1" Cut="1.1348081250000000e+05" cType="1" res="1.1102018877863884e-02" rms="2.5546571612358093e-01" purity="1.2728130817413330e-01" nType="0">
            <Node pos="l" depth="3" NCoef="0" IVar="-1" Cut="0.0000000000000000e+00" cType="1" res="3.6565342452377081e-04" rms="2.2709092497825623e-01" purity="6.8777270615100861e-02" nType="-99"/>
            <Node pos="r" depth="3" NCoef="0" IVar="-1" Cut="0.0000000000000000e+00" cType="1" res="1.4718126039952040e-03" rms="4.2808368802070618e-01" purity="6.6487109661102295e-01" nType="-99"/>
          </Node>
          <Node pos="r" depth="2" NCoef="0" IVar="2" Cut="2.8719584375000000e+05" cType="1" res="8.0200508236885071e-02" rms="3.3769145607948303e-01" purity="4.5206528902053833e-01" nType="0">
            <Node pos="l" depth="3" NCoef="0" IVar="-1" Cut="0.0000000000000000e+00" cType="1" res="3.0910696368664503e-03" rms="3.8057011365890503e-01" purity="4.6410879492759705e-01" nType="-99"/>
            <Node pos="r" depth="3" NCoef="0" IVar="-1" Cut="0.0000000000000000e+00" cType="1" res="7.2119844844564795e-04" rms="3.1382709741592407e-01" purity="4.4843083620071411e-01" nType="-99"/>
          </Node>
        </Node>
        <Node pos="r" depth="1" NCoef="0" IVar="1" Cut="1.3174604687500000e+05" cType="1" res="8.0194823443889618e-02" rms="2.2564540803432465e-01" purity="9.0024715662002563e-01" nType="0">
          <Node pos="l" depth="2" NCoef="0" IVar="1" Cut="9.7484406250000000e+04" cType="1" res="6.8796277046203613e-02" rms="2.6099115610122681e-01" purity="8.5791945457458496e-01" nType="0">
            <Node pos="l" depth="3" NCoef="0" IVar="-1" Cut="0.0000000000000000e+00" cType="1" res="6.9168885238468647e-04" rms="2.8247311711311340e-01" purity="8.1640446186065674e-01" nType="-99"/>
            <Node pos="r" depth="3" NCoef="0" IVar="-1" Cut="0.0000000000000000e+00" cType="1" res="1.3409893726930022e-03" rms="1.9921268522739410e-01" purity="9.5054852962493896e-01" nType="-99"/>
          </Node>
          <Node pos="r" depth="2" NCoef="0" IVar="-1" Cut="0.0000000000000000e+00" cType="1" res="1.4669913798570633e-03" rms="1.2845522165298462e-01" purity="9.8308682441711426e-01" nType="-99"/>
        </Node>
      </Node>
    </BinaryTree>
    <BinaryTree type="DecisionTree" boostWeight="1.0000000000000000e+00" itree="542">
      <Node pos="s" depth="0" NCoef="0" IVar="1" Cut="1.0035560937500000e+05" cType="1" res="4.2992450296878815e-02" rms="2.6658341288566589e-01" purity="4.9675112962722778e-01" nType="0">
        <Node pos="l" depth="1" NCoef="0" IVar="1" Cut="8.3528140625000000e+04" cType="1" res="1.7612783238291740e-02" rms="2.6832187175750732e-01" purity="3.0575001239776611e-01" nType="0">
          <Node pos="l" depth="2" NCoef="0" IVar="4" Cut="1.4680128125000000e+05" cType="1" res="5.6421257555484772e-02" rms="3.3447802066802979e-01" purity="5.6846529245376587e-01" nType="0">
            <Node pos="l" depth="3" NCoef="0" IVar="-1" Cut="0.0000000000000000e+00" cType="1" res="-1.8278253264725208e-03" rms="3.9700886607170105e-01" purity="2.2703252732753754e-01" nType="-99"/>
            <Node pos="r" depth="3" NCoef="0" IVar="-1" Cut="0.0000000000000000e+00" cType="1" res="1.5694792382419109e-03" rms="3.2010442018508911e-01" purity="6.2379127740859985e-01" nType="-99"/>
          </Node>
          <Node pos="r" depth="2" NCoef="0" IVar="3" Cut="6.5456371093750000e+04" cType="1" res="-9.4224233180284500e-03" rms="2.0599904656410217e-01" purity="1.2273423373699188e-01" nType="0">
            <Node pos="l" depth="3" NCoef="0" IVar="-1" Cut="0.0000000000000000e+00" cType="1" res="-7.1505978703498840e-03" rms="1.7683245241641998e-01" purity="3.2523456960916519e-02" nType="-99"/>
            <Node pos="r" depth="3" NCoef="0" IVar="-1" Cut="0.0000000000000000e+00" cType="1" res="7.1208807639777660e-04" rms="3.5379305481910706e-01" purity="8.3777487277984619e-01" nType="-99"/>
          </Node>
        </Node>
        <Node pos="r" depth="1" NCoef="0" IVar="3" Cut="4.8892753906250000e+04" cType="1" res="9.0538516640663147e-02" rms="2.5662681460380554e-01" purity="8.5457104444503784e-01" nType="0">
          <Node pos="l" depth="2" NCoef="0" IVar="0" Cut="1.3333333730697632e+00" cType="1" res="6.0203585773706436e-02" rms="3.9952021837234497e-01" purity="5.9819108247756958e-01" nType="0">
            <Node pos="l" depth="3" NCoef="0" IVar="-1" Cut="0.0000000000000000e+00" cType="1" res="7.3923607124015689e-04" rms="3.8742116093635559e-01" purity="5.5279994010925293e-01" nType="-99"/>
            <Node pos="r" depth="3" NCoef="0" IVar="-1" Cut="0.0000000000000000e+00" cType="1" res="2.5313997175544500e-03" rms="4.2905098199844360e-01" purity="7.4938845634460449e-01" nType="-99"/>
          </Node>
          <Node pos="r" depth="2" NCoef="0" IVar="0" Cut="1.1428571939468384e+00" cType="1" res="1.0551609098911285e-01" rms="1.3742637634277344e-01" purity="9.8115605115890503e-01" nType="0">
            <Node pos="l" depth="3" NCoef="0" IVar="-1" Cut="0.0000000000000000e+00" cType="1" res="1.5915525145828724e-03" rms="1.2891669571399689e-01" purity="9.8402041196823120e-01" nType="-99"/>
            <Node pos="r" depth="3" NCoef="0" IVar="-1" Cut="0.0000000000000000e+00" cType="1" res="1.1193007230758667e-03" rms="1.4704443514347076e-01" purity="9.7736412286758423e-01" nType="-99"/>
          </Node>
        </Node>
      </Node>
    </BinaryTree>
    <BinaryTree type="DecisionTree" boostWeight="1.0000000000000000e+00" itree="543">
      <Node pos="s" depth="0" NCoef="0" IVar="3" Cut="7.5557476562500000e+04" cType="1" res="5.1490567624568939e-02" rms="2.7595075964927673e-01" purity="5.0349920988082886e-01" nType="0">
        <Node pos="l" depth="1" NCoef="0" IVar="3" Cut="1.4436657226562500e+04" cType="1" res="3.6302786320447922e-02" rms="3.1014150381088257e-01" purity="3.1965276598930359e-01" nType="0">
          <Node pos="l" depth="2" NCoef="0" IVar="5" Cut="9.4387093750000000e+04" cType="1" res="4.1098878718912601e-03" rms="1.8106980621814728e-01" purity="5.3438369184732437e-02" nType="0">
            <Node pos="l" depth="3" NCoef="0" IVar="-1" Cut="0.0000000000000000e+00" cType="1" res="-1.1006701970472932e-03" rms="1.5101492404937744e-01" purity="4.3829172849655151e-02" nType="-99"/>
            <Node pos="r" depth="3" NCoef="0" IVar="-1" Cut="0.0000000000000000e+00" cType="1" res="3.6394167691469193e-02" rms="4.1644605994224548e-01" purity="2.1670843660831451e-01" nType="-99"/>
          </Node>
          <Node pos="r" depth="2" NCoef="0" IVar="3" Cut="1.7348363281250000e+04" cType="1" res="4.7667633742094040e-02" rms="3.4362033009529114e-01" purity="4.1363266110420227e-01" nType="0">
            <Node pos="l" depth="3" NCoef="0" IVar="-1" Cut="0.0000000000000000e+00" cType="1" res="4.0945610962808132e-03" rms="4.0676778554916382e-01" purity="2.8339701890945435e-01" nType="-99"/>
            <Node pos="r" depth="3" NCoef="0" IVar="-1" Cut="0.0000000000000000e+00" cType="1" res="8.4002083167433739e-04" rms="3.3236715197563171e-01" purity="4.2984750866889954e-01" nType="-99"/>
          </Node>
        </Node>
        <Node pos="r" depth="1" NCoef="0" IVar="1" Cut="9.7062726562500000e+04" cType="1" res="9.0440101921558380e-02" rms="1.5049839019775391e-01" purity="9.7497892379760742e-01" nType="0">
          <Node pos="l" depth="2" NCoef="0" IVar="1" Cut="8.5251945312500000e+04" cType="1" res="7.9205855727195740e-02" rms="1.8744388222694397e-01" purity="9.5930761098861694e-01" nType="0">
            <Node pos="l" depth="3" NCoef="0" IVar="-1" Cut="0.0000000000000000e+00" cType="1" res="1.7281960463151336e-03" rms="1.4920015633106232e-01" purity="9.7634619474411011e-01" nType="-99"/>
            <Node pos="r" depth="3" NCoef="0" IVar="-1" Cut="0.0000000000000000e+00" cType="1" res="-8.5175782442092896e-04" rms="3.9063829183578491e-01" purity="7.8146606683731079e-01" nType="-99"/>
          </Node>
          <Node pos="r" depth="2" NCoef="0" IVar="0" Cut="1.3333333730697632e+00" cType="1" res="9.9505566060543060e-02" rms="1.1131315678358078e-01" purity="9.8762488365173340e-01" nType="0">
            <Node pos="l" depth="3" NCoef="0" IVar="-1" Cut="0.0000000000000000e+00" cType="1" res="1.7453577602282166e-03" rms="9.8502553999423981e-02" purity="9.9085038900375366e-01" nType="-99"/>
            <Node pos="r" depth="3" NCoef="0" IVar="-1" Cut="0.0000000000000000e+00" cType="1" res="1.8096045823767781e-03" rms="1.2579612433910370e-01" purity="9.8329919576644897e-01" nType="-99"/>
          </Node>
        </Node>
      </Node>
    </BinaryTree>
    <BinaryTree type="DecisionTree" boostWeight="1.0000000000000000e+00" itree="544">
      <Node pos="s" depth="0" NCoef="0" IVar="1" Cut="9.4830695312500000e+04" cType="1" res="5.0807859748601913e-02" rms="2.6524141430854797e-01" purity="5.0074946880340576e-01" nType="0">
        <Node pos="l" depth="1" NCoef="0" IVar="1" Cut="6.7219445312500000e+04" cType="1" res="2.2242875769734383e-02" rms="2.5719404220581055e-01" purity="3.2302373647689819e-01" nType="0">
          <Node pos="l" depth="2" NCoef="0" IVar="1" Cut="3.3011066406250000e+04" cType="1" res="8.6415968835353851e-02" rms="3.4007754921913147e-01" purity="6.4986503124237061e-01" nType="0">
            <Node pos="l" depth="3" NCoef="0" IVar="-1" Cut="0.0000000000000000e+00" cType="1" res="-9.1168604558333755e-04" rms="3.5198679566383362e-01" purity="2.9154238104820251e-01" nType="-99"/>
            <Node pos="r" depth="3" NCoef="0" IVar="-1" Cut="0.0000000000000000e+00" cType="1" res="2.1196904126554728e-03" rms="3.2907238602638245e-01" purity="7.6615464687347412e-01" nType="-99"/>
          </Node>
          <Node pos="r" depth="2" NCoef="0" IVar="3" Cut="7.5765054687500000e+04" cType="1" res="-3.9040253031998873e-03" rms="2.0884712040424347e-01" purity="1.8985445797443390e-01" nType="0">
            <Node pos="l" depth="3" NCoef="0" IVar="-1" Cut="0.0000000000000000e+00" cType="1" res="-1.5025959582999349e-03" rms="2.0258645713329315e-01" purity="8.7187312543392181e-02" nType="-99"/>
            <Node pos="r" depth="3" NCoef="0" IVar="-1" Cut="0.0000000000000000e+00" cType="1" res="1.0928581468760967e-03" rms="2.3875939846038818e-01" purity="9.3296569585800171e-01" nType="-99"/>
          </Node>
        </Node>
        <Node pos="r" depth="1" NCoef="0" IVar="1" Cut="1.3230135937500000e+05" cType="1" res="9.0021505951881409e-02" rms="2.7104735374450684e-01" purity="7.4472916126251221e-01" nType="0">
          <Node pos="l" depth="2" NCoef="0" IVar="1" Cut="1.0017071093750000e+05" cType="1" res="7.3140501976013184e-02" rms="3.1268456578254700e-01" purity="5.0203537940979004e-01" nType="0">
            <Node pos="l" depth="3" NCoef="0" IVar="-1" Cut="0.0000000000000000e+00" cType="1" res="-1.3746757758781314e-03" rms="2.0039151608943939e-01" purity="1.7250798642635345e-01" nType="-99"/>
            <Node pos="r" depth="3" NCoef="0" IVar="-1" Cut="0.0000000000000000e+00" cType="1" res="2.3507366422563791e-03" rms="3.5297462344169617e-01" purity="6.9808310270309448e-01" nType="-99"/>
          </Node>
          <Node pos="r" depth="2" NCoef="0" IVar="5" Cut="8.8759148437500000e+04" cType="1" res="1.0293431580066681e-01" rms="2.3343159258365631e-01" purity="9.3037325143814087e-01" nType="0">
            <Node pos="l" depth="3" NCoef="0" IVar="-1" Cut="0.0000000000000000e+00" cType="1" res="1.8851649947464466e-03" rms="2.1789719164371490e-01" purity="9.5621526241302490e-01" nType="-99"/>
            <Node pos="r" depth="3" NCoef="0" IVar="-1" Cut="0.0000000000000000e+00" cType="1" res="9.6522597596049309e-04" rms="2.3935554921627045e-01" purity="9.1564816236495972e-01" nType="-99"/>
          </Node>
        </Node>
      </Node>
    </BinaryTree>
    <BinaryTree type="DecisionTree" boostWeight="1.0000000000000000e+00" itree="545">
      <Node pos="s" depth="0" NCoef="0" IVar="4" Cut="3.5197456250000000e+05" cType="1" res="4.7278504818677902e-02" rms="2.7063894271850586e-01" purity="4.8635199666023254e-01" nType="0">
        <Node pos="l" depth="1" NCoef="0" IVar="3" Cut="4.0218890625000000e+04" cType="1" res="2.9781464487314224e-02" rms="2.6377871632575989e-01" purity="3.5221779346466064e-01" nType="0">
          <Node pos="l" depth="2" NCoef="0" IVar="2" Cut="1.7165468750000000e+05" cType="1" res="9.1827334836125374e-03" rms="2.4092167615890503e-01" purity="1.1601340770721436e-01" nType="0">
            <Node pos="l" depth="3" NCoef="0" IVar="-1" Cut="0.0000000000000000e+00" cType="1" res="2.7886275202035904e-03" rms="4.0654662251472473e-01" purity="2.2908724844455719e-01" nType="-99"/>
            <Node pos="r" depth="3" NCoef="0" IVar="-1" Cut="0.0000000000000000e+00" cType="1" res="1.7270082025788724e-04" rms="2.2058567404747009e-01" purity="1.0690538585186005e-01" nType="-99"/>
          </Node>
          <Node pos="r" depth="2" NCoef="0" IVar="5" Cut="9.0560445312500000e+04" cType="1" res="6.8627789616584778e-02" rms="2.9837089776992798e-01" purity="7.9766607284545898e-01" nType="0">
            <Node pos="l" depth="3" NCoef="0" IVar="-1" Cut="0.0000000000000000e+00" cType="1" res="1.6526588005945086e-03" rms="2.8425192832946777e-01" purity="8.5122686624526978e-01" nType="-99"/>
            <Node pos="r" depth="3" NCoef="0" IVar="-1" Cut="0.0000000000000000e+00" cType="1" res="5.7373772142454982e-04" rms="3.0810675024986267e-01" purity="7.4147486686706543e-01" nType="-99"/>
          </Node>
        </Node>
        <Node pos="r" depth="1" NCoef="0" IVar="2" Cut="5.1454521875000000e+05" cType="1" res="8.1668913364410400e-02" rms="2.8047633171081543e-01" purity="7.4999260902404785e-01" nType="0">
          <Node pos="l" depth="2" NCoef="0" IVar="4" Cut="4.8338737500000000e+05" cType="1" res="1.0035505890846252e-01" rms="2.9129770398139954e-01" purity="7.3809087276458740e-01" nType="0">
            <Node pos="l" depth="3" NCoef="0" IVar="-1" Cut="0.0000000000000000e+00" cType="1" res="1.2536930153146386e-03" rms="2.7375045418739319e-01" purity="6.8044960498809814e-01" nType="-99"/>
            <Node pos="r" depth="3" NCoef="0" IVar="-1" Cut="0.0000000000000000e+00" cType="1" res="1.3071694411337376e-03" rms="3.0378878116607666e-01" purity="7.9449743032455444e-01" nType="-99"/>
          </Node>
          <Node pos="r" depth="2" NCoef="0" IVar="3" Cut="4.9153480468750000e+04" cType="1" res="3.4820042550563812e-02" rms="2.4512052536010742e-01" purity="7.7983194589614868e-01" nType="0">
            <Node pos="l" depth="3" NCoef="0" IVar="-1" Cut="0.0000000000000000e+00" cType="1" res="-7.8578514512628317e-04" rms="3.2237827777862549e-01" purity="4.3082562088966370e-01" nType="-99"/>
            <Node pos="r" depth="3" NCoef="0" IVar="-1" Cut="0.0000000000000000e+00" cType="1" res="1.2823956785723567e-03" rms="1.8595673143863678e-01" purity="9.5151484012603760e-01" nType="-99"/>
          </Node>
        </Node>
      </Node>
    </BinaryTree>
    <BinaryTree type="DecisionTree" boostWeight="1.0000000000000000e+00" itree="546">
      <Node pos="s" depth="0" NCoef="0" IVar="1" Cut="1.0034389062500000e+05" cType="1" res="4.7860790044069290e-02" rms="2.6791483163833618e-01" purity="5.1107919216156006e-01" nType="0">
        <Node pos="l" depth="1" NCoef="0" IVar="1" Cut="8.3508281250000000e+04" cType="1" res="2.5105465203523636e-02" rms="2.7076601982116699e-01" purity="3.1825882196426392e-01" nType="0">
          <Node pos="l" depth="2" NCoef="0" IVar="1" Cut="2.9027517578125000e+04" cType="1" res="7.5004681944847107e-02" rms="3.3684888482093811e-01" purity="5.9135329723358154e-01" nType="0">
            <Node pos="l" depth="3" NCoef="0" IVar="-1" Cut="0.0000000000000000e+00" cType="1" res="-6.6956592490896583e-04" rms="3.0809617042541504e-01" purity="3.8929319381713867e-01" nType="-99"/>
            <Node pos="r" depth="3" NCoef="0" IVar="-1" Cut="0.0000000000000000e+00" cType="1" res="2.0345498342067003e-03" rms="3.3859154582023621e-01" purity="6.2157744169235229e-01" nType="-99"/>
          </Node>
          <Node pos="r" depth="2" NCoef="0" IVar="3" Cut="8.5147609375000000e+04" cType="1" res="-1.1654401198029518e-02" rms="2.0136712491512299e-01" purity="1.1707492172718048e-01" nType="0">
            <Node pos="l" depth="3" NCoef="0" IVar="-1" Cut="0.0000000000000000e+00" cType="1" res="-3.7197982892394066e-03" rms="1.9376702606678009e-01" purity="5.6287113577127457e-02" nType="-99"/>
            <Node pos="r" depth="3" NCoef="0" IVar="-1" Cut="0.0000000000000000e+00" cType="1" res="9.1754260938614607e-04" rms="2.6575741171836853e-01" purity="9.1986608505249023e-01" nType="-99"/>
          </Node>
        </Node>
        <Node pos="r" depth="1" NCoef="0" IVar="5" Cut="8.7914164062500000e+04" cType="1" res="8.8553957641124725e-02" rms="2.5777864456176758e-01" purity="8.5589832067489624e-01" nType="0">
          <Node pos="l" depth="2" NCoef="0" IVar="4" Cut="2.8378228125000000e+05" cType="1" res="4.7794047743082047e-02" rms="2.5345888733863831e-01" purity="8.2932847738265991e-01" nType="0">
            <Node pos="l" depth="3" NCoef="0" IVar="-1" Cut="0.0000000000000000e+00" cType="1" res="-5.3677719552069902e-04" rms="2.7303618192672729e-01" purity="6.1034810543060303e-01" nType="-99"/>
            <Node pos="r" depth="3" NCoef="0" IVar="-1" Cut="0.0000000000000000e+00" cType="1" res="1.0524869430810213e-03" rms="2.4151206016540527e-01" purity="9.0602797269821167e-01" nType="-99"/>
          </Node>
          <Node pos="r" depth="2" NCoef="0" IVar="1" Cut="1.8448909375000000e+05" cType="1" res="9.6363246440887451e-02" rms="2.5786364078521729e-01" purity="8.6098897457122803e-01" nType="0">
            <Node pos="l" depth="3" NCoef="0" IVar="-1" Cut="0.0000000000000000e+00" cType="1" res="1.0062106885015965e-03" rms="2.7268257737159729e-01" purity="8.2487267255783081e-01" nType="-99"/>
            <Node pos="r" depth="3" NCoef="0" IVar="-1" Cut="0.0000000000000000e+00" cType="1" res="1.3883094070479274e-03" rms="2.2374826669692993e-01" purity="9.3212759494781494e-01" nType="-99"/>
          </Node>
        </Node>
      </Node>
    </BinaryTree>
    <BinaryTree type="DecisionTree" boostWeight="1.0000000000000000e+00" itree="547">
      <Node pos="s" depth="0" NCoef="0" IVar="3" Cut="8.8866960937500000e+04" cType="1" res="3.7009593099355698e-02" rms="2.5737729668617249e-01" purity="4.9533382058143616e-01" nType="0">
        <Node pos="l" depth="1" NCoef="0" IVar="5" Cut="9.3549078125000000e+04" cType="1" res="2.1429896354675293e-02" rms="2.8312602639198303e-01" purity="3.4651967883110046e-01" nType="0">
          <Node pos="l" depth="2" NCoef="0" IVar="5" Cut="8.8845765625000000e+04" cType="1" res="9.1678136959671974e-03" rms="2.7133816480636597e-01" purity="3.1603473424911499e-01" nType="0">
            <Node pos="l" depth="3" NCoef="0" IVar="-1" Cut="0.0000000000000000e+00" cType="1" res="9.8389131017029285e-04" rms="3.1498089432716370e-01" purity="5.1522278785705566e-01" nType="-99"/>
            <Node pos="r" depth="3" NCoef="0" IVar="-1" Cut="0.0000000000000000e+00" cType="1" res="-1.4869330334477127e-04" rms="2.5339797139167786e-01" purity="2.4756550788879395e-01" nType="-99"/>
          </Node>
          <Node pos="r" depth="2" NCoef="0" IVar="5" Cut="9.6805351562500000e+04" cType="1" res="9.9659927189350128e-02" rms="3.3879110217094421e-01" purity="5.4100835323333740e-01" nType="0">
            <Node pos="l" depth="3" NCoef="0" IVar="-1" Cut="0.0000000000000000e+00" cType="1" res="1.5175715088844299e-03" rms="3.1867900490760803e-01" purity="5.1228207349777222e-01" nType="-99"/>
            <Node pos="r" depth="3" NCoef="0" IVar="-1" Cut="0.0000000000000000e+00" cType="1" res="1.0229342151433229e-03" rms="4.0402495861053467e-01" purity="6.6911995410919189e-01" nType="-99"/>
          </Node>
        </Node>
        <Node pos="r" depth="1" NCoef="0" IVar="0" Cut="3.8095238804817200e-01" cType="1" res="8.7884820997714996e-02" rms="1.3196788728237152e-01" purity="9.8128402233123779e-01" nType="0">
          <Node pos="l" depth="2" NCoef="0" IVar="-1" Cut="0.0000000000000000e+00" cType="1" res="1.4653303660452366e-03" rms="8.4632642567157745e-02" purity="9.9269825220108032e-01" nType="-99"/>
          <Node pos="r" depth="2" NCoef="0" IVar="1" Cut="9.9865812500000000e+04" cType="1" res="8.0890960991382599e-02" rms="1.5216746926307678e-01" purity="9.7474491596221924e-01" nType="0">
            <Node pos="l" depth="3" NCoef="0" IVar="-1" Cut="0.0000000000000000e+00" cType="1" res="1.1410480365157127e-03" rms="2.0024374127388000e-01" purity="9.5446610450744629e-01" nType="-99"/>
            <Node pos="r" depth="3" NCoef="0" IVar="-1" Cut="0.0000000000000000e+00" cType="1" res="1.9570270087569952e-03" rms="1.0587747395038605e-01" purity="9.8860049247741699e-01" nType="-99"/>
          </Node>
        </Node>
      </Node>
    </BinaryTree>
    <BinaryTree type="DecisionTree" boostWeight="1.0000000000000000e+00" itree="548">
      <Node pos="s" depth="0" NCoef="0" IVar="1" Cut="1.0034389062500000e+05" cType="1" res="4.0220268070697784e-02" rms="2.6654952764511108e-01" purity="5.0143146514892578e-01" nType="0">
        <Node pos="l" depth="1" NCoef="0" IVar="1" Cut="7.5099921875000000e+04" cType="1" res="1.9308499991893768e-02" rms="2.6056984066963196e-01" purity="3.3551391959190369e-01" nType="0">
          <Node pos="l" depth="2" NCoef="0" IVar="1" Cut="4.5052363281250000e+04" cType="1" res="5.8517724275588989e-02" rms="3.2025894522666931e-01" purity="6.7466861009597778e-01" nType="0">
            <Node pos="l" depth="3" NCoef="0" IVar="-1" Cut="0.0000000000000000e+00" cType="1" res="-6.6184211755171418e-04" rms="2.9357916116714478e-01" purity="5.2768439054489136e-01" nType="-99"/>
            <Node pos="r" depth="3" NCoef="0" IVar="-1" Cut="0.0000000000000000e+00" cType="1" res="1.8342419061809778e-03" rms="3.2573619484901428e-01" purity="7.6444125175476074e-01" nType="-99"/>
          </Node>
          <Node pos="r" depth="2" NCoef="0" IVar="2" Cut="5.0743915625000000e+05" cType="1" res="-1.4877021312713623e-03" rms="2.1968288719654083e-01" purity="1.5562945604324341e-01" nType="0">
            <Node pos="l" depth="3" NCoef="0" IVar="-1" Cut="0.0000000000000000e+00" cType="1" res="2.4939925060607493e-04" rms="2.1935544908046722e-01" purity="1.5446393191814423e-01" nType="-99"/>
            <Node pos="r" depth="3" NCoef="0" IVar="-1" Cut="0.0000000000000000e+00" cType="1" res="-8.0455085262656212e-03" rms="2.0531536638736725e-01" purity="1.7862145602703094e-01" nType="-99"/>
          </Node>
        </Node>
        <Node pos="r" depth="1" NCoef="0" IVar="1" Cut="1.8447948437500000e+05" cType="1" res="8.3215214312076569e-02" rms="2.7346220612525940e-01" purity="8.4256070852279663e-01" nType="0">
          <Node pos="l" depth="2" NCoef="0" IVar="2" Cut="3.7135203125000000e+05" cType="1" res="9.3853853642940521e-02" rms="2.8236344456672668e-01" purity="8.0884677171707153e-01" nType="0">
            <Node pos="l" depth="3" NCoef="0" IVar="-1" Cut="0.0000000000000000e+00" cType="1" res="1.0016526794061065e-03" rms="2.9298821091651917e-01" purity="7.6192188262939453e-01" nType="-99"/>
            <Node pos="r" depth="3" NCoef="0" IVar="-1" Cut="0.0000000000000000e+00" cType="1" res="2.0900133531540632e-03" rms="2.5742000341415405e-01" purity="9.0123695135116577e-01" nType="-99"/>
          </Node>
          <Node pos="r" depth="2" NCoef="0" IVar="5" Cut="9.0733234375000000e+04" cType="1" res="6.1194956302642822e-02" rms="2.5262978672981262e-01" purity="9.1234302520751953e-01" nType="0">
            <Node pos="l" depth="3" NCoef="0" IVar="-1" Cut="0.0000000000000000e+00" cType="1" res="9.0726104099303484e-04" rms="2.7298101782798767e-01" purity="9.0394872426986694e-01" nType="-99"/>
            <Node pos="r" depth="3" NCoef="0" IVar="-1" Cut="0.0000000000000000e+00" cType="1" res="7.1655010106042027e-04" rms="2.2601585090160370e-01" purity="9.2233699560165405e-01" nType="-99"/>
          </Node>
        </Node>
      </Node>
    </BinaryTree>
    <BinaryTree type="DecisionTree" boostWeight="1.0000000000000000e+00" itree="549">
      <Node pos="s" depth="0" NCoef="0" IVar="1" Cut="1.0034389062500000e+05" cType="1" res="4.2894445359706879e-02" rms="2.6594319939613342e-01" purity="5.0174480676651001e-01" nType="0">
        <Node pos="l" depth="1" NCoef="0" IVar="1" Cut="5.4068316406250000e+04" cType="1" res="1.9625080749392509e-02" rms="2.5737380981445312e-01" purity="3.1747788190841675e-01" nType="0">
          <Node pos="l" depth="2" NCoef="0" IVar="1" Cut="2.0012195312500000e+04" cType="1" res="8.9519545435905457e-02" rms="3.2768750190734863e-01" purity="6.6099500656127930e-01" nType="0">
            <Node pos="l" depth="3" NCoef="0" IVar="-1" Cut="0.0000000000000000e+00" cType="1" res="-3.1044119969010353e-03" rms="2.1173782646656036e-01" purity="2.6977175474166870e-01" nType="-99"/>
            <Node pos="r" depth="3" NCoef="0" IVar="-1" Cut="0.0000000000000000e+00" cType="1" res="1.8835805822163820e-03" rms="3.3466249704360962e-01" purity="7.0674270391464233e-01" nType="-99"/>
          </Node>
          <Node pos="r" depth="2" NCoef="0" IVar="3" Cut="9.8094867187500000e+04" cType="1" res="1.0519254719838500e-03" rms="2.3166041076183319e-01" purity="2.2619460523128510e-01" nType="0">
            <Node pos="l" depth="3" NCoef="0" IVar="-1" Cut="0.0000000000000000e+00" cType="1" res="-7.8326452057808638e-04" rms="2.3574161529541016e-01" purity="1.3492058217525482e-01" nType="-99"/>
            <Node pos="r" depth="3" NCoef="0" IVar="-1" Cut="0.0000000000000000e+00" cType="1" res="1.5452633379027247e-03" rms="1.7052446305751801e-01" purity="9.7029381990432739e-01" nType="-99"/>
          </Node>
        </Node>
        <Node pos="r" depth="1" NCoef="0" IVar="0" Cut="3.8095238804817200e-01" cType="1" res="8.6231447756290436e-02" rms="2.7602756023406982e-01" purity="8.4492456912994385e-01" nType="0">
          <Node pos="l" depth="2" NCoef="0" IVar="3" Cut="2.4201152343750000e+04" cType="1" res="0.0000000000000000e+00" rms="0.0000000000000000e+00" purity="8.1246662139892578e-01" nType="0">
            <Node pos="l" depth="3" NCoef="0" IVar="-1" Cut="0.0000000000000000e+00" cType="1" res="6.2537891790270805e-04" rms="3.6689028143882751e-01" purity="4.2254728078842163e-01" nType="-99"/>
            <Node pos="r" depth="3" NCoef="0" IVar="-1" Cut="0.0000000000000000e+00" cType="1" res="1.9684114959090948e-03" rms="2.7234789729118347e-01" purity="9.1579908132553101e-01" nType="-99"/>
          </Node>
          <Node pos="r" depth="2" NCoef="0" IVar="3" Cut="3.7803515625000000e+04" cType="1" res="6.2024623155593872e-02" rms="2.5453799962997437e-01" purity="8.7100112438201904e-01" nType="0">
            <Node pos="l" depth="3" NCoef="0" IVar="-1" Cut="0.0000000000000000e+00" cType="1" res="-1.9430104293860495e-04" rms="4.1336923837661743e-01" purity="5.2318382263183594e-01" nType="-99"/>
            <Node pos="r" depth="3" NCoef="0" IVar="-1" Cut="0.0000000000000000e+00" cType="1" res="9.3390751862898469e-04" rms="1.9523778557777405e-01" purity="9.5378017425537109e-01" nType="-99"/>
          </Node>
        </Node>
      </Node>
    </BinaryTree>
    <BinaryTree type="DecisionTree" boostWeight="1.0000000000000000e+00" itree="550">
      <Node pos="s" depth="0" NCoef="0" IVar="1" Cut="1.0037520312500000e+05" cType="1" res="4.6444363892078400e-02" rms="2.6892587542533875e-01" purity="4.9773836135864258e-01" nType="0">
        <Node pos="l" depth="1" NCoef="0" IVar="1" Cut="8.3538945312500000e+04" cType="1" res="2.3810669779777527e-02" rms="2.6776942610740662e-01" purity="3.0901062488555908e-01" nType="0">
          <Node pos="l" depth="2" NCoef="0" IVar="1" Cut="3.9272472656250000e+04" cType="1" res="7.3757603764533997e-02" rms="3.3447915315628052e-01" purity="5.8859032392501831e-01" nType="0">
            <Node pos="l" depth="3" NCoef="0" IVar="-1" Cut="0.0000000000000000e+00" cType="1" res="-3.3350728335790336e-04" rms="2.6366001367568970e-01" purity="4.6145203709602356e-01" nType="-99"/>
            <Node pos="r" depth="3" NCoef="0" IVar="-1" Cut="0.0000000000000000e+00" cType="1" res="1.8103233305737376e-03" rms="3.4812375903129578e-01" purity="6.2435436248779297e-01" nType="-99"/>
          </Node>
          <Node pos="r" depth="2" NCoef="0" IVar="3" Cut="3.8027597656250000e+04" cType="1" res="-1.3922699727118015e-02" rms="1.9503943622112274e-01" purity="9.7796760499477386e-02" nType="0">
            <Node pos="l" depth="3" NCoef="0" IVar="-1" Cut="0.0000000000000000e+00" cType="1" res="1.9546640105545521e-03" rms="1.4992204308509827e-01" purity="2.3647764697670937e-02" nType="-99"/>
            <Node pos="r" depth="3" NCoef="0" IVar="-1" Cut="0.0000000000000000e+00" cType="1" res="-2.5395969860255718e-03" rms="3.0737766623497009e-01" purity="3.9007550477981567e-01" nType="-99"/>
          </Node>
        </Node>
        <Node pos="r" depth="1" NCoef="0" IVar="4" Cut="4.6507959375000000e+05" cType="1" res="8.8558174669742584e-02" rms="2.6598721742630005e-01" purity="8.4889823198318481e-01" nType="0">
          <Node pos="l" depth="2" NCoef="0" IVar="2" Cut="2.3285745312500000e+05" cType="1" res="7.1601204574108124e-02" rms="2.8925928473472595e-01" purity="7.8265935182571411e-01" nType="0">
            <Node pos="l" depth="3" NCoef="0" IVar="-1" Cut="0.0000000000000000e+00" cType="1" res="-2.4881658609956503e-03" rms="2.1424567699432373e-01" purity="3.7806540727615356e-01" nType="-99"/>
            <Node pos="r" depth="3" NCoef="0" IVar="-1" Cut="0.0000000000000000e+00" cType="1" res="8.4023037925362587e-04" rms="2.9145643115043640e-01" purity="8.1661248207092285e-01" nType="-99"/>
          </Node>
          <Node pos="r" depth="2" NCoef="0" IVar="3" Cut="5.4691812500000000e+04" cType="1" res="1.1312083899974823e-01" rms="2.2585806250572205e-01" purity="9.4484704732894897e-01" nType="0">
            <Node pos="l" depth="3" NCoef="0" IVar="-1" Cut="0.0000000000000000e+00" cType="1" res="9.6148211741819978e-04" rms="3.4162566065788269e-01" purity="8.6938810348510742e-01" nType="-99"/>
            <Node pos="r" depth="3" NCoef="0" IVar="-1" Cut="0.0000000000000000e+00" cType="1" res="1.7361631616950035e-03" rms="1.2825047969818115e-01" purity="9.8287749290466309e-01" nType="-99"/>
          </Node>
        </Node>
      </Node>
    </BinaryTree>
    <BinaryTree type="DecisionTree" boostWeight="1.0000000000000000e+00" itree="551">
      <Node pos="s" depth="0" NCoef="0" IVar="3" Cut="5.4198226562500000e+04" cType="1" res="4.3995358049869537e-02" rms="2.6691576838493347e-01" purity="4.9998164176940918e-01" nType="0">
        <Node pos="l" depth="1" NCoef="0" IVar="4" Cut="1.6417432812500000e+05" cType="1" res="2.6556020602583885e-02" rms="2.8797936439514160e-01" purity="2.3882819712162018e-01" nType="0">
          <Node pos="l" depth="2" NCoef="0" IVar="2" Cut="1.4507346875000000e+05" cType="1" res="8.8067092001438141e-02" rms="3.6202904582023621e-01" purity="2.0319069921970367e-01" nType="0">
            <Node pos="l" depth="3" NCoef="0" IVar="-1" Cut="0.0000000000000000e+00" cType="1" res="3.2045366242527962e-03" rms="4.9656939506530762e-01" purity="4.9865800142288208e-01" nType="-99"/>
            <Node pos="r" depth="3" NCoef="0" IVar="-1" Cut="0.0000000000000000e+00" cType="1" res="1.6470834380015731e-03" rms="2.7318289875984192e-01" purity="1.2577375769615173e-01" nType="-99"/>
          </Node>
          <Node pos="r" depth="2" NCoef="0" IVar="3" Cut="4.6460363281250000e+04" cType="1" res="1.3767045922577381e-02" rms="2.6828050613403320e-01" purity="2.4623771011829376e-01" nType="0">
            <Node pos="l" depth="3" NCoef="0" IVar="-1" Cut="0.0000000000000000e+00" cType="1" res="-9.3845039373263717e-05" rms="2.6411429047584534e-01" purity="1.6304348409175873e-01" nType="-99"/>
            <Node pos="r" depth="3" NCoef="0" IVar="-1" Cut="0.0000000000000000e+00" cType="1" res="4.0248886216431856e-04" rms="2.7425795793533325e-01" purity="7.9114794731140137e-01" nType="-99"/>
          </Node>
        </Node>
        <Node pos="r" depth="1" NCoef="0" IVar="1" Cut="1.2527707812500000e+05" cType="1" res="7.2532400488853455e-02" rms="2.2540198266506195e-01" purity="9.2732280492782593e-01" nType="0">
          <Node pos="l" depth="2" NCoef="0" IVar="3" Cut="1.3015428906250000e+05" cType="1" res="5.5486030876636505e-02" rms="2.7687582373619080e-01" purity="8.8550078868865967e-01" nType="0">
            <Node pos="l" depth="3" NCoef="0" IVar="-1" Cut="0.0000000000000000e+00" cType="1" res="6.1636581085622311e-04" rms="3.3313673734664917e-01" purity="8.2867127656936646e-01" nType="-99"/>
            <Node pos="r" depth="3" NCoef="0" IVar="-1" Cut="0.0000000000000000e+00" cType="1" res="1.7130811465904117e-03" rms="1.1953420192003250e-01" purity="9.8543071746826172e-01" nType="-99"/>
          </Node>
          <Node pos="r" depth="2" NCoef="0" IVar="-1" Cut="0.0000000000000000e+00" cType="1" res="1.3245356967672706e-03" rms="1.1452807486057281e-01" purity="9.8667591810226440e-01" nType="-99"/>
        </Node>
      </Node>
    </BinaryTree>
    <BinaryTree type="DecisionTree" boostWeight="1.0000000000000000e+00" itree="552">
      <Node pos="s" depth="0" NCoef="0" IVar="1" Cut="1.0034389062500000e+05" cType="1" res="4.0413476526737213e-02" rms="2.5740274786949158e-01" purity="5.0994336605072021e-01" nType="0">
        <Node pos="l" depth="1" NCoef="0" IVar="3" Cut="8.5022765625000000e+04" cType="1" res="8.4019396454095840e-03" rms="2.4882166087627411e-01" purity="3.0830249190330505e-01" nType="0">
          <Node pos="l" depth="2" NCoef="0" IVar="3" Cut="6.4767425781250000e+04" cType="1" res="-4.3188696727156639e-03" rms="2.5619822740554810e-01" purity="1.7102201282978058e-01" nType="0">
            <Node pos="l" depth="3" NCoef="0" IVar="-1" Cut="0.0000000000000000e+00" cType="1" res="-9.5398834673687816e-04" rms="2.4513445794582367e-01" purity="1.1663641035556793e-01" nType="-99"/>
            <Node pos="r" depth="3" NCoef="0" IVar="-1" Cut="0.0000000000000000e+00" cType="1" res="7.2891556192189455e-04" rms="3.5738909244537354e-01" purity="8.2457888126373291e-01" nType="-99"/>
          </Node>
          <Node pos="r" depth="2" NCoef="0" IVar="0" Cut="3.8095238804817200e-01" cType="1" res="6.8370044231414795e-02" rms="1.9997854530811310e-01" purity="9.5546662807464600e-01" nType="0">
            <Node pos="l" depth="3" NCoef="0" IVar="-1" Cut="0.0000000000000000e+00" cType="1" res="2.1593973506242037e-03" rms="1.2167948484420776e-01" purity="9.8496520519256592e-01" nType="-99"/>
            <Node pos="r" depth="3" NCoef="0" IVar="-1" Cut="0.0000000000000000e+00" cType="1" res="8.5161789320409298e-04" rms="2.2672891616821289e-01" purity="9.4071233272552490e-01" nType="-99"/>
          </Node>
        </Node>
        <Node pos="r" depth="1" NCoef="0" IVar="1" Cut="1.8448271875000000e+05" cType="1" res="9.6609130501747131e-02" rms="2.6253578066825867e-01" purity="8.6392015218734741e-01" nType="0">
          <Node pos="l" depth="2" NCoef="0" IVar="5" Cut="9.2605179687500000e+04" cType="1" res="1.0650247335433960e-01" rms="2.8208529949188232e-01" purity="8.2462102174758911e-01" nType="0">
            <Node pos="l" depth="3" NCoef="0" IVar="-1" Cut="0.0000000000000000e+00" cType="1" res="1.3928159605711699e-03" rms="2.7136251330375671e-01" purity="8.1647729873657227e-01" nType="-99"/>
            <Node pos="r" depth="3" NCoef="0" IVar="-1" Cut="0.0000000000000000e+00" cType="1" res="1.5939365839585662e-03" rms="3.0816784501075745e-01" purity="8.4796983003616333e-01" nType="-99"/>
          </Node>
          <Node pos="r" depth="2" NCoef="0" IVar="4" Cut="4.2836603125000000e+05" cType="1" res="7.8675806522369385e-02" rms="2.2164483368396759e-01" purity="9.3515622615814209e-01" nType="0">
            <Node pos="l" depth="3" NCoef="0" IVar="-1" Cut="0.0000000000000000e+00" cType="1" res="1.5114186098799109e-03" rms="2.5632357597351074e-01" purity="9.1725730895996094e-01" nType="-99"/>
            <Node pos="r" depth="3" NCoef="0" IVar="-1" Cut="0.0000000000000000e+00" cType="1" res="1.2448582565411925e-03" rms="1.9688795506954193e-01" purity="9.4598865509033203e-01" nType="-99"/>
          </Node>
        </Node>
      </Node>
    </BinaryTree>
    <BinaryTree type="DecisionTree" boostWeight="1.0000000000000000e+00" itree="553">
      <Node pos="s" depth="0" NCoef="0" IVar="5" Cut="9.3555796875000000e+04" cType="1" res="5.7134624570608139e-02" rms="2.8497335314750671e-01" purity="5.0103962421417236e-01" nType="0">
        <Node pos="l" depth="1" NCoef="0" IVar="1" Cut="9.3455429687500000e+04" cType="1" res="4.9547739326953888e-02" rms="2.7669453620910645e-01" purity="4.7718232870101929e-01" nType="0">
          <Node pos="l" depth="2" NCoef="0" IVar="1" Cut="8.5697398437500000e+04" cType="1" res="2.9821496456861496e-02" rms="2.7490764856338501e-01" purity="3.2809492945671082e-01" nType="0">
            <Node pos="l" depth="3" NCoef="0" IVar="-1" Cut="0.0000000000000000e+00" cType="1" res="1.3763292226940393e-03" rms="3.1644549965858459e-01" purity="5.2444690465927124e-01" nType="-99"/>
            <Node pos="r" depth="3" NCoef="0" IVar="-1" Cut="0.0000000000000000e+00" cType="1" res="-1.3638461241498590e-03" rms="2.0466367900371552e-01" purity="7.8126661479473114e-02" nType="-99"/>
          </Node>
          <Node pos="r" depth="2" NCoef="0" IVar="3" Cut="5.4198226562500000e+04" cType="1" res="7.3832400143146515e-02" rms="2.7695575356483459e-01" purity="6.6072142124176025e-01" nType="0">
            <Node pos="l" depth="3" NCoef="0" IVar="-1" Cut="0.0000000000000000e+00" cType="1" res="8.5512496298179030e-04" rms="3.2456395030021667e-01" purity="4.4272637367248535e-01" nType="-99"/>
            <Node pos="r" depth="3" NCoef="0" IVar="-1" Cut="0.0000000000000000e+00" cType="1" res="1.2777289375662804e-03" rms="1.9360905885696411e-01" purity="9.5557069778442383e-01" nType="-99"/>
          </Node>
        </Node>
        <Node pos="r" depth="1" NCoef="0" IVar="5" Cut="9.3917359375000000e+04" cType="1" res="1.0375055670738220e-01" rms="3.2749602198600769e-01" purity="6.4762574434280396e-01" nType="0">
          <Node pos="l" depth="2" NCoef="0" IVar="5" Cut="9.3727070312500000e+04" cType="1" res="2.1015596389770508e-01" rms="3.8468599319458008e-01" purity="7.0521479845046997e-01" nType="0">
            <Node pos="l" depth="3" NCoef="0" IVar="-1" Cut="0.0000000000000000e+00" cType="1" res="2.2257938981056213e-03" rms="4.0312382578849792e-01" purity="7.3677760362625122e-01" nType="-99"/>
            <Node pos="r" depth="3" NCoef="0" IVar="-1" Cut="0.0000000000000000e+00" cType="1" res="3.2440340146422386e-03" rms="3.2588225603103638e-01" purity="6.5263628959655762e-01" nType="-99"/>
          </Node>
          <Node pos="r" depth="2" NCoef="0" IVar="1" Cut="4.9391550781250000e+04" cType="1" res="6.0289561748504639e-02" rms="2.9000753164291382e-01" purity="6.2410360574722290e-01" nType="0">
            <Node pos="l" depth="3" NCoef="0" IVar="-1" Cut="0.0000000000000000e+00" cType="1" res="2.8713883366435766e-03" rms="3.8361310958862305e-01" purity="6.5933579206466675e-01" nType="-99"/>
            <Node pos="r" depth="3" NCoef="0" IVar="-1" Cut="0.0000000000000000e+00" cType="1" res="8.2420656690374017e-04" rms="2.6426002383232117e-01" purity="6.1692655086517334e-01" nType="-99"/>
          </Node>
        </Node>
      </Node>
    </BinaryTree>
    <BinaryTree type="DecisionTree" boostWeight="1.0000000000000000e+00" itree="554">
      <Node pos="s" depth="0" NCoef="0" IVar="3" Cut="5.4345996093750000e+04" cType="1" res="4.6686504036188126e-02" rms="2.5928857922554016e-01" purity="5.0334066152572632e-01" nType="0">
        <Node pos="l" depth="1" NCoef="0" IVar="3" Cut="1.5678849609375000e+04" cType="1" res="2.3954920470714569e-02" rms="2.7976870536804199e-01" purity="2.4508167803287506e-01" nType="0">
          <Node pos="l" depth="2" NCoef="0" IVar="3" Cut="3.1598737792968750e+03" cType="1" res="-1.2440850958228111e-02" rms="1.5900033712387085e-01" purity="3.2573297619819641e-02" nType="0">
            <Node pos="l" depth="3" NCoef="0" IVar="-1" Cut="0.0000000000000000e+00" cType="1" res="2.3212211206555367e-02" rms="3.3066287636756897e-01" purity="1.3831347227096558e-01" nType="-99"/>
            <Node pos="r" depth="3" NCoef="0" IVar="-1" Cut="0.0000000000000000e+00" cType="1" res="-9.1902120038866997e-03" rms="1.2995520234107971e-01" purity="2.3647896945476532e-02" nType="-99"/>
          </Node>
          <Node pos="r" depth="2" NCoef="0" IVar="3" Cut="1.7521333984375000e+04" cType="1" res="4.1917461901903152e-02" rms="3.2163047790527344e-01" purity="3.4996175765991211e-01" nType="0">
            <Node pos="l" depth="3" NCoef="0" IVar="-1" Cut="0.0000000000000000e+00" cType="1" res="2.9210720676928759e-03" rms="4.0700629353523254e-01" purity="2.4599431455135345e-01" nType="-99"/>
            <Node pos="r" depth="3" NCoef="0" IVar="-1" Cut="0.0000000000000000e+00" cType="1" res="7.4561539804562926e-04" rms="3.1079906225204468e-01" purity="3.5961121320724487e-01" nType="-99"/>
          </Node>
        </Node>
        <Node pos="r" depth="1" NCoef="0" IVar="0" Cut="2.2857143878936768e+00" cType="1" res="8.4902815520763397e-02" rms="2.1526961028575897e-01" purity="9.3752527236938477e-01" nType="0">
          <Node pos="l" depth="2" NCoef="0" IVar="5" Cut="9.1607218750000000e+04" cType="1" res="9.1871023178100586e-02" rms="2.0385181903839111e-01" purity="9.4333457946777344e-01" nType="0">
            <Node pos="l" depth="3" NCoef="0" IVar="-1" Cut="0.0000000000000000e+00" cType="1" res="1.3123655226081610e-03" rms="1.9831898808479309e-01" purity="9.5008391141891479e-01" nType="-99"/>
            <Node pos="r" depth="3" NCoef="0" IVar="-1" Cut="0.0000000000000000e+00" cType="1" res="9.3333993572741747e-04" rms="2.1439196169376373e-01" purity="9.2816472053527832e-01" nType="-99"/>
          </Node>
          <Node pos="r" depth="2" NCoef="0" IVar="-1" Cut="0.0000000000000000e+00" cType="1" res="6.5999146318063140e-04" rms="2.8294450044631958e-01" purity="8.9261591434478760e-01" nType="-99"/>
        </Node>
      </Node>
    </BinaryTree>
    <BinaryTree type="DecisionTree" boostWeight="1.0000000000000000e+00" itree="555">
      <Node pos="s" depth="0" NCoef="0" IVar="1" Cut="9.3450960937500000e+04" cType="1" res="4.2730696499347687e-02" rms="2.5847032666206360e-01" purity="5.0862538814544678e-01" nType="0">
        <Node pos="l" depth="1" NCoef="0" IVar="1" Cut="7.4058382812500000e+04" cType="1" res="1.1828026734292507e-02" rms="2.4606357514858246e-01" purity="3.4165224432945251e-01" nType="0">
          <Node pos="l" depth="2" NCoef="0" IVar="2" Cut="1.6149548437500000e+05" cType="1" res="6.6787414252758026e-02" rms="3.1438368558883667e-01" purity="6.8595433235168457e-01" nType="0">
            <Node pos="l" depth="3" NCoef="0" IVar="-1" Cut="0.0000000000000000e+00" cType="1" res="-1.0223645949736238e-03" rms="3.2084488868713379e-01" purity="3.8373222947120667e-01" nType="-99"/>
            <Node pos="r" depth="3" NCoef="0" IVar="-1" Cut="0.0000000000000000e+00" cType="1" res="1.3391778338700533e-03" rms="3.0961391329765320e-01" purity="7.4498933553695679e-01" nType="-99"/>
          </Node>
          <Node pos="r" depth="2" NCoef="0" IVar="3" Cut="9.8369765625000000e+04" cType="1" res="-2.6365505531430244e-02" rms="1.7429940402507782e-01" purity="1.0238261520862579e-01" nType="0">
            <Node pos="l" depth="3" NCoef="0" IVar="-1" Cut="0.0000000000000000e+00" cType="1" res="-6.6808122210204601e-03" rms="1.6992746293544769e-01" purity="5.4132372140884399e-02" nType="-99"/>
            <Node pos="r" depth="3" NCoef="0" IVar="-1" Cut="0.0000000000000000e+00" cType="1" res="9.6041720826178789e-04" rms="2.1126846969127655e-01" purity="9.5230579376220703e-01" nType="-99"/>
          </Node>
        </Node>
        <Node pos="r" depth="1" NCoef="0" IVar="5" Cut="8.5968546875000000e+04" cType="1" res="7.7578678727149963e-02" rms="2.6753395795822144e-01" purity="6.9691592454910278e-01" nType="0">
          <Node pos="l" depth="2" NCoef="0" IVar="-1" Cut="0.0000000000000000e+00" cType="1" res="2.3531853221356869e-03" rms="2.6374372839927673e-01" purity="8.9067697525024414e-01" nType="-99"/>
          <Node pos="r" depth="2" NCoef="0" IVar="3" Cut="5.4198226562500000e+04" cType="1" res="6.9330096244812012e-02" rms="2.6692315936088562e-01" purity="6.7162406444549561e-01" nType="0">
            <Node pos="l" depth="3" NCoef="0" IVar="-1" Cut="0.0000000000000000e+00" cType="1" res="8.0158747732639313e-04" rms="3.2526177167892456e-01" purity="4.2982348799705505e-01" nType="-99"/>
            <Node pos="r" depth="3" NCoef="0" IVar="-1" Cut="0.0000000000000000e+00" cType="1" res="1.2481678277254105e-03" rms="1.6757020354270935e-01" purity="9.6442401409149170e-01" nType="-99"/>
          </Node>
        </Node>
      </Node>
    </BinaryTree>
    <BinaryTree type="DecisionTree" boostWeight="1.0000000000000000e+00" itree="556">
      <Node pos="s" depth="0" NCoef="0" IVar="1" Cut="1.0036485156250000e+05" cType="1" res="4.0075484663248062e-02" rms="2.6358658075332642e-01" purity="5.0252908468246460e-01" nType="0">
        <Node pos="l" depth="1" NCoef="0" IVar="1" Cut="8.3537820312500000e+04" cType="1" res="1.8390713259577751e-02" rms="2.6569730043411255e-01" purity="3.1058016419410706e-01" nType="0">
          <Node pos="l" depth="2" NCoef="0" IVar="2" Cut="1.7709439062500000e+05" cType="1" res="4.9468632787466049e-02" rms="3.1291750073432922e-01" purity="5.8253109455108643e-01" nType="0">
            <Node pos="l" depth="3" NCoef="0" IVar="-1" Cut="0.0000000000000000e+00" cType="1" res="-1.2966966023668647e-03" rms="3.2800790667533875e-01" purity="4.2261379957199097e-01" nType="-99"/>
            <Node pos="r" depth="3" NCoef="0" IVar="-1" Cut="0.0000000000000000e+00" cType="1" res="1.7405364196747541e-03" rms="3.0407646298408508e-01" purity="6.2875396013259888e-01" nType="-99"/>
          </Node>
          <Node pos="r" depth="2" NCoef="0" IVar="3" Cut="3.7922710937500000e+04" cType="1" res="-4.3025393970310688e-03" rms="2.2231490910053253e-01" purity="1.1200024932622910e-01" nType="0">
            <Node pos="l" depth="3" NCoef="0" IVar="-1" Cut="0.0000000000000000e+00" cType="1" res="1.1583780869841576e-02" rms="1.7983554303646088e-01" purity="3.4826278686523438e-02" nType="-99"/>
            <Node pos="r" depth="3" NCoef="0" IVar="-1" Cut="0.0000000000000000e+00" cType="1" res="-1.4653522521257401e-03" rms="3.2653376460075378e-01" purity="3.9479476213455200e-01" nType="-99"/>
          </Node>
        </Node>
        <Node pos="r" depth="1" NCoef="0" IVar="3" Cut="2.3268037109375000e+04" cType="1" res="7.9577125608921051e-02" rms="2.5500169396400452e-01" purity="8.5218900442123413e-01" nType="0">
          <Node pos="l" depth="2" NCoef="0" IVar="2" Cut="3.4004406250000000e+05" cType="1" res="1.0314171202480793e-02" rms="4.0677514672279358e-01" purity="3.8798251748085022e-01" nType="0">
            <Node pos="l" depth="3" NCoef="0" IVar="-1" Cut="0.0000000000000000e+00" cType="1" res="1.8570249667391181e-03" rms="4.0376600623130798e-01" purity="3.5190087556838989e-01" nType="-99"/>
            <Node pos="r" depth="3" NCoef="0" IVar="-1" Cut="0.0000000000000000e+00" cType="1" res="-3.2139671966433525e-03" rms="3.8156738877296448e-01" purity="4.4909992814064026e-01" nType="-99"/>
          </Node>
          <Node pos="r" depth="2" NCoef="0" IVar="2" Cut="3.1898428125000000e+05" cType="1" res="9.0259321033954620e-02" rms="2.2063842415809631e-01" purity="9.2378205060958862e-01" nType="0">
            <Node pos="l" depth="3" NCoef="0" IVar="-1" Cut="0.0000000000000000e+00" cType="1" res="7.7380531001836061e-04" rms="2.7040177583694458e-01" purity="8.5673654079437256e-01" nType="-99"/>
            <Node pos="r" depth="3" NCoef="0" IVar="-1" Cut="0.0000000000000000e+00" cType="1" res="1.2064299080520868e-03" rms="1.9270655512809753e-01" purity="9.5412135124206543e-01" nType="-99"/>
          </Node>
        </Node>
      </Node>
    </BinaryTree>
    <BinaryTree type="DecisionTree" boostWeight="1.0000000000000000e+00" itree="557">
      <Node pos="s" depth="0" NCoef="0" IVar="3" Cut="5.4259988281250000e+04" cType="1" res="3.8054998964071274e-02" rms="2.6048117876052856e-01" purity="4.9112507700920105e-01" nType="0">
        <Node pos="l" depth="1" NCoef="0" IVar="1" Cut="8.3939421875000000e+04" cType="1" res="1.8097942695021629e-02" rms="2.8018054366111755e-01" purity="2.3096388578414917e-01" nType="0">
          <Node pos="l" depth="2" NCoef="0" IVar="1" Cut="6.6813039062500000e+04" cType="1" res="5.1369991153478622e-02" rms="3.5270690917968750e-01" purity="3.1302052736282349e-01" nType="0">
            <Node pos="l" depth="3" NCoef="0" IVar="-1" Cut="0.0000000000000000e+00" cType="1" res="1.6874372959136963e-03" rms="3.9526942372322083e-01" purity="4.2415019869804382e-01" nType="-99"/>
            <Node pos="r" depth="3" NCoef="0" IVar="-1" Cut="0.0000000000000000e+00" cType="1" res="-2.7031821082346141e-04" rms="2.7701446413993835e-01" purity="1.6565911471843719e-01" nType="-99"/>
          </Node>
          <Node pos="r" depth="2" NCoef="0" IVar="5" Cut="9.0633015625000000e+04" cType="1" res="6.2988614663481712e-03" rms="2.4837815761566162e-01" purity="2.0186458528041840e-01" nType="0">
            <Node pos="l" depth="3" NCoef="0" IVar="-1" Cut="0.0000000000000000e+00" cType="1" res="5.4203020408749580e-04" rms="2.6845288276672363e-01" purity="2.8412735462188721e-01" nType="-99"/>
            <Node pos="r" depth="3" NCoef="0" IVar="-1" Cut="0.0000000000000000e+00" cType="1" res="-6.8209297023713589e-04" rms="2.2878873348236084e-01" purity="1.3274563848972321e-01" nType="-99"/>
          </Node>
        </Node>
        <Node pos="r" depth="1" NCoef="0" IVar="4" Cut="2.1143329687500000e+05" cType="1" res="7.1537651121616364e-02" rms="2.1952699124813080e-01" purity="9.2760670185089111e-01" nType="0">
          <Node pos="l" depth="2" NCoef="0" IVar="4" Cut="1.8022060937500000e+05" cType="1" res="1.6936175525188446e-02" rms="3.2190543413162231e-01" purity="8.1051844358444214e-01" nType="0">
            <Node pos="l" depth="3" NCoef="0" IVar="-1" Cut="0.0000000000000000e+00" cType="1" res="-1.5230990247800946e-03" rms="3.6285275220870972e-01" purity="7.3961585760116577e-01" nType="-99"/>
            <Node pos="r" depth="3" NCoef="0" IVar="-1" Cut="0.0000000000000000e+00" cType="1" res="1.2277741916477680e-03" rms="2.7774453163146973e-01" purity="8.5928791761398315e-01" nType="-99"/>
          </Node>
          <Node pos="r" depth="2" NCoef="0" IVar="0" Cut="3.8095238804817200e-01" cType="1" res="7.8743718564510345e-02" rms="2.0107501745223999e-01" purity="9.4305956363677979e-01" nType="0">
            <Node pos="l" depth="3" NCoef="0" IVar="-1" Cut="0.0000000000000000e+00" cType="1" res="1.3496876927092671e-03" rms="1.7325159907341003e-01" purity="9.5856523513793945e-01" nType="-99"/>
            <Node pos="r" depth="3" NCoef="0" IVar="-1" Cut="0.0000000000000000e+00" cType="1" res="1.2864683521911502e-03" rms="2.1142004430294037e-01" purity="9.3618333339691162e-01" nType="-99"/>
          </Node>
        </Node>
      </Node>
    </BinaryTree>
    <BinaryTree type="DecisionTree" boostWeight="1.0000000000000000e+00" itree="558">
      <Node pos="s" depth="0" NCoef="0" IVar="3" Cut="4.8721656250000000e+04" cType="1" res="3.3975053578615189e-02" rms="2.5849229097366333e-01" purity="4.8641178011894226e-01" nType="0">
        <Node pos="l" depth="1" NCoef="0" IVar="5" Cut="9.6394289062500000e+04" cType="1" res="9.7715342417359352e-03" rms="2.6287779211997986e-01" purity="2.0652246475219727e-01" nType="0">
          <Node pos="l" depth="2" NCoef="0" IVar="3" Cut="4.1773347656250000e+04" cType="1" res="5.6377672590315342e-03" rms="2.5899344682693481e-01" purity="1.9473259150981903e-01" nType="0">
            <Node pos="l" depth="3" NCoef="0" IVar="-1" Cut="0.0000000000000000e+00" cType="1" res="-4.9904709157999605e-05" rms="2.4609693884849548e-01" purity="1.4408968389034271e-01" nType="-99"/>
            <Node pos="r" depth="3" NCoef="0" IVar="-1" Cut="0.0000000000000000e+00" cType="1" res="9.7210926469415426e-04" rms="3.4560403227806091e-01" purity="6.2673997879028320e-01" nType="-99"/>
          </Node>
          <Node pos="r" depth="2" NCoef="0" IVar="-1" Cut="0.0000000000000000e+00" cType="1" res="8.3812128286808729e-04" rms="3.4026896953582764e-01" purity="5.8193975687026978e-01" nType="-99"/>
        </Node>
        <Node pos="r" depth="1" NCoef="0" IVar="3" Cut="9.5013523437500000e+04" cType="1" res="6.9810912013053894e-02" rms="2.4755072593688965e-01" purity="9.0081739425659180e-01" nType="0">
          <Node pos="l" depth="2" NCoef="0" IVar="3" Cut="6.1939371093750000e+04" cType="1" res="4.8341181129217148e-02" rms="3.2657775282859802e-01" purity="8.1608200073242188e-01" nType="0">
            <Node pos="l" depth="3" NCoef="0" IVar="-1" Cut="0.0000000000000000e+00" cType="1" res="-1.4510613982565701e-04" rms="3.7305521965026855e-01" purity="6.5440374612808228e-01" nType="-99"/>
            <Node pos="r" depth="3" NCoef="0" IVar="-1" Cut="0.0000000000000000e+00" cType="1" res="1.0444363579154015e-03" rms="2.9844942688941956e-01" purity="8.9217299222946167e-01" nType="-99"/>
          </Node>
          <Node pos="r" depth="2" NCoef="0" IVar="0" Cut="2.2857143878936768e+00" cType="1" res="9.0710096061229706e-02" rms="1.2739680707454681e-01" purity="9.8330098390579224e-01" nType="0">
            <Node pos="l" depth="3" NCoef="0" IVar="-1" Cut="0.0000000000000000e+00" cType="1" res="1.6957568004727364e-03" rms="1.1868136376142502e-01" purity="9.8566764593124390e-01" nType="-99"/>
            <Node pos="r" depth="3" NCoef="0" IVar="-1" Cut="0.0000000000000000e+00" cType="1" res="1.4577914262190461e-03" rms="1.6548648476600647e-01" purity="9.7075217962265015e-01" nType="-99"/>
          </Node>
        </Node>
      </Node>
    </BinaryTree>
    <BinaryTree type="DecisionTree" boostWeight="1.0000000000000000e+00" itree="559">
      <Node pos="s" depth="0" NCoef="0" IVar="3" Cut="6.8798242187500000e+04" cType="1" res="2.4934237822890282e-02" rms="2.5267168879508972e-01" purity="4.6336016058921814e-01" nType="0">
        <Node pos="l" depth="1" NCoef="0" IVar="5" Cut="9.6399140625000000e+04" cType="1" res="5.1875156350433826e-03" rms="2.6727560162544250e-01" purity="2.6425549387931824e-01" nType="0">
          <Node pos="l" depth="2" NCoef="0" IVar="3" Cut="6.2253089843750000e+04" cType="1" res="-1.0386727517470717e-03" rms="2.5789549946784973e-01" purity="2.5249928236007690e-01" nType="0">
            <Node pos="l" depth="3" NCoef="0" IVar="-1" Cut="0.0000000000000000e+00" cType="1" res="-4.7623302089050412e-04" rms="2.5368499755859375e-01" purity="2.1016663312911987e-01" nType="-99"/>
            <Node pos="r" depth="3" NCoef="0" IVar="-1" Cut="0.0000000000000000e+00" cType="1" res="1.8040104769170284e-03" rms="2.8860440850257874e-01" purity="8.9276123046875000e-01" nType="-99"/>
          </Node>
          <Node pos="r" depth="2" NCoef="0" IVar="-1" Cut="0.0000000000000000e+00" cType="1" res="1.3313454110175371e-03" rms="4.2698657512664795e-01" purity="6.1305367946624756e-01" nType="-99"/>
        </Node>
        <Node pos="r" depth="1" NCoef="0" IVar="1" Cut="1.1141539843750000e+05" cType="1" res="7.3401913046836853e-02" rms="2.0469336211681366e-01" purity="9.5205587148666382e-01" nType="0">
          <Node pos="l" depth="2" NCoef="0" IVar="4" Cut="2.3442756250000000e+05" cType="1" res="5.5125277489423752e-02" rms="2.6738575100898743e-01" purity="9.1583710908889771e-01" nType="0">
            <Node pos="l" depth="3" NCoef="0" IVar="-1" Cut="0.0000000000000000e+00" cType="1" res="1.2397321406751871e-03" rms="2.4868951737880707e-01" purity="9.2979586124420166e-01" nType="-99"/>
            <Node pos="r" depth="3" NCoef="0" IVar="-1" Cut="0.0000000000000000e+00" cType="1" res="6.9129181792959571e-04" rms="2.7437174320220947e-01" purity="9.0888124704360962e-01" nType="-99"/>
          </Node>
          <Node pos="r" depth="2" NCoef="0" IVar="-1" Cut="0.0000000000000000e+00" cType="1" res="1.4755408046767116e-03" rms="1.0911621898412704e-01" purity="9.8795396089553833e-01" nType="-99"/>
        </Node>
      </Node>
    </BinaryTree>
    <BinaryTree type="DecisionTree" boostWeight="1.0000000000000000e+00" itree="560">
      <Node pos="s" depth="0" NCoef="0" IVar="1" Cut="1.0034835937500000e+05" cType="1" res="4.3231043964624405e-02" rms="2.7279463410377502e-01" purity="4.8665815591812134e-01" nType="0">
        <Node pos="l" depth="1" NCoef="0" IVar="1" Cut="8.3521265625000000e+04" cType="1" res="2.6743996888399124e-02" rms="2.7245491743087769e-01" purity="3.1681022047996521e-01" nType="0">
          <Node pos="l" depth="2" NCoef="0" IVar="1" Cut="4.6060828125000000e+04" cType="1" res="6.7915402352809906e-02" rms="3.2351776957511902e-01" purity="5.8192074298858643e-01" nType="0">
            <Node pos="l" depth="3" NCoef="0" IVar="-1" Cut="0.0000000000000000e+00" cType="1" res="5.7293416466563940e-04" rms="3.1347468495368958e-01" purity="5.4861050844192505e-01" nType="-99"/>
            <Node pos="r" depth="3" NCoef="0" IVar="-1" Cut="0.0000000000000000e+00" cType="1" res="2.0863048266619444e-03" rms="3.2548198103904724e-01" purity="5.9763413667678833e-01" nType="-99"/>
          </Node>
          <Node pos="r" depth="2" NCoef="0" IVar="3" Cut="3.7808433593750000e+04" cType="1" res="-3.2407711260020733e-03" rms="2.2346068918704987e-01" purity="1.2373257428407669e-01" nType="0">
            <Node pos="l" depth="3" NCoef="0" IVar="-1" Cut="0.0000000000000000e+00" cType="1" res="1.2474183924496174e-02" rms="1.7763106524944305e-01" purity="3.3288501203060150e-02" nType="-99"/>
            <Node pos="r" depth="3" NCoef="0" IVar="-1" Cut="0.0000000000000000e+00" cType="1" res="-1.2027604971081018e-03" rms="3.2782986760139465e-01" purity="4.2423054575920105e-01" nType="-99"/>
          </Node>
        </Node>
        <Node pos="r" depth="1" NCoef="0" IVar="3" Cut="3.7230593750000000e+04" cType="1" res="7.6895251870155334e-02" rms="2.7038276195526123e-01" purity="8.3346349000930786e-01" nType="0">
          <Node pos="l" depth="2" NCoef="0" IVar="3" Cut="2.1343960937500000e+04" cType="1" res="4.3702080845832825e-02" rms="4.0858784317970276e-01" purity="4.9833464622497559e-01" nType="0">
            <Node pos="l" depth="3" NCoef="0" IVar="-1" Cut="0.0000000000000000e+00" cType="1" res="-4.0445677586831152e-04" rms="3.8674852252006531e-01" purity="3.1529060006141663e-01" nType="-99"/>
            <Node pos="r" depth="3" NCoef="0" IVar="-1" Cut="0.0000000000000000e+00" cType="1" res="9.3266728799790144e-04" rms="4.2182356119155884e-01" purity="6.7889940738677979e-01" nType="-99"/>
          </Node>
          <Node pos="r" depth="2" NCoef="0" IVar="2" Cut="3.2209987500000000e+05" cType="1" res="8.8858544826507568e-02" rms="1.9684094190597534e-01" purity="9.5424866676330566e-01" nType="0">
            <Node pos="l" depth="3" NCoef="0" IVar="-1" Cut="0.0000000000000000e+00" cType="1" res="1.3656152877956629e-03" rms="2.4667981266975403e-01" purity="9.1557443141937256e-01" nType="-99"/>
            <Node pos="r" depth="3" NCoef="0" IVar="-1" Cut="0.0000000000000000e+00" cType="1" res="1.0170568712055683e-03" rms="1.7429466545581818e-01" purity="9.6859031915664673e-01" nType="-99"/>
          </Node>
        </Node>
      </Node>
    </BinaryTree>
    <BinaryTree type="DecisionTree" boostWeight="1.0000000000000000e+00" itree="561">
      <Node pos="s" depth="0" NCoef="0" IVar="3" Cut="6.5989953125000000e+04" cType="1" res="3.9153844118118286e-02" rms="2.6340171694755554e-01" purity="4.9383586645126343e-01" nType="0">
        <Node pos="l" depth="1" NCoef="0" IVar="1" Cut="1.5589792187500000e+05" cType="1" res="2.2400772199034691e-02" rms="2.8477478027343750e-01" purity="2.8483814001083374e-01" nType="0">
          <Node pos="l" depth="2" NCoef="0" IVar="1" Cut="1.0722030468750000e+05" cType="1" res="1.6155203804373741e-02" rms="2.7682235836982727e-01" purity="2.1811960637569427e-01" nType="0">
            <Node pos="l" depth="3" NCoef="0" IVar="-1" Cut="0.0000000000000000e+00" cType="1" res="1.9289317424409091e-04" rms="2.6313713192939758e-01" purity="1.5046501159667969e-01" nType="-99"/>
            <Node pos="r" depth="3" NCoef="0" IVar="-1" Cut="0.0000000000000000e+00" cType="1" res="8.0505025107413530e-04" rms="3.4666383266448975e-01" purity="7.0702290534973145e-01" nType="-99"/>
          </Node>
          <Node pos="r" depth="2" NCoef="0" IVar="5" Cut="9.0555328125000000e+04" cType="1" res="7.4843913316726685e-02" rms="3.3988198637962341e-01" purity="8.4506416320800781e-01" nType="0">
            <Node pos="l" depth="3" NCoef="0" IVar="-1" Cut="0.0000000000000000e+00" cType="1" res="1.5544344205409288e-03" rms="3.2406774163246155e-01" purity="8.8535821437835693e-01" nType="-99"/>
            <Node pos="r" depth="3" NCoef="0" IVar="-1" Cut="0.0000000000000000e+00" cType="1" res="-3.7310263724066317e-04" rms="3.5070031881332397e-01" purity="7.6767438650131226e-01" nType="-99"/>
          </Node>
        </Node>
        <Node pos="r" depth="1" NCoef="0" IVar="1" Cut="1.2541114062500000e+05" cType="1" res="7.5766392052173615e-02" rms="2.0450358092784882e-01" purity="9.5058429241180420e-01" nType="0">
          <Node pos="l" depth="2" NCoef="0" IVar="3" Cut="1.2565493750000000e+05" cType="1" res="6.3316494226455688e-02" rms="2.5428864359855652e-01" purity="9.2194646596908569e-01" nType="0">
            <Node pos="l" depth="3" NCoef="0" IVar="-1" Cut="0.0000000000000000e+00" cType="1" res="6.8203813862055540e-04" rms="3.1027901172637939e-01" purity="8.8127017021179199e-01" nType="-99"/>
            <Node pos="r" depth="3" NCoef="0" IVar="-1" Cut="0.0000000000000000e+00" cType="1" res="2.0082611590623856e-03" rms="1.1691081523895264e-01" purity="9.8608189821243286e-01" nType="-99"/>
          </Node>
          <Node pos="r" depth="2" NCoef="0" IVar="-1" Cut="0.0000000000000000e+00" cType="1" res="2.0471352618187666e-03" rms="9.8007760941982269e-02" purity="9.9033260345458984e-01" nType="-99"/>
        </Node>
      </Node>
    </BinaryTree>
    <BinaryTree type="DecisionTree" boostWeight="1.0000000000000000e+00" itree="562">
      <Node pos="s" depth="0" NCoef="0" IVar="1" Cut="9.3450960937500000e+04" cType="1" res="4.2529404163360596e-02" rms="2.5887283682823181e-01" purity="5.0720715522766113e-01" nType="0">
        <Node pos="l" depth="1" NCoef="0" IVar="1" Cut="8.1814781250000000e+04" cType="1" res="1.4628354460000992e-02" rms="2.5248321890830994e-01" purity="3.2870560884475708e-01" nType="0">
          <Node pos="l" depth="2" NCoef="0" IVar="4" Cut="2.1519059375000000e+05" cType="1" res="4.9782704561948776e-02" rms="3.0496552586555481e-01" purity="6.0904353857040405e-01" nType="0">
            <Node pos="l" depth="3" NCoef="0" IVar="-1" Cut="0.0000000000000000e+00" cType="1" res="-6.6615641117095947e-04" rms="3.0395323038101196e-01" purity="3.3180281519889832e-01" nType="-99"/>
            <Node pos="r" depth="3" NCoef="0" IVar="-1" Cut="0.0000000000000000e+00" cType="1" res="1.3958605704829097e-03" rms="2.9937300086021423e-01" purity="7.6839607954025269e-01" nType="-99"/>
          </Node>
          <Node pos="r" depth="2" NCoef="0" IVar="5" Cut="9.2868359375000000e+04" cType="1" res="-1.7207894474267960e-02" rms="1.8740397691726685e-01" purity="7.4827864766120911e-02" nType="0">
            <Node pos="l" depth="3" NCoef="0" IVar="-1" Cut="0.0000000000000000e+00" cType="1" res="-5.6337160058319569e-03" rms="1.6693989932537079e-01" purity="6.0878895223140717e-02" nType="-99"/>
            <Node pos="r" depth="3" NCoef="0" IVar="-1" Cut="0.0000000000000000e+00" cType="1" res="4.6740607358515263e-03" rms="2.8645068407058716e-01" purity="1.7188365757465363e-01" nType="-99"/>
          </Node>
        </Node>
        <Node pos="r" depth="1" NCoef="0" IVar="5" Cut="9.5449835937500000e+04" cType="1" res="7.2540186345577240e-02" rms="2.6228147745132446e-01" purity="6.9920593500137329e-01" nType="0">
          <Node pos="l" depth="2" NCoef="0" IVar="5" Cut="8.7984335937500000e+04" cType="1" res="6.4706102013587952e-02" rms="2.6508963108062744e-01" purity="6.7969650030136108e-01" nType="0">
            <Node pos="l" depth="3" NCoef="0" IVar="-1" Cut="0.0000000000000000e+00" cType="1" res="1.4666437637060881e-03" rms="2.5631982088088989e-01" purity="8.3067178726196289e-01" nType="-99"/>
            <Node pos="r" depth="3" NCoef="0" IVar="-1" Cut="0.0000000000000000e+00" cType="1" res="1.2180574703961611e-03" rms="2.6590859889984131e-01" purity="6.3794869184494019e-01" nType="-99"/>
          </Node>
          <Node pos="r" depth="2" NCoef="0" IVar="-1" Cut="0.0000000000000000e+00" cType="1" res="6.7687820410355926e-04" rms="2.1699959039688110e-01" purity="8.9530301094055176e-01" nType="-99"/>
        </Node>
      </Node>
    </BinaryTree>
    <BinaryTree type="DecisionTree" boostWeight="1.0000000000000000e+00" itree="563">
      <Node pos="s" depth="0" NCoef="0" IVar="3" Cut="4.8774171875000000e+04" cType="1" res="4.1078124195337296e-02" rms="2.6556178927421570e-01" purity="4.9894005060195923e-01" nType="0">
        <Node pos="l" depth="1" NCoef="0" IVar="5" Cut="8.5002367187500000e+04" cType="1" res="1.8730944022536278e-02" rms="2.8747498989105225e-01" purity="1.9372808933258057e-01" nType="0">
          <Node pos="l" depth="2" NCoef="0" IVar="-1" Cut="0.0000000000000000e+00" cType="1" res="4.6893171966075897e-03" rms="4.5558077096939087e-01" purity="4.2651742696762085e-01" nType="-99"/>
          <Node pos="r" depth="2" NCoef="0" IVar="4" Cut="3.7073881250000000e+05" cType="1" res="1.3978718779981136e-02" rms="2.7900591492652893e-01" purity="1.8611647188663483e-01" nType="0">
            <Node pos="l" depth="3" NCoef="0" IVar="-1" Cut="0.0000000000000000e+00" cType="1" res="1.5614350559189916e-04" rms="2.5155970454216003e-01" purity="1.3464717566967010e-01" nType="-99"/>
            <Node pos="r" depth="3" NCoef="0" IVar="-1" Cut="0.0000000000000000e+00" cType="1" res="1.1704937787726521e-03" rms="3.7363767623901367e-01" purity="4.1634207963943481e-01" nType="-99"/>
          </Node>
        </Node>
        <Node pos="r" depth="1" NCoef="0" IVar="1" Cut="1.0059082812500000e+05" cType="1" res="7.1394294500350952e-02" rms="2.2909858822822571e-01" purity="9.1299039125442505e-01" nType="0">
          <Node pos="l" depth="2" NCoef="0" IVar="5" Cut="9.0524921875000000e+04" cType="1" res="4.5766253024339676e-02" rms="2.9599937796592712e-01" purity="8.3668106794357300e-01" nType="0">
            <Node pos="l" depth="3" NCoef="0" IVar="-1" Cut="0.0000000000000000e+00" cType="1" res="1.2098983861505985e-03" rms="2.9193100333213806e-01" purity="8.7343138456344604e-01" nType="-99"/>
            <Node pos="r" depth="3" NCoef="0" IVar="-1" Cut="0.0000000000000000e+00" cType="1" res="1.4946777082514018e-04" rms="2.9548102617263794e-01" purity="7.9622644186019897e-01" nType="-99"/>
          </Node>
          <Node pos="r" depth="2" NCoef="0" IVar="0" Cut="1.3333333730697632e+00" cType="1" res="9.3131959438323975e-02" rms="1.4717265963554382e-01" purity="9.7771590948104858e-01" nType="0">
            <Node pos="l" depth="3" NCoef="0" IVar="-1" Cut="0.0000000000000000e+00" cType="1" res="1.4492034679278731e-03" rms="1.3334940373897552e-01" purity="9.8189389705657959e-01" nType="-99"/>
            <Node pos="r" depth="3" NCoef="0" IVar="-1" Cut="0.0000000000000000e+00" cType="1" res="1.5891665825620294e-03" rms="1.6713391244411469e-01" purity="9.7060662508010864e-01" nType="-99"/>
          </Node>
        </Node>
      </Node>
    </BinaryTree>
    <BinaryTree type="DecisionTree" boostWeight="1.0000000000000000e+00" itree="564">
      <Node pos="s" depth="0" NCoef="0" IVar="3" Cut="6.8950085937500000e+04" cType="1" res="4.8728909343481064e-02" rms="2.7308246493339539e-01" purity="4.9985411763191223e-01" nType="0">
        <Node pos="l" depth="1" NCoef="0" IVar="3" Cut="1.9900144531250000e+04" cType="1" res="3.4045271575450897e-02" rms="3.0071169137954712e-01" purity="3.0508536100387573e-01" nType="0">
          <Node pos="l" depth="2" NCoef="0" IVar="0" Cut="1.3333333730697632e+00" cType="1" res="3.6486808676272631e-03" rms="2.0292277634143829e-01" purity="7.9078376293182373e-02" nType="0">
            <Node pos="l" depth="3" NCoef="0" IVar="-1" Cut="0.0000000000000000e+00" cType="1" res="-1.7645485932007432e-03" rms="1.7507326602935791e-01" purity="5.2560966461896896e-02" nType="-99"/>
            <Node pos="r" depth="3" NCoef="0" IVar="-1" Cut="0.0000000000000000e+00" cType="1" res="3.7308228202164173e-03" rms="3.2188493013381958e-01" purity="2.5876766443252563e-01" nType="-99"/>
          </Node>
          <Node pos="r" depth="2" NCoef="0" IVar="5" Cut="9.0701632812500000e+04" cType="1" res="5.4682325571775436e-02" rms="3.5044455528259277e-01" purity="4.5852747559547424e-01" nType="0">
            <Node pos="l" depth="3" NCoef="0" IVar="-1" Cut="0.0000000000000000e+00" cType="1" res="2.0631437655538321e-03" rms="3.7461182475090027e-01" purity="5.2805346250534058e-01" nType="-99"/>
            <Node pos="r" depth="3" NCoef="0" IVar="-1" Cut="0.0000000000000000e+00" cType="1" res="5.2166258683428168e-04" rms="3.2107120752334595e-01" purity="3.9140948653221130e-01" nType="-99"/>
          </Node>
        </Node>
        <Node pos="r" depth="1" NCoef="0" IVar="0" Cut="2.2857143878936768e+00" cType="1" res="8.3472974598407745e-02" rms="1.8800140917301178e-01" purity="9.6071141958236694e-01" nType="0">
          <Node pos="l" depth="2" NCoef="0" IVar="4" Cut="3.0284953125000000e+05" cType="1" res="8.8926360011100769e-02" rms="1.7881999909877777e-01" purity="9.6480906009674072e-01" nType="0">
            <Node pos="l" depth="3" NCoef="0" IVar="-1" Cut="0.0000000000000000e+00" cType="1" res="1.4051386388018727e-03" rms="2.3524776101112366e-01" purity="9.3623846769332886e-01" nType="-99"/>
            <Node pos="r" depth="3" NCoef="0" IVar="-1" Cut="0.0000000000000000e+00" cType="1" res="1.7374315066263080e-03" rms="1.3868306577205658e-01" purity="9.8020863533020020e-01" nType="-99"/>
          </Node>
          <Node pos="r" depth="2" NCoef="0" IVar="-1" Cut="0.0000000000000000e+00" cType="1" res="9.1709085972979665e-04" rms="2.4152763187885284e-01" purity="9.3050628900527954e-01" nType="-99"/>
        </Node>
      </Node>
    </BinaryTree>
    <BinaryTree type="DecisionTree" boostWeight="1.0000000000000000e+00" itree="565">
      <Node pos="s" depth="0" NCoef="0" IVar="2" Cut="2.9927765625000000e+05" cType="1" res="3.6363348364830017e-02" rms="2.5906962156295776e-01" purity="4.8898485302925110e-01" nType="0">
        <Node pos="l" depth="1" NCoef="0" IVar="2" Cut="1.4430800000000000e+05" cType="1" res="1.7033858224749565e-02" rms="2.5867551565170288e-01" purity="3.4181377291679382e-01" nType="0">
          <Node pos="l" depth="2" NCoef="0" IVar="-1" Cut="0.0000000000000000e+00" cType="1" res="-1.6357570886611938e-02" rms="2.9049661755561829e-01" purity="7.6844379305839539e-02" nType="-99"/>
          <Node pos="r" depth="2" NCoef="0" IVar="3" Cut="3.2817875000000000e+04" cType="1" res="2.3654947057366371e-02" rms="2.5482919812202454e-01" purity="3.5027107596397400e-01" nType="0">
            <Node pos="l" depth="3" NCoef="0" IVar="-1" Cut="0.0000000000000000e+00" cType="1" res="-9.5930177485570312e-04" rms="1.9442155957221985e-01" purity="5.4591596126556396e-02" nType="-99"/>
            <Node pos="r" depth="3" NCoef="0" IVar="-1" Cut="0.0000000000000000e+00" cType="1" res="1.1742610950022936e-03" rms="3.1045168638229370e-01" purity="7.1756511926651001e-01" nType="-99"/>
          </Node>
        </Node>
        <Node pos="r" depth="1" NCoef="0" IVar="1" Cut="9.3660710937500000e+04" cType="1" res="6.2440983951091766e-02" rms="2.5730958580970764e-01" purity="6.8753504753112793e-01" nType="0">
          <Node pos="l" depth="2" NCoef="0" IVar="4" Cut="2.1671914062500000e+05" cType="1" res="2.6473382487893105e-02" rms="2.6533591747283936e-01" purity="4.1214576363563538e-01" nType="0">
            <Node pos="l" depth="3" NCoef="0" IVar="-1" Cut="0.0000000000000000e+00" cType="1" res="5.5646430701017380e-03" rms="3.2075792551040649e-01" purity="3.3127206563949585e-01" nType="-99"/>
            <Node pos="r" depth="3" NCoef="0" IVar="-1" Cut="0.0000000000000000e+00" cType="1" res="3.6584329791367054e-04" rms="2.5291267037391663e-01" purity="4.2379665374755859e-01" nType="-99"/>
          </Node>
          <Node pos="r" depth="2" NCoef="0" IVar="0" Cut="2.2857143878936768e+00" cType="1" res="7.8958570957183838e-02" rms="2.5182303786277771e-01" purity="8.1400352716445923e-01" nType="0">
            <Node pos="l" depth="3" NCoef="0" IVar="-1" Cut="0.0000000000000000e+00" cType="1" res="8.3969638217240572e-04" rms="2.5599217414855957e-01" purity="7.9489064216613770e-01" nType="-99"/>
            <Node pos="r" depth="3" NCoef="0" IVar="-1" Cut="0.0000000000000000e+00" cType="1" res="2.3424706887453794e-03" rms="2.2752188146114349e-01" purity="9.0973252058029175e-01" nType="-99"/>
          </Node>
        </Node>
      </Node>
    </BinaryTree>
    <BinaryTree type="DecisionTree" boostWeight="1.0000000000000000e+00" itree="566">
      <Node pos="s" depth="0" NCoef="0" IVar="1" Cut="1.1104675000000000e+05" cType="1" res="4.5488126575946808e-02" rms="2.5982931256294250e-01" purity="5.1342564821243286e-01" nType="0">
        <Node pos="l" depth="1" NCoef="0" IVar="1" Cut="8.2748320312500000e+04" cType="1" res="2.4696197360754013e-02" rms="2.6134461164474487e-01" purity="3.2927328348159790e-01" nType="0">
          <Node pos="l" depth="2" NCoef="0" IVar="4" Cut="2.2708779687500000e+05" cType="1" res="6.5364092588424683e-02" rms="3.1794914603233337e-01" purity="5.9724891185760498e-01" nType="0">
            <Node pos="l" depth="3" NCoef="0" IVar="-1" Cut="0.0000000000000000e+00" cType="1" res="1.2528855586424470e-03" rms="3.1141987442970276e-01" purity="4.2601537704467773e-01" nType="-99"/>
            <Node pos="r" depth="3" NCoef="0" IVar="-1" Cut="0.0000000000000000e+00" cType="1" res="1.5952099347487092e-03" rms="3.2137545943260193e-01" purity="7.4776643514633179e-01" nType="-99"/>
          </Node>
          <Node pos="r" depth="2" NCoef="0" IVar="3" Cut="6.5456371093750000e+04" cType="1" res="1.0657756356522441e-03" rms="2.1846812963485718e-01" purity="1.7356379330158234e-01" nType="0">
            <Node pos="l" depth="3" NCoef="0" IVar="-1" Cut="0.0000000000000000e+00" cType="1" res="-1.5434771776199341e-03" rms="2.0085354149341583e-01" purity="6.2610864639282227e-02" nType="-99"/>
            <Node pos="r" depth="3" NCoef="0" IVar="-1" Cut="0.0000000000000000e+00" cType="1" res="1.1479660170152783e-03" rms="2.9733657836914062e-01" purity="8.8608831167221069e-01" nType="-99"/>
          </Node>
        </Node>
        <Node pos="r" depth="1" NCoef="0" IVar="1" Cut="1.5585837500000000e+05" cType="1" res="8.9483976364135742e-02" rms="2.5097766518592834e-01" purity="9.0309333801269531e-01" nType="0">
          <Node pos="l" depth="2" NCoef="0" IVar="3" Cut="3.7902179687500000e+04" cType="1" res="1.0587171465158463e-01" rms="2.8915277123451233e-01" purity="8.5734313726425171e-01" nType="0">
            <Node pos="l" depth="3" NCoef="0" IVar="-1" Cut="0.0000000000000000e+00" cType="1" res="1.3245315058156848e-03" rms="4.2954051494598389e-01" purity="6.3455271720886230e-01" nType="-99"/>
            <Node pos="r" depth="3" NCoef="0" IVar="-1" Cut="0.0000000000000000e+00" cType="1" res="1.3593767071142793e-03" rms="1.9596685469150543e-01" purity="9.5474773645401001e-01" nType="-99"/>
          </Node>
          <Node pos="r" depth="2" NCoef="0" IVar="3" Cut="5.4305199218750000e+04" cType="1" res="7.8533560037612915e-02" rms="2.2116121649742126e-01" purity="9.3366384506225586e-01" nType="0">
            <Node pos="l" depth="3" NCoef="0" IVar="-1" Cut="0.0000000000000000e+00" cType="1" res="7.5087667210027575e-04" rms="3.4182858467102051e-01" purity="8.3107787370681763e-01" nType="-99"/>
            <Node pos="r" depth="3" NCoef="0" IVar="-1" Cut="0.0000000000000000e+00" cType="1" res="1.0741881560534239e-03" rms="1.1861891299486160e-01" purity="9.8561131954193115e-01" nType="-99"/>
          </Node>
        </Node>
      </Node>
    </BinaryTree>
    <BinaryTree type="DecisionTree" boostWeight="1.0000000000000000e+00" itree="567">
      <Node pos="s" depth="0" NCoef="0" IVar="3" Cut="6.8843453125000000e+04" cType="1" res="4.1992332786321640e-02" rms="2.6911601424217224e-01" purity="5.0544571876525879e-01" nType="0">
        <Node pos="l" depth="1" NCoef="0" IVar="3" Cut="4.5939523437500000e+04" cType="1" res="2.7753762900829315e-02" rms="2.9358255863189697e-01" purity="3.0647876858711243e-01" nType="0">
          <Node pos="l" depth="2" NCoef="0" IVar="5" Cut="8.5004625000000000e+04" cType="1" res="1.2487018480896950e-02" rms="2.8130203485488892e-01" purity="1.7324674129486084e-01" nType="0">
            <Node pos="l" depth="3" NCoef="0" IVar="-1" Cut="0.0000000000000000e+00" cType="1" res="5.1469560712575912e-03" rms="4.6932214498519897e-01" purity="4.6764355897903442e-01" nType="-99"/>
            <Node pos="r" depth="3" NCoef="0" IVar="-1" Cut="0.0000000000000000e+00" cType="1" res="4.3978815665468574e-04" rms="2.7099841833114624e-01" purity="1.6339153051376343e-01" nType="-99"/>
          </Node>
          <Node pos="r" depth="2" NCoef="0" IVar="5" Cut="9.1273773437500000e+04" cType="1" res="8.2738481462001801e-02" rms="3.2826030254364014e-01" purity="7.8632742166519165e-01" nType="0">
            <Node pos="l" depth="3" NCoef="0" IVar="-1" Cut="0.0000000000000000e+00" cType="1" res="9.6969143487513065e-04" rms="3.1126862764358521e-01" purity="8.2823967933654785e-01" nType="-99"/>
            <Node pos="r" depth="3" NCoef="0" IVar="-1" Cut="0.0000000000000000e+00" cType="1" res="2.8830172959715128e-04" rms="3.4746101498603821e-01" purity="7.1054595708847046e-01" nType="-99"/>
          </Node>
        </Node>
        <Node pos="r" depth="1" NCoef="0" IVar="2" Cut="2.0971367187500000e+05" cType="1" res="7.4212424457073212e-02" rms="1.9943137466907501e-01" purity="9.5568287372589111e-01" nType="0">
          <Node pos="l" depth="2" NCoef="0" IVar="-1" Cut="0.0000000000000000e+00" cType="1" res="1.1125013697892427e-03" rms="1.7902523279190063e-01" purity="9.6450370550155640e-01" nType="-99"/>
          <Node pos="r" depth="2" NCoef="0" IVar="2" Cut="2.9558959375000000e+05" cType="1" res="6.6516019403934479e-02" rms="2.0278644561767578e-01" purity="9.5376300811767578e-01" nType="0">
            <Node pos="l" depth="3" NCoef="0" IVar="-1" Cut="0.0000000000000000e+00" cType="1" res="4.6445342013612390e-04" rms="2.8901210427284241e-01" purity="9.0232807397842407e-01" nType="-99"/>
            <Node pos="r" depth="3" NCoef="0" IVar="-1" Cut="0.0000000000000000e+00" cType="1" res="1.5697267372161150e-03" rms="1.5163791179656982e-01" purity="9.7483897209167480e-01" nType="-99"/>
          </Node>
        </Node>
      </Node>
    </BinaryTree>
    <BinaryTree type="DecisionTree" boostWeight="1.0000000000000000e+00" itree="568">
      <Node pos="s" depth="0" NCoef="0" IVar="3" Cut="4.8659894531250000e+04" cType="1" res="4.6350728720426559e-02" rms="2.6238927245140076e-01" purity="5.0350916385650635e-01" nType="0">
        <Node pos="l" depth="1" NCoef="0" IVar="5" Cut="9.3549078125000000e+04" cType="1" res="2.3209894075989723e-02" rms="2.8296083211898804e-01" purity="2.0158106088638306e-01" nType="0">
          <Node pos="l" depth="2" NCoef="0" IVar="2" Cut="3.5697400000000000e+05" cType="1" res="3.1835999339818954e-02" rms="2.8509992361068726e-01" purity="2.0845668017864227e-01" nType="0">
            <Node pos="l" depth="3" NCoef="0" IVar="-1" Cut="0.0000000000000000e+00" cType="1" res="1.0225570295006037e-03" rms="2.6919245719909668e-01" purity="1.4262059330940247e-01" nType="-99"/>
            <Node pos="r" depth="3" NCoef="0" IVar="-1" Cut="0.0000000000000000e+00" cType="1" res="8.9229975128546357e-04" rms="3.3407971262931824e-01" purity="4.5771127939224243e-01" nType="-99"/>
          </Node>
          <Node pos="r" depth="2" NCoef="0" IVar="3" Cut="3.0180218750000000e+04" cType="1" res="-6.5871343016624451e-02" rms="2.4251689016819000e-01" purity="1.3057717680931091e-01" nType="0">
            <Node pos="l" depth="3" NCoef="0" IVar="-1" Cut="0.0000000000000000e+00" cType="1" res="-5.0624427385628223e-03" rms="2.1797515451908112e-01" purity="9.5610454678535461e-02" nType="-99"/>
            <Node pos="r" depth="3" NCoef="0" IVar="-1" Cut="0.0000000000000000e+00" cType="1" res="-1.0887926444411278e-02" rms="2.8705847263336182e-01" purity="2.4710771441459656e-01" nType="-99"/>
          </Node>
        </Node>
        <Node pos="r" depth="1" NCoef="0" IVar="4" Cut="1.8384532812500000e+05" cType="1" res="7.7937759459018707e-02" rms="2.2760929167270660e-01" purity="9.1563844680786133e-01" nType="0">
          <Node pos="l" depth="2" NCoef="0" IVar="-1" Cut="0.0000000000000000e+00" cType="1" res="5.1799032371491194e-04" rms="3.1861817836761475e-01" purity="7.7687525749206543e-01" nType="-99"/>
          <Node pos="r" depth="2" NCoef="0" IVar="0" Cut="3.8095238804817200e-01" cType="1" res="8.1216648221015930e-02" rms="2.2051830589771271e-01" purity="9.2397910356521606e-01" nType="0">
            <Node pos="l" depth="3" NCoef="0" IVar="-1" Cut="0.0000000000000000e+00" cType="1" res="1.5670829452574253e-03" rms="1.9111524522304535e-01" purity="9.3679976463317871e-01" nType="-99"/>
            <Node pos="r" depth="3" NCoef="0" IVar="-1" Cut="0.0000000000000000e+00" cType="1" res="1.1292127892374992e-03" rms="2.3305089771747589e-01" purity="9.1778719425201416e-01" nType="-99"/>
          </Node>
        </Node>
      </Node>
    </BinaryTree>
    <BinaryTree type="DecisionTree" boostWeight="1.0000000000000000e+00" itree="569">
      <Node pos="s" depth="0" NCoef="0" IVar="3" Cut="6.8736484375000000e+04" cType="1" res="4.2019933462142944e-02" rms="2.6774758100509644e-01" purity="5.1593488454818726e-01" nType="0">
        <Node pos="l" depth="1" NCoef="0" IVar="2" Cut="2.7263100000000000e+05" cType="1" res="2.2927725687623024e-02" rms="3.0269452929496765e-01" purity="2.8073742985725403e-01" nType="0">
          <Node pos="l" depth="2" NCoef="0" IVar="1" Cut="5.8384160156250000e+04" cType="1" res="-4.3579940684139729e-03" rms="2.5664561986923218e-01" purity="1.4528423547744751e-01" nType="0">
            <Node pos="l" depth="3" NCoef="0" IVar="-1" Cut="0.0000000000000000e+00" cType="1" res="1.6302648000419140e-03" rms="4.0634194016456604e-01" purity="3.6486694216728210e-01" nType="-99"/>
            <Node pos="r" depth="3" NCoef="0" IVar="-1" Cut="0.0000000000000000e+00" cType="1" res="-1.9769126083701849e-03" rms="2.0738258957862854e-01" purity="9.7907453775405884e-02" nType="-99"/>
          </Node>
          <Node pos="r" depth="2" NCoef="0" IVar="1" Cut="7.9567289062500000e+04" cType="1" res="5.6317277252674103e-02" rms="3.4801858663558960e-01" purity="4.4649159908294678e-01" nType="0">
            <Node pos="l" depth="3" NCoef="0" IVar="-1" Cut="0.0000000000000000e+00" cType="1" res="1.6109435819089413e-03" rms="4.7672435641288757e-01" purity="6.0143536329269409e-01" nType="-99"/>
            <Node pos="r" depth="3" NCoef="0" IVar="-1" Cut="0.0000000000000000e+00" cType="1" res="1.2004264863207936e-03" rms="3.2255488634109497e-01" purity="4.2377203702926636e-01" nType="-99"/>
          </Node>
        </Node>
        <Node pos="r" depth="1" NCoef="0" IVar="1" Cut="1.1128134375000000e+05" cType="1" res="7.8376479446887970e-02" rms="1.7807573080062866e-01" purity="9.6381229162216187e-01" nType="0">
          <Node pos="l" depth="2" NCoef="0" IVar="3" Cut="1.4288950000000000e+05" cType="1" res="6.8862281739711761e-02" rms="2.2084847092628479e-01" purity="9.4300496578216553e-01" nType="0">
            <Node pos="l" depth="3" NCoef="0" IVar="-1" Cut="0.0000000000000000e+00" cType="1" res="7.2855351027101278e-04" rms="2.6055699586868286e-01" purity="9.1920113563537598e-01" nType="-99"/>
            <Node pos="r" depth="3" NCoef="0" IVar="-1" Cut="0.0000000000000000e+00" cType="1" res="2.0471345633268356e-03" rms="1.0106579959392548e-01" purity="9.8995578289031982e-01" nType="-99"/>
          </Node>
          <Node pos="r" depth="2" NCoef="0" IVar="-1" Cut="0.0000000000000000e+00" cType="1" res="1.1767338728532195e-03" rms="1.0304053127765656e-01" purity="9.8923498392105103e-01" nType="-99"/>
        </Node>
      </Node>
    </BinaryTree>
    <BinaryTree type="DecisionTree" boostWeight="1.0000000000000000e+00" itree="570">
      <Node pos="s" depth="0" NCoef="0" IVar="3" Cut="2.8361986328125000e+04" cType="1" res="4.0436662733554840e-02" rms="2.6133584976196289e-01" purity="4.9921119213104248e-01" nType="0">
        <Node pos="l" depth="1" NCoef="0" IVar="5" Cut="8.6903976562500000e+04" cType="1" res="-1.5670453431084752e-03" rms="2.2962838411331177e-01" purity="1.0305128246545792e-01" nType="0">
          <Node pos="l" depth="2" NCoef="0" IVar="1" Cut="9.1655703125000000e+04" cType="1" res="1.0063784569501877e-01" rms="3.4482932090759277e-01" purity="3.7901940941810608e-01" nType="0">
            <Node pos="l" depth="3" NCoef="0" IVar="-1" Cut="0.0000000000000000e+00" cType="1" res="3.0761889647692442e-03" rms="3.1123721599578857e-01" purity="1.2021365016698837e-01" nType="-99"/>
            <Node pos="r" depth="3" NCoef="0" IVar="-1" Cut="0.0000000000000000e+00" cType="1" res="1.4339351328089833e-03" rms="3.6121535301208496e-01" purity="6.1609101295471191e-01" nType="-99"/>
          </Node>
          <Node pos="r" depth="2" NCoef="0" IVar="3" Cut="2.7548383789062500e+03" cType="1" res="-1.1333948932588100e-02" rms="2.1286490559577942e-01" purity="7.6679214835166931e-02" nType="0">
            <Node pos="l" depth="3" NCoef="0" IVar="-1" Cut="0.0000000000000000e+00" cType="1" res="2.3361066356301308e-02" rms="3.5987433791160583e-01" purity="1.7200346291065216e-01" nType="-99"/>
            <Node pos="r" depth="3" NCoef="0" IVar="-1" Cut="0.0000000000000000e+00" cType="1" res="-2.8247151058167219e-03" rms="2.0330798625946045e-01" purity="7.3129475116729736e-02" nType="-99"/>
          </Node>
        </Node>
        <Node pos="r" depth="1" NCoef="0" IVar="2" Cut="2.4431995312500000e+05" cType="1" res="6.8077050149440765e-02" rms="2.7679488062858582e-01" purity="7.5990277528762817e-01" nType="0">
          <Node pos="l" depth="2" NCoef="0" IVar="5" Cut="9.4367757812500000e+04" cType="1" res="3.1060134992003441e-02" rms="3.2027694582939148e-01" purity="5.8648294210433960e-01" nType="0">
            <Node pos="l" depth="3" NCoef="0" IVar="-1" Cut="0.0000000000000000e+00" cType="1" res="3.1944713555276394e-04" rms="3.1851691007614136e-01" purity="5.5869245529174805e-01" nType="-99"/>
            <Node pos="r" depth="3" NCoef="0" IVar="-1" Cut="0.0000000000000000e+00" cType="1" res="2.6572023052722216e-03" rms="3.0114883184432983e-01" purity="8.0736440420150757e-01" nType="-99"/>
          </Node>
          <Node pos="r" depth="2" NCoef="0" IVar="5" Cut="9.1497851562500000e+04" cType="1" res="8.2535095512866974e-02" rms="2.5638055801391602e-01" purity="8.2763701677322388e-01" nType="0">
            <Node pos="l" depth="3" NCoef="0" IVar="-1" Cut="0.0000000000000000e+00" cType="1" res="9.2776014935225248e-04" rms="2.5846493244171143e-01" purity="8.4599447250366211e-01" nType="-99"/>
            <Node pos="r" depth="3" NCoef="0" IVar="-1" Cut="0.0000000000000000e+00" cType="1" res="8.1707269418984652e-04" rms="2.4754738807678223e-01" purity="7.9089033603668213e-01" nType="-99"/>
          </Node>
        </Node>
      </Node>
    </BinaryTree>
    <BinaryTree type="DecisionTree" boostWeight="1.0000000000000000e+00" itree="571">
      <Node pos="s" depth="0" NCoef="0" IVar="1" Cut="1.4548423437500000e+05" cType="1" res="3.7630997598171234e-02" rms="2.6533210277557373e-01" purity="4.9785652756690979e-01" nType="0">
        <Node pos="l" depth="1" NCoef="0" IVar="3" Cut="5.7944617187500000e+04" cType="1" res="2.5493266060948372e-02" rms="2.7579313516616821e-01" purity="3.8436862826347351e-01" nType="0">
          <Node pos="l" depth="2" NCoef="0" IVar="3" Cut="3.0453347656250000e+04" cType="1" res="8.3536561578512192e-03" rms="2.8325742483139038e-01" purity="1.5223091840744019e-01" nType="0">
            <Node pos="l" depth="3" NCoef="0" IVar="-1" Cut="0.0000000000000000e+00" cType="1" res="3.9279730990529060e-03" rms="2.5165957212448120e-01" purity="8.7984308600425720e-02" nType="-99"/>
            <Node pos="r" depth="3" NCoef="0" IVar="-1" Cut="0.0000000000000000e+00" cType="1" res="-1.1320492485538125e-03" rms="3.4697699546813965e-01" purity="3.1741195917129517e-01" nType="-99"/>
          </Node>
          <Node pos="r" depth="2" NCoef="0" IVar="1" Cut="9.4723007812500000e+04" cType="1" res="6.4512684941291809e-02" rms="2.5371372699737549e-01" purity="9.1284501552581787e-01" nType="0">
            <Node pos="l" depth="3" NCoef="0" IVar="-1" Cut="0.0000000000000000e+00" cType="1" res="6.3170812791213393e-04" rms="2.7091830968856812e-01" purity="8.8838827610015869e-01" nType="-99"/>
            <Node pos="r" depth="3" NCoef="0" IVar="-1" Cut="0.0000000000000000e+00" cType="1" res="1.5054458053782582e-03" rms="2.1096086502075195e-01" purity="9.5602893829345703e-01" nType="-99"/>
          </Node>
        </Node>
        <Node pos="r" depth="1" NCoef="0" IVar="4" Cut="3.1714528125000000e+05" cType="1" res="8.4729351103305817e-02" rms="2.1364867687225342e-01" purity="9.3822634220123291e-01" nType="0">
          <Node pos="l" depth="2" NCoef="0" IVar="-1" Cut="0.0000000000000000e+00" cType="1" res="1.4771855203434825e-03" rms="2.6617684960365295e-01" purity="9.0399271249771118e-01" nType="-99"/>
          <Node pos="r" depth="2" NCoef="0" IVar="3" Cut="5.0106308593750000e+04" cType="1" res="7.7289313077926636e-02" rms="1.9451704621315002e-01" purity="9.4850718975067139e-01" nType="0">
            <Node pos="l" depth="3" NCoef="0" IVar="-1" Cut="0.0000000000000000e+00" cType="1" res="7.9848576569929719e-04" rms="3.1361588835716248e-01" purity="8.5267603397369385e-01" nType="-99"/>
            <Node pos="r" depth="3" NCoef="0" IVar="-1" Cut="0.0000000000000000e+00" cType="1" res="1.1521027190610766e-03" rms="1.1069020628929138e-01" purity="9.8761349916458130e-01" nType="-99"/>
          </Node>
        </Node>
      </Node>
    </BinaryTree>
    <BinaryTree type="DecisionTree" boostWeight="1.0000000000000000e+00" itree="572">
      <Node pos="s" depth="0" NCoef="0" IVar="1" Cut="1.0034835937500000e+05" cType="1" res="4.3329965323209763e-02" rms="2.5853893160820007e-01" purity="5.0369471311569214e-01" nType="0">
        <Node pos="l" depth="1" NCoef="0" IVar="1" Cut="8.3521304687500000e+04" cType="1" res="2.1509928628802299e-02" rms="2.6104024052619934e-01" purity="3.0947211384773254e-01" nType="0">
          <Node pos="l" depth="2" NCoef="0" IVar="4" Cut="2.2397928125000000e+05" cType="1" res="6.1084941029548645e-02" rms="3.1457155942916870e-01" purity="5.8078902959823608e-01" nType="0">
            <Node pos="l" depth="3" NCoef="0" IVar="-1" Cut="0.0000000000000000e+00" cType="1" res="5.7115970412269235e-04" rms="2.9987031221389771e-01" purity="3.6148035526275635e-01" nType="-99"/>
            <Node pos="r" depth="3" NCoef="0" IVar="-1" Cut="0.0000000000000000e+00" cType="1" res="1.8895969260483980e-03" rms="3.2086798548698425e-01" purity="7.5274074077606201e-01" nType="-99"/>
          </Node>
          <Node pos="r" depth="2" NCoef="0" IVar="1" Cut="9.7946007812500000e+04" cType="1" res="-8.2379765808582306e-03" rms="2.0716647803783417e-01" purity="1.0552751272916794e-01" nType="0">
            <Node pos="l" depth="3" NCoef="0" IVar="-1" Cut="0.0000000000000000e+00" cType="1" res="-2.1771963220089674e-03" rms="1.9555893540382385e-01" purity="8.6770959198474884e-02" nType="-99"/>
            <Node pos="r" depth="3" NCoef="0" IVar="-1" Cut="0.0000000000000000e+00" cType="1" res="2.5809109210968018e-03" rms="3.2101044058799744e-01" purity="4.0900823473930359e-01" nType="-99"/>
          </Node>
        </Node>
        <Node pos="r" depth="1" NCoef="0" IVar="3" Cut="4.8766871093750000e+04" cType="1" res="8.2331590354442596e-02" rms="2.4929355084896088e-01" purity="8.5085266828536987e-01" nType="0">
          <Node pos="l" depth="2" NCoef="0" IVar="3" Cut="3.4793542968750000e+04" cType="1" res="6.0193188488483429e-02" rms="3.5088780522346497e-01" purity="6.4830845594406128e-01" nType="0">
            <Node pos="l" depth="3" NCoef="0" IVar="-1" Cut="0.0000000000000000e+00" cType="1" res="1.0818921145983040e-04" rms="3.6828589439392090e-01" purity="4.9898469448089600e-01" nType="-99"/>
            <Node pos="r" depth="3" NCoef="0" IVar="-1" Cut="0.0000000000000000e+00" cType="1" res="6.2287674518302083e-04" rms="3.0085727572441101e-01" purity="8.8686430454254150e-01" nType="-99"/>
          </Node>
          <Node pos="r" depth="2" NCoef="0" IVar="4" Cut="3.9066378125000000e+05" cType="1" res="9.5982827246189117e-02" rms="1.5511158108711243e-01" purity="9.7574782371520996e-01" nType="0">
            <Node pos="l" depth="3" NCoef="0" IVar="-1" Cut="0.0000000000000000e+00" cType="1" res="1.3566792476922274e-03" rms="1.6900828480720520e-01" purity="9.7160655260086060e-01" nType="-99"/>
            <Node pos="r" depth="3" NCoef="0" IVar="-1" Cut="0.0000000000000000e+00" cType="1" res="1.9371364032849669e-03" rms="1.4255914092063904e-01" purity="9.7896748781204224e-01" nType="-99"/>
          </Node>
        </Node>
      </Node>
    </BinaryTree>
    <BinaryTree type="DecisionTree" boostWeight="1.0000000000000000e+00" itree="573">
      <Node pos="s" depth="0" NCoef="0" IVar="5" Cut="9.7299000000000000e+04" cType="1" res="5.2150692790746689e-02" rms="2.7404156327247620e-01" purity="5.2167129516601562e-01" nType="0">
        <Node pos="l" depth="1" NCoef="0" IVar="1" Cut="1.1105100000000000e+05" cType="1" res="4.8097241669893265e-02" rms="2.6816192269325256e-01" purity="5.1649385690689087e-01" nType="0">
          <Node pos="l" depth="2" NCoef="0" IVar="1" Cut="8.2749656250000000e+04" cType="1" res="3.2385498285293579e-02" rms="2.7768564224243164e-01" purity="3.4176766872406006e-01" nType="0">
            <Node pos="l" depth="3" NCoef="0" IVar="-1" Cut="0.0000000000000000e+00" cType="1" res="1.7551000928506255e-03" rms="3.4706309437751770e-01" purity="5.9682929515838623e-01" nType="-99"/>
            <Node pos="r" depth="3" NCoef="0" IVar="-1" Cut="0.0000000000000000e+00" cType="1" res="2.9318610904738307e-04" rms="2.2305434942245483e-01" purity="1.9192259013652802e-01" nType="-99"/>
          </Node>
          <Node pos="r" depth="2" NCoef="0" IVar="4" Cut="4.1020550000000000e+05" cType="1" res="8.3188079297542572e-02" rms="2.4190436303615570e-01" purity="9.0672999620437622e-01" nType="0">
            <Node pos="l" depth="3" NCoef="0" IVar="-1" Cut="0.0000000000000000e+00" cType="1" res="1.0894917650148273e-03" rms="2.8370088338851929e-01" purity="8.6679166555404663e-01" nType="-99"/>
            <Node pos="r" depth="3" NCoef="0" IVar="-1" Cut="0.0000000000000000e+00" cType="1" res="1.2200124328956008e-03" rms="1.9450272619724274e-01" purity="9.4363886117935181e-01" nType="-99"/>
          </Node>
        </Node>
        <Node pos="r" depth="1" NCoef="0" IVar="-1" Cut="0.0000000000000000e+00" cType="1" res="6.2886388041079044e-03" rms="4.3037909269332886e-01" purity="7.5674486160278320e-01" nType="-99"/>
      </Node>
    </BinaryTree>
    <BinaryTree type="DecisionTree" boostWeight="1.0000000000000000e+00" itree="574">
      <Node pos="s" depth="0" NCoef="0" IVar="1" Cut="1.0034389062500000e+05" cType="1" res="3.4688834100961685e-02" rms="2.5499778985977173e-01" purity="5.0112199783325195e-01" nType="0">
        <Node pos="l" depth="1" NCoef="0" IVar="3" Cut="8.6873906250000000e+04" cType="1" res="9.4348648563027382e-03" rms="2.4174173176288605e-01" purity="3.1325516104698181e-01" nType="0">
          <Node pos="l" depth="2" NCoef="0" IVar="5" Cut="9.3481484375000000e+04" cType="1" res="-6.2522082589566708e-03" rms="2.5311782956123352e-01" purity="1.6285483539104462e-01" nType="0">
            <Node pos="l" depth="3" NCoef="0" IVar="-1" Cut="0.0000000000000000e+00" cType="1" res="-1.3289870694279671e-03" rms="2.3344847559928894e-01" purity="1.3539072871208191e-01" nType="-99"/>
            <Node pos="r" depth="3" NCoef="0" IVar="-1" Cut="0.0000000000000000e+00" cType="1" res="1.9061167258769274e-03" rms="3.4278175234794617e-01" purity="3.4370121359825134e-01" nType="-99"/>
          </Node>
          <Node pos="r" depth="2" NCoef="0" IVar="0" Cut="2.8571429848670959e-01" cType="1" res="7.7876277267932892e-02" rms="1.6768972575664520e-01" purity="9.6943962574005127e-01" nType="0">
            <Node pos="l" depth="3" NCoef="0" IVar="-1" Cut="0.0000000000000000e+00" cType="1" res="2.0213206298649311e-03" rms="1.2192969024181366e-01" purity="9.8482626676559448e-01" nType="-99"/>
            <Node pos="r" depth="3" NCoef="0" IVar="-1" Cut="0.0000000000000000e+00" cType="1" res="1.4160742284730077e-03" rms="1.9807024300098419e-01" purity="9.5573920011520386e-01" nType="-99"/>
          </Node>
        </Node>
        <Node pos="r" depth="1" NCoef="0" IVar="5" Cut="8.9696187500000000e+04" cType="1" res="8.1198580563068390e-02" rms="2.7168601751327515e-01" purity="8.4711271524429321e-01" nType="0">
          <Node pos="l" depth="2" NCoef="0" IVar="0" Cut="1.3333333730697632e+00" cType="1" res="9.5621421933174133e-02" rms="2.6586341857910156e-01" purity="8.6681938171386719e-01" nType="0">
            <Node pos="l" depth="3" NCoef="0" IVar="-1" Cut="0.0000000000000000e+00" cType="1" res="7.4371648952364922e-04" rms="2.6826527714729309e-01" purity="8.5809463262557983e-01" nType="-99"/>
            <Node pos="r" depth="3" NCoef="0" IVar="-1" Cut="0.0000000000000000e+00" cType="1" res="5.7774339802563190e-04" rms="2.4697554111480713e-01" purity="8.9002734422683716e-01" nType="-99"/>
          </Node>
          <Node pos="r" depth="2" NCoef="0" IVar="4" Cut="4.9363596875000000e+05" cType="1" res="7.1568317711353302e-02" rms="2.7508458495140076e-01" purity="8.3395445346832275e-01" nType="0">
            <Node pos="l" depth="3" NCoef="0" IVar="-1" Cut="0.0000000000000000e+00" cType="1" res="9.4457581872120500e-04" rms="3.1429678201675415e-01" purity="7.4979251623153687e-01" nType="-99"/>
            <Node pos="r" depth="3" NCoef="0" IVar="-1" Cut="0.0000000000000000e+00" cType="1" res="1.8106641946360469e-03" rms="2.0973722636699677e-01" purity="9.4625246524810791e-01" nType="-99"/>
          </Node>
        </Node>
      </Node>
    </BinaryTree>
    <BinaryTree type="DecisionTree" boostWeight="1.0000000000000000e+00" itree="575">
      <Node pos="s" depth="0" NCoef="0" IVar="1" Cut="1.0034835937500000e+05" cType="1" res="3.8981750607490540e-02" rms="2.6894688606262207e-01" purity="4.9449801445007324e-01" nType="0">
        <Node pos="l" depth="1" NCoef="0" IVar="1" Cut="8.3515375000000000e+04" cType="1" res="1.6865264624357224e-02" rms="2.6675865054130554e-01" purity="3.0858424305915833e-01" nType="0">
          <Node pos="l" depth="2" NCoef="0" IVar="4" Cut="1.7483821875000000e+05" cType="1" res="6.2343735247850418e-02" rms="3.4356135129928589e-01" purity="5.7598567008972168e-01" nType="0">
            <Node pos="l" depth="3" NCoef="0" IVar="-1" Cut="0.0000000000000000e+00" cType="1" res="2.6961930561810732e-03" rms="4.1833943128585815e-01" purity="3.7696853280067444e-01" nType="-99"/>
            <Node pos="r" depth="3" NCoef="0" IVar="-1" Cut="0.0000000000000000e+00" cType="1" res="1.0287301847711205e-03" rms="3.0458948016166687e-01" purity="6.5788567066192627e-01" nType="-99"/>
          </Node>
          <Node pos="r" depth="2" NCoef="0" IVar="3" Cut="7.5616148437500000e+04" cType="1" res="-1.6438493505120277e-02" rms="1.8496102094650269e-01" purity="1.1276694387197495e-01" nType="0">
            <Node pos="l" depth="3" NCoef="0" IVar="-1" Cut="0.0000000000000000e+00" cType="1" res="-1.0933275334537029e-02" rms="1.7120482027530670e-01" purity="3.1568951904773712e-02" nType="-99"/>
            <Node pos="r" depth="3" NCoef="0" IVar="-1" Cut="0.0000000000000000e+00" cType="1" res="1.1708250967785716e-03" rms="2.6309216022491455e-01" purity="9.2088723182678223e-01" nType="-99"/>
          </Node>
        </Node>
        <Node pos="r" depth="1" NCoef="0" IVar="5" Cut="9.0682359375000000e+04" cType="1" res="8.1203989684581757e-02" rms="2.6805558800697327e-01" purity="8.4942305088043213e-01" nType="0">
          <Node pos="l" depth="2" NCoef="0" IVar="4" Cut="2.0227810937500000e+05" cType="1" res="1.0944049805402756e-01" rms="2.9696190357208252e-01" purity="8.5006785392761230e-01" nType="0">
            <Node pos="l" depth="3" NCoef="0" IVar="-1" Cut="0.0000000000000000e+00" cType="1" res="3.0953697860240936e-03" rms="3.9718624949455261e-01" purity="6.2559968233108521e-01" nType="-99"/>
            <Node pos="r" depth="3" NCoef="0" IVar="-1" Cut="0.0000000000000000e+00" cType="1" res="1.1167767224833369e-03" rms="2.8028565645217896e-01" purity="8.7401956319808960e-01" nType="-99"/>
          </Node>
          <Node pos="r" depth="2" NCoef="0" IVar="3" Cut="6.8969335937500000e+04" cType="1" res="5.1787845790386200e-02" rms="2.3052757978439331e-01" purity="8.4875142574310303e-01" nType="0">
            <Node pos="l" depth="3" NCoef="0" IVar="-1" Cut="0.0000000000000000e+00" cType="1" res="6.2499326304532588e-05" rms="3.1898304820060730e-01" purity="6.7290776968002319e-01" nType="-99"/>
            <Node pos="r" depth="3" NCoef="0" IVar="-1" Cut="0.0000000000000000e+00" cType="1" res="1.1453955667093396e-03" rms="1.0577000677585602e-01" purity="9.8866075277328491e-01" nType="-99"/>
          </Node>
        </Node>
      </Node>
    </BinaryTree>
    <BinaryTree type="DecisionTree" boostWeight="1.0000000000000000e+00" itree="576">
      <Node pos="s" depth="0" NCoef="0" IVar="3" Cut="9.7319070312500000e+04" cType="1" res="4.1493356227874756e-02" rms="2.7241274714469910e-01" purity="4.9371188879013062e-01" nType="0">
        <Node pos="l" depth="1" NCoef="0" IVar="1" Cut="1.0035560937500000e+05" cType="1" res="2.9990369454026222e-02" rms="2.9883399605751038e-01" purity="3.6317321658134460e-01" nType="0">
          <Node pos="l" depth="2" NCoef="0" IVar="1" Cut="6.2490964843750000e+04" cType="1" res="1.8057830631732941e-02" rms="2.7863329648971558e-01" purity="2.2013676166534424e-01" nType="0">
            <Node pos="l" depth="3" NCoef="0" IVar="-1" Cut="0.0000000000000000e+00" cType="1" res="1.7644051695242524e-03" rms="3.8235443830490112e-01" purity="5.5650442838668823e-01" nType="-99"/>
            <Node pos="r" depth="3" NCoef="0" IVar="-1" Cut="0.0000000000000000e+00" cType="1" res="-7.4348005000501871e-05" rms="2.3954175412654877e-01" purity="1.2913118302822113e-01" nType="-99"/>
          </Node>
          <Node pos="r" depth="2" NCoef="0" IVar="3" Cut="1.4140149414062500e+04" cType="1" res="6.1950556933879852e-02" rms="3.4517127275466919e-01" purity="7.4628281593322754e-01" nType="0">
            <Node pos="l" depth="3" NCoef="0" IVar="-1" Cut="0.0000000000000000e+00" cType="1" res="1.9630861934274435e-03" rms="3.9389321208000183e-01" purity="4.7266286611557007e-01" nType="-99"/>
            <Node pos="r" depth="3" NCoef="0" IVar="-1" Cut="0.0000000000000000e+00" cType="1" res="6.7992194090038538e-04" rms="3.3170345425605774e-01" purity="7.9704093933105469e-01" nType="-99"/>
          </Node>
        </Node>
        <Node pos="r" depth="1" NCoef="0" IVar="5" Cut="8.9740476562500000e+04" cType="1" res="8.4724314510822296e-02" rms="1.2296017259359360e-01" purity="9.8430722951889038e-01" nType="0">
          <Node pos="l" depth="2" NCoef="0" IVar="-1" Cut="0.0000000000000000e+00" cType="1" res="1.6860995674505830e-03" rms="1.3938494026660919e-01" purity="9.7976940870285034e-01" nType="-99"/>
          <Node pos="r" depth="2" NCoef="0" IVar="5" Cut="9.1877203125000000e+04" cType="1" res="8.7308950722217560e-02" rms="1.1632447689771652e-01" purity="9.8595297336578369e-01" nType="0">
            <Node pos="l" depth="3" NCoef="0" IVar="-1" Cut="0.0000000000000000e+00" cType="1" res="1.5862336149439216e-03" rms="1.1070896685123444e-01" purity="9.8737818002700806e-01" nType="-99"/>
            <Node pos="r" depth="3" NCoef="0" IVar="-1" Cut="0.0000000000000000e+00" cType="1" res="1.7787448596209288e-03" rms="1.2321650236845016e-01" purity="9.8407101631164551e-01" nType="-99"/>
          </Node>
        </Node>
      </Node>
    </BinaryTree>
    <BinaryTree type="DecisionTree" boostWeight="1.0000000000000000e+00" itree="577">
      <Node pos="s" depth="0" NCoef="0" IVar="1" Cut="1.0035560937500000e+05" cType="1" res="2.9091952368617058e-02" rms="2.4908840656280518e-01" purity="4.9175837635993958e-01" nType="0">
        <Node pos="l" depth="1" NCoef="0" IVar="1" Cut="7.5114789062500000e+04" cType="1" res="2.8104186058044434e-03" rms="2.4379658699035645e-01" purity="2.8896999359130859e-01" nType="0">
          <Node pos="l" depth="2" NCoef="0" IVar="4" Cut="2.1408478125000000e+05" cType="1" res="4.3225593864917755e-02" rms="3.0619367957115173e-01" purity="6.4255446195602417e-01" nType="0">
            <Node pos="l" depth="3" NCoef="0" IVar="-1" Cut="0.0000000000000000e+00" cType="1" res="-2.4756768834777176e-04" rms="3.1082808971405029e-01" purity="4.5208561420440674e-01" nType="-99"/>
            <Node pos="r" depth="3" NCoef="0" IVar="-1" Cut="0.0000000000000000e+00" cType="1" res="1.2801736593246460e-03" rms="2.9589253664016724e-01" purity="7.9390722513198853e-01" nType="-99"/>
          </Node>
          <Node pos="r" depth="2" NCoef="0" IVar="3" Cut="3.2817875000000000e+04" cType="1" res="-1.7847873270511627e-02" rms="2.0157752931118011e-01" purity="1.0823463648557663e-01" nType="0">
            <Node pos="l" depth="3" NCoef="0" IVar="-1" Cut="0.0000000000000000e+00" cType="1" res="-4.7700367867946625e-03" rms="1.2664107978343964e-01" purity="1.6999250277876854e-02" nType="-99"/>
            <Node pos="r" depth="3" NCoef="0" IVar="-1" Cut="0.0000000000000000e+00" cType="1" res="-2.0665533374994993e-03" rms="3.2120323181152344e-01" purity="3.4713760018348694e-01" nType="-99"/>
          </Node>
        </Node>
        <Node pos="r" depth="1" NCoef="0" IVar="4" Cut="2.1760809375000000e+05" cType="1" res="7.6576426625251770e-02" rms="2.5150507688522339e-01" purity="8.5814869403839111e-01" nType="0">
          <Node pos="l" depth="2" NCoef="0" IVar="5" Cut="9.0801109375000000e+04" cType="1" res="8.4280474111437798e-03" rms="3.4798869490623474e-01" purity="5.4069632291793823e-01" nType="0">
            <Node pos="l" depth="3" NCoef="0" IVar="-1" Cut="0.0000000000000000e+00" cType="1" res="3.2624235609546304e-04" rms="3.4431177377700806e-01" purity="5.9527736902236938e-01" nType="-99"/>
            <Node pos="r" depth="3" NCoef="0" IVar="-1" Cut="0.0000000000000000e+00" cType="1" res="-3.0936501570977271e-04" rms="3.5360616445541382e-01" purity="4.4638058543205261e-01" nType="-99"/>
          </Node>
          <Node pos="r" depth="2" NCoef="0" IVar="0" Cut="3.8095238804817200e-01" cType="1" res="8.3648651838302612e-02" rms="2.3816008865833282e-01" purity="8.9109295606613159e-01" nType="0">
            <Node pos="l" depth="3" NCoef="0" IVar="-1" Cut="0.0000000000000000e+00" cType="1" res="1.3493313454091549e-03" rms="2.4166281521320343e-01" purity="8.9033007621765137e-01" nType="-99"/>
            <Node pos="r" depth="3" NCoef="0" IVar="-1" Cut="0.0000000000000000e+00" cType="1" res="1.1364081874489784e-03" rms="2.3516879975795746e-01" purity="8.9159971475601196e-01" nType="-99"/>
          </Node>
        </Node>
      </Node>
    </BinaryTree>
    <BinaryTree type="DecisionTree" boostWeight="1.0000000000000000e+00" itree="578">
      <Node pos="s" depth="0" NCoef="0" IVar="1" Cut="9.3482273437500000e+04" cType="1" res="4.0479302406311035e-02" rms="2.7022698521614075e-01" purity="5.0190895795822144e-01" nType="0">
        <Node pos="l" depth="1" NCoef="0" IVar="1" Cut="7.0210882812500000e+04" cType="1" res="1.7454240471124649e-02" rms="2.7332469820976257e-01" purity="3.2670092582702637e-01" nType="0">
          <Node pos="l" depth="2" NCoef="0" IVar="1" Cut="3.1421857421875000e+04" cType="1" res="6.2475945800542831e-02" rms="3.3454367518424988e-01" purity="6.4596688747406006e-01" nType="0">
            <Node pos="l" depth="3" NCoef="0" IVar="-1" Cut="0.0000000000000000e+00" cType="1" res="-7.1378261782228947e-04" rms="3.1499132513999939e-01" purity="3.9644479751586914e-01" nType="-99"/>
            <Node pos="r" depth="3" NCoef="0" IVar="-1" Cut="0.0000000000000000e+00" cType="1" res="1.6320736613124609e-03" rms="3.3619850873947144e-01" purity="7.1516716480255127e-01" nType="-99"/>
          </Node>
          <Node pos="r" depth="2" NCoef="0" IVar="2" Cut="4.5236334375000000e+05" cType="1" res="-6.7514823749661446e-03" rms="2.3026776313781738e-01" purity="1.5504901111125946e-01" nType="0">
            <Node pos="l" depth="3" NCoef="0" IVar="-1" Cut="0.0000000000000000e+00" cType="1" res="-1.5833686338737607e-03" rms="2.0786683261394501e-01" purity="1.3471898436546326e-01" nType="-99"/>
            <Node pos="r" depth="3" NCoef="0" IVar="-1" Cut="0.0000000000000000e+00" cType="1" res="4.5181489549577236e-03" rms="4.0111312270164490e-01" purity="4.0512046217918396e-01" nType="-99"/>
          </Node>
        </Node>
        <Node pos="r" depth="1" NCoef="0" IVar="4" Cut="1.8372492187500000e+05" cType="1" res="6.5964818000793457e-02" rms="2.6442882418632507e-01" purity="6.9583982229232788e-01" nType="0">
          <Node pos="l" depth="2" NCoef="0" IVar="2" Cut="2.3468429687500000e+05" cType="1" res="-1.6576483845710754e-02" rms="2.5807431340217590e-01" purity="1.3273955881595612e-01" nType="0">
            <Node pos="l" depth="3" NCoef="0" IVar="-1" Cut="0.0000000000000000e+00" cType="1" res="1.6468535177409649e-03" rms="2.6098954677581787e-01" purity="1.4385083317756653e-01" nType="-99"/>
            <Node pos="r" depth="3" NCoef="0" IVar="-1" Cut="0.0000000000000000e+00" cType="1" res="-1.2342446483671665e-02" rms="2.2244524955749512e-01" purity="1.0843807458877563e-01" nType="-99"/>
          </Node>
          <Node pos="r" depth="2" NCoef="0" IVar="0" Cut="3.8095238804817200e-01" cType="1" res="7.1948014199733734e-02" rms="2.6388183236122131e-01" purity="7.3665744066238403e-01" nType="0">
            <Node pos="l" depth="3" NCoef="0" IVar="-1" Cut="0.0000000000000000e+00" cType="1" res="1.1781032662838697e-03" rms="2.6843801140785217e-01" purity="6.4483982324600220e-01" nType="-99"/>
            <Node pos="r" depth="3" NCoef="0" IVar="-1" Cut="0.0000000000000000e+00" cType="1" res="1.4809835702180862e-03" rms="2.6094761490821838e-01" purity="7.8817892074584961e-01" nType="-99"/>
          </Node>
        </Node>
      </Node>
    </BinaryTree>
    <BinaryTree type="DecisionTree" boostWeight="1.0000000000000000e+00" itree="579">
      <Node pos="s" depth="0" NCoef="0" IVar="3" Cut="6.8736484375000000e+04" cType="1" res="3.8042794913053513e-02" rms="2.5031921267509460e-01" purity="5.1657128334045410e-01" nType="0">
        <Node pos="l" depth="1" NCoef="0" IVar="5" Cut="9.0670992187500000e+04" cType="1" res="1.3929739594459534e-02" rms="2.7907732129096985e-01" purity="2.8515416383743286e-01" nType="0">
          <Node pos="l" depth="2" NCoef="0" IVar="4" Cut="3.6077284375000000e+05" cType="1" res="3.6366213113069534e-02" rms="3.0422237515449524e-01" purity="3.3886551856994629e-01" nType="0">
            <Node pos="l" depth="3" NCoef="0" IVar="-1" Cut="0.0000000000000000e+00" cType="1" res="8.5054489318281412e-04" rms="2.8189137578010559e-01" purity="2.3372876644134521e-01" nType="-99"/>
            <Node pos="r" depth="3" NCoef="0" IVar="-1" Cut="0.0000000000000000e+00" cType="1" res="1.6987207345664501e-03" rms="3.5452422499656677e-01" purity="6.3779962062835693e-01" nType="-99"/>
          </Node>
          <Node pos="r" depth="2" NCoef="0" IVar="5" Cut="9.4638242187500000e+04" cType="1" res="-6.1318273656070232e-03" rms="2.5281807780265808e-01" purity="2.3712816834449768e-01" nType="0">
            <Node pos="l" depth="3" NCoef="0" IVar="-1" Cut="0.0000000000000000e+00" cType="1" res="-1.1865261476486921e-03" rms="2.4160552024841309e-01" purity="1.8963867425918579e-01" nType="-99"/>
            <Node pos="r" depth="3" NCoef="0" IVar="-1" Cut="0.0000000000000000e+00" cType="1" res="1.2665957910940051e-03" rms="3.0615091323852539e-01" purity="5.4041540622711182e-01" nType="-99"/>
          </Node>
        </Node>
        <Node pos="r" depth="1" NCoef="0" IVar="5" Cut="8.9785890625000000e+04" cType="1" res="8.4999538958072662e-02" rms="1.7226448655128479e-01" purity="9.6722316741943359e-01" nType="0">
          <Node pos="l" depth="2" NCoef="0" IVar="2" Cut="2.8154065625000000e+05" cType="1" res="9.7398445010185242e-02" rms="1.6809305548667908e-01" purity="9.7253096103668213e-01" nType="0">
            <Node pos="l" depth="3" NCoef="0" IVar="-1" Cut="0.0000000000000000e+00" cType="1" res="1.4974256046116352e-03" rms="1.6302555799484253e-01" purity="9.7737425565719604e-01" nType="-99"/>
            <Node pos="r" depth="3" NCoef="0" IVar="-1" Cut="0.0000000000000000e+00" cType="1" res="1.7571261851117015e-03" rms="1.6861915588378906e-01" purity="9.6695244312286377e-01" nType="-99"/>
          </Node>
          <Node pos="r" depth="2" NCoef="0" IVar="4" Cut="4.0239353125000000e+05" cType="1" res="7.7983282506465912e-02" rms="1.7419025301933289e-01" purity="9.6421957015991211e-01" nType="0">
            <Node pos="l" depth="3" NCoef="0" IVar="-1" Cut="0.0000000000000000e+00" cType="1" res="1.0966731933876872e-03" rms="2.3088297247886658e-01" purity="9.3431621789932251e-01" nType="-99"/>
            <Node pos="r" depth="3" NCoef="0" IVar="-1" Cut="0.0000000000000000e+00" cType="1" res="1.2245938414707780e-03" rms="1.2386261671781540e-01" purity="9.8340547084808350e-01" nType="-99"/>
          </Node>
        </Node>
      </Node>
    </BinaryTree>
    <BinaryTree type="DecisionTree" boostWeight="1.0000000000000000e+00" itree="580">
      <Node pos="s" depth="0" NCoef="0" IVar="1" Cut="1.0034389062500000e+05" cType="1" res="4.2613644152879715e-02" rms="2.7050673961639404e-01" purity="4.9559330940246582e-01" nType="0">
        <Node pos="l" depth="1" NCoef="0" IVar="3" Cut="3.8008914062500000e+04" cType="1" res="1.8962463364005089e-02" rms="2.6831337809562683e-01" purity="3.0045214295387268e-01" nType="0">
          <Node pos="l" depth="2" NCoef="0" IVar="5" Cut="8.4988195312500000e+04" cType="1" res="-7.8821249189786613e-05" rms="2.0338684320449829e-01" purity="5.1181387156248093e-02" nType="0">
            <Node pos="l" depth="3" NCoef="0" IVar="-1" Cut="0.0000000000000000e+00" cType="1" res="5.3479345515370369e-03" rms="3.9573195576667786e-01" purity="2.6330080628395081e-01" nType="-99"/>
            <Node pos="r" depth="3" NCoef="0" IVar="-1" Cut="0.0000000000000000e+00" cType="1" res="-1.0304169263690710e-03" rms="1.9497032463550568e-01" purity="4.5682225376367569e-02" nType="-99"/>
          </Node>
          <Node pos="r" depth="2" NCoef="0" IVar="1" Cut="8.3517828125000000e+04" cType="1" res="5.0581727176904678e-02" rms="3.4820452332496643e-01" purity="7.1438205242156982e-01" nType="0">
            <Node pos="l" depth="3" NCoef="0" IVar="-1" Cut="0.0000000000000000e+00" cType="1" res="1.1308431858196855e-03" rms="3.3732688426971436e-01" purity="8.5777825117111206e-01" nType="-99"/>
            <Node pos="r" depth="3" NCoef="0" IVar="-1" Cut="0.0000000000000000e+00" cType="1" res="8.1644946476444602e-05" rms="3.6369642615318298e-01" purity="4.3977630138397217e-01" nType="-99"/>
          </Node>
        </Node>
        <Node pos="r" depth="1" NCoef="0" IVar="4" Cut="1.8530593750000000e+05" cType="1" res="8.5836634039878845e-02" rms="2.6915276050567627e-01" purity="8.5221767425537109e-01" nType="0">
          <Node pos="l" depth="2" NCoef="0" IVar="-1" Cut="0.0000000000000000e+00" cType="1" res="2.7313767932355404e-03" rms="4.1096138954162598e-01" purity="5.5642676353454590e-01" nType="-99"/>
          <Node pos="r" depth="2" NCoef="0" IVar="2" Cut="3.1938328125000000e+05" cType="1" res="8.3041556179523468e-02" rms="2.6130095124244690e-01" purity="8.6438488960266113e-01" nType="0">
            <Node pos="l" depth="3" NCoef="0" IVar="-1" Cut="0.0000000000000000e+00" cType="1" res="1.0511694708839059e-03" rms="2.9321518540382385e-01" purity="7.5109302997589111e-01" nType="-99"/>
            <Node pos="r" depth="3" NCoef="0" IVar="-1" Cut="0.0000000000000000e+00" cType="1" res="1.5200014458969235e-03" rms="2.4522496759891510e-01" purity="9.1406393051147461e-01" nType="-99"/>
          </Node>
        </Node>
      </Node>
    </BinaryTree>
    <BinaryTree type="DecisionTree" boostWeight="1.0000000000000000e+00" itree="581">
      <Node pos="s" depth="0" NCoef="0" IVar="3" Cut="5.4259988281250000e+04" cType="1" res="3.3733226358890533e-02" rms="2.5695729255676270e-01" purity="4.9947658181190491e-01" nType="0">
        <Node pos="l" depth="1" NCoef="0" IVar="5" Cut="8.6900250000000000e+04" cType="1" res="1.2661345303058624e-02" rms="2.8217715024948120e-01" purity="2.1338282525539398e-01" nType="0">
          <Node pos="l" depth="2" NCoef="0" IVar="3" Cut="2.8678587890625000e+04" cType="1" res="8.8155269622802734e-02" rms="3.6148530244827271e-01" purity="4.6793520450592041e-01" nType="0">
            <Node pos="l" depth="3" NCoef="0" IVar="-1" Cut="0.0000000000000000e+00" cType="1" res="2.4815199431031942e-03" rms="3.6136493086814880e-01" purity="4.2912995815277100e-01" nType="-99"/>
            <Node pos="r" depth="3" NCoef="0" IVar="-1" Cut="0.0000000000000000e+00" cType="1" res="-9.8738179076462984e-04" rms="3.2377305626869202e-01" purity="5.5758064985275269e-01" nType="-99"/>
          </Node>
          <Node pos="r" depth="2" NCoef="0" IVar="2" Cut="5.3890525000000000e+05" cType="1" res="5.9040631167590618e-03" rms="2.7294504642486572e-01" purity="1.9059842824935913e-01" nType="0">
            <Node pos="l" depth="3" NCoef="0" IVar="-1" Cut="0.0000000000000000e+00" cType="1" res="6.3609535573050380e-04" rms="2.7237462997436523e-01" purity="1.8077802658081055e-01" nType="-99"/>
            <Node pos="r" depth="3" NCoef="0" IVar="-1" Cut="0.0000000000000000e+00" cType="1" res="-3.3366889692842960e-03" rms="2.7135354280471802e-01" purity="3.7405359745025635e-01" nType="-99"/>
          </Node>
        </Node>
        <Node pos="r" depth="1" NCoef="0" IVar="4" Cut="2.1246443750000000e+05" cType="1" res="6.5712861716747284e-02" rms="2.0903398096561432e-01" purity="9.3366527557373047e-01" nType="0">
          <Node pos="l" depth="2" NCoef="0" IVar="4" Cut="1.8133848437500000e+05" cType="1" res="-1.4775286428630352e-02" rms="3.6550155282020569e-01" purity="7.5782650709152222e-01" nType="0">
            <Node pos="l" depth="3" NCoef="0" IVar="-1" Cut="0.0000000000000000e+00" cType="1" res="-8.8361813686788082e-04" rms="4.2388918995857239e-01" purity="7.0366704463958740e-01" nType="-99"/>
            <Node pos="r" depth="3" NCoef="0" IVar="-1" Cut="0.0000000000000000e+00" cType="1" res="3.2713363179937005e-04" rms="2.9379597306251526e-01" purity="8.1143683195114136e-01" nType="-99"/>
          </Node>
          <Node pos="r" depth="2" NCoef="0" IVar="1" Cut="1.3213310937500000e+05" cType="1" res="7.2826117277145386e-02" rms="1.8742296099662781e-01" purity="9.4920521974563599e-01" nType="0">
            <Node pos="l" depth="3" NCoef="0" IVar="-1" Cut="0.0000000000000000e+00" cType="1" res="9.1035309014841914e-04" rms="2.4005596339702606e-01" purity="9.1139972209930420e-01" nType="-99"/>
            <Node pos="r" depth="3" NCoef="0" IVar="-1" Cut="0.0000000000000000e+00" cType="1" res="1.3074954040348530e-03" rms="1.0385810583829880e-01" purity="9.8910546302795410e-01" nType="-99"/>
          </Node>
        </Node>
      </Node>
    </BinaryTree>
    <BinaryTree type="DecisionTree" boostWeight="1.0000000000000000e+00" itree="582">
      <Node pos="s" depth="0" NCoef="0" IVar="3" Cut="4.8659894531250000e+04" cType="1" res="3.7619698792695999e-02" rms="2.5319141149520874e-01" purity="5.1097458600997925e-01" nType="0">
        <Node pos="l" depth="1" NCoef="0" IVar="3" Cut="4.1709683593750000e+04" cType="1" res="1.0460781864821911e-02" rms="2.6849457621574402e-01" purity="1.9673359394073486e-01" nType="0">
          <Node pos="l" depth="2" NCoef="0" IVar="4" Cut="4.3589953125000000e+05" cType="1" res="-2.0765496883541346e-03" rms="2.5204914808273315e-01" purity="1.3279497623443604e-01" nType="0">
            <Node pos="l" depth="3" NCoef="0" IVar="-1" Cut="0.0000000000000000e+00" cType="1" res="4.5248545939102769e-04" rms="2.4972628057003021e-01" purity="1.1025375872850418e-01" nType="-99"/>
            <Node pos="r" depth="3" NCoef="0" IVar="-1" Cut="0.0000000000000000e+00" cType="1" res="-2.4234685115516186e-03" rms="2.6514610648155212e-01" purity="3.2142609357833862e-01" nType="-99"/>
          </Node>
          <Node pos="r" depth="2" NCoef="0" IVar="5" Cut="9.0663343750000000e+04" cType="1" res="1.0632095485925674e-01" rms="3.5658407211303711e-01" purity="6.8560683727264404e-01" nType="0">
            <Node pos="l" depth="3" NCoef="0" IVar="-1" Cut="0.0000000000000000e+00" cType="1" res="6.0063379351049662e-04" rms="3.4231343865394592e-01" purity="7.9040575027465820e-01" nType="-99"/>
            <Node pos="r" depth="3" NCoef="0" IVar="-1" Cut="0.0000000000000000e+00" cType="1" res="-2.2334056848194450e-04" rms="3.5377612709999084e-01" purity="4.9121090769767761e-01" nType="-99"/>
          </Node>
        </Node>
        <Node pos="r" depth="1" NCoef="0" IVar="1" Cut="1.0076934375000000e+05" cType="1" res="7.2621300816535950e-02" rms="2.2724734246730804e-01" purity="9.1595900058746338e-01" nType="0">
          <Node pos="l" depth="2" NCoef="0" IVar="3" Cut="8.4113257812500000e+04" cType="1" res="5.6291908025741577e-02" rms="2.7587819099426270e-01" purity="8.6132693290710449e-01" nType="0">
            <Node pos="l" depth="3" NCoef="0" IVar="-1" Cut="0.0000000000000000e+00" cType="1" res="2.4062747252173722e-04" rms="3.8903516530990601e-01" purity="6.8431127071380615e-01" nType="-99"/>
            <Node pos="r" depth="3" NCoef="0" IVar="-1" Cut="0.0000000000000000e+00" cType="1" res="1.2598462635651231e-03" rms="1.7038455605506897e-01" purity="9.6848708391189575e-01" nType="-99"/>
          </Node>
          <Node pos="r" depth="2" NCoef="0" IVar="4" Cut="3.9680581250000000e+05" cType="1" res="8.9962720870971680e-02" rms="1.5834656357765198e-01" purity="9.7397685050964355e-01" nType="0">
            <Node pos="l" depth="3" NCoef="0" IVar="-1" Cut="0.0000000000000000e+00" cType="1" res="1.4152741059660912e-03" rms="1.7067530751228333e-01" purity="9.7041380405426025e-01" nType="-99"/>
            <Node pos="r" depth="3" NCoef="0" IVar="-1" Cut="0.0000000000000000e+00" cType="1" res="1.3739066198468208e-03" rms="1.4579054713249207e-01" purity="9.7716593742370605e-01" nType="-99"/>
          </Node>
        </Node>
      </Node>
    </BinaryTree>
    <BinaryTree type="DecisionTree" boostWeight="1.0000000000000000e+00" itree="583">
      <Node pos="s" depth="0" NCoef="0" IVar="4" Cut="3.7942309375000000e+05" cType="1" res="4.7934323549270630e-02" rms="2.6475754380226135e-01" purity="5.1320767402648926e-01" nType="0">
        <Node pos="l" depth="1" NCoef="0" IVar="3" Cut="3.2153158203125000e+04" cType="1" res="2.9128029942512512e-02" rms="2.6292216777801514e-01" purity="3.7691003084182739e-01" nType="0">
          <Node pos="l" depth="2" NCoef="0" IVar="5" Cut="8.8780023437500000e+04" cType="1" res="1.0084208333864808e-03" rms="2.1438869833946228e-01" purity="8.1714905798435211e-02" nType="0">
            <Node pos="l" depth="3" NCoef="0" IVar="-1" Cut="0.0000000000000000e+00" cType="1" res="3.3172606490552425e-03" rms="3.3801952004432678e-01" purity="2.3819622397422791e-01" nType="-99"/>
            <Node pos="r" depth="3" NCoef="0" IVar="-1" Cut="0.0000000000000000e+00" cType="1" res="-3.9397398941218853e-03" rms="1.6856576502323151e-01" purity="4.5420415699481964e-02" nType="-99"/>
          </Node>
          <Node pos="r" depth="2" NCoef="0" IVar="2" Cut="3.2025537500000000e+05" cType="1" res="6.2268886715173721e-02" rms="3.0724585056304932e-01" purity="7.2481745481491089e-01" nType="0">
            <Node pos="l" depth="3" NCoef="0" IVar="-1" Cut="0.0000000000000000e+00" cType="1" res="7.1150314761325717e-04" rms="3.2324549555778503e-01" purity="6.6746050119400024e-01" nType="-99"/>
            <Node pos="r" depth="3" NCoef="0" IVar="-1" Cut="0.0000000000000000e+00" cType="1" res="7.8076706267893314e-04" rms="2.5629335641860962e-01" purity="8.6126512289047241e-01" nType="-99"/>
          </Node>
        </Node>
        <Node pos="r" depth="1" NCoef="0" IVar="2" Cut="5.2237493750000000e+05" cType="1" res="8.7177060544490814e-02" rms="2.6427164673805237e-01" purity="7.9761737585067749e-01" nType="0">
          <Node pos="l" depth="2" NCoef="0" IVar="5" Cut="9.3258226562500000e+04" cType="1" res="1.0873591154813766e-01" rms="2.7568700909614563e-01" purity="7.8686261177062988e-01" nType="0">
            <Node pos="l" depth="3" NCoef="0" IVar="-1" Cut="0.0000000000000000e+00" cType="1" res="1.4495318755507469e-03" rms="2.5876560807228088e-01" purity="7.7162182331085205e-01" nType="-99"/>
            <Node pos="r" depth="3" NCoef="0" IVar="-1" Cut="0.0000000000000000e+00" cType="1" res="1.7005619592964649e-03" rms="3.3218029141426086e-01" purity="8.5837668180465698e-01" nType="-99"/>
          </Node>
          <Node pos="r" depth="2" NCoef="0" IVar="3" Cut="7.0034828125000000e+04" cType="1" res="3.3987682312726974e-02" rms="2.2506989538669586e-01" purity="8.2415121793746948e-01" nType="0">
            <Node pos="l" depth="3" NCoef="0" IVar="-1" Cut="0.0000000000000000e+00" cType="1" res="-1.1914324713870883e-03" rms="3.0423995852470398e-01" purity="5.4234063625335693e-01" nType="-99"/>
            <Node pos="r" depth="3" NCoef="0" IVar="-1" Cut="0.0000000000000000e+00" cType="1" res="1.6842463519424200e-03" rms="1.5322609245777130e-01" purity="9.7516649961471558e-01" nType="-99"/>
          </Node>
        </Node>
      </Node>
    </BinaryTree>
    <BinaryTree type="DecisionTree" boostWeight="1.0000000000000000e+00" itree="584">
      <Node pos="s" depth="0" NCoef="0" IVar="3" Cut="6.8736484375000000e+04" cType="1" res="4.8922006040811539e-02" rms="2.6334300637245178e-01" purity="5.2436828613281250e-01" nType="0">
        <Node pos="l" depth="1" NCoef="0" IVar="1" Cut="7.1868640625000000e+04" cType="1" res="3.3444561064243317e-02" rms="2.9609245061874390e-01" purity="3.1103637814521790e-01" nType="0">
          <Node pos="l" depth="2" NCoef="0" IVar="1" Cut="3.4805148437500000e+04" cType="1" res="9.1650448739528656e-02" rms="3.9323601126670837e-01" purity="4.8029839992523193e-01" nType="0">
            <Node pos="l" depth="3" NCoef="0" IVar="-1" Cut="0.0000000000000000e+00" cType="1" res="-4.2332485463703051e-05" rms="3.0831164121627808e-01" purity="2.6097422838211060e-01" nType="-99"/>
            <Node pos="r" depth="3" NCoef="0" IVar="-1" Cut="0.0000000000000000e+00" cType="1" res="2.1264562383294106e-03" rms="4.2097741365432739e-01" purity="5.8625859022140503e-01" nType="-99"/>
          </Node>
          <Node pos="r" depth="2" NCoef="0" IVar="4" Cut="6.9199812500000000e+05" cType="1" res="2.1417688578367233e-02" rms="2.7016583085060120e-01" purity="2.7606239914894104e-01" nType="0">
            <Node pos="l" depth="3" NCoef="0" IVar="-1" Cut="0.0000000000000000e+00" cType="1" res="7.5540383113548160e-04" rms="2.6899683475494385e-01" purity="2.6505655050277710e-01" nType="-99"/>
            <Node pos="r" depth="3" NCoef="0" IVar="-1" Cut="0.0000000000000000e+00" cType="1" res="-2.0849276334047318e-03" rms="2.8157883882522583e-01" purity="5.1471066474914551e-01" nType="-99"/>
          </Node>
        </Node>
        <Node pos="r" depth="1" NCoef="0" IVar="1" Cut="1.2571450000000000e+05" cType="1" res="8.1017799675464630e-02" rms="1.7271278798580170e-01" purity="9.6675753593444824e-01" nType="0">
          <Node pos="l" depth="2" NCoef="0" IVar="5" Cut="8.9902070312500000e+04" cType="1" res="7.5896851718425751e-02" rms="2.1178168058395386e-01" purity="9.4935804605484009e-01" nType="0">
            <Node pos="l" depth="3" NCoef="0" IVar="-1" Cut="0.0000000000000000e+00" cType="1" res="1.3578612124547362e-03" rms="2.0220451056957245e-01" purity="9.5822715759277344e-01" nType="-99"/>
            <Node pos="r" depth="3" NCoef="0" IVar="-1" Cut="0.0000000000000000e+00" cType="1" res="1.1493107303977013e-03" rms="2.1748916804790497e-01" purity="9.4348341226577759e-01" nType="-99"/>
          </Node>
          <Node pos="r" depth="2" NCoef="0" IVar="-1" Cut="0.0000000000000000e+00" cType="1" res="1.3619287637993693e-03" rms="8.9466974139213562e-02" purity="9.9193012714385986e-01" nType="-99"/>
        </Node>
      </Node>
    </BinaryTree>
    <BinaryTree type="DecisionTree" boostWeight="1.0000000000000000e+00" itree="585">
      <Node pos="s" depth="0" NCoef="0" IVar="1" Cut="1.0034389062500000e+05" cType="1" res="4.5624591410160065e-02" rms="2.6568597555160522e-01" purity="4.9911233782768250e-01" nType="0">
        <Node pos="l" depth="1" NCoef="0" IVar="1" Cut="7.5095820312500000e+04" cType="1" res="2.4296659976243973e-02" rms="2.5682032108306885e-01" purity="3.1918889284133911e-01" nType="0">
          <Node pos="l" depth="2" NCoef="0" IVar="4" Cut="1.3109621875000000e+05" cType="1" res="7.4583008885383606e-02" rms="3.3082422614097595e-01" purity="6.5556061267852783e-01" nType="0">
            <Node pos="l" depth="3" NCoef="0" IVar="-1" Cut="0.0000000000000000e+00" cType="1" res="-1.0951263830065727e-02" rms="2.5483417510986328e-01" purity="9.3860097229480743e-02" nType="-99"/>
            <Node pos="r" depth="3" NCoef="0" IVar="-1" Cut="0.0000000000000000e+00" cType="1" res="1.7072070622816682e-03" rms="3.3344817161560059e-01" purity="6.9836890697479248e-01" nType="-99"/>
          </Node>
          <Node pos="r" depth="2" NCoef="0" IVar="3" Cut="7.5762460937500000e+04" cType="1" res="1.3735961401835084e-03" rms="2.1084229648113251e-01" purity="1.6585363447666168e-01" nType="0">
            <Node pos="l" depth="3" NCoef="0" IVar="-1" Cut="0.0000000000000000e+00" cType="1" res="-1.2695755576714873e-03" rms="2.0332418382167816e-01" purity="6.9698013365268707e-02" nType="-99"/>
            <Node pos="r" depth="3" NCoef="0" IVar="-1" Cut="0.0000000000000000e+00" cType="1" res="1.2518322328105569e-03" rms="2.4742981791496277e-01" purity="9.3037158250808716e-01" nType="-99"/>
          </Node>
        </Node>
        <Node pos="r" depth="1" NCoef="0" IVar="5" Cut="8.6911187500000000e+04" cType="1" res="8.6298219859600067e-02" rms="2.7731096744537354e-01" purity="8.4223699569702148e-01" nType="0">
          <Node pos="l" depth="2" NCoef="0" IVar="-1" Cut="0.0000000000000000e+00" cType="1" res="2.9496982460841537e-04" rms="2.9992324113845825e-01" purity="7.7757829427719116e-01" nType="-99"/>
          <Node pos="r" depth="2" NCoef="0" IVar="5" Cut="8.9624835937500000e+04" cType="1" res="9.4668455421924591e-02" rms="2.7339729666709900e-01" purity="8.4945958852767944e-01" nType="0">
            <Node pos="l" depth="3" NCoef="0" IVar="-1" Cut="0.0000000000000000e+00" cType="1" res="5.9093284653499722e-04" rms="2.5165098905563354e-01" purity="8.8423538208007812e-01" nType="-99"/>
            <Node pos="r" depth="3" NCoef="0" IVar="-1" Cut="0.0000000000000000e+00" cType="1" res="1.1250181123614311e-03" rms="2.8191119432449341e-01" purity="8.3325487375259399e-01" nType="-99"/>
          </Node>
        </Node>
      </Node>
    </BinaryTree>
    <BinaryTree type="DecisionTree" boostWeight="1.0000000000000000e+00" itree="586">
      <Node pos="s" depth="0" NCoef="0" IVar="3" Cut="6.8736484375000000e+04" cType="1" res="3.5152032971382141e-02" rms="2.4894711375236511e-01" purity="5.0806993246078491e-01" nType="0">
        <Node pos="l" depth="1" NCoef="0" IVar="2" Cut="3.7128590625000000e+05" cType="1" res="1.1794868856668472e-02" rms="2.7816137671470642e-01" purity="2.8333598375320435e-01" nType="0">
          <Node pos="l" depth="2" NCoef="0" IVar="1" Cut="1.1223867187500000e+05" cType="1" res="-1.2074363185092807e-03" rms="2.7004829049110413e-01" purity="1.9214199483394623e-01" nType="0">
            <Node pos="l" depth="3" NCoef="0" IVar="-1" Cut="0.0000000000000000e+00" cType="1" res="-8.5813226178288460e-04" rms="2.5108835101127625e-01" purity="1.1917232722043991e-01" nType="-99"/>
            <Node pos="r" depth="3" NCoef="0" IVar="-1" Cut="0.0000000000000000e+00" cType="1" res="6.8380724405869842e-04" rms="3.7384420633316040e-01" purity="7.1739864349365234e-01" nType="-99"/>
          </Node>
          <Node pos="r" depth="2" NCoef="0" IVar="3" Cut="2.0034736328125000e+04" cType="1" res="5.5293325334787369e-02" rms="2.9965892434120178e-01" purity="5.8842021226882935e-01" nType="0">
            <Node pos="l" depth="3" NCoef="0" IVar="-1" Cut="0.0000000000000000e+00" cType="1" res="-4.3661571107804775e-03" rms="2.5219649076461792e-01" purity="1.3275745511054993e-01" nType="-99"/>
            <Node pos="r" depth="3" NCoef="0" IVar="-1" Cut="0.0000000000000000e+00" cType="1" res="7.5010710861533880e-04" rms="3.0580490827560425e-01" purity="7.2022920846939087e-01" nType="-99"/>
          </Node>
        </Node>
        <Node pos="r" depth="1" NCoef="0" IVar="0" Cut="1.1428571939468384e+00" cType="1" res="8.3153277635574341e-02" rms="1.6402053833007812e-01" purity="9.6992009878158569e-01" nType="0">
          <Node pos="l" depth="2" NCoef="0" IVar="5" Cut="9.1591320312500000e+04" cType="1" res="9.1012097895145416e-02" rms="1.4964678883552551e-01" purity="9.7530978918075562e-01" nType="0">
            <Node pos="l" depth="3" NCoef="0" IVar="-1" Cut="0.0000000000000000e+00" cType="1" res="1.6354594845324755e-03" rms="1.3641573488712311e-01" purity="9.7983610630035400e-01" nType="-99"/>
            <Node pos="r" depth="3" NCoef="0" IVar="-1" Cut="0.0000000000000000e+00" cType="1" res="1.4614433748647571e-03" rms="1.7469495534896851e-01" purity="9.6505963802337646e-01" nType="-99"/>
          </Node>
          <Node pos="r" depth="2" NCoef="0" IVar="3" Cut="1.3429987500000000e+05" cType="1" res="6.9156333804130554e-02" rms="1.8608285486698151e-01" purity="9.6032065153121948e-01" nType="0">
            <Node pos="l" depth="3" NCoef="0" IVar="-1" Cut="0.0000000000000000e+00" cType="1" res="1.0147730354219675e-03" rms="2.3638269305229187e-01" purity="9.3412536382675171e-01" nType="-99"/>
            <Node pos="r" depth="3" NCoef="0" IVar="-1" Cut="0.0000000000000000e+00" cType="1" res="1.8200038466602564e-03" rms="1.1061780154705048e-01" purity="9.8741871118545532e-01" nType="-99"/>
          </Node>
        </Node>
      </Node>
    </BinaryTree>
    <BinaryTree type="DecisionTree" boostWeight="1.0000000000000000e+00" itree="587">
      <Node pos="s" depth="0" NCoef="0" IVar="1" Cut="1.0034835937500000e+05" cType="1" res="5.0180658698081970e-02" rms="2.7164745330810547e-01" purity="4.9949225783348083e-01" nType="0">
        <Node pos="l" depth="1" NCoef="0" IVar="1" Cut="7.9314445312500000e+04" cType="1" res="3.2213136553764343e-02" rms="2.7108034491539001e-01" purity="3.1372815370559692e-01" nType="0">
          <Node pos="l" depth="2" NCoef="0" IVar="1" Cut="2.4826160156250000e+04" cType="1" res="7.9845815896987915e-02" rms="3.3920097351074219e-01" purity="6.2302094697952271e-01" nType="0">
            <Node pos="l" depth="3" NCoef="0" IVar="-1" Cut="0.0000000000000000e+00" cType="1" res="-3.7516996264457703e-02" rms="2.6317423582077026e-01" purity="3.4490872174501419e-02" nType="-99"/>
            <Node pos="r" depth="3" NCoef="0" IVar="-1" Cut="0.0000000000000000e+00" cType="1" res="1.7288234084844589e-03" rms="3.3980619907379150e-01" purity="6.7347931861877441e-01" nType="-99"/>
          </Node>
          <Node pos="r" depth="2" NCoef="0" IVar="3" Cut="8.6857093750000000e+04" cType="1" res="6.7305448465049267e-03" rms="2.2221776843070984e-01" purity="1.4826230704784393e-01" nType="0">
            <Node pos="l" depth="3" NCoef="0" IVar="-1" Cut="0.0000000000000000e+00" cType="1" res="-6.2943487137090415e-05" rms="2.2223179042339325e-01" purity="8.1237219274044037e-02" nType="-99"/>
            <Node pos="r" depth="3" NCoef="0" IVar="-1" Cut="0.0000000000000000e+00" cType="1" res="1.2074246769770980e-03" rms="2.0322825014591217e-01" purity="9.5408719778060913e-01" nType="-99"/>
          </Node>
        </Node>
        <Node pos="r" depth="1" NCoef="0" IVar="5" Cut="8.5947601562500000e+04" cType="1" res="8.3719141781330109e-02" rms="2.6951703429222107e-01" purity="8.4624266624450684e-01" nType="0">
          <Node pos="l" depth="2" NCoef="0" IVar="-1" Cut="0.0000000000000000e+00" cType="1" res="1.0374651756137609e-03" rms="2.7283170819282532e-01" purity="8.3007007837295532e-01" nType="-99"/>
          <Node pos="r" depth="2" NCoef="0" IVar="5" Cut="8.9554007812500000e+04" cType="1" res="8.7670825421810150e-02" rms="2.6886433362960815e-01" purity="8.4784972667694092e-01" nType="0">
            <Node pos="l" depth="3" NCoef="0" IVar="-1" Cut="0.0000000000000000e+00" cType="1" res="1.0269873309880495e-03" rms="2.8664270043373108e-01" purity="8.4907054901123047e-01" nType="-99"/>
            <Node pos="r" depth="3" NCoef="0" IVar="-1" Cut="0.0000000000000000e+00" cType="1" res="1.3710317434743047e-03" rms="2.6043665409088135e-01" purity="8.4735018014907837e-01" nType="-99"/>
          </Node>
        </Node>
      </Node>
    </BinaryTree>
    <BinaryTree type="DecisionTree" boostWeight="1.0000000000000000e+00" itree="588">
      <Node pos="s" depth="0" NCoef="0" IVar="4" Cut="2.6808881250000000e+05" cType="1" res="3.9354156702756882e-02" rms="2.6548203825950623e-01" purity="5.0017958879470825e-01" nType="0">
        <Node pos="l" depth="1" NCoef="0" IVar="0" Cut="2.3809523880481720e-01" cType="1" res="1.9320016726851463e-02" rms="2.6648029685020447e-01" purity="2.7803155779838562e-01" nType="0">
          <Node pos="l" depth="2" NCoef="0" IVar="1" Cut="7.6723203125000000e+04" cType="1" res="0.0000000000000000e+00" rms="0.0000000000000000e+00" purity="2.9208561778068542e-01" nType="0">
            <Node pos="l" depth="3" NCoef="0" IVar="-1" Cut="0.0000000000000000e+00" cType="1" res="2.5775902904570103e-03" rms="3.6093041300773621e-01" purity="5.4526007175445557e-01" nType="-99"/>
            <Node pos="r" depth="3" NCoef="0" IVar="-1" Cut="0.0000000000000000e+00" cType="1" res="7.7328586485236883e-04" rms="2.1799232065677643e-01" purity="2.1068142354488373e-01" nType="-99"/>
          </Node>
          <Node pos="r" depth="2" NCoef="0" IVar="3" Cut="6.4018894531250000e+04" cType="1" res="-3.6359563469886780e-02" rms="2.6742473244667053e-01" purity="2.3328089714050293e-01" nType="0">
            <Node pos="l" depth="3" NCoef="0" IVar="-1" Cut="0.0000000000000000e+00" cType="1" res="-6.3115516677498817e-03" rms="2.5284153223037720e-01" purity="8.8816165924072266e-02" nType="-99"/>
            <Node pos="r" depth="3" NCoef="0" IVar="-1" Cut="0.0000000000000000e+00" cType="1" res="2.7317629428580403e-04" rms="3.1684356927871704e-01" purity="8.6198604106903076e-01" nType="-99"/>
          </Node>
        </Node>
        <Node pos="r" depth="1" NCoef="0" IVar="5" Cut="9.0662804687500000e+04" cType="1" res="5.8139979839324951e-02" rms="2.6316058635711670e-01" purity="7.0848572254180908e-01" nType="0">
          <Node pos="l" depth="2" NCoef="0" IVar="5" Cut="8.7067359375000000e+04" cType="1" res="8.4850482642650604e-02" rms="2.8119826316833496e-01" purity="7.5266200304031372e-01" nType="0">
            <Node pos="l" depth="3" NCoef="0" IVar="-1" Cut="0.0000000000000000e+00" cType="1" res="8.9210132136940956e-04" rms="2.9202249646186829e-01" purity="8.0738586187362671e-01" nType="-99"/>
            <Node pos="r" depth="3" NCoef="0" IVar="-1" Cut="0.0000000000000000e+00" cType="1" res="1.2818151153624058e-03" rms="2.7698689699172974e-01" purity="7.3839938640594482e-01" nType="-99"/>
          </Node>
          <Node pos="r" depth="2" NCoef="0" IVar="3" Cut="8.9199515625000000e+04" cType="1" res="3.1162178143858910e-02" rms="2.4059900641441345e-01" purity="6.6386741399765015e-01" nType="0">
            <Node pos="l" depth="3" NCoef="0" IVar="-1" Cut="0.0000000000000000e+00" cType="1" res="-2.4527305504307151e-04" rms="2.9723048210144043e-01" purity="4.1623151302337646e-01" nType="-99"/>
            <Node pos="r" depth="3" NCoef="0" IVar="-1" Cut="0.0000000000000000e+00" cType="1" res="8.2866393495351076e-04" rms="1.1333449184894562e-01" purity="9.8659169673919678e-01" nType="-99"/>
          </Node>
        </Node>
      </Node>
    </BinaryTree>
    <BinaryTree type="DecisionTree" boostWeight="1.0000000000000000e+00" itree="589">
      <Node pos="s" depth="0" NCoef="0" IVar="1" Cut="1.0039114062500000e+05" cType="1" res="3.4155897796154022e-02" rms="2.5188583135604858e-01" purity="5.0540101528167725e-01" nType="0">
        <Node pos="l" depth="1" NCoef="0" IVar="3" Cut="1.1350376562500000e+05" cType="1" res="1.1123048141598701e-02" rms="2.4561163783073425e-01" purity="3.1415697932243347e-01" nType="0">
          <Node pos="l" depth="2" NCoef="0" IVar="3" Cut="4.8783089843750000e+04" cType="1" res="3.5410660784691572e-03" rms="2.5334426760673523e-01" purity="2.3000001907348633e-01" nType="0">
            <Node pos="l" depth="3" NCoef="0" IVar="-1" Cut="0.0000000000000000e+00" cType="1" res="-1.5902636805549264e-03" rms="2.0638121664524078e-01" purity="6.5938532352447510e-02" nType="-99"/>
            <Node pos="r" depth="3" NCoef="0" IVar="-1" Cut="0.0000000000000000e+00" cType="1" res="8.0436968710273504e-04" rms="3.6456009745597839e-01" purity="7.7295559644699097e-01" nType="-99"/>
          </Node>
          <Node pos="r" depth="2" NCoef="0" IVar="5" Cut="9.0449804687500000e+04" cType="1" res="7.0392705500125885e-02" rms="1.6187095642089844e-01" purity="9.7202652692794800e-01" nType="0">
            <Node pos="l" depth="3" NCoef="0" IVar="-1" Cut="0.0000000000000000e+00" cType="1" res="8.0063741188496351e-04" rms="2.3224417865276337e-01" purity="9.3892991542816162e-01" nType="-99"/>
            <Node pos="r" depth="3" NCoef="0" IVar="-1" Cut="0.0000000000000000e+00" cType="1" res="1.7344596562907100e-03" rms="1.0528562217950821e-01" purity="9.8879355192184448e-01" nType="-99"/>
          </Node>
        </Node>
        <Node pos="r" depth="1" NCoef="0" IVar="5" Cut="9.4503171875000000e+04" cType="1" res="7.6115556061267853e-02" rms="2.5769311189651489e-01" purity="8.5379612445831299e-01" nType="0">
          <Node pos="l" depth="2" NCoef="0" IVar="3" Cut="5.4305199218750000e+04" cType="1" res="7.2032392024993896e-02" rms="2.6035493612289429e-01" purity="8.5060715675354004e-01" nType="0">
            <Node pos="l" depth="3" NCoef="0" IVar="-1" Cut="0.0000000000000000e+00" cType="1" res="7.6553277904167771e-04" rms="3.9325729012489319e-01" purity="6.1641043424606323e-01" nType="-99"/>
            <Node pos="r" depth="3" NCoef="0" IVar="-1" Cut="0.0000000000000000e+00" cType="1" res="1.4465135755017400e-03" rms="1.3869093358516693e-01" purity="9.7967755794525146e-01" nType="-99"/>
          </Node>
          <Node pos="r" depth="2" NCoef="0" IVar="-1" Cut="0.0000000000000000e+00" cType="1" res="1.0651391930878162e-03" rms="2.3337920010089874e-01" purity="8.7874591350555420e-01" nType="-99"/>
        </Node>
      </Node>
    </BinaryTree>
    <BinaryTree type="DecisionTree" boostWeight="1.0000000000000000e+00" itree="590">
      <Node pos="s" depth="0" NCoef="0" IVar="1" Cut="1.0035560937500000e+05" cType="1" res="4.1226141154766083e-02" rms="2.6033428311347961e-01" purity="5.0800061225891113e-01" nType="0">
        <Node pos="l" depth="1" NCoef="0" IVar="3" Cut="6.6098515625000000e+04" cType="1" res="1.7141776159405708e-02" rms="2.4697212874889374e-01" purity="3.2538869976997375e-01" nType="0">
          <Node pos="l" depth="2" NCoef="0" IVar="1" Cut="8.3528140625000000e+04" cType="1" res="-4.6705259010195732e-03" rms="2.5053027272224426e-01" purity="1.1991343647241592e-01" nType="0">
            <Node pos="l" depth="3" NCoef="0" IVar="-1" Cut="0.0000000000000000e+00" cType="1" res="1.2987171066924930e-03" rms="3.8867583870887756e-01" purity="3.1822091341018677e-01" nType="-99"/>
            <Node pos="r" depth="3" NCoef="0" IVar="-1" Cut="0.0000000000000000e+00" cType="1" res="-1.0345998220145702e-02" rms="1.3068640232086182e-01" purity="2.1376224234700203e-02" nType="-99"/>
          </Node>
          <Node pos="r" depth="2" NCoef="0" IVar="0" Cut="3.8095238804817200e-01" cType="1" res="8.2722783088684082e-02" rms="2.2347623109817505e-01" purity="9.4317191839218140e-01" nType="0">
            <Node pos="l" depth="3" NCoef="0" IVar="-1" Cut="0.0000000000000000e+00" cType="1" res="1.9826760981231928e-03" rms="1.6510634124279022e-01" purity="9.6723884344100952e-01" nType="-99"/>
            <Node pos="r" depth="3" NCoef="0" IVar="-1" Cut="0.0000000000000000e+00" cType="1" res="1.0533970780670643e-03" rms="2.4899439513683319e-01" purity="9.3012201786041260e-01" nType="-99"/>
          </Node>
        </Node>
        <Node pos="r" depth="1" NCoef="0" IVar="5" Cut="9.2601679687500000e+04" cType="1" res="8.6595080792903900e-02" rms="2.7819472551345825e-01" purity="8.5199606418609619e-01" nType="0">
          <Node pos="l" depth="2" NCoef="0" IVar="3" Cut="4.8766871093750000e+04" cType="1" res="7.2303511202335358e-02" rms="2.5311622023582458e-01" purity="8.5330224037170410e-01" nType="0">
            <Node pos="l" depth="3" NCoef="0" IVar="-1" Cut="0.0000000000000000e+00" cType="1" res="3.9543292950838804e-04" rms="3.6709144711494446e-01" purity="6.2383598089218140e-01" nType="-99"/>
            <Node pos="r" depth="3" NCoef="0" IVar="-1" Cut="0.0000000000000000e+00" cType="1" res="1.4882892137393355e-03" rms="1.6264331340789795e-01" purity="9.7303819656372070e-01" nType="-99"/>
          </Node>
          <Node pos="r" depth="2" NCoef="0" IVar="3" Cut="2.0536576171875000e+04" cType="1" res="1.2719379365444183e-01" rms="3.3617743849754333e-01" purity="8.4828555583953857e-01" nType="0">
            <Node pos="l" depth="3" NCoef="0" IVar="-1" Cut="0.0000000000000000e+00" cType="1" res="8.8619356974959373e-03" rms="5.5357176065444946e-01" purity="5.5952024459838867e-01" nType="-99"/>
            <Node pos="r" depth="3" NCoef="0" IVar="-1" Cut="0.0000000000000000e+00" cType="1" res="1.1705126380547881e-03" rms="2.6726236939430237e-01" purity="9.0163862705230713e-01" nType="-99"/>
          </Node>
        </Node>
      </Node>
    </BinaryTree>
    <BinaryTree type="DecisionTree" boostWeight="1.0000000000000000e+00" itree="591">
      <Node pos="s" depth="0" NCoef="0" IVar="2" Cut="3.7109978125000000e+05" cType="1" res="2.6247467845678329e-02" rms="2.5613409280776978e-01" purity="4.8264789581298828e-01" nType="0">
        <Node pos="l" depth="1" NCoef="0" IVar="2" Cut="1.7035370312500000e+05" cType="1" res="7.2821360081434250e-03" rms="2.6100066304206848e-01" purity="3.6427822709083557e-01" nType="0">
          <Node pos="l" depth="2" NCoef="0" IVar="1" Cut="4.6390687500000000e+04" cType="1" res="-1.4682213962078094e-01" rms="3.3848676085472107e-01" purity="1.9844026863574982e-01" nType="0">
            <Node pos="l" depth="3" NCoef="0" IVar="-1" Cut="0.0000000000000000e+00" cType="1" res="-1.5790039673447609e-02" rms="3.2406815886497498e-01" purity="7.7758505940437317e-02" nType="-99"/>
            <Node pos="r" depth="3" NCoef="0" IVar="-1" Cut="0.0000000000000000e+00" cType="1" res="-8.3295242802705616e-05" rms="3.2881116867065430e-01" purity="4.9043774604797363e-01" nType="-99"/>
          </Node>
          <Node pos="r" depth="2" NCoef="0" IVar="3" Cut="5.6015867187500000e+04" cType="1" res="1.6714982688426971e-02" rms="2.5245863199234009e-01" purity="3.7442928552627563e-01" nType="0">
            <Node pos="l" depth="3" NCoef="0" IVar="-1" Cut="0.0000000000000000e+00" cType="1" res="3.0796170904068276e-05" rms="2.5514531135559082e-01" purity="1.6341507434844971e-01" nType="-99"/>
            <Node pos="r" depth="3" NCoef="0" IVar="-1" Cut="0.0000000000000000e+00" cType="1" res="1.1149185011163354e-03" rms="2.4047710001468658e-01" purity="9.1521400213241577e-01" nType="-99"/>
          </Node>
        </Node>
        <Node pos="r" depth="1" NCoef="0" IVar="5" Cut="9.4401796875000000e+04" cType="1" res="7.0277027785778046e-02" rms="2.3872235417366028e-01" purity="7.5745278596878052e-01" nType="0">
          <Node pos="l" depth="2" NCoef="0" IVar="4" Cut="2.7706921875000000e+05" cType="1" res="5.5515032261610031e-02" rms="2.4390004575252533e-01" purity="7.2301077842712402e-01" nType="0">
            <Node pos="l" depth="3" NCoef="0" IVar="-1" Cut="0.0000000000000000e+00" cType="1" res="2.2733868099749088e-03" rms="2.5037223100662231e-01" purity="6.6589987277984619e-01" nType="-99"/>
            <Node pos="r" depth="3" NCoef="0" IVar="-1" Cut="0.0000000000000000e+00" cType="1" res="1.0076315375044942e-03" rms="2.4085848033428192e-01" purity="7.3409283161163330e-01" nType="-99"/>
          </Node>
          <Node pos="r" depth="2" NCoef="0" IVar="-1" Cut="0.0000000000000000e+00" cType="1" res="7.6573825208470225e-04" rms="2.0112846791744232e-01" purity="9.1168540716171265e-01" nType="-99"/>
        </Node>
      </Node>
    </BinaryTree>
    <BinaryTree type="DecisionTree" boostWeight="1.0000000000000000e+00" itree="592">
      <Node pos="s" depth="0" NCoef="0" IVar="1" Cut="1.0035560937500000e+05" cType="1" res="4.1710454970598221e-02" rms="2.6875531673431396e-01" purity="4.9506145715713501e-01" nType="0">
        <Node pos="l" depth="1" NCoef="0" IVar="1" Cut="8.3528140625000000e+04" cType="1" res="2.3044984787702560e-02" rms="2.6844170689582825e-01" purity="3.0604332685470581e-01" nType="0">
          <Node pos="l" depth="2" NCoef="0" IVar="1" Cut="2.5635589843750000e+04" cType="1" res="6.8170659244060516e-02" rms="3.3546730875968933e-01" purity="5.7892310619354248e-01" nType="0">
            <Node pos="l" depth="3" NCoef="0" IVar="-1" Cut="0.0000000000000000e+00" cType="1" res="-4.5320480130612850e-03" rms="2.4454854428768158e-01" purity="1.9130448997020721e-01" nType="-99"/>
            <Node pos="r" depth="3" NCoef="0" IVar="-1" Cut="0.0000000000000000e+00" cType="1" res="1.5406875172629952e-03" rms="3.4003356099128723e-01" purity="6.1411130428314209e-01" nType="-99"/>
          </Node>
          <Node pos="r" depth="2" NCoef="0" IVar="5" Cut="9.4148078125000000e+04" cType="1" res="-9.8700234666466713e-03" rms="1.9991932809352875e-01" purity="1.0700276494026184e-01" nType="0">
            <Node pos="l" depth="3" NCoef="0" IVar="-1" Cut="0.0000000000000000e+00" cType="1" res="-1.7358709592372179e-03" rms="1.9001778960227966e-01" purity="9.9195487797260284e-02" nType="-99"/>
            <Node pos="r" depth="3" NCoef="0" IVar="-1" Cut="0.0000000000000000e+00" cType="1" res="6.3917762599885464e-03" rms="3.3304044604301453e-01" purity="2.7485001087188721e-01" nType="-99"/>
          </Node>
        </Node>
        <Node pos="r" depth="1" NCoef="0" IVar="2" Cut="3.1853246875000000e+05" cType="1" res="7.6676815748214722e-02" rms="2.6583772897720337e-01" purity="8.4915238618850708e-01" nType="0">
          <Node pos="l" depth="2" NCoef="0" IVar="1" Cut="1.3862128125000000e+05" cType="1" res="1.0038573294878006e-01" rms="3.2205611467361450e-01" purity="7.3187959194183350e-01" nType="0">
            <Node pos="l" depth="3" NCoef="0" IVar="-1" Cut="0.0000000000000000e+00" cType="1" res="1.6372860409319401e-03" rms="3.2652023434638977e-01" purity="7.0031875371932983e-01" nType="-99"/>
            <Node pos="r" depth="3" NCoef="0" IVar="-1" Cut="0.0000000000000000e+00" cType="1" res="6.8694975925609469e-04" rms="2.9761272668838501e-01" purity="8.2648056745529175e-01" nType="-99"/>
          </Node>
          <Node pos="r" depth="2" NCoef="0" IVar="3" Cut="4.9945699218750000e+04" cType="1" res="6.4785487949848175e-02" rms="2.3166730999946594e-01" purity="9.0797108411788940e-01" nType="0">
            <Node pos="l" depth="3" NCoef="0" IVar="-1" Cut="0.0000000000000000e+00" cType="1" res="4.8065988812595606e-04" rms="3.7463048100471497e-01" purity="7.2339642047882080e-01" nType="-99"/>
            <Node pos="r" depth="3" NCoef="0" IVar="-1" Cut="0.0000000000000000e+00" cType="1" res="9.2477572616189718e-04" rms="1.3884307444095612e-01" purity="9.7955119609832764e-01" nType="-99"/>
          </Node>
        </Node>
      </Node>
    </BinaryTree>
    <BinaryTree type="DecisionTree" boostWeight="1.0000000000000000e+00" itree="593">
      <Node pos="s" depth="0" NCoef="0" IVar="3" Cut="3.7870195312500000e+04" cType="1" res="3.3228680491447449e-02" rms="2.5775149464607239e-01" purity="4.8619666695594788e-01" nType="0">
        <Node pos="l" depth="1" NCoef="0" IVar="4" Cut="5.2473475000000000e+05" cType="1" res="6.1610941775143147e-03" rms="2.4752208590507507e-01" purity="1.4227496087551117e-01" nType="0">
          <Node pos="l" depth="2" NCoef="0" IVar="3" Cut="3.6072250000000000e+04" cType="1" res="-8.5192895494401455e-04" rms="2.3941497504711151e-01" purity="1.0919544100761414e-01" nType="0">
            <Node pos="l" depth="3" NCoef="0" IVar="-1" Cut="0.0000000000000000e+00" cType="1" res="-9.1365701518952847e-04" rms="2.2969160974025726e-01" purity="8.9572235941886902e-02" nType="-99"/>
            <Node pos="r" depth="3" NCoef="0" IVar="-1" Cut="0.0000000000000000e+00" cType="1" res="2.4482910521328449e-03" rms="3.6872887611389160e-01" purity="5.1667016744613647e-01" nType="-99"/>
          </Node>
          <Node pos="r" depth="2" NCoef="0" IVar="4" Cut="5.9514768750000000e+05" cType="1" res="8.6536131799221039e-02" rms="3.1541505455970764e-01" purity="5.2139347791671753e-01" nType="0">
            <Node pos="l" depth="3" NCoef="0" IVar="-1" Cut="0.0000000000000000e+00" cType="1" res="1.5806957380846143e-03" rms="3.1141975522041321e-01" purity="6.4512974023818970e-01" nType="-99"/>
            <Node pos="r" depth="3" NCoef="0" IVar="-1" Cut="0.0000000000000000e+00" cType="1" res="-2.3681578750256449e-04" rms="2.8359821438789368e-01" purity="4.3609318137168884e-01" nType="-99"/>
          </Node>
        </Node>
        <Node pos="r" depth="1" NCoef="0" IVar="2" Cut="2.1406293750000000e+05" cType="1" res="6.1146408319473267e-02" rms="2.6501277089118958e-01" purity="8.4092032909393311e-01" nType="0">
          <Node pos="l" depth="2" NCoef="0" IVar="3" Cut="6.4054890625000000e+04" cType="1" res="6.5256720408797264e-03" rms="3.2345759868621826e-01" purity="7.0196199417114258e-01" nType="0">
            <Node pos="l" depth="3" NCoef="0" IVar="-1" Cut="0.0000000000000000e+00" cType="1" res="-3.0669313855469227e-03" rms="3.9167085289955139e-01" purity="3.3257535099983215e-01" nType="-99"/>
            <Node pos="r" depth="3" NCoef="0" IVar="-1" Cut="0.0000000000000000e+00" cType="1" res="9.7383989486843348e-04" rms="2.5872343778610229e-01" purity="9.1437143087387085e-01" nType="-99"/>
          </Node>
          <Node pos="r" depth="2" NCoef="0" IVar="0" Cut="3.8095238804817200e-01" cType="1" res="7.1323066949844360e-02" rms="2.5132530927658081e-01" purity="8.6681038141250610e-01" nType="0">
            <Node pos="l" depth="3" NCoef="0" IVar="-1" Cut="0.0000000000000000e+00" cType="1" res="1.5737568028271198e-03" rms="2.4540519714355469e-01" purity="8.8298171758651733e-01" nType="-99"/>
            <Node pos="r" depth="3" NCoef="0" IVar="-1" Cut="0.0000000000000000e+00" cType="1" res="9.7466842271387577e-04" rms="2.5329115986824036e-01" purity="8.5586696863174438e-01" nType="-99"/>
          </Node>
        </Node>
      </Node>
    </BinaryTree>
    <BinaryTree type="DecisionTree" boostWeight="1.0000000000000000e+00" itree="594">
      <Node pos="s" depth="0" NCoef="0" IVar="3" Cut="4.8766871093750000e+04" cType="1" res="4.2718410491943359e-02" rms="2.5261700153350830e-01" purity="5.1162576675415039e-01" nType="0">
        <Node pos="l" depth="1" NCoef="0" IVar="4" Cut="6.8207393750000000e+05" cType="1" res="1.9699679687619209e-02" rms="2.7429029345512390e-01" purity="2.1081933379173279e-01" nType="0">
          <Node pos="l" depth="2" NCoef="0" IVar="5" Cut="9.0700171875000000e+04" cType="1" res="1.1186157353222370e-02" rms="2.6834794878959656e-01" purity="1.7917038500308990e-01" nType="0">
            <Node pos="l" depth="3" NCoef="0" IVar="-1" Cut="0.0000000000000000e+00" cType="1" res="1.2422938598319888e-03" rms="2.9388087987899780e-01" purity="2.4106682837009430e-01" nType="-99"/>
            <Node pos="r" depth="3" NCoef="0" IVar="-1" Cut="0.0000000000000000e+00" cType="1" res="-8.9415552793070674e-04" rms="2.4055863916873932e-01" purity="1.2152934819459915e-01" nType="-99"/>
          </Node>
          <Node pos="r" depth="2" NCoef="0" IVar="-1" Cut="0.0000000000000000e+00" cType="1" res="1.3343192404136062e-03" rms="3.2546913623809814e-01" purity="6.7674106359481812e-01" nType="-99"/>
        </Node>
        <Node pos="r" depth="1" NCoef="0" IVar="5" Cut="9.1608093750000000e+04" cType="1" res="7.3868043720722198e-02" rms="2.1604262292385101e-01" purity="9.1868609189987183e-01" nType="0">
          <Node pos="l" depth="2" NCoef="0" IVar="2" Cut="2.1518854687500000e+05" cType="1" res="8.4769383072853088e-02" rms="2.1293839812278748e-01" purity="9.2297971248626709e-01" nType="0">
            <Node pos="l" depth="3" NCoef="0" IVar="-1" Cut="0.0000000000000000e+00" cType="1" res="6.7199347540736198e-04" rms="2.5034195184707642e-01" purity="8.6071473360061646e-01" nType="-99"/>
            <Node pos="r" depth="3" NCoef="0" IVar="-1" Cut="0.0000000000000000e+00" cType="1" res="1.5670148422941566e-03" rms="2.0441327989101410e-01" purity="9.3423235416412354e-01" nType="-99"/>
          </Node>
          <Node pos="r" depth="2" NCoef="0" IVar="3" Cut="7.4514179687500000e+04" cType="1" res="5.2877087146043777e-02" rms="2.2038401663303375e-01" purity="9.1041851043701172e-01" nType="0">
            <Node pos="l" depth="3" NCoef="0" IVar="-1" Cut="0.0000000000000000e+00" cType="1" res="-1.0083438974106684e-04" rms="3.3600932359695435e-01" purity="7.3229348659515381e-01" nType="-99"/>
            <Node pos="r" depth="3" NCoef="0" IVar="-1" Cut="0.0000000000000000e+00" cType="1" res="1.6144530382007360e-03" rms="1.5699879825115204e-01" purity="9.7178590297698975e-01" nType="-99"/>
          </Node>
        </Node>
      </Node>
    </BinaryTree>
    <BinaryTree type="DecisionTree" boostWeight="1.0000000000000000e+00" itree="595">
      <Node pos="s" depth="0" NCoef="0" IVar="3" Cut="6.8850757812500000e+04" cType="1" res="3.0928269028663635e-02" rms="2.5452908873558044e-01" purity="4.8892486095428467e-01" nType="0">
        <Node pos="l" depth="1" NCoef="0" IVar="3" Cut="5.2456402343750000e+04" cType="1" res="1.2333025224506855e-02" rms="2.7423274517059326e-01" purity="2.9477635025978088e-01" nType="0">
          <Node pos="l" depth="2" NCoef="0" IVar="1" Cut="1.5585303125000000e+05" cType="1" res="1.9717942923307419e-03" rms="2.6762014627456665e-01" purity="2.0741181075572968e-01" nType="0">
            <Node pos="l" depth="3" NCoef="0" IVar="-1" Cut="0.0000000000000000e+00" cType="1" res="-2.7335417689755559e-04" rms="2.5769367814064026e-01" purity="1.3116043806076050e-01" nType="-99"/>
            <Node pos="r" depth="3" NCoef="0" IVar="-1" Cut="0.0000000000000000e+00" cType="1" res="7.2414276655763388e-04" rms="3.3556908369064331e-01" purity="8.4254461526870728e-01" nType="-99"/>
          </Node>
          <Node pos="r" depth="2" NCoef="0" IVar="3" Cut="5.7903839843750000e+04" cType="1" res="7.4601061642169952e-02" rms="3.0366808176040649e-01" purity="8.1981241703033447e-01" nType="0">
            <Node pos="l" depth="3" NCoef="0" IVar="-1" Cut="0.0000000000000000e+00" cType="1" res="9.2908114311285317e-05" rms="3.4747391939163208e-01" purity="6.6772896051406860e-01" nType="-99"/>
            <Node pos="r" depth="3" NCoef="0" IVar="-1" Cut="0.0000000000000000e+00" cType="1" res="1.4183560851961374e-03" rms="2.8348931670188904e-01" purity="8.7111872434616089e-01" nType="-99"/>
          </Node>
        </Node>
        <Node pos="r" depth="1" NCoef="0" IVar="1" Cut="7.5627406250000000e+04" cType="1" res="7.5948812067508698e-02" rms="1.9156436622142792e-01" purity="9.5897364616394043e-01" nType="0">
          <Node pos="l" depth="2" NCoef="0" IVar="-1" Cut="0.0000000000000000e+00" cType="1" res="8.9896935969591141e-04" rms="2.1804709732532501e-01" purity="9.4486212730407715e-01" nType="-99"/>
          <Node pos="r" depth="2" NCoef="0" IVar="5" Cut="9.1553851562500000e+04" cType="1" res="8.7805196642875671e-02" rms="1.7994582653045654e-01" purity="9.6388006210327148e-01" nType="0">
            <Node pos="l" depth="3" NCoef="0" IVar="-1" Cut="0.0000000000000000e+00" cType="1" res="1.6039250185713172e-03" rms="1.8064364790916443e-01" purity="9.6612858772277832e-01" nType="-99"/>
            <Node pos="r" depth="3" NCoef="0" IVar="-1" Cut="0.0000000000000000e+00" cType="1" res="9.3215284869074821e-04" rms="1.7713929712772369e-01" purity="9.5984476804733276e-01" nType="-99"/>
          </Node>
        </Node>
      </Node>
    </BinaryTree>
    <BinaryTree type="DecisionTree" boostWeight="1.0000000000000000e+00" itree="596">
      <Node pos="s" depth="0" NCoef="0" IVar="2" Cut="3.7473971875000000e+05" cType="1" res="4.0151067078113556e-02" rms="2.6120135188102722e-01" purity="5.0162190198898315e-01" nType="0">
        <Node pos="l" depth="1" NCoef="0" IVar="1" Cut="8.1440429687500000e+04" cType="1" res="2.5373641401529312e-02" rms="2.6344287395477295e-01" purity="3.9350563287734985e-01" nType="0">
          <Node pos="l" depth="2" NCoef="0" IVar="2" Cut="1.3683457812500000e+05" cType="1" res="6.9946065545082092e-02" rms="3.3940467238426208e-01" purity="5.8668369054794312e-01" nType="0">
            <Node pos="l" depth="3" NCoef="0" IVar="-1" Cut="0.0000000000000000e+00" cType="1" res="-1.1689478531479836e-02" rms="3.2381621003150940e-01" purity="9.8543979227542877e-02" nType="-99"/>
            <Node pos="r" depth="3" NCoef="0" IVar="-1" Cut="0.0000000000000000e+00" cType="1" res="1.7510787583887577e-03" rms="3.3771243691444397e-01" purity="6.1785691976547241e-01" nType="-99"/>
          </Node>
          <Node pos="r" depth="2" NCoef="0" IVar="3" Cut="6.5555382812500000e+04" cType="1" res="6.4816372469067574e-03" rms="2.2089290618896484e-01" purity="3.1162717938423157e-01" nType="0">
            <Node pos="l" depth="3" NCoef="0" IVar="-1" Cut="0.0000000000000000e+00" cType="1" res="-5.7810434373095632e-04" rms="2.1587471663951874e-01" purity="1.5380550920963287e-01" nType="-99"/>
            <Node pos="r" depth="3" NCoef="0" IVar="-1" Cut="0.0000000000000000e+00" cType="1" res="1.1379069183021784e-03" rms="2.3046559095382690e-01" purity="9.3211895227432251e-01" nType="-99"/>
          </Node>
        </Node>
        <Node pos="r" depth="1" NCoef="0" IVar="4" Cut="4.6386637500000000e+05" cType="1" res="7.6463244855403900e-02" rms="2.5195482373237610e-01" purity="7.6729315519332886e-01" nType="0">
          <Node pos="l" depth="2" NCoef="0" IVar="4" Cut="2.6328756250000000e+05" cType="1" res="1.1121432483196259e-01" rms="2.6733723282814026e-01" purity="7.3307067155838013e-01" nType="0">
            <Node pos="l" depth="3" NCoef="0" IVar="-1" Cut="0.0000000000000000e+00" cType="1" res="3.2469653524458408e-03" rms="3.0175501108169556e-01" purity="7.4108582735061646e-01" nType="-99"/>
            <Node pos="r" depth="3" NCoef="0" IVar="-1" Cut="0.0000000000000000e+00" cType="1" res="8.1898429198190570e-04" rms="2.4730364978313446e-01" purity="7.3012787103652954e-01" nType="-99"/>
          </Node>
          <Node pos="r" depth="2" NCoef="0" IVar="3" Cut="5.4991691406250000e+04" cType="1" res="3.6262087523937225e-02" rms="2.2633458673954010e-01" purity="8.0688291788101196e-01" nType="0">
            <Node pos="l" depth="3" NCoef="0" IVar="-1" Cut="0.0000000000000000e+00" cType="1" res="-1.3750276993960142e-03" rms="2.7611491084098816e-01" purity="4.8129585385322571e-01" nType="-99"/>
            <Node pos="r" depth="3" NCoef="0" IVar="-1" Cut="0.0000000000000000e+00" cType="1" res="1.6322219744324684e-03" rms="1.8960984051227570e-01" purity="9.5538777112960815e-01" nType="-99"/>
          </Node>
        </Node>
      </Node>
    </BinaryTree>
    <BinaryTree type="DecisionTree" boostWeight="1.0000000000000000e+00" itree="597">
      <Node pos="s" depth="0" NCoef="0" IVar="2" Cut="2.0161748437500000e+05" cType="1" res="2.8967777267098427e-02" rms="2.6389849185943604e-01" purity="4.8449754714965820e-01" nType="0">
        <Node pos="l" depth="1" NCoef="0" IVar="5" Cut="8.6787796875000000e+04" cType="1" res="-1.3892500661313534e-02" rms="2.7188938856124878e-01" purity="2.8562122583389282e-01" nType="0">
          <Node pos="l" depth="2" NCoef="0" IVar="-1" Cut="0.0000000000000000e+00" cType="1" res="-9.4010066241025925e-03" rms="4.3886569142341614e-01" purity="1.4834989607334137e-01" nType="-99"/>
          <Node pos="r" depth="2" NCoef="0" IVar="5" Cut="9.0115156250000000e+04" cType="1" res="1.8331027822569013e-03" rms="2.4576953053474426e-01" purity="2.9773262143135071e-01" nType="0">
            <Node pos="l" depth="3" NCoef="0" IVar="-1" Cut="0.0000000000000000e+00" cType="1" res="1.8171487608924508e-03" rms="2.7597489953041077e-01" purity="3.8035708665847778e-01" nType="-99"/>
            <Node pos="r" depth="3" NCoef="0" IVar="-1" Cut="0.0000000000000000e+00" cType="1" res="-2.0937751978635788e-03" rms="2.1868404746055603e-01" purity="2.4610595405101776e-01" nType="-99"/>
          </Node>
        </Node>
        <Node pos="r" depth="1" NCoef="0" IVar="3" Cut="5.4259988281250000e+04" cType="1" res="3.7631940096616745e-02" rms="2.6140105724334717e-01" purity="5.2470022439956665e-01" nType="0">
          <Node pos="l" depth="2" NCoef="0" IVar="5" Cut="9.3565492187500000e+04" cType="1" res="2.2408239543437958e-02" rms="2.8835248947143555e-01" purity="2.6707047224044800e-01" nType="0">
            <Node pos="l" depth="3" NCoef="0" IVar="-1" Cut="0.0000000000000000e+00" cType="1" res="3.6881645792163908e-04" rms="2.6855164766311646e-01" purity="2.5644844770431519e-01" nType="-99"/>
            <Node pos="r" depth="3" NCoef="0" IVar="-1" Cut="0.0000000000000000e+00" cType="1" res="1.6522018704563379e-03" rms="4.0562182664871216e-01" purity="3.5122105479240417e-01" nType="-99"/>
          </Node>
          <Node pos="r" depth="2" NCoef="0" IVar="1" Cut="1.3213310937500000e+05" cType="1" res="6.1824724078178406e-02" rms="2.0935854315757751e-01" purity="9.3411326408386230e-01" nType="0">
            <Node pos="l" depth="3" NCoef="0" IVar="-1" Cut="0.0000000000000000e+00" cType="1" res="7.7813083771616220e-04" rms="2.6056650280952454e-01" purity="8.9181274175643921e-01" nType="-99"/>
            <Node pos="r" depth="3" NCoef="0" IVar="-1" Cut="0.0000000000000000e+00" cType="1" res="1.4565020101144910e-03" rms="1.1214914917945862e-01" purity="9.8724186420440674e-01" nType="-99"/>
          </Node>
        </Node>
      </Node>
    </BinaryTree>
    <BinaryTree type="DecisionTree" boostWeight="1.0000000000000000e+00" itree="598">
      <Node pos="s" depth="0" NCoef="0" IVar="3" Cut="5.4198226562500000e+04" cType="1" res="3.3130738884210587e-02" rms="2.6362776756286621e-01" purity="4.8301309347152710e-01" nType="0">
        <Node pos="l" depth="1" NCoef="0" IVar="5" Cut="8.8777554687500000e+04" cType="1" res="1.8041113391518593e-02" rms="2.7921268343925476e-01" purity="2.3787665367126465e-01" nType="0">
          <Node pos="l" depth="2" NCoef="0" IVar="0" Cut="3.3333334326744080e-01" cType="1" res="7.1515768766403198e-02" rms="3.3224987983703613e-01" purity="4.2026528716087341e-01" nType="0">
            <Node pos="l" depth="3" NCoef="0" IVar="-1" Cut="0.0000000000000000e+00" cType="1" res="2.3677288554608822e-03" rms="3.3990710973739624e-01" purity="4.4086128473281860e-01" nType="-99"/>
            <Node pos="r" depth="3" NCoef="0" IVar="-1" Cut="0.0000000000000000e+00" cType="1" res="-1.1754619481507689e-04" rms="3.0456292629241943e-01" purity="3.8725653290748596e-01" nType="-99"/>
          </Node>
          <Node pos="r" depth="2" NCoef="0" IVar="1" Cut="5.5263890625000000e+04" cType="1" res="4.0452275425195694e-03" rms="2.6177749037742615e-01" purity="1.9014017283916473e-01" nType="0">
            <Node pos="l" depth="3" NCoef="0" IVar="-1" Cut="0.0000000000000000e+00" cType="1" res="2.6792066637426615e-03" rms="4.2309641838073730e-01" purity="3.6978459358215332e-01" nType="-99"/>
            <Node pos="r" depth="3" NCoef="0" IVar="-1" Cut="0.0000000000000000e+00" cType="1" res="-3.8144405698403716e-04" rms="2.3661847412586212e-01" purity="1.7211252450942993e-01" nType="-99"/>
          </Node>
        </Node>
        <Node pos="r" depth="1" NCoef="0" IVar="1" Cut="1.0369942187500000e+05" cType="1" res="6.0170836746692657e-02" rms="2.3065163195133209e-01" purity="9.2228937149047852e-01" nType="0">
          <Node pos="l" depth="2" NCoef="0" IVar="3" Cut="8.9385710937500000e+04" cType="1" res="3.5345975309610367e-02" rms="3.0783092975616455e-01" purity="8.4908562898635864e-01" nType="0">
            <Node pos="l" depth="3" NCoef="0" IVar="-1" Cut="0.0000000000000000e+00" cType="1" res="-1.0341389861423522e-04" rms="4.1016867756843567e-01" purity="7.0066845417022705e-01" nType="-99"/>
            <Node pos="r" depth="3" NCoef="0" IVar="-1" Cut="0.0000000000000000e+00" cType="1" res="1.4177494449540973e-03" rms="1.9568285346031189e-01" purity="9.5870339870452881e-01" nType="-99"/>
          </Node>
          <Node pos="r" depth="2" NCoef="0" IVar="5" Cut="9.0679765625000000e+04" cType="1" res="7.9314514994621277e-02" rms="1.4251212775707245e-01" purity="9.7874051332473755e-01" nType="0">
            <Node pos="l" depth="3" NCoef="0" IVar="-1" Cut="0.0000000000000000e+00" cType="1" res="1.2952606193721294e-03" rms="1.6166809201240540e-01" purity="9.7254300117492676e-01" nType="-99"/>
            <Node pos="r" depth="3" NCoef="0" IVar="-1" Cut="0.0000000000000000e+00" cType="1" res="1.4634781982749701e-03" rms="1.2278975546360016e-01" purity="9.8419994115829468e-01" nType="-99"/>
          </Node>
        </Node>
      </Node>
    </BinaryTree>
    <BinaryTree type="DecisionTree" boostWeight="1.0000000000000000e+00" itree="599">
      <Node pos="s" depth="0" NCoef="0" IVar="1" Cut="1.0043197656250000e+05" cType="1" res="3.9151921868324280e-02" rms="2.6792937517166138e-01" purity="4.9294462800025940e-01" nType="0">
        <Node pos="l" depth="1" NCoef="0" IVar="4" Cut="3.5197456250000000e+05" cType="1" res="1.8279526382684708e-02" rms="2.5883886218070984e-01" purity="2.9930767416954041e-01" nType="0">
          <Node pos="l" depth="2" NCoef="0" IVar="3" Cut="7.9989992187500000e+04" cType="1" res="1.6129106516018510e-03" rms="2.3114797472953796e-01" purity="2.2350384294986725e-01" nType="0">
            <Node pos="l" depth="3" NCoef="0" IVar="-1" Cut="0.0000000000000000e+00" cType="1" res="-8.5639965254813433e-04" rms="2.3525011539459229e-01" purity="1.2066879123449326e-01" nType="-99"/>
            <Node pos="r" depth="3" NCoef="0" IVar="-1" Cut="0.0000000000000000e+00" cType="1" res="1.3643077109009027e-03" rms="1.7874939739704132e-01" purity="9.6555364131927490e-01" nType="-99"/>
          </Node>
          <Node pos="r" depth="2" NCoef="0" IVar="0" Cut="2.1428570747375488e+00" cType="1" res="7.4474535882472992e-02" rms="3.2962256669998169e-01" purity="5.5489617586135864e-01" nType="0">
            <Node pos="l" depth="3" NCoef="0" IVar="-1" Cut="0.0000000000000000e+00" cType="1" res="3.0421281699091196e-03" rms="3.2912859320640564e-01" purity="6.0022306442260742e-01" nType="-99"/>
            <Node pos="r" depth="3" NCoef="0" IVar="-1" Cut="0.0000000000000000e+00" cType="1" res="-2.2010139655321836e-03" rms="2.9911687970161438e-01" purity="3.6959916353225708e-01" nType="-99"/>
          </Node>
        </Node>
        <Node pos="r" depth="1" NCoef="0" IVar="2" Cut="3.1917725000000000e+05" cType="1" res="7.7113926410675049e-02" rms="2.7975344657897949e-01" purity="8.4512495994567871e-01" nType="0">
          <Node pos="l" depth="2" NCoef="0" IVar="5" Cut="9.3362789062500000e+04" cType="1" res="1.0908013582229614e-01" rms="3.6813485622406006e-01" purity="7.1223467588424683e-01" nType="0">
            <Node pos="l" depth="3" NCoef="0" IVar="-1" Cut="0.0000000000000000e+00" cType="1" res="2.3391488939523697e-03" rms="3.6282086372375488e-01" purity="7.3837745189666748e-01" nType="-99"/>
            <Node pos="r" depth="3" NCoef="0" IVar="-1" Cut="0.0000000000000000e+00" cType="1" res="-1.4270982937887311e-03" rms="3.5934948921203613e-01" purity="5.0911688804626465e-01" nType="-99"/>
          </Node>
          <Node pos="r" depth="2" NCoef="0" IVar="3" Cut="5.4305199218750000e+04" cType="1" res="6.3039220869541168e-02" rms="2.2891452908515930e-01" purity="9.0363645553588867e-01" nType="0">
            <Node pos="l" depth="3" NCoef="0" IVar="-1" Cut="0.0000000000000000e+00" cType="1" res="4.1797506855800748e-04" rms="3.4411060810089111e-01" purity="7.5539451837539673e-01" nType="-99"/>
            <Node pos="r" depth="3" NCoef="0" IVar="-1" Cut="0.0000000000000000e+00" cType="1" res="1.2592641869559884e-03" rms="1.2580513954162598e-01" purity="9.8352706432342529e-01" nType="-99"/>
          </Node>
        </Node>
      </Node>
    </BinaryTree>
    <BinaryTree type="DecisionTree" boostWeight="1.0000000000000000e+00" itree="600">
      <Node pos="s" depth="0" NCoef="0" IVar="5" Cut="9.6403148437500000e+04" cType="1" res="3.9116598665714264e-02" rms="2.7757835388183594e-01" purity="4.7859269380569458e-01" nType="0">
        <Node pos="l" depth="1" NCoef="0" IVar="2" Cut="2.8910706250000000e+05" cType="1" res="3.5361301153898239e-02" rms="2.7218931913375854e-01" purity="4.7085312008857727e-01" nType="0">
          <Node pos="l" depth="2" NCoef="0" IVar="2" Cut="1.4236826562500000e+05" cType="1" res="1.5271618962287903e-02" rms="2.6548606157302856e-01" purity="3.1761562824249268e-01" nType="0">
            <Node pos="l" depth="3" NCoef="0" IVar="-1" Cut="0.0000000000000000e+00" cType="1" res="3.2626453321427107e-03" rms="5.2329891920089722e-01" purity="3.8938671350479126e-01" nType="-99"/>
            <Node pos="r" depth="3" NCoef="0" IVar="-1" Cut="0.0000000000000000e+00" cType="1" res="2.1131466201040894e-04" rms="2.4238130450248718e-01" purity="3.1436908245086670e-01" nType="-99"/>
          </Node>
          <Node pos="r" depth="2" NCoef="0" IVar="0" Cut="4.2857143282890320e-01" cType="1" res="5.9778276830911636e-02" rms="2.7817410230636597e-01" purity="6.5709787607192993e-01" nType="0">
            <Node pos="l" depth="3" NCoef="0" IVar="-1" Cut="0.0000000000000000e+00" cType="1" res="8.3391426596790552e-04" rms="2.4565237760543823e-01" purity="5.5179852247238159e-01" nType="-99"/>
            <Node pos="r" depth="3" NCoef="0" IVar="-1" Cut="0.0000000000000000e+00" cType="1" res="1.7387664411216974e-03" rms="2.9455354809761047e-01" purity="7.1865624189376831e-01" nType="-99"/>
          </Node>
        </Node>
        <Node pos="r" depth="1" NCoef="0" IVar="-1" Cut="0.0000000000000000e+00" cType="1" res="4.1732438839972019e-03" rms="3.9590486884117126e-01" purity="7.2541123628616333e-01" nType="-99"/>
      </Node>
    </BinaryTree>
    <BinaryTree type="DecisionTree" boostWeight="1.0000000000000000e+00" itree="601">
      <Node pos="s" depth="0" NCoef="0" IVar="1" Cut="1.0035560937500000e+05" cType="1" res="4.1117053478956223e-02" rms="2.6660475134849548e-01" purity="4.9441698193550110e-01" nType="0">
        <Node pos="l" depth="1" NCoef="0" IVar="1" Cut="6.2494769531250000e+04" cType="1" res="2.7675990015268326e-02" rms="2.6228299736976624e-01" purity="3.2154789566993713e-01" nType="0">
          <Node pos="l" depth="2" NCoef="0" IVar="1" Cut="3.8455945312500000e+04" cType="1" res="9.4104960560798645e-02" rms="3.2682505249977112e-01" purity="6.7024791240692139e-01" nType="0">
            <Node pos="l" depth="3" NCoef="0" IVar="-1" Cut="0.0000000000000000e+00" cType="1" res="-1.2219052587170154e-04" rms="2.5550344586372375e-01" purity="4.8553365468978882e-01" nType="-99"/>
            <Node pos="r" depth="3" NCoef="0" IVar="-1" Cut="0.0000000000000000e+00" cType="1" res="2.5565321557223797e-03" rms="3.5166841745376587e-01" purity="7.9221647977828979e-01" nType="-99"/>
          </Node>
          <Node pos="r" depth="2" NCoef="0" IVar="1" Cut="8.5932625000000000e+04" cType="1" res="6.2324074096977711e-03" rms="2.3373983800411224e-01" purity="2.0898593962192535e-01" nType="0">
            <Node pos="l" depth="3" NCoef="0" IVar="-1" Cut="0.0000000000000000e+00" cType="1" res="1.3408929808065295e-03" rms="2.7461287379264832e-01" purity="4.2269220948219299e-01" nType="-99"/>
            <Node pos="r" depth="3" NCoef="0" IVar="-1" Cut="0.0000000000000000e+00" cType="1" res="-1.3537610648199916e-03" rms="2.0667098462581635e-01" purity="9.3592114746570587e-02" nType="-99"/>
          </Node>
        </Node>
        <Node pos="r" depth="1" NCoef="0" IVar="2" Cut="5.8099106250000000e+05" cType="1" res="6.7403621971607208e-02" rms="2.7295416593551636e-01" purity="8.3249545097351074e-01" nType="0">
          <Node pos="l" depth="2" NCoef="0" IVar="4" Cut="5.0298815625000000e+05" cType="1" res="7.4665218591690063e-02" rms="2.7642032504081726e-01" purity="8.1836372613906860e-01" nType="0">
            <Node pos="l" depth="3" NCoef="0" IVar="-1" Cut="0.0000000000000000e+00" cType="1" res="8.1757002044469118e-04" rms="2.9515460133552551e-01" purity="7.6469212770462036e-01" nType="-99"/>
            <Node pos="r" depth="3" NCoef="0" IVar="-1" Cut="0.0000000000000000e+00" cType="1" res="1.0098877828568220e-03" rms="2.0962478220462799e-01" purity="9.6042537689208984e-01" nType="-99"/>
          </Node>
          <Node pos="r" depth="2" NCoef="0" IVar="-1" Cut="0.0000000000000000e+00" cType="1" res="6.2379206065088511e-04" rms="2.5260555744171143e-01" purity="9.0082168579101562e-01" nType="-99"/>
        </Node>
      </Node>
    </BinaryTree>
    <BinaryTree type="DecisionTree" boostWeight="1.0000000000000000e+00" itree="602">
      <Node pos="s" depth="0" NCoef="0" IVar="3" Cut="4.8721656250000000e+04" cType="1" res="3.1180804595351219e-02" rms="2.5572332739830017e-01" purity="4.9157509207725525e-01" nType="0">
        <Node pos="l" depth="1" NCoef="0" IVar="3" Cut="2.7893976562500000e+04" cType="1" res="8.8211568072438240e-03" rms="2.7263060212135315e-01" purity="1.8523891270160675e-01" nType="0">
          <Node pos="l" depth="2" NCoef="0" IVar="3" Cut="1.5989674804687500e+04" cType="1" res="-9.5334798097610474e-03" rms="2.1186469495296478e-01" purity="8.5353501141071320e-02" nType="0">
            <Node pos="l" depth="3" NCoef="0" IVar="-1" Cut="0.0000000000000000e+00" cType="1" res="1.2811581837013364e-03" rms="1.9639772176742554e-01" purity="7.6601147651672363e-02" nType="-99"/>
            <Node pos="r" depth="3" NCoef="0" IVar="-1" Cut="0.0000000000000000e+00" cType="1" res="-4.8636496067047119e-03" rms="2.2754631936550140e-01" purity="9.7128242254257202e-02" nType="-99"/>
          </Node>
          <Node pos="r" depth="2" NCoef="0" IVar="5" Cut="9.3438132812500000e+04" cType="1" res="4.8196151852607727e-02" rms="3.6771148443222046e-01" purity="3.9951652288436890e-01" nType="0">
            <Node pos="l" depth="3" NCoef="0" IVar="-1" Cut="0.0000000000000000e+00" cType="1" res="5.7009898591786623e-04" rms="3.4977018833160400e-01" purity="3.5486635565757751e-01" nType="-99"/>
            <Node pos="r" depth="3" NCoef="0" IVar="-1" Cut="0.0000000000000000e+00" cType="1" res="1.2559925671666861e-03" rms="4.1525650024414062e-01" purity="6.2076127529144287e-01" nType="-99"/>
          </Node>
        </Node>
        <Node pos="r" depth="1" NCoef="0" IVar="1" Cut="1.1134978125000000e+05" cType="1" res="6.1912324279546738e-02" rms="2.2690337896347046e-01" purity="9.1260927915573120e-01" nType="0">
          <Node pos="l" depth="2" NCoef="0" IVar="1" Cut="9.7198906250000000e+04" cType="1" res="3.9287663996219635e-02" rms="2.8759524226188660e-01" purity="8.4769773483276367e-01" nType="0">
            <Node pos="l" depth="3" NCoef="0" IVar="-1" Cut="0.0000000000000000e+00" cType="1" res="3.7597102345898747e-04" rms="2.8733238577842712e-01" purity="8.3179193735122681e-01" nType="-99"/>
            <Node pos="r" depth="3" NCoef="0" IVar="-1" Cut="0.0000000000000000e+00" cType="1" res="1.5354277566075325e-03" rms="2.7193409204483032e-01" purity="9.3047815561294556e-01" nType="-99"/>
          </Node>
          <Node pos="r" depth="2" NCoef="0" IVar="3" Cut="9.5033203125000000e+04" cType="1" res="8.6439281702041626e-02" rms="1.2836386263370514e-01" purity="9.8297870159149170e-01" nType="0">
            <Node pos="l" depth="3" NCoef="0" IVar="-1" Cut="0.0000000000000000e+00" cType="1" res="1.2262036325410008e-03" rms="1.7087374627590179e-01" purity="9.6952402591705322e-01" nType="-99"/>
            <Node pos="r" depth="3" NCoef="0" IVar="-1" Cut="0.0000000000000000e+00" cType="1" res="1.4489107998088002e-03" rms="8.7092414498329163e-02" purity="9.9236154556274414e-01" nType="-99"/>
          </Node>
        </Node>
      </Node>
    </BinaryTree>
    <BinaryTree type="DecisionTree" boostWeight="1.0000000000000000e+00" itree="603">
      <Node pos="s" depth="0" NCoef="0" IVar="1" Cut="1.0034389062500000e+05" cType="1" res="3.7810534238815308e-02" rms="2.6074084639549255e-01" purity="4.9815088510513306e-01" nType="0">
        <Node pos="l" depth="1" NCoef="0" IVar="1" Cut="8.3512921875000000e+04" cType="1" res="1.5901081264019012e-02" rms="2.6017889380455017e-01" purity="3.0106753110885620e-01" nType="0">
          <Node pos="l" depth="2" NCoef="0" IVar="1" Cut="3.5838988281250000e+04" cType="1" res="4.8147607594728470e-02" rms="3.2079288363456726e-01" purity="5.6149023771286011e-01" nType="0">
            <Node pos="l" depth="3" NCoef="0" IVar="-1" Cut="0.0000000000000000e+00" cType="1" res="-2.8840515296906233e-03" rms="3.0047750473022461e-01" purity="3.4394475817680359e-01" nType="-99"/>
            <Node pos="r" depth="3" NCoef="0" IVar="-1" Cut="0.0000000000000000e+00" cType="1" res="1.5565330395475030e-03" rms="3.2059490680694580e-01" purity="6.1107766628265381e-01" nType="-99"/>
          </Node>
          <Node pos="r" depth="2" NCoef="0" IVar="5" Cut="9.0017781250000000e+04" cType="1" res="-6.7468420602381229e-03" rms="2.0424740016460419e-01" purity="1.1816303431987762e-01" nType="0">
            <Node pos="l" depth="3" NCoef="0" IVar="-1" Cut="0.0000000000000000e+00" cType="1" res="1.5035923570394516e-03" rms="2.4063357710838318e-01" purity="2.3175583779811859e-01" nType="-99"/>
            <Node pos="r" depth="3" NCoef="0" IVar="-1" Cut="0.0000000000000000e+00" cType="1" res="-4.2616445571184158e-03" rms="1.8448972702026367e-01" purity="7.0345655083656311e-02" nType="-99"/>
          </Node>
        </Node>
        <Node pos="r" depth="1" NCoef="0" IVar="2" Cut="3.1898428125000000e+05" cType="1" res="7.7565558254718781e-02" rms="2.5703206658363342e-01" purity="8.5576164722442627e-01" nType="0">
          <Node pos="l" depth="2" NCoef="0" IVar="3" Cut="2.3404490234375000e+04" cType="1" res="5.0542600452899933e-02" rms="2.9588282108306885e-01" purity="7.2127097845077515e-01" nType="0">
            <Node pos="l" depth="3" NCoef="0" IVar="-1" Cut="0.0000000000000000e+00" cType="1" res="-1.9908212125301361e-03" rms="3.1356921792030334e-01" purity="1.9456902146339417e-01" nType="-99"/>
            <Node pos="r" depth="3" NCoef="0" IVar="-1" Cut="0.0000000000000000e+00" cType="1" res="1.3689240440726280e-03" rms="2.8622725605964661e-01" purity="8.6511617898941040e-01" nType="-99"/>
          </Node>
          <Node pos="r" depth="2" NCoef="0" IVar="5" Cut="9.0649742187500000e+04" cType="1" res="8.8987059891223907e-02" rms="2.3779650032520294e-01" purity="9.1260540485382080e-01" nType="0">
            <Node pos="l" depth="3" NCoef="0" IVar="-1" Cut="0.0000000000000000e+00" cType="1" res="1.1915874201804399e-03" rms="2.6155039668083191e-01" purity="9.1481596231460571e-01" nType="-99"/>
            <Node pos="r" depth="3" NCoef="0" IVar="-1" Cut="0.0000000000000000e+00" cType="1" res="8.6107366951182485e-04" rms="2.0496393740177155e-01" purity="9.1003000736236572e-01" nType="-99"/>
          </Node>
        </Node>
      </Node>
    </BinaryTree>
    <BinaryTree type="DecisionTree" boostWeight="1.0000000000000000e+00" itree="604">
      <Node pos="s" depth="0" NCoef="0" IVar="1" Cut="1.0034389062500000e+05" cType="1" res="5.1326092332601547e-02" rms="2.7474397420883179e-01" purity="5.0282543897628784e-01" nType="0">
        <Node pos="l" depth="1" NCoef="0" IVar="1" Cut="7.5095820312500000e+04" cType="1" res="3.8474831730127335e-02" rms="2.7634894847869873e-01" purity="3.2576695084571838e-01" nType="0">
          <Node pos="l" depth="2" NCoef="0" IVar="1" Cut="7.2088843750000000e+04" cType="1" res="9.7808316349983215e-02" rms="3.4803134202957153e-01" purity="6.5804755687713623e-01" nType="0">
            <Node pos="l" depth="3" NCoef="0" IVar="-1" Cut="0.0000000000000000e+00" cType="1" res="1.5593974385410547e-03" rms="3.2461789250373840e-01" purity="6.6048681735992432e-01" nType="-99"/>
            <Node pos="r" depth="3" NCoef="0" IVar="-1" Cut="0.0000000000000000e+00" cType="1" res="2.1377857774496078e-03" rms="4.8264795541763306e-01" purity="6.3367033004760742e-01" nType="-99"/>
          </Node>
          <Node pos="r" depth="2" NCoef="0" IVar="3" Cut="5.5954460937500000e+04" cType="1" res="1.0376821272075176e-02" rms="2.2960160672664642e-01" purity="1.6841189563274384e-01" nType="0">
            <Node pos="l" depth="3" NCoef="0" IVar="-1" Cut="0.0000000000000000e+00" cType="1" res="-1.1917799383809324e-05" rms="1.9834649562835693e-01" purity="4.7686230391263962e-02" nType="-99"/>
            <Node pos="r" depth="3" NCoef="0" IVar="-1" Cut="0.0000000000000000e+00" cType="1" res="9.1978645650669932e-04" rms="3.4644645452499390e-01" purity="8.0866664648056030e-01" nType="-99"/>
          </Node>
        </Node>
        <Node pos="r" depth="1" NCoef="0" IVar="5" Cut="8.5950843750000000e+04" cType="1" res="7.6172471046447754e-02" rms="2.6988431811332703e-01" purity="8.4514701366424561e-01" nType="0">
          <Node pos="l" depth="2" NCoef="0" IVar="-1" Cut="0.0000000000000000e+00" cType="1" res="2.0137340470682830e-04" rms="3.1205299496650696e-01" purity="7.4872893095016479e-01" nType="-99"/>
          <Node pos="r" depth="2" NCoef="0" IVar="5" Cut="8.9586445312500000e+04" cType="1" res="8.1058077514171600e-02" rms="2.6597923040390015e-01" purity="8.5194504261016846e-01" nType="0">
            <Node pos="l" depth="3" NCoef="0" IVar="-1" Cut="0.0000000000000000e+00" cType="1" res="9.9423690699040890e-04" rms="2.7793958783149719e-01" purity="8.5849308967590332e-01" nType="-99"/>
            <Node pos="r" depth="3" NCoef="0" IVar="-1" Cut="0.0000000000000000e+00" cType="1" res="1.4136449899524450e-03" rms="2.5917288661003113e-01" purity="8.4889584779739380e-01" nType="-99"/>
          </Node>
        </Node>
      </Node>
    </BinaryTree>
    <BinaryTree type="DecisionTree" boostWeight="1.0000000000000000e+00" itree="605">
      <Node pos="s" depth="0" NCoef="0" IVar="2" Cut="3.1093778125000000e+05" cType="1" res="2.9370129108428955e-02" rms="2.4203519523143768e-01" purity="5.0710368156433105e-01" nType="0">
        <Node pos="l" depth="1" NCoef="0" IVar="4" Cut="2.9412587500000000e+05" cType="1" res="-3.9237914606928825e-03" rms="2.4927186965942383e-01" purity="3.0211383104324341e-01" nType="0">
          <Node pos="l" depth="2" NCoef="0" IVar="3" Cut="6.1814199218750000e+04" cType="1" res="-2.5875989347696304e-02" rms="2.3081505298614502e-01" purity="2.0475211739540100e-01" nType="0">
            <Node pos="l" depth="3" NCoef="0" IVar="-1" Cut="0.0000000000000000e+00" cType="1" res="-4.6404628083109856e-03" rms="2.0733991265296936e-01" purity="7.6684914529323578e-02" nType="-99"/>
            <Node pos="r" depth="3" NCoef="0" IVar="-1" Cut="0.0000000000000000e+00" cType="1" res="4.7828280366957188e-04" rms="3.2125577330589294e-01" purity="8.6294591426849365e-01" nType="-99"/>
          </Node>
          <Node pos="r" depth="2" NCoef="0" IVar="5" Cut="8.8727968750000000e+04" cType="1" res="6.6530086100101471e-02" rms="2.8993859887123108e-01" purity="6.1458873748779297e-01" nType="0">
            <Node pos="l" depth="3" NCoef="0" IVar="-1" Cut="0.0000000000000000e+00" cType="1" res="3.1904443167150021e-03" rms="3.1042048335075378e-01" purity="8.3434146642684937e-01" nType="-99"/>
            <Node pos="r" depth="3" NCoef="0" IVar="-1" Cut="0.0000000000000000e+00" cType="1" res="7.9024129081517458e-04" rms="2.7189007401466370e-01" purity="5.2151447534561157e-01" nType="-99"/>
          </Node>
        </Node>
        <Node pos="r" depth="1" NCoef="0" IVar="3" Cut="3.7329417968750000e+04" cType="1" res="6.8383060395717621e-02" rms="2.2714309394359589e-01" purity="7.4730521440505981e-01" nType="0">
          <Node pos="l" depth="2" NCoef="0" IVar="4" Cut="5.0789887500000000e+05" cType="1" res="2.3459805175662041e-02" rms="2.8354370594024658e-01" purity="3.2461073994636536e-01" nType="0">
            <Node pos="l" depth="3" NCoef="0" IVar="-1" Cut="0.0000000000000000e+00" cType="1" res="-7.2722847107797861e-04" rms="2.8240829706192017e-01" purity="1.8509168922901154e-01" nType="-99"/>
            <Node pos="r" depth="3" NCoef="0" IVar="-1" Cut="0.0000000000000000e+00" cType="1" res="6.4165150979533792e-04" rms="2.6980546116828918e-01" purity="6.4374971389770508e-01" nType="-99"/>
          </Node>
          <Node pos="r" depth="2" NCoef="0" IVar="4" Cut="4.4528271875000000e+05" cType="1" res="8.7580457329750061e-02" rms="1.9507539272308350e-01" purity="9.2793846130371094e-01" nType="0">
            <Node pos="l" depth="3" NCoef="0" IVar="-1" Cut="0.0000000000000000e+00" cType="1" res="8.4035791223868728e-04" rms="1.8281266093254089e-01" purity="9.3435603380203247e-01" nType="-99"/>
            <Node pos="r" depth="3" NCoef="0" IVar="-1" Cut="0.0000000000000000e+00" cType="1" res="1.1525972513481975e-03" rms="2.0492939651012421e-01" purity="9.1994762420654297e-01" nType="-99"/>
          </Node>
        </Node>
      </Node>
    </BinaryTree>
    <BinaryTree type="DecisionTree" boostWeight="1.0000000000000000e+00" itree="606">
      <Node pos="s" depth="0" NCoef="0" IVar="1" Cut="1.0034389062500000e+05" cType="1" res="4.4977717101573944e-02" rms="2.6694881916046143e-01" purity="5.0327843427658081e-01" nType="0">
        <Node pos="l" depth="1" NCoef="0" IVar="1" Cut="7.0894695312500000e+04" cType="1" res="2.9080040752887726e-02" rms="2.5995555520057678e-01" purity="3.4069031476974487e-01" nType="0">
          <Node pos="l" depth="2" NCoef="0" IVar="1" Cut="3.7235960937500000e+04" cType="1" res="8.3573184907436371e-02" rms="2.9545474052429199e-01" purity="7.0721894502639771e-01" nType="0">
            <Node pos="l" depth="3" NCoef="0" IVar="-1" Cut="0.0000000000000000e+00" cType="1" res="1.5482721209991723e-04" rms="2.7397006750106812e-01" purity="4.4041565060615540e-01" nType="-99"/>
            <Node pos="r" depth="3" NCoef="0" IVar="-1" Cut="0.0000000000000000e+00" cType="1" res="1.9282904686406255e-03" rms="2.9778927564620972e-01" purity="7.9932767152786255e-01" nType="-99"/>
          </Node>
          <Node pos="r" depth="2" NCoef="0" IVar="5" Cut="9.0684765625000000e+04" cType="1" res="4.7863046638667583e-03" rms="2.3848049342632294e-01" purity="1.7728720605373383e-01" nType="0">
            <Node pos="l" depth="3" NCoef="0" IVar="-1" Cut="0.0000000000000000e+00" cType="1" res="1.4471299946308136e-03" rms="2.6237025856971741e-01" purity="2.3604056239128113e-01" nType="-99"/>
            <Node pos="r" depth="3" NCoef="0" IVar="-1" Cut="0.0000000000000000e+00" cType="1" res="-1.6233415808528662e-03" rms="2.1450623869895935e-01" purity="1.2747535109519958e-01" nType="-99"/>
          </Node>
        </Node>
        <Node pos="r" depth="1" NCoef="0" IVar="4" Cut="3.0314225000000000e+05" cType="1" res="7.8013382852077484e-02" rms="2.7803266048431396e-01" purity="8.4113955497741699e-01" nType="0">
          <Node pos="l" depth="2" NCoef="0" IVar="4" Cut="2.5593995312500000e+05" cType="1" res="1.0398890823125839e-01" rms="3.3437609672546387e-01" purity="7.2669827938079834e-01" nType="0">
            <Node pos="l" depth="3" NCoef="0" IVar="-1" Cut="0.0000000000000000e+00" cType="1" res="1.0068208212032914e-03" rms="3.5324624180793762e-01" purity="6.0677450895309448e-01" nType="-99"/>
            <Node pos="r" depth="3" NCoef="0" IVar="-1" Cut="0.0000000000000000e+00" cType="1" res="2.5577640626579523e-03" rms="2.9800075292587280e-01" purity="8.7101417779922485e-01" nType="-99"/>
          </Node>
          <Node pos="r" depth="2" NCoef="0" IVar="3" Cut="6.9110984375000000e+04" cType="1" res="6.3797794282436371e-02" rms="2.4051441252231598e-01" purity="9.0376973152160645e-01" nType="0">
            <Node pos="l" depth="3" NCoef="0" IVar="-1" Cut="0.0000000000000000e+00" cType="1" res="7.9956359695643187e-04" rms="3.4249699115753174e-01" purity="7.8990185260772705e-01" nType="-99"/>
            <Node pos="r" depth="3" NCoef="0" IVar="-1" Cut="0.0000000000000000e+00" cType="1" res="1.1007811408489943e-03" rms="1.2407426536083221e-01" purity="9.8427647352218628e-01" nType="-99"/>
          </Node>
        </Node>
      </Node>
    </BinaryTree>
    <BinaryTree type="DecisionTree" boostWeight="1.0000000000000000e+00" itree="607">
      <Node pos="s" depth="0" NCoef="0" IVar="1" Cut="1.0034389062500000e+05" cType="1" res="4.5466866344213486e-02" rms="2.7245858311653137e-01" purity="5.0607573986053467e-01" nType="0">
        <Node pos="l" depth="1" NCoef="0" IVar="1" Cut="7.5095820312500000e+04" cType="1" res="3.3119421452283859e-02" rms="2.7342048287391663e-01" purity="3.3675444126129150e-01" nType="0">
          <Node pos="l" depth="2" NCoef="0" IVar="1" Cut="3.3032632812500000e+04" cType="1" res="8.7516516447067261e-02" rms="3.4646347165107727e-01" purity="6.7998349666595459e-01" nType="0">
            <Node pos="l" depth="3" NCoef="0" IVar="-1" Cut="0.0000000000000000e+00" cType="1" res="-8.9963176287710667e-04" rms="2.5906845927238464e-01" purity="4.1199889779090881e-01" nType="-99"/>
            <Node pos="r" depth="3" NCoef="0" IVar="-1" Cut="0.0000000000000000e+00" cType="1" res="1.9624452106654644e-03" rms="3.5928115248680115e-01" purity="7.4512022733688354e-01" nType="-99"/>
          </Node>
          <Node pos="r" depth="2" NCoef="0" IVar="2" Cut="3.0841237500000000e+05" cType="1" res="5.2936510182917118e-03" rms="2.2205786406993866e-01" purity="1.6118237376213074e-01" nType="0">
            <Node pos="l" depth="3" NCoef="0" IVar="-1" Cut="0.0000000000000000e+00" cType="1" res="-1.5455343527719378e-03" rms="1.7933726310729980e-01" purity="1.0924410074949265e-01" nType="-99"/>
            <Node pos="r" depth="3" NCoef="0" IVar="-1" Cut="0.0000000000000000e+00" cType="1" res="2.0823266822844744e-03" rms="3.0045360326766968e-01" purity="2.9306030273437500e-01" nType="-99"/>
          </Node>
        </Node>
        <Node pos="r" depth="1" NCoef="0" IVar="3" Cut="4.8659894531250000e+04" cType="1" res="7.0050440728664398e-02" rms="2.6885008811950684e-01" purity="8.4319180250167847e-01" nType="0">
          <Node pos="l" depth="2" NCoef="0" IVar="5" Cut="9.3551070312500000e+04" cType="1" res="4.0713902562856674e-02" rms="4.1992822289466858e-01" purity="5.5889815092086792e-01" nType="0">
            <Node pos="l" depth="3" NCoef="0" IVar="-1" Cut="0.0000000000000000e+00" cType="1" res="1.0624794522300363e-03" rms="4.1798332333564758e-01" purity="5.9413605928421021e-01" nType="-99"/>
            <Node pos="r" depth="3" NCoef="0" IVar="-1" Cut="0.0000000000000000e+00" cType="1" res="-7.1268836036324501e-03" rms="3.8785845041275024e-01" purity="2.6499193906784058e-01" nType="-99"/>
          </Node>
          <Node pos="r" depth="2" NCoef="0" IVar="4" Cut="3.9151881250000000e+05" cType="1" res="8.3670139312744141e-02" rms="1.5292161703109741e-01" purity="9.7517716884613037e-01" nType="0">
            <Node pos="l" depth="3" NCoef="0" IVar="-1" Cut="0.0000000000000000e+00" cType="1" res="1.3902673963457346e-03" rms="1.7519129812717438e-01" purity="9.6732497215270996e-01" nType="-99"/>
            <Node pos="r" depth="3" NCoef="0" IVar="-1" Cut="0.0000000000000000e+00" cType="1" res="1.3229463947936893e-03" rms="1.3701468706130981e-01" purity="9.8006278276443481e-01" nType="-99"/>
          </Node>
        </Node>
      </Node>
    </BinaryTree>
    <BinaryTree type="DecisionTree" boostWeight="1.0000000000000000e+00" itree="608">
      <Node pos="s" depth="0" NCoef="0" IVar="1" Cut="1.0034835937500000e+05" cType="1" res="4.0278088301420212e-02" rms="2.6646789908409119e-01" purity="5.0470638275146484e-01" nType="0">
        <Node pos="l" depth="1" NCoef="0" IVar="3" Cut="3.7922710937500000e+04" cType="1" res="1.9053688272833824e-02" rms="2.6181009411811829e-01" purity="3.1868782639503479e-01" nType="0">
          <Node pos="l" depth="2" NCoef="0" IVar="2" Cut="4.5892362500000000e+05" cType="1" res="2.9714647680521011e-03" rms="1.9686865806579590e-01" purity="5.3551111370325089e-02" nType="0">
            <Node pos="l" depth="3" NCoef="0" IVar="-1" Cut="0.0000000000000000e+00" cType="1" res="-1.0317958658561110e-03" rms="1.7511086165904999e-01" purity="4.5999579131603241e-02" nType="-99"/>
            <Node pos="r" depth="3" NCoef="0" IVar="-1" Cut="0.0000000000000000e+00" cType="1" res="1.5410832129418850e-02" rms="3.9009171724319458e-01" purity="1.7287203669548035e-01" nType="-99"/>
          </Node>
          <Node pos="r" depth="2" NCoef="0" IVar="5" Cut="9.4438804687500000e+04" cType="1" res="4.3918229639530182e-02" rms="3.3701655268669128e-01" purity="7.2861266136169434e-01" nType="0">
            <Node pos="l" depth="3" NCoef="0" IVar="-1" Cut="0.0000000000000000e+00" cType="1" res="5.9962063096463680e-04" rms="3.4040874242782593e-01" purity="7.0603835582733154e-01" nType="-99"/>
            <Node pos="r" depth="3" NCoef="0" IVar="-1" Cut="0.0000000000000000e+00" cType="1" res="2.1499285940080881e-03" rms="2.9668590426445007e-01" purity="8.7952154874801636e-01" nType="-99"/>
          </Node>
        </Node>
        <Node pos="r" depth="1" NCoef="0" IVar="2" Cut="3.1853246875000000e+05" cType="1" res="7.9327136278152466e-02" rms="2.7051544189453125e-01" purity="8.4694671630859375e-01" nType="0">
          <Node pos="l" depth="2" NCoef="0" IVar="2" Cut="2.5603668750000000e+05" cType="1" res="1.1065080761909485e-01" rms="3.2561171054840088e-01" purity="7.5383043289184570e-01" nType="0">
            <Node pos="l" depth="3" NCoef="0" IVar="-1" Cut="0.0000000000000000e+00" cType="1" res="2.3292007390409708e-03" rms="3.4413385391235352e-01" purity="7.0648455619812012e-01" nType="-99"/>
            <Node pos="r" depth="3" NCoef="0" IVar="-1" Cut="0.0000000000000000e+00" cType="1" res="9.1773469466716051e-04" rms="2.9706755280494690e-01" purity="7.9234796762466431e-01" nType="-99"/>
          </Node>
          <Node pos="r" depth="2" NCoef="0" IVar="0" Cut="3.8095238804817200e-01" cType="1" res="6.3095539808273315e-02" rms="2.3534464836120605e-01" purity="8.9519858360290527e-01" nType="0">
            <Node pos="l" depth="3" NCoef="0" IVar="-1" Cut="0.0000000000000000e+00" cType="1" res="4.5707981917075813e-04" rms="2.5851958990097046e-01" purity="8.3579128980636597e-01" nType="-99"/>
            <Node pos="r" depth="3" NCoef="0" IVar="-1" Cut="0.0000000000000000e+00" cType="1" res="7.8815309097990394e-04" rms="2.2206246852874756e-01" purity="9.2187482118606567e-01" nType="-99"/>
          </Node>
        </Node>
      </Node>
    </BinaryTree>
    <BinaryTree type="DecisionTree" boostWeight="1.0000000000000000e+00" itree="609">
      <Node pos="s" depth="0" NCoef="0" IVar="1" Cut="1.2715934375000000e+05" cType="1" res="3.5931404680013657e-02" rms="2.6434123516082764e-01" purity="4.9510031938552856e-01" nType="0">
        <Node pos="l" depth="1" NCoef="0" IVar="1" Cut="1.1617060156250000e+05" cType="1" res="2.4484433233737946e-02" rms="2.7200347185134888e-01" purity="3.5391280055046082e-01" nType="0">
          <Node pos="l" depth="2" NCoef="0" IVar="1" Cut="8.6406304687500000e+04" cType="1" res="2.0602211356163025e-02" rms="2.6657602190971375e-01" purity="3.3577871322631836e-01" nType="0">
            <Node pos="l" depth="3" NCoef="0" IVar="-1" Cut="0.0000000000000000e+00" cType="1" res="1.4724110951647162e-03" rms="3.0742156505584717e-01" purity="5.0064724683761597e-01" nType="-99"/>
            <Node pos="r" depth="3" NCoef="0" IVar="-1" Cut="0.0000000000000000e+00" cType="1" res="-6.6680222516879439e-05" rms="2.2055995464324951e-01" purity="1.8511258065700531e-01" nType="-99"/>
          </Node>
          <Node pos="r" depth="2" NCoef="0" IVar="-1" Cut="0.0000000000000000e+00" cType="1" res="2.0978595130145550e-03" rms="3.6657860875129700e-01" purity="7.8318667411804199e-01" nType="-99"/>
        </Node>
        <Node pos="r" depth="1" NCoef="0" IVar="0" Cut="3.8095238804817200e-01" cType="1" res="7.0279620587825775e-02" rms="2.3658378422260284e-01" purity="9.1875302791595459e-01" nType="0">
          <Node pos="l" depth="2" NCoef="0" IVar="-1" Cut="0.0000000000000000e+00" cType="1" res="7.6670444104820490e-04" rms="2.5572192668914795e-01" purity="8.7914043664932251e-01" nType="-99"/>
          <Node pos="r" depth="2" NCoef="0" IVar="2" Cut="3.7111396875000000e+05" cType="1" res="8.0279313027858734e-02" rms="2.2574804723262787e-01" purity="9.3855410814285278e-01" nType="0">
            <Node pos="l" depth="3" NCoef="0" IVar="-1" Cut="0.0000000000000000e+00" cType="1" res="8.5990427760407329e-04" rms="2.4820621311664581e-01" purity="9.2872011661529541e-01" nType="-99"/>
            <Node pos="r" depth="3" NCoef="0" IVar="-1" Cut="0.0000000000000000e+00" cType="1" res="7.9649855615571141e-04" rms="2.0659796893596649e-01" purity="9.4560289382934570e-01" nType="-99"/>
          </Node>
        </Node>
      </Node>
    </BinaryTree>
    <BinaryTree type="DecisionTree" boostWeight="1.0000000000000000e+00" itree="610">
      <Node pos="s" depth="0" NCoef="0" IVar="2" Cut="3.1093778125000000e+05" cType="1" res="4.3483000248670578e-02" rms="2.7543237805366516e-01" purity="4.8999205231666565e-01" nType="0">
        <Node pos="l" depth="1" NCoef="0" IVar="3" Cut="2.8037628906250000e+04" cType="1" res="2.8658084571361542e-02" rms="2.7656722068786621e-01" purity="3.4305265545845032e-01" nType="0">
          <Node pos="l" depth="2" NCoef="0" IVar="3" Cut="1.8704484375000000e+04" cType="1" res="6.2898397445678711e-03" rms="2.1321627497673035e-01" purity="5.6856606155633926e-02" nType="0">
            <Node pos="l" depth="3" NCoef="0" IVar="-1" Cut="0.0000000000000000e+00" cType="1" res="5.0670579075813293e-03" rms="2.0874792337417603e-01" purity="5.9162486344575882e-02" nType="-99"/>
            <Node pos="r" depth="3" NCoef="0" IVar="-1" Cut="0.0000000000000000e+00" cType="1" res="-6.0521857813000679e-03" rms="2.2075688838958740e-01" purity="5.1340125501155853e-02" nType="-99"/>
          </Node>
          <Node pos="r" depth="2" NCoef="0" IVar="1" Cut="7.8407359375000000e+04" cType="1" res="5.1298946142196655e-02" rms="3.2692015171051025e-01" purity="6.3273668289184570e-01" nType="0">
            <Node pos="l" depth="3" NCoef="0" IVar="-1" Cut="0.0000000000000000e+00" cType="1" res="1.3410296523943543e-03" rms="3.6894625425338745e-01" purity="8.0344939231872559e-01" nType="-99"/>
            <Node pos="r" depth="3" NCoef="0" IVar="-1" Cut="0.0000000000000000e+00" cType="1" res="5.5857643019407988e-04" rms="2.8754395246505737e-01" purity="5.0331091880798340e-01" nType="-99"/>
          </Node>
        </Node>
        <Node pos="r" depth="1" NCoef="0" IVar="2" Cut="5.8686956250000000e+05" cType="1" res="6.6019222140312195e-02" rms="2.7215576171875000e-01" purity="7.1336328983306885e-01" nType="0">
          <Node pos="l" depth="2" NCoef="0" IVar="2" Cut="4.4231084375000000e+05" cType="1" res="7.6350934803485870e-02" rms="2.7831718325614929e-01" purity="6.9822716712951660e-01" nType="0">
            <Node pos="l" depth="3" NCoef="0" IVar="-1" Cut="0.0000000000000000e+00" cType="1" res="1.0597537038847804e-03" rms="2.6502576470375061e-01" purity="6.3953495025634766e-01" nType="-99"/>
            <Node pos="r" depth="3" NCoef="0" IVar="-1" Cut="0.0000000000000000e+00" cType="1" res="1.1387241538614035e-03" rms="2.9512858390808105e-01" purity="8.0668199062347412e-01" nType="-99"/>
          </Node>
          <Node pos="r" depth="2" NCoef="0" IVar="3" Cut="4.7591050781250000e+04" cType="1" res="1.5923503786325455e-02" rms="2.3365820944309235e-01" purity="7.8675460815429688e-01" nType="0">
            <Node pos="l" depth="3" NCoef="0" IVar="-1" Cut="0.0000000000000000e+00" cType="1" res="-4.0847253985702991e-03" rms="3.1182172894477844e-01" purity="3.3944705128669739e-01" nType="-99"/>
            <Node pos="r" depth="3" NCoef="0" IVar="-1" Cut="0.0000000000000000e+00" cType="1" res="1.1550607159733772e-03" rms="1.8642409145832062e-01" purity="9.4393330812454224e-01" nType="-99"/>
          </Node>
        </Node>
      </Node>
    </BinaryTree>
    <BinaryTree type="DecisionTree" boostWeight="1.0000000000000000e+00" itree="611">
      <Node pos="s" depth="0" NCoef="0" IVar="1" Cut="1.0036485156250000e+05" cType="1" res="3.7788890302181244e-02" rms="2.6665252447128296e-01" purity="4.9833476543426514e-01" nType="0">
        <Node pos="l" depth="1" NCoef="0" IVar="1" Cut="8.7736203125000000e+04" cType="1" res="2.0492391660809517e-02" rms="2.6325389742851257e-01" purity="3.2557770609855652e-01" nType="0">
          <Node pos="l" depth="2" NCoef="0" IVar="5" Cut="9.3553843750000000e+04" cType="1" res="3.9791252464056015e-02" rms="2.9198420047760010e-01" purity="4.7414663434028625e-01" nType="0">
            <Node pos="l" depth="3" NCoef="0" IVar="-1" Cut="0.0000000000000000e+00" cType="1" res="8.4901839727535844e-04" rms="2.8855097293853760e-01" purity="4.5402392745018005e-01" nType="-99"/>
            <Node pos="r" depth="3" NCoef="0" IVar="-1" Cut="0.0000000000000000e+00" cType="1" res="1.8565934151411057e-03" rms="3.0190530419349670e-01" purity="5.7118880748748779e-01" nType="-99"/>
          </Node>
          <Node pos="r" depth="2" NCoef="0" IVar="3" Cut="3.7870195312500000e+04" cType="1" res="-7.2790384292602539e-03" rms="2.1222621202468872e-01" purity="1.1178424954414368e-01" nType="0">
            <Node pos="l" depth="3" NCoef="0" IVar="-1" Cut="0.0000000000000000e+00" cType="1" res="7.2620087303221226e-03" rms="1.6854764521121979e-01" purity="3.0933370813727379e-02" nType="-99"/>
            <Node pos="r" depth="3" NCoef="0" IVar="-1" Cut="0.0000000000000000e+00" cType="1" res="-1.5693648019805551e-03" rms="3.1509637832641602e-01" purity="3.9639583230018616e-01" nType="-99"/>
          </Node>
        </Node>
        <Node pos="r" depth="1" NCoef="0" IVar="5" Cut="8.8758703125000000e+04" cType="1" res="7.2121143341064453e-02" rms="2.7001073956489563e-01" purity="8.4124451875686646e-01" nType="0">
          <Node pos="l" depth="2" NCoef="0" IVar="3" Cut="2.0378970703125000e+04" cType="1" res="1.1658810079097748e-01" rms="2.9742330312728882e-01" purity="8.5914307832717896e-01" nType="0">
            <Node pos="l" depth="3" NCoef="0" IVar="-1" Cut="0.0000000000000000e+00" cType="1" res="2.1859472617506981e-03" rms="3.9086052775382996e-01" purity="6.3118314743041992e-01" nType="-99"/>
            <Node pos="r" depth="3" NCoef="0" IVar="-1" Cut="0.0000000000000000e+00" cType="1" res="1.8572580302134156e-03" rms="2.6627039909362793e-01" purity="9.1384428739547729e-01" nType="-99"/>
          </Node>
          <Node pos="r" depth="2" NCoef="0" IVar="3" Cut="5.4902226562500000e+04" cType="1" res="5.5115237832069397e-02" rms="2.5673261284828186e-01" purity="8.3439934253692627e-01" nType="0">
            <Node pos="l" depth="3" NCoef="0" IVar="-1" Cut="0.0000000000000000e+00" cType="1" res="3.3713548327796161e-04" rms="3.5614100098609924e-01" purity="6.3000714778900146e-01" nType="-99"/>
            <Node pos="r" depth="3" NCoef="0" IVar="-1" Cut="0.0000000000000000e+00" cType="1" res="1.6829854575917125e-03" rms="1.4750996232032776e-01" purity="9.7752982378005981e-01" nType="-99"/>
          </Node>
        </Node>
      </Node>
    </BinaryTree>
    <BinaryTree type="DecisionTree" boostWeight="1.0000000000000000e+00" itree="612">
      <Node pos="s" depth="0" NCoef="0" IVar="3" Cut="6.8798242187500000e+04" cType="1" res="3.3550444990396500e-02" rms="2.5303962826728821e-01" purity="5.0837320089340210e-01" nType="0">
        <Node pos="l" depth="1" NCoef="0" IVar="1" Cut="7.8740148437500000e+04" cType="1" res="1.7269406467676163e-02" rms="2.7684485912322998e-01" purity="2.9218804836273193e-01" nType="0">
          <Node pos="l" depth="2" NCoef="0" IVar="1" Cut="4.0610652343750000e+04" cType="1" res="7.0902660489082336e-02" rms="3.7571898102760315e-01" purity="4.5743736624717712e-01" nType="0">
            <Node pos="l" depth="3" NCoef="0" IVar="-1" Cut="0.0000000000000000e+00" cType="1" res="-2.5357333943247795e-03" rms="3.0943593382835388e-01" purity="2.0981176197528839e-01" nType="-99"/>
            <Node pos="r" depth="3" NCoef="0" IVar="-1" Cut="0.0000000000000000e+00" cType="1" res="1.7344566294923425e-03" rms="3.8919425010681152e-01" purity="5.6412696838378906e-01" nType="-99"/>
          </Node>
          <Node pos="r" depth="2" NCoef="0" IVar="1" Cut="1.4228856250000000e+05" cType="1" res="2.3818064946681261e-03" rms="2.4023519456386566e-01" purity="2.4631787836551666e-01" nType="0">
            <Node pos="l" depth="3" NCoef="0" IVar="-1" Cut="0.0000000000000000e+00" cType="1" res="-4.4697153498418629e-04" rms="2.2046044468879700e-01" purity="1.1981479078531265e-01" nType="-99"/>
            <Node pos="r" depth="3" NCoef="0" IVar="-1" Cut="0.0000000000000000e+00" cType="1" res="6.7058077547699213e-04" rms="3.1429594755172729e-01" purity="8.5113978385925293e-01" nType="-99"/>
          </Node>
        </Node>
        <Node pos="r" depth="1" NCoef="0" IVar="1" Cut="1.0059082812500000e+05" cType="1" res="6.7483656108379364e-02" rms="1.8982817232608795e-01" purity="9.5895010232925415e-01" nType="0">
          <Node pos="l" depth="2" NCoef="0" IVar="1" Cut="9.2156382812500000e+04" cType="1" res="5.1938511431217194e-02" rms="2.5632536411285400e-01" purity="9.2290318012237549e-01" nType="0">
            <Node pos="l" depth="3" NCoef="0" IVar="-1" Cut="0.0000000000000000e+00" cType="1" res="1.0098392376676202e-03" rms="2.3950865864753723e-01" purity="9.3534892797470093e-01" nType="-99"/>
            <Node pos="r" depth="3" NCoef="0" IVar="-1" Cut="0.0000000000000000e+00" cType="1" res="-3.7840995355509222e-04" rms="4.1143429279327393e-01" purity="7.5734430551528931e-01" nType="-99"/>
          </Node>
          <Node pos="r" depth="2" NCoef="0" IVar="5" Cut="9.0618195312500000e+04" cType="1" res="7.9992890357971191e-02" rms="1.0867333412170410e-01" purity="9.8795717954635620e-01" nType="0">
            <Node pos="l" depth="3" NCoef="0" IVar="-1" Cut="0.0000000000000000e+00" cType="1" res="1.1321380734443665e-03" rms="1.1210557073354721e-01" purity="9.8717153072357178e-01" nType="-99"/>
            <Node pos="r" depth="3" NCoef="0" IVar="-1" Cut="0.0000000000000000e+00" cType="1" res="1.6974437749013305e-03" rms="1.0502160340547562e-01" purity="9.8876112699508667e-01" nType="-99"/>
          </Node>
        </Node>
      </Node>
    </BinaryTree>
    <BinaryTree type="DecisionTree" boostWeight="1.0000000000000000e+00" itree="613">
      <Node pos="s" depth="0" NCoef="0" IVar="4" Cut="1.9537050000000000e+05" cType="1" res="3.4354984760284424e-02" rms="2.7738320827484131e-01" purity="4.8520392179489136e-01" nType="0">
        <Node pos="l" depth="1" NCoef="0" IVar="2" Cut="1.6521989062500000e+05" cType="1" res="2.4576711002737284e-03" rms="2.6473820209503174e-01" purity="1.7618966102600098e-01" nType="0">
          <Node pos="l" depth="2" NCoef="0" IVar="4" Cut="1.5132754687500000e+05" cType="1" res="9.9454991519451141e-02" rms="4.1488352417945862e-01" purity="3.8859441876411438e-01" nType="0">
            <Node pos="l" depth="3" NCoef="0" IVar="-1" Cut="0.0000000000000000e+00" cType="1" res="1.6377582505811006e-04" rms="3.0624410510063171e-01" purity="2.7901631593704224e-01" nType="-99"/>
            <Node pos="r" depth="3" NCoef="0" IVar="-1" Cut="0.0000000000000000e+00" cType="1" res="3.1592869199812412e-03" rms="5.1720249652862549e-01" purity="5.8879441022872925e-01" nType="-99"/>
          </Node>
          <Node pos="r" depth="2" NCoef="0" IVar="2" Cut="2.9549718750000000e+05" cType="1" res="-1.2476263567805290e-02" rms="2.2957377135753632e-01" purity="1.4348731935024261e-01" nType="0">
            <Node pos="l" depth="3" NCoef="0" IVar="-1" Cut="0.0000000000000000e+00" cType="1" res="-2.6681709568947554e-03" rms="2.1440826356410980e-01" purity="1.1124839633703232e-01" nType="-99"/>
            <Node pos="r" depth="3" NCoef="0" IVar="-1" Cut="0.0000000000000000e+00" cType="1" res="3.2618250697851181e-03" rms="3.0687052011489868e-01" purity="4.0433490276336670e-01" nType="-99"/>
          </Node>
        </Node>
        <Node pos="r" depth="1" NCoef="0" IVar="5" Cut="9.2546687500000000e+04" cType="1" res="4.4579967856407166e-02" rms="2.8054985404014587e-01" purity="5.8426129817962646e-01" nType="0">
          <Node pos="l" depth="2" NCoef="0" IVar="3" Cut="9.8188671875000000e+04" cType="1" res="2.9156723991036415e-02" rms="2.7836364507675171e-01" purity="5.4435068368911743e-01" nType="0">
            <Node pos="l" depth="3" NCoef="0" IVar="-1" Cut="0.0000000000000000e+00" cType="1" res="5.2405439782887697e-04" rms="3.0567768216133118e-01" purity="4.1714835166931152e-01" nType="-99"/>
            <Node pos="r" depth="3" NCoef="0" IVar="-1" Cut="0.0000000000000000e+00" cType="1" res="1.4611947117373347e-03" rms="1.4510922133922577e-01" purity="9.7780263423919678e-01" nType="-99"/>
          </Node>
          <Node pos="r" depth="2" NCoef="0" IVar="1" Cut="7.3130476562500000e+04" cType="1" res="8.6698427796363831e-02" rms="2.8217279911041260e-01" purity="6.9325083494186401e-01" nType="0">
            <Node pos="l" depth="3" NCoef="0" IVar="-1" Cut="0.0000000000000000e+00" cType="1" res="1.8133297562599182e-03" rms="3.3738115429878235e-01" purity="8.5976749658584595e-01" nType="-99"/>
            <Node pos="r" depth="3" NCoef="0" IVar="-1" Cut="0.0000000000000000e+00" cType="1" res="1.2265072437003255e-03" rms="2.5483927130699158e-01" purity="6.3748121261596680e-01" nType="-99"/>
          </Node>
        </Node>
      </Node>
    </BinaryTree>
    <BinaryTree type="DecisionTree" boostWeight="1.0000000000000000e+00" itree="614">
      <Node pos="s" depth="0" NCoef="0" IVar="4" Cut="2.2050696875000000e+05" cType="1" res="3.9089385420084000e-02" rms="2.6843646168708801e-01" purity="5.1206094026565552e-01" nType="0">
        <Node pos="l" depth="1" NCoef="0" IVar="5" Cut="8.8800906250000000e+04" cType="1" res="1.0136762633919716e-02" rms="2.6200935244560242e-01" purity="2.3151837289333344e-01" nType="0">
          <Node pos="l" depth="2" NCoef="0" IVar="0" Cut="1.4285714924335480e-01" cType="1" res="5.2355092018842697e-02" rms="3.0180144309997559e-01" purity="4.0197029709815979e-01" nType="0">
            <Node pos="l" depth="3" NCoef="0" IVar="-1" Cut="0.0000000000000000e+00" cType="1" res="2.3275401908904314e-03" rms="3.0097126960754395e-01" purity="4.2550948262214661e-01" nType="-99"/>
            <Node pos="r" depth="3" NCoef="0" IVar="-1" Cut="0.0000000000000000e+00" cType="1" res="-2.0868051797151566e-03" rms="2.8625670075416565e-01" purity="2.8260052204132080e-01" nType="-99"/>
          </Node>
          <Node pos="r" depth="2" NCoef="0" IVar="1" Cut="6.4631386718750000e+04" cType="1" res="-1.0512424632906914e-03" rms="2.4921070039272308e-01" purity="1.8634802103042603e-01" nType="0">
            <Node pos="l" depth="3" NCoef="0" IVar="-1" Cut="0.0000000000000000e+00" cType="1" res="1.2578893220052123e-03" rms="3.4134668111801147e-01" purity="4.9486663937568665e-01" nType="-99"/>
            <Node pos="r" depth="3" NCoef="0" IVar="-1" Cut="0.0000000000000000e+00" cType="1" res="-2.4755664635449648e-03" rms="2.1573320031166077e-01" purity="1.0186627507209778e-01" nType="-99"/>
          </Node>
        </Node>
        <Node pos="r" depth="1" NCoef="0" IVar="5" Cut="9.2519273437500000e+04" cType="1" res="5.3225718438625336e-02" rms="2.7039527893066406e-01" purity="6.4903801679611206e-01" nType="0">
          <Node pos="l" depth="2" NCoef="0" IVar="5" Cut="9.0366062500000000e+04" cType="1" res="4.2656458914279938e-02" rms="2.6040533185005188e-01" purity="6.2707149982452393e-01" nType="0">
            <Node pos="l" depth="3" NCoef="0" IVar="-1" Cut="0.0000000000000000e+00" cType="1" res="1.1519544059410691e-03" rms="2.7461156249046326e-01" purity="7.0580971240997314e-01" nType="-99"/>
            <Node pos="r" depth="3" NCoef="0" IVar="-1" Cut="0.0000000000000000e+00" cType="1" res="2.5853453553281724e-04" rms="2.3447975516319275e-01" purity="5.1173555850982666e-01" nType="-99"/>
          </Node>
          <Node pos="r" depth="2" NCoef="0" IVar="5" Cut="9.3730796875000000e+04" cType="1" res="8.4567904472351074e-02" rms="2.9584559798240662e-01" purity="7.1417766809463501e-01" nType="0">
            <Node pos="l" depth="3" NCoef="0" IVar="-1" Cut="0.0000000000000000e+00" cType="1" res="1.6902191564440727e-03" rms="3.2186421751976013e-01" purity="6.8610107898712158e-01" nType="-99"/>
            <Node pos="r" depth="3" NCoef="0" IVar="-1" Cut="0.0000000000000000e+00" cType="1" res="5.8446807088330388e-04" rms="2.6012381911277771e-01" purity="7.4230957031250000e-01" nType="-99"/>
          </Node>
        </Node>
      </Node>
    </BinaryTree>
    <BinaryTree type="DecisionTree" boostWeight="1.0000000000000000e+00" itree="615">
      <Node pos="s" depth="0" NCoef="0" IVar="2" Cut="2.0356151562500000e+05" cType="1" res="3.1415387988090515e-02" rms="2.6400998234748840e-01" purity="5.0585520267486572e-01" nType="0">
        <Node pos="l" depth="1" NCoef="0" IVar="2" Cut="1.6707528125000000e+05" cType="1" res="-1.9810462370514870e-02" rms="2.4959060549736023e-01" purity="2.9669597744941711e-01" nType="0">
          <Node pos="l" depth="2" NCoef="0" IVar="1" Cut="2.4855587890625000e+04" cType="1" res="-1.1146061867475510e-01" rms="3.2275375723838806e-01" purity="3.2371759414672852e-01" nType="0">
            <Node pos="l" depth="3" NCoef="0" IVar="-1" Cut="0.0000000000000000e+00" cType="1" res="5.4398371139541268e-04" rms="1.9779530167579651e-01" purity="3.5277295112609863e-01" nType="-99"/>
            <Node pos="r" depth="3" NCoef="0" IVar="-1" Cut="0.0000000000000000e+00" cType="1" res="-7.2305528447031975e-03" rms="3.5544240474700928e-01" purity="3.0801910161972046e-01" nType="-99"/>
          </Node>
          <Node pos="r" depth="2" NCoef="0" IVar="1" Cut="5.9767332031250000e+04" cType="1" res="8.5830604657530785e-03" rms="2.1427586674690247e-01" purity="2.8832456469535828e-01" nType="0">
            <Node pos="l" depth="3" NCoef="0" IVar="-1" Cut="0.0000000000000000e+00" cType="1" res="1.7734819557517767e-03" rms="2.8568032383918762e-01" purity="7.6074844598770142e-01" nType="-99"/>
            <Node pos="r" depth="3" NCoef="0" IVar="-1" Cut="0.0000000000000000e+00" cType="1" res="-4.6431091614067554e-03" rms="1.6441409289836884e-01" purity="1.0850701481103897e-01" nType="-99"/>
          </Node>
        </Node>
        <Node pos="r" depth="1" NCoef="0" IVar="3" Cut="5.4259988281250000e+04" cType="1" res="4.2450502514839172e-02" rms="2.6572462916374207e-01" purity="5.5091243982315063e-01" nType="0">
          <Node pos="l" depth="2" NCoef="0" IVar="5" Cut="8.8797125000000000e+04" cType="1" res="2.6434367522597313e-02" rms="2.9819953441619873e-01" purity="2.6773443818092346e-01" nType="0">
            <Node pos="l" depth="3" NCoef="0" IVar="-1" Cut="0.0000000000000000e+00" cType="1" res="1.5326518332585692e-03" rms="3.6798733472824097e-01" purity="4.4634547829627991e-01" nType="-99"/>
            <Node pos="r" depth="3" NCoef="0" IVar="-1" Cut="0.0000000000000000e+00" cType="1" res="8.6389167699962854e-04" rms="2.7795621752738953e-01" purity="2.2523894906044006e-01" nType="-99"/>
          </Node>
          <Node pos="r" depth="2" NCoef="0" IVar="2" Cut="2.9475268750000000e+05" cType="1" res="6.4159363508224487e-02" rms="2.1205653250217438e-01" purity="9.3474239110946655e-01" nType="0">
            <Node pos="l" depth="3" NCoef="0" IVar="-1" Cut="0.0000000000000000e+00" cType="1" res="6.3588115153834224e-04" rms="2.8829073905944824e-01" purity="8.6961942911148071e-01" nType="-99"/>
            <Node pos="r" depth="3" NCoef="0" IVar="-1" Cut="0.0000000000000000e+00" cType="1" res="1.2585599906742573e-03" rms="1.7100609838962555e-01" purity="9.6078461408615112e-01" nType="-99"/>
          </Node>
        </Node>
      </Node>
    </BinaryTree>
    <BinaryTree type="DecisionTree" boostWeight="1.0000000000000000e+00" itree="616">
      <Node pos="s" depth="0" NCoef="0" IVar="1" Cut="9.3462679687500000e+04" cType="1" res="3.1680680811405182e-02" rms="2.6860272884368896e-01" purity="4.8082649707794189e-01" nType="0">
        <Node pos="l" depth="1" NCoef="0" IVar="5" Cut="8.4987414062500000e+04" cType="1" res="1.3518724590539932e-02" rms="2.7674159407615662e-01" purity="3.1775373220443726e-01" nType="0">
          <Node pos="l" depth="2" NCoef="0" IVar="-1" Cut="0.0000000000000000e+00" cType="1" res="4.6953079290688038e-03" rms="3.9915752410888672e-01" purity="6.2484407424926758e-01" nType="-99"/>
          <Node pos="r" depth="2" NCoef="0" IVar="5" Cut="8.7287023437500000e+04" cType="1" res="7.4448264203965664e-03" rms="2.6933336257934570e-01" purity="3.0666962265968323e-01" nType="0">
            <Node pos="l" depth="3" NCoef="0" IVar="-1" Cut="0.0000000000000000e+00" cType="1" res="-4.4842255301773548e-03" rms="3.2949444651603699e-01" purity="3.2580295205116272e-01" nType="-99"/>
            <Node pos="r" depth="3" NCoef="0" IVar="-1" Cut="0.0000000000000000e+00" cType="1" res="6.9440389052033424e-04" rms="2.6369115710258484e-01" purity="3.0554690957069397e-01" nType="-99"/>
          </Node>
        </Node>
        <Node pos="r" depth="1" NCoef="0" IVar="3" Cut="6.8736484375000000e+04" cType="1" res="5.3085677325725555e-02" rms="2.5703981518745422e-01" purity="6.7301791906356812e-01" nType="0">
          <Node pos="l" depth="2" NCoef="0" IVar="3" Cut="4.9028656250000000e+04" cType="1" res="3.9597652852535248e-02" rms="3.0905023217201233e-01" purity="4.8600691556930542e-01" nType="0">
            <Node pos="l" depth="3" NCoef="0" IVar="-1" Cut="0.0000000000000000e+00" cType="1" res="7.9831952461972833e-04" rms="3.1728014349937439e-01" purity="3.5653793811798096e-01" nType="-99"/>
            <Node pos="r" depth="3" NCoef="0" IVar="-1" Cut="0.0000000000000000e+00" cType="1" res="1.2935984414070845e-03" rms="2.7727290987968445e-01" purity="8.8696449995040894e-01" nType="-99"/>
          </Node>
          <Node pos="r" depth="2" NCoef="0" IVar="2" Cut="3.5908596875000000e+05" cType="1" res="7.5291752815246582e-02" rms="1.2962993979454041e-01" purity="9.8090451955795288e-01" nType="0">
            <Node pos="l" depth="3" NCoef="0" IVar="-1" Cut="0.0000000000000000e+00" cType="1" res="1.4855242334306240e-03" rms="1.6094844043254852e-01" purity="9.6930748224258423e-01" nType="-99"/>
            <Node pos="r" depth="3" NCoef="0" IVar="-1" Cut="0.0000000000000000e+00" cType="1" res="1.7158826813101768e-03" rms="1.1042844504117966e-01" purity="9.8671764135360718e-01" nType="-99"/>
          </Node>
        </Node>
      </Node>
    </BinaryTree>
    <BinaryTree type="DecisionTree" boostWeight="1.0000000000000000e+00" itree="617">
      <Node pos="s" depth="0" NCoef="0" IVar="5" Cut="9.6394289062500000e+04" cType="1" res="3.8803961127996445e-02" rms="2.6386970281600952e-01" purity="4.9577206373214722e-01" nType="0">
        <Node pos="l" depth="1" NCoef="0" IVar="3" Cut="5.4312500000000000e+04" cType="1" res="3.3144466578960419e-02" rms="2.5997507572174072e-01" purity="4.8277854919433594e-01" nType="0">
          <Node pos="l" depth="2" NCoef="0" IVar="5" Cut="8.5542570312500000e+04" cType="1" res="1.4725630171597004e-02" rms="2.7810516953468323e-01" purity="2.2028513252735138e-01" nType="0">
            <Node pos="l" depth="3" NCoef="0" IVar="-1" Cut="0.0000000000000000e+00" cType="1" res="-2.5642411783337593e-03" rms="2.8019112348556519e-01" purity="2.3022022843360901e-01" nType="-99"/>
            <Node pos="r" depth="3" NCoef="0" IVar="-1" Cut="0.0000000000000000e+00" cType="1" res="8.2334375474601984e-04" rms="2.7725690603256226e-01" purity="2.1998177468776703e-01" nType="-99"/>
          </Node>
          <Node pos="r" depth="2" NCoef="0" IVar="2" Cut="2.1479896875000000e+05" cType="1" res="6.4464293420314789e-02" rms="2.2235301136970520e-01" purity="9.2912852764129639e-01" nType="0">
            <Node pos="l" depth="3" NCoef="0" IVar="-1" Cut="0.0000000000000000e+00" cType="1" res="3.6179699236527085e-04" rms="2.8336295485496521e-01" purity="8.6584907770156860e-01" nType="-99"/>
            <Node pos="r" depth="3" NCoef="0" IVar="-1" Cut="0.0000000000000000e+00" cType="1" res="1.2304100673645735e-03" rms="2.0932534337043762e-01" purity="9.3981325626373291e-01" nType="-99"/>
          </Node>
        </Node>
        <Node pos="r" depth="1" NCoef="0" IVar="-1" Cut="0.0000000000000000e+00" cType="1" res="1.0919130872935057e-03" rms="3.1528142094612122e-01" purity="8.0841439962387085e-01" nType="-99"/>
      </Node>
    </BinaryTree>
    <BinaryTree type="DecisionTree" boostWeight="1.0000000000000000e+00" itree="618">
      <Node pos="s" depth="0" NCoef="0" IVar="1" Cut="1.0034389062500000e+05" cType="1" res="4.0683411061763763e-02" rms="2.7551072835922241e-01" purity="4.9910312891006470e-01" nType="0">
        <Node pos="l" depth="1" NCoef="0" IVar="1" Cut="3.7239750000000000e+04" cType="1" res="2.6732398197054863e-02" rms="2.8692144155502319e-01" purity="3.1742724776268005e-01" nType="0">
          <Node pos="l" depth="2" NCoef="0" IVar="2" Cut="1.6076512500000000e+05" cType="1" res="-7.0753537118434906e-02" rms="2.8786060214042664e-01" purity="3.5312753915786743e-01" nType="0">
            <Node pos="l" depth="3" NCoef="0" IVar="-1" Cut="0.0000000000000000e+00" cType="1" res="-2.1015388891100883e-02" rms="2.7998763322830200e-01" purity="3.8085050880908966e-02" nType="-99"/>
            <Node pos="r" depth="3" NCoef="0" IVar="-1" Cut="0.0000000000000000e+00" cType="1" res="-2.7092010714113712e-04" rms="2.7634662389755249e-01" purity="5.5597591400146484e-01" nType="-99"/>
          </Node>
          <Node pos="r" depth="2" NCoef="0" IVar="1" Cut="8.2307679687500000e+04" cType="1" res="3.4699652343988419e-02" rms="2.8537628054618835e-01" purity="3.1450954079627991e-01" nType="0">
            <Node pos="l" depth="3" NCoef="0" IVar="-1" Cut="0.0000000000000000e+00" cType="1" res="1.8546615028753877e-03" rms="3.6111727356910706e-01" purity="6.5050065517425537e-01" nType="-99"/>
            <Node pos="r" depth="3" NCoef="0" IVar="-1" Cut="0.0000000000000000e+00" cType="1" res="5.3790310630574822e-04" rms="2.2938990592956543e-01" purity="1.3255368173122406e-01" nType="-99"/>
          </Node>
        </Node>
        <Node pos="r" depth="1" NCoef="0" IVar="3" Cut="4.4676781250000000e+04" cType="1" res="6.7880831658840179e-02" rms="2.4955089390277863e-01" purity="8.5327917337417603e-01" nType="0">
          <Node pos="l" depth="2" NCoef="0" IVar="3" Cut="1.2960885742187500e+04" cType="1" res="3.6992322653532028e-02" rms="3.8934668898582458e-01" purity="5.6655728816986084e-01" nType="0">
            <Node pos="l" depth="3" NCoef="0" IVar="-1" Cut="0.0000000000000000e+00" cType="1" res="1.7003226093947887e-03" rms="3.4199023246765137e-01" purity="4.1308653354644775e-01" nType="-99"/>
            <Node pos="r" depth="3" NCoef="0" IVar="-1" Cut="0.0000000000000000e+00" cType="1" res="1.4311450649984181e-04" rms="4.0030819177627563e-01" purity="6.2055683135986328e-01" nType="-99"/>
          </Node>
          <Node pos="r" depth="2" NCoef="0" IVar="0" Cut="1.1428571939468384e+00" cType="1" res="8.0727271735668182e-02" rms="1.5674141049385071e-01" purity="9.7252601385116577e-01" nType="0">
            <Node pos="l" depth="3" NCoef="0" IVar="-1" Cut="0.0000000000000000e+00" cType="1" res="1.6361541347578168e-03" rms="1.4800591766834259e-01" purity="9.7547066211700439e-01" nType="-99"/>
            <Node pos="r" depth="3" NCoef="0" IVar="-1" Cut="0.0000000000000000e+00" cType="1" res="1.4261242467910051e-03" rms="1.6913931071758270e-01" purity="9.6765011548995972e-01" nType="-99"/>
          </Node>
        </Node>
      </Node>
    </BinaryTree>
    <BinaryTree type="DecisionTree" boostWeight="1.0000000000000000e+00" itree="619">
      <Node pos="s" depth="0" NCoef="0" IVar="3" Cut="5.4198226562500000e+04" cType="1" res="3.0276304110884666e-02" rms="2.4945113062858582e-01" purity="4.9379083514213562e-01" nType="0">
        <Node pos="l" depth="1" NCoef="0" IVar="5" Cut="8.9711812500000000e+04" cType="1" res="1.0560507886111736e-02" rms="2.6372149586677551e-01" purity="2.2364123165607452e-01" nType="0">
          <Node pos="l" depth="2" NCoef="0" IVar="1" Cut="4.9904292968750000e+04" cType="1" res="4.8353184014558792e-02" rms="3.1106087565422058e-01" purity="3.3923026919364929e-01" nType="0">
            <Node pos="l" depth="3" NCoef="0" IVar="-1" Cut="0.0000000000000000e+00" cType="1" res="1.8106548814103007e-03" rms="3.4648749232292175e-01" purity="5.2771580219268799e-01" nType="-99"/>
            <Node pos="r" depth="3" NCoef="0" IVar="-1" Cut="0.0000000000000000e+00" cType="1" res="4.7595266369171441e-04" rms="3.0051574110984802e-01" purity="3.0474898219108582e-01" nType="-99"/>
          </Node>
          <Node pos="r" depth="2" NCoef="0" IVar="2" Cut="1.9958873437500000e+05" cType="1" res="-7.1340007707476616e-03" rms="2.3627856373786926e-01" purity="1.6952250897884369e-01" nType="0">
            <Node pos="l" depth="3" NCoef="0" IVar="-1" Cut="0.0000000000000000e+00" cType="1" res="-8.8815521448850632e-03" rms="1.5666340291500092e-01" purity="5.2890457212924957e-02" nType="-99"/>
            <Node pos="r" depth="3" NCoef="0" IVar="-1" Cut="0.0000000000000000e+00" cType="1" res="5.8038054703501984e-05" rms="2.4894043803215027e-01" purity="1.9393454492092133e-01" nType="-99"/>
          </Node>
        </Node>
        <Node pos="r" depth="1" NCoef="0" IVar="0" Cut="3.8095238804817200e-01" cType="1" res="6.2088668346405029e-02" rms="2.2084015607833862e-01" purity="9.2968994379043579e-01" nType="0">
          <Node pos="l" depth="2" NCoef="0" IVar="5" Cut="8.9785890625000000e+04" cType="1" res="0.0000000000000000e+00" rms="0.0000000000000000e+00" purity="9.4693279266357422e-01" nType="0">
            <Node pos="l" depth="3" NCoef="0" IVar="-1" Cut="0.0000000000000000e+00" cType="1" res="1.4682991895824671e-03" rms="2.0158967375755310e-01" purity="9.5580714941024780e-01" nType="-99"/>
            <Node pos="r" depth="3" NCoef="0" IVar="-1" Cut="0.0000000000000000e+00" cType="1" res="1.1564444284886122e-03" rms="1.8782018125057220e-01" purity="9.4257837533950806e-01" nType="-99"/>
          </Node>
          <Node pos="r" depth="2" NCoef="0" IVar="3" Cut="1.0575932031250000e+05" cType="1" res="4.8080872744321823e-02" rms="2.3619222640991211e-01" purity="9.1855305433273315e-01" nType="0">
            <Node pos="l" depth="3" NCoef="0" IVar="-1" Cut="0.0000000000000000e+00" cType="1" res="4.4880271889269352e-04" rms="3.0105751752853394e-01" purity="8.5736888647079468e-01" nType="-99"/>
            <Node pos="r" depth="3" NCoef="0" IVar="-1" Cut="0.0000000000000000e+00" cType="1" res="1.5527427894994617e-03" rms="1.4479431509971619e-01" purity="9.7806876897811890e-01" nType="-99"/>
          </Node>
        </Node>
      </Node>
    </BinaryTree>
    <BinaryTree type="DecisionTree" boostWeight="1.0000000000000000e+00" itree="620">
      <Node pos="s" depth="0" NCoef="0" IVar="1" Cut="1.0037520312500000e+05" cType="1" res="3.7513788789510727e-02" rms="2.5646471977233887e-01" purity="5.1171737909317017e-01" nType="0">
        <Node pos="l" depth="1" NCoef="0" IVar="1" Cut="6.6716218750000000e+04" cType="1" res="2.2005835548043251e-02" rms="2.5477486848831177e-01" purity="3.4157600998878479e-01" nType="0">
          <Node pos="l" depth="2" NCoef="0" IVar="2" Cut="1.6143217187500000e+05" cType="1" res="7.6683893799781799e-02" rms="2.9712986946105957e-01" purity="7.0961403846740723e-01" nType="0">
            <Node pos="l" depth="3" NCoef="0" IVar="-1" Cut="0.0000000000000000e+00" cType="1" res="-1.0355081176385283e-03" rms="2.9558992385864258e-01" purity="3.9246210455894470e-01" nType="-99"/>
            <Node pos="r" depth="3" NCoef="0" IVar="-1" Cut="0.0000000000000000e+00" cType="1" res="1.8506610067561269e-03" rms="2.9246780276298523e-01" purity="7.8350639343261719e-01" nType="-99"/>
          </Node>
          <Node pos="r" depth="2" NCoef="0" IVar="1" Cut="9.5559718750000000e+04" cType="1" res="-9.5561542548239231e-04" rms="2.3089185357093811e-01" purity="1.8702244758605957e-01" nType="0">
            <Node pos="l" depth="3" NCoef="0" IVar="-1" Cut="0.0000000000000000e+00" cType="1" res="-9.2500989558175206e-04" rms="2.2308285534381866e-01" purity="1.6947494447231293e-01" nType="-99"/>
            <Node pos="r" depth="3" NCoef="0" IVar="-1" Cut="0.0000000000000000e+00" cType="1" res="1.7303003696724772e-03" rms="2.7012553811073303e-01" purity="3.1103575229644775e-01" nType="-99"/>
          </Node>
        </Node>
        <Node pos="r" depth="1" NCoef="0" IVar="3" Cut="4.8873500000000000e+04" cType="1" res="6.8015165627002716e-02" rms="2.5704085826873779e-01" purity="8.4635519981384277e-01" nType="0">
          <Node pos="l" depth="2" NCoef="0" IVar="5" Cut="9.0673726562500000e+04" cType="1" res="4.1599720716476440e-02" rms="3.8321700692176819e-01" purity="6.0316753387451172e-01" nType="0">
            <Node pos="l" depth="3" NCoef="0" IVar="-1" Cut="0.0000000000000000e+00" cType="1" res="1.1899825185537338e-03" rms="3.9699867367744446e-01" purity="6.2858974933624268e-01" nType="-99"/>
            <Node pos="r" depth="3" NCoef="0" IVar="-1" Cut="0.0000000000000000e+00" cType="1" res="-6.6840628278441727e-05" rms="3.5761579871177673e-01" purity="5.6730890274047852e-01" nType="-99"/>
          </Node>
          <Node pos="r" depth="2" NCoef="0" IVar="0" Cut="1.1428571939468384e+00" cType="1" res="8.2211822271347046e-02" rms="1.4858131110668182e-01" purity="9.7705328464508057e-01" nType="0">
            <Node pos="l" depth="3" NCoef="0" IVar="-1" Cut="0.0000000000000000e+00" cType="1" res="1.6310163773596287e-03" rms="1.3911990821361542e-01" purity="9.8026132583618164e-01" nType="-99"/>
            <Node pos="r" depth="3" NCoef="0" IVar="-1" Cut="0.0000000000000000e+00" cType="1" res="1.2936015846207738e-03" rms="1.6528671979904175e-01" purity="9.7055035829544067e-01" nType="-99"/>
          </Node>
        </Node>
      </Node>
    </BinaryTree>
    <BinaryTree type="DecisionTree" boostWeight="1.0000000000000000e+00" itree="621">
      <Node pos="s" depth="0" NCoef="0" IVar="3" Cut="4.8721656250000000e+04" cType="1" res="4.1467890143394470e-02" rms="2.6180785894393921e-01" purity="5.1377117633819580e-01" nType="0">
        <Node pos="l" depth="1" NCoef="0" IVar="1" Cut="5.2933046875000000e+04" cType="1" res="2.2479496896266937e-02" rms="2.8645706176757812e-01" purity="2.0525795221328735e-01" nType="0">
          <Node pos="l" depth="2" NCoef="0" IVar="0" Cut="2.3809523880481720e-01" cType="1" res="8.3010330796241760e-02" rms="3.9900565147399902e-01" purity="3.1687471270561218e-01" nType="0">
            <Node pos="l" depth="3" NCoef="0" IVar="-1" Cut="0.0000000000000000e+00" cType="1" res="3.3879424445331097e-03" rms="4.0339186787605286e-01" purity="3.8389712572097778e-01" nType="-99"/>
            <Node pos="r" depth="3" NCoef="0" IVar="-1" Cut="0.0000000000000000e+00" cType="1" res="-2.6694862172007561e-03" rms="3.5611540079116821e-01" purity="1.9846582412719727e-01" nType="-99"/>
          </Node>
          <Node pos="r" depth="2" NCoef="0" IVar="4" Cut="5.0188681250000000e+05" cType="1" res="1.5314727090299129e-02" rms="2.6914861798286438e-01" purity="1.9204637408256531e-01" nType="0">
            <Node pos="l" depth="3" NCoef="0" IVar="-1" Cut="0.0000000000000000e+00" cType="1" res="4.4548694859258831e-04" rms="2.5719708204269409e-01" purity="1.4152610301971436e-01" nType="-99"/>
            <Node pos="r" depth="3" NCoef="0" IVar="-1" Cut="0.0000000000000000e+00" cType="1" res="1.1079487157985568e-03" rms="3.3874452114105225e-01" purity="5.8916753530502319e-01" nType="-99"/>
          </Node>
        </Node>
        <Node pos="r" depth="1" NCoef="0" IVar="1" Cut="1.0069682812500000e+05" cType="1" res="6.6322810947895050e-02" rms="2.2307860851287842e-01" purity="9.1760057210922241e-01" nType="0">
          <Node pos="l" depth="2" NCoef="0" IVar="5" Cut="9.0614531250000000e+04" cType="1" res="4.8113990575075150e-02" rms="2.9687297344207764e-01" purity="8.3706718683242798e-01" nType="0">
            <Node pos="l" depth="3" NCoef="0" IVar="-1" Cut="0.0000000000000000e+00" cType="1" res="1.0755091207101941e-03" rms="3.0331760644912720e-01" purity="8.6826807260513306e-01" nType="-99"/>
            <Node pos="r" depth="3" NCoef="0" IVar="-1" Cut="0.0000000000000000e+00" cType="1" res="2.2394923144020140e-04" rms="2.8442788124084473e-01" purity="8.0092656612396240e-01" nType="-99"/>
          </Node>
          <Node pos="r" depth="2" NCoef="0" IVar="5" Cut="9.0241468750000000e+04" cType="1" res="8.0119676887989044e-02" rms="1.4230190217494965e-01" purity="9.7862088680267334e-01" nType="0">
            <Node pos="l" depth="3" NCoef="0" IVar="-1" Cut="0.0000000000000000e+00" cType="1" res="1.7047546571120620e-03" rms="1.6195560991764069e-01" purity="9.7193568944931030e-01" nType="-99"/>
            <Node pos="r" depth="3" NCoef="0" IVar="-1" Cut="0.0000000000000000e+00" cType="1" res="1.3718199916183949e-03" rms="1.2688970565795898e-01" purity="9.8319268226623535e-01" nType="-99"/>
          </Node>
        </Node>
      </Node>
    </BinaryTree>
    <BinaryTree type="DecisionTree" boostWeight="1.0000000000000000e+00" itree="622">
      <Node pos="s" depth="0" NCoef="0" IVar="2" Cut="3.1093778125000000e+05" cType="1" res="4.2354073375463486e-02" rms="2.7893576025962830e-01" purity="4.9223351478576660e-01" nType="0">
        <Node pos="l" depth="1" NCoef="0" IVar="1" Cut="6.9289289062500000e+04" cType="1" res="2.8033789247274399e-02" rms="2.7307111024856567e-01" purity="3.5628765821456909e-01" nType="0">
          <Node pos="l" depth="2" NCoef="0" IVar="4" Cut="2.6950800000000000e+05" cType="1" res="7.2944328188896179e-02" rms="3.2967191934585571e-01" purity="6.3154095411300659e-01" nType="0">
            <Node pos="l" depth="3" NCoef="0" IVar="-1" Cut="0.0000000000000000e+00" cType="1" res="1.1239756131544709e-03" rms="3.4811329841613770e-01" purity="5.1333904266357422e-01" nType="-99"/>
            <Node pos="r" depth="3" NCoef="0" IVar="-1" Cut="0.0000000000000000e+00" cType="1" res="2.0126139279454947e-03" rms="2.7741092443466187e-01" purity="8.6177885532379150e-01" nType="-99"/>
          </Node>
          <Node pos="r" depth="2" NCoef="0" IVar="1" Cut="9.6568953125000000e+04" cType="1" res="1.1933094821870327e-02" rms="2.4769903719425201e-01" purity="2.5760772824287415e-01" nType="0">
            <Node pos="l" depth="3" NCoef="0" IVar="-1" Cut="0.0000000000000000e+00" cType="1" res="-8.4636959945783019e-04" rms="2.1354764699935913e-01" purity="1.1470025032758713e-01" nType="-99"/>
            <Node pos="r" depth="3" NCoef="0" IVar="-1" Cut="0.0000000000000000e+00" cType="1" res="1.0577217908576131e-03" rms="3.1179988384246826e-01" purity="6.1265718936920166e-01" nType="-99"/>
          </Node>
        </Node>
        <Node pos="r" depth="1" NCoef="0" IVar="5" Cut="9.0658773437500000e+04" cType="1" res="6.4257025718688965e-02" rms="2.8629228472709656e-01" purity="7.0016342401504517e-01" nType="0">
          <Node pos="l" depth="2" NCoef="0" IVar="5" Cut="9.0207257812500000e+04" cType="1" res="9.4988219439983368e-02" rms="3.1627103686332703e-01" purity="7.4266612529754639e-01" nType="0">
            <Node pos="l" depth="3" NCoef="0" IVar="-1" Cut="0.0000000000000000e+00" cType="1" res="1.3589365407824516e-03" rms="2.9061338305473328e-01" purity="7.5319510698318481e-01" nType="-99"/>
            <Node pos="r" depth="3" NCoef="0" IVar="-1" Cut="0.0000000000000000e+00" cType="1" res="5.6761438027024269e-03" rms="4.1402134299278259e-01" purity="6.8348729610443115e-01" nType="-99"/>
          </Node>
          <Node pos="r" depth="2" NCoef="0" IVar="3" Cut="8.7109765625000000e+04" cType="1" res="3.2775882631540298e-02" rms="2.4799160659313202e-01" purity="6.5662360191345215e-01" nType="0">
            <Node pos="l" depth="3" NCoef="0" IVar="-1" Cut="0.0000000000000000e+00" cType="1" res="2.0245270570740104e-04" rms="2.9579514265060425e-01" purity="4.6630531549453735e-01" nType="-99"/>
            <Node pos="r" depth="3" NCoef="0" IVar="-1" Cut="0.0000000000000000e+00" cType="1" res="1.8557964358478785e-03" rms="1.1620826274156570e-01" purity="9.8598206043243408e-01" nType="-99"/>
          </Node>
        </Node>
      </Node>
    </BinaryTree>
    <BinaryTree type="DecisionTree" boostWeight="1.0000000000000000e+00" itree="623">
      <Node pos="s" depth="0" NCoef="0" IVar="3" Cut="3.7185378906250000e+04" cType="1" res="4.5738276094198227e-02" rms="2.5819537043571472e-01" purity="5.2403169870376587e-01" nType="0">
        <Node pos="l" depth="1" NCoef="0" IVar="3" Cut="2.6593923828125000e+04" cType="1" res="2.0213501527905464e-02" rms="2.6060226559638977e-01" purity="1.5986651182174683e-01" nType="0">
          <Node pos="l" depth="2" NCoef="0" IVar="0" Cut="3.8095238804817200e-01" cType="1" res="-2.3892794270068407e-03" rms="2.2383955121040344e-01" purity="8.3428449928760529e-02" nType="0">
            <Node pos="l" depth="3" NCoef="0" IVar="-1" Cut="0.0000000000000000e+00" cType="1" res="-8.5272397845983505e-03" rms="1.6611748933792114e-01" purity="3.5621777176856995e-02" nType="-99"/>
            <Node pos="r" depth="3" NCoef="0" IVar="-1" Cut="0.0000000000000000e+00" cType="1" res="2.3743538185954094e-03" rms="2.8819528222084045e-01" purity="1.5871368348598480e-01" nType="-99"/>
          </Node>
          <Node pos="r" depth="2" NCoef="0" IVar="1" Cut="9.6557515625000000e+04" cType="1" res="8.4684111177921295e-02" rms="3.3630067110061646e-01" purity="3.7789309024810791e-01" nType="0">
            <Node pos="l" depth="3" NCoef="0" IVar="-1" Cut="0.0000000000000000e+00" cType="1" res="2.2876763250678778e-03" rms="3.2169902324676514e-01" purity="1.5307536721229553e-01" nType="-99"/>
            <Node pos="r" depth="3" NCoef="0" IVar="-1" Cut="0.0000000000000000e+00" cType="1" res="1.0379771701991558e-03" rms="3.4843271970748901e-01" purity="7.4623328447341919e-01" nType="-99"/>
          </Node>
        </Node>
        <Node pos="r" depth="1" NCoef="0" IVar="0" Cut="1.1428571939468384e+00" cType="1" res="6.8982079625129700e-02" rms="2.5376006960868835e-01" purity="8.5565400123596191e-01" nType="0">
          <Node pos="l" depth="2" NCoef="0" IVar="4" Cut="3.2337809375000000e+05" cType="1" res="7.7977858483791351e-02" rms="2.6304200291633606e-01" purity="8.4466868638992310e-01" nType="0">
            <Node pos="l" depth="3" NCoef="0" IVar="-1" Cut="0.0000000000000000e+00" cType="1" res="1.2713716132566333e-03" rms="2.9028108716011047e-01" purity="7.8983151912689209e-01" nType="-99"/>
            <Node pos="r" depth="3" NCoef="0" IVar="-1" Cut="0.0000000000000000e+00" cType="1" res="7.9186575021594763e-04" rms="2.1012373268604279e-01" purity="9.3354046344757080e-01" nType="-99"/>
          </Node>
          <Node pos="r" depth="2" NCoef="0" IVar="1" Cut="1.1118219531250000e+05" cType="1" res="5.1563072949647903e-02" rms="2.3376382887363434e-01" purity="8.7692552804946899e-01" nType="0">
            <Node pos="l" depth="3" NCoef="0" IVar="-1" Cut="0.0000000000000000e+00" cType="1" res="4.9307924928143620e-04" rms="2.9754766821861267e-01" purity="7.7056562900543213e-01" nType="-99"/>
            <Node pos="r" depth="3" NCoef="0" IVar="-1" Cut="0.0000000000000000e+00" cType="1" res="1.1910822940990329e-03" rms="1.4942081272602081e-01" purity="9.7522485256195068e-01" nType="-99"/>
          </Node>
        </Node>
      </Node>
    </BinaryTree>
    <BinaryTree type="DecisionTree" boostWeight="1.0000000000000000e+00" itree="624">
      <Node pos="s" depth="0" NCoef="0" IVar="5" Cut="9.3546078125000000e+04" cType="1" res="3.7185579538345337e-02" rms="2.6324090361595154e-01" purity="4.8162361979484558e-01" nType="0">
        <Node pos="l" depth="1" NCoef="0" IVar="3" Cut="5.4198226562500000e+04" cType="1" res="2.8310382738709450e-02" rms="2.5614514946937561e-01" purity="4.5171740651130676e-01" nType="0">
          <Node pos="l" depth="2" NCoef="0" IVar="3" Cut="4.1294898437500000e+04" cType="1" res="1.5698291361331940e-02" rms="2.6640188694000244e-01" purity="2.3027789592742920e-01" nType="0">
            <Node pos="l" depth="3" NCoef="0" IVar="-1" Cut="0.0000000000000000e+00" cType="1" res="5.1820062799379230e-04" rms="2.5455254316329956e-01" purity="1.4617849886417389e-01" nType="-99"/>
            <Node pos="r" depth="3" NCoef="0" IVar="-1" Cut="0.0000000000000000e+00" cType="1" res="8.6792738875374198e-04" rms="3.1702196598052979e-01" purity="6.7480021715164185e-01" nType="-99"/>
          </Node>
          <Node pos="r" depth="2" NCoef="0" IVar="1" Cut="1.3203793750000000e+05" cType="1" res="5.4887145757675171e-02" rms="2.3081333935260773e-01" purity="9.1834479570388794e-01" nType="0">
            <Node pos="l" depth="3" NCoef="0" IVar="-1" Cut="0.0000000000000000e+00" cType="1" res="6.2838685698807240e-04" rms="2.8633895516395569e-01" purity="8.6808788776397705e-01" nType="-99"/>
            <Node pos="r" depth="3" NCoef="0" IVar="-1" Cut="0.0000000000000000e+00" cType="1" res="1.8713416066020727e-03" rms="1.1326591670513153e-01" purity="9.8699170351028442e-01" nType="-99"/>
          </Node>
        </Node>
        <Node pos="r" depth="1" NCoef="0" IVar="5" Cut="9.3909039062500000e+04" cType="1" res="8.8424868881702423e-02" rms="2.9579156637191772e-01" purity="6.5428125858306885e-01" nType="0">
          <Node pos="l" depth="2" NCoef="0" IVar="5" Cut="9.3719546875000000e+04" cType="1" res="2.2434812784194946e-01" rms="4.0624332427978516e-01" purity="6.2896376848220825e-01" nType="0">
            <Node pos="l" depth="3" NCoef="0" IVar="-1" Cut="0.0000000000000000e+00" cType="1" res="2.3010841105133295e-03" rms="4.2132610082626343e-01" purity="7.0590180158615112e-01" nType="-99"/>
            <Node pos="r" depth="3" NCoef="0" IVar="-1" Cut="0.0000000000000000e+00" cType="1" res="1.8270692089572549e-03" rms="3.1768912076950073e-01" purity="5.3421616554260254e-01" nType="-99"/>
          </Node>
          <Node pos="r" depth="2" NCoef="0" IVar="4" Cut="4.2054756250000000e+05" cType="1" res="4.9554470926523209e-02" rms="2.4191677570343018e-01" purity="6.6152137517929077e-01" nType="0">
            <Node pos="l" depth="3" NCoef="0" IVar="-1" Cut="0.0000000000000000e+00" cType="1" res="5.5963697377592325e-04" rms="2.4660664796829224e-01" purity="5.0275254249572754e-01" nType="-99"/>
            <Node pos="r" depth="3" NCoef="0" IVar="-1" Cut="0.0000000000000000e+00" cType="1" res="9.3368615489453077e-04" rms="2.2948688268661499e-01" purity="8.8792699575424194e-01" nType="-99"/>
          </Node>
        </Node>
      </Node>
    </BinaryTree>
    <BinaryTree type="DecisionTree" boostWeight="1.0000000000000000e+00" itree="625">
      <Node pos="s" depth="0" NCoef="0" IVar="3" Cut="6.6048632812500000e+04" cType="1" res="2.6148108765482903e-02" rms="2.5365775823593140e-01" purity="4.8591125011444092e-01" nType="0">
        <Node pos="l" depth="1" NCoef="0" IVar="3" Cut="2.2097066406250000e+04" cType="1" res="7.6939971186220646e-03" rms="2.7708488702774048e-01" purity="2.6213166117668152e-01" nType="0">
          <Node pos="l" depth="2" NCoef="0" IVar="2" Cut="5.1066918750000000e+05" cType="1" res="-1.7336735501885414e-02" rms="1.6702879965305328e-01" purity="6.2738180160522461e-02" nType="0">
            <Node pos="l" depth="3" NCoef="0" IVar="-1" Cut="0.0000000000000000e+00" cType="1" res="-5.2866213954985142e-03" rms="1.5263779461383820e-01" purity="3.8216937333345413e-02" nType="-99"/>
            <Node pos="r" depth="3" NCoef="0" IVar="-1" Cut="0.0000000000000000e+00" cType="1" res="8.6499593453481793e-04" rms="3.0620580911636353e-01" purity="4.5593598484992981e-01" nType="-99"/>
          </Node>
          <Node pos="r" depth="2" NCoef="0" IVar="4" Cut="2.6059629687500000e+05" cType="1" res="2.9918277636170387e-02" rms="3.4514212608337402e-01" purity="4.3916910886764526e-01" nType="0">
            <Node pos="l" depth="3" NCoef="0" IVar="-1" Cut="0.0000000000000000e+00" cType="1" res="1.5635123709216714e-03" rms="3.5681125521659851e-01" purity="3.7501981854438782e-01" nType="-99"/>
            <Node pos="r" depth="3" NCoef="0" IVar="-1" Cut="0.0000000000000000e+00" cType="1" res="-8.0444820923730731e-05" rms="3.2816001772880554e-01" purity="5.1241135597229004e-01" nType="-99"/>
          </Node>
        </Node>
        <Node pos="r" depth="1" NCoef="0" IVar="2" Cut="2.5510651562500000e+05" cType="1" res="6.4975209534168243e-02" rms="1.8962541222572327e-01" purity="9.5673930644989014e-01" nType="0">
          <Node pos="l" depth="2" NCoef="0" IVar="3" Cut="9.0947109375000000e+04" cType="1" res="3.5768266767263412e-02" rms="2.6458340883255005e-01" purity="9.0742802619934082e-01" nType="0">
            <Node pos="l" depth="3" NCoef="0" IVar="-1" Cut="0.0000000000000000e+00" cType="1" res="-1.5031639122753404e-05" rms="3.4418854117393494e-01" purity="8.3163505792617798e-01" nType="-99"/>
            <Node pos="r" depth="3" NCoef="0" IVar="-1" Cut="0.0000000000000000e+00" cType="1" res="1.5099798329174519e-03" rms="1.7576245963573456e-01" purity="9.6570098400115967e-01" nType="-99"/>
          </Node>
          <Node pos="r" depth="2" NCoef="0" IVar="0" Cut="3.8095238804817200e-01" cType="1" res="7.4285931885242462e-02" rms="1.5730749070644379e-01" purity="9.7245901823043823e-01" nType="0">
            <Node pos="l" depth="3" NCoef="0" IVar="-1" Cut="0.0000000000000000e+00" cType="1" res="1.8085532356053591e-03" rms="1.2437487393617630e-01" purity="9.8443955183029175e-01" nType="-99"/>
            <Node pos="r" depth="3" NCoef="0" IVar="-1" Cut="0.0000000000000000e+00" cType="1" res="1.3870547991245985e-03" rms="1.6849996149539948e-01" purity="9.6746671199798584e-01" nType="-99"/>
          </Node>
        </Node>
      </Node>
    </BinaryTree>
    <BinaryTree type="DecisionTree" boostWeight="1.0000000000000000e+00" itree="626">
      <Node pos="s" depth="0" NCoef="0" IVar="3" Cut="5.4198226562500000e+04" cType="1" res="3.0405899509787560e-02" rms="2.6017057895660400e-01" purity="4.8460251092910767e-01" nType="0">
        <Node pos="l" depth="1" NCoef="0" IVar="5" Cut="9.6320265625000000e+04" cType="1" res="1.5052177011966705e-02" rms="2.7400171756744385e-01" purity="2.3206916451454163e-01" nType="0">
          <Node pos="l" depth="2" NCoef="0" IVar="3" Cut="5.1616027343750000e+04" cType="1" res="1.0132464580237865e-02" rms="2.6907613873481750e-01" purity="2.2071503102779388e-01" nType="0">
            <Node pos="l" depth="3" NCoef="0" IVar="-1" Cut="0.0000000000000000e+00" cType="1" res="4.0779975824989378e-04" rms="2.6823073625564575e-01" purity="2.0096512138843536e-01" nType="-99"/>
            <Node pos="r" depth="3" NCoef="0" IVar="-1" Cut="0.0000000000000000e+00" cType="1" res="1.4744008658453822e-03" rms="2.7762463688850403e-01" purity="7.9972547292709351e-01" nType="-99"/>
          </Node>
          <Node pos="r" depth="2" NCoef="0" IVar="-1" Cut="0.0000000000000000e+00" cType="1" res="1.0696357348933816e-03" rms="3.6893126368522644e-01" purity="6.0584729909896851e-01" nType="-99"/>
        </Node>
        <Node pos="r" depth="1" NCoef="0" IVar="2" Cut="3.2180981250000000e+05" cType="1" res="5.6993208825588226e-02" rms="2.3190478980541229e-01" purity="9.2190253734588623e-01" nType="0">
          <Node pos="l" depth="2" NCoef="0" IVar="2" Cut="2.3516214062500000e+05" cType="1" res="3.6960572004318237e-02" rms="2.7202066779136658e-01" purity="8.8326472043991089e-01" nType="0">
            <Node pos="l" depth="3" NCoef="0" IVar="-1" Cut="0.0000000000000000e+00" cType="1" res="1.5931551752146333e-04" rms="3.0269563198089600e-01" purity="8.4449285268783569e-01" nType="-99"/>
            <Node pos="r" depth="3" NCoef="0" IVar="-1" Cut="0.0000000000000000e+00" cType="1" res="1.2054860126227140e-03" rms="2.4067950248718262e-01" purity="9.1579449176788330e-01" nType="-99"/>
          </Node>
          <Node pos="r" depth="2" NCoef="0" IVar="4" Cut="7.0853556250000000e+05" cType="1" res="7.4033856391906738e-02" rms="1.8960998952388763e-01" purity="9.5476949214935303e-01" nType="0">
            <Node pos="l" depth="3" NCoef="0" IVar="-1" Cut="0.0000000000000000e+00" cType="1" res="1.3981190277263522e-03" rms="1.8487656116485596e-01" purity="9.5846933126449585e-01" nType="-99"/>
            <Node pos="r" depth="3" NCoef="0" IVar="-1" Cut="0.0000000000000000e+00" cType="1" res="1.1315679876133800e-03" rms="2.0034305751323700e-01" purity="9.4392591714859009e-01" nType="-99"/>
          </Node>
        </Node>
      </Node>
    </BinaryTree>
    <BinaryTree type="DecisionTree" boostWeight="1.0000000000000000e+00" itree="627">
      <Node pos="s" depth="0" NCoef="0" IVar="3" Cut="6.8798242187500000e+04" cType="1" res="2.7914332225918770e-02" rms="2.5724509358406067e-01" purity="4.8824271559715271e-01" nType="0">
        <Node pos="l" depth="1" NCoef="0" IVar="5" Cut="8.4996148437500000e+04" cType="1" res="1.1038584634661674e-02" rms="2.8277274966239929e-01" purity="2.5982782244682312e-01" nType="0">
          <Node pos="l" depth="2" NCoef="0" IVar="5" Cut="8.3551062500000000e+04" cType="1" res="9.4979256391525269e-02" rms="3.7390854954719543e-01" purity="5.5092608928680420e-01" nType="0">
            <Node pos="l" depth="3" NCoef="0" IVar="-1" Cut="0.0000000000000000e+00" cType="1" res="2.8256486984901130e-04" rms="2.7416080236434937e-01" purity="6.0065686702728271e-01" nType="-99"/>
            <Node pos="r" depth="3" NCoef="0" IVar="-1" Cut="0.0000000000000000e+00" cType="1" res="4.6457126736640930e-03" rms="4.3855506181716919e-01" purity="5.0232553482055664e-01" nType="-99"/>
          </Node>
          <Node pos="r" depth="2" NCoef="0" IVar="5" Cut="9.4960195312500000e+04" cType="1" res="8.2863699644804001e-03" rms="2.7885407209396362e-01" purity="2.5028342008590698e-01" nType="0">
            <Node pos="l" depth="3" NCoef="0" IVar="-1" Cut="0.0000000000000000e+00" cType="1" res="1.2419432459864765e-04" rms="2.7430784702301025e-01" purity="2.2624146938323975e-01" nType="-99"/>
            <Node pos="r" depth="3" NCoef="0" IVar="-1" Cut="0.0000000000000000e+00" cType="1" res="1.5628748806193471e-03" rms="3.2512116432189941e-01" purity="5.8890056610107422e-01" nType="-99"/>
          </Node>
        </Node>
        <Node pos="r" depth="1" NCoef="0" IVar="2" Cut="3.2295393750000000e+05" cType="1" res="6.2686540186405182e-02" rms="1.8966954946517944e-01" purity="9.5888793468475342e-01" nType="0">
          <Node pos="l" depth="2" NCoef="0" IVar="2" Cut="2.6515631250000000e+05" cType="1" res="4.9472961574792862e-02" rms="2.4382908642292023e-01" purity="9.3083631992340088e-01" nType="0">
            <Node pos="l" depth="3" NCoef="0" IVar="-1" Cut="0.0000000000000000e+00" cType="1" res="1.1621421435847878e-03" rms="2.3522846400737762e-01" purity="9.3619972467422485e-01" nType="-99"/>
            <Node pos="r" depth="3" NCoef="0" IVar="-1" Cut="0.0000000000000000e+00" cType="1" res="1.9583287939894944e-04" rms="2.6797670125961304e-01" purity="9.1178673505783081e-01" nType="-99"/>
          </Node>
          <Node pos="r" depth="2" NCoef="0" IVar="0" Cut="1.3333333730697632e+00" cType="1" res="7.2805814445018768e-02" rms="1.3326048851013184e-01" purity="9.8037052154541016e-01" nType="0">
            <Node pos="l" depth="3" NCoef="0" IVar="-1" Cut="0.0000000000000000e+00" cType="1" res="1.5129758976399899e-03" rms="1.1136813461780548e-01" purity="9.8683393001556396e-01" nType="-99"/>
            <Node pos="r" depth="3" NCoef="0" IVar="-1" Cut="0.0000000000000000e+00" cType="1" res="1.2833031360059977e-03" rms="1.5856461226940155e-01" purity="9.7110360860824585e-01" nType="-99"/>
          </Node>
        </Node>
      </Node>
    </BinaryTree>
    <BinaryTree type="DecisionTree" boostWeight="1.0000000000000000e+00" itree="628">
      <Node pos="s" depth="0" NCoef="0" IVar="2" Cut="2.4245792187500000e+05" cType="1" res="4.2600207030773163e-02" rms="2.7691096067428589e-01" purity="4.9700856208801270e-01" nType="0">
        <Node pos="l" depth="1" NCoef="0" IVar="1" Cut="6.1559957031250000e+04" cType="1" res="1.0494561865925789e-02" rms="2.7009603381156921e-01" purity="2.6377192139625549e-01" nType="0">
          <Node pos="l" depth="2" NCoef="0" IVar="1" Cut="4.9739503906250000e+04" cType="1" res="6.6713787615299225e-02" rms="3.7252232432365417e-01" purity="5.1267731189727783e-01" nType="0">
            <Node pos="l" depth="3" NCoef="0" IVar="-1" Cut="0.0000000000000000e+00" cType="1" res="2.8242771804798394e-05" rms="3.5823917388916016e-01" purity="3.9749610424041748e-01" nType="-99"/>
            <Node pos="r" depth="3" NCoef="0" IVar="-1" Cut="0.0000000000000000e+00" cType="1" res="3.7546181119978428e-03" rms="3.6388435959815979e-01" purity="7.5416797399520874e-01" nType="-99"/>
          </Node>
          <Node pos="r" depth="2" NCoef="0" IVar="3" Cut="7.7554742187500000e+04" cType="1" res="-7.3516932316124439e-03" rms="2.2524616122245789e-01" purity="1.8475933372974396e-01" nType="0">
            <Node pos="l" depth="3" NCoef="0" IVar="-1" Cut="0.0000000000000000e+00" cType="1" res="-3.4455501008778811e-03" rms="2.2401377558708191e-01" purity="6.9248162209987640e-02" nType="-99"/>
            <Node pos="r" depth="3" NCoef="0" IVar="-1" Cut="0.0000000000000000e+00" cType="1" res="1.5451642684638500e-03" rms="2.1558101475238800e-01" purity="9.4950407743453979e-01" nType="-99"/>
          </Node>
        </Node>
        <Node pos="r" depth="1" NCoef="0" IVar="5" Cut="9.0682359375000000e+04" cType="1" res="6.0332268476486206e-02" rms="2.7902477979660034e-01" purity="6.2582594156265259e-01" nType="0">
          <Node pos="l" depth="2" NCoef="0" IVar="5" Cut="9.0231976562500000e+04" cType="1" res="8.5664995014667511e-02" rms="2.9378551244735718e-01" purity="6.7097651958465576e-01" nType="0">
            <Node pos="l" depth="3" NCoef="0" IVar="-1" Cut="0.0000000000000000e+00" cType="1" res="1.0534117463976145e-03" rms="2.7768346667289734e-01" purity="6.8592560291290283e-01" nType="-99"/>
            <Node pos="r" depth="3" NCoef="0" IVar="-1" Cut="0.0000000000000000e+00" cType="1" res="2.9283156618475914e-03" rms="3.5134208202362061e-01" purity="5.9676980972290039e-01" nType="-99"/>
          </Node>
          <Node pos="r" depth="2" NCoef="0" IVar="3" Cut="6.8991843750000000e+04" cType="1" res="3.6977984011173248e-02" rms="2.6253190636634827e-01" purity="5.8420157432556152e-01" nType="0">
            <Node pos="l" depth="3" NCoef="0" IVar="-1" Cut="0.0000000000000000e+00" cType="1" res="6.6665426129475236e-04" rms="3.0700087547302246e-01" purity="3.6592081189155579e-01" nType="-99"/>
            <Node pos="r" depth="3" NCoef="0" IVar="-1" Cut="0.0000000000000000e+00" cType="1" res="1.1806333204731345e-03" rms="1.4881332218647003e-01" purity="9.7374272346496582e-01" nType="-99"/>
          </Node>
        </Node>
      </Node>
    </BinaryTree>
    <BinaryTree type="DecisionTree" boostWeight="1.0000000000000000e+00" itree="629">
      <Node pos="s" depth="0" NCoef="0" IVar="3" Cut="6.8736484375000000e+04" cType="1" res="3.5297401249408722e-02" rms="2.6091936230659485e-01" purity="5.0545012950897217e-01" nType="0">
        <Node pos="l" depth="1" NCoef="0" IVar="5" Cut="9.6351289062500000e+04" cType="1" res="2.2844852879643440e-02" rms="2.8613853454589844e-01" purity="2.9697671532630920e-01" nType="0">
          <Node pos="l" depth="2" NCoef="0" IVar="5" Cut="8.8416710937500000e+04" cType="1" res="1.9268423318862915e-02" rms="2.8157237172126770e-01" purity="2.8692156076431274e-01" nType="0">
            <Node pos="l" depth="3" NCoef="0" IVar="-1" Cut="0.0000000000000000e+00" cType="1" res="1.7297730082646012e-03" rms="3.4828618168830872e-01" purity="4.5691829919815063e-01" nType="-99"/>
            <Node pos="r" depth="3" NCoef="0" IVar="-1" Cut="0.0000000000000000e+00" cType="1" res="4.6466689673252404e-04" rms="2.6535141468048096e-01" purity="2.5304317474365234e-01" nType="-99"/>
          </Node>
          <Node pos="r" depth="2" NCoef="0" IVar="-1" Cut="0.0000000000000000e+00" cType="1" res="9.4662181800231338e-04" rms="3.9005815982818604e-01" purity="6.2347012758255005e-01" nType="-99"/>
        </Node>
        <Node pos="r" depth="1" NCoef="0" IVar="4" Cut="3.7135603125000000e+05" cType="1" res="6.2305804342031479e-02" rms="1.9258807599544525e-01" purity="9.5760941505432129e-01" nType="0">
          <Node pos="l" depth="2" NCoef="0" IVar="3" Cut="7.9298757812500000e+04" cType="1" res="4.7099709510803223e-02" rms="2.3528456687927246e-01" purity="9.3342435359954834e-01" nType="0">
            <Node pos="l" depth="3" NCoef="0" IVar="-1" Cut="0.0000000000000000e+00" cType="1" res="-1.6419326420873404e-03" rms="3.9652651548385620e-01" purity="7.7286577224731445e-01" nType="-99"/>
            <Node pos="r" depth="3" NCoef="0" IVar="-1" Cut="0.0000000000000000e+00" cType="1" res="1.4815642498433590e-03" rms="1.8266648054122925e-01" purity="9.6347439289093018e-01" nType="-99"/>
          </Node>
          <Node pos="r" depth="2" NCoef="0" IVar="0" Cut="2.2857143878936768e+00" cType="1" res="7.2914622724056244e-02" rms="1.5514776110649109e-01" purity="9.7448247671127319e-01" nType="0">
            <Node pos="l" depth="3" NCoef="0" IVar="-1" Cut="0.0000000000000000e+00" cType="1" res="1.4630281366407871e-03" rms="1.3366265594959259e-01" purity="9.8176836967468262e-01" nType="-99"/>
            <Node pos="r" depth="3" NCoef="0" IVar="-1" Cut="0.0000000000000000e+00" cType="1" res="1.1920445831492543e-03" rms="2.0898257195949554e-01" purity="9.5046061277389526e-01" nType="-99"/>
          </Node>
        </Node>
      </Node>
    </BinaryTree>
    <BinaryTree type="DecisionTree" boostWeight="1.0000000000000000e+00" itree="630">
      <Node pos="s" depth="0" NCoef="0" IVar="4" Cut="2.9984246875000000e+05" cType="1" res="4.0537282824516296e-02" rms="2.6596865057945251e-01" purity="4.9718946218490601e-01" nType="0">
        <Node pos="l" depth="1" NCoef="0" IVar="2" Cut="2.7238928125000000e+05" cType="1" res="2.0363774150609970e-02" rms="2.7129605412483215e-01" purity="3.1409871578216553e-01" nType="0">
          <Node pos="l" depth="2" NCoef="0" IVar="2" Cut="1.4685509375000000e+05" cType="1" res="2.5449565146118402e-03" rms="2.5738674402236938e-01" purity="2.4364227056503296e-01" nType="0">
            <Node pos="l" depth="3" NCoef="0" IVar="-1" Cut="0.0000000000000000e+00" cType="1" res="-1.0309582576155663e-02" rms="2.6782405376434326e-01" purity="1.4830222725868225e-01" nType="-99"/>
            <Node pos="r" depth="3" NCoef="0" IVar="-1" Cut="0.0000000000000000e+00" cType="1" res="4.7366900253109634e-04" rms="2.5533798336982727e-01" purity="2.4817982316017151e-01" nType="-99"/>
          </Node>
          <Node pos="r" depth="2" NCoef="0" IVar="1" Cut="7.9040867187500000e+04" cType="1" res="6.3681170344352722e-02" rms="2.9804340004920959e-01" purity="4.8537781834602356e-01" nType="0">
            <Node pos="l" depth="3" NCoef="0" IVar="-1" Cut="0.0000000000000000e+00" cType="1" res="2.0786712411791086e-03" rms="4.0419000387191772e-01" purity="7.0736414194107056e-01" nType="-99"/>
            <Node pos="r" depth="3" NCoef="0" IVar="-1" Cut="0.0000000000000000e+00" cType="1" res="1.4876981731504202e-03" rms="2.7241539955139160e-01" purity="4.4857573509216309e-01" nType="-99"/>
          </Node>
        </Node>
        <Node pos="r" depth="1" NCoef="0" IVar="5" Cut="9.0622585937500000e+04" cType="1" res="6.6179893910884857e-02" rms="2.5676116347312927e-01" purity="7.2991675138473511e-01" nType="0">
          <Node pos="l" depth="2" NCoef="0" IVar="4" Cut="4.0794568750000000e+05" cType="1" res="9.0789951384067535e-02" rms="2.7116852998733521e-01" purity="7.5920283794403076e-01" nType="0">
            <Node pos="l" depth="3" NCoef="0" IVar="-1" Cut="0.0000000000000000e+00" cType="1" res="8.3418533904477954e-04" rms="2.6670166850090027e-01" purity="7.3940420150756836e-01" nType="-99"/>
            <Node pos="r" depth="3" NCoef="0" IVar="-1" Cut="0.0000000000000000e+00" cType="1" res="1.1548129841685295e-03" rms="2.6931005716323853e-01" purity="7.7722585201263428e-01" nType="-99"/>
          </Node>
          <Node pos="r" depth="2" NCoef="0" IVar="4" Cut="8.3382225000000000e+05" cType="1" res="4.3566368520259857e-02" rms="2.4056059122085571e-01" purity="7.0300656557083130e-01" nType="0">
            <Node pos="l" depth="3" NCoef="0" IVar="-1" Cut="0.0000000000000000e+00" cType="1" res="6.9373240694403648e-04" rms="2.3827978968620300e-01" purity="6.6063970327377319e-01" nType="-99"/>
            <Node pos="r" depth="3" NCoef="0" IVar="-1" Cut="0.0000000000000000e+00" cType="1" res="8.6679408559575677e-04" rms="2.3406606912612915e-01" purity="8.9394438266754150e-01" nType="-99"/>
          </Node>
        </Node>
      </Node>
    </BinaryTree>
    <BinaryTree type="DecisionTree" boostWeight="1.0000000000000000e+00" itree="631">
      <Node pos="s" depth="0" NCoef="0" IVar="3" Cut="5.4312500000000000e+04" cType="1" res="3.2630011439323425e-02" rms="2.4892182648181915e-01" purity="5.1567292213439941e-01" nType="0">
        <Node pos="l" depth="1" NCoef="0" IVar="4" Cut="4.9656746875000000e+05" cType="1" res="1.2274799868464470e-02" rms="2.7367427945137024e-01" purity="2.4383594095706940e-01" nType="0">
          <Node pos="l" depth="2" NCoef="0" IVar="2" Cut="4.2804090625000000e+05" cType="1" res="3.3555002883076668e-03" rms="2.6536560058593750e-01" purity="1.8541713058948517e-01" nType="0">
            <Node pos="l" depth="3" NCoef="0" IVar="-1" Cut="0.0000000000000000e+00" cType="1" res="-2.8254429344087839e-04" rms="2.6186436414718628e-01" purity="1.4753042161464691e-01" nType="-99"/>
            <Node pos="r" depth="3" NCoef="0" IVar="-1" Cut="0.0000000000000000e+00" cType="1" res="1.7871976597234607e-03" rms="2.8672510385513306e-01" purity="5.3989022970199585e-01" nType="-99"/>
          </Node>
          <Node pos="r" depth="2" NCoef="0" IVar="2" Cut="5.2770493750000000e+05" cType="1" res="7.0486411452293396e-02" rms="3.1657540798187256e-01" purity="6.2510508298873901e-01" nType="0">
            <Node pos="l" depth="3" NCoef="0" IVar="-1" Cut="0.0000000000000000e+00" cType="1" res="1.1105791199952364e-03" rms="3.1058689951896667e-01" purity="6.6142398118972778e-01" nType="-99"/>
            <Node pos="r" depth="3" NCoef="0" IVar="-1" Cut="0.0000000000000000e+00" cType="1" res="-9.5314171630889177e-04" rms="2.9960289597511292e-01" purity="5.5425071716308594e-01" nType="-99"/>
          </Node>
        </Node>
        <Node pos="r" depth="1" NCoef="0" IVar="1" Cut="1.0329192187500000e+05" cType="1" res="6.4272724092006683e-02" rms="2.0051953196525574e-01" purity="9.3825066089630127e-01" nType="0">
          <Node pos="l" depth="2" NCoef="0" IVar="1" Cut="8.5885851562500000e+04" cType="1" res="4.5339219272136688e-02" rms="2.6614418625831604e-01" purity="8.8162416219711304e-01" nType="0">
            <Node pos="l" depth="3" NCoef="0" IVar="-1" Cut="0.0000000000000000e+00" cType="1" res="1.1940965196117759e-03" rms="2.1636514365673065e-01" purity="9.4055306911468506e-01" nType="-99"/>
            <Node pos="r" depth="3" NCoef="0" IVar="-1" Cut="0.0000000000000000e+00" cType="1" res="-5.3268199553713202e-04" rms="3.7288361787796021e-01" purity="6.9777917861938477e-01" nType="-99"/>
          </Node>
          <Node pos="r" depth="2" NCoef="0" IVar="2" Cut="3.7017965625000000e+05" cType="1" res="8.0026611685752869e-02" rms="1.1907960474491119e-01" purity="9.8536747694015503e-01" nType="0">
            <Node pos="l" depth="3" NCoef="0" IVar="-1" Cut="0.0000000000000000e+00" cType="1" res="1.6055010491982102e-03" rms="1.5769326686859131e-01" purity="9.7377014160156250e-01" nType="-99"/>
            <Node pos="r" depth="3" NCoef="0" IVar="-1" Cut="0.0000000000000000e+00" cType="1" res="1.2751554604619741e-03" rms="8.6784020066261292e-02" purity="9.9249601364135742e-01" nType="-99"/>
          </Node>
        </Node>
      </Node>
    </BinaryTree>
    <BinaryTree type="DecisionTree" boostWeight="1.0000000000000000e+00" itree="632">
      <Node pos="s" depth="0" NCoef="0" IVar="3" Cut="7.5616148437500000e+04" cType="1" res="2.8650417923927307e-02" rms="2.6203107833862305e-01" purity="4.8792269825935364e-01" nType="0">
        <Node pos="l" depth="1" NCoef="0" IVar="2" Cut="3.6335393750000000e+05" cType="1" res="1.5380105003714561e-02" rms="2.8804737329483032e-01" purity="3.0104133486747742e-01" nType="0">
          <Node pos="l" depth="2" NCoef="0" IVar="5" Cut="8.4054429687500000e+04" cType="1" res="3.7368235643953085e-03" rms="2.8408956527709961e-01" purity="2.0424716174602509e-01" nType="0">
            <Node pos="l" depth="3" NCoef="0" IVar="-1" Cut="0.0000000000000000e+00" cType="1" res="2.0530803594738245e-03" rms="4.0389212965965271e-01" purity="5.6396120786666870e-01" nType="-99"/>
            <Node pos="r" depth="3" NCoef="0" IVar="-1" Cut="0.0000000000000000e+00" cType="1" res="4.0814487874740735e-05" rms="2.7976432442665100e-01" purity="1.9523142278194427e-01" nType="-99"/>
          </Node>
          <Node pos="r" depth="2" NCoef="0" IVar="3" Cut="1.8000535156250000e+04" cType="1" res="4.9878127872943878e-02" rms="2.9679748415946960e-01" purity="5.8783406019210815e-01" nType="0">
            <Node pos="l" depth="3" NCoef="0" IVar="-1" Cut="0.0000000000000000e+00" cType="1" res="-4.8996036639437079e-04" rms="2.6248604059219360e-01" purity="1.5805906057357788e-01" nType="-99"/>
            <Node pos="r" depth="3" NCoef="0" IVar="-1" Cut="0.0000000000000000e+00" cType="1" res="9.0487510897219181e-04" rms="3.0271583795547485e-01" purity="6.9196087121963501e-01" nType="-99"/>
          </Node>
        </Node>
        <Node pos="r" depth="1" NCoef="0" IVar="1" Cut="1.2710600781250000e+05" cType="1" res="6.2594249844551086e-02" rms="1.7450465261936188e-01" purity="9.6594244241714478e-01" nType="0">
          <Node pos="l" depth="2" NCoef="0" IVar="3" Cut="1.7810160937500000e+05" cType="1" res="5.2170839160680771e-02" rms="2.1528519690036774e-01" purity="9.4704538583755493e-01" nType="0">
            <Node pos="l" depth="3" NCoef="0" IVar="-1" Cut="0.0000000000000000e+00" cType="1" res="8.5013674106448889e-04" rms="2.4084977805614471e-01" purity="9.3283933401107788e-01" nType="-99"/>
            <Node pos="r" depth="3" NCoef="0" IVar="-1" Cut="0.0000000000000000e+00" cType="1" res="1.6064597293734550e-03" rms="1.0783870518207550e-01" purity="9.8829662799835205e-01" nType="-99"/>
          </Node>
          <Node pos="r" depth="2" NCoef="0" IVar="-1" Cut="0.0000000000000000e+00" cType="1" res="1.5100275631994009e-03" rms="9.9075742065906525e-02" purity="9.9009829759597778e-01" nType="-99"/>
        </Node>
      </Node>
    </BinaryTree>
    <BinaryTree type="DecisionTree" boostWeight="1.0000000000000000e+00" itree="633">
      <Node pos="s" depth="0" NCoef="0" IVar="4" Cut="3.8067609375000000e+05" cType="1" res="4.3356813490390778e-02" rms="2.7111166715621948e-01" purity="5.0965541601181030e-01" nType="0">
        <Node pos="l" depth="1" NCoef="0" IVar="2" Cut="1.4244751562500000e+05" cType="1" res="2.8145264834165573e-02" rms="2.7047276496887207e-01" purity="3.7945875525474548e-01" nType="0">
          <Node pos="l" depth="2" NCoef="0" IVar="-1" Cut="0.0000000000000000e+00" cType="1" res="-1.2744122184813023e-02" rms="2.5838389992713928e-01" purity="1.1690993607044220e-01" nType="-99"/>
          <Node pos="r" depth="2" NCoef="0" IVar="1" Cut="6.2801804687500000e+04" cType="1" res="3.2633062452077866e-02" rms="2.6937580108642578e-01" purity="3.8655728101730347e-01" nType="0">
            <Node pos="l" depth="3" NCoef="0" IVar="-1" Cut="0.0000000000000000e+00" cType="1" res="2.1602523047477007e-03" rms="3.2666656374931335e-01" purity="6.8659794330596924e-01" nType="-99"/>
            <Node pos="r" depth="3" NCoef="0" IVar="-1" Cut="0.0000000000000000e+00" cType="1" res="8.3785015158355236e-04" rms="2.5460022687911987e-01" purity="3.2852655649185181e-01" nType="-99"/>
          </Node>
        </Node>
        <Node pos="r" depth="1" NCoef="0" IVar="2" Cut="5.9173293750000000e+05" cType="1" res="7.6088890433311462e-02" rms="2.6958638429641724e-01" purity="7.8981149196624756e-01" nType="0">
          <Node pos="l" depth="2" NCoef="0" IVar="2" Cut="4.3232656250000000e+05" cType="1" res="9.0107135474681854e-02" rms="2.7550381422042847e-01" purity="7.8606897592544556e-01" nType="0">
            <Node pos="l" depth="3" NCoef="0" IVar="-1" Cut="0.0000000000000000e+00" cType="1" res="1.2634239392355084e-03" rms="2.5745940208435059e-01" purity="7.5918382406234741e-01" nType="-99"/>
            <Node pos="r" depth="3" NCoef="0" IVar="-1" Cut="0.0000000000000000e+00" cType="1" res="1.5040973667055368e-03" rms="3.0118134617805481e-01" purity="8.3542048931121826e-01" nType="-99"/>
          </Node>
          <Node pos="r" depth="2" NCoef="0" IVar="4" Cut="6.7279431250000000e+05" cType="1" res="1.6808470711112022e-02" rms="2.3386213183403015e-01" purity="8.0563765764236450e-01" nType="0">
            <Node pos="l" depth="3" NCoef="0" IVar="-1" Cut="0.0000000000000000e+00" cType="1" res="-1.7792537109926343e-03" rms="2.9771956801414490e-01" purity="6.2314766645431519e-01" nType="-99"/>
            <Node pos="r" depth="3" NCoef="0" IVar="-1" Cut="0.0000000000000000e+00" cType="1" res="1.0767321800813079e-03" rms="1.9795177876949310e-01" purity="8.7583351135253906e-01" nType="-99"/>
          </Node>
        </Node>
      </Node>
    </BinaryTree>
    <BinaryTree type="DecisionTree" boostWeight="1.0000000000000000e+00" itree="634">
      <Node pos="s" depth="0" NCoef="0" IVar="3" Cut="5.6723253906250000e+04" cType="1" res="3.0983529984951019e-02" rms="2.6253646612167358e-01" purity="5.0050491094589233e-01" nType="0">
        <Node pos="l" depth="1" NCoef="0" IVar="2" Cut="2.8347237500000000e+05" cType="1" res="1.3709186576306820e-02" rms="2.8130286931991577e-01" purity="2.3556968569755554e-01" nType="0">
          <Node pos="l" depth="2" NCoef="0" IVar="1" Cut="6.7781023437500000e+04" cType="1" res="-6.5510128624737263e-03" rms="2.4015586078166962e-01" purity="1.2027480453252792e-01" nType="0">
            <Node pos="l" depth="3" NCoef="0" IVar="-1" Cut="0.0000000000000000e+00" cType="1" res="1.8580831820145249e-03" rms="3.7482863664627075e-01" purity="3.4814113378524780e-01" nType="-99"/>
            <Node pos="r" depth="3" NCoef="0" IVar="-1" Cut="0.0000000000000000e+00" cType="1" res="-3.5139785613864660e-03" rms="1.8757653236389160e-01" purity="6.2216468155384064e-02" nType="-99"/>
          </Node>
          <Node pos="r" depth="2" NCoef="0" IVar="2" Cut="4.4238450000000000e+05" cType="1" res="4.5186121016740799e-02" rms="3.3292385935783386e-01" purity="4.1469570994377136e-01" nType="0">
            <Node pos="l" depth="3" NCoef="0" IVar="-1" Cut="0.0000000000000000e+00" cType="1" res="2.2002828773111105e-03" rms="3.4807637333869934e-01" purity="4.0143692493438721e-01" nType="-99"/>
            <Node pos="r" depth="3" NCoef="0" IVar="-1" Cut="0.0000000000000000e+00" cType="1" res="-5.5503792827948928e-04" rms="2.7749967575073242e-01" purity="4.5153868198394775e-01" nType="-99"/>
          </Node>
        </Node>
        <Node pos="r" depth="1" NCoef="0" IVar="1" Cut="6.9229804687500000e+04" cType="1" res="5.9253565967082977e-02" rms="2.2568897902965546e-01" purity="9.3408018350601196e-01" nType="0">
          <Node pos="l" depth="2" NCoef="0" IVar="-1" Cut="0.0000000000000000e+00" cType="1" res="6.4310710877180099e-04" rms="2.7138110995292664e-01" purity="9.1851449012756348e-01" nType="-99"/>
          <Node pos="r" depth="2" NCoef="0" IVar="0" Cut="2.2857143878936768e+00" cType="1" res="6.7088074982166290e-02" rms="2.0910495519638062e-01" purity="9.3884247541427612e-01" nType="0">
            <Node pos="l" depth="3" NCoef="0" IVar="-1" Cut="0.0000000000000000e+00" cType="1" res="1.3526076218113303e-03" rms="2.0005036890506744e-01" purity="9.4392377138137817e-01" nType="-99"/>
            <Node pos="r" depth="3" NCoef="0" IVar="-1" Cut="0.0000000000000000e+00" cType="1" res="2.3363910440821201e-04" rms="2.6132938265800476e-01" purity="9.0047061443328857e-01" nType="-99"/>
          </Node>
        </Node>
      </Node>
    </BinaryTree>
    <BinaryTree type="DecisionTree" boostWeight="1.0000000000000000e+00" itree="635">
      <Node pos="s" depth="0" NCoef="0" IVar="3" Cut="4.8766871093750000e+04" cType="1" res="3.4883346408605576e-02" rms="2.6121595501899719e-01" purity="4.9425306916236877e-01" nType="0">
        <Node pos="l" depth="1" NCoef="0" IVar="4" Cut="1.6615879687500000e+05" cType="1" res="1.7315296456217766e-02" rms="2.8366708755493164e-01" purity="1.8782484531402588e-01" nType="0">
          <Node pos="l" depth="2" NCoef="0" IVar="1" Cut="6.8010773437500000e+04" cType="1" res="7.9076930880546570e-02" rms="3.2372426986694336e-01" purity="1.9178369641304016e-01" nType="0">
            <Node pos="l" depth="3" NCoef="0" IVar="-1" Cut="0.0000000000000000e+00" cType="1" res="3.6974290851503611e-03" rms="4.3571230769157410e-01" purity="3.9995396137237549e-01" nType="-99"/>
            <Node pos="r" depth="3" NCoef="0" IVar="-1" Cut="0.0000000000000000e+00" cType="1" res="-3.1560824718326330e-03" rms="1.4782239496707916e-01" purity="3.6896992474794388e-02" nType="-99"/>
          </Node>
          <Node pos="r" depth="2" NCoef="0" IVar="5" Cut="9.5445679687500000e+04" cType="1" res="2.8646299615502357e-03" rms="2.7142772078514099e-01" purity="1.8689858913421631e-01" nType="0">
            <Node pos="l" depth="3" NCoef="0" IVar="-1" Cut="0.0000000000000000e+00" cType="1" res="4.2941339779645205e-04" rms="2.7194899320602417e-01" purity="1.8985441327095032e-01" nType="-99"/>
            <Node pos="r" depth="3" NCoef="0" IVar="-1" Cut="0.0000000000000000e+00" cType="1" res="-3.4134428948163986e-02" rms="1.9786289334297180e-01" purity="5.9494689106941223e-02" nType="-99"/>
          </Node>
        </Node>
        <Node pos="r" depth="1" NCoef="0" IVar="1" Cut="1.0066286718750000e+05" cType="1" res="5.8849632740020752e-02" rms="2.2483278810977936e-01" purity="9.1228157281875610e-01" nType="0">
          <Node pos="l" depth="2" NCoef="0" IVar="1" Cut="8.3807507812500000e+04" cType="1" res="3.2621450722217560e-02" rms="2.9465144872665405e-01" purity="8.2815164327621460e-01" nType="0">
            <Node pos="l" depth="3" NCoef="0" IVar="-1" Cut="0.0000000000000000e+00" cType="1" res="9.6617138478904963e-04" rms="2.4551858007907867e-01" purity="9.2126977443695068e-01" nType="-99"/>
            <Node pos="r" depth="3" NCoef="0" IVar="-1" Cut="0.0000000000000000e+00" cType="1" res="-9.0831134002655745e-04" rms="3.9656454324722290e-01" purity="5.5440026521682739e-01" nType="-99"/>
          </Node>
          <Node pos="r" depth="2" NCoef="0" IVar="4" Cut="3.9151881250000000e+05" cType="1" res="7.9420231282711029e-02" rms="1.4539952576160431e-01" purity="9.7826415300369263e-01" nType="0">
            <Node pos="l" depth="3" NCoef="0" IVar="-1" Cut="0.0000000000000000e+00" cType="1" res="1.4287014491856098e-03" rms="1.4226102828979492e-01" purity="9.7977745532989502e-01" nType="-99"/>
            <Node pos="r" depth="3" NCoef="0" IVar="-1" Cut="0.0000000000000000e+00" cType="1" res="1.3485576491802931e-03" rms="1.4667877554893494e-01" purity="9.7699880599975586e-01" nType="-99"/>
          </Node>
        </Node>
      </Node>
    </BinaryTree>
    <BinaryTree type="DecisionTree" boostWeight="1.0000000000000000e+00" itree="636">
      <Node pos="s" depth="0" NCoef="0" IVar="3" Cut="5.4305199218750000e+04" cType="1" res="2.9278255999088287e-02" rms="2.5150835514068604e-01" purity="4.9505329132080078e-01" nType="0">
        <Node pos="l" depth="1" NCoef="0" IVar="2" Cut="3.6363312500000000e+05" cType="1" res="1.0342964902520180e-02" rms="2.7060914039611816e-01" purity="2.2273057699203491e-01" nType="0">
          <Node pos="l" depth="2" NCoef="0" IVar="1" Cut="9.8662718750000000e+04" cType="1" res="-1.3358204159885645e-03" rms="2.4551644921302795e-01" purity="1.5018501877784729e-01" nType="0">
            <Node pos="l" depth="3" NCoef="0" IVar="-1" Cut="0.0000000000000000e+00" cType="1" res="-1.4566150493919849e-03" rms="2.0433092117309570e-01" purity="9.1029539704322815e-02" nType="-99"/>
            <Node pos="r" depth="3" NCoef="0" IVar="-1" Cut="0.0000000000000000e+00" cType="1" res="1.5377685194835067e-03" rms="3.9558562636375427e-01" purity="4.7398290038108826e-01" nType="-99"/>
          </Node>
          <Node pos="r" depth="2" NCoef="0" IVar="2" Cut="5.0984984375000000e+05" cType="1" res="5.4025169461965561e-02" rms="3.4532830119132996e-01" purity="4.9407300353050232e-01" nType="0">
            <Node pos="l" depth="3" NCoef="0" IVar="-1" Cut="0.0000000000000000e+00" cType="1" res="1.0639387182891369e-03" rms="3.5725483298301697e-01" purity="4.9563196301460266e-01" nType="-99"/>
            <Node pos="r" depth="3" NCoef="0" IVar="-1" Cut="0.0000000000000000e+00" cType="1" res="-8.6924247443675995e-04" rms="2.9861238598823547e-01" purity="4.9032267928123474e-01" nType="-99"/>
          </Node>
        </Node>
        <Node pos="r" depth="1" NCoef="0" IVar="4" Cut="2.1518576562500000e+05" cType="1" res="5.9549834579229355e-02" rms="2.1406407654285431e-01" purity="9.3041163682937622e-01" nType="0">
          <Node pos="l" depth="2" NCoef="0" IVar="1" Cut="8.7453953125000000e+04" cType="1" res="9.3281548470258713e-03" rms="3.1743898987770081e-01" purity="8.1405144929885864e-01" nType="0">
            <Node pos="l" depth="3" NCoef="0" IVar="-1" Cut="0.0000000000000000e+00" cType="1" res="8.3223805995658040e-04" rms="2.8763315081596375e-01" purity="8.8710612058639526e-01" nType="-99"/>
            <Node pos="r" depth="3" NCoef="0" IVar="-1" Cut="0.0000000000000000e+00" cType="1" res="-4.6635684557259083e-03" rms="3.6504074931144714e-01" purity="5.6211984157562256e-01" nType="-99"/>
          </Node>
          <Node pos="r" depth="2" NCoef="0" IVar="0" Cut="3.3333334326744080e-01" cType="1" res="6.6759057343006134e-02" rms="1.9370669126510620e-01" purity="9.4711500406265259e-01" nType="0">
            <Node pos="l" depth="3" NCoef="0" IVar="-1" Cut="0.0000000000000000e+00" cType="1" res="1.2512115063145757e-03" rms="1.4033246040344238e-01" purity="9.7319811582565308e-01" nType="-99"/>
            <Node pos="r" depth="3" NCoef="0" IVar="-1" Cut="0.0000000000000000e+00" cType="1" res="1.0240968549624085e-03" rms="2.0993578433990479e-01" purity="9.3672734498977661e-01" nType="-99"/>
          </Node>
        </Node>
      </Node>
    </BinaryTree>
    <BinaryTree type="DecisionTree" boostWeight="1.0000000000000000e+00" itree="637">
      <Node pos="s" depth="0" NCoef="0" IVar="1" Cut="1.3173490625000000e+05" cType="1" res="3.6410693079233170e-02" rms="2.6777765154838562e-01" purity="4.8286738991737366e-01" nType="0">
        <Node pos="l" depth="1" NCoef="0" IVar="1" Cut="9.7480890625000000e+04" cType="1" res="2.4842968210577965e-02" rms="2.7578970789909363e-01" purity="3.4545275568962097e-01" nType="0">
          <Node pos="l" depth="2" NCoef="0" IVar="1" Cut="7.7128257812500000e+04" cType="1" res="1.0728450492024422e-02" rms="2.5948727130889893e-01" purity="2.8403410315513611e-01" nType="0">
            <Node pos="l" depth="3" NCoef="0" IVar="-1" Cut="0.0000000000000000e+00" cType="1" res="9.5538271125406027e-04" rms="3.4257125854492188e-01" purity="6.1202454566955566e-01" nType="-99"/>
            <Node pos="r" depth="3" NCoef="0" IVar="-1" Cut="0.0000000000000000e+00" cType="1" res="-5.7160819415003061e-04" rms="2.0305952429771423e-01" purity="1.1912157386541367e-01" nType="-99"/>
          </Node>
          <Node pos="r" depth="2" NCoef="0" IVar="5" Cut="8.6887851562500000e+04" cType="1" res="8.7651252746582031e-02" rms="3.3175277709960938e-01" purity="6.1876016855239868e-01" nType="0">
            <Node pos="l" depth="3" NCoef="0" IVar="-1" Cut="0.0000000000000000e+00" cType="1" res="-1.1025008279830217e-03" rms="3.7784418463706970e-01" purity="4.7777870297431946e-01" nType="-99"/>
            <Node pos="r" depth="3" NCoef="0" IVar="-1" Cut="0.0000000000000000e+00" cType="1" res="2.0504107233136892e-03" rms="3.2325559854507446e-01" purity="6.3473832607269287e-01" nType="-99"/>
          </Node>
        </Node>
        <Node pos="r" depth="1" NCoef="0" IVar="5" Cut="8.8863859375000000e+04" cType="1" res="7.3349356651306152e-02" rms="2.3665632307529449e-01" purity="9.2166680097579956e-01" nType="0">
          <Node pos="l" depth="2" NCoef="0" IVar="-1" Cut="0.0000000000000000e+00" cType="1" res="1.5625087544322014e-03" rms="2.3896062374114990e-01" purity="9.3908596038818359e-01" nType="-99"/>
          <Node pos="r" depth="2" NCoef="0" IVar="3" Cut="2.7524636718750000e+04" cType="1" res="5.6829649955034256e-02" rms="2.3374755680561066e-01" purity="9.1249030828475952e-01" nType="0">
            <Node pos="l" depth="3" NCoef="0" IVar="-1" Cut="0.0000000000000000e+00" cType="1" res="-6.0287787346169353e-04" rms="4.3775320053100586e-01" purity="6.0384625196456909e-01" nType="-99"/>
            <Node pos="r" depth="3" NCoef="0" IVar="-1" Cut="0.0000000000000000e+00" cType="1" res="1.1075310176238418e-03" rms="1.6682110726833344e-01" purity="9.6894025802612305e-01" nType="-99"/>
          </Node>
        </Node>
      </Node>
    </BinaryTree>
    <BinaryTree type="DecisionTree" boostWeight="1.0000000000000000e+00" itree="638">
      <Node pos="s" depth="0" NCoef="0" IVar="2" Cut="2.4245792187500000e+05" cType="1" res="4.7092068940401077e-02" rms="2.8182131052017212e-01" purity="4.9923995137214661e-01" nType="0">
        <Node pos="l" depth="1" NCoef="0" IVar="2" Cut="2.3602757812500000e+05" cType="1" res="2.5363605469465256e-02" rms="2.8106203675270081e-01" purity="2.8937235474586487e-01" nType="0">
          <Node pos="l" depth="2" NCoef="0" IVar="1" Cut="6.1559957031250000e+04" cType="1" res="1.3543059118092060e-02" rms="2.7477696537971497e-01" purity="2.6580858230590820e-01" nType="0">
            <Node pos="l" depth="3" NCoef="0" IVar="-1" Cut="0.0000000000000000e+00" cType="1" res="1.5686618862673640e-03" rms="3.8795074820518494e-01" purity="5.4419344663619995e-01" nType="-99"/>
            <Node pos="r" depth="3" NCoef="0" IVar="-1" Cut="0.0000000000000000e+00" cType="1" res="-6.7568686790764332e-04" rms="2.0829509198665619e-01" purity="1.5407097339630127e-01" nType="-99"/>
          </Node>
          <Node pos="r" depth="2" NCoef="0" IVar="5" Cut="9.0633015625000000e+04" cType="1" res="1.3606010377407074e-01" rms="3.1328770518302917e-01" purity="5.1004123687744141e-01" nType="0">
            <Node pos="l" depth="3" NCoef="0" IVar="-1" Cut="0.0000000000000000e+00" cType="1" res="8.4426011890172958e-03" rms="3.9670237898826599e-01" purity="5.6357985734939575e-01" nType="-99"/>
            <Node pos="r" depth="3" NCoef="0" IVar="-1" Cut="0.0000000000000000e+00" cType="1" res="1.3641481054946780e-03" rms="2.0381231606006622e-01" purity="4.6784064173698425e-01" nType="-99"/>
          </Node>
        </Node>
        <Node pos="r" depth="1" NCoef="0" IVar="5" Cut="9.4359335937500000e+04" cType="1" res="5.9966381639242172e-02" rms="2.8147998452186584e-01" purity="6.2358838319778442e-01" nType="0">
          <Node pos="l" depth="2" NCoef="0" IVar="2" Cut="4.9927840625000000e+05" cType="1" res="6.4558275043964386e-02" rms="2.8350523114204407e-01" purity="6.2099325656890869e-01" nType="0">
            <Node pos="l" depth="3" NCoef="0" IVar="-1" Cut="0.0000000000000000e+00" cType="1" res="1.5040603466331959e-03" rms="2.9268065094947815e-01" purity="5.8959633111953735e-01" nType="-99"/>
            <Node pos="r" depth="3" NCoef="0" IVar="-1" Cut="0.0000000000000000e+00" cType="1" res="4.6356933307833970e-04" rms="2.3370413482189178e-01" purity="7.6310223340988159e-01" nType="-99"/>
          </Node>
          <Node pos="r" depth="2" NCoef="0" IVar="1" Cut="8.8943179687500000e+04" cType="1" res="4.7394512221217155e-03" rms="2.4933043122291565e-01" purity="6.5480029582977295e-01" nType="0">
            <Node pos="l" depth="3" NCoef="0" IVar="-1" Cut="0.0000000000000000e+00" cType="1" res="-2.5279119145125151e-03" rms="2.5910654664039612e-01" purity="3.4842315316200256e-01" nType="-99"/>
            <Node pos="r" depth="3" NCoef="0" IVar="-1" Cut="0.0000000000000000e+00" cType="1" res="7.6060096034780145e-04" rms="2.3673565685749054e-01" purity="7.6673215627670288e-01" nType="-99"/>
          </Node>
        </Node>
      </Node>
    </BinaryTree>
    <BinaryTree type="DecisionTree" boostWeight="1.0000000000000000e+00" itree="639">
      <Node pos="s" depth="0" NCoef="0" IVar="1" Cut="9.3455429687500000e+04" cType="1" res="4.3872177600860596e-02" rms="2.5954803824424744e-01" purity="5.0677484273910522e-01" nType="0">
        <Node pos="l" depth="1" NCoef="0" IVar="1" Cut="7.4060921875000000e+04" cType="1" res="2.6611711829900742e-02" rms="2.5182119011878967e-01" purity="3.4899467229843140e-01" nType="0">
          <Node pos="l" depth="2" NCoef="0" IVar="1" Cut="6.8147421875000000e+04" cType="1" res="8.8107451796531677e-02" rms="3.1847190856933594e-01" purity="6.8209809064865112e-01" nType="0">
            <Node pos="l" depth="3" NCoef="0" IVar="-1" Cut="0.0000000000000000e+00" cType="1" res="1.5758039662614465e-03" rms="2.9125651717185974e-01" purity="6.7946296930313110e-01" nType="-99"/>
            <Node pos="r" depth="3" NCoef="0" IVar="-1" Cut="0.0000000000000000e+00" cType="1" res="2.4040257558226585e-03" rms="4.2615067958831787e-01" purity="6.9710522890090942e-01" nType="-99"/>
          </Node>
          <Node pos="r" depth="2" NCoef="0" IVar="3" Cut="8.4188304687500000e+04" cType="1" res="-1.3940598815679550e-02" rms="1.8496024608612061e-01" purity="1.2933537364006042e-01" nType="0">
            <Node pos="l" depth="3" NCoef="0" IVar="-1" Cut="0.0000000000000000e+00" cType="1" res="-3.9193532429635525e-03" rms="1.7767387628555298e-01" purity="5.4906290024518967e-02" nType="-99"/>
            <Node pos="r" depth="3" NCoef="0" IVar="-1" Cut="0.0000000000000000e+00" cType="1" res="1.0931730503216386e-03" rms="2.3601907491683960e-01" purity="9.3764054775238037e-01" nType="-99"/>
          </Node>
        </Node>
        <Node pos="r" depth="1" NCoef="0" IVar="4" Cut="2.7686437500000000e+05" cType="1" res="6.3811279833316803e-02" rms="2.6681065559387207e-01" purity="6.8904078006744385e-01" nType="0">
          <Node pos="l" depth="2" NCoef="0" IVar="1" Cut="1.1115049218750000e+05" cType="1" res="4.0201947093009949e-02" rms="2.7561056613922119e-01" purity="4.4386196136474609e-01" nType="0">
            <Node pos="l" depth="3" NCoef="0" IVar="-1" Cut="0.0000000000000000e+00" cType="1" res="-2.6183356530964375e-03" rms="2.0711804926395416e-01" purity="1.2476310878992081e-01" nType="-99"/>
            <Node pos="r" depth="3" NCoef="0" IVar="-1" Cut="0.0000000000000000e+00" cType="1" res="1.7836262704804540e-03" rms="3.2533010840415955e-01" purity="8.2755792140960693e-01" nType="-99"/>
          </Node>
          <Node pos="r" depth="2" NCoef="0" IVar="2" Cut="2.8319371875000000e+05" cType="1" res="7.6983414590358734e-02" rms="2.6084545254707336e-01" purity="8.2583111524581909e-01" nType="0">
            <Node pos="l" depth="3" NCoef="0" IVar="-1" Cut="0.0000000000000000e+00" cType="1" res="1.7531284829601645e-03" rms="3.1409588456153870e-01" purity="7.1556293964385986e-01" nType="-99"/>
            <Node pos="r" depth="3" NCoef="0" IVar="-1" Cut="0.0000000000000000e+00" cType="1" res="7.6892215292900801e-04" rms="2.4902836978435516e-01" purity="8.4338998794555664e-01" nType="-99"/>
          </Node>
        </Node>
      </Node>
    </BinaryTree>
    <BinaryTree type="DecisionTree" boostWeight="1.0000000000000000e+00" itree="640">
      <Node pos="s" depth="0" NCoef="0" IVar="3" Cut="5.4305199218750000e+04" cType="1" res="2.7606733143329620e-02" rms="2.5379893183708191e-01" purity="4.9167665839195251e-01" nType="0">
        <Node pos="l" depth="1" NCoef="0" IVar="3" Cut="4.1413402343750000e+04" cType="1" res="1.2016392312943935e-02" rms="2.7191263437271118e-01" purity="2.3052258789539337e-01" nType="0">
          <Node pos="l" depth="2" NCoef="0" IVar="5" Cut="8.7823007812500000e+04" cType="1" res="-3.5635097883641720e-03" rms="2.4551452696323395e-01" purity="1.3848274946212769e-01" nType="0">
            <Node pos="l" depth="3" NCoef="0" IVar="-1" Cut="0.0000000000000000e+00" cType="1" res="-1.3951969332993031e-02" rms="2.6035454869270325e-01" purity="8.1165984272956848e-02" nType="-99"/>
            <Node pos="r" depth="3" NCoef="0" IVar="-1" Cut="0.0000000000000000e+00" cType="1" res="3.8640541606582701e-04" rms="2.4206301569938660e-01" purity="1.4392162859439850e-01" nType="-99"/>
          </Node>
          <Node pos="r" depth="2" NCoef="0" IVar="3" Cut="4.3256796875000000e+04" cType="1" res="8.6180247366428375e-02" rms="3.6373221874237061e-01" purity="6.6865301132202148e-01" nType="0">
            <Node pos="l" depth="3" NCoef="0" IVar="-1" Cut="0.0000000000000000e+00" cType="1" res="2.7487231418490410e-03" rms="4.0437737107276917e-01" purity="6.9640982151031494e-01" nType="-99"/>
            <Node pos="r" depth="3" NCoef="0" IVar="-1" Cut="0.0000000000000000e+00" cType="1" res="8.3055096911266446e-04" rms="3.4194931387901306e-01" purity="6.6138559579849243e-01" nType="-99"/>
          </Node>
        </Node>
        <Node pos="r" depth="1" NCoef="0" IVar="1" Cut="1.0059082812500000e+05" cType="1" res="5.3666200488805771e-02" rms="2.1774160861968994e-01" purity="9.2819923162460327e-01" nType="0">
          <Node pos="l" depth="2" NCoef="0" IVar="1" Cut="8.7960992187500000e+04" cType="1" res="2.3527212440967560e-02" rms="2.9234454035758972e-01" purity="8.5707277059555054e-01" nType="0">
            <Node pos="l" depth="3" NCoef="0" IVar="-1" Cut="0.0000000000000000e+00" cType="1" res="9.0811273548752069e-04" rms="2.6343271136283875e-01" purity="9.0684992074966431e-01" nType="-99"/>
            <Node pos="r" depth="3" NCoef="0" IVar="-1" Cut="0.0000000000000000e+00" cType="1" res="-3.0398725066334009e-03" rms="3.9909631013870239e-01" purity="5.6783396005630493e-01" nType="-99"/>
          </Node>
          <Node pos="r" depth="2" NCoef="0" IVar="5" Cut="8.9628875000000000e+04" cType="1" res="7.6285175979137421e-02" rms="1.3288728892803192e-01" purity="9.8157882690429688e-01" nType="0">
            <Node pos="l" depth="3" NCoef="0" IVar="-1" Cut="0.0000000000000000e+00" cType="1" res="1.4852721942588687e-03" rms="1.5646177530288696e-01" purity="9.7424095869064331e-01" nType="-99"/>
            <Node pos="r" depth="3" NCoef="0" IVar="-1" Cut="0.0000000000000000e+00" cType="1" res="1.6613160260021687e-03" rms="1.1834308505058289e-01" purity="9.8547500371932983e-01" nType="-99"/>
          </Node>
        </Node>
      </Node>
    </BinaryTree>
    <BinaryTree type="DecisionTree" boostWeight="1.0000000000000000e+00" itree="641">
      <Node pos="s" depth="0" NCoef="0" IVar="3" Cut="6.8798242187500000e+04" cType="1" res="3.2791834324598312e-02" rms="2.5865668058395386e-01" purity="4.8035717010498047e-01" nType="0">
        <Node pos="l" depth="1" NCoef="0" IVar="3" Cut="2.6283757812500000e+04" cType="1" res="1.5854343771934509e-02" rms="2.8533858060836792e-01" purity="2.7088060975074768e-01" nType="0">
          <Node pos="l" depth="2" NCoef="0" IVar="2" Cut="5.3732081250000000e+05" cType="1" res="-5.0274585373699665e-03" rms="2.0946803689002991e-01" purity="8.0463379621505737e-02" nType="0">
            <Node pos="l" depth="3" NCoef="0" IVar="-1" Cut="0.0000000000000000e+00" cType="1" res="-2.5079914485104382e-04" rms="2.0522214472293854e-01" purity="7.3446281254291534e-02" nType="-99"/>
            <Node pos="r" depth="3" NCoef="0" IVar="-1" Cut="0.0000000000000000e+00" cType="1" res="-3.5541669931262732e-03" rms="2.8583773970603943e-01" purity="2.5642177462577820e-01" nType="-99"/>
          </Node>
          <Node pos="r" depth="2" NCoef="0" IVar="5" Cut="8.9734351562500000e+04" cType="1" res="4.0982387959957123e-02" rms="3.5417097806930542e-01" purity="5.0001847743988037e-01" nType="0">
            <Node pos="l" depth="3" NCoef="0" IVar="-1" Cut="0.0000000000000000e+00" cType="1" res="1.8488577334210277e-03" rms="3.7565243244171143e-01" purity="6.3670539855957031e-01" nType="-99"/>
            <Node pos="r" depth="3" NCoef="0" IVar="-1" Cut="0.0000000000000000e+00" cType="1" res="3.5945090348832309e-04" rms="3.3827096223831177e-01" purity="4.2349928617477417e-01" nType="-99"/>
          </Node>
        </Node>
        <Node pos="r" depth="1" NCoef="0" IVar="2" Cut="2.1921667187500000e+05" cType="1" res="7.1977183222770691e-02" rms="1.7641897499561310e-01" purity="9.6498692035675049e-01" nType="0">
          <Node pos="l" depth="2" NCoef="0" IVar="-1" Cut="0.0000000000000000e+00" cType="1" res="9.1516465181484818e-04" rms="2.2113421559333801e-01" purity="9.4656461477279663e-01" nType="-99"/>
          <Node pos="r" depth="2" NCoef="0" IVar="1" Cut="1.0263772656250000e+05" cType="1" res="6.7125566303730011e-02" rms="1.6467148065567017e-01" purity="9.6900314092636108e-01" nType="0">
            <Node pos="l" depth="3" NCoef="0" IVar="-1" Cut="0.0000000000000000e+00" cType="1" res="1.0817821603268385e-03" rms="2.2783254086971283e-01" purity="9.3784475326538086e-01" nType="-99"/>
            <Node pos="r" depth="3" NCoef="0" IVar="-1" Cut="0.0000000000000000e+00" cType="1" res="1.1854229960590601e-03" rms="1.1031186580657959e-01" purity="9.8760885000228882e-01" nType="-99"/>
          </Node>
        </Node>
      </Node>
    </BinaryTree>
    <BinaryTree type="DecisionTree" boostWeight="1.0000000000000000e+00" itree="642">
      <Node pos="s" depth="0" NCoef="0" IVar="1" Cut="1.0034835937500000e+05" cType="1" res="3.8076538592576981e-02" rms="2.7177932858467102e-01" purity="4.9931570887565613e-01" nType="0">
        <Node pos="l" depth="1" NCoef="0" IVar="1" Cut="8.3521265625000000e+04" cType="1" res="1.7995068803429604e-02" rms="2.7440822124481201e-01" purity="3.1609258055686951e-01" nType="0">
          <Node pos="l" depth="2" NCoef="0" IVar="1" Cut="3.9250078125000000e+04" cType="1" res="5.1223076879978180e-02" rms="3.4389561414718628e-01" purity="5.7416826486587524e-01" nType="0">
            <Node pos="l" depth="3" NCoef="0" IVar="-1" Cut="0.0000000000000000e+00" cType="1" res="-1.3527611736208200e-03" rms="3.5018506646156311e-01" purity="4.2373788356781006e-01" nType="-99"/>
            <Node pos="r" depth="3" NCoef="0" IVar="-1" Cut="0.0000000000000000e+00" cType="1" res="1.6544890822842717e-03" rms="3.3801180124282837e-01" purity="6.1750674247741699e-01" nType="-99"/>
          </Node>
          <Node pos="r" depth="2" NCoef="0" IVar="5" Cut="9.0600007812500000e+04" cType="1" res="-6.6230138763785362e-03" rms="2.0504693686962128e-01" purity="1.2488859891891479e-01" nType="0">
            <Node pos="l" depth="3" NCoef="0" IVar="-1" Cut="0.0000000000000000e+00" cType="1" res="1.3618174707517028e-03" rms="2.4645388126373291e-01" purity="1.8509590625762939e-01" nType="-99"/>
            <Node pos="r" depth="3" NCoef="0" IVar="-1" Cut="0.0000000000000000e+00" cType="1" res="-3.8688380736857653e-03" rms="1.6489094495773315e-01" purity="8.0208994448184967e-02" nType="-99"/>
          </Node>
        </Node>
        <Node pos="r" depth="1" NCoef="0" IVar="0" Cut="1.1428571939468384e+00" cType="1" res="7.6080031692981720e-02" rms="2.6256278157234192e-01" purity="8.4605914354324341e-01" nType="0">
          <Node pos="l" depth="2" NCoef="0" IVar="3" Cut="2.1539193359375000e+04" cType="1" res="8.5254587233066559e-02" rms="2.6280507445335388e-01" purity="8.3291268348693848e-01" nType="0">
            <Node pos="l" depth="3" NCoef="0" IVar="-1" Cut="0.0000000000000000e+00" cType="1" res="9.9598872475326061e-04" rms="3.9507535099983215e-01" purity="3.6188113689422607e-01" nType="-99"/>
            <Node pos="r" depth="3" NCoef="0" IVar="-1" Cut="0.0000000000000000e+00" cType="1" res="9.4889453612267971e-04" rms="2.2946459054946899e-01" purity="9.1899043321609497e-01" nType="-99"/>
          </Node>
          <Node pos="r" depth="2" NCoef="0" IVar="5" Cut="9.1329492187500000e+04" cType="1" res="4.7309778630733490e-02" rms="2.5970825552940369e-01" purity="8.8728463649749756e-01" nType="0">
            <Node pos="l" depth="3" NCoef="0" IVar="-1" Cut="0.0000000000000000e+00" cType="1" res="5.9159420197829604e-04" rms="2.8109735250473022e-01" purity="8.5520631074905396e-01" nType="-99"/>
            <Node pos="r" depth="3" NCoef="0" IVar="-1" Cut="0.0000000000000000e+00" cType="1" res="9.7317446488887072e-04" rms="2.3286892473697662e-01" purity="9.2007476091384888e-01" nType="-99"/>
          </Node>
        </Node>
      </Node>
    </BinaryTree>
    <BinaryTree type="DecisionTree" boostWeight="1.0000000000000000e+00" itree="643">
      <Node pos="s" depth="0" NCoef="0" IVar="1" Cut="9.3489203125000000e+04" cType="1" res="3.3302992582321167e-02" rms="2.7057921886444092e-01" purity="4.7664600610733032e-01" nType="0">
        <Node pos="l" depth="1" NCoef="0" IVar="1" Cut="8.5731625000000000e+04" cType="1" res="1.0025670751929283e-02" rms="2.7157852053642273e-01" purity="3.0905833840370178e-01" nType="0">
          <Node pos="l" depth="2" NCoef="0" IVar="1" Cut="3.3096339843750000e+04" cType="1" res="3.3312261104583740e-02" rms="3.2158717513084412e-01" purity="4.9755284190177917e-01" nType="0">
            <Node pos="l" depth="3" NCoef="0" IVar="-1" Cut="0.0000000000000000e+00" cType="1" res="-1.6790984664112329e-03" rms="2.4158030748367310e-01" purity="3.8171541690826416e-01" nType="-99"/>
            <Node pos="r" depth="3" NCoef="0" IVar="-1" Cut="0.0000000000000000e+00" cType="1" res="1.1377432383596897e-03" rms="3.3132544159889221e-01" purity="5.1628297567367554e-01" nType="-99"/>
          </Node>
          <Node pos="r" depth="2" NCoef="0" IVar="4" Cut="2.7510756250000000e+05" cType="1" res="-2.1841123700141907e-02" rms="1.7721204459667206e-01" purity="5.1110915839672089e-02" nType="0">
            <Node pos="l" depth="3" NCoef="0" IVar="-1" Cut="0.0000000000000000e+00" cType="1" res="-1.4908140292391181e-03" rms="1.6585430502891541e-01" purity="4.7623060643672943e-02" nType="-99"/>
            <Node pos="r" depth="3" NCoef="0" IVar="-1" Cut="0.0000000000000000e+00" cType="1" res="-1.1329525150358677e-02" rms="1.9698227941989899e-01" purity="5.9608850628137589e-02" nType="-99"/>
          </Node>
        </Node>
        <Node pos="r" depth="1" NCoef="0" IVar="2" Cut="2.8094693750000000e+05" cType="1" res="6.0191586613655090e-02" rms="2.6690515875816345e-01" purity="6.7023336887359619e-01" nType="0">
          <Node pos="l" depth="2" NCoef="0" IVar="3" Cut="3.5965640625000000e+04" cType="1" res="2.9519142583012581e-02" rms="2.7694669365882874e-01" purity="4.0108236670494080e-01" nType="0">
            <Node pos="l" depth="3" NCoef="0" IVar="-1" Cut="0.0000000000000000e+00" cType="1" res="-1.9150007283315063e-03" rms="2.2497904300689697e-01" purity="6.9674834609031677e-02" nType="-99"/>
            <Node pos="r" depth="3" NCoef="0" IVar="-1" Cut="0.0000000000000000e+00" cType="1" res="1.0943911038339138e-03" rms="3.2167986035346985e-01" purity="7.9146188497543335e-01" nType="-99"/>
          </Node>
          <Node pos="r" depth="2" NCoef="0" IVar="4" Cut="2.1250037500000000e+05" cType="1" res="7.3983281850814819e-02" rms="2.6109305024147034e-01" purity="7.9125565290451050e-01" nType="0">
            <Node pos="l" depth="3" NCoef="0" IVar="-1" Cut="0.0000000000000000e+00" cType="1" res="-1.0210517793893814e-03" rms="2.3518519103527069e-01" purity="4.6575999259948730e-01" nType="-99"/>
            <Node pos="r" depth="3" NCoef="0" IVar="-1" Cut="0.0000000000000000e+00" cType="1" res="1.0264954762533307e-03" rms="2.6133003830909729e-01" purity="8.0992674827575684e-01" nType="-99"/>
          </Node>
        </Node>
      </Node>
    </BinaryTree>
    <BinaryTree type="DecisionTree" boostWeight="1.0000000000000000e+00" itree="644">
      <Node pos="s" depth="0" NCoef="0" IVar="2" Cut="3.9499381250000000e+05" cType="1" res="3.3608429133892059e-02" rms="2.6911956071853638e-01" purity="4.8203486204147339e-01" nType="0">
        <Node pos="l" depth="1" NCoef="0" IVar="1" Cut="6.6361101562500000e+04" cType="1" res="2.2757891565561295e-02" rms="2.7189600467681885e-01" purity="3.8794869184494019e-01" nType="0">
          <Node pos="l" depth="2" NCoef="0" IVar="1" Cut="1.9756564453125000e+04" cType="1" res="6.9883853197097778e-02" rms="3.5206878185272217e-01" purity="6.1820137500762939e-01" nType="0">
            <Node pos="l" depth="3" NCoef="0" IVar="-1" Cut="0.0000000000000000e+00" cType="1" res="-3.4781787544488907e-03" rms="2.2961184382438660e-01" purity="1.9920045137405396e-01" nType="-99"/>
            <Node pos="r" depth="3" NCoef="0" IVar="-1" Cut="0.0000000000000000e+00" cType="1" res="1.7116047674790025e-03" rms="3.5947737097740173e-01" purity="6.5948110818862915e-01" nType="-99"/>
          </Node>
          <Node pos="r" depth="2" NCoef="0" IVar="4" Cut="2.1546690625000000e+05" cType="1" res="1.0617745108902454e-02" rms="2.4560329318046570e-01" purity="3.2863315939903259e-01" nType="0">
            <Node pos="l" depth="3" NCoef="0" IVar="-1" Cut="0.0000000000000000e+00" cType="1" res="-3.2470945734530687e-03" rms="1.9955360889434814e-01" purity="9.4464957714080811e-02" nType="-99"/>
            <Node pos="r" depth="3" NCoef="0" IVar="-1" Cut="0.0000000000000000e+00" cType="1" res="5.7467358419671655e-04" rms="2.7025473117828369e-01" purity="4.8549324274063110e-01" nType="-99"/>
          </Node>
        </Node>
        <Node pos="r" depth="1" NCoef="0" IVar="2" Cut="4.7703656250000000e+05" cType="1" res="6.5742217004299164e-02" rms="2.5806128978729248e-01" purity="7.6067054271697998e-01" nType="0">
          <Node pos="l" depth="2" NCoef="0" IVar="2" Cut="4.4185784375000000e+05" cType="1" res="9.5965512096881866e-02" rms="2.7218317985534668e-01" purity="7.6502764225006104e-01" nType="0">
            <Node pos="l" depth="3" NCoef="0" IVar="-1" Cut="0.0000000000000000e+00" cType="1" res="1.0743933962658048e-03" rms="2.3070162534713745e-01" purity="7.3395514488220215e-01" nType="-99"/>
            <Node pos="r" depth="3" NCoef="0" IVar="-1" Cut="0.0000000000000000e+00" cType="1" res="1.3811533572152257e-03" rms="3.1621238589286804e-01" purity="8.1204473972320557e-01" nType="-99"/>
          </Node>
          <Node pos="r" depth="2" NCoef="0" IVar="1" Cut="1.7790809375000000e+05" cType="1" res="3.7698004394769669e-02" rms="2.4085970222949982e-01" purity="7.5662750005722046e-01" nType="0">
            <Node pos="l" depth="3" NCoef="0" IVar="-1" Cut="0.0000000000000000e+00" cType="1" res="-4.5589907676912844e-04" rms="2.5709092617034912e-01" purity="5.3144091367721558e-01" nType="-99"/>
            <Node pos="r" depth="3" NCoef="0" IVar="-1" Cut="0.0000000000000000e+00" cType="1" res="1.5608709072694182e-03" rms="2.1752884984016418e-01" purity="9.4626718759536743e-01" nType="-99"/>
          </Node>
        </Node>
      </Node>
    </BinaryTree>
    <BinaryTree type="DecisionTree" boostWeight="1.0000000000000000e+00" itree="645">
      <Node pos="s" depth="0" NCoef="0" IVar="5" Cut="9.6354468750000000e+04" cType="1" res="2.9580181464552879e-02" rms="2.6675942540168762e-01" purity="4.8406088352203369e-01" nType="0">
        <Node pos="l" depth="1" NCoef="0" IVar="3" Cut="9.7362023437500000e+04" cType="1" res="2.3941008374094963e-02" rms="2.6329976320266724e-01" purity="4.6996945142745972e-01" nType="0">
          <Node pos="l" depth="2" NCoef="0" IVar="1" Cut="9.3450960937500000e+04" cType="1" res="1.4353471808135509e-02" rms="2.8228822350502014e-01" purity="3.6210095882415771e-01" nType="0">
            <Node pos="l" depth="3" NCoef="0" IVar="-1" Cut="0.0000000000000000e+00" cType="1" res="-5.9381265600677580e-05" rms="2.6898941397666931e-01" purity="2.2813668847084045e-01" nType="-99"/>
            <Node pos="r" depth="3" NCoef="0" IVar="-1" Cut="0.0000000000000000e+00" cType="1" res="8.2664185902103782e-04" rms="2.9854556918144226e-01" purity="5.4934591054916382e-01" nType="-99"/>
          </Node>
          <Node pos="r" depth="2" NCoef="0" IVar="0" Cut="3.8095238804817200e-01" cType="1" res="6.9412223994731903e-02" rms="1.3299974799156189e-01" purity="9.8156201839447021e-01" nType="0">
            <Node pos="l" depth="3" NCoef="0" IVar="-1" Cut="0.0000000000000000e+00" cType="1" res="2.3589946795254946e-03" rms="9.5708690583705902e-02" purity="9.9121028184890747e-01" nType="-99"/>
            <Node pos="r" depth="3" NCoef="0" IVar="-1" Cut="0.0000000000000000e+00" cType="1" res="1.5408041654154658e-03" rms="1.4177396893501282e-01" purity="9.7871518135070801e-01" nType="-99"/>
          </Node>
        </Node>
        <Node pos="r" depth="1" NCoef="0" IVar="-1" Cut="0.0000000000000000e+00" cType="1" res="1.0282753501087427e-03" rms="3.0890721082687378e-01" purity="7.9442054033279419e-01" nType="-99"/>
      </Node>
    </BinaryTree>
    <BinaryTree type="DecisionTree" boostWeight="1.0000000000000000e+00" itree="646">
      <Node pos="s" depth="0" NCoef="0" IVar="3" Cut="8.8975523437500000e+04" cType="1" res="3.2467436045408249e-02" rms="2.5716465711593628e-01" purity="5.0920194387435913e-01" nType="0">
        <Node pos="l" depth="1" NCoef="0" IVar="3" Cut="6.3579183593750000e+04" cType="1" res="2.2467264905571938e-02" rms="2.8000453114509583e-01" purity="3.7277588248252869e-01" nType="0">
          <Node pos="l" depth="2" NCoef="0" IVar="5" Cut="9.3546078125000000e+04" cType="1" res="1.4090182259678841e-02" rms="2.8331667184829712e-01" purity="2.7458104491233826e-01" nType="0">
            <Node pos="l" depth="3" NCoef="0" IVar="-1" Cut="0.0000000000000000e+00" cType="1" res="2.7923815650865436e-04" rms="2.7490130066871643e-01" purity="2.5334429740905762e-01" nType="-99"/>
            <Node pos="r" depth="3" NCoef="0" IVar="-1" Cut="0.0000000000000000e+00" cType="1" res="9.4656122382730246e-04" rms="3.3499142527580261e-01" purity="4.3753391504287720e-01" nType="-99"/>
          </Node>
          <Node pos="r" depth="2" NCoef="0" IVar="0" Cut="2.8571429848670959e-01" cType="1" res="6.8679593503475189e-02" rms="2.5609990954399109e-01" purity="9.1446948051452637e-01" nType="0">
            <Node pos="l" depth="3" NCoef="0" IVar="-1" Cut="0.0000000000000000e+00" cType="1" res="1.5633630100637674e-03" rms="2.0789223909378052e-01" purity="9.4505739212036133e-01" nType="-99"/>
            <Node pos="r" depth="3" NCoef="0" IVar="-1" Cut="0.0000000000000000e+00" cType="1" res="7.2333827847614884e-04" rms="2.8392872214317322e-01" purity="8.9235752820968628e-01" nType="-99"/>
          </Node>
        </Node>
        <Node pos="r" depth="1" NCoef="0" IVar="0" Cut="3.8095238804817200e-01" cType="1" res="6.6669888794422150e-02" rms="1.5053220093250275e-01" purity="9.7580456733703613e-01" nType="0">
          <Node pos="l" depth="2" NCoef="0" IVar="-1" Cut="0.0000000000000000e+00" cType="1" res="1.9152192398905754e-03" rms="1.1526473611593246e-01" purity="9.8718792200088501e-01" nType="-99"/>
          <Node pos="r" depth="2" NCoef="0" IVar="1" Cut="1.1145093750000000e+05" cType="1" res="5.9857167303562164e-02" rms="1.6077582538127899e-01" purity="9.7171866893768311e-01" nType="0">
            <Node pos="l" depth="3" NCoef="0" IVar="-1" Cut="0.0000000000000000e+00" cType="1" res="8.8344688992947340e-04" rms="2.0293956995010376e-01" purity="9.5371353626251221e-01" nType="-99"/>
            <Node pos="r" depth="3" NCoef="0" IVar="-1" Cut="0.0000000000000000e+00" cType="1" res="1.7365012317895889e-03" rms="1.0312785953283310e-01" purity="9.8924911022186279e-01" nType="-99"/>
          </Node>
        </Node>
      </Node>
    </BinaryTree>
    <BinaryTree type="DecisionTree" boostWeight="1.0000000000000000e+00" itree="647">
      <Node pos="s" depth="0" NCoef="0" IVar="3" Cut="5.4312500000000000e+04" cType="1" res="2.4565910920500755e-02" rms="2.5475937128067017e-01" purity="4.8520621657371521e-01" nType="0">
        <Node pos="l" depth="1" NCoef="0" IVar="5" Cut="9.6351289062500000e+04" cType="1" res="7.2635854594409466e-03" rms="2.7444574236869812e-01" purity="2.1701884269714355e-01" nType="0">
          <Node pos="l" depth="2" NCoef="0" IVar="4" Cut="6.4418225000000000e+05" cType="1" res="3.1991961877793074e-03" rms="2.6662343740463257e-01" purity="2.1175840497016907e-01" nType="0">
            <Node pos="l" depth="3" NCoef="0" IVar="-1" Cut="0.0000000000000000e+00" cType="1" res="-1.0248638864140958e-04" rms="2.5647968053817749e-01" purity="1.9079850614070892e-01" nType="-99"/>
            <Node pos="r" depth="3" NCoef="0" IVar="-1" Cut="0.0000000000000000e+00" cType="1" res="2.2938789334148169e-03" rms="3.9518648386001587e-01" purity="5.8036375045776367e-01" nType="-99"/>
          </Node>
          <Node pos="r" depth="2" NCoef="0" IVar="-1" Cut="0.0000000000000000e+00" cType="1" res="5.9518795460462570e-03" rms="4.7596630454063416e-01" purity="4.4413071870803833e-01" nType="-99"/>
        </Node>
        <Node pos="r" depth="1" NCoef="0" IVar="1" Cut="1.3196950000000000e+05" cType="1" res="5.3139556199312210e-02" rms="2.1537561714649200e-01" purity="9.2809998989105225e-01" nType="0">
          <Node pos="l" depth="2" NCoef="0" IVar="0" Cut="1.1428571939468384e+00" cType="1" res="3.9835032075643539e-02" rms="2.5832659006118774e-01" purity="8.9191770553588867e-01" nType="0">
            <Node pos="l" depth="3" NCoef="0" IVar="-1" Cut="0.0000000000000000e+00" cType="1" res="9.3704753089696169e-04" rms="2.3619607090950012e-01" purity="9.0563368797302246e-01" nType="-99"/>
            <Node pos="r" depth="3" NCoef="0" IVar="-1" Cut="0.0000000000000000e+00" cType="1" res="-2.1641854254994541e-04" rms="3.0851322412490845e-01" purity="8.5221523046493530e-01" nType="-99"/>
          </Node>
          <Node pos="r" depth="2" NCoef="0" IVar="-1" Cut="0.0000000000000000e+00" cType="1" res="1.4015070628374815e-03" rms="1.1036816239356995e-01" purity="9.8756200075149536e-01" nType="-99"/>
        </Node>
      </Node>
    </BinaryTree>
    <BinaryTree type="DecisionTree" boostWeight="1.0000000000000000e+00" itree="648">
      <Node pos="s" depth="0" NCoef="0" IVar="3" Cut="6.8736484375000000e+04" cType="1" res="2.5965560227632523e-02" rms="2.5847485661506653e-01" purity="4.7793644666671753e-01" nType="0">
        <Node pos="l" depth="1" NCoef="0" IVar="5" Cut="9.2596671875000000e+04" cType="1" res="1.1406854726374149e-02" rms="2.8082320094108582e-01" purity="2.7181211113929749e-01" nType="0">
          <Node pos="l" depth="2" NCoef="0" IVar="5" Cut="9.0969093750000000e+04" cType="1" res="-2.9813586734235287e-03" rms="2.6499494910240173e-01" purity="2.4800120294094086e-01" nType="0">
            <Node pos="l" depth="3" NCoef="0" IVar="-1" Cut="0.0000000000000000e+00" cType="1" res="4.9708306323736906e-04" rms="2.8831559419631958e-01" purity="3.0898466706275940e-01" nType="-99"/>
            <Node pos="r" depth="3" NCoef="0" IVar="-1" Cut="0.0000000000000000e+00" cType="1" res="-3.6438598763197660e-03" rms="2.0701789855957031e-01" purity="1.2596568465232849e-01" nType="-99"/>
          </Node>
          <Node pos="r" depth="2" NCoef="0" IVar="5" Cut="9.3817351562500000e+04" cType="1" res="6.3269317150115967e-02" rms="3.2644498348236084e-01" purity="3.5763868689537048e-01" nType="0">
            <Node pos="l" depth="3" NCoef="0" IVar="-1" Cut="0.0000000000000000e+00" cType="1" res="2.2450913675129414e-03" rms="3.3434575796127319e-01" purity="3.5628953576087952e-01" nType="-99"/>
            <Node pos="r" depth="3" NCoef="0" IVar="-1" Cut="0.0000000000000000e+00" cType="1" res="6.2220438849180937e-04" rms="3.1025466322898865e-01" purity="3.5952204465866089e-01" nType="-99"/>
          </Node>
        </Node>
        <Node pos="r" depth="1" NCoef="0" IVar="4" Cut="2.2374843750000000e+05" cType="1" res="5.9808772057294846e-02" rms="1.9275401532649994e-01" purity="9.5709389448165894e-01" nType="0">
          <Node pos="l" depth="2" NCoef="0" IVar="-1" Cut="0.0000000000000000e+00" cType="1" res="6.8082078360021114e-04" rms="2.8516405820846558e-01" purity="8.9819818735122681e-01" nType="-99"/>
          <Node pos="r" depth="2" NCoef="0" IVar="0" Cut="2.2857143878936768e+00" cType="1" res="6.5086871385574341e-02" rms="1.7216621339321136e-01" purity="9.6685135364532471e-01" nType="0">
            <Node pos="l" depth="3" NCoef="0" IVar="-1" Cut="0.0000000000000000e+00" cType="1" res="1.4795984607189894e-03" rms="1.6238667070865631e-01" purity="9.7101360559463501e-01" nType="-99"/>
            <Node pos="r" depth="3" NCoef="0" IVar="-1" Cut="0.0000000000000000e+00" cType="1" res="1.0320096043869853e-03" rms="2.0602634549140930e-01" purity="9.4998979568481445e-01" nType="-99"/>
          </Node>
        </Node>
      </Node>
    </BinaryTree>
    <BinaryTree type="DecisionTree" boostWeight="1.0000000000000000e+00" itree="649">
      <Node pos="s" depth="0" NCoef="0" IVar="3" Cut="4.4524941406250000e+04" cType="1" res="2.9318649321794510e-02" rms="2.5359058380126953e-01" purity="4.9614313244819641e-01" nType="0">
        <Node pos="l" depth="1" NCoef="0" IVar="5" Cut="9.6351289062500000e+04" cType="1" res="1.0183628182858229e-03" rms="2.6122888922691345e-01" purity="1.4514622092247009e-01" nType="0">
          <Node pos="l" depth="2" NCoef="0" IVar="5" Cut="9.3465296875000000e+04" cType="1" res="-5.0879055634140968e-03" rms="2.5261911749839783e-01" purity="1.3093084096908569e-01" nType="0">
            <Node pos="l" depth="3" NCoef="0" IVar="-1" Cut="0.0000000000000000e+00" cType="1" res="1.1438426008680835e-04" rms="2.5604781508445740e-01" purity="1.3625341653823853e-01" nType="-99"/>
            <Node pos="r" depth="3" NCoef="0" IVar="-1" Cut="0.0000000000000000e+00" cType="1" res="-8.5125835612416267e-03" rms="2.0110936462879181e-01" purity="7.4941106140613556e-02" nType="-99"/>
          </Node>
          <Node pos="r" depth="2" NCoef="0" IVar="-1" Cut="0.0000000000000000e+00" cType="1" res="1.1175618274137378e-03" rms="4.0823704004287720e-01" purity="5.7406228780746460e-01" nType="-99"/>
        </Node>
        <Node pos="r" depth="1" NCoef="0" IVar="1" Cut="1.2505362500000000e+05" cType="1" res="6.1536725610494614e-02" rms="2.4058610200881958e-01" purity="8.9573073387145996e-01" nType="0">
          <Node pos="l" depth="2" NCoef="0" IVar="1" Cut="8.7104070312500000e+04" cType="1" res="4.4091925024986267e-02" rms="3.0310204625129700e-01" purity="8.2444584369659424e-01" nType="0">
            <Node pos="l" depth="3" NCoef="0" IVar="-1" Cut="0.0000000000000000e+00" cType="1" res="1.0842472547665238e-03" rms="2.7118438482284546e-01" purity="8.8405346870422363e-01" nType="-99"/>
            <Node pos="r" depth="3" NCoef="0" IVar="-1" Cut="0.0000000000000000e+00" cType="1" res="3.0438447720371187e-04" rms="3.4800955653190613e-01" purity="7.2547781467437744e-01" nType="-99"/>
          </Node>
          <Node pos="r" depth="2" NCoef="0" IVar="3" Cut="8.6869773437500000e+04" cType="1" res="8.3569914102554321e-02" rms="1.1867060512304306e-01" purity="9.8576515913009644e-01" nType="0">
            <Node pos="l" depth="3" NCoef="0" IVar="-1" Cut="0.0000000000000000e+00" cType="1" res="1.1557433754205704e-03" rms="1.4211049675941467e-01" purity="9.7936338186264038e-01" nType="-99"/>
            <Node pos="r" depth="3" NCoef="0" IVar="-1" Cut="0.0000000000000000e+00" cType="1" res="1.1545025045052171e-03" rms="9.0146720409393311e-02" purity="9.9181926250457764e-01" nType="-99"/>
          </Node>
        </Node>
      </Node>
    </BinaryTree>
    <BinaryTree type="DecisionTree" boostWeight="1.0000000000000000e+00" itree="650">
      <Node pos="s" depth="0" NCoef="0" IVar="1" Cut="1.0034389062500000e+05" cType="1" res="4.1308745741844177e-02" rms="2.6431599259376526e-01" purity="5.2412450313568115e-01" nType="0">
        <Node pos="l" depth="1" NCoef="0" IVar="3" Cut="1.1343950781250000e+05" cType="1" res="2.0288009196519852e-02" rms="2.5703024864196777e-01" purity="3.3664661645889282e-01" nType="0">
          <Node pos="l" depth="2" NCoef="0" IVar="5" Cut="9.0678671875000000e+04" cType="1" res="1.1995777487754822e-02" rms="2.7020567655563354e-01" purity="2.3708592355251312e-01" nType="0">
            <Node pos="l" depth="3" NCoef="0" IVar="-1" Cut="0.0000000000000000e+00" cType="1" res="1.2397839454934001e-03" rms="2.9514992237091064e-01" purity="3.0739083886146545e-01" nType="-99"/>
            <Node pos="r" depth="3" NCoef="0" IVar="-1" Cut="0.0000000000000000e+00" cType="1" res="-6.8534858291968703e-04" rms="2.4435353279113770e-01" purity="1.7604425549507141e-01" nType="-99"/>
          </Node>
          <Node pos="r" depth="2" NCoef="0" IVar="1" Cut="8.3655953125000000e+04" cType="1" res="7.4049621820449829e-02" rms="1.3300910592079163e-01" purity="9.8213547468185425e-01" nType="0">
            <Node pos="l" depth="3" NCoef="0" IVar="-1" Cut="0.0000000000000000e+00" cType="1" res="1.7509916797280312e-03" rms="1.2019866704940796e-01" purity="9.8543989658355713e-01" nType="-99"/>
            <Node pos="r" depth="3" NCoef="0" IVar="-1" Cut="0.0000000000000000e+00" cType="1" res="1.4840388903394341e-03" rms="1.6395570337772369e-01" purity="9.7210741043090820e-01" nType="-99"/>
          </Node>
        </Node>
        <Node pos="r" depth="1" NCoef="0" IVar="5" Cut="9.2605179687500000e+04" cType="1" res="7.8593187034130096e-02" rms="2.7281180024147034e-01" purity="8.5665374994277954e-01" nType="0">
          <Node pos="l" depth="2" NCoef="0" IVar="5" Cut="8.7717351562500000e+04" cType="1" res="6.6553644835948944e-02" rms="2.5981155037879944e-01" purity="8.5624921321868896e-01" nType="0">
            <Node pos="l" depth="3" NCoef="0" IVar="-1" Cut="0.0000000000000000e+00" cType="1" res="7.7386182965710759e-04" rms="3.2048541307449341e-01" purity="8.0188548564910889e-01" nType="-99"/>
            <Node pos="r" depth="3" NCoef="0" IVar="-1" Cut="0.0000000000000000e+00" cType="1" res="1.3997334754094481e-03" rms="2.4447064101696014e-01" purity="8.6767286062240601e-01" nType="-99"/>
          </Node>
          <Node pos="r" depth="2" NCoef="0" IVar="5" Cut="9.3828382812500000e+04" cType="1" res="1.1208926141262054e-01" rms="3.0358761548995972e-01" purity="8.5777932405471802e-01" nType="0">
            <Node pos="l" depth="3" NCoef="0" IVar="-1" Cut="0.0000000000000000e+00" cType="1" res="2.2184858098626137e-03" rms="3.0074176192283630e-01" purity="8.8073700666427612e-01" nType="-99"/>
            <Node pos="r" depth="3" NCoef="0" IVar="-1" Cut="0.0000000000000000e+00" cType="1" res="9.6387672238051891e-04" rms="3.0506363511085510e-01" purity="8.3770024776458740e-01" nType="-99"/>
          </Node>
        </Node>
      </Node>
    </BinaryTree>
    <BinaryTree type="DecisionTree" boostWeight="1.0000000000000000e+00" itree="651">
      <Node pos="s" depth="0" NCoef="0" IVar="4" Cut="3.8067609375000000e+05" cType="1" res="4.3568562716245651e-02" rms="2.6104998588562012e-01" purity="5.3102564811706543e-01" nType="0">
        <Node pos="l" depth="1" NCoef="0" IVar="1" Cut="1.0766117968750000e+05" cType="1" res="2.9458140954375267e-02" rms="2.6620087027549744e-01" purity="3.9128160476684570e-01" nType="0">
          <Node pos="l" depth="2" NCoef="0" IVar="1" Cut="9.8512476562500000e+04" cType="1" res="1.7254391685128212e-02" rms="2.6019737124443054e-01" purity="2.6945847272872925e-01" nType="0">
            <Node pos="l" depth="3" NCoef="0" IVar="-1" Cut="0.0000000000000000e+00" cType="1" res="4.8386459820903838e-04" rms="2.5038012862205505e-01" purity="2.5469595193862915e-01" nType="-99"/>
            <Node pos="r" depth="3" NCoef="0" IVar="-1" Cut="0.0000000000000000e+00" cType="1" res="2.1132270339876413e-03" rms="3.4415555000305176e-01" purity="4.5040088891983032e-01" nType="-99"/>
          </Node>
          <Node pos="r" depth="2" NCoef="0" IVar="3" Cut="1.6183912109375000e+04" cType="1" res="7.4540190398693085e-02" rms="2.8276237845420837e-01" purity="8.4131044149398804e-01" nType="0">
            <Node pos="l" depth="3" NCoef="0" IVar="-1" Cut="0.0000000000000000e+00" cType="1" res="2.9806459788233042e-03" rms="4.2982193827629089e-01" purity="5.2084583044052124e-01" nType="-99"/>
            <Node pos="r" depth="3" NCoef="0" IVar="-1" Cut="0.0000000000000000e+00" cType="1" res="1.0511941509321332e-03" rms="2.4586422741413116e-01" purity="8.9595204591751099e-01" nType="-99"/>
          </Node>
        </Node>
        <Node pos="r" depth="1" NCoef="0" IVar="2" Cut="4.9919753125000000e+05" cType="1" res="7.2146728634834290e-02" rms="2.4784423410892487e-01" purity="8.1405252218246460e-01" nType="0">
          <Node pos="l" depth="2" NCoef="0" IVar="3" Cut="3.3184832031250000e+04" cType="1" res="9.1252304613590240e-02" rms="2.5896531343460083e-01" purity="8.1325048208236694e-01" nType="0">
            <Node pos="l" depth="3" NCoef="0" IVar="-1" Cut="0.0000000000000000e+00" cType="1" res="5.5169644765555859e-03" rms="4.0415340662002563e-01" purity="4.0954893827438354e-01" nType="-99"/>
            <Node pos="r" depth="3" NCoef="0" IVar="-1" Cut="0.0000000000000000e+00" cType="1" res="1.2238620547577739e-03" rms="2.0255552232265472e-01" purity="9.1899919509887695e-01" nType="-99"/>
          </Node>
          <Node pos="r" depth="2" NCoef="0" IVar="3" Cut="6.9230070312500000e+04" cType="1" res="2.7744077146053314e-02" rms="2.1332548558712006e-01" purity="8.1591641902923584e-01" nType="0">
            <Node pos="l" depth="3" NCoef="0" IVar="-1" Cut="0.0000000000000000e+00" cType="1" res="-1.3162946561351418e-03" rms="2.8877028822898865e-01" purity="5.4582995176315308e-01" nType="-99"/>
            <Node pos="r" depth="3" NCoef="0" IVar="-1" Cut="0.0000000000000000e+00" cType="1" res="1.0914404410868883e-03" rms="1.3220852613449097e-01" purity="9.8161584138870239e-01" nType="-99"/>
          </Node>
        </Node>
      </Node>
    </BinaryTree>
    <BinaryTree type="DecisionTree" boostWeight="1.0000000000000000e+00" itree="652">
      <Node pos="s" depth="0" NCoef="0" IVar="3" Cut="6.8736484375000000e+04" cType="1" res="2.8775872662663460e-02" rms="2.5883537530899048e-01" purity="5.0121390819549561e-01" nType="0">
        <Node pos="l" depth="1" NCoef="0" IVar="1" Cut="7.4252046875000000e+04" cType="1" res="1.5220453031361103e-02" rms="2.8487175703048706e-01" purity="2.8852605819702148e-01" nType="0">
          <Node pos="l" depth="2" NCoef="0" IVar="3" Cut="1.3255325195312500e+04" cType="1" res="6.8553082644939423e-02" rms="3.9777871966362000e-01" purity="4.5640492439270020e-01" nType="0">
            <Node pos="l" depth="3" NCoef="0" IVar="-1" Cut="0.0000000000000000e+00" cType="1" res="-1.1070067994296551e-02" rms="1.7150399088859558e-01" purity="3.1599819660186768e-02" nType="-99"/>
            <Node pos="r" depth="3" NCoef="0" IVar="-1" Cut="0.0000000000000000e+00" cType="1" res="1.7292971024289727e-03" rms="4.2724692821502686e-01" purity="5.4279071092605591e-01" nType="-99"/>
          </Node>
          <Node pos="r" depth="2" NCoef="0" IVar="3" Cut="4.5836863281250000e+04" cType="1" res="3.5480845253914595e-03" rms="2.5204032659530640e-01" purity="2.5178405642509460e-01" nType="0">
            <Node pos="l" depth="3" NCoef="0" IVar="-1" Cut="0.0000000000000000e+00" cType="1" res="-7.2783790528774261e-04" rms="2.3138400912284851e-01" purity="1.3975736498832703e-01" nType="-99"/>
            <Node pos="r" depth="3" NCoef="0" IVar="-1" Cut="0.0000000000000000e+00" cType="1" res="5.7011470198631287e-04" rms="3.2264542579650879e-01" purity="7.4299508333206177e-01" nType="-99"/>
          </Node>
        </Node>
        <Node pos="r" depth="1" NCoef="0" IVar="1" Cut="1.1141539843750000e+05" cType="1" res="5.7944104075431824e-02" rms="1.8785279989242554e-01" purity="9.5887064933776855e-01" nType="0">
          <Node pos="l" depth="2" NCoef="0" IVar="3" Cut="9.8482109375000000e+04" cType="1" res="4.4993348419666290e-02" rms="2.4086919426918030e-01" purity="9.3017464876174927e-01" nType="0">
            <Node pos="l" depth="3" NCoef="0" IVar="-1" Cut="0.0000000000000000e+00" cType="1" res="-8.8877350208349526e-05" rms="3.6296018958091736e-01" purity="8.2988101243972778e-01" nType="-99"/>
            <Node pos="r" depth="3" NCoef="0" IVar="-1" Cut="0.0000000000000000e+00" cType="1" res="1.4421694213524461e-03" rms="1.4482240378856659e-01" purity="9.7806823253631592e-01" nType="-99"/>
          </Node>
          <Node pos="r" depth="2" NCoef="0" IVar="-1" Cut="0.0000000000000000e+00" cType="1" res="1.5966466162353754e-03" rms="1.1282926797866821e-01" purity="9.8694092035293579e-01" nType="-99"/>
        </Node>
      </Node>
    </BinaryTree>
    <BinaryTree type="DecisionTree" boostWeight="1.0000000000000000e+00" itree="653">
      <Node pos="s" depth="0" NCoef="0" IVar="1" Cut="1.0038213281250000e+05" cType="1" res="3.6288898438215256e-02" rms="2.6058545708656311e-01" purity="5.1412314176559448e-01" nType="0">
        <Node pos="l" depth="1" NCoef="0" IVar="1" Cut="7.9343781250000000e+04" cType="1" res="1.9099613651633263e-02" rms="2.5295144319534302e-01" purity="3.4429457783699036e-01" nType="0">
          <Node pos="l" depth="2" NCoef="0" IVar="0" Cut="1.1428571939468384e+00" cType="1" res="6.1147894710302353e-02" rms="3.0799689888954163e-01" purity="6.7290669679641724e-01" nType="0">
            <Node pos="l" depth="3" NCoef="0" IVar="-1" Cut="0.0000000000000000e+00" cType="1" res="1.8464837921783328e-03" rms="3.0760449171066284e-01" purity="6.6194540262222290e-01" nType="-99"/>
            <Node pos="r" depth="3" NCoef="0" IVar="-1" Cut="0.0000000000000000e+00" cType="1" res="1.9277517276350409e-04" rms="3.0375587940216064e-01" purity="7.1432089805603027e-01" nType="-99"/>
          </Node>
          <Node pos="r" depth="2" NCoef="0" IVar="0" Cut="2.1428570747375488e+00" cType="1" res="-7.1567338891327381e-03" rms="2.0714724063873291e-01" purity="1.3909828662872314e-01" nType="0">
            <Node pos="l" depth="3" NCoef="0" IVar="-1" Cut="0.0000000000000000e+00" cType="1" res="-1.2611054989974946e-04" rms="2.0520515739917755e-01" purity="1.4272283017635345e-01" nType="-99"/>
            <Node pos="r" depth="3" NCoef="0" IVar="-1" Cut="0.0000000000000000e+00" cType="1" res="-1.7214486375451088e-02" rms="2.1777425706386566e-01" purity="6.9593012332916260e-02" nType="-99"/>
          </Node>
        </Node>
        <Node pos="r" depth="1" NCoef="0" IVar="5" Cut="8.7839757812500000e+04" cType="1" res="6.9891862571239471e-02" rms="2.7177524566650391e-01" purity="8.4611737728118896e-01" nType="0">
          <Node pos="l" depth="2" NCoef="0" IVar="0" Cut="3.8095238804817200e-01" cType="1" res="2.4722158908843994e-02" rms="2.9541838169097900e-01" purity="8.0546092987060547e-01" nType="0">
            <Node pos="l" depth="3" NCoef="0" IVar="-1" Cut="0.0000000000000000e+00" cType="1" res="7.9679978080093861e-04" rms="2.8174802660942078e-01" purity="8.0834877490997314e-01" nType="-99"/>
            <Node pos="r" depth="3" NCoef="0" IVar="-1" Cut="0.0000000000000000e+00" cType="1" res="-9.3601138360099867e-06" rms="3.1005635857582092e-01" purity="8.0180543661117554e-01" nType="-99"/>
          </Node>
          <Node pos="r" depth="2" NCoef="0" IVar="0" Cut="3.8095238804817200e-01" cType="1" res="7.8604310750961304e-02" rms="2.6609349250793457e-01" purity="8.5395932197570801e-01" nType="0">
            <Node pos="l" depth="3" NCoef="0" IVar="-1" Cut="0.0000000000000000e+00" cType="1" res="1.5790918841958046e-03" rms="2.9433733224868774e-01" purity="8.0649304389953613e-01" nType="-99"/>
            <Node pos="r" depth="3" NCoef="0" IVar="-1" Cut="0.0000000000000000e+00" cType="1" res="7.7044195495545864e-04" rms="2.4372321367263794e-01" purity="8.8579601049423218e-01" nType="-99"/>
          </Node>
        </Node>
      </Node>
    </BinaryTree>
    <BinaryTree type="DecisionTree" boostWeight="1.0000000000000000e+00" itree="654">
      <Node pos="s" depth="0" NCoef="0" IVar="3" Cut="3.7956203125000000e+04" cType="1" res="3.0186025425791740e-02" rms="2.4435760080814362e-01" purity="4.9804568290710449e-01" nType="0">
        <Node pos="l" depth="1" NCoef="0" IVar="4" Cut="4.8978140625000000e+05" cType="1" res="3.7482865154743195e-03" rms="2.4074009060859680e-01" purity="1.4611166715621948e-01" nType="0">
          <Node pos="l" depth="2" NCoef="0" IVar="2" Cut="2.3493614062500000e+05" cType="1" res="-3.7530697882175446e-03" rms="2.2402462363243103e-01" purity="1.1586094647645950e-01" nType="0">
            <Node pos="l" depth="3" NCoef="0" IVar="-1" Cut="0.0000000000000000e+00" cType="1" res="-8.6577748879790306e-03" rms="1.5311878919601440e-01" purity="2.6738487184047699e-02" nType="-99"/>
            <Node pos="r" depth="3" NCoef="0" IVar="-1" Cut="0.0000000000000000e+00" cType="1" res="9.8003400489687920e-04" rms="2.7084988355636597e-01" purity="1.9574119150638580e-01" nType="-99"/>
          </Node>
          <Node pos="r" depth="2" NCoef="0" IVar="2" Cut="5.3026981250000000e+05" cType="1" res="8.0338530242443085e-02" rms="3.6171218752861023e-01" purity="4.5497721433639526e-01" nType="0">
            <Node pos="l" depth="3" NCoef="0" IVar="-1" Cut="0.0000000000000000e+00" cType="1" res="1.4604951720684767e-03" rms="3.8848796486854553e-01" purity="4.7144094109535217e-01" nType="-99"/>
            <Node pos="r" depth="3" NCoef="0" IVar="-1" Cut="0.0000000000000000e+00" cType="1" res="-1.2764374259859324e-03" rms="2.7238488197326660e-01" purity="4.2854285240173340e-01" nType="-99"/>
          </Node>
        </Node>
        <Node pos="r" depth="1" NCoef="0" IVar="5" Cut="9.4233515625000000e+04" cType="1" res="5.6747715920209885e-02" rms="2.4508357048034668e-01" purity="8.5162979364395142e-01" nType="0">
          <Node pos="l" depth="2" NCoef="0" IVar="4" Cut="2.0611721875000000e+05" cType="1" res="4.8372313380241394e-02" rms="2.4635149538516998e-01" purity="8.4027534723281860e-01" nType="0">
            <Node pos="l" depth="3" NCoef="0" IVar="-1" Cut="0.0000000000000000e+00" cType="1" res="-6.7958433646708727e-04" rms="3.1500190496444702e-01" purity="6.0158103704452515e-01" nType="-99"/>
            <Node pos="r" depth="3" NCoef="0" IVar="-1" Cut="0.0000000000000000e+00" cType="1" res="7.3027511825785041e-04" rms="2.3358938097953796e-01" purity="8.7221956253051758e-01" nType="-99"/>
          </Node>
          <Node pos="r" depth="2" NCoef="0" IVar="-1" Cut="0.0000000000000000e+00" cType="1" res="1.5640653437003493e-03" rms="2.2956544160842896e-01" purity="9.2469441890716553e-01" nType="-99"/>
        </Node>
      </Node>
    </BinaryTree>
    <BinaryTree type="DecisionTree" boostWeight="1.0000000000000000e+00" itree="655">
      <Node pos="s" depth="0" NCoef="0" IVar="4" Cut="3.0533528125000000e+05" cType="1" res="3.0165284872055054e-02" rms="2.6682484149932861e-01" purity="4.9173289537429810e-01" nType="0">
        <Node pos="l" depth="1" NCoef="0" IVar="2" Cut="1.3894651562500000e+05" cType="1" res="1.3208636082708836e-02" rms="2.7407646179199219e-01" purity="3.0598920583724976e-01" nType="0">
          <Node pos="l" depth="2" NCoef="0" IVar="-1" Cut="0.0000000000000000e+00" cType="1" res="-1.5833834186196327e-02" rms="3.0946958065032959e-01" purity="4.4925600290298462e-02" nType="-99"/>
          <Node pos="r" depth="2" NCoef="0" IVar="1" Cut="9.8353296875000000e+04" cType="1" res="1.8647603690624237e-02" rms="2.7098068594932556e-01" purity="3.1297978758811951e-01" nType="0">
            <Node pos="l" depth="3" NCoef="0" IVar="-1" Cut="0.0000000000000000e+00" cType="1" res="4.3512924457900226e-04" rms="2.4858541786670685e-01" purity="2.1067358553409576e-01" nType="-99"/>
            <Node pos="r" depth="3" NCoef="0" IVar="-1" Cut="0.0000000000000000e+00" cType="1" res="1.2622985523194075e-03" rms="3.3371925354003906e-01" purity="6.6571229696273804e-01" nType="-99"/>
          </Node>
        </Node>
        <Node pos="r" depth="1" NCoef="0" IVar="0" Cut="2.1428570747375488e+00" cType="1" res="5.3082730621099472e-02" rms="2.5491258502006531e-01" purity="7.4277150630950928e-01" nType="0">
          <Node pos="l" depth="2" NCoef="0" IVar="2" Cut="2.4280837500000000e+05" cType="1" res="6.5449051558971405e-02" rms="2.5090551376342773e-01" purity="7.4816966056823730e-01" nType="0">
            <Node pos="l" depth="3" NCoef="0" IVar="-1" Cut="0.0000000000000000e+00" cType="1" res="2.4453676305711269e-03" rms="3.1984952092170715e-01" purity="7.1399945020675659e-01" nType="-99"/>
            <Node pos="r" depth="3" NCoef="0" IVar="-1" Cut="0.0000000000000000e+00" cType="1" res="1.2679270002990961e-03" rms="2.3846459388732910e-01" purity="7.5281202793121338e-01" nType="-99"/>
          </Node>
          <Node pos="r" depth="2" NCoef="0" IVar="3" Cut="8.9864828125000000e+04" cType="1" res="4.3411664664745331e-03" rms="2.6455762982368469e-01" purity="7.2149455547332764e-01" nType="0">
            <Node pos="l" depth="3" NCoef="0" IVar="-1" Cut="0.0000000000000000e+00" cType="1" res="-1.7560649430379272e-03" rms="3.2887572050094604e-01" purity="4.7200471162796021e-01" nType="-99"/>
            <Node pos="r" depth="3" NCoef="0" IVar="-1" Cut="0.0000000000000000e+00" cType="1" res="1.4462254475802183e-03" rms="1.6160216927528381e-01" purity="9.7173565626144409e-01" nType="-99"/>
          </Node>
        </Node>
      </Node>
    </BinaryTree>
    <BinaryTree type="DecisionTree" boostWeight="1.0000000000000000e+00" itree="656">
      <Node pos="s" depth="0" NCoef="0" IVar="4" Cut="4.9656746875000000e+05" cType="1" res="3.8087207823991776e-02" rms="2.6263743638992310e-01" purity="5.1507574319839478e-01" nType="0">
        <Node pos="l" depth="1" NCoef="0" IVar="3" Cut="2.1253945312500000e+04" cType="1" res="2.9035845771431923e-02" rms="2.6101005077362061e-01" purity="4.3176540732383728e-01" nType="0">
          <Node pos="l" depth="2" NCoef="0" IVar="5" Cut="8.8763484375000000e+04" cType="1" res="-3.9475075900554657e-03" rms="1.8917699158191681e-01" purity="5.6737728416919708e-02" nType="0">
            <Node pos="l" depth="3" NCoef="0" IVar="-1" Cut="0.0000000000000000e+00" cType="1" res="2.5513155851513147e-03" rms="2.7920693159103394e-01" purity="1.8646022677421570e-01" nType="-99"/>
            <Node pos="r" depth="3" NCoef="0" IVar="-1" Cut="0.0000000000000000e+00" cType="1" res="-7.5331330299377441e-03" rms="1.5801018476486206e-01" purity="2.6192001998424530e-02" nType="-99"/>
          </Node>
          <Node pos="r" depth="2" NCoef="0" IVar="2" Cut="1.6810053125000000e+05" cType="1" res="4.6336948871612549e-02" rms="2.9020515084266663e-01" purity="6.2848263978958130e-01" nType="0">
            <Node pos="l" depth="3" NCoef="0" IVar="-1" Cut="0.0000000000000000e+00" cType="1" res="-2.2598623763769865e-03" rms="2.7892228960990906e-01" purity="5.2734243869781494e-01" nType="-99"/>
            <Node pos="r" depth="3" NCoef="0" IVar="-1" Cut="0.0000000000000000e+00" cType="1" res="1.0621366091072559e-03" rms="2.8966507315635681e-01" purity="6.3359045982360840e-01" nType="-99"/>
          </Node>
        </Node>
        <Node pos="r" depth="1" NCoef="0" IVar="2" Cut="6.3970162500000000e+05" cType="1" res="7.1923285722732544e-02" rms="2.6591894030570984e-01" purity="8.2650887966156006e-01" nType="0">
          <Node pos="l" depth="2" NCoef="0" IVar="3" Cut="4.5479445312500000e+04" cType="1" res="9.4270296394824982e-02" rms="2.6543128490447998e-01" purity="8.2593458890914917e-01" nType="0">
            <Node pos="l" depth="3" NCoef="0" IVar="-1" Cut="0.0000000000000000e+00" cType="1" res="1.1971578933298588e-03" rms="3.6061659455299377e-01" purity="5.9861069917678833e-01" nType="-99"/>
            <Node pos="r" depth="3" NCoef="0" IVar="-1" Cut="0.0000000000000000e+00" cType="1" res="1.0670593474060297e-03" rms="1.9487825036048889e-01" purity="9.3942254781723022e-01" nType="-99"/>
          </Node>
          <Node pos="r" depth="2" NCoef="0" IVar="-1" Cut="0.0000000000000000e+00" cType="1" res="-3.0010565751581453e-05" rms="2.5415536761283875e-01" purity="8.2838541269302368e-01" nType="-99"/>
        </Node>
      </Node>
    </BinaryTree>
    <BinaryTree type="DecisionTree" boostWeight="1.0000000000000000e+00" itree="657">
      <Node pos="s" depth="0" NCoef="0" IVar="4" Cut="4.7155859375000000e+05" cType="1" res="3.5997468978166580e-02" rms="2.5963762402534485e-01" purity="4.9936386942863464e-01" nType="0">
        <Node pos="l" depth="1" NCoef="0" IVar="3" Cut="7.2344179687500000e+04" cType="1" res="2.0310325548052788e-02" rms="2.5832542777061462e-01" purity="3.8913512229919434e-01" nType="0">
          <Node pos="l" depth="2" NCoef="0" IVar="3" Cut="5.5169156250000000e+04" cType="1" res="6.5598399378359318e-03" rms="2.7692213654518127e-01" purity="2.2898846864700317e-01" nType="0">
            <Node pos="l" depth="3" NCoef="0" IVar="-1" Cut="0.0000000000000000e+00" cType="1" res="6.6273409174755216e-04" rms="2.6794752478599548e-01" purity="1.9204659759998322e-01" nType="-99"/>
            <Node pos="r" depth="3" NCoef="0" IVar="-1" Cut="0.0000000000000000e+00" cType="1" res="-1.0922893416136503e-03" rms="3.6488172411918640e-01" purity="6.8873280286788940e-01" nType="-99"/>
          </Node>
          <Node pos="r" depth="2" NCoef="0" IVar="4" Cut="2.3317289062500000e+05" cType="1" res="6.9982662796974182e-02" rms="1.6620574891567230e-01" purity="9.6764957904815674e-01" nType="0">
            <Node pos="l" depth="3" NCoef="0" IVar="-1" Cut="0.0000000000000000e+00" cType="1" res="1.2105996720492840e-03" rms="1.7506518959999084e-01" purity="9.6365952491760254e-01" nType="-99"/>
            <Node pos="r" depth="3" NCoef="0" IVar="-1" Cut="0.0000000000000000e+00" cType="1" res="1.0689331684261560e-03" rms="1.6179032623767853e-01" purity="9.6922069787979126e-01" nType="-99"/>
          </Node>
        </Node>
        <Node pos="r" depth="1" NCoef="0" IVar="2" Cut="5.2082571875000000e+05" cType="1" res="8.3785586059093475e-02" rms="2.5777664780616760e-01" purity="8.3515644073486328e-01" nType="0">
          <Node pos="l" depth="2" NCoef="0" IVar="3" Cut="2.9425400390625000e+04" cType="1" res="1.0838356614112854e-01" rms="2.6887261867523193e-01" purity="8.4482902288436890e-01" nType="0">
            <Node pos="l" depth="3" NCoef="0" IVar="-1" Cut="0.0000000000000000e+00" cType="1" res="1.2040774337947369e-02" rms="4.8172906041145325e-01" purity="4.8195710778236389e-01" nType="-99"/>
            <Node pos="r" depth="3" NCoef="0" IVar="-1" Cut="0.0000000000000000e+00" cType="1" res="1.1866097338497639e-03" rms="1.9825422763824463e-01" purity="9.0626662969589233e-01" nType="-99"/>
          </Node>
          <Node pos="r" depth="2" NCoef="0" IVar="3" Cut="5.0791949218750000e+04" cType="1" res="3.1268250197172165e-02" rms="2.2343343496322632e-01" purity="8.1450515985488892e-01" nType="0">
            <Node pos="l" depth="3" NCoef="0" IVar="-1" Cut="0.0000000000000000e+00" cType="1" res="-1.1497851664898917e-04" rms="2.7205365896224976e-01" purity="5.4041594266891479e-01" nType="-99"/>
            <Node pos="r" depth="3" NCoef="0" IVar="-1" Cut="0.0000000000000000e+00" cType="1" res="1.4673840487375855e-03" rms="1.9188031554222107e-01" purity="9.5248538255691528e-01" nType="-99"/>
          </Node>
        </Node>
      </Node>
    </BinaryTree>
    <BinaryTree type="DecisionTree" boostWeight="1.0000000000000000e+00" itree="658">
      <Node pos="s" depth="0" NCoef="0" IVar="1" Cut="1.0034389062500000e+05" cType="1" res="3.5406645387411118e-02" rms="2.6028445363044739e-01" purity="5.0409489870071411e-01" nType="0">
        <Node pos="l" depth="1" NCoef="0" IVar="1" Cut="7.5101289062500000e+04" cType="1" res="1.8253214657306671e-02" rms="2.6939296722412109e-01" purity="3.0517256259918213e-01" nType="0">
          <Node pos="l" depth="2" NCoef="0" IVar="1" Cut="3.9033335937500000e+04" cType="1" res="7.7896274626255035e-02" rms="3.5349103808403015e-01" purity="6.6711843013763428e-01" nType="0">
            <Node pos="l" depth="3" NCoef="0" IVar="-1" Cut="0.0000000000000000e+00" cType="1" res="6.9718211307190359e-05" rms="3.4051704406738281e-01" purity="4.5516404509544373e-01" nType="-99"/>
            <Node pos="r" depth="3" NCoef="0" IVar="-1" Cut="0.0000000000000000e+00" cType="1" res="1.6825452912598848e-03" rms="3.5401910543441772e-01" purity="7.5092893838882446e-01" nType="-99"/>
          </Node>
          <Node pos="r" depth="2" NCoef="0" IVar="5" Cut="8.5948195312500000e+04" cType="1" res="-1.1667295359075069e-02" rms="2.0884008705615997e-01" purity="1.2359900027513504e-01" nType="0">
            <Node pos="l" depth="3" NCoef="0" IVar="-1" Cut="0.0000000000000000e+00" cType="1" res="3.4022880718111992e-03" rms="2.8935521841049194e-01" purity="4.5472630858421326e-01" nType="-99"/>
            <Node pos="r" depth="3" NCoef="0" IVar="-1" Cut="0.0000000000000000e+00" cType="1" res="-1.6429136740043759e-03" rms="2.0453378558158875e-01" purity="1.1386707425117493e-01" nType="-99"/>
          </Node>
        </Node>
        <Node pos="r" depth="1" NCoef="0" IVar="4" Cut="4.0494265625000000e+05" cType="1" res="6.6165909171104431e-02" rms="2.4004763364791870e-01" purity="8.6079937219619751e-01" nType="0">
          <Node pos="l" depth="2" NCoef="0" IVar="2" Cut="3.6401834375000000e+05" cType="1" res="8.1104867160320282e-02" rms="2.6682347059249878e-01" purity="7.9866158962249756e-01" nType="0">
            <Node pos="l" depth="3" NCoef="0" IVar="-1" Cut="0.0000000000000000e+00" cType="1" res="7.5955624924972653e-04" rms="3.1130120158195496e-01" purity="6.8813627958297729e-01" nType="-99"/>
            <Node pos="r" depth="3" NCoef="0" IVar="-1" Cut="0.0000000000000000e+00" cType="1" res="7.1878853486850858e-04" rms="1.8837215006351471e-01" purity="9.3235075473785400e-01" nType="-99"/>
          </Node>
          <Node pos="r" depth="2" NCoef="0" IVar="3" Cut="6.9230070312500000e+04" cType="1" res="4.8997394740581512e-02" rms="2.0365214347839355e-01" purity="9.3221080303192139e-01" nType="0">
            <Node pos="l" depth="3" NCoef="0" IVar="-1" Cut="0.0000000000000000e+00" cType="1" res="1.9793985120486468e-04" rms="3.1196087598800659e-01" purity="8.2304108142852783e-01" nType="-99"/>
            <Node pos="r" depth="3" NCoef="0" IVar="-1" Cut="0.0000000000000000e+00" cType="1" res="1.7793230945244431e-03" rms="1.0807108134031296e-01" purity="9.8812770843505859e-01" nType="-99"/>
          </Node>
        </Node>
      </Node>
    </BinaryTree>
    <BinaryTree type="DecisionTree" boostWeight="1.0000000000000000e+00" itree="659">
      <Node pos="s" depth="0" NCoef="0" IVar="1" Cut="1.0034389062500000e+05" cType="1" res="3.4765351563692093e-02" rms="2.6034736633300781e-01" purity="5.0465190410614014e-01" nType="0">
        <Node pos="l" depth="1" NCoef="0" IVar="1" Cut="8.3512921875000000e+04" cType="1" res="1.8217323347926140e-02" rms="2.5663492083549500e-01" purity="3.1843200325965881e-01" nType="0">
          <Node pos="l" depth="2" NCoef="0" IVar="4" Cut="1.4427109375000000e+05" cType="1" res="5.1117416471242905e-02" rms="3.1035032868385315e-01" purity="5.9229159355163574e-01" nType="0">
            <Node pos="l" depth="3" NCoef="0" IVar="-1" Cut="0.0000000000000000e+00" cType="1" res="-3.1778889242559671e-03" rms="2.8093028068542480e-01" purity="1.2764158844947815e-01" nType="-99"/>
            <Node pos="r" depth="3" NCoef="0" IVar="-1" Cut="0.0000000000000000e+00" cType="1" res="1.2374392244964838e-03" rms="3.1197983026504517e-01" purity="6.4303433895111084e-01" nType="-99"/>
          </Node>
          <Node pos="r" depth="2" NCoef="0" IVar="1" Cut="9.7134804687500000e+04" cType="1" res="-6.3598463311791420e-03" rms="2.0419986546039581e-01" purity="1.1385223269462585e-01" nType="0">
            <Node pos="l" depth="3" NCoef="0" IVar="-1" Cut="0.0000000000000000e+00" cType="1" res="-1.4618682907894254e-03" rms="1.9698064029216766e-01" purity="8.9812345802783966e-02" nType="-99"/>
            <Node pos="r" depth="3" NCoef="0" IVar="-1" Cut="0.0000000000000000e+00" cType="1" res="2.5003904011100531e-03" rms="2.5737932324409485e-01" purity="3.6320957541465759e-01" nType="-99"/>
          </Node>
        </Node>
        <Node pos="r" depth="1" NCoef="0" IVar="5" Cut="9.2570156250000000e+04" cType="1" res="6.5224140882492065e-02" rms="2.6435133814811707e-01" purity="8.4741383790969849e-01" nType="0">
          <Node pos="l" depth="2" NCoef="0" IVar="3" Cut="4.8128960937500000e+04" cType="1" res="5.5587686598300934e-02" rms="2.4477416276931763e-01" purity="8.5077875852584839e-01" nType="0">
            <Node pos="l" depth="3" NCoef="0" IVar="-1" Cut="0.0000000000000000e+00" cType="1" res="2.7473134105093777e-04" rms="3.4984603524208069e-01" purity="6.3941138982772827e-01" nType="-99"/>
            <Node pos="r" depth="3" NCoef="0" IVar="-1" Cut="0.0000000000000000e+00" cType="1" res="1.2899631401523948e-03" rms="1.4771832525730133e-01" purity="9.7688490152359009e-01" nType="-99"/>
          </Node>
          <Node pos="r" depth="2" NCoef="0" IVar="4" Cut="2.7075728125000000e+05" cType="1" res="1.0141856223344803e-01" rms="3.2505333423614502e-01" purity="8.3477526903152466e-01" nType="0">
            <Node pos="l" depth="3" NCoef="0" IVar="-1" Cut="0.0000000000000000e+00" cType="1" res="4.2663700878620148e-03" rms="4.6953949332237244e-01" purity="6.7320531606674194e-01" nType="-99"/>
            <Node pos="r" depth="3" NCoef="0" IVar="-1" Cut="0.0000000000000000e+00" cType="1" res="8.1433833111077547e-04" rms="2.5086772441864014e-01" purity="8.8741391897201538e-01" nType="-99"/>
          </Node>
        </Node>
      </Node>
    </BinaryTree>
    <BinaryTree type="DecisionTree" boostWeight="1.0000000000000000e+00" itree="660">
      <Node pos="s" depth="0" NCoef="0" IVar="4" Cut="2.6811059375000000e+05" cType="1" res="3.9645180106163025e-02" rms="2.7285918593406677e-01" purity="4.9889254570007324e-01" nType="0">
        <Node pos="l" depth="1" NCoef="0" IVar="3" Cut="7.0629578125000000e+04" cType="1" res="1.6212219372391701e-02" rms="2.5870558619499207e-01" purity="3.0032780766487122e-01" nType="0">
          <Node pos="l" depth="2" NCoef="0" IVar="4" Cut="2.5832670312500000e+05" cType="1" res="5.1411027088761330e-03" rms="2.6769655942916870e-01" purity="1.7183090746402740e-01" nType="0">
            <Node pos="l" depth="3" NCoef="0" IVar="-1" Cut="0.0000000000000000e+00" cType="1" res="-1.4757864119019359e-04" rms="2.6305794715881348e-01" purity="1.4879852533340454e-01" nType="-99"/>
            <Node pos="r" depth="3" NCoef="0" IVar="-1" Cut="0.0000000000000000e+00" cType="1" res="1.9686999730765820e-03" rms="3.0941447615623474e-01" purity="5.1116269826889038e-01" nType="-99"/>
          </Node>
          <Node pos="r" depth="2" NCoef="0" IVar="4" Cut="2.1631937500000000e+05" cType="1" res="7.2671540081501007e-02" rms="1.9743275642395020e-01" purity="9.5562309026718140e-01" nType="0">
            <Node pos="l" depth="3" NCoef="0" IVar="-1" Cut="0.0000000000000000e+00" cType="1" res="1.4914211351424456e-03" rms="1.9016191363334656e-01" purity="9.5911037921905518e-01" nType="-99"/>
            <Node pos="r" depth="3" NCoef="0" IVar="-1" Cut="0.0000000000000000e+00" cType="1" res="7.8599515836685896e-04" rms="2.0172883570194244e-01" purity="9.5234274864196777e-01" nType="-99"/>
          </Node>
        </Node>
        <Node pos="r" depth="1" NCoef="0" IVar="1" Cut="1.0045707812500000e+05" cType="1" res="6.2500461935997009e-02" rms="2.8413429856300354e-01" purity="6.9256204366683960e-01" nType="0">
          <Node pos="l" depth="2" NCoef="0" IVar="1" Cut="9.2023734375000000e+04" cType="1" res="4.4174298644065857e-02" rms="2.9986703395843506e-01" purity="4.9685797095298767e-01" nType="0">
            <Node pos="l" depth="3" NCoef="0" IVar="-1" Cut="0.0000000000000000e+00" cType="1" res="1.7026196001097560e-03" rms="3.1571674346923828e-01" purity="5.7812666893005371e-01" nType="-99"/>
            <Node pos="r" depth="3" NCoef="0" IVar="-1" Cut="0.0000000000000000e+00" cType="1" res="-1.2137354351580143e-03" rms="2.1517027914524078e-01" purity="2.0927442610263824e-01" nType="-99"/>
          </Node>
          <Node pos="r" depth="2" NCoef="0" IVar="4" Cut="3.5866640625000000e+05" cType="1" res="8.1821613013744354e-02" rms="2.6517564058303833e-01" purity="8.9889162778854370e-01" nType="0">
            <Node pos="l" depth="3" NCoef="0" IVar="-1" Cut="0.0000000000000000e+00" cType="1" res="7.6076504774391651e-04" rms="2.9376646876335144e-01" purity="8.5812097787857056e-01" nType="-99"/>
            <Node pos="r" depth="3" NCoef="0" IVar="-1" Cut="0.0000000000000000e+00" cType="1" res="1.1722729541361332e-03" rms="2.4854028224945068e-01" purity="9.1617482900619507e-01" nType="-99"/>
          </Node>
        </Node>
      </Node>
    </BinaryTree>
    <BinaryTree type="DecisionTree" boostWeight="1.0000000000000000e+00" itree="661">
      <Node pos="s" depth="0" NCoef="0" IVar="1" Cut="1.3173490625000000e+05" cType="1" res="3.0645197257399559e-02" rms="2.5339791178703308e-01" purity="4.9290004372596741e-01" nType="0">
        <Node pos="l" depth="1" NCoef="0" IVar="1" Cut="1.1457659375000000e+05" cType="1" res="1.9664222374558449e-02" rms="2.6040798425674438e-01" purity="3.6260527372360229e-01" nType="0">
          <Node pos="l" depth="2" NCoef="0" IVar="1" Cut="8.5261820312500000e+04" cType="1" res="1.3188970275223255e-02" rms="2.5347888469696045e-01" purity="3.3031091094017029e-01" nType="0">
            <Node pos="l" depth="3" NCoef="0" IVar="-1" Cut="0.0000000000000000e+00" cType="1" res="1.0446865344420075e-03" rms="3.0442178249359131e-01" purity="5.3140771389007568e-01" nType="-99"/>
            <Node pos="r" depth="3" NCoef="0" IVar="-1" Cut="0.0000000000000000e+00" cType="1" res="-2.8474500868469477e-04" rms="2.0819608867168427e-01" purity="1.8764001131057739e-01" nType="-99"/>
          </Node>
          <Node pos="r" depth="2" NCoef="0" IVar="-1" Cut="0.0000000000000000e+00" cType="1" res="1.8901873845607042e-03" rms="3.3237054944038391e-01" purity="8.3720600605010986e-01" nType="-99"/>
        </Node>
        <Node pos="r" depth="1" NCoef="0" IVar="4" Cut="5.1075596875000000e+05" cType="1" res="6.7108847200870514e-02" rms="2.2476698458194733e-01" purity="9.2555952072143555e-01" nType="0">
          <Node pos="l" depth="2" NCoef="0" IVar="3" Cut="4.8230589843750000e+04" cType="1" res="5.3896710276603699e-02" rms="2.6006886363029480e-01" purity="8.9181661605834961e-01" nType="0">
            <Node pos="l" depth="3" NCoef="0" IVar="-1" Cut="0.0000000000000000e+00" cType="1" res="3.2635874231345952e-04" rms="3.7533864378929138e-01" purity="7.5276970863342285e-01" nType="-99"/>
            <Node pos="r" depth="3" NCoef="0" IVar="-1" Cut="0.0000000000000000e+00" cType="1" res="1.5421699499711394e-03" rms="1.4342041313648224e-01" purity="9.7905856370925903e-01" nType="-99"/>
          </Node>
          <Node pos="r" depth="2" NCoef="0" IVar="-1" Cut="0.0000000000000000e+00" cType="1" res="1.3014775468036532e-03" rms="1.6373670101165771e-01" purity="9.7120863199234009e-01" nType="-99"/>
        </Node>
      </Node>
    </BinaryTree>
    <BinaryTree type="DecisionTree" boostWeight="1.0000000000000000e+00" itree="662">
      <Node pos="s" depth="0" NCoef="0" IVar="4" Cut="4.1991659375000000e+05" cType="1" res="4.7587253153324127e-02" rms="2.6791805028915405e-01" purity="5.0924050807952881e-01" nType="0">
        <Node pos="l" depth="1" NCoef="0" IVar="5" Cut="8.7854750000000000e+04" cType="1" res="3.4116029739379883e-02" rms="2.6706087589263916e-01" purity="3.9360654354095459e-01" nType="0">
          <Node pos="l" depth="2" NCoef="0" IVar="1" Cut="6.8260937500000000e+04" cType="1" res="-3.6792762577533722e-02" rms="2.8384691476821899e-01" purity="3.9960014820098877e-01" nType="0">
            <Node pos="l" depth="3" NCoef="0" IVar="-1" Cut="0.0000000000000000e+00" cType="1" res="-1.1756045743823051e-02" rms="3.2353943586349487e-01" purity="2.2551262378692627e-01" nType="-99"/>
            <Node pos="r" depth="3" NCoef="0" IVar="-1" Cut="0.0000000000000000e+00" cType="1" res="2.0276331633795053e-04" rms="2.5497418642044067e-01" purity="4.4786211848258972e-01" nType="-99"/>
          </Node>
          <Node pos="r" depth="2" NCoef="0" IVar="1" Cut="7.9711078125000000e+04" cType="1" res="4.2190238833427429e-02" rms="2.6387646794319153e-01" purity="3.9292407035827637e-01" nType="0">
            <Node pos="l" depth="3" NCoef="0" IVar="-1" Cut="0.0000000000000000e+00" cType="1" res="1.9084905507043004e-03" rms="3.3427816629409790e-01" purity="6.3666695356369019e-01" nType="-99"/>
            <Node pos="r" depth="3" NCoef="0" IVar="-1" Cut="0.0000000000000000e+00" cType="1" res="6.7019689595326781e-04" rms="2.3111817240715027e-01" purity="3.0886417627334595e-01" nType="-99"/>
          </Node>
        </Node>
        <Node pos="r" depth="1" NCoef="0" IVar="2" Cut="5.1827362500000000e+05" cType="1" res="8.3195395767688751e-02" rms="2.6691678166389465e-01" purity="8.1489270925521851e-01" nType="0">
          <Node pos="l" depth="2" NCoef="0" IVar="2" Cut="4.4119318750000000e+05" cType="1" res="1.0237175971269608e-01" rms="2.8113999962806702e-01" purity="8.1440669298171997e-01" nType="0">
            <Node pos="l" depth="3" NCoef="0" IVar="-1" Cut="0.0000000000000000e+00" cType="1" res="1.1786032700911164e-03" rms="2.5220713019371033e-01" purity="8.0877894163131714e-01" nType="-99"/>
            <Node pos="r" depth="3" NCoef="0" IVar="-1" Cut="0.0000000000000000e+00" cType="1" res="1.3446018565446138e-03" rms="3.4703525900840759e-01" purity="8.3399617671966553e-01" nType="-99"/>
          </Node>
          <Node pos="r" depth="2" NCoef="0" IVar="1" Cut="1.0707817187500000e+05" cType="1" res="4.2881894856691360e-02" rms="2.2903928160667419e-01" purity="8.1591457128524780e-01" nType="0">
            <Node pos="l" depth="3" NCoef="0" IVar="-1" Cut="0.0000000000000000e+00" cType="1" res="-3.0552018433809280e-03" rms="3.0611240863800049e-01" purity="2.1911424398422241e-01" nType="-99"/>
            <Node pos="r" depth="3" NCoef="0" IVar="-1" Cut="0.0000000000000000e+00" cType="1" res="1.6797966090962291e-03" rms="2.0034310221672058e-01" purity="9.4794845581054688e-01" nType="-99"/>
          </Node>
        </Node>
      </Node>
    </BinaryTree>
    <BinaryTree type="DecisionTree" boostWeight="1.0000000000000000e+00" itree="663">
      <Node pos="s" depth="0" NCoef="0" IVar="5" Cut="9.3522914062500000e+04" cType="1" res="3.5407699644565582e-02" rms="2.7731436491012573e-01" purity="4.8261424899101257e-01" nType="0">
        <Node pos="l" depth="1" NCoef="0" IVar="5" Cut="8.9422125000000000e+04" cType="1" res="2.7894232422113419e-02" rms="2.6939550042152405e-01" purity="4.6053585410118103e-01" nType="0">
          <Node pos="l" depth="2" NCoef="0" IVar="4" Cut="2.8745337500000000e+05" cType="1" res="6.1009950935840607e-02" rms="2.9974129796028137e-01" purity="5.9949773550033569e-01" nType="0">
            <Node pos="l" depth="3" NCoef="0" IVar="-1" Cut="0.0000000000000000e+00" cType="1" res="1.1223654728382826e-03" rms="3.1241920590400696e-01" purity="3.8956731557846069e-01" nType="-99"/>
            <Node pos="r" depth="3" NCoef="0" IVar="-1" Cut="0.0000000000000000e+00" cType="1" res="9.3458668561652303e-04" rms="2.8261604905128479e-01" purity="8.1376868486404419e-01" nType="-99"/>
          </Node>
          <Node pos="r" depth="2" NCoef="0" IVar="3" Cut="9.7992015625000000e+04" cType="1" res="1.0498055256903172e-02" rms="2.5024497509002686e-01" purity="3.8753718137741089e-01" nType="0">
            <Node pos="l" depth="3" NCoef="0" IVar="-1" Cut="0.0000000000000000e+00" cType="1" res="-2.9776630981359631e-05" rms="2.6599642634391785e-01" purity="2.6414826512336731e-01" nType="-99"/>
            <Node pos="r" depth="3" NCoef="0" IVar="-1" Cut="0.0000000000000000e+00" cType="1" res="1.6529505373910069e-03" rms="1.4234185218811035e-01" purity="9.7822403907775879e-01" nType="-99"/>
          </Node>
        </Node>
        <Node pos="r" depth="1" NCoef="0" IVar="5" Cut="9.3883718750000000e+04" cType="1" res="8.2490533590316772e-02" rms="3.1853151321411133e-01" purity="6.2096774578094482e-01" nType="0">
          <Node pos="l" depth="2" NCoef="0" IVar="5" Cut="9.3677421875000000e+04" cType="1" res="2.2039955854415894e-01" rms="3.7640351057052612e-01" purity="6.8071973323822021e-01" nType="0">
            <Node pos="l" depth="3" NCoef="0" IVar="-1" Cut="0.0000000000000000e+00" cType="1" res="2.0808957051485777e-03" rms="3.6083313822746277e-01" purity="7.7042835950851440e-01" nType="-99"/>
            <Node pos="r" depth="3" NCoef="0" IVar="-1" Cut="0.0000000000000000e+00" cType="1" res="4.4706286862492561e-03" rms="3.8467457890510559e-01" purity="4.8135015368461609e-01" nType="-99"/>
          </Node>
          <Node pos="r" depth="2" NCoef="0" IVar="0" Cut="1.1428571939468384e+00" cType="1" res="3.3510390669107437e-02" rms="2.7932915091514587e-01" purity="5.9974604845046997e-01" nType="0">
            <Node pos="l" depth="3" NCoef="0" IVar="-1" Cut="0.0000000000000000e+00" cType="1" res="1.2857540277764201e-03" rms="2.8275939822196960e-01" purity="5.7078629732131958e-01" nType="-99"/>
            <Node pos="r" depth="3" NCoef="0" IVar="-1" Cut="0.0000000000000000e+00" cType="1" res="-1.1943478602916002e-03" rms="2.5544360280036926e-01" purity="6.9668292999267578e-01" nType="-99"/>
          </Node>
        </Node>
      </Node>
    </BinaryTree>
    <BinaryTree type="DecisionTree" boostWeight="1.0000000000000000e+00" itree="664">
      <Node pos="s" depth="0" NCoef="0" IVar="3" Cut="6.8736484375000000e+04" cType="1" res="3.0304638668894768e-02" rms="2.5369253754615784e-01" purity="5.1356160640716553e-01" nType="0">
        <Node pos="l" depth="1" NCoef="0" IVar="3" Cut="2.6217947265625000e+04" cType="1" res="1.6064496710896492e-02" rms="2.7777501940727234e-01" purity="3.0895131826400757e-01" nType="0">
          <Node pos="l" depth="2" NCoef="0" IVar="3" Cut="1.8736990234375000e+04" cType="1" res="-6.0727531090378761e-03" rms="2.1654257178306580e-01" purity="8.1194490194320679e-02" nType="0">
            <Node pos="l" depth="3" NCoef="0" IVar="-1" Cut="0.0000000000000000e+00" cType="1" res="9.1282807989045978e-04" rms="2.1185031533241272e-01" purity="7.3711276054382324e-02" nType="-99"/>
            <Node pos="r" depth="3" NCoef="0" IVar="-1" Cut="0.0000000000000000e+00" cType="1" res="-4.1762161999940872e-03" rms="2.2598017752170563e-01" purity="1.0186648368835449e-01" nType="-99"/>
          </Node>
          <Node pos="r" depth="2" NCoef="0" IVar="2" Cut="2.7406700000000000e+05" cType="1" res="3.9172749966382980e-02" rms="3.2819101214408875e-01" purity="5.4669815301895142e-01" nType="0">
            <Node pos="l" depth="3" NCoef="0" IVar="-1" Cut="0.0000000000000000e+00" cType="1" res="2.7819952811114490e-04" rms="3.3322319388389587e-01" purity="3.7993714213371277e-01" nType="-99"/>
            <Node pos="r" depth="3" NCoef="0" IVar="-1" Cut="0.0000000000000000e+00" cType="1" res="1.0276847751811147e-03" rms="3.2230660319328308e-01" purity="6.8050086498260498e-01" nType="-99"/>
          </Node>
        </Node>
        <Node pos="r" depth="1" NCoef="0" IVar="5" Cut="8.8725835937500000e+04" cType="1" res="6.1473466455936432e-02" rms="1.8689559400081635e-01" purity="9.6141272783279419e-01" nType="0">
          <Node pos="l" depth="2" NCoef="0" IVar="-1" Cut="0.0000000000000000e+00" cType="1" res="6.4000638667494059e-04" rms="2.3007723689079285e-01" purity="9.4275027513504028e-01" nType="-99"/>
          <Node pos="r" depth="2" NCoef="0" IVar="0" Cut="3.8095238804817200e-01" cType="1" res="6.9945931434631348e-02" rms="1.7031329870223999e-01" purity="9.6723943948745728e-01" nType="0">
            <Node pos="l" depth="3" NCoef="0" IVar="-1" Cut="0.0000000000000000e+00" cType="1" res="1.7103578429669142e-03" rms="1.3475763797760010e-01" purity="9.7941517829895020e-01" nType="-99"/>
            <Node pos="r" depth="3" NCoef="0" IVar="-1" Cut="0.0000000000000000e+00" cType="1" res="1.2781352270394564e-03" rms="1.8480846285820007e-01" purity="9.6139472723007202e-01" nType="-99"/>
          </Node>
        </Node>
      </Node>
    </BinaryTree>
    <BinaryTree type="DecisionTree" boostWeight="1.0000000000000000e+00" itree="665">
      <Node pos="s" depth="0" NCoef="0" IVar="3" Cut="5.4312500000000000e+04" cType="1" res="3.0500747263431549e-02" rms="2.5678238272666931e-01" purity="4.9475833773612976e-01" nType="0">
        <Node pos="l" depth="1" NCoef="0" IVar="3" Cut="5.1733367187500000e+04" cType="1" res="1.3612823560833931e-02" rms="2.7268993854522705e-01" purity="2.3817995190620422e-01" nType="0">
          <Node pos="l" depth="2" NCoef="0" IVar="1" Cut="1.3640723437500000e+05" cType="1" res="5.8238757774233818e-03" rms="2.6637852191925049e-01" purity="2.1166545152664185e-01" nType="0">
            <Node pos="l" depth="3" NCoef="0" IVar="-1" Cut="0.0000000000000000e+00" cType="1" res="-1.1974338121945038e-04" rms="2.4987925589084625e-01" purity="1.2035668641328812e-01" nType="-99"/>
            <Node pos="r" depth="3" NCoef="0" IVar="-1" Cut="0.0000000000000000e+00" cType="1" res="7.9661438940092921e-04" rms="3.5300257802009583e-01" purity="8.1711667776107788e-01" nType="-99"/>
          </Node>
          <Node pos="r" depth="2" NCoef="0" IVar="-1" Cut="0.0000000000000000e+00" cType="1" res="1.6390732489526272e-03" rms="3.4468969702720642e-01" purity="8.3379036188125610e-01" nType="-99"/>
        </Node>
        <Node pos="r" depth="1" NCoef="0" IVar="5" Cut="9.4434929687500000e+04" cType="1" res="5.8915589004755020e-02" rms="2.2467403113842010e-01" purity="9.2646527290344238e-01" nType="0">
          <Node pos="l" depth="2" NCoef="0" IVar="0" Cut="2.2857143878936768e+00" cType="1" res="5.2717637270689011e-02" rms="2.3113051056861877e-01" purity="9.1962826251983643e-01" nType="0">
            <Node pos="l" depth="3" NCoef="0" IVar="-1" Cut="0.0000000000000000e+00" cType="1" res="8.5474649677053094e-04" rms="2.2478987276554108e-01" purity="9.2390692234039307e-01" nType="-99"/>
            <Node pos="r" depth="3" NCoef="0" IVar="-1" Cut="0.0000000000000000e+00" cType="1" res="9.0354216808918864e-05" rms="2.6577144861221313e-01" purity="8.9001995325088501e-01" nType="-99"/>
          </Node>
          <Node pos="r" depth="2" NCoef="0" IVar="-1" Cut="0.0000000000000000e+00" cType="1" res="1.4849108410999179e-03" rms="1.7567974328994751e-01" purity="9.6817022562026978e-01" nType="-99"/>
        </Node>
      </Node>
    </BinaryTree>
    <BinaryTree type="DecisionTree" boostWeight="1.0000000000000000e+00" itree="666">
      <Node pos="s" depth="0" NCoef="0" IVar="1" Cut="1.0034389062500000e+05" cType="1" res="2.7269626036286354e-02" rms="2.6692822575569153e-01" purity="4.7278726100921631e-01" nType="0">
        <Node pos="l" depth="1" NCoef="0" IVar="1" Cut="8.3506250000000000e+04" cType="1" res="5.7870782911777496e-03" rms="2.5319069623947144e-01" purity="2.8858965635299683e-01" nType="0">
          <Node pos="l" depth="2" NCoef="0" IVar="1" Cut="3.9241875000000000e+04" cType="1" res="5.1818244159221649e-02" rms="3.2984468340873718e-01" purity="5.7514280080795288e-01" nType="0">
            <Node pos="l" depth="3" NCoef="0" IVar="-1" Cut="0.0000000000000000e+00" cType="1" res="-1.6563273966312408e-03" rms="3.2514500617980957e-01" purity="4.0231516957283020e-01" nType="-99"/>
            <Node pos="r" depth="3" NCoef="0" IVar="-1" Cut="0.0000000000000000e+00" cType="1" res="1.8455281388014555e-03" rms="3.2589447498321533e-01" purity="6.2482208013534546e-01" nType="-99"/>
          </Node>
          <Node pos="r" depth="2" NCoef="0" IVar="3" Cut="3.8026937500000000e+04" cType="1" res="-2.7431827038526535e-02" rms="1.7093989253044128e-01" purity="8.1795431673526764e-02" nType="0">
            <Node pos="l" depth="3" NCoef="0" IVar="-1" Cut="0.0000000000000000e+00" cType="1" res="-1.2914642691612244e-02" rms="1.1097657680511475e-01" purity="1.2180531397461891e-02" nType="-99"/>
            <Node pos="r" depth="3" NCoef="0" IVar="-1" Cut="0.0000000000000000e+00" cType="1" res="-3.5173723008483648e-03" rms="2.9401189088821411e-01" purity="3.4960311651229858e-01" nType="-99"/>
          </Node>
        </Node>
        <Node pos="r" depth="1" NCoef="0" IVar="1" Cut="1.8449092187500000e+05" cType="1" res="6.9703944027423859e-02" rms="2.8749287128448486e-01" purity="8.3663135766983032e-01" nType="0">
          <Node pos="l" depth="2" NCoef="0" IVar="1" Cut="1.3639637500000000e+05" cType="1" res="8.5755296051502228e-02" rms="3.1063461303710938e-01" purity="7.8687715530395508e-01" nType="0">
            <Node pos="l" depth="3" NCoef="0" IVar="-1" Cut="0.0000000000000000e+00" cType="1" res="1.4025524724274874e-03" rms="3.1942245364189148e-01" purity="7.4535852670669556e-01" nType="-99"/>
            <Node pos="r" depth="3" NCoef="0" IVar="-1" Cut="0.0000000000000000e+00" cType="1" res="7.3482713196426630e-04" rms="2.8671330213546753e-01" purity="8.7872517108917236e-01" nType="-99"/>
          </Node>
          <Node pos="r" depth="2" NCoef="0" IVar="4" Cut="4.2745634375000000e+05" cType="1" res="4.2372595518827438e-02" rms="2.4061912298202515e-01" purity="9.2135006189346313e-01" nType="0">
            <Node pos="l" depth="3" NCoef="0" IVar="-1" Cut="0.0000000000000000e+00" cType="1" res="2.9539447859860957e-04" rms="2.7922889590263367e-01" purity="8.8577222824096680e-01" nType="-99"/>
            <Node pos="r" depth="3" NCoef="0" IVar="-1" Cut="0.0000000000000000e+00" cType="1" res="1.2772136833518744e-03" rms="2.1104167401790619e-01" purity="9.4435751438140869e-01" nType="-99"/>
          </Node>
        </Node>
      </Node>
    </BinaryTree>
    <BinaryTree type="DecisionTree" boostWeight="1.0000000000000000e+00" itree="667">
      <Node pos="s" depth="0" NCoef="0" IVar="2" Cut="3.9480768750000000e+05" cType="1" res="3.8886468857526779e-02" rms="2.6954981684684753e-01" purity="5.0856161117553711e-01" nType="0">
        <Node pos="l" depth="1" NCoef="0" IVar="1" Cut="6.5503886718750000e+04" cType="1" res="2.8971418738365173e-02" rms="2.6975655555725098e-01" purity="4.2175799608230591e-01" nType="0">
          <Node pos="l" depth="2" NCoef="0" IVar="1" Cut="3.7438851562500000e+04" cType="1" res="6.9797426462173462e-02" rms="3.2903257012367249e-01" purity="6.7218303680419922e-01" nType="0">
            <Node pos="l" depth="3" NCoef="0" IVar="-1" Cut="0.0000000000000000e+00" cType="1" res="-2.0571112690959126e-04" rms="2.8525596857070923e-01" purity="4.4496345520019531e-01" nType="-99"/>
            <Node pos="r" depth="3" NCoef="0" IVar="-1" Cut="0.0000000000000000e+00" cType="1" res="1.9234577193856239e-03" rms="3.4186679124832153e-01" purity="7.8236901760101318e-01" nType="-99"/>
          </Node>
          <Node pos="r" depth="2" NCoef="0" IVar="1" Cut="1.0880774218750000e+05" cType="1" res="1.7173478379845619e-02" rms="2.4877840280532837e-01" purity="3.4938991069793701e-01" nType="0">
            <Node pos="l" depth="3" NCoef="0" IVar="-1" Cut="0.0000000000000000e+00" cType="1" res="1.5219005581457168e-04" rms="2.2932136058807373e-01" purity="1.9012762606143951e-01" nType="-99"/>
            <Node pos="r" depth="3" NCoef="0" IVar="-1" Cut="0.0000000000000000e+00" cType="1" res="6.6988856997340918e-04" rms="2.9666304588317871e-01" purity="8.4446364641189575e-01" nType="-99"/>
          </Node>
        </Node>
        <Node pos="r" depth="1" NCoef="0" IVar="2" Cut="4.7686462500000000e+05" cType="1" res="6.9300986826419830e-02" rms="2.6662433147430420e-01" purity="7.7483266592025757e-01" nType="0">
          <Node pos="l" depth="2" NCoef="0" IVar="2" Cut="4.2984893750000000e+05" cType="1" res="1.0425876080989838e-01" rms="2.8947889804840088e-01" purity="7.6284664869308472e-01" nType="0">
            <Node pos="l" depth="3" NCoef="0" IVar="-1" Cut="0.0000000000000000e+00" cType="1" res="1.1749957920983434e-03" rms="2.7709025144577026e-01" purity="6.7848688364028931e-01" nType="-99"/>
            <Node pos="r" depth="3" NCoef="0" IVar="-1" Cut="0.0000000000000000e+00" cType="1" res="1.2916140258312225e-03" rms="2.9249158501625061e-01" purity="8.1745153665542603e-01" nType="-99"/>
          </Node>
          <Node pos="r" depth="2" NCoef="0" IVar="1" Cut="1.5994764062500000e+05" cType="1" res="4.1107490658760071e-02" rms="2.4301820993423462e-01" purity="7.8449934720993042e-01" nType="0">
            <Node pos="l" depth="3" NCoef="0" IVar="-1" Cut="0.0000000000000000e+00" cType="1" res="-5.0004018703475595e-04" rms="2.4608302116394043e-01" purity="5.7126712799072266e-01" nType="-99"/>
            <Node pos="r" depth="3" NCoef="0" IVar="-1" Cut="0.0000000000000000e+00" cType="1" res="1.3083007652312517e-03" rms="2.3032821714878082e-01" purity="9.4530963897705078e-01" nType="-99"/>
          </Node>
        </Node>
      </Node>
    </BinaryTree>
    <BinaryTree type="DecisionTree" boostWeight="1.0000000000000000e+00" itree="668">
      <Node pos="s" depth="0" NCoef="0" IVar="1" Cut="6.9570898437500000e+04" cType="1" res="3.1349498778581619e-02" rms="2.5647693872451782e-01" purity="4.9710419774055481e-01" nType="0">
        <Node pos="l" depth="1" NCoef="0" IVar="1" Cut="6.4086300781250000e+04" cType="1" res="6.7463055253028870e-02" rms="3.1106889247894287e-01" purity="6.9940435886383057e-01" nType="0">
          <Node pos="l" depth="2" NCoef="0" IVar="1" Cut="3.9264902343750000e+04" cType="1" res="8.1442125141620636e-02" rms="3.1462830305099487e-01" purity="7.0758306980133057e-01" nType="0">
            <Node pos="l" depth="3" NCoef="0" IVar="-1" Cut="0.0000000000000000e+00" cType="1" res="8.6766289314255118e-04" rms="2.7337950468063354e-01" purity="5.8506655693054199e-01" nType="-99"/>
            <Node pos="r" depth="3" NCoef="0" IVar="-1" Cut="0.0000000000000000e+00" cType="1" res="2.1119990851730108e-03" rms="3.3768227696418762e-01" purity="7.9976099729537964e-01" nType="-99"/>
          </Node>
          <Node pos="r" depth="2" NCoef="0" IVar="-1" Cut="0.0000000000000000e+00" cType="1" res="-1.5364111168310046e-03" rms="2.5388309359550476e-01" purity="6.3335669040679932e-01" nType="-99"/>
        </Node>
        <Node pos="r" depth="1" NCoef="0" IVar="3" Cut="8.8968585937500000e+04" cType="1" res="2.1281823515892029e-02" rms="2.3807136714458466e-01" purity="4.4070732593536377e-01" nType="0">
          <Node pos="l" depth="2" NCoef="0" IVar="2" Cut="2.4590990625000000e+05" cType="1" res="9.7481282427906990e-03" rms="2.5627544522285461e-01" purity="3.0831563472747803e-01" nType="0">
            <Node pos="l" depth="3" NCoef="0" IVar="-1" Cut="0.0000000000000000e+00" cType="1" res="-2.1937144920229912e-03" rms="1.9593314826488495e-01" purity="9.4249732792377472e-02" nType="-99"/>
            <Node pos="r" depth="3" NCoef="0" IVar="-1" Cut="0.0000000000000000e+00" cType="1" res="6.6807051189243793e-04" rms="2.8619790077209473e-01" purity="4.4105759263038635e-01" nType="-99"/>
          </Node>
          <Node pos="r" depth="2" NCoef="0" IVar="0" Cut="3.8095238804817200e-01" cType="1" res="6.8432807922363281e-02" rms="1.3084928691387177e-01" purity="9.8193895816802979e-01" nType="0">
            <Node pos="l" depth="3" NCoef="0" IVar="-1" Cut="0.0000000000000000e+00" cType="1" res="1.5504552284255624e-03" rms="1.0484031587839127e-01" purity="9.8903191089630127e-01" nType="-99"/>
            <Node pos="r" depth="3" NCoef="0" IVar="-1" Cut="0.0000000000000000e+00" cType="1" res="1.5240602660924196e-03" rms="1.3906870782375336e-01" purity="9.7922599315643311e-01" nType="-99"/>
          </Node>
        </Node>
      </Node>
    </BinaryTree>
    <BinaryTree type="DecisionTree" boostWeight="1.0000000000000000e+00" itree="669">
      <Node pos="s" depth="0" NCoef="0" IVar="1" Cut="1.0034389062500000e+05" cType="1" res="4.8342276364564896e-02" rms="2.7520692348480225e-01" purity="5.1514106988906860e-01" nType="0">
        <Node pos="l" depth="1" NCoef="0" IVar="1" Cut="5.8270902343750000e+04" cType="1" res="3.3702068030834198e-02" rms="2.8189790248870850e-01" purity="3.1734272837638855e-01" nType="0">
          <Node pos="l" depth="2" NCoef="0" IVar="1" Cut="3.8433898437500000e+04" cType="1" res="1.1957963556051254e-01" rms="3.5902211070060730e-01" purity="6.6409492492675781e-01" nType="0">
            <Node pos="l" depth="3" NCoef="0" IVar="-1" Cut="0.0000000000000000e+00" cType="1" res="2.7564496849663556e-04" rms="3.0052569508552551e-01" purity="4.7113931179046631e-01" nType="-99"/>
            <Node pos="r" depth="3" NCoef="0" IVar="-1" Cut="0.0000000000000000e+00" cType="1" res="2.9550613835453987e-03" rms="3.7635916471481323e-01" purity="8.1722021102905273e-01" nType="-99"/>
          </Node>
          <Node pos="r" depth="2" NCoef="0" IVar="1" Cut="9.0319859375000000e+04" cType="1" res="9.5021631568670273e-03" rms="2.5074544548988342e-01" purity="2.1962952613830566e-01" nType="0">
            <Node pos="l" depth="3" NCoef="0" IVar="-1" Cut="0.0000000000000000e+00" cType="1" res="1.3922528596594930e-03" rms="2.7645009756088257e-01" purity="2.8418073058128357e-01" nType="-99"/>
            <Node pos="r" depth="3" NCoef="0" IVar="-1" Cut="0.0000000000000000e+00" cType="1" res="-2.8679922688752413e-03" rms="1.8265751004219055e-01" purity="8.7888754904270172e-02" nType="-99"/>
          </Node>
        </Node>
        <Node pos="r" depth="1" NCoef="0" IVar="0" Cut="3.8095238804817200e-01" cType="1" res="7.3714263737201691e-02" rms="2.6127314567565918e-01" purity="8.5793250799179077e-01" nType="0">
          <Node pos="l" depth="2" NCoef="0" IVar="3" Cut="2.4307781250000000e+04" cType="1" res="0.0000000000000000e+00" rms="0.0000000000000000e+00" purity="7.8478723764419556e-01" nType="0">
            <Node pos="l" depth="3" NCoef="0" IVar="-1" Cut="0.0000000000000000e+00" cType="1" res="-3.6689240951091051e-03" rms="3.7278598546981812e-01" purity="2.1135759353637695e-01" nType="-99"/>
            <Node pos="r" depth="3" NCoef="0" IVar="-1" Cut="0.0000000000000000e+00" cType="1" res="8.4959884406998754e-04" rms="2.3167796432971954e-01" purity="9.1269743442535400e-01" nType="-99"/>
          </Node>
          <Node pos="r" depth="2" NCoef="0" IVar="1" Cut="1.8448257812500000e+05" cType="1" res="9.6369691193103790e-02" rms="2.5397157669067383e-01" purity="9.0065819025039673e-01" nType="0">
            <Node pos="l" depth="3" NCoef="0" IVar="-1" Cut="0.0000000000000000e+00" cType="1" res="7.3810230242088437e-04" rms="2.7324241399765015e-01" purity="8.7734103202819824e-01" nType="-99"/>
            <Node pos="r" depth="3" NCoef="0" IVar="-1" Cut="0.0000000000000000e+00" cType="1" res="1.1712835403159261e-03" rms="2.0097817480564117e-01" purity="9.4689726829528809e-01" nType="-99"/>
          </Node>
        </Node>
      </Node>
    </BinaryTree>
    <BinaryTree type="DecisionTree" boostWeight="1.0000000000000000e+00" itree="670">
      <Node pos="s" depth="0" NCoef="0" IVar="3" Cut="9.7463320312500000e+04" cType="1" res="2.6659764349460602e-02" rms="2.6332718133926392e-01" purity="4.8737159371376038e-01" nType="0">
        <Node pos="l" depth="1" NCoef="0" IVar="4" Cut="7.6032262500000000e+05" cType="1" res="1.6712132841348648e-02" rms="2.8715986013412476e-01" purity="3.5937970876693726e-01" nType="0">
          <Node pos="l" depth="2" NCoef="0" IVar="1" Cut="1.0372283593750000e+05" cType="1" res="2.0713251084089279e-02" rms="2.8560748696327209e-01" purity="3.5534206032752991e-01" nType="0">
            <Node pos="l" depth="3" NCoef="0" IVar="-1" Cut="0.0000000000000000e+00" cType="1" res="1.3858672173228115e-04" rms="2.6770645380020142e-01" purity="1.8901896476745605e-01" nType="-99"/>
            <Node pos="r" depth="3" NCoef="0" IVar="-1" Cut="0.0000000000000000e+00" cType="1" res="1.2220600619912148e-03" rms="3.2414659857749939e-01" purity="8.0749499797821045e-01" nType="-99"/>
          </Node>
          <Node pos="r" depth="2" NCoef="0" IVar="-1" Cut="0.0000000000000000e+00" cType="1" res="-3.4642231184989214e-03" rms="3.0585208535194397e-01" purity="4.9839097261428833e-01" nType="-99"/>
        </Node>
        <Node pos="r" depth="1" NCoef="0" IVar="0" Cut="1.1428571939468384e+00" cType="1" res="6.5163917839527130e-02" rms="1.2920463085174561e-01" purity="9.8278790712356567e-01" nType="0">
          <Node pos="l" depth="2" NCoef="0" IVar="5" Cut="9.0590703125000000e+04" cType="1" res="7.0437975227832794e-02" rms="1.0799112170934677e-01" purity="9.8822218179702759e-01" nType="0">
            <Node pos="l" depth="3" NCoef="0" IVar="-1" Cut="0.0000000000000000e+00" cType="1" res="1.8022859003394842e-03" rms="1.0413115471601486e-01" purity="9.8921388387680054e-01" nType="-99"/>
            <Node pos="r" depth="3" NCoef="0" IVar="-1" Cut="0.0000000000000000e+00" cType="1" res="1.4928502496331930e-03" rms="1.1113706976175308e-01" purity="9.8734855651855469e-01" nType="-99"/>
          </Node>
          <Node pos="r" depth="2" NCoef="0" IVar="-1" Cut="0.0000000000000000e+00" cType="1" res="1.4954193029552698e-03" rms="1.5295521914958954e-01" purity="9.7545522451400757e-01" nType="-99"/>
        </Node>
      </Node>
    </BinaryTree>
    <BinaryTree type="DecisionTree" boostWeight="1.0000000000000000e+00" itree="671">
      <Node pos="s" depth="0" NCoef="0" IVar="1" Cut="1.0034389062500000e+05" cType="1" res="4.0026199072599411e-02" rms="2.6248192787170410e-01" purity="5.0723683834075928e-01" nType="0">
        <Node pos="l" depth="1" NCoef="0" IVar="4" Cut="3.7942309375000000e+05" cType="1" res="2.2134432569146156e-02" rms="2.5334930419921875e-01" purity="3.2881140708923340e-01" nType="0">
          <Node pos="l" depth="2" NCoef="0" IVar="1" Cut="7.5079046875000000e+04" cType="1" res="7.5329723767936230e-03" rms="2.4038903415203094e-01" purity="2.5216671824455261e-01" nType="0">
            <Node pos="l" depth="3" NCoef="0" IVar="-1" Cut="0.0000000000000000e+00" cType="1" res="1.1720515321940184e-03" rms="3.3097422122955322e-01" purity="5.8887875080108643e-01" nType="-99"/>
            <Node pos="r" depth="3" NCoef="0" IVar="-1" Cut="0.0000000000000000e+00" cType="1" res="-1.4029017183929682e-03" rms="1.8091601133346558e-01" purity="9.5106825232505798e-02" nType="-99"/>
          </Node>
          <Node pos="r" depth="2" NCoef="0" IVar="5" Cut="9.0784429687500000e+04" cType="1" res="7.4454814195632935e-02" rms="2.8915998339653015e-01" purity="6.0344696044921875e-01" nType="0">
            <Node pos="l" depth="3" NCoef="0" IVar="-1" Cut="0.0000000000000000e+00" cType="1" res="1.6303136944770813e-03" rms="3.1923988461494446e-01" purity="6.9379788637161255e-01" nType="-99"/>
            <Node pos="r" depth="3" NCoef="0" IVar="-1" Cut="0.0000000000000000e+00" cType="1" res="4.4412005809135735e-04" rms="2.3473967611789703e-01" purity="4.9688124656677246e-01" nType="-99"/>
          </Node>
        </Node>
        <Node pos="r" depth="1" NCoef="0" IVar="5" Cut="9.4463734375000000e+04" cType="1" res="7.4480123817920685e-02" rms="2.7598002552986145e-01" purity="8.5082811117172241e-01" nType="0">
          <Node pos="l" depth="2" NCoef="0" IVar="4" Cut="3.9672950000000000e+05" cType="1" res="6.7738972604274750e-02" rms="2.7025967836380005e-01" purity="8.4773272275924683e-01" nType="0">
            <Node pos="l" depth="3" NCoef="0" IVar="-1" Cut="0.0000000000000000e+00" cType="1" res="1.0023885406553745e-03" rms="3.1526017189025879e-01" purity="7.7390116453170776e-01" nType="-99"/>
            <Node pos="r" depth="3" NCoef="0" IVar="-1" Cut="0.0000000000000000e+00" cType="1" res="1.2635360471904278e-03" rms="2.0329724252223969e-01" purity="9.3534320592880249e-01" nType="-99"/>
          </Node>
          <Node pos="r" depth="2" NCoef="0" IVar="-1" Cut="0.0000000000000000e+00" cType="1" res="2.6103390846401453e-03" rms="3.1446650624275208e-01" purity="8.7691622972488403e-01" nType="-99"/>
        </Node>
      </Node>
    </BinaryTree>
    <BinaryTree type="DecisionTree" boostWeight="1.0000000000000000e+00" itree="672">
      <Node pos="s" depth="0" NCoef="0" IVar="3" Cut="8.8925632812500000e+04" cType="1" res="3.6016732454299927e-02" rms="2.6388692855834961e-01" purity="4.9577921628952026e-01" nType="0">
        <Node pos="l" depth="1" NCoef="0" IVar="1" Cut="8.4016320312500000e+04" cType="1" res="2.7614342048764229e-02" rms="2.8942739963531494e-01" purity="3.5309568047523499e-01" nType="0">
          <Node pos="l" depth="2" NCoef="0" IVar="1" Cut="3.9493214843750000e+04" cType="1" res="5.6048195809125900e-02" rms="3.5370969772338867e-01" purity="4.3592101335525513e-01" nType="0">
            <Node pos="l" depth="3" NCoef="0" IVar="-1" Cut="0.0000000000000000e+00" cType="1" res="-8.0868892837315798e-05" rms="3.1003442406654358e-01" purity="3.4114485979080200e-01" nType="-99"/>
            <Node pos="r" depth="3" NCoef="0" IVar="-1" Cut="0.0000000000000000e+00" cType="1" res="1.7501399852335453e-03" rms="3.6385500431060791e-01" purity="4.6416753530502319e-01" nType="-99"/>
          </Node>
          <Node pos="r" depth="2" NCoef="0" IVar="5" Cut="9.2368343750000000e+04" cType="1" res="1.6890952363610268e-02" rms="2.6030114293098450e-01" purity="3.2185941934585571e-01" nType="0">
            <Node pos="l" depth="3" NCoef="0" IVar="-1" Cut="0.0000000000000000e+00" cType="1" res="2.3296105791814625e-04" rms="2.4702383577823639e-01" purity="2.9411646723747253e-01" nType="-99"/>
            <Node pos="r" depth="3" NCoef="0" IVar="-1" Cut="0.0000000000000000e+00" cType="1" res="1.1417393106967211e-03" rms="2.9587274789810181e-01" purity="4.1072264313697815e-01" nType="-99"/>
          </Node>
        </Node>
        <Node pos="r" depth="1" NCoef="0" IVar="0" Cut="3.8095238804817200e-01" cType="1" res="6.4395911991596222e-02" rms="1.4443619549274445e-01" purity="9.7769463062286377e-01" nType="0">
          <Node pos="l" depth="2" NCoef="0" IVar="-1" Cut="0.0000000000000000e+00" cType="1" res="2.3100189864635468e-03" rms="1.0002900660037994e-01" purity="9.9055725336074829e-01" nType="-99"/>
          <Node pos="r" depth="2" NCoef="0" IVar="3" Cut="1.2924211718750000e+05" cType="1" res="5.7162653654813766e-02" rms="1.5726785361766815e-01" purity="9.7288012504577637e-01" nType="0">
            <Node pos="l" depth="3" NCoef="0" IVar="-1" Cut="0.0000000000000000e+00" cType="1" res="7.4666627915576100e-04" rms="2.1361339092254639e-01" purity="9.4742244482040405e-01" nType="-99"/>
            <Node pos="r" depth="3" NCoef="0" IVar="-1" Cut="0.0000000000000000e+00" cType="1" res="1.4384508831426501e-03" rms="1.1544647067785263e-01" purity="9.8636001348495483e-01" nType="-99"/>
          </Node>
        </Node>
      </Node>
    </BinaryTree>
    <BinaryTree type="DecisionTree" boostWeight="1.0000000000000000e+00" itree="673">
      <Node pos="s" depth="0" NCoef="0" IVar="3" Cut="4.8766871093750000e+04" cType="1" res="2.6976190507411957e-02" rms="2.5232246518135071e-01" purity="4.9823355674743652e-01" nType="0">
        <Node pos="l" depth="1" NCoef="0" IVar="3" Cut="2.7931517578125000e+04" cType="1" res="1.0204683989286423e-02" rms="2.6577803492546082e-01" purity="2.1503458917140961e-01" nType="0">
          <Node pos="l" depth="2" NCoef="0" IVar="4" Cut="4.8100690625000000e+05" cType="1" res="-4.9229506403207779e-03" rms="2.1743528544902802e-01" purity="9.8886758089065552e-02" nType="0">
            <Node pos="l" depth="3" NCoef="0" IVar="-1" Cut="0.0000000000000000e+00" cType="1" res="-1.5361950499936938e-03" rms="2.0046472549438477e-01" purity="7.4130989611148834e-02" nType="-99"/>
            <Node pos="r" depth="3" NCoef="0" IVar="-1" Cut="0.0000000000000000e+00" cType="1" res="1.1952323839068413e-03" rms="3.5350200533866882e-01" purity="3.8307490944862366e-01" nType="-99"/>
          </Node>
          <Node pos="r" depth="2" NCoef="0" IVar="1" Cut="5.5289308593750000e+04" cType="1" res="3.9609108120203018e-02" rms="3.3872464299201965e-01" purity="4.4079753756523132e-01" nType="0">
            <Node pos="l" depth="3" NCoef="0" IVar="-1" Cut="0.0000000000000000e+00" cType="1" res="2.2141861263662577e-03" rms="4.7628256678581238e-01" purity="5.7775640487670898e-01" nType="-99"/>
            <Node pos="r" depth="3" NCoef="0" IVar="-1" Cut="0.0000000000000000e+00" cType="1" res="3.5248624044470489e-04" rms="3.1114462018013000e-01" purity="4.2170661687850952e-01" nType="-99"/>
          </Node>
        </Node>
        <Node pos="r" depth="1" NCoef="0" IVar="1" Cut="1.0076305468750000e+05" cType="1" res="5.1251634955406189e-02" rms="2.2930267453193665e-01" purity="9.0814197063446045e-01" nType="0">
          <Node pos="l" depth="2" NCoef="0" IVar="1" Cut="7.1321640625000000e+04" cType="1" res="2.8206409886479378e-02" rms="2.9391711950302124e-01" purity="8.2663780450820923e-01" nType="0">
            <Node pos="l" depth="3" NCoef="0" IVar="-1" Cut="0.0000000000000000e+00" cType="1" res="1.2610361445695162e-03" rms="2.1332202851772308e-01" purity="9.4412535429000854e-01" nType="-99"/>
            <Node pos="r" depth="3" NCoef="0" IVar="-1" Cut="0.0000000000000000e+00" cType="1" res="-3.5690524964593351e-04" rms="3.7798306345939636e-01" purity="6.5277045965194702e-01" nType="-99"/>
          </Node>
          <Node pos="r" depth="2" NCoef="0" IVar="4" Cut="3.6414628125000000e+05" cType="1" res="6.9962427020072937e-02" rms="1.5604336559772491e-01" purity="9.7431647777557373e-01" nType="0">
            <Node pos="l" depth="3" NCoef="0" IVar="-1" Cut="0.0000000000000000e+00" cType="1" res="1.5291990712285042e-03" rms="1.7253455519676208e-01" purity="9.6861571073532104e-01" nType="-99"/>
            <Node pos="r" depth="3" NCoef="0" IVar="-1" Cut="0.0000000000000000e+00" cType="1" res="8.7657588301226497e-04" rms="1.4600810408592224e-01" purity="9.7736281156539917e-01" nType="-99"/>
          </Node>
        </Node>
      </Node>
    </BinaryTree>
    <BinaryTree type="DecisionTree" boostWeight="1.0000000000000000e+00" itree="674">
      <Node pos="s" depth="0" NCoef="0" IVar="1" Cut="1.0034835937500000e+05" cType="1" res="3.7294421344995499e-02" rms="2.6853150129318237e-01" purity="5.0405931472778320e-01" nType="0">
        <Node pos="l" depth="1" NCoef="0" IVar="1" Cut="8.3521304687500000e+04" cType="1" res="2.4854404851794243e-02" rms="2.7791339159011841e-01" purity="3.0061504244804382e-01" nType="0">
          <Node pos="l" depth="2" NCoef="0" IVar="1" Cut="3.9250078125000000e+04" cType="1" res="6.8548277020454407e-02" rms="3.4995672106742859e-01" purity="5.7073789834976196e-01" nType="0">
            <Node pos="l" depth="3" NCoef="0" IVar="-1" Cut="0.0000000000000000e+00" cType="1" res="-2.0827925764024258e-03" rms="2.6032215356826782e-01" purity="3.9186856150627136e-01" nType="-99"/>
            <Node pos="r" depth="3" NCoef="0" IVar="-1" Cut="0.0000000000000000e+00" cType="1" res="2.1458284463733435e-03" rms="3.6362606287002563e-01" purity="6.1517179012298584e-01" nType="-99"/>
          </Node>
          <Node pos="r" depth="2" NCoef="0" IVar="1" Cut="8.5126726562500000e+04" cType="1" res="-7.5473864562809467e-03" rms="2.0304289460182190e-01" purity="1.0030177235603333e-01" nType="0">
            <Node pos="l" depth="3" NCoef="0" IVar="-1" Cut="0.0000000000000000e+00" cType="1" res="3.6759860813617706e-03" rms="2.7455401420593262e-01" purity="3.1205904483795166e-01" nType="-99"/>
            <Node pos="r" depth="3" NCoef="0" IVar="-1" Cut="0.0000000000000000e+00" cType="1" res="-2.9152540955692530e-03" rms="1.9204933941364288e-01" purity="7.8266657888889313e-02" nType="-99"/>
          </Node>
        </Node>
        <Node pos="r" depth="1" NCoef="0" IVar="5" Cut="8.7804640625000000e+04" cType="1" res="5.8947443962097168e-02" rms="2.4989494681358337e-01" purity="8.5817313194274902e-01" nType="0">
          <Node pos="l" depth="2" NCoef="0" IVar="-1" Cut="0.0000000000000000e+00" cType="1" res="2.3316992155741900e-04" rms="2.7225521206855774e-01" purity="7.8952664136886597e-01" nType="-99"/>
          <Node pos="r" depth="2" NCoef="0" IVar="1" Cut="1.8448895312500000e+05" cType="1" res="6.5682291984558105e-02" rms="2.4575471878051758e-01" purity="8.6813396215438843e-01" nType="0">
            <Node pos="l" depth="3" NCoef="0" IVar="-1" Cut="0.0000000000000000e+00" cType="1" res="1.2289744336158037e-03" rms="2.6536175608634949e-01" purity="8.2564777135848999e-01" nType="-99"/>
            <Node pos="r" depth="3" NCoef="0" IVar="-1" Cut="0.0000000000000000e+00" cType="1" res="8.8599463924765587e-04" rms="2.0886264741420746e-01" purity="9.3688482046127319e-01" nType="-99"/>
          </Node>
        </Node>
      </Node>
    </BinaryTree>
    <BinaryTree type="DecisionTree" boostWeight="1.0000000000000000e+00" itree="675">
      <Node pos="s" depth="0" NCoef="0" IVar="5" Cut="8.5955976562500000e+04" cType="1" res="3.2733559608459473e-02" rms="2.6794812083244324e-01" purity="4.9938356876373291e-01" nType="0">
        <Node pos="l" depth="1" NCoef="0" IVar="4" Cut="1.5228525000000000e+05" cType="1" res="1.0224817693233490e-01" rms="3.4304037690162659e-01" purity="6.9945079088211060e-01" nType="0">
          <Node pos="l" depth="2" NCoef="0" IVar="-1" Cut="0.0000000000000000e+00" cType="1" res="7.2891125455498695e-03" rms="4.4504228234291077e-01" purity="5.8746421337127686e-01" nType="-99"/>
          <Node pos="r" depth="2" NCoef="0" IVar="0" Cut="3.8095238804817200e-01" cType="1" res="4.6417869627475739e-02" rms="2.8791442513465881e-01" purity="7.2106051445007324e-01" nType="0">
            <Node pos="l" depth="3" NCoef="0" IVar="-1" Cut="0.0000000000000000e+00" cType="1" res="2.3645155597478151e-03" rms="3.1719908118247986e-01" purity="7.0057678222656250e-01" nType="-99"/>
            <Node pos="r" depth="3" NCoef="0" IVar="-1" Cut="0.0000000000000000e+00" cType="1" res="-7.5105082942172885e-05" rms="2.4993348121643066e-01" purity="7.3864710330963135e-01" nType="-99"/>
          </Node>
        </Node>
        <Node pos="r" depth="1" NCoef="0" IVar="3" Cut="9.7260398437500000e+04" cType="1" res="2.7981048449873924e-02" rms="2.6135516166687012e-01" purity="4.8570555448532104e-01" nType="0">
          <Node pos="l" depth="2" NCoef="0" IVar="4" Cut="7.8755012500000000e+05" cType="1" res="1.7849620431661606e-02" rms="2.8719696402549744e-01" purity="3.4501421451568604e-01" nType="0">
            <Node pos="l" depth="3" NCoef="0" IVar="-1" Cut="0.0000000000000000e+00" cType="1" res="7.3530414374545217e-04" rms="2.8626370429992676e-01" purity="3.3874955773353577e-01" nType="-99"/>
            <Node pos="r" depth="3" NCoef="0" IVar="-1" Cut="0.0000000000000000e+00" cType="1" res="-1.6393547412008047e-03" rms="3.1023576855659485e-01" purity="5.9071546792984009e-01" nType="-99"/>
          </Node>
          <Node pos="r" depth="2" NCoef="0" IVar="3" Cut="1.4127601562500000e+05" cType="1" res="6.3709698617458344e-02" rms="1.2914183735847473e-01" purity="9.8185575008392334e-01" nType="0">
            <Node pos="l" depth="3" NCoef="0" IVar="-1" Cut="0.0000000000000000e+00" cType="1" res="1.3896900927647948e-03" rms="1.6684143245220184e-01" purity="9.6868687868118286e-01" nType="-99"/>
            <Node pos="r" depth="3" NCoef="0" IVar="-1" Cut="0.0000000000000000e+00" cType="1" res="1.8493100069463253e-03" rms="8.9971847832202911e-02" purity="9.9180984497070312e-01" nType="-99"/>
          </Node>
        </Node>
      </Node>
    </BinaryTree>
    <BinaryTree type="DecisionTree" boostWeight="1.0000000000000000e+00" itree="676">
      <Node pos="s" depth="0" NCoef="0" IVar="4" Cut="2.1984146875000000e+05" cType="1" res="3.2741162925958633e-02" rms="2.6109719276428223e-01" purity="5.1525765657424927e-01" nType="0">
        <Node pos="l" depth="1" NCoef="0" IVar="4" Cut="1.4415095312500000e+05" cType="1" res="5.9758033603429794e-03" rms="2.7073022723197937e-01" purity="2.0355577766895294e-01" nType="0">
          <Node pos="l" depth="2" NCoef="0" IVar="2" Cut="2.0646621875000000e+05" cType="1" res="-6.8541720509529114e-02" rms="2.5072082877159119e-01" purity="1.3187545537948608e-01" nType="0">
            <Node pos="l" depth="3" NCoef="0" IVar="-1" Cut="0.0000000000000000e+00" cType="1" res="-1.1285460554063320e-02" rms="2.6007440686225891e-01" purity="7.0027709007263184e-02" nType="-99"/>
            <Node pos="r" depth="3" NCoef="0" IVar="-1" Cut="0.0000000000000000e+00" cType="1" res="8.1820023478940129e-04" rms="1.9759263098239899e-01" purity="2.7710834145545959e-01" nType="-99"/>
          </Node>
          <Node pos="r" depth="2" NCoef="0" IVar="1" Cut="5.7299558593750000e+04" cType="1" res="1.8150741234421730e-02" rms="2.7192667126655579e-01" purity="2.1526713669300079e-01" nType="0">
            <Node pos="l" depth="3" NCoef="0" IVar="-1" Cut="0.0000000000000000e+00" cType="1" res="2.5903452187776566e-03" rms="3.8788092136383057e-01" purity="6.0536336898803711e-01" nType="-99"/>
            <Node pos="r" depth="3" NCoef="0" IVar="-1" Cut="0.0000000000000000e+00" cType="1" res="-1.8344487762078643e-04" rms="2.3925313353538513e-01" purity="1.4319296181201935e-01" nType="-99"/>
          </Node>
        </Node>
        <Node pos="r" depth="1" NCoef="0" IVar="5" Cut="9.0649000000000000e+04" cType="1" res="4.5463707298040390e-02" rms="2.5540980696678162e-01" purity="6.6342085599899292e-01" nType="0">
          <Node pos="l" depth="2" NCoef="0" IVar="2" Cut="4.9770859375000000e+05" cType="1" res="6.5369293093681335e-02" rms="2.7033677697181702e-01" purity="7.1747076511383057e-01" nType="0">
            <Node pos="l" depth="3" NCoef="0" IVar="-1" Cut="0.0000000000000000e+00" cType="1" res="9.8676735069602728e-04" rms="2.6872643828392029e-01" purity="7.1022719144821167e-01" nType="-99"/>
            <Node pos="r" depth="3" NCoef="0" IVar="-1" Cut="0.0000000000000000e+00" cType="1" res="-2.6675791013985872e-04" rms="2.6754978299140930e-01" purity="7.5978636741638184e-01" nType="-99"/>
          </Node>
          <Node pos="r" depth="2" NCoef="0" IVar="3" Cut="5.6723253906250000e+04" cType="1" res="2.4619221687316895e-02" rms="2.3699532449245453e-01" purity="6.0682147741317749e-01" nType="0">
            <Node pos="l" depth="3" NCoef="0" IVar="-1" Cut="0.0000000000000000e+00" cType="1" res="-4.1521084494888783e-04" rms="2.7012062072753906e-01" purity="2.7823290228843689e-01" nType="-99"/>
            <Node pos="r" depth="3" NCoef="0" IVar="-1" Cut="0.0000000000000000e+00" cType="1" res="1.0801913449540734e-03" rms="1.9043843448162079e-01" purity="9.4860935211181641e-01" nType="-99"/>
          </Node>
        </Node>
      </Node>
    </BinaryTree>
    <BinaryTree type="DecisionTree" boostWeight="1.0000000000000000e+00" itree="677">
      <Node pos="s" depth="0" NCoef="0" IVar="1" Cut="1.0034835937500000e+05" cType="1" res="3.1406775116920471e-02" rms="2.5485724210739136e-01" purity="5.1492232084274292e-01" nType="0">
        <Node pos="l" depth="1" NCoef="0" IVar="1" Cut="7.5107859375000000e+04" cType="1" res="1.2485473416745663e-02" rms="2.5404456257820129e-01" purity="3.1002178788185120e-01" nType="0">
          <Node pos="l" depth="2" NCoef="0" IVar="1" Cut="4.2050417968750000e+04" cType="1" res="6.4506120979785919e-02" rms="3.3839875459671021e-01" purity="6.6193467378616333e-01" nType="0">
            <Node pos="l" depth="3" NCoef="0" IVar="-1" Cut="0.0000000000000000e+00" cType="1" res="-1.6741131548769772e-04" rms="3.1887665390968323e-01" purity="4.8324161767959595e-01" nType="-99"/>
            <Node pos="r" depth="3" NCoef="0" IVar="-1" Cut="0.0000000000000000e+00" cType="1" res="1.6612380277365446e-03" rms="3.4263554215431213e-01" purity="7.5335431098937988e-01" nType="-99"/>
          </Node>
          <Node pos="r" depth="2" NCoef="0" IVar="4" Cut="2.2919117187500000e+05" cType="1" res="-1.3837569393217564e-02" rms="1.9284300506114960e-01" purity="1.3194987177848816e-01" nType="0">
            <Node pos="l" depth="3" NCoef="0" IVar="-1" Cut="0.0000000000000000e+00" cType="1" res="5.8583437930792570e-04" rms="1.8291318416595459e-01" purity="8.9235827326774597e-02" nType="-99"/>
            <Node pos="r" depth="3" NCoef="0" IVar="-1" Cut="0.0000000000000000e+00" cType="1" res="-2.4868701584637165e-03" rms="2.0151589810848236e-01" purity="1.7964214086532593e-01" nType="-99"/>
          </Node>
        </Node>
        <Node pos="r" depth="1" NCoef="0" IVar="4" Cut="2.7830962500000000e+05" cType="1" res="6.3722409307956696e-02" rms="2.5298774242401123e-01" purity="8.6487144231796265e-01" nType="0">
          <Node pos="l" depth="2" NCoef="0" IVar="3" Cut="1.5839121093750000e+04" cType="1" res="2.0485145971179008e-02" rms="3.0177071690559387e-01" purity="6.6001367568969727e-01" nType="0">
            <Node pos="l" depth="3" NCoef="0" IVar="-1" Cut="0.0000000000000000e+00" cType="1" res="-5.2309289574623108e-02" rms="1.4875438809394836e-01" purity="0.0000000000000000e+00" nType="-99"/>
            <Node pos="r" depth="3" NCoef="0" IVar="-1" Cut="0.0000000000000000e+00" cType="1" res="9.0426439419388771e-04" rms="3.1343138217926025e-01" purity="7.7788645029067993e-01" nType="-99"/>
          </Node>
          <Node pos="r" depth="2" NCoef="0" IVar="4" Cut="3.6846790625000000e+05" cType="1" res="7.5754843652248383e-02" rms="2.3623403906822205e-01" purity="9.2188096046447754e-01" nType="0">
            <Node pos="l" depth="3" NCoef="0" IVar="-1" Cut="0.0000000000000000e+00" cType="1" res="9.9112058524042368e-04" rms="2.8892421722412109e-01" purity="8.7907201051712036e-01" nType="-99"/>
            <Node pos="r" depth="3" NCoef="0" IVar="-1" Cut="0.0000000000000000e+00" cType="1" res="8.7198388064280152e-04" rms="2.1300484240055084e-01" purity="9.3717420101165771e-01" nType="-99"/>
          </Node>
        </Node>
      </Node>
    </BinaryTree>
    <BinaryTree type="DecisionTree" boostWeight="1.0000000000000000e+00" itree="678">
      <Node pos="s" depth="0" NCoef="0" IVar="1" Cut="1.0034835937500000e+05" cType="1" res="3.0046399682760239e-02" rms="2.5962769985198975e-01" purity="4.8986908793449402e-01" nType="0">
        <Node pos="l" depth="1" NCoef="0" IVar="1" Cut="7.5107734375000000e+04" cType="1" res="1.1850020848214626e-02" rms="2.5514039397239685e-01" purity="2.9719558358192444e-01" nType="0">
          <Node pos="l" depth="2" NCoef="0" IVar="1" Cut="7.2099703125000000e+04" cType="1" res="5.6001044809818268e-02" rms="3.3390563726425171e-01" purity="6.4256995916366577e-01" nType="0">
            <Node pos="l" depth="3" NCoef="0" IVar="-1" Cut="0.0000000000000000e+00" cType="1" res="7.9591234680265188e-04" rms="3.0785277485847473e-01" purity="6.3779181241989136e-01" nType="-99"/>
            <Node pos="r" depth="3" NCoef="0" IVar="-1" Cut="0.0000000000000000e+00" cType="1" res="2.2325995378196239e-03" rms="4.4314214587211609e-01" purity="6.8077898025512695e-01" nType="-99"/>
          </Node>
          <Node pos="r" depth="2" NCoef="0" IVar="3" Cut="9.8047601562500000e+04" cType="1" res="-9.4823483377695084e-03" rms="2.0318086445331573e-01" purity="1.3032169640064240e-01" nType="0">
            <Node pos="l" depth="3" NCoef="0" IVar="-1" Cut="0.0000000000000000e+00" cType="1" res="-2.2535601165145636e-03" rms="2.0318523049354553e-01" purity="7.0557601749897003e-02" nType="-99"/>
            <Node pos="r" depth="3" NCoef="0" IVar="-1" Cut="0.0000000000000000e+00" cType="1" res="1.7841705121099949e-03" rms="1.8124611675739288e-01" purity="9.6576488018035889e-01" nType="-99"/>
          </Node>
        </Node>
        <Node pos="r" depth="1" NCoef="0" IVar="2" Cut="4.4955843750000000e+05" cType="1" res="6.3616715371608734e-02" rms="2.6444333791732788e-01" purity="8.4533035755157471e-01" nType="0">
          <Node pos="l" depth="2" NCoef="0" IVar="0" Cut="1.1428571939468384e+00" cType="1" res="7.8822955489158630e-02" rms="2.8074559569358826e-01" purity="8.1815075874328613e-01" nType="0">
            <Node pos="l" depth="3" NCoef="0" IVar="-1" Cut="0.0000000000000000e+00" cType="1" res="9.3883898807689548e-04" rms="2.8230789303779602e-01" purity="8.0449908971786499e-01" nType="-99"/>
            <Node pos="r" depth="3" NCoef="0" IVar="-1" Cut="0.0000000000000000e+00" cType="1" res="4.2527116602286696e-04" rms="2.6759746670722961e-01" purity="8.5816895961761475e-01" nType="-99"/>
          </Node>
          <Node pos="r" depth="2" NCoef="0" IVar="1" Cut="1.8449831250000000e+05" cType="1" res="2.8680682182312012e-02" rms="2.1853816509246826e-01" purity="9.0777516365051270e-01" nType="0">
            <Node pos="l" depth="3" NCoef="0" IVar="-1" Cut="0.0000000000000000e+00" cType="1" res="1.1101941345259547e-04" rms="2.3458051681518555e-01" purity="8.6121231317520142e-01" nType="-99"/>
            <Node pos="r" depth="3" NCoef="0" IVar="-1" Cut="0.0000000000000000e+00" cType="1" res="9.4763416564092040e-04" rms="2.0781725645065308e-01" purity="9.3400192260742188e-01" nType="-99"/>
          </Node>
        </Node>
      </Node>
    </BinaryTree>
    <BinaryTree type="DecisionTree" boostWeight="1.0000000000000000e+00" itree="679">
      <Node pos="s" depth="0" NCoef="0" IVar="3" Cut="6.8843453125000000e+04" cType="1" res="2.6573022827506065e-02" rms="2.5400775671005249e-01" purity="4.9764418601989746e-01" nType="0">
        <Node pos="l" depth="1" NCoef="0" IVar="5" Cut="8.5002367187500000e+04" cType="1" res="1.4238658361136913e-02" rms="2.7422016859054565e-01" purity="3.0165478587150574e-01" nType="0">
          <Node pos="l" depth="2" NCoef="0" IVar="-1" Cut="0.0000000000000000e+00" cType="1" res="-6.6603445447981358e-03" rms="2.5090795755386353e-01" purity="2.4605205655097961e-01" nType="-99"/>
          <Node pos="r" depth="2" NCoef="0" IVar="5" Cut="8.7314656250000000e+04" cType="1" res="1.7024872824549675e-02" rms="2.7394881844520569e-01" purity="3.0277091264724731e-01" nType="0">
            <Node pos="l" depth="3" NCoef="0" IVar="-1" Cut="0.0000000000000000e+00" cType="1" res="1.7359999474138021e-03" rms="2.9974186420440674e-01" purity="6.0320878028869629e-01" nType="-99"/>
            <Node pos="r" depth="3" NCoef="0" IVar="-1" Cut="0.0000000000000000e+00" cType="1" res="4.0066312067210674e-04" rms="2.7061414718627930e-01" purity="2.7584403753280640e-01" nType="-99"/>
          </Node>
        </Node>
        <Node pos="r" depth="1" NCoef="0" IVar="2" Cut="2.1921667187500000e+05" cType="1" res="5.5503230541944504e-02" rms="1.9566249847412109e-01" purity="9.5733654499053955e-01" nType="0">
          <Node pos="l" depth="2" NCoef="0" IVar="-1" Cut="0.0000000000000000e+00" cType="1" res="1.4691571705043316e-03" rms="2.0239812135696411e-01" purity="9.5865756273269653e-01" nType="-99"/>
          <Node pos="r" depth="2" NCoef="0" IVar="1" Cut="1.0346151562500000e+05" cType="1" res="4.4243264943361282e-02" rms="1.9225668907165527e-01" purity="9.5697873830795288e-01" nType="0">
            <Node pos="l" depth="3" NCoef="0" IVar="-1" Cut="0.0000000000000000e+00" cType="1" res="2.8039037715643644e-04" rms="2.6679289340972900e-01" purity="9.1125911474227905e-01" nType="-99"/>
            <Node pos="r" depth="3" NCoef="0" IVar="-1" Cut="0.0000000000000000e+00" cType="1" res="1.7281827749684453e-03" rms="1.2625454366207123e-01" purity="9.8374027013778687e-01" nType="-99"/>
          </Node>
        </Node>
      </Node>
    </BinaryTree>
    <BinaryTree type="DecisionTree" boostWeight="1.0000000000000000e+00" itree="680">
