<?xml version="1.0"?>
<MethodSetup Method="BDT::BDTG">
  <GeneralInfo>
    <Info name="TMVA Release" value="4.2.0 [262656]"/>
    <Info name="ROOT Release" value="5.34/25 [336409]"/>
    <Info name="Creator" value="asciandr"/>
    <Info name="Date" value="Thu Sep 13 16:31:43 2018"/>
    <Info name="Host" value="Linux lcgapp-slc6-physical1.cern.ch 2.6.32-504.1.3.el6.x86_64 #1 SMP Wed Nov 12 06:58:35 CET 2014 x86_64 x86_64 x86_64 GNU/Linux"/>
    <Info name="Dir" value="/afs/cern.ch/work/a/asciandr/WWZ/WWZ_shape/BDT"/>
    <Info name="Training events" value="279382"/>
    <Info name="TrainingTime" value="5.45901876e+02"/>
    <Info name="AnalysisType" value="Classification"/>
  </GeneralInfo>
  <Options>
    <Option name="V" modified="Yes">False</Option>
    <Option name="VerbosityLevel" modified="No">Default</Option>
    <Option name="VarTransform" modified="No">None</Option>
    <Option name="H" modified="Yes">False</Option>
    <Option name="CreateMVAPdfs" modified="No">False</Option>
    <Option name="IgnoreNegWeightsInTraining" modified="Yes">True</Option>
    <Option name="NTrees" modified="Yes">2600</Option>
    <Option name="MaxDepth" modified="Yes">2</Option>
    <Option name="MinNodeSize" modified="Yes">3%</Option>
    <Option name="nCuts" modified="Yes">140</Option>
    <Option name="BoostType" modified="Yes">Grad</Option>
    <Option name="AdaBoostR2Loss" modified="No">quadratic</Option>
    <Option name="UseBaggedBoost" modified="Yes">True</Option>
    <Option name="Shrinkage" modified="Yes">1.000000e-01</Option>
    <Option name="AdaBoostBeta" modified="No">5.000000e-01</Option>
    <Option name="UseRandomisedTrees" modified="No">False</Option>
    <Option name="UseNvars" modified="No">3</Option>
    <Option name="UsePoissonNvars" modified="No">True</Option>
    <Option name="BaggedSampleFraction" modified="Yes">5.000000e-01</Option>
    <Option name="UseYesNoLeaf" modified="No">True</Option>
    <Option name="NegWeightTreatment" modified="No">ignorenegweightsintraining</Option>
    <Option name="Css" modified="No">1.000000e+00</Option>
    <Option name="Cts_sb" modified="No">1.000000e+00</Option>
    <Option name="Ctb_ss" modified="No">1.000000e+00</Option>
    <Option name="Cbb" modified="No">1.000000e+00</Option>
    <Option name="NodePurityLimit" modified="No">5.000000e-01</Option>
    <Option name="SeparationType" modified="No">giniindex</Option>
    <Option name="DoBoostMonitor" modified="No">False</Option>
    <Option name="UseFisherCuts" modified="No">False</Option>
    <Option name="MinLinCorrForFisher" modified="No">8.000000e-01</Option>
    <Option name="UseExclusiveVars" modified="No">False</Option>
    <Option name="DoPreselection" modified="No">False</Option>
    <Option name="SigToBkgFraction" modified="No">1.000000e+00</Option>
    <Option name="PruneMethod" modified="No">nopruning</Option>
    <Option name="PruneStrength" modified="No">0.000000e+00</Option>
    <Option name="PruningValFraction" modified="No">5.000000e-01</Option>
    <Option name="nEventsMin" modified="No">0</Option>
    <Option name="UseBaggedGrad" modified="No">False</Option>
    <Option name="GradBaggingFraction" modified="No">5.000000e-01</Option>
    <Option name="UseNTrainEvents" modified="No">0</Option>
    <Option name="NNodesMax" modified="No">0</Option>
  </Options>
  <Variables NVar="6">
    <Variable VarIndex="0" Expression="nJets_OR" Label="nJets_OR" Title="nJets_OR" Unit="" Internal="nJets_OR" Type="I" Min="0.00000000e+00" Max="1.20000000e+01"/>
    <Variable VarIndex="1" Expression="Mllll0123" Label="Mllll0123" Title="Mllll0123" Unit="" Internal="Mllll0123" Type="F" Min="1.65920453e+05" Max="3.40348825e+06"/>
    <Variable VarIndex="2" Expression="best_Z_Mll" Label="best_Z_Mll" Title="best_Z_Mll" Unit="" Internal="best_Z_Mll" Type="F" Min="8.13081641e+04" Max="1.01126086e+05"/>
    <Variable VarIndex="3" Expression="best_Z_other_Mll" Label="best_Z_other_Mll" Title="best_Z_other_Mll" Unit="" Internal="best_Z_other_Mll" Type="F" Min="8.12001641e+04" Max="1.01198844e+05"/>
    <Variable VarIndex="4" Expression="MET_RefFinal_et" Label="MET_RefFinal_et" Title="MET_RefFinal_et" Unit="" Internal="MET_RefFinal_et" Type="F" Min="4.54794998e+01" Max="1.71867750e+06"/>
    <Variable VarIndex="5" Expression="HT" Label="HT" Title="HT" Unit="" Internal="HT" Type="F" Min="8.74419844e+04" Max="4.88241200e+06"/>
  </Variables>
  <Spectators NSpec="0"/>
  <Classes NClass="2">
    <Class Name="Signal" Index="0"/>
    <Class Name="Background" Index="1"/>
  </Classes>
  <Transformations NTransformations="0"/>
  <MVAPdfs/>
  <Weights NTrees="2600" AnalysisType="1">
    <BinaryTree type="DecisionTree" boostWeight="1.0000000000000000e+00" itree="0">
      <Node pos="s" depth="0" NCoef="0" IVar="4" Cut="1.8592275390625000e+04" cType="1" res="6.0540902614593506e-01" rms="4.8882150650024414e-01" purity="6.0553407669067383e-01" nType="0">
        <Node pos="l" depth="1" NCoef="0" IVar="0" Cut="2.0000000000000000e+00" cType="1" res="-3.1108465790748596e-01" rms="3.9144134521484375e-01" purity="1.8891532719135284e-01" nType="0">
          <Node pos="l" depth="2" NCoef="0" IVar="-1" Cut="0.0000000000000000e+00" cType="1" res="-2.8517110273241997e-02" rms="2.8254568576812744e-01" purity="8.7485849857330322e-02" nType="-99"/>
          <Node pos="r" depth="2" NCoef="0" IVar="-1" Cut="0.0000000000000000e+00" cType="1" res="7.9720988869667053e-03" rms="4.1750505566596985e-01" purity="7.7511727809906006e-01" nType="-99"/>
        </Node>
        <Node pos="r" depth="1" NCoef="0" IVar="2" Cut="8.9699539062500000e+04" cType="1" res="7.5419968366622925e-01" rms="4.3057695031166077e-01" purity="7.5430518388748169e-01" nType="0">
          <Node pos="l" depth="2" NCoef="0" IVar="-1" Cut="0.0000000000000000e+00" cType="1" res="6.8882354753441177e-06" rms="3.1259578466415405e-01" purity="8.9023566246032715e-01" nType="-99"/>
          <Node pos="r" depth="2" NCoef="0" IVar="-1" Cut="0.0000000000000000e+00" cType="1" res="6.5310241552651860e-06" rms="4.8102986812591553e-01" purity="6.3641941547393799e-01" nType="-99"/>
        </Node>
      </Node>
    </BinaryTree>
    <BinaryTree type="DecisionTree" boostWeight="1.0000000000000000e+00" itree="1">
      <Node pos="s" depth="0" NCoef="0" IVar="4" Cut="2.2956992187500000e+04" cType="1" res="4.7900459170341492e-01" rms="4.9955898523330688e-01" purity="4.7900459170341492e-01" nType="0">
        <Node pos="l" depth="1" NCoef="0" IVar="0" Cut="2.0000000000000000e+00" cType="1" res="-2.7877104282379150e-01" rms="4.0504428744316101e-01" purity="2.1197429299354553e-01" nType="0">
          <Node pos="l" depth="2" NCoef="0" IVar="-1" Cut="0.0000000000000000e+00" cType="1" res="-2.8147147968411446e-02" rms="2.9527229070663452e-01" purity="9.6795536577701569e-02" nType="-99"/>
          <Node pos="r" depth="2" NCoef="0" IVar="-1" Cut="0.0000000000000000e+00" cType="1" res="7.8587830066680908e-03" rms="4.1021940112113953e-01" purity="7.8593832254409790e-01" nType="-99"/>
        </Node>
        <Node pos="r" depth="1" NCoef="0" IVar="3" Cut="9.5950351562500000e+04" cType="1" res="6.7972761392593384e-01" rms="4.6658116579055786e-01" purity="6.7972761392593384e-01" nType="0">
          <Node pos="l" depth="2" NCoef="0" IVar="-1" Cut="0.0000000000000000e+00" cType="1" res="9.1489305486902595e-04" rms="4.9727994203567505e-01" purity="5.5208331346511841e-01" nType="-99"/>
          <Node pos="r" depth="2" NCoef="0" IVar="-1" Cut="0.0000000000000000e+00" cType="1" res="5.6595313253637869e-06" rms="2.9962718486785889e-01" purity="9.0027928352355957e-01" nType="-99"/>
        </Node>
      </Node>
    </BinaryTree>
    <BinaryTree type="DecisionTree" boostWeight="1.0000000000000000e+00" itree="2">
      <Node pos="s" depth="0" NCoef="0" IVar="4" Cut="1.8561316406250000e+04" cType="1" res="6.2624436616897583e-01" rms="4.8391988873481750e-01" purity="6.2640732526779175e-01" nType="0">
        <Node pos="l" depth="1" NCoef="0" IVar="0" Cut="2.0000000000000000e+00" cType="1" res="-2.8679668903350830e-01" rms="3.8442078232765198e-01" purity="1.9035939872264862e-01" nType="0">
          <Node pos="l" depth="2" NCoef="0" IVar="-1" Cut="0.0000000000000000e+00" cType="1" res="-2.9846727848052979e-02" rms="2.7815932035446167e-01" purity="8.4515482187271118e-02" nType="-99"/>
          <Node pos="r" depth="2" NCoef="0" IVar="-1" Cut="0.0000000000000000e+00" cType="1" res="8.4116104990243912e-03" rms="4.0952882170677185e-01" purity="7.8685563802719116e-01" nType="-99"/>
        </Node>
        <Node pos="r" depth="1" NCoef="0" IVar="2" Cut="8.9620179687500000e+04" cType="1" res="7.7135044336318970e-01" rms="4.2014721035957336e-01" purity="7.7156764268875122e-01" nType="0">
          <Node pos="l" depth="2" NCoef="0" IVar="-1" Cut="0.0000000000000000e+00" cType="1" res="5.9909557421633508e-06" rms="2.8561264276504517e-01" purity="9.0979111194610596e-01" nType="-99"/>
          <Node pos="r" depth="2" NCoef="0" IVar="-1" Cut="0.0000000000000000e+00" cType="1" res="7.2627258305146825e-06" rms="4.8108974099159241e-01" purity="6.4058339595794678e-01" nType="-99"/>
        </Node>
      </Node>
    </BinaryTree>
    <BinaryTree type="DecisionTree" boostWeight="1.0000000000000000e+00" itree="3">
      <Node pos="s" depth="0" NCoef="0" IVar="4" Cut="1.7799791015625000e+04" cType="1" res="5.3940898180007935e-01" rms="4.9863886833190918e-01" purity="5.3971213102340698e-01" nType="0">
        <Node pos="l" depth="1" NCoef="0" IVar="0" Cut="2.0000000000000000e+00" cType="1" res="-2.8119769692420959e-01" rms="3.7469920516014099e-01" purity="1.8417493999004364e-01" nType="0">
          <Node pos="l" depth="2" NCoef="0" IVar="-1" Cut="0.0000000000000000e+00" cType="1" res="-3.0681548640131950e-02" rms="2.6259028911590576e-01" purity="7.4504591524600983e-02" nType="-99"/>
          <Node pos="r" depth="2" NCoef="0" IVar="-1" Cut="0.0000000000000000e+00" cType="1" res="7.1301129646599293e-03" rms="4.1022464632987976e-01" purity="7.8585964441299438e-01" nType="-99"/>
        </Node>
        <Node pos="r" depth="1" NCoef="0" IVar="3" Cut="8.9284500000000000e+04" cType="1" res="6.8711131811141968e-01" rms="4.6380749344825745e-01" purity="6.8739408254623413e-01" nType="0">
          <Node pos="l" depth="2" NCoef="0" IVar="-1" Cut="0.0000000000000000e+00" cType="1" res="1.4427106361836195e-04" rms="4.9767339229583740e-01" purity="5.0471675395965576e-01" nType="-99"/>
          <Node pos="r" depth="2" NCoef="0" IVar="-1" Cut="0.0000000000000000e+00" cType="1" res="5.8672799241321627e-06" rms="4.2588692903518677e-01" purity="7.6196354627609253e-01" nType="-99"/>
        </Node>
      </Node>
    </BinaryTree>
    <BinaryTree type="DecisionTree" boostWeight="1.0000000000000000e+00" itree="4">
      <Node pos="s" depth="0" NCoef="0" IVar="4" Cut="2.2956992187500000e+04" cType="1" res="5.8915644884109497e-01" rms="4.9208983778953552e-01" purity="5.8932787179946899e-01" nType="0">
        <Node pos="l" depth="1" NCoef="0" IVar="0" Cut="2.0000000000000000e+00" cType="1" res="-2.4792627990245819e-01" rms="3.9447489380836487e-01" purity="2.1263323724269867e-01" nType="0">
          <Node pos="l" depth="2" NCoef="0" IVar="-1" Cut="0.0000000000000000e+00" cType="1" res="-2.6693496853113174e-02" rms="2.9870364069938660e-01" purity="9.9969863891601562e-02" nType="-99"/>
          <Node pos="r" depth="2" NCoef="0" IVar="-1" Cut="0.0000000000000000e+00" cType="1" res="6.7663672380149364e-03" rms="4.0613663196563721e-01" purity="7.9169243574142456e-01" nType="-99"/>
        </Node>
        <Node pos="r" depth="1" NCoef="0" IVar="2" Cut="8.9663015625000000e+04" cType="1" res="7.8379422426223755e-01" rms="4.1175231337547302e-01" purity="7.8397977352142334e-01" nType="0">
          <Node pos="l" depth="2" NCoef="0" IVar="-1" Cut="0.0000000000000000e+00" cType="1" res="6.0334045883791987e-06" rms="2.6774445176124573e-01" purity="9.2231655120849609e-01" nType="-99"/>
          <Node pos="r" depth="2" NCoef="0" IVar="-1" Cut="0.0000000000000000e+00" cType="1" res="8.6325901793316007e-04" rms="4.9448171257972717e-01" purity="5.7409083843231201e-01" nType="-99"/>
        </Node>
      </Node>
    </BinaryTree>
    <BinaryTree type="DecisionTree" boostWeight="1.0000000000000000e+00" itree="5">
      <Node pos="s" depth="0" NCoef="0" IVar="5" Cut="2.5888671875000000e+05" cType="1" res="5.3378450870513916e-01" rms="4.9885728955268860e-01" purity="5.3378444910049438e-01" nType="0">
        <Node pos="l" depth="1" NCoef="0" IVar="4" Cut="4.7193695312500000e+04" cType="1" res="1.6542199254035950e-01" rms="3.7156096100807190e-01" purity="1.6542200744152069e-01" nType="0">
          <Node pos="l" depth="2" NCoef="0" IVar="-1" Cut="0.0000000000000000e+00" cType="1" res="-1.9400436431169510e-02" rms="3.1311431527137756e-01" purity="1.1502642929553986e-01" nType="-99"/>
          <Node pos="r" depth="2" NCoef="0" IVar="-1" Cut="0.0000000000000000e+00" cType="1" res="1.2974932324141264e-03" rms="4.8808580636978149e-01" purity="6.0855382680892944e-01" nType="-99"/>
        </Node>
        <Node pos="r" depth="1" NCoef="0" IVar="4" Cut="1.7808185546875000e+04" cType="1" res="7.8081446886062622e-01" rms="4.1369462013244629e-01" purity="7.8081440925598145e-01" nType="0">
          <Node pos="l" depth="2" NCoef="0" IVar="-1" Cut="0.0000000000000000e+00" cType="1" res="-3.8767218939028680e-04" rms="4.7151029109954834e-01" purity="4.5540294051170349e-01" nType="-99"/>
          <Node pos="r" depth="2" NCoef="0" IVar="-1" Cut="0.0000000000000000e+00" cType="1" res="9.2764439614256844e-06" rms="3.6591711640357971e-01" purity="8.4513050317764282e-01" nType="-99"/>
        </Node>
      </Node>
    </BinaryTree>
    <BinaryTree type="DecisionTree" boostWeight="1.0000000000000000e+00" itree="6">
      <Node pos="s" depth="0" NCoef="0" IVar="0" Cut="2.0000000000000000e+00" cType="1" res="-8.3831794559955597e-02" rms="4.6818542480468750e-01" purity="3.8651430606842041e-01" nType="0">
        <Node pos="l" depth="1" NCoef="0" IVar="4" Cut="5.7027953125000000e+04" cType="1" res="2.3410777747631073e-01" rms="4.2343989014625549e-01" purity="2.3410777747631073e-01" nType="0">
          <Node pos="l" depth="2" NCoef="0" IVar="-1" Cut="0.0000000000000000e+00" cType="1" res="-1.4639739878475666e-02" rms="3.6450845003128052e-01" purity="1.6590258479118347e-01" nType="-99"/>
          <Node pos="r" depth="2" NCoef="0" IVar="-1" Cut="0.0000000000000000e+00" cType="1" res="2.4399072863161564e-03" rms="4.0202173590660095e-01" purity="7.9736810922622681e-01" nType="-99"/>
        </Node>
        <Node pos="r" depth="1" NCoef="0" IVar="5" Cut="3.7393250000000000e+05" cType="1" res="8.2652771472930908e-01" rms="3.7873744964599609e-01" purity="8.2689416408538818e-01" nType="0">
          <Node pos="l" depth="2" NCoef="0" IVar="-1" Cut="0.0000000000000000e+00" cType="1" res="4.5649800449609756e-03" rms="4.5677843689918518e-01" purity="7.0391976833343506e-01" nType="-99"/>
          <Node pos="r" depth="2" NCoef="0" IVar="-1" Cut="0.0000000000000000e+00" cType="1" res="3.0036314856261015e-03" rms="3.3084937930107117e-01" purity="8.7531113624572754e-01" nType="-99"/>
        </Node>
      </Node>
    </BinaryTree>
    <BinaryTree type="DecisionTree" boostWeight="1.0000000000000000e+00" itree="7">
      <Node pos="s" depth="0" NCoef="0" IVar="5" Cut="2.6272696875000000e+05" cType="1" res="5.7196366786956787e-01" rms="4.9497905373573303e-01" purity="5.7214665412902832e-01" nType="0">
        <Node pos="l" depth="1" NCoef="0" IVar="4" Cut="2.5912128906250000e+04" cType="1" res="3.1184309720993042e-01" rms="4.6324613690376282e-01" purity="3.1184312701225281e-01" nType="0">
          <Node pos="l" depth="2" NCoef="0" IVar="-1" Cut="0.0000000000000000e+00" cType="1" res="-2.4409187957644463e-02" rms="2.6231119036674500e-01" purity="7.6999016106128693e-02" nType="-99"/>
          <Node pos="r" depth="2" NCoef="0" IVar="-1" Cut="0.0000000000000000e+00" cType="1" res="6.0613574532908387e-06" rms="4.8531794548034668e-01" purity="6.1998349428176880e-01" nType="-99"/>
        </Node>
        <Node pos="r" depth="1" NCoef="0" IVar="4" Cut="1.7878869140625000e+04" cType="1" res="7.9154396057128906e-01" rms="4.0661975741386414e-01" purity="7.9188150167465210e-01" nType="0">
          <Node pos="l" depth="2" NCoef="0" IVar="-1" Cut="0.0000000000000000e+00" cType="1" res="5.2730483002960682e-04" rms="4.7117927670478821e-01" purity="4.8052364587783813e-01" nType="-99"/>
          <Node pos="r" depth="2" NCoef="0" IVar="-1" Cut="0.0000000000000000e+00" cType="1" res="9.4565175459138118e-06" rms="3.5759285092353821e-01" purity="8.5377627611160278e-01" nType="-99"/>
        </Node>
      </Node>
    </BinaryTree>
    <BinaryTree type="DecisionTree" boostWeight="1.0000000000000000e+00" itree="8">
      <Node pos="s" depth="0" NCoef="0" IVar="5" Cut="2.5747637500000000e+05" cType="1" res="5.2494090795516968e-01" rms="4.9948179721832275e-01" purity="5.2517431974411011e-01" nType="0">
        <Node pos="l" depth="1" NCoef="0" IVar="4" Cut="4.5568996093750000e+04" cType="1" res="1.4571578800678253e-01" rms="3.5282105207443237e-01" purity="1.4571578800678253e-01" nType="0">
          <Node pos="l" depth="2" NCoef="0" IVar="-1" Cut="0.0000000000000000e+00" cType="1" res="-2.3780399933457375e-02" rms="2.9063954949378967e-01" purity="9.7706332802772522e-02" nType="-99"/>
          <Node pos="r" depth="2" NCoef="0" IVar="-1" Cut="0.0000000000000000e+00" cType="1" res="9.7842852119356394e-04" rms="4.9371191859245300e-01" purity="5.7057476043701172e-01" nType="-99"/>
        </Node>
        <Node pos="r" depth="1" NCoef="0" IVar="4" Cut="1.8016582031250000e+04" cType="1" res="7.7394390106201172e-01" rms="4.1848203539848328e-01" purity="7.7433055639266968e-01" nType="0">
          <Node pos="l" depth="2" NCoef="0" IVar="-1" Cut="0.0000000000000000e+00" cType="1" res="-4.7675246605649590e-04" rms="4.6789115667343140e-01" purity="4.5084780454635620e-01" nType="-99"/>
          <Node pos="r" depth="2" NCoef="0" IVar="-1" Cut="0.0000000000000000e+00" cType="1" res="9.1414067355799489e-06" rms="3.6998006701469421e-01" purity="8.4113752841949463e-01" nType="-99"/>
        </Node>
      </Node>
    </BinaryTree>
    <BinaryTree type="DecisionTree" boostWeight="1.0000000000000000e+00" itree="9">
      <Node pos="s" depth="0" NCoef="0" IVar="5" Cut="2.6177623437500000e+05" cType="1" res="-inf" rms="0.0000000000000000e+00" purity="4.7222951054573059e-01" nType="0">
        <Node pos="l" depth="1" NCoef="0" IVar="4" Cut="4.5424730468750000e+04" cType="1" res="1.6030266880989075e-01" rms="3.6688652634620667e-01" purity="1.6030266880989075e-01" nType="0">
          <Node pos="l" depth="2" NCoef="0" IVar="-1" Cut="0.0000000000000000e+00" cType="1" res="-1.9602116197347641e-02" rms="3.0123656988143921e-01" purity="1.0656238347291946e-01" nType="-99"/>
          <Node pos="r" depth="2" NCoef="0" IVar="-1" Cut="0.0000000000000000e+00" cType="1" res="1.3018999015912414e-03" rms="4.8921394348144531e-01" purity="5.9708070755004883e-01" nType="-99"/>
        </Node>
        <Node pos="r" depth="1" NCoef="0" IVar="4" Cut="1.8561316406250000e+04" cType="1" res="7.3660814762115479e-01" rms="4.4063073396682739e-01" purity="7.3674702644348145e-01" nType="0">
          <Node pos="l" depth="2" NCoef="0" IVar="-1" Cut="0.0000000000000000e+00" cType="1" res="3.6902909050695598e-04" rms="4.6970245242118835e-01" purity="4.7867506742477417e-01" nType="-99"/>
          <Node pos="r" depth="2" NCoef="0" IVar="-1" Cut="0.0000000000000000e+00" cType="1" res="1.2402677384670824e-05" rms="3.9618030190467834e-01" purity="8.0845886468887329e-01" nType="-99"/>
        </Node>
      </Node>
    </BinaryTree>
    <BinaryTree type="DecisionTree" boostWeight="1.0000000000000000e+00" itree="10">
      <Node pos="s" depth="0" NCoef="0" IVar="4" Cut="2.3674177734375000e+04" cType="1" res="4.7888499498367310e-01" rms="4.9996516108512878e-01" purity="4.7939783334732056e-01" nType="0">
        <Node pos="l" depth="1" NCoef="0" IVar="0" Cut="2.0000000000000000e+00" cType="1" res="-2.0981948077678680e-01" rms="3.7651833891868591e-01" purity="2.0884510874748230e-01" nType="0">
          <Node pos="l" depth="2" NCoef="0" IVar="-1" Cut="0.0000000000000000e+00" cType="1" res="-2.3143466562032700e-02" rms="2.8222662210464478e-01" purity="9.0969145298004150e-02" nType="-99"/>
          <Node pos="r" depth="2" NCoef="0" IVar="-1" Cut="0.0000000000000000e+00" cType="1" res="7.0434892550110817e-03" rms="4.0970581769943237e-01" purity="7.8450691699981689e-01" nType="-99"/>
        </Node>
        <Node pos="r" depth="1" NCoef="0" IVar="3" Cut="9.5949718750000000e+04" cType="1" res="6.9161778688430786e-01" rms="4.6258598566055298e-01" purity="6.9269120693206787e-01" nType="0">
          <Node pos="l" depth="2" NCoef="0" IVar="-1" Cut="0.0000000000000000e+00" cType="1" res="1.3145717093721032e-03" rms="4.8701176047325134e-01" purity="5.6290018558502197e-01" nType="-99"/>
          <Node pos="r" depth="2" NCoef="0" IVar="-1" Cut="0.0000000000000000e+00" cType="1" res="6.4174159888352733e-06" rms="3.0310595035552979e-01" purity="9.0281772613525391e-01" nType="-99"/>
        </Node>
      </Node>
    </BinaryTree>
    <BinaryTree type="DecisionTree" boostWeight="1.0000000000000000e+00" itree="11">
      <Node pos="s" depth="0" NCoef="0" IVar="4" Cut="2.3674177734375000e+04" cType="1" res="4.8490360379219055e-01" rms="5.0017905235290527e-01" purity="4.8547208309173584e-01" nType="0">
        <Node pos="l" depth="1" NCoef="0" IVar="0" Cut="2.0000000000000000e+00" cType="1" res="-1.9475258886814117e-01" rms="3.7989094853401184e-01" purity="2.1485678851604462e-01" nType="0">
          <Node pos="l" depth="2" NCoef="0" IVar="-1" Cut="0.0000000000000000e+00" cType="1" res="-1.9320761784911156e-02" rms="3.0081969499588013e-01" purity="1.0440681874752045e-01" nType="-99"/>
          <Node pos="r" depth="2" NCoef="0" IVar="-1" Cut="0.0000000000000000e+00" cType="1" res="6.8884757347404957e-03" rms="4.1593435406684875e-01" purity="7.7504301071166992e-01" nType="-99"/>
        </Node>
        <Node pos="r" depth="1" NCoef="0" IVar="3" Cut="9.5950507812500000e+04" cType="1" res="6.9986045360565186e-01" rms="4.5888817310333252e-01" purity="7.0067286491394043e-01" nType="0">
          <Node pos="l" depth="2" NCoef="0" IVar="-1" Cut="0.0000000000000000e+00" cType="1" res="7.8041810775175691e-04" rms="4.8404377698898315e-01" purity="5.8190411329269409e-01" nType="-99"/>
          <Node pos="r" depth="2" NCoef="0" IVar="-1" Cut="0.0000000000000000e+00" cType="1" res="6.2439926296065096e-06" rms="3.0442553758621216e-01" purity="9.0226101875305176e-01" nType="-99"/>
        </Node>
      </Node>
    </BinaryTree>
    <BinaryTree type="DecisionTree" boostWeight="1.0000000000000000e+00" itree="12">
      <Node pos="s" depth="0" NCoef="0" IVar="4" Cut="2.2974734375000000e+04" cType="1" res="4.8062500357627869e-01" rms="4.9973917007446289e-01" purity="4.8082771897315979e-01" nType="0">
        <Node pos="l" depth="1" NCoef="0" IVar="0" Cut="2.0000000000000000e+00" cType="1" res="-1.9228081405162811e-01" rms="3.7141540646553040e-01" purity="2.0914314687252045e-01" nType="0">
          <Node pos="l" depth="2" NCoef="0" IVar="-1" Cut="0.0000000000000000e+00" cType="1" res="-2.2379498928785324e-02" rms="2.8533861041069031e-01" purity="9.2194102704524994e-02" nType="-99"/>
          <Node pos="r" depth="2" NCoef="0" IVar="-1" Cut="0.0000000000000000e+00" cType="1" res="7.2938343510031700e-03" rms="4.0346631407737732e-01" purity="7.9317617416381836e-01" nType="-99"/>
        </Node>
        <Node pos="r" depth="1" NCoef="0" IVar="3" Cut="9.5947750000000000e+04" cType="1" res="6.8585264682769775e-01" rms="4.6439218521118164e-01" purity="6.8620854616165161e-01" nType="0">
          <Node pos="l" depth="2" NCoef="0" IVar="-1" Cut="0.0000000000000000e+00" cType="1" res="1.2408542679622769e-03" rms="4.8697319626808167e-01" purity="5.5713117122650146e-01" nType="-99"/>
          <Node pos="r" depth="2" NCoef="0" IVar="-1" Cut="0.0000000000000000e+00" cType="1" res="6.4309024310205132e-06" rms="3.0643862485885620e-01" purity="9.0027785301208496e-01" nType="-99"/>
        </Node>
      </Node>
    </BinaryTree>
    <BinaryTree type="DecisionTree" boostWeight="1.0000000000000000e+00" itree="13">
      <Node pos="s" depth="0" NCoef="0" IVar="5" Cut="2.4554017187500000e+05" cType="1" res="4.7284716367721558e-01" rms="4.9940729141235352e-01" purity="4.7305494546890259e-01" nType="0">
        <Node pos="l" depth="1" NCoef="0" IVar="4" Cut="4.3624148437500000e+04" cType="1" res="1.5370815992355347e-01" rms="3.6066877841949463e-01" purity="1.5370815992355347e-01" nType="0">
          <Node pos="l" depth="2" NCoef="0" IVar="-1" Cut="0.0000000000000000e+00" cType="1" res="-1.7645318061113358e-02" rms="2.8874087333679199e-01" purity="9.6698842942714691e-02" nType="-99"/>
          <Node pos="r" depth="2" NCoef="0" IVar="-1" Cut="0.0000000000000000e+00" cType="1" res="1.0507615515962243e-03" rms="4.9030143022537231e-01" purity="5.8648365736007690e-01" nType="-99"/>
        </Node>
        <Node pos="r" depth="1" NCoef="0" IVar="4" Cut="1.7823042968750000e+04" cType="1" res="7.0531535148620605e-01" rms="4.5617547631263733e-01" purity="7.0567446947097778e-01" nType="0">
          <Node pos="l" depth="2" NCoef="0" IVar="-1" Cut="0.0000000000000000e+00" cType="1" res="-8.8053592480719090e-04" rms="4.5558780431747437e-01" purity="4.1674295067787170e-01" nType="-99"/>
          <Node pos="r" depth="2" NCoef="0" IVar="-1" Cut="0.0000000000000000e+00" cType="1" res="1.2973794582649134e-05" rms="4.1577818989753723e-01" purity="7.8396004438400269e-01" nType="-99"/>
        </Node>
      </Node>
    </BinaryTree>
    <BinaryTree type="DecisionTree" boostWeight="1.0000000000000000e+00" itree="14">
      <Node pos="s" depth="0" NCoef="0" IVar="4" Cut="1.7799791015625000e+04" cType="1" res="6.0097700357437134e-01" rms="4.8969748616218567e-01" purity="6.0097706317901611e-01" nType="0">
        <Node pos="l" depth="1" NCoef="0" IVar="0" Cut="2.0000000000000000e+00" cType="1" res="-1.8738801777362823e-01" rms="3.5370650887489319e-01" purity="1.9108814001083374e-01" nType="0">
          <Node pos="l" depth="2" NCoef="0" IVar="-1" Cut="0.0000000000000000e+00" cType="1" res="-2.1106557920575142e-02" rms="2.7666115760803223e-01" purity="8.5799604654312134e-02" nType="-99"/>
          <Node pos="r" depth="2" NCoef="0" IVar="-1" Cut="0.0000000000000000e+00" cType="1" res="6.5058772452175617e-03" rms="4.0234577655792236e-01" purity="7.9465651512145996e-01" nType="-99"/>
        </Node>
        <Node pos="r" depth="1" NCoef="0" IVar="3" Cut="9.5950867187500000e+04" cType="1" res="7.4131655693054199e-01" rms="4.3791133165359497e-01" purity="7.4131655693054199e-01" nType="0">
          <Node pos="l" depth="2" NCoef="0" IVar="-1" Cut="0.0000000000000000e+00" cType="1" res="8.4780403994955122e-06" rms="4.7752293944358826e-01" purity="6.1984127759933472e-01" nType="-99"/>
          <Node pos="r" depth="2" NCoef="0" IVar="-1" Cut="0.0000000000000000e+00" cType="1" res="6.2560839069192298e-06" rms="2.6745080947875977e-01" purity="9.2417573928833008e-01" nType="-99"/>
        </Node>
      </Node>
    </BinaryTree>
    <BinaryTree type="DecisionTree" boostWeight="1.0000000000000000e+00" itree="15">
      <Node pos="s" depth="0" NCoef="0" IVar="4" Cut="1.7767003906250000e+04" cType="1" res="5.1788634061813354e-01" rms="4.9967998266220093e-01" purity="5.1788634061813354e-01" nType="0">
        <Node pos="l" depth="1" NCoef="0" IVar="0" Cut="2.0000000000000000e+00" cType="1" res="-1.8292528390884399e-01" rms="3.5009151697158813e-01" purity="1.8598242104053497e-01" nType="0">
          <Node pos="l" depth="2" NCoef="0" IVar="-1" Cut="0.0000000000000000e+00" cType="1" res="-1.8478399142622948e-02" rms="2.8266805410385132e-01" purity="9.0168312191963196e-02" nType="-99"/>
          <Node pos="r" depth="2" NCoef="0" IVar="-1" Cut="0.0000000000000000e+00" cType="1" res="7.5224475003778934e-03" rms="4.1229808330535889e-01" purity="7.8119736909866333e-01" nType="-99"/>
        </Node>
        <Node pos="r" depth="1" NCoef="0" IVar="5" Cut="2.6369718750000000e+05" cType="1" res="6.6742318868637085e-01" rms="4.7113636136054993e-01" purity="6.6742318868637085e-01" nType="0">
          <Node pos="l" depth="2" NCoef="0" IVar="-1" Cut="0.0000000000000000e+00" cType="1" res="2.7969058464805130e-06" rms="4.8735547065734863e-01" purity="4.9359542131423950e-01" nType="-99"/>
          <Node pos="r" depth="2" NCoef="0" IVar="-1" Cut="0.0000000000000000e+00" cType="1" res="1.2690975381701719e-05" rms="4.0264308452606201e-01" purity="8.0514621734619141e-01" nType="-99"/>
        </Node>
      </Node>
    </BinaryTree>
    <BinaryTree type="DecisionTree" boostWeight="1.0000000000000000e+00" itree="16">
      <Node pos="s" depth="0" NCoef="0" IVar="4" Cut="2.3706728515625000e+04" cType="1" res="4.8578560352325439e-01" rms="4.9986508488655090e-01" purity="4.8594033718109131e-01" nType="0">
        <Node pos="l" depth="1" NCoef="0" IVar="0" Cut="2.0000000000000000e+00" cType="1" res="-1.6624185442924500e-01" rms="3.6756139993667603e-01" purity="2.1308940649032593e-01" nType="0">
          <Node pos="l" depth="2" NCoef="0" IVar="-1" Cut="0.0000000000000000e+00" cType="1" res="-1.8262768164277077e-02" rms="2.9241558909416199e-01" purity="9.7731873393058777e-02" nType="-99"/>
          <Node pos="r" depth="2" NCoef="0" IVar="-1" Cut="0.0000000000000000e+00" cType="1" res="6.4103766344487667e-03" rms="4.0705087780952454e-01" purity="7.8755676746368408e-01" nType="-99"/>
        </Node>
        <Node pos="r" depth="1" NCoef="0" IVar="3" Cut="9.5951031250000000e+04" cType="1" res="6.9848608970642090e-01" rms="4.5904552936553955e-01" purity="6.9876146316528320e-01" nType="0">
          <Node pos="l" depth="2" NCoef="0" IVar="-1" Cut="0.0000000000000000e+00" cType="1" res="1.0114010656252503e-03" rms="4.8341861367225647e-01" purity="5.7642090320587158e-01" nType="-99"/>
          <Node pos="r" depth="2" NCoef="0" IVar="-1" Cut="0.0000000000000000e+00" cType="1" res="6.5042586356867105e-06" rms="3.0091723799705505e-01" purity="9.0539795160293579e-01" nType="-99"/>
        </Node>
      </Node>
    </BinaryTree>
    <BinaryTree type="DecisionTree" boostWeight="1.0000000000000000e+00" itree="17">
      <Node pos="s" depth="0" NCoef="0" IVar="4" Cut="2.4583226562500000e+04" cType="1" res="4.8590195178985596e-01" rms="4.9985870718955994e-01" purity="4.8595941066741943e-01" nType="0">
        <Node pos="l" depth="1" NCoef="0" IVar="0" Cut="2.0000000000000000e+00" cType="1" res="-1.4825908839702606e-01" rms="3.7639683485031128e-01" purity="2.2910289466381073e-01" nType="0">
          <Node pos="l" depth="2" NCoef="0" IVar="-1" Cut="0.0000000000000000e+00" cType="1" res="-1.5479624271392822e-02" rms="3.0469581484794617e-01" purity="1.0789803415536880e-01" nType="-99"/>
          <Node pos="r" depth="2" NCoef="0" IVar="-1" Cut="0.0000000000000000e+00" cType="1" res="6.8436996079981327e-03" rms="3.9945599436759949e-01" purity="7.9935264587402344e-01" nType="-99"/>
        </Node>
        <Node pos="r" depth="1" NCoef="0" IVar="3" Cut="9.5950000000000000e+04" cType="1" res="7.0484924316406250e-01" rms="4.5622718334197998e-01" purity="7.0495569705963135e-01" nType="0">
          <Node pos="l" depth="2" NCoef="0" IVar="-1" Cut="0.0000000000000000e+00" cType="1" res="1.7062058905139565e-03" rms="4.8446184396743774e-01" purity="5.7306516170501709e-01" nType="-99"/>
          <Node pos="r" depth="2" NCoef="0" IVar="-1" Cut="0.0000000000000000e+00" cType="1" res="6.5908825490623713e-06" rms="2.9596281051635742e-01" purity="9.0901416540145874e-01" nType="-99"/>
        </Node>
      </Node>
    </BinaryTree>
    <BinaryTree type="DecisionTree" boostWeight="1.0000000000000000e+00" itree="18">
      <Node pos="s" depth="0" NCoef="0" IVar="0" Cut="2.0000000000000000e+00" cType="1" res="-3.8353875279426575e-02" rms="4.4225680828094482e-01" purity="3.8769358396530151e-01" nType="0">
        <Node pos="l" depth="1" NCoef="0" IVar="4" Cut="5.5381417968750000e+04" cType="1" res="inf" rms="0.0000000000000000e+00" purity="2.3084731400012970e-01" nType="0">
          <Node pos="l" depth="2" NCoef="0" IVar="-1" Cut="0.0000000000000000e+00" cType="1" res="-1.0686643421649933e-02" rms="3.5670742392539978e-01" purity="1.6616137325763702e-01" nType="-99"/>
          <Node pos="r" depth="2" NCoef="0" IVar="-1" Cut="0.0000000000000000e+00" cType="1" res="2.4736870545893908e-03" rms="4.2597585916519165e-01" purity="7.6185905933380127e-01" nType="-99"/>
        </Node>
        <Node pos="r" depth="1" NCoef="0" IVar="5" Cut="3.7393250000000000e+05" cType="1" res="7.0988570924357397e-12" rms="0.0000000000000000e+00" purity="8.3447599411010742e-01" nType="0">
          <Node pos="l" depth="2" NCoef="0" IVar="-1" Cut="0.0000000000000000e+00" cType="1" res="3.5823939833790064e-03" rms="4.4826170802116394e-01" purity="7.2048038244247437e-01" nType="-99"/>
          <Node pos="r" depth="2" NCoef="0" IVar="-1" Cut="0.0000000000000000e+00" cType="1" res="2.9309687670320272e-03" rms="3.2308581471443176e-01" purity="8.8261198997497559e-01" nType="-99"/>
        </Node>
      </Node>
    </BinaryTree>
    <BinaryTree type="DecisionTree" boostWeight="1.0000000000000000e+00" itree="19">
      <Node pos="s" depth="0" NCoef="0" IVar="4" Cut="2.3222587890625000e+04" cType="1" res="4.7610405087471008e-01" rms="4.9951401352882385e-01" purity="4.7634372115135193e-01" nType="0">
        <Node pos="l" depth="1" NCoef="0" IVar="0" Cut="2.0000000000000000e+00" cType="1" res="-1.4452604949474335e-01" rms="3.6674007773399353e-01" purity="2.1910846233367920e-01" nType="0">
          <Node pos="l" depth="2" NCoef="0" IVar="-1" Cut="0.0000000000000000e+00" cType="1" res="-1.6823094338178635e-02" rms="2.9964438080787659e-01" purity="1.0317350924015045e-01" nType="-99"/>
          <Node pos="r" depth="2" NCoef="0" IVar="-1" Cut="0.0000000000000000e+00" cType="1" res="6.1036115512251854e-03" rms="4.0327996015548706e-01" purity="7.9400360584259033e-01" nType="-99"/>
        </Node>
        <Node pos="r" depth="1" NCoef="0" IVar="3" Cut="9.5950351562500000e+04" cType="1" res="6.8116611242294312e-01" rms="4.6618896722793579e-01" purity="6.8159693479537964e-01" nType="0">
          <Node pos="l" depth="2" NCoef="0" IVar="-1" Cut="0.0000000000000000e+00" cType="1" res="1.2467460473999381e-03" rms="4.8470443487167358e-01" purity="5.4554718732833862e-01" nType="-99"/>
          <Node pos="r" depth="2" NCoef="0" IVar="-1" Cut="0.0000000000000000e+00" cType="1" res="6.5754943534557242e-06" rms="3.0636784434318542e-01" purity="9.0118867158889771e-01" nType="-99"/>
        </Node>
      </Node>
    </BinaryTree>
    <BinaryTree type="DecisionTree" boostWeight="1.0000000000000000e+00" itree="20">
      <Node pos="s" depth="0" NCoef="0" IVar="4" Cut="2.3674177734375000e+04" cType="1" res="4.5282152295112610e-01" rms="4.9808195233345032e-01" purity="4.5313298702239990e-01" nType="0">
        <Node pos="l" depth="1" NCoef="0" IVar="0" Cut="2.0000000000000000e+00" cType="1" res="-1.4678826928138733e-01" rms="3.5862496495246887e-01" purity="2.1232645213603973e-01" nType="0">
          <Node pos="l" depth="2" NCoef="0" IVar="-1" Cut="0.0000000000000000e+00" cType="1" res="-1.7527734860777855e-02" rms="2.8775128722190857e-01" purity="9.5023237168788910e-02" nType="-99"/>
          <Node pos="r" depth="2" NCoef="0" IVar="-1" Cut="0.0000000000000000e+00" cType="1" res="5.8565386570990086e-03" rms="4.0730860829353333e-01" purity="7.8786277770996094e-01" nType="-99"/>
        </Node>
        <Node pos="r" depth="1" NCoef="0" IVar="2" Cut="8.9600062500000000e+04" cType="1" res="6.6297918558120728e-01" rms="4.7330898046493530e-01" purity="6.6356277465820312e-01" nType="0">
          <Node pos="l" depth="2" NCoef="0" IVar="-1" Cut="0.0000000000000000e+00" cType="1" res="1.1804544556071050e-05" rms="3.9097025990486145e-01" purity="8.1429541110992432e-01" nType="-99"/>
          <Node pos="r" depth="2" NCoef="0" IVar="-1" Cut="0.0000000000000000e+00" cType="1" res="1.6531638102605939e-03" rms="4.8060244321823120e-01" purity="5.8188736438751221e-01" nType="-99"/>
        </Node>
      </Node>
    </BinaryTree>
    <BinaryTree type="DecisionTree" boostWeight="1.0000000000000000e+00" itree="21">
      <Node pos="s" depth="0" NCoef="0" IVar="4" Cut="1.7785007812500000e+04" cType="1" res="5.4615312814712524e-01" rms="4.9793508648872375e-01" purity="5.4622256755828857e-01" nType="0">
        <Node pos="l" depth="1" NCoef="0" IVar="0" Cut="2.0000000000000000e+00" cType="1" res="-1.5770828723907471e-01" rms="3.2924798130989075e-01" purity="1.7985124886035919e-01" nType="0">
          <Node pos="l" depth="2" NCoef="0" IVar="-1" Cut="0.0000000000000000e+00" cType="1" res="-2.2862561047077179e-02" rms="2.5737428665161133e-01" purity="7.3573067784309387e-02" nType="-99"/>
          <Node pos="r" depth="2" NCoef="0" IVar="-1" Cut="0.0000000000000000e+00" cType="1" res="5.6872605346143246e-03" rms="4.0557667613029480e-01" purity="7.8962951898574829e-01" nType="-99"/>
        </Node>
        <Node pos="r" depth="1" NCoef="0" IVar="3" Cut="8.9284609375000000e+04" cType="1" res="6.9658917188644409e-01" rms="4.5983770489692688e-01" purity="6.9668716192245483e-01" nType="0">
          <Node pos="l" depth="2" NCoef="0" IVar="-1" Cut="0.0000000000000000e+00" cType="1" res="6.2691362109035254e-04" rms="4.7254708409309387e-01" purity="5.3370743989944458e-01" nType="-99"/>
          <Node pos="r" depth="2" NCoef="0" IVar="-1" Cut="0.0000000000000000e+00" cType="1" res="7.3866062848537695e-06" rms="4.2579418420791626e-01" purity="7.6515948772430420e-01" nType="-99"/>
        </Node>
      </Node>
    </BinaryTree>
    <BinaryTree type="DecisionTree" boostWeight="1.0000000000000000e+00" itree="22">
      <Node pos="s" depth="0" NCoef="0" IVar="5" Cut="2.4458235937500000e+05" cType="1" res="5.3005582094192505e-01" rms="4.9942308664321899e-01" purity="5.3046262264251709e-01" nType="0">
        <Node pos="l" depth="1" NCoef="0" IVar="4" Cut="4.8818398437500000e+04" cType="1" res="1.4149498939514160e-01" rms="3.4853142499923706e-01" purity="1.4149498939514160e-01" nType="0">
          <Node pos="l" depth="2" NCoef="0" IVar="-1" Cut="0.0000000000000000e+00" cType="1" res="-1.6368456184864044e-02" rms="2.8803589940071106e-01" purity="9.6859104931354523e-02" nType="-99"/>
          <Node pos="r" depth="2" NCoef="0" IVar="-1" Cut="0.0000000000000000e+00" cType="1" res="1.2199240736663342e-03" rms="4.8855432868003845e-01" purity="6.0197567939758301e-01" nType="-99"/>
        </Node>
        <Node pos="r" depth="1" NCoef="0" IVar="5" Cut="2.6968634375000000e+05" cType="1" res="7.5661808252334595e-01" rms="4.2972600460052490e-01" purity="7.5726205110549927e-01" nType="0">
          <Node pos="l" depth="2" NCoef="0" IVar="-1" Cut="0.0000000000000000e+00" cType="1" res="7.7206404967000708e-06" rms="3.2193335890769958e-01" purity="8.7974262237548828e-01" nType="-99"/>
          <Node pos="r" depth="2" NCoef="0" IVar="-1" Cut="0.0000000000000000e+00" cType="1" res="2.1176440641283989e-03" rms="4.4855278730392456e-01" purity="6.4726471900939941e-01" nType="-99"/>
        </Node>
      </Node>
    </BinaryTree>
    <BinaryTree type="DecisionTree" boostWeight="1.0000000000000000e+00" itree="23">
      <Node pos="s" depth="0" NCoef="0" IVar="0" Cut="2.0000000000000000e+00" cType="1" res="-2.6889896020293236e-02" rms="4.3278455734252930e-01" purity="3.8465973734855652e-01" nType="0">
        <Node pos="l" depth="1" NCoef="0" IVar="4" Cut="5.7026476562500000e+04" cType="1" res="2.2412621974945068e-01" rms="4.1700559854507446e-01" purity="2.2412623465061188e-01" nType="0">
          <Node pos="l" depth="2" NCoef="0" IVar="-1" Cut="0.0000000000000000e+00" cType="1" res="-1.0655455291271210e-02" rms="3.5196736454963684e-01" purity="1.6200859844684601e-01" nType="-99"/>
          <Node pos="r" depth="2" NCoef="0" IVar="-1" Cut="0.0000000000000000e+00" cType="1" res="2.5491986889392138e-03" rms="4.1887524724006653e-01" purity="7.7348726987838745e-01" nType="-99"/>
        </Node>
        <Node pos="r" depth="1" NCoef="0" IVar="5" Cut="3.7393250000000000e+05" cType="1" res="8.3192443847656250e-01" rms="3.7469458580017090e-01" purity="8.3279067277908325e-01" nType="0">
          <Node pos="l" depth="2" NCoef="0" IVar="-1" Cut="0.0000000000000000e+00" cType="1" res="4.2232386767864227e-03" rms="4.4807636737823486e-01" purity="7.2023975849151611e-01" nType="-99"/>
          <Node pos="r" depth="2" NCoef="0" IVar="-1" Cut="0.0000000000000000e+00" cType="1" res="2.8272322379052639e-03" rms="3.2572489976882935e-01" purity="8.8083225488662720e-01" nType="-99"/>
        </Node>
      </Node>
    </BinaryTree>
    <BinaryTree type="DecisionTree" boostWeight="1.0000000000000000e+00" itree="24">
      <Node pos="s" depth="0" NCoef="0" IVar="4" Cut="1.7767003906250000e+04" cType="1" res="5.4372042417526245e-01" rms="4.9828478693962097e-01" purity="5.4403489828109741e-01" nType="0">
        <Node pos="l" depth="1" NCoef="0" IVar="0" Cut="2.0000000000000000e+00" cType="1" res="-1.3557328283786774e-01" rms="3.3304908871650696e-01" purity="1.8696963787078857e-01" nType="0">
          <Node pos="l" depth="2" NCoef="0" IVar="-1" Cut="0.0000000000000000e+00" cType="1" res="-1.8917499110102654e-02" rms="2.7172043919563293e-01" purity="8.3025246858596802e-02" nType="-99"/>
          <Node pos="r" depth="2" NCoef="0" IVar="-1" Cut="0.0000000000000000e+00" cType="1" res="4.4933073222637177e-03" rms="4.0929239988327026e-01" purity="7.8439450263977051e-01" nType="-99"/>
        </Node>
        <Node pos="r" depth="1" NCoef="0" IVar="3" Cut="8.9284468750000000e+04" cType="1" res="6.9039463996887207e-01" rms="4.6263483166694641e-01" purity="6.9083827733993530e-01" nType="0">
          <Node pos="l" depth="2" NCoef="0" IVar="-1" Cut="0.0000000000000000e+00" cType="1" res="1.1410696897655725e-03" rms="4.7070276737213135e-01" purity="5.2338635921478271e-01" nType="-99"/>
          <Node pos="r" depth="2" NCoef="0" IVar="-1" Cut="0.0000000000000000e+00" cType="1" res="7.4929616857843939e-06" rms="4.2832458019256592e-01" purity="7.6139134168624878e-01" nType="-99"/>
        </Node>
      </Node>
    </BinaryTree>
    <BinaryTree type="DecisionTree" boostWeight="1.0000000000000000e+00" itree="25">
      <Node pos="s" depth="0" NCoef="0" IVar="4" Cut="2.2956992187500000e+04" cType="1" res="5.8708512783050537e-01" rms="4.9235779047012329e-01" purity="5.8708506822586060e-01" nType="0">
        <Node pos="l" depth="1" NCoef="0" IVar="0" Cut="2.0000000000000000e+00" cType="1" res="-1.2332136929035187e-01" rms="3.5142508149147034e-01" purity="2.0906154811382294e-01" nType="0">
          <Node pos="l" depth="2" NCoef="0" IVar="-1" Cut="0.0000000000000000e+00" cType="1" res="-1.7565092071890831e-02" rms="2.9192802309989929e-01" purity="9.7789920866489410e-02" nType="-99"/>
          <Node pos="r" depth="2" NCoef="0" IVar="-1" Cut="0.0000000000000000e+00" cType="1" res="6.1886277981102467e-03" rms="4.1367518901824951e-01" purity="7.7880853414535522e-01" nType="-99"/>
        </Node>
        <Node pos="r" depth="1" NCoef="0" IVar="5" Cut="1.7238668750000000e+05" cType="1" res="7.8214335441589355e-01" rms="4.1278946399688721e-01" purity="7.8214335441589355e-01" nType="0">
          <Node pos="l" depth="2" NCoef="0" IVar="-1" Cut="0.0000000000000000e+00" cType="1" res="6.6549678194860462e-06" rms="2.2518092393875122e-01" purity="9.4806188344955444e-01" nType="-99"/>
          <Node pos="r" depth="2" NCoef="0" IVar="-1" Cut="0.0000000000000000e+00" cType="1" res="1.8115276470780373e-03" rms="4.7589531540870667e-01" purity="5.9294641017913818e-01" nType="-99"/>
        </Node>
      </Node>
    </BinaryTree>
    <BinaryTree type="DecisionTree" boostWeight="1.0000000000000000e+00" itree="26">
      <Node pos="s" depth="0" NCoef="0" IVar="5" Cut="2.5914771875000000e+05" cType="1" res="4.6839004755020142e-01" rms="4.9899980425834656e-01" purity="4.6839007735252380e-01" nType="0">
        <Node pos="l" depth="1" NCoef="0" IVar="4" Cut="5.2067804687500000e+04" cType="1" res="1.6824956238269806e-01" rms="3.7408775091171265e-01" purity="1.6824956238269806e-01" nType="0">
          <Node pos="l" depth="2" NCoef="0" IVar="-1" Cut="0.0000000000000000e+00" cType="1" res="-1.0256645269691944e-02" rms="3.1601920723915100e-01" purity="1.2703958153724670e-01" nType="-99"/>
          <Node pos="r" depth="2" NCoef="0" IVar="-1" Cut="0.0000000000000000e+00" cType="1" res="1.7228595679625869e-03" rms="4.7366482019424438e-01" purity="6.5400224924087524e-01" nType="-99"/>
        </Node>
        <Node pos="r" depth="1" NCoef="0" IVar="4" Cut="1.8579189453125000e+04" cType="1" res="7.2535932064056396e-01" rms="4.4633302092552185e-01" purity="7.2535938024520874e-01" nType="0">
          <Node pos="l" depth="2" NCoef="0" IVar="-1" Cut="0.0000000000000000e+00" cType="1" res="1.1741586495190859e-03" rms="4.3192663788795471e-01" purity="4.4880977272987366e-01" nType="-99"/>
          <Node pos="r" depth="2" NCoef="0" IVar="-1" Cut="0.0000000000000000e+00" cType="1" res="1.3776319065073039e-05" rms="4.1301676630973816e-01" purity="8.0120152235031128e-01" nType="-99"/>
        </Node>
      </Node>
    </BinaryTree>
    <BinaryTree type="DecisionTree" boostWeight="1.0000000000000000e+00" itree="27">
      <Node pos="s" depth="0" NCoef="0" IVar="4" Cut="1.7767003906250000e+04" cType="1" res="5.7884722948074341e-01" rms="4.9374398589134216e-01" purity="5.7884722948074341e-01" nType="0">
        <Node pos="l" depth="1" NCoef="0" IVar="0" Cut="2.0000000000000000e+00" cType="1" res="-1.1431129276752472e-01" rms="3.3826977014541626e-01" purity="1.9304093718528748e-01" nType="0">
          <Node pos="l" depth="2" NCoef="0" IVar="-1" Cut="0.0000000000000000e+00" cType="1" res="-1.3245716691017151e-02" rms="2.8786602616310120e-01" purity="9.3859806656837463e-02" nType="-99"/>
          <Node pos="r" depth="2" NCoef="0" IVar="-1" Cut="0.0000000000000000e+00" cType="1" res="5.8264271356165409e-03" rms="4.1336610913276672e-01" purity="7.7833551168441772e-01" nType="-99"/>
        </Node>
        <Node pos="r" depth="1" NCoef="0" IVar="3" Cut="8.8433492187500000e+04" cType="1" res="7.2185617685317993e-01" rms="4.4808462262153625e-01" purity="7.2185617685317993e-01" nType="0">
          <Node pos="l" depth="2" NCoef="0" IVar="-1" Cut="0.0000000000000000e+00" cType="1" res="5.9746799524873495e-04" rms="4.7017335891723633e-01" purity="5.2576434612274170e-01" nType="-99"/>
          <Node pos="r" depth="2" NCoef="0" IVar="-1" Cut="0.0000000000000000e+00" cType="1" res="8.0846111814025789e-06" rms="4.1911563277244568e-01" purity="7.7419841289520264e-01" nType="-99"/>
        </Node>
      </Node>
    </BinaryTree>
    <BinaryTree type="DecisionTree" boostWeight="1.0000000000000000e+00" itree="28">
      <Node pos="s" depth="0" NCoef="0" IVar="4" Cut="2.3674177734375000e+04" cType="1" res="4.8259627819061279e-01" rms="4.9971041083335876e-01" purity="4.8260965943336487e-01" nType="0">
        <Node pos="l" depth="1" NCoef="0" IVar="0" Cut="2.0000000000000000e+00" cType="1" res="-1.1020407080650330e-01" rms="3.5152289271354675e-01" purity="2.1371689438819885e-01" nType="0">
          <Node pos="l" depth="2" NCoef="0" IVar="-1" Cut="0.0000000000000000e+00" cType="1" res="-1.5526834875345230e-02" rms="2.9447907209396362e-01" purity="9.9017620086669922e-02" nType="-99"/>
          <Node pos="r" depth="2" NCoef="0" IVar="-1" Cut="0.0000000000000000e+00" cType="1" res="5.9014610014855862e-03" rms="4.0289556980133057e-01" purity="7.9503262042999268e-01" nType="-99"/>
        </Node>
        <Node pos="r" depth="1" NCoef="0" IVar="3" Cut="9.5950507812500000e+04" cType="1" res="6.9677364826202393e-01" rms="4.5967838168144226e-01" purity="6.9679772853851318e-01" nType="0">
          <Node pos="l" depth="2" NCoef="0" IVar="-1" Cut="0.0000000000000000e+00" cType="1" res="1.4964231522753835e-03" rms="4.7781744599342346e-01" purity="5.7295572757720947e-01" nType="-99"/>
          <Node pos="r" depth="2" NCoef="0" IVar="-1" Cut="0.0000000000000000e+00" cType="1" res="6.8098593146714848e-06" rms="3.0500230193138123e-01" purity="9.0452837944030762e-01" nType="-99"/>
        </Node>
      </Node>
    </BinaryTree>
    <BinaryTree type="DecisionTree" boostWeight="1.0000000000000000e+00" itree="29">
      <Node pos="s" depth="0" NCoef="0" IVar="4" Cut="2.3706728515625000e+04" cType="1" res="4.4914495944976807e-01" rms="4.9751645326614380e-01" purity="4.4934782385826111e-01" nType="0">
        <Node pos="l" depth="1" NCoef="0" IVar="0" Cut="2.0000000000000000e+00" cType="1" res="-1.0509101301431656e-01" rms="3.5259872674942017e-01" purity="2.1280866861343384e-01" nType="0">
          <Node pos="l" depth="2" NCoef="0" IVar="-1" Cut="0.0000000000000000e+00" cType="1" res="-1.3147315010428429e-02" rms="3.0210244655609131e-01" purity="1.0534237325191498e-01" nType="-99"/>
          <Node pos="r" depth="2" NCoef="0" IVar="-1" Cut="0.0000000000000000e+00" cType="1" res="6.1290608718991280e-03" rms="4.1464984416961670e-01" purity="7.7674740552902222e-01" nType="-99"/>
        </Node>
        <Node pos="r" depth="1" NCoef="0" IVar="2" Cut="8.9629554687500000e+04" cType="1" res="6.5758919715881348e-01" rms="4.7460156679153442e-01" purity="6.5784710645675659e-01" nType="0">
          <Node pos="l" depth="2" NCoef="0" IVar="-1" Cut="0.0000000000000000e+00" cType="1" res="1.1912753507203888e-05" rms="4.0300336480140686e-01" purity="8.0256807804107666e-01" nType="-99"/>
          <Node pos="r" depth="2" NCoef="0" IVar="-1" Cut="0.0000000000000000e+00" cType="1" res="1.6751113580539823e-03" rms="4.7724071145057678e-01" purity="5.7739734649658203e-01" nType="-99"/>
        </Node>
      </Node>
    </BinaryTree>
    <BinaryTree type="DecisionTree" boostWeight="1.0000000000000000e+00" itree="30">
      <Node pos="s" depth="0" NCoef="0" IVar="0" Cut="2.0000000000000000e+00" cType="1" res="-1.5182496048510075e-02" rms="4.2457187175750732e-01" purity="3.8243779540061951e-01" nType="0">
        <Node pos="l" depth="1" NCoef="0" IVar="4" Cut="5.5893281250000000e+04" cType="1" res="2.3397096991539001e-01" rms="4.2335394024848938e-01" purity="2.3397095501422882e-01" nType="0">
          <Node pos="l" depth="2" NCoef="0" IVar="-1" Cut="0.0000000000000000e+00" cType="1" res="-8.1128878518939018e-03" rms="3.5330072045326233e-01" purity="1.6528199613094330e-01" nType="-99"/>
          <Node pos="r" depth="2" NCoef="0" IVar="-1" Cut="0.0000000000000000e+00" cType="1" res="2.3141677957028151e-03" rms="4.0474304556846619e-01" purity="7.9366469383239746e-01" nType="-99"/>
        </Node>
        <Node pos="r" depth="1" NCoef="0" IVar="5" Cut="3.7819025000000000e+05" cType="1" res="8.2318526506423950e-01" rms="3.8259920477867126e-01" purity="8.2443487644195557e-01" nType="0">
          <Node pos="l" depth="2" NCoef="0" IVar="-1" Cut="0.0000000000000000e+00" cType="1" res="3.9218566380441189e-03" rms="4.5790207386016846e-01" purity="6.9875520467758179e-01" nType="-99"/>
          <Node pos="r" depth="2" NCoef="0" IVar="-1" Cut="0.0000000000000000e+00" cType="1" res="6.4101503230631351e-03" rms="3.2837536931037903e-01" purity="8.7867009639739990e-01" nType="-99"/>
        </Node>
      </Node>
    </BinaryTree>
    <BinaryTree type="DecisionTree" boostWeight="1.0000000000000000e+00" itree="31">
      <Node pos="s" depth="0" NCoef="0" IVar="4" Cut="1.8593867187500000e+04" cType="1" res="5.4614430665969849e-01" rms="4.9786615371704102e-01" purity="5.4614430665969849e-01" nType="0">
        <Node pos="l" depth="1" NCoef="0" IVar="0" Cut="2.0000000000000000e+00" cType="1" res="-1.0401926189661026e-01" rms="3.3088633418083191e-01" purity="1.9224171340465546e-01" nType="0">
          <Node pos="l" depth="2" NCoef="0" IVar="-1" Cut="0.0000000000000000e+00" cType="1" res="-1.6468062996864319e-02" rms="2.7980667352676392e-01" purity="8.8178142905235291e-02" nType="-99"/>
          <Node pos="r" depth="2" NCoef="0" IVar="-1" Cut="0.0000000000000000e+00" cType="1" res="5.8121974579989910e-03" rms="4.1101685166358948e-01" purity="7.8151434659957886e-01" nType="-99"/>
        </Node>
        <Node pos="r" depth="1" NCoef="0" IVar="3" Cut="8.9285265625000000e+04" cType="1" res="7.0015114545822144e-01" rms="4.5819157361984253e-01" purity="7.0015114545822144e-01" nType="0">
          <Node pos="l" depth="2" NCoef="0" IVar="-1" Cut="0.0000000000000000e+00" cType="1" res="6.8046303931623697e-04" rms="4.6599557995796204e-01" purity="5.3379434347152710e-01" nType="-99"/>
          <Node pos="r" depth="2" NCoef="0" IVar="-1" Cut="0.0000000000000000e+00" cType="1" res="7.9199953688657843e-06" rms="4.2696750164031982e-01" purity="7.6882994174957275e-01" nType="-99"/>
        </Node>
      </Node>
    </BinaryTree>
    <BinaryTree type="DecisionTree" boostWeight="1.0000000000000000e+00" itree="32">
      <Node pos="s" depth="0" NCoef="0" IVar="3" Cut="9.5951023437500000e+04" cType="1" res="5.5521553754806519e-01" rms="4.9711376428604126e-01" purity="5.5548375844955444e-01" nType="0">
        <Node pos="l" depth="1" NCoef="0" IVar="0" Cut="2.0000000000000000e+00" cType="1" res="-1.3854673132300377e-02" rms="4.2151892185211182e-01" purity="3.7888032197952271e-01" nType="0">
          <Node pos="l" depth="2" NCoef="0" IVar="-1" Cut="0.0000000000000000e+00" cType="1" res="-4.2638499289751053e-03" rms="3.8243162631988525e-01" purity="2.2890555858612061e-01" nType="-99"/>
          <Node pos="r" depth="2" NCoef="0" IVar="-1" Cut="0.0000000000000000e+00" cType="1" res="6.6076610237360001e-03" rms="3.8379657268524170e-01" purity="8.2217502593994141e-01" nType="-99"/>
        </Node>
        <Node pos="r" depth="1" NCoef="0" IVar="2" Cut="8.9384640625000000e+04" cType="1" res="8.5812437534332275e-01" rms="3.4892255067825317e-01" purity="8.5827863216400146e-01" nType="0">
          <Node pos="l" depth="2" NCoef="0" IVar="-1" Cut="0.0000000000000000e+00" cType="1" res="6.5197905314562377e-06" rms="2.0255468785762787e-01" purity="9.4986099004745483e-01" nType="-99"/>
          <Node pos="r" depth="2" NCoef="0" IVar="-1" Cut="0.0000000000000000e+00" cType="1" res="9.1975682880729437e-04" rms="4.3526071310043335e-01" purity="4.3957328796386719e-01" nType="-99"/>
        </Node>
      </Node>
    </BinaryTree>
    <BinaryTree type="DecisionTree" boostWeight="1.0000000000000000e+00" itree="33">
      <Node pos="s" depth="0" NCoef="0" IVar="4" Cut="1.7767003906250000e+04" cType="1" res="5.5636125802993774e-01" rms="4.9697199463844299e-01" purity="5.5659431219100952e-01" nType="0">
        <Node pos="l" depth="1" NCoef="0" IVar="0" Cut="2.0000000000000000e+00" cType="1" res="-9.9221780896186829e-02" rms="3.2357621192932129e-01" purity="1.9056215882301331e-01" nType="0">
          <Node pos="l" depth="2" NCoef="0" IVar="-1" Cut="0.0000000000000000e+00" cType="1" res="-1.6922349110245705e-02" rms="2.7070260047912598e-01" purity="8.2183666527271271e-02" nType="-99"/>
          <Node pos="r" depth="2" NCoef="0" IVar="-1" Cut="0.0000000000000000e+00" cType="1" res="5.5015739053487778e-03" rms="4.0100860595703125e-01" purity="7.9587161540985107e-01" nType="-99"/>
        </Node>
        <Node pos="r" depth="1" NCoef="0" IVar="3" Cut="8.9426414062500000e+04" cType="1" res="7.0107650756835938e-01" rms="4.5794630050659180e-01" purity="7.0132815837860107e-01" nType="0">
          <Node pos="l" depth="2" NCoef="0" IVar="-1" Cut="0.0000000000000000e+00" cType="1" res="1.0223902791040018e-05" rms="4.0640842914581299e-01" purity="7.9323595762252808e-01" nType="-99"/>
          <Node pos="r" depth="2" NCoef="0" IVar="-1" Cut="0.0000000000000000e+00" cType="1" res="1.0471139103174210e-03" rms="4.6754303574562073e-01" purity="5.1094537973403931e-01" nType="-99"/>
        </Node>
      </Node>
    </BinaryTree>
    <BinaryTree type="DecisionTree" boostWeight="1.0000000000000000e+00" itree="34">
      <Node pos="s" depth="0" NCoef="0" IVar="0" Cut="2.0000000000000000e+00" cType="1" res="-7.8542018309235573e-03" rms="4.2271956801414490e-01" purity="3.8215836882591248e-01" nType="0">
        <Node pos="l" depth="1" NCoef="0" IVar="4" Cut="5.3576632812500000e+04" cType="1" res="4.6840200195312500e+03" rms="2.2088001473059226e+17" purity="2.2974017262458801e-01" nType="0">
          <Node pos="l" depth="2" NCoef="0" IVar="-1" Cut="0.0000000000000000e+00" cType="1" res="-7.8957434743642807e-03" rms="3.5893034934997559e-01" purity="1.6800138354301453e-01" nType="-99"/>
          <Node pos="r" depth="2" NCoef="0" IVar="-1" Cut="0.0000000000000000e+00" cType="1" res="2.4333887267857790e-03" rms="4.3781256675720215e-01" purity="7.4006140232086182e-01" nType="-99"/>
        </Node>
        <Node pos="r" depth="1" NCoef="0" IVar="5" Cut="3.7958659375000000e+05" cType="1" res="8.2651978731155396e-01" rms="3.7866190075874329e-01" purity="8.2693082094192505e-01" nType="0">
          <Node pos="l" depth="2" NCoef="0" IVar="-1" Cut="0.0000000000000000e+00" cType="1" res="3.3086019102483988e-03" rms="4.5928251743316650e-01" purity="6.9797486066818237e-01" nType="-99"/>
          <Node pos="r" depth="2" NCoef="0" IVar="-1" Cut="0.0000000000000000e+00" cType="1" res="7.4353967793285847e-03" rms="3.2645735144615173e-01" purity="8.8049745559692383e-01" nType="-99"/>
        </Node>
      </Node>
    </BinaryTree>
    <BinaryTree type="DecisionTree" boostWeight="1.0000000000000000e+00" itree="35">
      <Node pos="s" depth="0" NCoef="0" IVar="4" Cut="1.8579189453125000e+04" cType="1" res="5.8680701255798340e-01" rms="4.9240687489509583e-01" purity="5.8680707216262817e-01" nType="0">
        <Node pos="l" depth="1" NCoef="0" IVar="0" Cut="2.0000000000000000e+00" cType="1" res="-9.6010573208332062e-02" rms="3.2463458180427551e-01" purity="1.8485084176063538e-01" nType="0">
          <Node pos="l" depth="2" NCoef="0" IVar="-1" Cut="0.0000000000000000e+00" cType="1" res="-1.4099100604653358e-02" rms="2.8012979030609131e-01" purity="8.8495455682277679e-02" nType="-99"/>
          <Node pos="r" depth="2" NCoef="0" IVar="-1" Cut="0.0000000000000000e+00" cType="1" res="6.1218137852847576e-03" rms="4.1518267989158630e-01" purity="7.7500510215759277e-01" nType="-99"/>
        </Node>
        <Node pos="r" depth="1" NCoef="0" IVar="4" Cut="2.7574402343750000e+04" cType="1" res="7.3985558748245239e-01" rms="4.3871322274208069e-01" purity="7.3985558748245239e-01" nType="0">
          <Node pos="l" depth="2" NCoef="0" IVar="-1" Cut="0.0000000000000000e+00" cType="1" res="7.3780256570898928e-06" rms="3.8486263155937195e-01" purity="8.1810814142227173e-01" nType="-99"/>
          <Node pos="r" depth="2" NCoef="0" IVar="-1" Cut="0.0000000000000000e+00" cType="1" res="2.0085030701011419e-03" rms="4.7161340713500977e-01" purity="6.0116320848464966e-01" nType="-99"/>
        </Node>
      </Node>
    </BinaryTree>
    <BinaryTree type="DecisionTree" boostWeight="1.0000000000000000e+00" itree="36">
      <Node pos="s" depth="0" NCoef="0" IVar="4" Cut="2.3674177734375000e+04" cType="1" res="4.4719010591506958e-01" rms="4.9748894572257996e-01" purity="4.4755452871322632e-01" nType="0">
        <Node pos="l" depth="1" NCoef="0" IVar="0" Cut="2.0000000000000000e+00" cType="1" res="-9.1422148048877716e-02" rms="3.4143790602684021e-01" purity="2.0756654441356659e-01" nType="0">
          <Node pos="l" depth="2" NCoef="0" IVar="-1" Cut="0.0000000000000000e+00" cType="1" res="-1.5038670040667057e-02" rms="2.9372432827949524e-01" purity="9.8775580525398254e-02" nType="-99"/>
          <Node pos="r" depth="2" NCoef="0" IVar="-1" Cut="0.0000000000000000e+00" cType="1" res="6.5427161753177643e-03" rms="4.1363045573234558e-01" purity="7.7879887819290161e-01" nType="-99"/>
        </Node>
        <Node pos="r" depth="1" NCoef="0" IVar="2" Cut="8.9610375000000000e+04" cType="1" res="6.6048800945281982e-01" rms="4.7398644685745239e-01" purity="6.6093468666076660e-01" nType="0">
          <Node pos="l" depth="2" NCoef="0" IVar="-1" Cut="0.0000000000000000e+00" cType="1" res="1.2085104572179262e-05" rms="3.9737951755523682e-01" purity="8.1031221151351929e-01" nType="-99"/>
          <Node pos="r" depth="2" NCoef="0" IVar="-1" Cut="0.0000000000000000e+00" cType="1" res="1.6782898455858231e-03" rms="4.7264820337295532e-01" purity="5.8076477050781250e-01" nType="-99"/>
        </Node>
      </Node>
    </BinaryTree>
    <BinaryTree type="DecisionTree" boostWeight="1.0000000000000000e+00" itree="37">
      <Node pos="s" depth="0" NCoef="0" IVar="3" Cut="9.5950960937500000e+04" cType="1" res="4.8035386204719543e-01" rms="4.9961388111114502e-01" purity="4.8035386204719543e-01" nType="0">
        <Node pos="l" depth="1" NCoef="0" IVar="0" Cut="2.0000000000000000e+00" cType="1" res="-8.7601849809288979e-03" rms="4.1722482442855835e-01" purity="3.7632611393928528e-01" nType="0">
          <Node pos="l" depth="2" NCoef="0" IVar="-1" Cut="0.0000000000000000e+00" cType="1" res="-4.0238546207547188e-03" rms="3.8170459866523743e-01" purity="2.2477313876152039e-01" nType="-99"/>
          <Node pos="r" depth="2" NCoef="0" IVar="-1" Cut="0.0000000000000000e+00" cType="1" res="2.5607589632272720e-03" rms="3.8276410102844238e-01" purity="8.2286691665649414e-01" nType="-99"/>
        </Node>
        <Node pos="r" depth="1" NCoef="0" IVar="2" Cut="8.9294859375000000e+04" cType="1" res="7.7254027128219604e-01" rms="4.1919183731079102e-01" purity="7.7254027128219604e-01" nType="0">
          <Node pos="l" depth="2" NCoef="0" IVar="-1" Cut="0.0000000000000000e+00" cType="1" res="6.6412017076800112e-06" rms="2.6324731111526489e-01" purity="9.1107773780822754e-01" nType="-99"/>
          <Node pos="r" depth="2" NCoef="0" IVar="-1" Cut="0.0000000000000000e+00" cType="1" res="4.0514991269446909e-04" rms="4.2718234658241272e-01" purity="4.1170102357864380e-01" nType="-99"/>
        </Node>
      </Node>
    </BinaryTree>
    <BinaryTree type="DecisionTree" boostWeight="1.0000000000000000e+00" itree="38">
      <Node pos="s" depth="0" NCoef="0" IVar="4" Cut="2.3715060546875000e+04" cType="1" res="5.9889000654220581e-01" rms="4.9049082398414612e-01" purity="5.9929698705673218e-01" nType="0">
        <Node pos="l" depth="1" NCoef="0" IVar="0" Cut="2.0000000000000000e+00" cType="1" res="-8.2861803472042084e-02" rms="3.4111544489860535e-01" purity="2.1385174989700317e-01" nType="0">
          <Node pos="l" depth="2" NCoef="0" IVar="-1" Cut="0.0000000000000000e+00" cType="1" res="-1.2034929357469082e-02" rms="2.9319390654563904e-01" purity="9.8466485738754272e-02" nType="-99"/>
          <Node pos="r" depth="2" NCoef="0" IVar="-1" Cut="0.0000000000000000e+00" cType="1" res="5.6329607032239437e-03" rms="4.0464130043983459e-01" purity="7.9079467058181763e-01" nType="-99"/>
        </Node>
        <Node pos="r" depth="1" NCoef="0" IVar="5" Cut="1.7447737500000000e+05" cType="1" res="8.0193793773651123e-01" rms="3.9914453029632568e-01" purity="8.0255955457687378e-01" nType="0">
          <Node pos="l" depth="2" NCoef="0" IVar="-1" Cut="0.0000000000000000e+00" cType="1" res="8.3868626461480744e-06" rms="2.1914204955101013e-01" purity="9.5097929239273071e-01" nType="-99"/>
          <Node pos="r" depth="2" NCoef="0" IVar="-1" Cut="0.0000000000000000e+00" cType="1" res="1.0527544654905796e-03" rms="4.6624460816383362e-01" purity="6.1856716871261597e-01" nType="-99"/>
        </Node>
      </Node>
    </BinaryTree>
    <BinaryTree type="DecisionTree" boostWeight="1.0000000000000000e+00" itree="39">
      <Node pos="s" depth="0" NCoef="0" IVar="5" Cut="2.5843760937500000e+05" cType="1" res="5.4312187433242798e-01" rms="4.9813702702522278e-01" purity="5.4312193393707275e-01" nType="0">
        <Node pos="l" depth="1" NCoef="0" IVar="4" Cut="4.7190375000000000e+04" cType="1" res="1.7932413518428802e-01" rms="3.8362351059913635e-01" purity="1.7932415008544922e-01" nType="0">
          <Node pos="l" depth="2" NCoef="0" IVar="-1" Cut="0.0000000000000000e+00" cType="1" res="-1.0549305938184261e-02" rms="3.1940162181854248e-01" purity="1.2489341944456100e-01" nType="-99"/>
          <Node pos="r" depth="2" NCoef="0" IVar="-1" Cut="0.0000000000000000e+00" cType="1" res="1.3150030281394720e-03" rms="4.7973996400833130e-01" purity="6.2887477874755859e-01" nType="-99"/>
        </Node>
        <Node pos="r" depth="1" NCoef="0" IVar="5" Cut="2.8137937500000000e+05" cType="1" res="7.8744536638259888e-01" rms="4.0911507606506348e-01" purity="7.8744542598724365e-01" nType="0">
          <Node pos="l" depth="2" NCoef="0" IVar="-1" Cut="0.0000000000000000e+00" cType="1" res="8.9806608229991980e-06" rms="3.0332294106483459e-01" purity="9.0446889400482178e-01" nType="-99"/>
          <Node pos="r" depth="2" NCoef="0" IVar="-1" Cut="0.0000000000000000e+00" cType="1" res="1.6771397786214948e-03" rms="4.2441007494926453e-01" purity="6.8305444717407227e-01" nType="-99"/>
        </Node>
      </Node>
    </BinaryTree>
    <BinaryTree type="DecisionTree" boostWeight="1.0000000000000000e+00" itree="40">
      <Node pos="s" depth="0" NCoef="0" IVar="3" Cut="9.5950898437500000e+04" cType="1" res="2.6451772451400757e-01" rms="0.0000000000000000e+00" purity="4.8355197906494141e-01" nType="0">
        <Node pos="l" depth="1" NCoef="0" IVar="0" Cut="2.0000000000000000e+00" cType="1" res="-1.8496699631214142e-03" rms="4.1506543755531311e-01" purity="3.8032957911491394e-01" nType="0">
          <Node pos="l" depth="2" NCoef="0" IVar="-1" Cut="0.0000000000000000e+00" cType="1" res="-4.1853589937090874e-03" rms="3.7823653221130371e-01" purity="2.1837501227855682e-01" nType="-99"/>
          <Node pos="r" depth="2" NCoef="0" IVar="-1" Cut="0.0000000000000000e+00" cType="1" res="2.7021118439733982e-03" rms="3.7346142530441284e-01" purity="8.3409559726715088e-01" nType="-99"/>
        </Node>
        <Node pos="r" depth="1" NCoef="0" IVar="2" Cut="8.9314257812500000e+04" cType="1" res="0.0000000000000000e+00" rms="1.2159588000000000e+08" purity="7.7207553386688232e-01" nType="0">
          <Node pos="l" depth="2" NCoef="0" IVar="-1" Cut="0.0000000000000000e+00" cType="1" res="6.7184128056396730e-06" rms="2.6451385021209717e-01" purity="9.1092050075531006e-01" nType="-99"/>
          <Node pos="r" depth="2" NCoef="0" IVar="-1" Cut="0.0000000000000000e+00" cType="1" res="8.6541246855631471e-04" rms="4.3817910552024841e-01" purity="4.3284863233566284e-01" nType="-99"/>
        </Node>
      </Node>
    </BinaryTree>
    <BinaryTree type="DecisionTree" boostWeight="1.0000000000000000e+00" itree="41">
      <Node pos="s" depth="0" NCoef="0" IVar="3" Cut="9.5950898437500000e+04" cType="1" res="4.8031473159790039e-01" rms="4.9987551569938660e-01" purity="4.8067951202392578e-01" nType="0">
        <Node pos="l" depth="1" NCoef="0" IVar="0" Cut="2.0000000000000000e+00" cType="1" res="-3.3664468210190535e-03" rms="4.1423046588897705e-01" purity="3.7775543332099915e-01" nType="0">
          <Node pos="l" depth="2" NCoef="0" IVar="-1" Cut="0.0000000000000000e+00" cType="1" res="-3.8652138318866491e-03" rms="3.7990814447402954e-01" purity="2.2550168633460999e-01" nType="-99"/>
          <Node pos="r" depth="2" NCoef="0" IVar="-1" Cut="0.0000000000000000e+00" cType="1" res="5.9795551933348179e-03" rms="3.8136643171310425e-01" purity="8.2483160495758057e-01" nType="-99"/>
        </Node>
        <Node pos="r" depth="1" NCoef="0" IVar="4" Cut="2.4755058593750000e+04" cType="1" res="7.6877236366271973e-01" rms="4.2161762714385986e-01" purity="7.6895630359649658e-01" nType="0">
          <Node pos="l" depth="2" NCoef="0" IVar="-1" Cut="0.0000000000000000e+00" cType="1" res="-2.0169867202639580e-03" rms="3.6889180541038513e-01" purity="2.4534082412719727e-01" nType="-99"/>
          <Node pos="r" depth="2" NCoef="0" IVar="-1" Cut="0.0000000000000000e+00" cType="1" res="7.0165820034162607e-06" rms="3.0215471982955933e-01" purity="9.0885567665100098e-01" nType="-99"/>
        </Node>
      </Node>
    </BinaryTree>
    <BinaryTree type="DecisionTree" boostWeight="1.0000000000000000e+00" itree="42">
      <Node pos="s" depth="0" NCoef="0" IVar="4" Cut="2.3208019531250000e+04" cType="1" res="4.4499543309211731e-01" rms="4.9742603302001953e-01" purity="4.4545358419418335e-01" nType="0">
        <Node pos="l" depth="1" NCoef="0" IVar="0" Cut="2.0000000000000000e+00" cType="1" res="-7.8178711235523224e-02" rms="3.3655589818954468e-01" purity="2.0783531665802002e-01" nType="0">
          <Node pos="l" depth="2" NCoef="0" IVar="-1" Cut="0.0000000000000000e+00" cType="1" res="-1.2832603417336941e-02" rms="2.9176980257034302e-01" purity="9.7397334873676300e-02" nType="-99"/>
          <Node pos="r" depth="2" NCoef="0" IVar="-1" Cut="0.0000000000000000e+00" cType="1" res="5.3666033782064915e-03" rms="4.1327631473541260e-01" purity="7.7928531169891357e-01" nType="-99"/>
        </Node>
        <Node pos="r" depth="1" NCoef="0" IVar="2" Cut="8.9629554687500000e+04" cType="1" res="6.4896261692047119e-01" rms="4.7805726528167725e-01" purity="6.4969122409820557e-01" nType="0">
          <Node pos="l" depth="2" NCoef="0" IVar="-1" Cut="0.0000000000000000e+00" cType="1" res="1.2178402357676532e-05" rms="4.0803349018096924e-01" purity="7.9770278930664062e-01" nType="-99"/>
          <Node pos="r" depth="2" NCoef="0" IVar="-1" Cut="0.0000000000000000e+00" cType="1" res="1.4918278902769089e-03" rms="4.7090446949005127e-01" purity="5.7010954618453979e-01" nType="-99"/>
        </Node>
      </Node>
    </BinaryTree>
    <BinaryTree type="DecisionTree" boostWeight="1.0000000000000000e+00" itree="43">
      <Node pos="s" depth="0" NCoef="0" IVar="0" Cut="2.0000000000000000e+00" cType="1" res="4.6821292489767075e-03" rms="4.1522759199142456e-01" purity="3.8625946640968323e-01" nType="0">
        <Node pos="l" depth="1" NCoef="0" IVar="4" Cut="5.8054484375000000e+04" cType="1" res="2.3473818600177765e-01" rms="4.2383506894111633e-01" purity="2.3473817110061646e-01" nType="0">
          <Node pos="l" depth="2" NCoef="0" IVar="-1" Cut="0.0000000000000000e+00" cType="1" res="-7.7593475580215454e-03" rms="3.5854485630989075e-01" purity="1.7160089313983917e-01" nType="-99"/>
          <Node pos="r" depth="2" NCoef="0" IVar="-1" Cut="0.0000000000000000e+00" cType="1" res="2.2780527360737324e-03" rms="4.1014456748962402e-01" purity="7.8586804866790771e-01" nType="-99"/>
        </Node>
        <Node pos="r" depth="1" NCoef="0" IVar="5" Cut="4.2975884375000000e+05" cType="1" res="8.2495415210723877e-01" rms="3.8029134273529053e-01" purity="8.2517087459564209e-01" nType="0">
          <Node pos="l" depth="2" NCoef="0" IVar="-1" Cut="0.0000000000000000e+00" cType="1" res="3.3666931558400393e-03" rms="4.4587948918342590e-01" purity="7.2576421499252319e-01" nType="-99"/>
          <Node pos="r" depth="2" NCoef="0" IVar="-1" Cut="0.0000000000000000e+00" cType="1" res="6.0215196572244167e-03" rms="3.1452777981758118e-01" purity="8.9106529951095581e-01" nType="-99"/>
        </Node>
      </Node>
    </BinaryTree>
    <BinaryTree type="DecisionTree" boostWeight="1.0000000000000000e+00" itree="44">
      <Node pos="s" depth="0" NCoef="0" IVar="0" Cut="2.0000000000000000e+00" cType="1" res="1.5936505049467087e-02" rms="4.1563948988914490e-01" purity="3.9830470085144043e-01" nType="0">
        <Node pos="l" depth="1" NCoef="0" IVar="4" Cut="5.8033171875000000e+04" cType="1" res="2.4641035497188568e-01" rms="4.3092027306556702e-01" purity="2.4641035497188568e-01" nType="0">
          <Node pos="l" depth="2" NCoef="0" IVar="-1" Cut="0.0000000000000000e+00" cType="1" res="-7.1264682337641716e-03" rms="3.6180528998374939e-01" purity="1.7601752281188965e-01" nType="-99"/>
          <Node pos="r" depth="2" NCoef="0" IVar="-1" Cut="0.0000000000000000e+00" cType="1" res="2.1604462526738644e-03" rms="3.9991948008537292e-01" purity="8.0017685890197754e-01" nType="-99"/>
        </Node>
        <Node pos="r" depth="1" NCoef="0" IVar="0" Cut="3.0000000000000000e+00" cType="1" res="2.8412863612174988e-01" rms="3.7226045131683350e-01" purity="8.3568060398101807e-01" nType="0">
          <Node pos="l" depth="2" NCoef="0" IVar="-1" Cut="0.0000000000000000e+00" cType="1" res="4.2801271192729473e-03" rms="4.2681449651718140e-01" purity="7.6209676265716553e-01" nType="-99"/>
          <Node pos="r" depth="2" NCoef="0" IVar="-1" Cut="0.0000000000000000e+00" cType="1" res="1.4024167321622372e-03" rms="2.8848096728324890e-01" purity="9.0995472669601440e-01" nType="-99"/>
        </Node>
      </Node>
    </BinaryTree>
    <BinaryTree type="DecisionTree" boostWeight="1.0000000000000000e+00" itree="45">
      <Node pos="s" depth="0" NCoef="0" IVar="4" Cut="1.7767003906250000e+04" cType="1" res="5.1055485010147095e-01" rms="4.9988856911659241e-01" purity="5.1063787937164307e-01" nType="0">
        <Node pos="l" depth="1" NCoef="0" IVar="0" Cut="2.0000000000000000e+00" cType="1" res="-7.8119464218616486e-02" rms="3.0902758240699768e-01" purity="1.8175530433654785e-01" nType="0">
          <Node pos="l" depth="2" NCoef="0" IVar="-1" Cut="0.0000000000000000e+00" cType="1" res="-1.4428618364036083e-02" rms="2.6290214061737061e-01" purity="7.6774001121520996e-02" nType="-99"/>
          <Node pos="r" depth="2" NCoef="0" IVar="-1" Cut="0.0000000000000000e+00" cType="1" res="4.2726993560791016e-03" rms="4.1015565395355225e-01" purity="7.8308576345443726e-01" nType="-99"/>
        </Node>
        <Node pos="r" depth="1" NCoef="0" IVar="3" Cut="8.9426664062500000e+04" cType="1" res="6.5761286020278931e-01" rms="4.7450837492942810e-01" purity="6.5773296356201172e-01" nType="0">
          <Node pos="l" depth="2" NCoef="0" IVar="-1" Cut="0.0000000000000000e+00" cType="1" res="1.0702311556087807e-05" rms="4.4272834062576294e-01" purity="7.4353742599487305e-01" nType="-99"/>
          <Node pos="r" depth="2" NCoef="0" IVar="-1" Cut="0.0000000000000000e+00" cType="1" res="1.1867849389091134e-03" rms="4.5940655469894409e-01" purity="5.1053589582443237e-01" nType="-99"/>
        </Node>
      </Node>
    </BinaryTree>
    <BinaryTree type="DecisionTree" boostWeight="1.0000000000000000e+00" itree="46">
      <Node pos="s" depth="0" NCoef="0" IVar="0" Cut="2.0000000000000000e+00" cType="1" res="6.5806992352008820e-03" rms="4.1232895851135254e-01" purity="3.8460597395896912e-01" nType="0">
        <Node pos="l" depth="1" NCoef="0" IVar="4" Cut="6.0266261718750000e+04" cType="1" res="2.2640065848827362e-01" rms="4.1850137710571289e-01" purity="2.2640065848827362e-01" nType="0">
          <Node pos="l" depth="2" NCoef="0" IVar="-1" Cut="0.0000000000000000e+00" cType="1" res="-6.9558266550302505e-03" rms="3.5825517773628235e-01" purity="1.7020438611507416e-01" nType="-99"/>
          <Node pos="r" depth="2" NCoef="0" IVar="-1" Cut="0.0000000000000000e+00" cType="1" res="2.2756245452910662e-03" rms="3.9962610602378845e-01" purity="8.0038887262344360e-01" nType="-99"/>
        </Node>
        <Node pos="r" depth="1" NCoef="0" IVar="5" Cut="3.7075396875000000e+05" cType="1" res="8.2945770025253296e-01" rms="3.7698119878768921e-01" purity="8.3011484146118164e-01" nType="0">
          <Node pos="l" depth="2" NCoef="0" IVar="-1" Cut="0.0000000000000000e+00" cType="1" res="2.8547036927193403e-03" rms="4.5049971342086792e-01" purity="7.1825069189071655e-01" nType="-99"/>
          <Node pos="r" depth="2" NCoef="0" IVar="-1" Cut="0.0000000000000000e+00" cType="1" res="5.6248670443892479e-03" rms="3.2943183183670044e-01" purity="8.7865251302719116e-01" nType="-99"/>
        </Node>
      </Node>
    </BinaryTree>
    <BinaryTree type="DecisionTree" boostWeight="1.0000000000000000e+00" itree="47">
      <Node pos="s" depth="0" NCoef="0" IVar="4" Cut="1.7878488281250000e+04" cType="1" res="6.2459087371826172e-01" rms="4.8422837257385254e-01" purity="6.2459087371826172e-01" nType="0">
        <Node pos="l" depth="1" NCoef="0" IVar="0" Cut="2.0000000000000000e+00" cType="1" res="-6.9604828953742981e-02" rms="3.0961081385612488e-01" purity="1.8720041215419769e-01" nType="0">
          <Node pos="l" depth="2" NCoef="0" IVar="-1" Cut="0.0000000000000000e+00" cType="1" res="-1.5192515216767788e-02" rms="2.6480165123939514e-01" purity="7.8087210655212402e-02" nType="-99"/>
          <Node pos="r" depth="2" NCoef="0" IVar="-1" Cut="0.0000000000000000e+00" cType="1" res="4.3270103633403778e-03" rms="4.0248459577560425e-01" purity="7.9223173856735229e-01" nType="-99"/>
        </Node>
        <Node pos="r" depth="1" NCoef="0" IVar="4" Cut="2.6542287109375000e+04" cType="1" res="7.6459360122680664e-01" rms="4.2425253987312317e-01" purity="7.6459360122680664e-01" nType="0">
          <Node pos="l" depth="2" NCoef="0" IVar="-1" Cut="0.0000000000000000e+00" cType="1" res="7.6032192737329751e-06" rms="3.4778103232383728e-01" purity="8.4626305103302002e-01" nType="-99"/>
          <Node pos="r" depth="2" NCoef="0" IVar="-1" Cut="0.0000000000000000e+00" cType="1" res="1.9620277453213930e-03" rms="4.6544930338859558e-01" purity="5.9794622659683228e-01" nType="-99"/>
        </Node>
      </Node>
    </BinaryTree>
    <BinaryTree type="DecisionTree" boostWeight="1.0000000000000000e+00" itree="48">
      <Node pos="s" depth="0" NCoef="0" IVar="4" Cut="1.7808185546875000e+04" cType="1" res="5.7805043458938599e-01" rms="4.9401417374610901e-01" purity="5.7824569940567017e-01" nType="0">
        <Node pos="l" depth="1" NCoef="0" IVar="0" Cut="2.0000000000000000e+00" cType="1" res="-6.0888409614562988e-02" rms="3.1454500555992126e-01" purity="1.9251653552055359e-01" nType="0">
          <Node pos="l" depth="2" NCoef="0" IVar="-1" Cut="0.0000000000000000e+00" cType="1" res="-1.3051792047917843e-02" rms="2.7317774295806885e-01" purity="8.3338290452957153e-02" nType="-99"/>
          <Node pos="r" depth="2" NCoef="0" IVar="-1" Cut="0.0000000000000000e+00" cType="1" res="4.9928389489650726e-03" rms="4.0267390012741089e-01" purity="7.9318940639495850e-01" nType="-99"/>
        </Node>
        <Node pos="r" depth="1" NCoef="0" IVar="3" Cut="8.8434101562500000e+04" cType="1" res="7.2160828113555908e-01" rms="4.4834759831428528e-01" purity="7.2180730104446411e-01" nType="0">
          <Node pos="l" depth="2" NCoef="0" IVar="-1" Cut="0.0000000000000000e+00" cType="1" res="1.2665903195738792e-03" rms="4.5305466651916504e-01" purity="5.1440382003784180e-01" nType="-99"/>
          <Node pos="r" depth="2" NCoef="0" IVar="-1" Cut="0.0000000000000000e+00" cType="1" res="9.0481180450296961e-06" rms="4.2091298103332520e-01" purity="7.7560842037200928e-01" nType="-99"/>
        </Node>
      </Node>
    </BinaryTree>
    <BinaryTree type="DecisionTree" boostWeight="1.0000000000000000e+00" itree="49">
      <Node pos="s" depth="0" NCoef="0" IVar="4" Cut="1.7758650390625000e+04" cType="1" res="5.9427940845489502e-01" rms="4.9103093147277832e-01" purity="5.9427940845489502e-01" nType="0">
        <Node pos="l" depth="1" NCoef="0" IVar="0" Cut="1.0000000000000000e+00" cType="1" res="-6.5833970904350281e-02" rms="3.0867063999176025e-01" purity="1.7923133075237274e-01" nType="0">
          <Node pos="l" depth="2" NCoef="0" IVar="-1" Cut="0.0000000000000000e+00" cType="1" res="-2.1763630211353302e-02" rms="1.7012843489646912e-01" purity="2.9854655265808105e-02" nType="-99"/>
          <Node pos="r" depth="2" NCoef="0" IVar="-1" Cut="0.0000000000000000e+00" cType="1" res="3.0763845425099134e-03" rms="4.0999883413314819e-01" purity="4.0239730477333069e-01" nType="-99"/>
        </Node>
        <Node pos="r" depth="1" NCoef="0" IVar="4" Cut="2.6355101562500000e+04" cType="1" res="7.3642235994338989e-01" rms="4.4057288765907288e-01" purity="7.3642235994338989e-01" nType="0">
          <Node pos="l" depth="2" NCoef="0" IVar="-1" Cut="0.0000000000000000e+00" cType="1" res="7.0756209424871486e-06" rms="3.7158012390136719e-01" purity="8.1812161207199097e-01" nType="-99"/>
          <Node pos="r" depth="2" NCoef="0" IVar="-1" Cut="0.0000000000000000e+00" cType="1" res="1.8848401959985495e-03" rms="4.6607661247253418e-01" purity="5.9879386425018311e-01" nType="-99"/>
        </Node>
      </Node>
    </BinaryTree>
    <BinaryTree type="DecisionTree" boostWeight="1.0000000000000000e+00" itree="50">
      <Node pos="s" depth="0" NCoef="0" IVar="2" Cut="8.9635492187500000e+04" cType="1" res="5.2430826425552368e-01" rms="4.9940875172615051e-01" purity="5.2430820465087891e-01" nType="0">
        <Node pos="l" depth="1" NCoef="0" IVar="2" Cut="8.9236281250000000e+04" cType="1" res="7.8592501580715179e-02" rms="2.6638638973236084e-01" purity="7.4791806936264038e-01" nType="0">
          <Node pos="l" depth="2" NCoef="0" IVar="-1" Cut="0.0000000000000000e+00" cType="1" res="6.1421364080160856e-05" rms="4.0673926472663879e-01" purity="3.6300745606422424e-01" nType="-99"/>
          <Node pos="r" depth="2" NCoef="0" IVar="-1" Cut="0.0000000000000000e+00" cType="1" res="7.8733646660111845e-06" rms="2.5703814625740051e-01" purity="9.1107410192489624e-01" nType="-99"/>
        </Node>
        <Node pos="r" depth="1" NCoef="0" IVar="0" Cut="2.0000000000000000e+00" cType="1" res="1.1704842559993267e-02" rms="4.0814751386642456e-01" purity="3.8667714595794678e-01" nType="0">
          <Node pos="l" depth="2" NCoef="0" IVar="-1" Cut="0.0000000000000000e+00" cType="1" res="-2.8809229843318462e-03" rms="3.7886980175971985e-01" purity="2.2884112596511841e-01" nType="-99"/>
          <Node pos="r" depth="2" NCoef="0" IVar="-1" Cut="0.0000000000000000e+00" cType="1" res="4.9180989153683186e-03" rms="3.7619575858116150e-01" purity="8.3122354745864868e-01" nType="-99"/>
        </Node>
      </Node>
    </BinaryTree>
    <BinaryTree type="DecisionTree" boostWeight="1.0000000000000000e+00" itree="51">
      <Node pos="s" depth="0" NCoef="0" IVar="3" Cut="9.5950601562500000e+04" cType="1" res="4.8562794923782349e-01" rms="5.0014179944992065e-01" purity="4.8604151606559753e-01" nType="0">
        <Node pos="l" depth="1" NCoef="0" IVar="5" Cut="3.1158603125000000e+05" cType="1" res="3.8671278953552246e-01" rms="4.8761886358261108e-01" purity="3.8731893897056580e-01" nType="0">
          <Node pos="l" depth="2" NCoef="0" IVar="-1" Cut="0.0000000000000000e+00" cType="1" res="-4.3369671329855919e-03" rms="3.6292234063148499e-01" purity="2.0875853300094604e-01" nType="-99"/>
          <Node pos="r" depth="2" NCoef="0" IVar="-1" Cut="0.0000000000000000e+00" cType="1" res="3.6802205722779036e-03" rms="4.0921130776405334e-01" purity="7.1408629417419434e-01" nType="-99"/>
        </Node>
        <Node pos="r" depth="1" NCoef="0" IVar="2" Cut="8.9379406250000000e+04" cType="1" res="7.6909095048904419e-01" rms="4.2141437530517578e-01" purity="7.6934331655502319e-01" nType="0">
          <Node pos="l" depth="2" NCoef="0" IVar="-1" Cut="0.0000000000000000e+00" cType="1" res="6.8189801822882146e-06" rms="2.6221096515655518e-01" purity="9.0832644701004028e-01" nType="-99"/>
          <Node pos="r" depth="2" NCoef="0" IVar="-1" Cut="0.0000000000000000e+00" cType="1" res="7.6634372817352414e-04" rms="4.2012023925781250e-01" purity="4.0980046987533569e-01" nType="-99"/>
        </Node>
      </Node>
    </BinaryTree>
    <BinaryTree type="DecisionTree" boostWeight="1.0000000000000000e+00" itree="52">
      <Node pos="s" depth="0" NCoef="0" IVar="4" Cut="1.8408808593750000e+04" cType="1" res="5.1911288499832153e-01" rms="4.9999505281448364e-01" purity="5.1963663101196289e-01" nType="0">
        <Node pos="l" depth="1" NCoef="0" IVar="5" Cut="2.5080848437500000e+05" cType="1" res="1.9707526266574860e-01" rms="3.9778965711593628e-01" purity="1.9761919975280762e-01" nType="0">
          <Node pos="l" depth="2" NCoef="0" IVar="-1" Cut="0.0000000000000000e+00" cType="1" res="-1.6555296257138252e-02" rms="2.3030768334865570e-01" purity="5.8270994573831558e-02" nType="-99"/>
          <Node pos="r" depth="2" NCoef="0" IVar="-1" Cut="0.0000000000000000e+00" cType="1" res="2.3926650173962116e-03" rms="4.2133757472038269e-01" purity="4.4804960489273071e-01" nType="-99"/>
        </Node>
        <Node pos="r" depth="1" NCoef="0" IVar="3" Cut="8.9426328125000000e+04" cType="1" res="6.7085593938827515e-01" rms="4.7038215398788452e-01" purity="6.7154759168624878e-01" nType="0">
          <Node pos="l" depth="2" NCoef="0" IVar="-1" Cut="0.0000000000000000e+00" cType="1" res="1.1302057828288525e-05" rms="4.3513548374176025e-01" purity="7.5866115093231201e-01" nType="-99"/>
          <Node pos="r" depth="2" NCoef="0" IVar="-1" Cut="0.0000000000000000e+00" cType="1" res="1.1929778847843409e-03" rms="4.5732921361923218e-01" purity="5.1846265792846680e-01" nType="-99"/>
        </Node>
      </Node>
    </BinaryTree>
    <BinaryTree type="DecisionTree" boostWeight="1.0000000000000000e+00" itree="53">
      <Node pos="s" depth="0" NCoef="0" IVar="5" Cut="2.5888671875000000e+05" cType="1" res="5.1408773660659790e-01" rms="5.0031107664108276e-01" purity="5.1482546329498291e-01" nType="0">
        <Node pos="l" depth="1" NCoef="0" IVar="1" Cut="1.9160928125000000e+05" cType="1" res="3.0947723984718323e-01" rms="4.6227812767028809e-01" purity="3.0947723984718323e-01" nType="0">
          <Node pos="l" depth="2" NCoef="0" IVar="-1" Cut="0.0000000000000000e+00" cType="1" res="9.5980494734249078e-06" rms="4.0084174275398254e-01" purity="6.9224697351455688e-01" nType="-99"/>
          <Node pos="r" depth="2" NCoef="0" IVar="-1" Cut="0.0000000000000000e+00" cType="1" res="-5.1938313990831375e-03" rms="3.4247481822967529e-01" purity="1.6906233131885529e-01" nType="-99"/>
        </Node>
        <Node pos="r" depth="1" NCoef="0" IVar="2" Cut="9.1794507812500000e+04" cType="1" res="7.2421288490295410e-01" rms="4.4806432723999023e-01" purity="7.2570812702178955e-01" nType="0">
          <Node pos="l" depth="2" NCoef="0" IVar="-1" Cut="0.0000000000000000e+00" cType="1" res="3.3490322530269623e-03" rms="4.3099746108055115e-01" purity="6.3153433799743652e-01" nType="-99"/>
          <Node pos="r" depth="2" NCoef="0" IVar="-1" Cut="0.0000000000000000e+00" cType="1" res="1.1693771739373915e-05" rms="3.9484730362892151e-01" purity="8.2295632362365723e-01" nType="-99"/>
        </Node>
      </Node>
    </BinaryTree>
    <BinaryTree type="DecisionTree" boostWeight="1.0000000000000000e+00" itree="54">
      <Node pos="s" depth="0" NCoef="0" IVar="4" Cut="2.3674177734375000e+04" cType="1" res="4.5647650957107544e-01" rms="4.9845001101493835e-01" purity="4.5718735456466675e-01" nType="0">
        <Node pos="l" depth="1" NCoef="0" IVar="0" Cut="2.0000000000000000e+00" cType="1" res="-4.4974438846111298e-02" rms="3.4022879600524902e-01" purity="2.2382393479347229e-01" nType="0">
          <Node pos="l" depth="2" NCoef="0" IVar="-1" Cut="0.0000000000000000e+00" cType="1" res="-8.4334770217537880e-03" rms="3.0493381619453430e-01" purity="1.0870917886495590e-01" nType="-99"/>
          <Node pos="r" depth="2" NCoef="0" IVar="-1" Cut="0.0000000000000000e+00" cType="1" res="5.3606759756803513e-03" rms="4.0179774165153503e-01" purity="7.9484999179840088e-01" nType="-99"/>
        </Node>
        <Node pos="r" depth="1" NCoef="0" IVar="2" Cut="8.9735000000000000e+04" cType="1" res="6.6384136676788330e-01" rms="4.7296509146690369e-01" purity="6.6506981849670410e-01" nType="0">
          <Node pos="l" depth="2" NCoef="0" IVar="-1" Cut="0.0000000000000000e+00" cType="1" res="1.3134374967194162e-05" rms="4.0474119782447815e-01" purity="8.0205136537551880e-01" nType="-99"/>
          <Node pos="r" depth="2" NCoef="0" IVar="-1" Cut="0.0000000000000000e+00" cType="1" res="1.8001215066760778e-03" rms="4.6334636211395264e-01" purity="5.8564406633377075e-01" nType="-99"/>
        </Node>
      </Node>
    </BinaryTree>
    <BinaryTree type="DecisionTree" boostWeight="1.0000000000000000e+00" itree="55">
      <Node pos="s" depth="0" NCoef="0" IVar="4" Cut="2.3708296875000000e+04" cType="1" res="4.4469943642616272e-01" rms="4.9693244695663452e-01" purity="4.4469943642616272e-01" nType="0">
        <Node pos="l" depth="1" NCoef="0" IVar="0" Cut="2.0000000000000000e+00" cType="1" res="-5.5883113294839859e-02" rms="3.2901534438133240e-01" purity="2.0936103165149689e-01" nType="0">
          <Node pos="l" depth="2" NCoef="0" IVar="-1" Cut="0.0000000000000000e+00" cType="1" res="-1.2041436508297920e-02" rms="2.8907737135887146e-01" purity="9.5972798764705658e-02" nType="-99"/>
          <Node pos="r" depth="2" NCoef="0" IVar="-1" Cut="0.0000000000000000e+00" cType="1" res="5.1656533032655716e-03" rms="4.1034433245658875e-01" purity="7.8198486566543579e-01" nType="-99"/>
        </Node>
        <Node pos="r" depth="1" NCoef="0" IVar="2" Cut="8.9782820312500000e+04" cType="1" res="6.5428715944290161e-01" rms="4.7560012340545654e-01" purity="6.5428715944290161e-01" nType="0">
          <Node pos="l" depth="2" NCoef="0" IVar="-1" Cut="0.0000000000000000e+00" cType="1" res="1.3589047739515081e-05" rms="4.0236434340476990e-01" purity="8.0193680524826050e-01" nType="-99"/>
          <Node pos="r" depth="2" NCoef="0" IVar="-1" Cut="0.0000000000000000e+00" cType="1" res="1.5738138463348150e-03" rms="4.6607568860054016e-01" purity="5.5926984548568726e-01" nType="-99"/>
        </Node>
      </Node>
    </BinaryTree>
    <BinaryTree type="DecisionTree" boostWeight="1.0000000000000000e+00" itree="56">
      <Node pos="s" depth="0" NCoef="0" IVar="2" Cut="8.9708281250000000e+04" cType="1" res="5.2353882789611816e-01" rms="4.9944561719894409e-01" purity="5.2353882789611816e-01" nType="0">
        <Node pos="l" depth="1" NCoef="0" IVar="2" Cut="8.9236945312500000e+04" cType="1" res="7.4371039867401123e-01" rms="4.3658360838890076e-01" purity="7.4371045827865601e-01" nType="0">
          <Node pos="l" depth="2" NCoef="0" IVar="-1" Cut="0.0000000000000000e+00" cType="1" res="2.8130036662332714e-04" rms="4.0636384487152100e-01" purity="3.7378922104835510e-01" nType="-99"/>
          <Node pos="r" depth="2" NCoef="0" IVar="-1" Cut="0.0000000000000000e+00" cType="1" res="7.9865731095196679e-06" rms="2.7208745479583740e-01" purity="8.9791077375411987e-01" nType="-99"/>
        </Node>
        <Node pos="r" depth="1" NCoef="0" IVar="0" Cut="2.0000000000000000e+00" cType="1" res="9.9309748038649559e-03" rms="4.0457725524902344e-01" purity="3.7819108366966248e-01" nType="0">
          <Node pos="l" depth="2" NCoef="0" IVar="-1" Cut="0.0000000000000000e+00" cType="1" res="-3.4781880676746368e-03" rms="3.7673571705818176e-01" purity="2.2209911048412323e-01" nType="-99"/>
          <Node pos="r" depth="2" NCoef="0" IVar="-1" Cut="0.0000000000000000e+00" cType="1" res="5.6149186566472054e-03" rms="3.7590694427490234e-01" purity="8.3086645603179932e-01" nType="-99"/>
        </Node>
      </Node>
    </BinaryTree>
    <BinaryTree type="DecisionTree" boostWeight="1.0000000000000000e+00" itree="57">
      <Node pos="s" depth="0" NCoef="0" IVar="3" Cut="9.5950500000000000e+04" cType="1" res="4.8857885599136353e-01" rms="5.0009399652481079e-01" purity="4.8893284797668457e-01" nType="0">
        <Node pos="l" depth="1" NCoef="0" IVar="0" Cut="2.0000000000000000e+00" cType="1" res="1.8032465130090714e-02" rms="4.0539571642875671e-01" purity="3.8715606927871704e-01" nType="0">
          <Node pos="l" depth="2" NCoef="0" IVar="-1" Cut="0.0000000000000000e+00" cType="1" res="-2.3266153875738382e-03" rms="3.8154223561286926e-01" purity="2.3786976933479309e-01" nType="-99"/>
          <Node pos="r" depth="2" NCoef="0" IVar="-1" Cut="0.0000000000000000e+00" cType="1" res="5.3758774884045124e-03" rms="3.7886458635330200e-01" purity="8.2804393768310547e-01" nType="-99"/>
        </Node>
        <Node pos="r" depth="1" NCoef="0" IVar="2" Cut="8.9352132812500000e+04" cType="1" res="7.7331972122192383e-01" rms="4.1868403553962708e-01" purity="7.7381175756454468e-01" nType="0">
          <Node pos="l" depth="2" NCoef="0" IVar="-1" Cut="0.0000000000000000e+00" cType="1" res="6.9415250436577480e-06" rms="2.5723218917846680e-01" purity="9.1207623481750488e-01" nType="-99"/>
          <Node pos="r" depth="2" NCoef="0" IVar="-1" Cut="0.0000000000000000e+00" cType="1" res="8.6728157475590706e-04" rms="4.1467159986495972e-01" purity="4.3918189406394958e-01" nType="-99"/>
        </Node>
      </Node>
    </BinaryTree>
    <BinaryTree type="DecisionTree" boostWeight="1.0000000000000000e+00" itree="58">
      <Node pos="s" depth="0" NCoef="0" IVar="4" Cut="1.8392562500000000e+04" cType="1" res="5.1973462104797363e-01" rms="4.9980947375297546e-01" purity="5.2009695768356323e-01" nType="0">
        <Node pos="l" depth="1" NCoef="0" IVar="0" Cut="2.0000000000000000e+00" cType="1" res="-4.4829744845628738e-02" rms="3.1574308872222900e-01" purity="1.9389258325099945e-01" nType="0">
          <Node pos="l" depth="2" NCoef="0" IVar="-1" Cut="0.0000000000000000e+00" cType="1" res="-8.8171605020761490e-03" rms="2.8121125698089600e-01" purity="9.0147227048873901e-02" nType="-99"/>
          <Node pos="r" depth="2" NCoef="0" IVar="-1" Cut="0.0000000000000000e+00" cType="1" res="3.8007781840860844e-03" rms="4.1112577915191650e-01" purity="7.8009396791458130e-01" nType="-99"/>
        </Node>
        <Node pos="r" depth="1" NCoef="0" IVar="3" Cut="8.9426890625000000e+04" cType="1" res="6.7367148399353027e-01" rms="4.6918138861656189e-01" purity="6.7420500516891479e-01" nType="0">
          <Node pos="l" depth="2" NCoef="0" IVar="-1" Cut="0.0000000000000000e+00" cType="1" res="1.1635946066235192e-05" rms="4.3596512079238892e-01" purity="7.6029109954833984e-01" nType="-99"/>
          <Node pos="r" depth="2" NCoef="0" IVar="-1" Cut="0.0000000000000000e+00" cType="1" res="1.3992731692269444e-03" rms="4.5486357808113098e-01" purity="5.2266103029251099e-01" nType="-99"/>
        </Node>
      </Node>
    </BinaryTree>
    <BinaryTree type="DecisionTree" boostWeight="1.0000000000000000e+00" itree="59">
      <Node pos="s" depth="0" NCoef="0" IVar="4" Cut="1.8374689453125000e+04" cType="1" res="0.0000000000000000e+00" rms="0.0000000000000000e+00" purity="5.8730262517929077e-01" nType="0">
        <Node pos="l" depth="1" NCoef="0" IVar="0" Cut="1.0000000000000000e+00" cType="1" res="-4.5314218848943710e-02" rms="3.1355226039886475e-01" purity="1.9110138714313507e-01" nType="0">
          <Node pos="l" depth="2" NCoef="0" IVar="-1" Cut="0.0000000000000000e+00" cType="1" res="-1.4544648118317127e-02" rms="2.0786671340465546e-01" purity="4.5359548181295395e-02" nType="-99"/>
          <Node pos="r" depth="2" NCoef="0" IVar="-1" Cut="0.0000000000000000e+00" cType="1" res="2.5788296479731798e-03" rms="4.0127938985824585e-01" purity="4.0140569210052490e-01" nType="-99"/>
        </Node>
        <Node pos="r" depth="1" NCoef="0" IVar="4" Cut="2.7279314453125000e+04" cType="1" res="0.0000000000000000e+00" rms="0.0000000000000000e+00" purity="7.3617506027221680e-01" nType="0">
          <Node pos="l" depth="2" NCoef="0" IVar="-1" Cut="0.0000000000000000e+00" cType="1" res="8.2157284850836731e-06" rms="3.9018857479095459e-01" purity="8.1366640329360962e-01" nType="-99"/>
          <Node pos="r" depth="2" NCoef="0" IVar="-1" Cut="0.0000000000000000e+00" cType="1" res="1.9382381578907371e-03" rms="4.6329355239868164e-01" purity="6.0195291042327881e-01" nType="-99"/>
        </Node>
      </Node>
    </BinaryTree>
    <BinaryTree type="DecisionTree" boostWeight="1.0000000000000000e+00" itree="60">
      <Node pos="s" depth="0" NCoef="0" IVar="5" Cut="2.4427898437500000e+05" cType="1" res="4.6879136562347412e-01" rms="4.9902507662773132e-01" purity="4.6879133582115173e-01" nType="0">
        <Node pos="l" depth="1" NCoef="0" IVar="4" Cut="4.7193695312500000e+04" cType="1" res="1.5187905728816986e-01" rms="3.5890361666679382e-01" purity="1.5187905728816986e-01" nType="0">
          <Node pos="l" depth="2" NCoef="0" IVar="-1" Cut="0.0000000000000000e+00" cType="1" res="-1.0655700229108334e-02" rms="2.9714751243591309e-01" purity="1.0114070028066635e-01" nType="-99"/>
          <Node pos="r" depth="2" NCoef="0" IVar="-1" Cut="0.0000000000000000e+00" cType="1" res="1.4277105219662189e-03" rms="4.8076522350311279e-01" purity="6.1842948198318481e-01" nType="-99"/>
        </Node>
        <Node pos="r" depth="1" NCoef="0" IVar="5" Cut="2.6535162500000000e+05" cType="1" res="6.9981503486633301e-01" rms="4.5833823084831238e-01" purity="6.9981509447097778e-01" nType="0">
          <Node pos="l" depth="2" NCoef="0" IVar="-1" Cut="0.0000000000000000e+00" cType="1" res="1.0188639862462878e-05" rms="3.8765931129455566e-01" purity="8.1433188915252686e-01" nType="-99"/>
          <Node pos="r" depth="2" NCoef="0" IVar="-1" Cut="0.0000000000000000e+00" cType="1" res="3.3514671958982944e-03" rms="4.2692095041275024e-01" purity="6.4122647047042847e-01" nType="-99"/>
        </Node>
      </Node>
    </BinaryTree>
    <BinaryTree type="DecisionTree" boostWeight="1.0000000000000000e+00" itree="61">
      <Node pos="s" depth="0" NCoef="0" IVar="4" Cut="2.2227771484375000e+04" cType="1" res="4.3788233399391174e-01" rms="4.9614104628562927e-01" purity="4.3796777725219727e-01" nType="0">
        <Node pos="l" depth="1" NCoef="0" IVar="0" Cut="1.0000000000000000e+00" cType="1" res="-4.3262016028165817e-02" rms="3.2450842857360840e-01" purity="2.0806185901165009e-01" nType="0">
          <Node pos="l" depth="2" NCoef="0" IVar="-1" Cut="0.0000000000000000e+00" cType="1" res="-1.4537475071847439e-02" rms="2.1068596839904785e-01" purity="4.5852281153202057e-02" nType="-99"/>
          <Node pos="r" depth="2" NCoef="0" IVar="-1" Cut="0.0000000000000000e+00" cType="1" res="3.1100804917514324e-03" rms="4.0983173251152039e-01" purity="4.3205261230468750e-01" nType="-99"/>
        </Node>
        <Node pos="r" depth="1" NCoef="0" IVar="2" Cut="8.9648531250000000e+04" cType="1" res="6.2796610593795776e-01" rms="4.8337486386299133e-01" purity="6.2812227010726929e-01" nType="0">
          <Node pos="l" depth="2" NCoef="0" IVar="-1" Cut="0.0000000000000000e+00" cType="1" res="1.2416955541993957e-05" rms="4.1780704259872437e-01" purity="7.8312689065933228e-01" nType="-99"/>
          <Node pos="r" depth="2" NCoef="0" IVar="-1" Cut="0.0000000000000000e+00" cType="1" res="1.3714707456529140e-03" rms="4.6110251545906067e-01" purity="5.4465174674987793e-01" nType="-99"/>
        </Node>
      </Node>
    </BinaryTree>
    <BinaryTree type="DecisionTree" boostWeight="1.0000000000000000e+00" itree="62">
      <Node pos="s" depth="0" NCoef="0" IVar="4" Cut="2.3692052734375000e+04" cType="1" res="4.4271111488342285e-01" rms="4.9670714139938354e-01" purity="4.4287288188934326e-01" nType="0">
        <Node pos="l" depth="1" NCoef="0" IVar="0" Cut="2.0000000000000000e+00" cType="1" res="-5.0234355032444000e-02" rms="3.2130256295204163e-01" purity="2.0501385629177094e-01" nType="0">
          <Node pos="l" depth="2" NCoef="0" IVar="-1" Cut="0.0000000000000000e+00" cType="1" res="-1.1085056699812412e-02" rms="2.8260999917984009e-01" purity="9.2656336724758148e-02" nType="-99"/>
          <Node pos="r" depth="2" NCoef="0" IVar="-1" Cut="0.0000000000000000e+00" cType="1" res="4.2091314680874348e-03" rms="4.0940481424331665e-01" purity="7.8404885530471802e-01" nType="-99"/>
        </Node>
        <Node pos="r" depth="1" NCoef="0" IVar="2" Cut="8.9799765625000000e+04" cType="1" res="6.5281867980957031e-01" rms="4.7607401013374329e-01" purity="6.5312343835830688e-01" nType="0">
          <Node pos="l" depth="2" NCoef="0" IVar="-1" Cut="0.0000000000000000e+00" cType="1" res="1.2789196262019686e-05" rms="4.1549429297447205e-01" purity="7.8993302583694458e-01" nType="-99"/>
          <Node pos="r" depth="2" NCoef="0" IVar="-1" Cut="0.0000000000000000e+00" cType="1" res="1.5954718692228198e-03" rms="4.6317777037620544e-01" purity="5.7135343551635742e-01" nType="-99"/>
        </Node>
      </Node>
    </BinaryTree>
    <BinaryTree type="DecisionTree" boostWeight="1.0000000000000000e+00" itree="63">
      <Node pos="s" depth="0" NCoef="0" IVar="5" Cut="2.5651665625000000e+05" cType="1" res="4.6922522783279419e-01" rms="4.9910897016525269e-01" purity="4.6947291493415833e-01" nType="0">
        <Node pos="l" depth="1" NCoef="0" IVar="4" Cut="5.0730574218750000e+04" cType="1" res="1.6399659216403961e-01" rms="3.7027248740196228e-01" purity="1.6399659216403961e-01" nType="0">
          <Node pos="l" depth="2" NCoef="0" IVar="-1" Cut="0.0000000000000000e+00" cType="1" res="-8.7868832051753998e-03" rms="3.0892929434776306e-01" purity="1.1579255759716034e-01" nType="-99"/>
          <Node pos="r" depth="2" NCoef="0" IVar="-1" Cut="0.0000000000000000e+00" cType="1" res="1.6323835588991642e-03" rms="4.7048586606979370e-01" purity="6.5451914072036743e-01" nType="-99"/>
        </Node>
        <Node pos="r" depth="1" NCoef="0" IVar="5" Cut="2.7947137500000000e+05" cType="1" res="7.2014796733856201e-01" rms="4.4904172420501709e-01" purity="7.2059923410415649e-01" nType="0">
          <Node pos="l" depth="2" NCoef="0" IVar="-1" Cut="0.0000000000000000e+00" cType="1" res="1.0344389920646790e-05" rms="3.9490503072738647e-01" purity="8.2421994209289551e-01" nType="-99"/>
          <Node pos="r" depth="2" NCoef="0" IVar="-1" Cut="0.0000000000000000e+00" cType="1" res="3.2202322036027908e-03" rms="4.2107751965522766e-01" purity="6.6504240036010742e-01" nType="-99"/>
        </Node>
      </Node>
    </BinaryTree>
    <BinaryTree type="DecisionTree" boostWeight="1.0000000000000000e+00" itree="64">
      <Node pos="s" depth="0" NCoef="0" IVar="4" Cut="2.2164599609375000e+04" cType="1" res="4.4704401493072510e-01" rms="4.9736884236335754e-01" purity="4.4729420542716980e-01" nType="0">
        <Node pos="l" depth="1" NCoef="0" IVar="0" Cut="2.0000000000000000e+00" cType="1" res="-3.8399007171392441e-02" rms="3.2305631041526794e-01" purity="2.0874565839767456e-01" nType="0">
          <Node pos="l" depth="2" NCoef="0" IVar="-1" Cut="0.0000000000000000e+00" cType="1" res="-8.6054634302854538e-03" rms="2.8834176063537598e-01" purity="9.6097707748413086e-02" nType="-99"/>
          <Node pos="r" depth="2" NCoef="0" IVar="-1" Cut="0.0000000000000000e+00" cType="1" res="3.6854995414614677e-03" rms="4.0721398591995239e-01" purity="7.8552496433258057e-01" nType="-99"/>
        </Node>
        <Node pos="r" depth="1" NCoef="0" IVar="2" Cut="8.9631500000000000e+04" cType="1" res="6.3776087760925293e-01" rms="4.8098456859588623e-01" purity="6.3821130990982056e-01" nType="0">
          <Node pos="l" depth="2" NCoef="0" IVar="-1" Cut="0.0000000000000000e+00" cType="1" res="1.2427522960933857e-05" rms="4.1631841659545898e-01" purity="7.8316861391067505e-01" nType="-99"/>
          <Node pos="r" depth="2" NCoef="0" IVar="-1" Cut="0.0000000000000000e+00" cType="1" res="1.5190064441412687e-03" rms="4.5837634801864624e-01" purity="5.6429016590118408e-01" nType="-99"/>
        </Node>
      </Node>
    </BinaryTree>
    <BinaryTree type="DecisionTree" boostWeight="1.0000000000000000e+00" itree="65">
      <Node pos="s" depth="0" NCoef="0" IVar="4" Cut="2.3705136718750000e+04" cType="1" res="4.4659200310707092e-01" rms="4.9727594852447510e-01" purity="4.4682186841964722e-01" nType="0">
        <Node pos="l" depth="1" NCoef="0" IVar="0" Cut="2.0000000000000000e+00" cType="1" res="-3.3463541418313980e-02" rms="3.3141216635704041e-01" purity="2.1689210832118988e-01" nType="0">
          <Node pos="l" depth="2" NCoef="0" IVar="-1" Cut="0.0000000000000000e+00" cType="1" res="-7.8437486663460732e-03" rms="2.9979085922241211e-01" purity="1.0383633524179459e-01" nType="-99"/>
          <Node pos="r" depth="2" NCoef="0" IVar="-1" Cut="0.0000000000000000e+00" cType="1" res="4.4394102878868580e-03" rms="4.0379896759986877e-01" purity="7.9119706153869629e-01" nType="-99"/>
        </Node>
        <Node pos="r" depth="1" NCoef="0" IVar="2" Cut="8.9761914062500000e+04" cType="1" res="6.5752887725830078e-01" rms="4.7467759251594543e-01" purity="6.5784341096878052e-01" nType="0">
          <Node pos="l" depth="2" NCoef="0" IVar="-1" Cut="0.0000000000000000e+00" cType="1" res="1.3462828974297736e-05" rms="4.0422272682189941e-01" purity="8.0440860986709595e-01" nType="-99"/>
          <Node pos="r" depth="2" NCoef="0" IVar="-1" Cut="0.0000000000000000e+00" cType="1" res="1.4932265039533377e-03" rms="4.6144843101501465e-01" purity="5.6841993331909180e-01" nType="-99"/>
        </Node>
      </Node>
    </BinaryTree>
    <BinaryTree type="DecisionTree" boostWeight="1.0000000000000000e+00" itree="66">
      <Node pos="s" depth="0" NCoef="0" IVar="2" Cut="8.9656421875000000e+04" cType="1" res="5.2552640438079834e-01" rms="4.9939855933189392e-01" purity="5.2557694911956787e-01" nType="0">
        <Node pos="l" depth="1" NCoef="0" IVar="2" Cut="8.9241945312500000e+04" cType="1" res="7.4441784620285034e-01" rms="4.3618795275688171e-01" purity="7.4441784620285034e-01" nType="0">
          <Node pos="l" depth="2" NCoef="0" IVar="-1" Cut="0.0000000000000000e+00" cType="1" res="3.7905405042693019e-04" rms="3.9744779467582703e-01" purity="3.6883983016014099e-01" nType="-99"/>
          <Node pos="r" depth="2" NCoef="0" IVar="-1" Cut="0.0000000000000000e+00" cType="1" res="8.1374610090279020e-06" rms="2.6009309291839600e-01" purity="9.0909790992736816e-01" nType="-99"/>
        </Node>
        <Node pos="r" depth="1" NCoef="0" IVar="5" Cut="3.7220162500000000e+05" cType="1" res="3.8683351874351501e-01" rms="4.8710972070693970e-01" purity="3.8691607117652893e-01" nType="0">
          <Node pos="l" depth="2" NCoef="0" IVar="-1" Cut="0.0000000000000000e+00" cType="1" res="-2.4807124864310026e-03" rms="3.7267807126045227e-01" purity="2.4263449013233185e-01" nType="-99"/>
          <Node pos="r" depth="2" NCoef="0" IVar="-1" Cut="0.0000000000000000e+00" cType="1" res="2.1892588119953871e-03" rms="3.8133496046066284e-01" purity="7.7097266912460327e-01" nType="-99"/>
        </Node>
      </Node>
    </BinaryTree>
    <BinaryTree type="DecisionTree" boostWeight="1.0000000000000000e+00" itree="67">
      <Node pos="s" depth="0" NCoef="0" IVar="3" Cut="8.9426546875000000e+04" cType="1" res="5.9952598810195923e-01" rms="4.8999446630477905e-01" purity="5.9952604770660400e-01" nType="0">
        <Node pos="l" depth="1" NCoef="0" IVar="3" Cut="8.8493085937500000e+04" cType="1" res="7.1150779724121094e-01" rms="4.5306119322776794e-01" purity="7.1150779724121094e-01" nType="0">
          <Node pos="l" depth="2" NCoef="0" IVar="-1" Cut="0.0000000000000000e+00" cType="1" res="5.5061362218111753e-04" rms="3.9811289310455322e-01" purity="3.8011378049850464e-01" nType="-99"/>
          <Node pos="r" depth="2" NCoef="0" IVar="-1" Cut="0.0000000000000000e+00" cType="1" res="1.0977693818858825e-05" rms="2.8736135363578796e-01" purity="9.0342068672180176e-01" nType="-99"/>
        </Node>
        <Node pos="r" depth="1" NCoef="0" IVar="0" Cut="2.0000000000000000e+00" cType="1" res="2.3427652195096016e-02" rms="4.0548321604728699e-01" purity="3.8789400458335876e-01" nType="0">
          <Node pos="l" depth="2" NCoef="0" IVar="-1" Cut="0.0000000000000000e+00" cType="1" res="-1.9185794517397881e-03" rms="3.8456684350967407e-01" purity="2.3503920435905457e-01" nType="-99"/>
          <Node pos="r" depth="2" NCoef="0" IVar="-1" Cut="0.0000000000000000e+00" cType="1" res="5.1479986868798733e-03" rms="3.7884387373924255e-01" purity="8.2868230342864990e-01" nType="-99"/>
        </Node>
      </Node>
    </BinaryTree>
    <BinaryTree type="DecisionTree" boostWeight="1.0000000000000000e+00" itree="68">
      <Node pos="s" depth="0" NCoef="0" IVar="4" Cut="1.8592275390625000e+04" cType="1" res="0.0000000000000000e+00" rms="0.0000000000000000e+00" purity="5.4440194368362427e-01" nType="0">
        <Node pos="l" depth="1" NCoef="0" IVar="0" Cut="1.0000000000000000e+00" cType="1" res="-3.5022038966417313e-02" rms="3.0619806051254272e-01" purity="1.9344271719455719e-01" nType="0">
          <Node pos="l" depth="2" NCoef="0" IVar="-1" Cut="0.0000000000000000e+00" cType="1" res="-1.7886180430650711e-02" rms="1.9494502246379852e-01" purity="3.9703924208879471e-02" nType="-99"/>
          <Node pos="r" depth="2" NCoef="0" IVar="-1" Cut="0.0000000000000000e+00" cType="1" res="3.0511557124555111e-03" rms="3.9806059002876282e-01" purity="4.1493925452232361e-01" nType="-99"/>
        </Node>
        <Node pos="r" depth="1" NCoef="0" IVar="4" Cut="2.7587539062500000e+04" cType="1" res="inf" rms="0.0000000000000000e+00" purity="6.9867819547653198e-01" nType="0">
          <Node pos="l" depth="2" NCoef="0" IVar="-1" Cut="0.0000000000000000e+00" cType="1" res="8.0167819760390557e-06" rms="4.2135414481163025e-01" purity="7.6315504312515259e-01" nType="-99"/>
          <Node pos="r" depth="2" NCoef="0" IVar="-1" Cut="0.0000000000000000e+00" cType="1" res="2.0430709701031446e-03" rms="4.5800220966339111e-01" purity="6.1145281791687012e-01" nType="-99"/>
        </Node>
      </Node>
    </BinaryTree>
    <BinaryTree type="DecisionTree" boostWeight="1.0000000000000000e+00" itree="69">
      <Node pos="s" depth="0" NCoef="0" IVar="1" Cut="1.9126706250000000e+05" cType="1" res="4.4429329037666321e-01" rms="4.9688705801963806e-01" purity="4.4429329037666321e-01" nType="0">
        <Node pos="l" depth="1" NCoef="0" IVar="1" Cut="1.8703510937500000e+05" cType="1" res="2.8052061796188354e-02" rms="2.1081677079200745e-01" purity="7.0080482959747314e-01" nType="0">
          <Node pos="l" depth="2" NCoef="0" IVar="-1" Cut="0.0000000000000000e+00" cType="1" res="-6.3799996860325336e-03" rms="3.4891325235366821e-01" purity="1.9756336510181427e-01" nType="-99"/>
          <Node pos="r" depth="2" NCoef="0" IVar="-1" Cut="0.0000000000000000e+00" cType="1" res="1.1089967301813886e-05" rms="3.1987181305885315e-01" purity="8.3704245090484619e-01" nType="-99"/>
        </Node>
        <Node pos="r" depth="1" NCoef="0" IVar="0" Cut="2.0000000000000000e+00" cType="1" res="2.6854401454329491e-02" rms="4.0374970436096191e-01" purity="3.9461302757263184e-01" nType="0">
          <Node pos="l" depth="2" NCoef="0" IVar="-1" Cut="0.0000000000000000e+00" cType="1" res="-1.9282646244391799e-03" rms="3.8308662176132202e-01" purity="2.3564352095127106e-01" nType="-99"/>
          <Node pos="r" depth="2" NCoef="0" IVar="-1" Cut="0.0000000000000000e+00" cType="1" res="2.5320488493889570e-03" rms="3.7371921539306641e-01" purity="8.3424776792526245e-01" nType="-99"/>
        </Node>
      </Node>
    </BinaryTree>
    <BinaryTree type="DecisionTree" boostWeight="1.0000000000000000e+00" itree="70">
      <Node pos="s" depth="0" NCoef="0" IVar="1" Cut="1.9858781250000000e+05" cType="1" res="0.0000000000000000e+00" rms="0.0000000000000000e+00" purity="5.4335558414459229e-01" nType="0">
        <Node pos="l" depth="1" NCoef="0" IVar="2" Cut="8.9599460937500000e+04" cType="1" res="7.4717807769775391e-01" rms="4.4659107923507690e-01" purity="7.8462105989456177e-01" nType="0">
          <Node pos="l" depth="2" NCoef="0" IVar="-1" Cut="0.0000000000000000e+00" cType="1" res="1.1347961844876409e-05" rms="2.1494147181510925e-01" purity="9.3284916877746582e-01" nType="-99"/>
          <Node pos="r" depth="2" NCoef="0" IVar="-1" Cut="0.0000000000000000e+00" cType="1" res="-4.8484513536095619e-03" rms="3.5371816158294678e-01" purity="2.2193364799022675e-01" nType="-99"/>
        </Node>
        <Node pos="r" depth="1" NCoef="0" IVar="0" Cut="2.0000000000000000e+00" cType="1" res="4.2922638356685638e-02" rms="4.0761834383010864e-01" purity="4.1615295410156250e-01" nType="0">
          <Node pos="l" depth="2" NCoef="0" IVar="-1" Cut="0.0000000000000000e+00" cType="1" res="-1.1400574585422873e-03" rms="3.9186817407608032e-01" purity="2.5659549236297607e-01" nType="-99"/>
          <Node pos="r" depth="2" NCoef="0" IVar="-1" Cut="0.0000000000000000e+00" cType="1" res="2.3550228215754032e-03" rms="3.7084412574768066e-01" purity="8.3838737010955811e-01" nType="-99"/>
        </Node>
      </Node>
    </BinaryTree>
    <BinaryTree type="DecisionTree" boostWeight="1.0000000000000000e+00" itree="71">
      <Node pos="s" depth="0" NCoef="0" IVar="0" Cut="2.0000000000000000e+00" cType="1" res="2.2065659984946251e-02" rms="4.0141963958740234e-01" purity="3.8418391346931458e-01" nType="0">
        <Node pos="l" depth="1" NCoef="0" IVar="4" Cut="6.5163519531250000e+04" cType="1" res="2.2926197946071625e-01" rms="4.2035809159278870e-01" purity="2.2926197946071625e-01" nType="0">
          <Node pos="l" depth="2" NCoef="0" IVar="-1" Cut="0.0000000000000000e+00" cType="1" res="-5.3120218217372894e-03" rms="3.6298418045043945e-01" purity="1.7824299633502960e-01" nType="-99"/>
          <Node pos="r" depth="2" NCoef="0" IVar="-1" Cut="0.0000000000000000e+00" cType="1" res="2.5341848377138376e-03" rms="3.8367018103599548e-01" purity="8.1976169347763062e-01" nType="-99"/>
        </Node>
        <Node pos="r" depth="1" NCoef="0" IVar="5" Cut="3.8544071875000000e+05" cType="1" res="8.2818228006362915e-01" rms="3.7730413675308228e-01" purity="8.2824432849884033e-01" nType="0">
          <Node pos="l" depth="2" NCoef="0" IVar="-1" Cut="0.0000000000000000e+00" cType="1" res="2.9858171474188566e-03" rms="4.4839110970497131e-01" purity="7.2297859191894531e-01" nType="-99"/>
          <Node pos="r" depth="2" NCoef="0" IVar="-1" Cut="0.0000000000000000e+00" cType="1" res="5.5371946655213833e-03" rms="3.2964339852333069e-01" purity="8.7924045324325562e-01" nType="-99"/>
        </Node>
      </Node>
    </BinaryTree>
    <BinaryTree type="DecisionTree" boostWeight="1.0000000000000000e+00" itree="72">
      <Node pos="s" depth="0" NCoef="0" IVar="0" Cut="2.0000000000000000e+00" cType="1" res="2.8757747262716293e-02" rms="3.9797914028167725e-01" purity="3.9453887939453125e-01" nType="0">
        <Node pos="l" depth="1" NCoef="0" IVar="4" Cut="6.5184335937500000e+04" cType="1" res="2.3227781057357788e-01" rms="4.2228522896766663e-01" purity="2.3227781057357788e-01" nType="0">
          <Node pos="l" depth="2" NCoef="0" IVar="-1" Cut="0.0000000000000000e+00" cType="1" res="-5.1186513155698776e-03" rms="3.5757735371589661e-01" purity="1.7527663707733154e-01" nType="-99"/>
          <Node pos="r" depth="2" NCoef="0" IVar="-1" Cut="0.0000000000000000e+00" cType="1" res="2.4483967572450638e-03" rms="3.7197235226631165e-01" purity="8.3308863639831543e-01" nType="-99"/>
        </Node>
        <Node pos="r" depth="1" NCoef="0" IVar="5" Cut="4.0417365625000000e+05" cType="1" res="8.3720695972442627e-01" rms="3.6956530809402466e-01" purity="8.3787995576858521e-01" nType="0">
          <Node pos="l" depth="2" NCoef="0" IVar="-1" Cut="0.0000000000000000e+00" cType="1" res="3.2711189705878496e-03" rms="4.4443577527999878e-01" purity="7.2800558805465698e-01" nType="-99"/>
          <Node pos="r" depth="2" NCoef="0" IVar="-1" Cut="0.0000000000000000e+00" cType="1" res="4.8756892792880535e-03" rms="3.1153243780136108e-01" purity="8.9416843652725220e-01" nType="-99"/>
        </Node>
      </Node>
    </BinaryTree>
    <BinaryTree type="DecisionTree" boostWeight="1.0000000000000000e+00" itree="73">
      <Node pos="s" depth="0" NCoef="0" IVar="4" Cut="1.7799791015625000e+04" cType="1" res="5.2229952812194824e-01" rms="4.9960693717002869e-01" purity="5.2248579263687134e-01" nType="0">
        <Node pos="l" depth="1" NCoef="0" IVar="5" Cut="3.5553668750000000e+05" cType="1" res="1.9319036602973938e-01" rms="3.9480102062225342e-01" purity="1.9319035112857819e-01" nType="0">
          <Node pos="l" depth="2" NCoef="0" IVar="-1" Cut="0.0000000000000000e+00" cType="1" res="-8.4036309272050858e-03" rms="2.7197623252868652e-01" purity="1.0167685896158218e-01" nType="-99"/>
          <Node pos="r" depth="2" NCoef="0" IVar="-1" Cut="0.0000000000000000e+00" cType="1" res="4.6514282003045082e-03" rms="3.9317017793655396e-01" purity="6.2956732511520386e-01" nType="-99"/>
        </Node>
        <Node pos="r" depth="1" NCoef="0" IVar="3" Cut="8.9427757812500000e+04" cType="1" res="6.6706675291061401e-01" rms="4.7142225503921509e-01" purity="6.6733491420745850e-01" nType="0">
          <Node pos="l" depth="2" NCoef="0" IVar="-1" Cut="0.0000000000000000e+00" cType="1" res="1.2318390872678719e-05" rms="4.4228264689445496e-01" purity="7.5288915634155273e-01" nType="-99"/>
          <Node pos="r" depth="2" NCoef="0" IVar="-1" Cut="0.0000000000000000e+00" cType="1" res="1.4259263407438993e-03" rms="4.4587224721908569e-01" purity="5.2227365970611572e-01" nType="-99"/>
        </Node>
      </Node>
    </BinaryTree>
    <BinaryTree type="DecisionTree" boostWeight="1.0000000000000000e+00" itree="74">
      <Node pos="s" depth="0" NCoef="0" IVar="5" Cut="2.5316768750000000e+05" cType="1" res="5.8326578140258789e-01" rms="4.9315708875656128e-01" purity="5.8340293169021606e-01" nType="0">
        <Node pos="l" depth="1" NCoef="0" IVar="4" Cut="4.7193695312500000e+04" cType="1" res="1.4723347127437592e-01" rms="3.5433849692344666e-01" purity="1.4723347127437592e-01" nType="0">
          <Node pos="l" depth="2" NCoef="0" IVar="-1" Cut="0.0000000000000000e+00" cType="1" res="-9.6992747858166695e-03" rms="3.0038771033287048e-01" purity="1.0822494328022003e-01" nType="-99"/>
          <Node pos="r" depth="2" NCoef="0" IVar="-1" Cut="0.0000000000000000e+00" cType="1" res="9.1221352340653539e-04" rms="4.9225166440010071e-01" purity="5.4883968830108643e-01" nType="-99"/>
        </Node>
        <Node pos="r" depth="1" NCoef="0" IVar="5" Cut="2.7566840625000000e+05" cType="1" res="8.1051218509674072e-01" rms="3.9216160774230957e-01" purity="8.1072080135345459e-01" nType="0">
          <Node pos="l" depth="2" NCoef="0" IVar="-1" Cut="0.0000000000000000e+00" cType="1" res="1.0830583050847054e-05" rms="2.7421125769615173e-01" purity="9.2592614889144897e-01" nType="-99"/>
          <Node pos="r" depth="2" NCoef="0" IVar="-1" Cut="0.0000000000000000e+00" cType="1" res="2.0772111602127552e-03" rms="4.1481477022171021e-01" purity="6.6515588760375977e-01" nType="-99"/>
        </Node>
      </Node>
    </BinaryTree>
    <BinaryTree type="DecisionTree" boostWeight="1.0000000000000000e+00" itree="75">
      <Node pos="s" depth="0" NCoef="0" IVar="4" Cut="2.3674177734375000e+04" cType="1" res="4.4189620018005371e-01" rms="4.9687069654464722e-01" purity="4.4215273857116699e-01" nType="0">
        <Node pos="l" depth="1" NCoef="0" IVar="0" Cut="2.0000000000000000e+00" cType="1" res="-3.0411900952458382e-02" rms="3.2396441698074341e-01" purity="2.1312458813190460e-01" nType="0">
          <Node pos="l" depth="2" NCoef="0" IVar="-1" Cut="0.0000000000000000e+00" cType="1" res="-8.6341043934226036e-03" rms="2.9104059934616089e-01" purity="9.7658209502696991e-02" nType="-99"/>
          <Node pos="r" depth="2" NCoef="0" IVar="-1" Cut="0.0000000000000000e+00" cType="1" res="4.4829109683632851e-03" rms="4.0592542290687561e-01" purity="7.8792756795883179e-01" nType="-99"/>
        </Node>
        <Node pos="r" depth="1" NCoef="0" IVar="2" Cut="8.9665414062500000e+04" cType="1" res="6.4881736040115356e-01" rms="4.7771796584129333e-01" purity="6.4917844533920288e-01" nType="0">
          <Node pos="l" depth="2" NCoef="0" IVar="-1" Cut="0.0000000000000000e+00" cType="1" res="1.3046117601334117e-05" rms="4.1559031605720520e-01" purity="7.9542779922485352e-01" nType="-99"/>
          <Node pos="r" depth="2" NCoef="0" IVar="-1" Cut="0.0000000000000000e+00" cType="1" res="1.4978619292378426e-03" rms="4.5757615566253662e-01" purity="5.6599605083465576e-01" nType="-99"/>
        </Node>
      </Node>
    </BinaryTree>
    <BinaryTree type="DecisionTree" boostWeight="1.0000000000000000e+00" itree="76">
      <Node pos="s" depth="0" NCoef="0" IVar="3" Cut="9.5949710937500000e+04" cType="1" res="4.8411685228347778e-01" rms="4.9974766373634338e-01" purity="4.8411685228347778e-01" nType="0">
        <Node pos="l" depth="1" NCoef="0" IVar="0" Cut="2.0000000000000000e+00" cType="1" res="2.1087531000375748e-02" rms="3.9315178990364075e-01" purity="3.8277766108512878e-01" nType="0">
          <Node pos="l" depth="2" NCoef="0" IVar="-1" Cut="0.0000000000000000e+00" cType="1" res="-2.1692258305847645e-03" rms="3.6927309632301331e-01" purity="2.2183729708194733e-01" nType="-99"/>
          <Node pos="r" depth="2" NCoef="0" IVar="-1" Cut="0.0000000000000000e+00" cType="1" res="1.4690259704366326e-03" rms="3.7413305044174194e-01" purity="8.3329594135284424e-01" nType="-99"/>
        </Node>
        <Node pos="r" depth="1" NCoef="0" IVar="2" Cut="8.9391265625000000e+04" cType="1" res="7.6760065555572510e-01" rms="4.2236226797103882e-01" purity="7.6760065555572510e-01" nType="0">
          <Node pos="l" depth="2" NCoef="0" IVar="-1" Cut="0.0000000000000000e+00" cType="1" res="7.3515079748176504e-06" rms="2.6526063680648804e-01" purity="9.0728104114532471e-01" nType="-99"/>
          <Node pos="r" depth="2" NCoef="0" IVar="-1" Cut="0.0000000000000000e+00" cType="1" res="6.6166190663352609e-04" rms="3.9785176515579224e-01" purity="4.1229692101478577e-01" nType="-99"/>
        </Node>
      </Node>
    </BinaryTree>
    <BinaryTree type="DecisionTree" boostWeight="1.0000000000000000e+00" itree="77">
      <Node pos="s" depth="0" NCoef="0" IVar="1" Cut="1.9097787500000000e+05" cType="1" res="4.9952286481857300e-01" rms="4.9999976158142090e-01" purity="4.9952283501625061e-01" nType="0">
        <Node pos="l" depth="1" NCoef="0" IVar="4" Cut="2.1434316406250000e+04" cType="1" res="2.7712774462997913e-03" rms="5.6474607902469990e+22" purity="8.2295119762420654e-01" nType="0">
          <Node pos="l" depth="2" NCoef="0" IVar="-1" Cut="0.0000000000000000e+00" cType="1" res="-2.6676796842366457e-03" rms="2.5860473513603210e-01" purity="1.3371507823467255e-01" nType="-99"/>
          <Node pos="r" depth="2" NCoef="0" IVar="-1" Cut="0.0000000000000000e+00" cType="1" res="1.1569118214538321e-05" rms="2.5764629244804382e-01" purity="9.3003809452056885e-01" nType="-99"/>
        </Node>
        <Node pos="r" depth="1" NCoef="0" IVar="5" Cut="3.2452140625000000e+05" cType="1" res="0.0000000000000000e+00" rms="9.1310185194015503e-01" purity="3.9990445971488953e-01" nType="0">
          <Node pos="l" depth="2" NCoef="0" IVar="-1" Cut="0.0000000000000000e+00" cType="1" res="-2.3322105407714844e-03" rms="3.6720320582389832e-01" purity="2.2770003974437714e-01" nType="-99"/>
          <Node pos="r" depth="2" NCoef="0" IVar="-1" Cut="0.0000000000000000e+00" cType="1" res="3.8072310853749514e-03" rms="4.0065556764602661e-01" purity="7.2652518749237061e-01" nType="-99"/>
        </Node>
      </Node>
    </BinaryTree>
    <BinaryTree type="DecisionTree" boostWeight="1.0000000000000000e+00" itree="78">
      <Node pos="s" depth="0" NCoef="0" IVar="4" Cut="2.3692052734375000e+04" cType="1" res="4.4952580332756042e-01" rms="4.9752494692802429e-01" purity="4.4979295134544373e-01" nType="0">
        <Node pos="l" depth="1" NCoef="0" IVar="0" Cut="1.0000000000000000e+00" cType="1" res="-2.5260934606194496e-02" rms="3.2818362116813660e-01" purity="2.1719682216644287e-01" nType="0">
          <Node pos="l" depth="2" NCoef="0" IVar="-1" Cut="0.0000000000000000e+00" cType="1" res="-1.1529192328453064e-02" rms="2.2861881554126740e-01" purity="5.3726457059383392e-02" nType="-99"/>
          <Node pos="r" depth="2" NCoef="0" IVar="-1" Cut="0.0000000000000000e+00" cType="1" res="3.2491635065525770e-03" rms="4.0770569443702698e-01" purity="4.3242895603179932e-01" nType="-99"/>
        </Node>
        <Node pos="r" depth="1" NCoef="0" IVar="2" Cut="8.9638914062500000e+04" cType="1" res="6.5908169746398926e-01" rms="4.7417581081390381e-01" purity="6.5958982706069946e-01" nType="0">
          <Node pos="l" depth="2" NCoef="0" IVar="-1" Cut="0.0000000000000000e+00" cType="1" res="1.3300189493747894e-05" rms="4.0236061811447144e-01" purity="8.0981713533401489e-01" nType="-99"/>
          <Node pos="r" depth="2" NCoef="0" IVar="-1" Cut="0.0000000000000000e+00" cType="1" res="9.8941090982407331e-04" rms="4.5447260141372681e-01" purity="5.7927316427230835e-01" nType="-99"/>
        </Node>
      </Node>
    </BinaryTree>
    <BinaryTree type="DecisionTree" boostWeight="1.0000000000000000e+00" itree="79">
      <Node pos="s" depth="0" NCoef="0" IVar="0" Cut="2.0000000000000000e+00" cType="1" res="2.7063762769103050e-02" rms="3.9374059438705444e-01" purity="3.8915908336639404e-01" nType="0">
        <Node pos="l" depth="1" NCoef="0" IVar="4" Cut="5.7049101562500000e+04" cType="1" res="2.2549366950988770e-01" rms="4.1790702939033508e-01" purity="2.2549368441104889e-01" nType="0">
          <Node pos="l" depth="2" NCoef="0" IVar="-1" Cut="0.0000000000000000e+00" cType="1" res="-5.4328362457454205e-03" rms="3.4849929809570312e-01" purity="1.6257147490978241e-01" nType="-99"/>
          <Node pos="r" depth="2" NCoef="0" IVar="-1" Cut="0.0000000000000000e+00" cType="1" res="2.5114892050623894e-03" rms="4.1271090507507324e-01" purity="7.7947467565536499e-01" nType="-99"/>
        </Node>
        <Node pos="r" depth="1" NCoef="0" IVar="5" Cut="3.7517746875000000e+05" cType="1" res="8.3236426115036011e-01" rms="3.7577053904533386e-01" purity="8.3432418107986450e-01" nType="0">
          <Node pos="l" depth="2" NCoef="0" IVar="-1" Cut="0.0000000000000000e+00" cType="1" res="3.0202115885913372e-03" rms="4.5365712046623230e-01" purity="7.1011489629745483e-01" nType="-99"/>
          <Node pos="r" depth="2" NCoef="0" IVar="-1" Cut="0.0000000000000000e+00" cType="1" res="1.5131788095459342e-03" rms="3.2312288880348206e-01" purity="8.8538026809692383e-01" nType="-99"/>
        </Node>
      </Node>
    </BinaryTree>
    <BinaryTree type="DecisionTree" boostWeight="1.0000000000000000e+00" itree="80">
      <Node pos="s" depth="0" NCoef="0" IVar="5" Cut="2.5942600000000000e+05" cType="1" res="5.1588308811187744e-01" rms="5.0000989437103271e-01" purity="5.1636981964111328e-01" nType="0">
        <Node pos="l" depth="1" NCoef="0" IVar="1" Cut="1.9129142187500000e+05" cType="1" res="3.0293864011764526e-01" rms="4.5952892303466797e-01" purity="3.0293861031532288e-01" nType="0">
          <Node pos="l" depth="2" NCoef="0" IVar="-1" Cut="0.0000000000000000e+00" cType="1" res="1.0781733180920128e-05" rms="3.8967856764793396e-01" purity="6.9864940643310547e-01" nType="-99"/>
          <Node pos="r" depth="2" NCoef="0" IVar="-1" Cut="0.0000000000000000e+00" cType="1" res="-4.3264995329082012e-03" rms="3.2811200618743896e-01" purity="1.5990501642227173e-01" nType="-99"/>
        </Node>
        <Node pos="r" depth="1" NCoef="0" IVar="5" Cut="2.9221346875000000e+05" cType="1" res="7.3072785139083862e-01" rms="4.4417494535446167e-01" purity="7.3170572519302368e-01" nType="0">
          <Node pos="l" depth="2" NCoef="0" IVar="-1" Cut="0.0000000000000000e+00" cType="1" res="1.1492246812849771e-05" rms="4.2200452089309692e-01" purity="8.0050987005233765e-01" nType="-99"/>
          <Node pos="r" depth="2" NCoef="0" IVar="-1" Cut="0.0000000000000000e+00" cType="1" res="3.0584305059164762e-03" rms="4.0814164280891418e-01" purity="6.8969702720642090e-01" nType="-99"/>
        </Node>
      </Node>
    </BinaryTree>
    <BinaryTree type="DecisionTree" boostWeight="1.0000000000000000e+00" itree="81">
      <Node pos="s" depth="0" NCoef="0" IVar="5" Cut="2.4598232812500000e+05" cType="1" res="4.6460676193237305e-01" rms="4.9874573945999146e-01" purity="4.6460676193237305e-01" nType="0">
        <Node pos="l" depth="1" NCoef="0" IVar="4" Cut="4.8771175781250000e+04" cType="1" res="1.4971829950809479e-01" rms="3.5679507255554199e-01" purity="1.4971828460693359e-01" nType="0">
          <Node pos="l" depth="2" NCoef="0" IVar="-1" Cut="0.0000000000000000e+00" cType="1" res="-9.9053550511598587e-03" rms="2.9451766610145569e-01" purity="1.0140072554349899e-01" nType="-99"/>
          <Node pos="r" depth="2" NCoef="0" IVar="-1" Cut="0.0000000000000000e+00" cType="1" res="1.5853652730584145e-03" rms="4.7230303287506104e-01" purity="6.4288115501403809e-01" nType="-99"/>
        </Node>
        <Node pos="r" depth="1" NCoef="0" IVar="5" Cut="2.7104831250000000e+05" cType="1" res="7.0000034570693970e-01" rms="4.5825743675231934e-01" purity="7.0000034570693970e-01" nType="0">
          <Node pos="l" depth="2" NCoef="0" IVar="-1" Cut="0.0000000000000000e+00" cType="1" res="1.1354025446053129e-05" rms="4.1191950440406799e-01" purity="7.9716354608535767e-01" nType="-99"/>
          <Node pos="r" depth="2" NCoef="0" IVar="-1" Cut="0.0000000000000000e+00" cType="1" res="2.9457197524607182e-03" rms="4.2051237821578979e-01" purity="6.4769214391708374e-01" nType="-99"/>
        </Node>
      </Node>
    </BinaryTree>
    <BinaryTree type="DecisionTree" boostWeight="1.0000000000000000e+00" itree="82">
      <Node pos="s" depth="0" NCoef="0" IVar="1" Cut="1.9129831250000000e+05" cType="1" res="4.4625779986381531e-01" rms="4.9710339307785034e-01" purity="4.4625782966613770e-01" nType="0">
        <Node pos="l" depth="1" NCoef="0" IVar="3" Cut="8.8281265625000000e+04" cType="1" res="3.7573214620351791e-02" rms="2.2725190222263336e-01" purity="7.0604699850082397e-01" nType="0">
          <Node pos="l" depth="2" NCoef="0" IVar="-1" Cut="0.0000000000000000e+00" cType="1" res="-4.5798835344612598e-03" rms="3.4741500020027161e-01" purity="2.0830725133419037e-01" nType="-99"/>
          <Node pos="r" depth="2" NCoef="0" IVar="-1" Cut="0.0000000000000000e+00" cType="1" res="1.1678525879688095e-05" rms="3.1731513142585754e-01" purity="8.3890265226364136e-01" nType="-99"/>
        </Node>
        <Node pos="r" depth="1" NCoef="0" IVar="5" Cut="3.6709428125000000e+05" cType="1" res="3.9608678221702576e-01" rms="4.8908287286758423e-01" purity="3.9608681201934814e-01" nType="0">
          <Node pos="l" depth="2" NCoef="0" IVar="-1" Cut="0.0000000000000000e+00" cType="1" res="-2.0346601959317923e-03" rms="3.7404239177703857e-01" purity="2.4907425045967102e-01" nType="-99"/>
          <Node pos="r" depth="2" NCoef="0" IVar="-1" Cut="0.0000000000000000e+00" cType="1" res="3.9041864220052958e-03" rms="3.8862735033035278e-01" purity="7.5737810134887695e-01" nType="-99"/>
        </Node>
      </Node>
    </BinaryTree>
    <BinaryTree type="DecisionTree" boostWeight="1.0000000000000000e+00" itree="83">
      <Node pos="s" depth="0" NCoef="0" IVar="5" Cut="2.5914771875000000e+05" cType="1" res="4.7199493646621704e-01" rms="4.9926170706748962e-01" purity="4.7228825092315674e-01" nType="0">
        <Node pos="l" depth="1" NCoef="0" IVar="4" Cut="5.0444378906250000e+04" cType="1" res="1.7357924580574036e-01" rms="3.7874728441238403e-01" purity="1.7357924580574036e-01" nType="0">
          <Node pos="l" depth="2" NCoef="0" IVar="-1" Cut="0.0000000000000000e+00" cType="1" res="-6.5957973711192608e-03" rms="3.1992030143737793e-01" purity="1.2865060567855835e-01" nType="-99"/>
          <Node pos="r" depth="2" NCoef="0" IVar="-1" Cut="0.0000000000000000e+00" cType="1" res="1.5485752373933792e-03" rms="4.7281685471534729e-01" purity="6.4775270223617554e-01" nType="-99"/>
        </Node>
        <Node pos="r" depth="1" NCoef="0" IVar="5" Cut="2.9193750000000000e+05" cType="1" res="7.2666543722152710e-01" rms="4.4587671756744385e-01" purity="7.2720903158187866e-01" nType="0">
          <Node pos="l" depth="2" NCoef="0" IVar="-1" Cut="0.0000000000000000e+00" cType="1" res="1.1602097401919309e-05" rms="4.1895040869712830e-01" purity="8.0437660217285156e-01" nType="-99"/>
          <Node pos="r" depth="2" NCoef="0" IVar="-1" Cut="0.0000000000000000e+00" cType="1" res="3.4818504936993122e-03" rms="4.1110315918922424e-01" purity="6.7846745252609253e-01" nType="-99"/>
        </Node>
      </Node>
    </BinaryTree>
    <BinaryTree type="DecisionTree" boostWeight="1.0000000000000000e+00" itree="84">
      <Node pos="s" depth="0" NCoef="0" IVar="5" Cut="2.5747637500000000e+05" cType="1" res="4.8187777400016785e-01" rms="4.9967148900032043e-01" purity="4.8187777400016785e-01" nType="0">
        <Node pos="l" depth="1" NCoef="0" IVar="4" Cut="5.0730574218750000e+04" cType="1" res="1.7265181243419647e-01" rms="3.7794598937034607e-01" purity="1.7265182733535767e-01" nType="0">
          <Node pos="l" depth="2" NCoef="0" IVar="-1" Cut="0.0000000000000000e+00" cType="1" res="-7.2367438115179539e-03" rms="3.0991744995117188e-01" purity="1.2104810774326324e-01" nType="-99"/>
          <Node pos="r" depth="2" NCoef="0" IVar="-1" Cut="0.0000000000000000e+00" cType="1" res="1.7555447993800044e-03" rms="4.5637166500091553e-01" purity="6.8568152189254761e-01" nType="-99"/>
        </Node>
        <Node pos="r" depth="1" NCoef="0" IVar="5" Cut="2.9027925000000000e+05" cType="1" res="7.3221045732498169e-01" rms="4.4280728697776794e-01" purity="7.3221051692962646e-01" nType="0">
          <Node pos="l" depth="2" NCoef="0" IVar="-1" Cut="0.0000000000000000e+00" cType="1" res="1.1524966794240754e-05" rms="4.2774096131324768e-01" purity="7.9516202211380005e-01" nType="-99"/>
          <Node pos="r" depth="2" NCoef="0" IVar="-1" Cut="0.0000000000000000e+00" cType="1" res="2.1632639691233635e-03" rms="4.0723729133605957e-01" purity="6.9485652446746826e-01" nType="-99"/>
        </Node>
      </Node>
    </BinaryTree>
    <BinaryTree type="DecisionTree" boostWeight="1.0000000000000000e+00" itree="85">
      <Node pos="s" depth="0" NCoef="0" IVar="4" Cut="2.2987722656250000e+04" cType="1" res="4.4071099162101746e-01" rms="4.9672937393188477e-01" purity="4.4122692942619324e-01" nType="0">
        <Node pos="l" depth="1" NCoef="0" IVar="0" Cut="1.0000000000000000e+00" cType="1" res="-2.1063711494207382e-02" rms="3.1889337301254272e-01" purity="2.1246841549873352e-01" nType="0">
          <Node pos="l" depth="2" NCoef="0" IVar="-1" Cut="0.0000000000000000e+00" cType="1" res="-1.3148111291229725e-02" rms="2.1540582180023193e-01" purity="4.9797296524047852e-02" nType="-99"/>
          <Node pos="r" depth="2" NCoef="0" IVar="-1" Cut="0.0000000000000000e+00" cType="1" res="3.0944442842155695e-03" rms="4.0389376878738403e-01" purity="4.3205562233924866e-01" nType="-99"/>
        </Node>
        <Node pos="r" depth="1" NCoef="0" IVar="2" Cut="8.9627960937500000e+04" cType="1" res="6.4085787534713745e-01" rms="4.8024800419807434e-01" purity="6.4182627201080322e-01" nType="0">
          <Node pos="l" depth="2" NCoef="0" IVar="-1" Cut="0.0000000000000000e+00" cType="1" res="1.3591763490694575e-05" rms="4.1185188293457031e-01" purity="7.9653936624526978e-01" nType="-99"/>
          <Node pos="r" depth="2" NCoef="0" IVar="-1" Cut="0.0000000000000000e+00" cType="1" res="1.5043840976431966e-03" rms="4.5138040184974670e-01" purity="5.5721563100814819e-01" nType="-99"/>
        </Node>
      </Node>
    </BinaryTree>
    <BinaryTree type="DecisionTree" boostWeight="1.0000000000000000e+00" itree="86">
      <Node pos="s" depth="0" NCoef="0" IVar="2" Cut="8.9725601562500000e+04" cType="1" res="5.2674400806427002e-01" rms="4.9940100312232971e-01" purity="5.2686059474945068e-01" nType="0">
        <Node pos="l" depth="1" NCoef="0" IVar="2" Cut="8.9247765625000000e+04" cType="1" res="7.3629719018936157e-01" rms="4.4081100821495056e-01" purity="7.3644787073135376e-01" nType="0">
          <Node pos="l" depth="2" NCoef="0" IVar="-1" Cut="0.0000000000000000e+00" cType="1" res="4.4872896978631616e-04" rms="3.9045703411102295e-01" purity="3.5658758878707886e-01" nType="-99"/>
          <Node pos="r" depth="2" NCoef="0" IVar="-1" Cut="0.0000000000000000e+00" cType="1" res="8.8614751803106628e-06" rms="2.7777674794197083e-01" purity="8.9739656448364258e-01" nType="-99"/>
        </Node>
        <Node pos="r" depth="1" NCoef="0" IVar="5" Cut="3.7553265625000000e+05" cType="1" res="3.8736397027969360e-01" rms="4.8747682571411133e-01" purity="3.8794019818305969e-01" nType="0">
          <Node pos="l" depth="2" NCoef="0" IVar="-1" Cut="0.0000000000000000e+00" cType="1" res="-1.5786254080012441e-03" rms="3.8006821274757385e-01" purity="2.4923147261142731e-01" nType="-99"/>
          <Node pos="r" depth="2" NCoef="0" IVar="-1" Cut="0.0000000000000000e+00" cType="1" res="4.1102222166955471e-03" rms="3.7881103157997131e-01" purity="7.6903814077377319e-01" nType="-99"/>
        </Node>
      </Node>
    </BinaryTree>
    <BinaryTree type="DecisionTree" boostWeight="1.0000000000000000e+00" itree="87">
      <Node pos="s" depth="0" NCoef="0" IVar="4" Cut="1.7767003906250000e+04" cType="1" res="6.2943762540817261e-01" rms="4.8311677575111389e-01" purity="6.2970429658889771e-01" nType="0">
        <Node pos="l" depth="1" NCoef="0" IVar="5" Cut="3.5914768750000000e+05" cType="1" res="1.8591040372848511e-01" rms="3.8928389549255371e-01" purity="1.8610462546348572e-01" nType="0">
          <Node pos="l" depth="2" NCoef="0" IVar="-1" Cut="0.0000000000000000e+00" cType="1" res="-6.1180633492767811e-03" rms="2.7424621582031250e-01" purity="1.0833734273910522e-01" nType="-99"/>
          <Node pos="r" depth="2" NCoef="0" IVar="-1" Cut="0.0000000000000000e+00" cType="1" res="5.3038038313388824e-03" rms="3.8897031545639038e-01" purity="6.1072975397109985e-01" nType="-99"/>
        </Node>
        <Node pos="r" depth="1" NCoef="0" IVar="3" Cut="8.9285148437500000e+04" cType="1" res="7.6752209663391113e-01" rms="4.2265397310256958e-01" purity="7.6787185668945312e-01" nType="0">
          <Node pos="l" depth="2" NCoef="0" IVar="-1" Cut="0.0000000000000000e+00" cType="1" res="6.3575519016012549e-04" rms="4.3856477737426758e-01" purity="5.0577831268310547e-01" nType="-99"/>
          <Node pos="r" depth="2" NCoef="0" IVar="-1" Cut="0.0000000000000000e+00" cType="1" res="1.0550178558332846e-05" rms="3.9796003699302673e-01" purity="8.3899909257888794e-01" nType="-99"/>
        </Node>
      </Node>
    </BinaryTree>
    <BinaryTree type="DecisionTree" boostWeight="1.0000000000000000e+00" itree="88">
      <Node pos="s" depth="0" NCoef="0" IVar="0" Cut="2.0000000000000000e+00" cType="1" res="3.0223891139030457e-02" rms="3.9254948496818542e-01" purity="3.8432398438453674e-01" nType="0">
        <Node pos="l" depth="1" NCoef="0" IVar="4" Cut="6.3436894531250000e+04" cType="1" res="2.3013761639595032e-01" rms="4.2092075943946838e-01" purity="2.3013760149478912e-01" nType="0">
          <Node pos="l" depth="2" NCoef="0" IVar="-1" Cut="0.0000000000000000e+00" cType="1" res="-3.7431970704346895e-03" rms="3.5877874493598938e-01" purity="1.7823691666126251e-01" nType="-99"/>
          <Node pos="r" depth="2" NCoef="0" IVar="-1" Cut="0.0000000000000000e+00" cType="1" res="2.3831974249333143e-03" rms="3.9054608345031738e-01" purity="8.1004649400711060e-01" nType="-99"/>
        </Node>
        <Node pos="r" depth="1" NCoef="0" IVar="4" Cut="5.3210050781250000e+04" cType="1" res="8.2844930887222290e-01" rms="3.7863293290138245e-01" purity="8.3010196685791016e-01" nType="0">
          <Node pos="l" depth="2" NCoef="0" IVar="-1" Cut="0.0000000000000000e+00" cType="1" res="5.4018544033169746e-03" rms="4.0664544701576233e-01" purity="7.8861993551254272e-01" nType="-99"/>
          <Node pos="r" depth="2" NCoef="0" IVar="-1" Cut="0.0000000000000000e+00" cType="1" res="1.2897141277790070e-03" rms="2.7064654231071472e-01" purity="9.2007446289062500e-01" nType="-99"/>
        </Node>
      </Node>
    </BinaryTree>
    <BinaryTree type="DecisionTree" boostWeight="1.0000000000000000e+00" itree="89">
      <Node pos="s" depth="0" NCoef="0" IVar="0" Cut="2.0000000000000000e+00" cType="1" res="2.5595340877771378e-02" rms="3.9040383696556091e-01" purity="3.7943172454833984e-01" nType="0">
        <Node pos="l" depth="1" NCoef="0" IVar="4" Cut="6.4053515625000000e+04" cType="1" res="0.0000000000000000e+00" rms="6.3849492000000000e+07" purity="2.2604572772979736e-01" nType="0">
          <Node pos="l" depth="2" NCoef="0" IVar="-1" Cut="0.0000000000000000e+00" cType="1" res="-4.5422250404953957e-03" rms="3.5507810115814209e-01" purity="1.7469859123229980e-01" nType="-99"/>
          <Node pos="r" depth="2" NCoef="0" IVar="-1" Cut="0.0000000000000000e+00" cType="1" res="2.1412104833871126e-03" rms="3.8645020127296448e-01" purity="8.1483906507492065e-01" nType="-99"/>
        </Node>
        <Node pos="r" depth="1" NCoef="0" IVar="5" Cut="3.7692728125000000e+05" cType="1" res="8.2088929414749146e-01" rms="3.8401710987091064e-01" purity="8.2205069065093994e-01" nType="0">
          <Node pos="l" depth="2" NCoef="0" IVar="-1" Cut="0.0000000000000000e+00" cType="1" res="2.1763790864497423e-03" rms="4.6192640066146851e-01" purity="6.9037073850631714e-01" nType="-99"/>
          <Node pos="r" depth="2" NCoef="0" IVar="-1" Cut="0.0000000000000000e+00" cType="1" res="4.6307956799864769e-03" rms="3.3310532569885254e-01" purity="8.7648183107376099e-01" nType="-99"/>
        </Node>
      </Node>
    </BinaryTree>
    <BinaryTree type="DecisionTree" boostWeight="1.0000000000000000e+00" itree="90">
      <Node pos="s" depth="0" NCoef="0" IVar="5" Cut="2.6177623437500000e+05" cType="1" res="4.6435230970382690e-01" rms="4.9879106879234314e-01" purity="4.6450605988502502e-01" nType="0">
        <Node pos="l" depth="1" NCoef="0" IVar="4" Cut="4.3625437500000000e+04" cType="1" res="0.0000000000000000e+00" rms="0.0000000000000000e+00" purity="1.6479693353176117e-01" nType="0">
          <Node pos="l" depth="2" NCoef="0" IVar="-1" Cut="0.0000000000000000e+00" cType="1" res="-9.5493933185935020e-03" rms="2.9235187172889709e-01" purity="1.0040346533060074e-01" nType="-99"/>
          <Node pos="r" depth="2" NCoef="0" IVar="-1" Cut="0.0000000000000000e+00" cType="1" res="1.3763578608632088e-03" rms="4.8007833957672119e-01" purity="6.0275417566299438e-01" nType="-99"/>
        </Node>
        <Node pos="r" depth="1" NCoef="0" IVar="5" Cut="2.8544815625000000e+05" cType="1" res="7.2761774063110352e-01" rms="4.4531908631324768e-01" purity="7.2790658473968506e-01" nType="0">
          <Node pos="l" depth="2" NCoef="0" IVar="-1" Cut="0.0000000000000000e+00" cType="1" res="1.1834779797936790e-05" rms="3.9891275763511658e-01" purity="8.3396893739700317e-01" nType="-99"/>
          <Node pos="r" depth="2" NCoef="0" IVar="-1" Cut="0.0000000000000000e+00" cType="1" res="3.1322129070758820e-03" rms="4.1266745328903198e-01" purity="6.6947710514068604e-01" nType="-99"/>
        </Node>
      </Node>
    </BinaryTree>
    <BinaryTree type="DecisionTree" boostWeight="1.0000000000000000e+00" itree="91">
      <Node pos="s" depth="0" NCoef="0" IVar="5" Cut="2.6272696875000000e+05" cType="1" res="4.7391220927238464e-01" rms="4.9943372607231140e-01" purity="4.7411659359931946e-01" nType="0">
        <Node pos="l" depth="1" NCoef="0" IVar="4" Cut="3.8090429687500000e+04" cType="1" res="1.7929226160049438e-01" rms="3.8359683752059937e-01" purity="1.7929224669933319e-01" nType="0">
          <Node pos="l" depth="2" NCoef="0" IVar="-1" Cut="0.0000000000000000e+00" cType="1" res="-8.8698295876383781e-03" rms="3.0174753069877625e-01" purity="1.0719238221645355e-01" nType="-99"/>
          <Node pos="r" depth="2" NCoef="0" IVar="-1" Cut="0.0000000000000000e+00" cType="1" res="1.1894253548234701e-03" rms="4.8472383618354797e-01" purity="5.4336619377136230e-01" nType="-99"/>
        </Node>
        <Node pos="r" depth="1" NCoef="0" IVar="5" Cut="2.8639118750000000e+05" cType="1" res="7.3683643341064453e-01" rms="4.4059666991233826e-01" purity="7.3722320795059204e-01" nType="0">
          <Node pos="l" depth="2" NCoef="0" IVar="-1" Cut="0.0000000000000000e+00" cType="1" res="1.1995122804364655e-05" rms="3.8924968242645264e-01" purity="8.4217870235443115e-01" nType="-99"/>
          <Node pos="r" depth="2" NCoef="0" IVar="-1" Cut="0.0000000000000000e+00" cType="1" res="1.5135305002331734e-03" rms="4.1028741002082825e-01" purity="6.7914068698883057e-01" nType="-99"/>
        </Node>
      </Node>
    </BinaryTree>
    <BinaryTree type="DecisionTree" boostWeight="1.0000000000000000e+00" itree="92">
      <Node pos="s" depth="0" NCoef="0" IVar="1" Cut="1.9129831250000000e+05" cType="1" res="4.9724534153938293e-01" rms="4.9999240040779114e-01" purity="4.9724534153938293e-01" nType="0">
        <Node pos="l" depth="1" NCoef="0" IVar="1" Cut="1.8722917187500000e+05" cType="1" res="2.0186839625239372e-02" rms="1.6017751395702362e-01" purity="8.1523954868316650e-01" nType="0">
          <Node pos="l" depth="2" NCoef="0" IVar="-1" Cut="0.0000000000000000e+00" cType="1" res="-7.0163491182029247e-03" rms="3.2333084940910339e-01" purity="1.8130463361740112e-01" nType="-99"/>
          <Node pos="r" depth="2" NCoef="0" IVar="-1" Cut="0.0000000000000000e+00" cType="1" res="1.2365938346192706e-05" rms="2.5259953737258911e-01" purity="9.0866041183471680e-01" nType="-99"/>
        </Node>
        <Node pos="r" depth="1" NCoef="0" IVar="0" Cut="1.0000000000000000e+00" cType="1" res="4.0869507938623428e-02" rms="3.9390054345130920e-01" purity="3.9989566802978516e-01" nType="0">
          <Node pos="l" depth="2" NCoef="0" IVar="-1" Cut="0.0000000000000000e+00" cType="1" res="-3.6358311772346497e-03" rms="3.1649425625801086e-01" purity="1.5386416018009186e-01" nType="-99"/>
          <Node pos="r" depth="2" NCoef="0" IVar="-1" Cut="0.0000000000000000e+00" cType="1" res="3.1452290713787079e-03" rms="4.2244708538055420e-01" purity="6.0369294881820679e-01" nType="-99"/>
        </Node>
      </Node>
    </BinaryTree>
    <BinaryTree type="DecisionTree" boostWeight="1.0000000000000000e+00" itree="93">
      <Node pos="s" depth="0" NCoef="0" IVar="4" Cut="1.7798187500000000e+04" cType="1" res="5.9471374750137329e-01" rms="4.9123430252075195e-01" purity="5.9519100189208984e-01" nType="0">
        <Node pos="l" depth="1" NCoef="0" IVar="0" Cut="1.0000000000000000e+00" cType="1" res="-1.3942197896540165e-02" rms="2.9796561598777771e-01" purity="1.9333297014236450e-01" nType="0">
          <Node pos="l" depth="2" NCoef="0" IVar="-1" Cut="0.0000000000000000e+00" cType="1" res="-1.5227583236992359e-02" rms="1.8942186236381531e-01" purity="3.7467699497938156e-02" nType="-99"/>
          <Node pos="r" depth="2" NCoef="0" IVar="-1" Cut="0.0000000000000000e+00" cType="1" res="3.6380058154463768e-03" rms="3.9406743645668030e-01" purity="4.2327761650085449e-01" nType="-99"/>
        </Node>
        <Node pos="r" depth="1" NCoef="0" IVar="3" Cut="8.9284718750000000e+04" cType="1" res="7.3511761426925659e-01" rms="4.4163191318511963e-01" purity="7.3570030927658081e-01" nType="0">
          <Node pos="l" depth="2" NCoef="0" IVar="-1" Cut="0.0000000000000000e+00" cType="1" res="7.4204115662723780e-04" rms="4.3503132462501526e-01" purity="5.1907527446746826e-01" nType="-99"/>
          <Node pos="r" depth="2" NCoef="0" IVar="-1" Cut="0.0000000000000000e+00" cType="1" res="1.0608812772261444e-05" rms="4.1897118091583252e-01" purity="8.0866909027099609e-01" nType="-99"/>
        </Node>
      </Node>
    </BinaryTree>
    <BinaryTree type="DecisionTree" boostWeight="1.0000000000000000e+00" itree="94">
      <Node pos="s" depth="0" NCoef="0" IVar="0" Cut="2.0000000000000000e+00" cType="1" res="3.0638564378023148e-02" rms="3.8848677277565002e-01" purity="3.8111844658851624e-01" nType="0">
        <Node pos="l" depth="1" NCoef="0" IVar="4" Cut="4.6804804687500000e+04" cType="1" res="2.3144434392452240e-01" rms="4.2175567150115967e-01" purity="2.3144432902336121e-01" nType="0">
          <Node pos="l" depth="2" NCoef="0" IVar="-1" Cut="0.0000000000000000e+00" cType="1" res="-4.5167296193540096e-03" rms="3.4095069766044617e-01" purity="1.5376043319702148e-01" nType="-99"/>
          <Node pos="r" depth="2" NCoef="0" IVar="-1" Cut="0.0000000000000000e+00" cType="1" res="2.0752130076289177e-03" rms="4.5142236351966858e-01" purity="6.9401675462722778e-01" nType="-99"/>
        </Node>
        <Node pos="r" depth="1" NCoef="0" IVar="4" Cut="2.4560552734375000e+04" cType="1" res="8.2434797286987305e-01" rms="3.8093286752700806e-01" purity="8.2507807016372681e-01" nType="0">
          <Node pos="l" depth="2" NCoef="0" IVar="-1" Cut="0.0000000000000000e+00" cType="1" res="3.7492571864277124e-03" rms="4.1248974204063416e-01" purity="7.7590268850326538e-01" nType="-99"/>
          <Node pos="r" depth="2" NCoef="0" IVar="-1" Cut="0.0000000000000000e+00" cType="1" res="1.9295363454148173e-03" rms="3.5385438799858093e-01" purity="8.5095041990280151e-01" nType="-99"/>
        </Node>
      </Node>
    </BinaryTree>
    <BinaryTree type="DecisionTree" boostWeight="1.0000000000000000e+00" itree="95">
      <Node pos="s" depth="0" NCoef="0" IVar="4" Cut="1.7878488281250000e+04" cType="1" res="5.8832013607025146e-01" rms="4.9230349063873291e-01" purity="5.8862251043319702e-01" nType="0">
        <Node pos="l" depth="1" NCoef="0" IVar="5" Cut="3.2724756250000000e+05" cType="1" res="1.8953804671764374e-01" rms="3.9215806126594543e-01" purity="1.9062452018260956e-01" nType="0">
          <Node pos="l" depth="2" NCoef="0" IVar="-1" Cut="0.0000000000000000e+00" cType="1" res="-7.4707134626805782e-03" rms="2.5787946581840515e-01" purity="8.8701270520687103e-02" nType="-99"/>
          <Node pos="r" depth="2" NCoef="0" IVar="-1" Cut="0.0000000000000000e+00" cType="1" res="4.4607589952647686e-03" rms="4.0259373188018799e-01" purity="5.9328252077102661e-01" nType="-99"/>
        </Node>
        <Node pos="r" depth="1" NCoef="0" IVar="4" Cut="2.6542078125000000e+04" cType="1" res="7.3236083984375000e-01" rms="4.4297936558723450e-01" purity="7.3277276754379272e-01" nType="0">
          <Node pos="l" depth="2" NCoef="0" IVar="-1" Cut="0.0000000000000000e+00" cType="1" res="9.8464724942459725e-06" rms="3.9210572838783264e-01" purity="8.1197178363800049e-01" nType="-99"/>
          <Node pos="r" depth="2" NCoef="0" IVar="-1" Cut="0.0000000000000000e+00" cType="1" res="1.8506995402276516e-03" rms="4.4779238104820251e-01" purity="5.9981298446655273e-01" nType="-99"/>
        </Node>
      </Node>
    </BinaryTree>
    <BinaryTree type="DecisionTree" boostWeight="1.0000000000000000e+00" itree="96">
      <Node pos="s" depth="0" NCoef="0" IVar="2" Cut="8.9674031250000000e+04" cType="1" res="6.6997796297073364e-01" rms="4.7022068500518799e-01" purity="6.6997796297073364e-01" nType="0">
        <Node pos="l" depth="1" NCoef="0" IVar="2" Cut="8.9263289062500000e+04" cType="1" res="8.6000871658325195e-01" rms="3.4697797894477844e-01" purity="8.6000871658325195e-01" nType="0">
          <Node pos="l" depth="2" NCoef="0" IVar="-1" Cut="0.0000000000000000e+00" cType="1" res="8.5571099771186709e-04" rms="3.8262951374053955e-01" purity="3.7195229530334473e-01" nType="-99"/>
          <Node pos="r" depth="2" NCoef="0" IVar="-1" Cut="0.0000000000000000e+00" cType="1" res="9.5333925855811685e-06" rms="1.8901123106479645e-01" purity="9.5739382505416870e-01" nType="-99"/>
        </Node>
        <Node pos="r" depth="1" NCoef="0" IVar="5" Cut="2.6282375000000000e+05" cType="1" res="4.8546314239501953e-01" rms="4.9997067451477051e-01" purity="4.8575630784034729e-01" nType="0">
          <Node pos="l" depth="2" NCoef="0" IVar="-1" Cut="0.0000000000000000e+00" cType="1" res="-3.5296489950269461e-03" rms="3.4491851925849915e-01" purity="1.6895292699337006e-01" nType="-99"/>
          <Node pos="r" depth="2" NCoef="0" IVar="-1" Cut="0.0000000000000000e+00" cType="1" res="1.6654108549118973e-05" rms="4.4734051823616028e-01" purity="7.4451160430908203e-01" nType="-99"/>
        </Node>
      </Node>
    </BinaryTree>
    <BinaryTree type="DecisionTree" boostWeight="1.0000000000000000e+00" itree="97">
      <Node pos="s" depth="0" NCoef="0" IVar="2" Cut="8.9600773437500000e+04" cType="1" res="5.2301019430160522e-01" rms="4.9959132075309753e-01" purity="5.2313107252120972e-01" nType="0">
        <Node pos="l" depth="1" NCoef="0" IVar="2" Cut="8.9247859375000000e+04" cType="1" res="0.0000000000000000e+00" rms="0.0000000000000000e+00" purity="7.5382483005523682e-01" nType="0">
          <Node pos="l" depth="2" NCoef="0" IVar="-1" Cut="0.0000000000000000e+00" cType="1" res="6.8099459167569876e-04" rms="3.8332289457321167e-01" purity="3.6722421646118164e-01" nType="-99"/>
          <Node pos="r" depth="2" NCoef="0" IVar="-1" Cut="0.0000000000000000e+00" cType="1" res="9.1822985268663615e-06" rms="2.4581457674503326e-01" purity="9.2340564727783203e-01" nType="-99"/>
        </Node>
        <Node pos="r" depth="1" NCoef="0" IVar="0" Cut="2.0000000000000000e+00" cType="1" res="3.1001102179288864e-02" rms="3.8984671235084534e-01" purity="3.8335645198822021e-01" nType="0">
          <Node pos="l" depth="2" NCoef="0" IVar="-1" Cut="0.0000000000000000e+00" cType="1" res="-1.2031747028231621e-03" rms="3.7372213602066040e-01" purity="2.3033513128757477e-01" nType="-99"/>
          <Node pos="r" depth="2" NCoef="0" IVar="-1" Cut="0.0000000000000000e+00" cType="1" res="3.8284878246486187e-03" rms="3.7725934386253357e-01" purity="8.2863086462020874e-01" nType="-99"/>
        </Node>
      </Node>
    </BinaryTree>
    <BinaryTree type="DecisionTree" boostWeight="1.0000000000000000e+00" itree="98">
      <Node pos="s" depth="0" NCoef="0" IVar="4" Cut="2.0416318359375000e+04" cType="1" res="6.0763126611709595e-01" rms="4.8827809095382690e-01" purity="6.0763126611709595e-01" nType="0">
        <Node pos="l" depth="1" NCoef="0" IVar="5" Cut="4.2468300000000000e+05" cType="1" res="2.0339159667491913e-01" rms="4.0252137184143066e-01" purity="2.0416423678398132e-01" nType="0">
          <Node pos="l" depth="2" NCoef="0" IVar="-1" Cut="0.0000000000000000e+00" cType="1" res="-3.3972256351262331e-03" rms="2.9043972492218018e-01" purity="1.4038255810737610e-01" nType="-99"/>
          <Node pos="r" depth="2" NCoef="0" IVar="-1" Cut="0.0000000000000000e+00" cType="1" res="5.4583442397415638e-03" rms="3.9629885554313660e-01" purity="6.8968158960342407e-01" nType="-99"/>
        </Node>
        <Node pos="r" depth="1" NCoef="0" IVar="4" Cut="2.8263427734375000e+04" cType="1" res="7.7430981397628784e-01" rms="4.1803604364395142e-01" purity="7.7430981397628784e-01" nType="0">
          <Node pos="l" depth="2" NCoef="0" IVar="-1" Cut="0.0000000000000000e+00" cType="1" res="1.0180242497881409e-05" rms="3.5266479849815369e-01" purity="8.6002838611602783e-01" nType="-99"/>
          <Node pos="r" depth="2" NCoef="0" IVar="-1" Cut="0.0000000000000000e+00" cType="1" res="2.0231942180544138e-03" rms="4.4724911451339722e-01" purity="6.1382758617401123e-01" nType="-99"/>
        </Node>
      </Node>
    </BinaryTree>
    <BinaryTree type="DecisionTree" boostWeight="1.0000000000000000e+00" itree="99">
      <Node pos="s" depth="0" NCoef="0" IVar="5" Cut="2.6177623437500000e+05" cType="1" res="5.2999818325042725e-01" rms="4.9946653842926025e-01" purity="5.3052461147308350e-01" nType="0">
        <Node pos="l" depth="1" NCoef="0" IVar="4" Cut="5.1746917968750000e+04" cType="1" res="1.6857783496379852e-01" rms="3.7437862157821655e-01" purity="1.6857783496379852e-01" nType="0">
          <Node pos="l" depth="2" NCoef="0" IVar="-1" Cut="0.0000000000000000e+00" cType="1" res="-5.2216122858226299e-03" rms="3.1747588515281677e-01" purity="1.2608212232589722e-01" nType="-99"/>
          <Node pos="r" depth="2" NCoef="0" IVar="-1" Cut="0.0000000000000000e+00" cType="1" res="1.5084806364029646e-03" rms="4.7432339191436768e-01" purity="6.4190548658370972e-01" nType="-99"/>
        </Node>
        <Node pos="r" depth="1" NCoef="0" IVar="5" Cut="2.8544568750000000e+05" cType="1" res="7.8274983167648315e-01" rms="4.1312912106513977e-01" purity="7.8364437818527222e-01" nType="0">
          <Node pos="l" depth="2" NCoef="0" IVar="-1" Cut="0.0000000000000000e+00" cType="1" res="1.1936119335587136e-05" rms="3.1628876924514771e-01" purity="9.0525752305984497e-01" nType="-99"/>
          <Node pos="r" depth="2" NCoef="0" IVar="-1" Cut="0.0000000000000000e+00" cType="1" res="1.7785675590857863e-03" rms="4.1516754031181335e-01" purity="6.6751253604888916e-01" nType="-99"/>
        </Node>
      </Node>
    </BinaryTree>
    <BinaryTree type="DecisionTree" boostWeight="1.0000000000000000e+00" itree="100">
      <Node pos="s" depth="0" NCoef="0" IVar="5" Cut="2.6316584375000000e+05" cType="1" res="4.7216889262199402e-01" rms="4.9922484159469604e-01" purity="4.7216889262199402e-01" nType="0">
        <Node pos="l" depth="1" NCoef="0" IVar="4" Cut="5.1264660156250000e+04" cType="1" res="1.8191508948802948e-01" rms="3.8577452301979065e-01" purity="1.8191508948802948e-01" nType="0">
          <Node pos="l" depth="2" NCoef="0" IVar="-1" Cut="0.0000000000000000e+00" cType="1" res="-5.0316518172621727e-03" rms="3.1677868962287903e-01" purity="1.2998163700103760e-01" nType="-99"/>
          <Node pos="r" depth="2" NCoef="0" IVar="-1" Cut="0.0000000000000000e+00" cType="1" res="1.6709443880245090e-03" rms="4.6027523279190063e-01" purity="6.8514961004257202e-01" nType="-99"/>
        </Node>
        <Node pos="r" depth="1" NCoef="0" IVar="5" Cut="2.8682996875000000e+05" cType="1" res="7.3173105716705322e-01" rms="4.4305837154388428e-01" purity="7.3173105716705322e-01" nType="0">
          <Node pos="l" depth="2" NCoef="0" IVar="-1" Cut="0.0000000000000000e+00" cType="1" res="1.2000420611002482e-05" rms="3.8845071196556091e-01" purity="8.4483230113983154e-01" nType="-99"/>
          <Node pos="r" depth="2" NCoef="0" IVar="-1" Cut="0.0000000000000000e+00" cType="1" res="2.9321962501853704e-03" rms="4.1183611750602722e-01" purity="6.7106658220291138e-01" nType="-99"/>
        </Node>
      </Node>
    </BinaryTree>
    <BinaryTree type="DecisionTree" boostWeight="1.0000000000000000e+00" itree="101">
      <Node pos="s" depth="0" NCoef="0" IVar="2" Cut="8.9699531250000000e+04" cType="1" res="4.4129860401153564e-01" rms="4.9675747752189636e-01" purity="4.4160705804824829e-01" nType="0">
        <Node pos="l" depth="1" NCoef="0" IVar="2" Cut="8.9465335937500000e+04" cType="1" res="5.9746319055557251e-01" rms="4.9040892720222473e-01" purity="5.9746319055557251e-01" nType="0">
          <Node pos="l" depth="2" NCoef="0" IVar="-1" Cut="0.0000000000000000e+00" cType="1" res="9.6911290893331170e-04" rms="3.9360195398330688e-01" purity="3.7467470765113831e-01" nType="-99"/>
          <Node pos="r" depth="2" NCoef="0" IVar="-1" Cut="0.0000000000000000e+00" cType="1" res="1.3418733942671679e-05" rms="3.1140506267547607e-01" purity="8.6404144763946533e-01" nType="-99"/>
        </Node>
        <Node pos="r" depth="1" NCoef="0" IVar="5" Cut="3.7570146875000000e+05" cType="1" res="3.7480026483535767e-01" rms="4.8440393805503845e-01" purity="3.7532868981361389e-01" nType="0">
          <Node pos="l" depth="2" NCoef="0" IVar="-1" Cut="0.0000000000000000e+00" cType="1" res="-2.0791040733456612e-03" rms="3.6453387141227722e-01" purity="2.3477639257907867e-01" nType="-99"/>
          <Node pos="r" depth="2" NCoef="0" IVar="-1" Cut="0.0000000000000000e+00" cType="1" res="4.0865899063646793e-03" rms="3.7928843498229980e-01" purity="7.6332443952560425e-01" nType="-99"/>
        </Node>
      </Node>
    </BinaryTree>
    <BinaryTree type="DecisionTree" boostWeight="1.0000000000000000e+00" itree="102">
      <Node pos="s" depth="0" NCoef="0" IVar="2" Cut="8.9655289062500000e+04" cType="1" res="0.0000000000000000e+00" rms="0.0000000000000000e+00" purity="5.2703267335891724e-01" nType="0">
        <Node pos="l" depth="1" NCoef="0" IVar="5" Cut="1.7530887500000000e+05" cType="1" res="7.3932862281799316e-01" rms="4.3900090456008911e-01" purity="7.3976188898086548e-01" nType="0">
          <Node pos="l" depth="2" NCoef="0" IVar="-1" Cut="0.0000000000000000e+00" cType="1" res="9.0055937107536010e-06" rms="2.4878992140293121e-01" purity="9.0230739116668701e-01" nType="-99"/>
          <Node pos="r" depth="2" NCoef="0" IVar="-1" Cut="0.0000000000000000e+00" cType="1" res="1.0897354222834110e-03" rms="4.0566068887710571e-01" purity="4.1924971342086792e-01" nType="-99"/>
        </Node>
        <Node pos="r" depth="1" NCoef="0" IVar="5" Cut="3.7645500000000000e+05" cType="1" res="0.0000000000000000e+00" rms="1.9330724119368715e+22" purity="3.9264047145843506e-01" nType="0">
          <Node pos="l" depth="2" NCoef="0" IVar="-1" Cut="0.0000000000000000e+00" cType="1" res="-1.0920974891632795e-03" rms="3.7768200039863586e-01" purity="2.5379216670989990e-01" nType="-99"/>
          <Node pos="r" depth="2" NCoef="0" IVar="-1" Cut="0.0000000000000000e+00" cType="1" res="4.1172048076987267e-03" rms="3.7693122029304504e-01" purity="7.7385073900222778e-01" nType="-99"/>
        </Node>
      </Node>
    </BinaryTree>
    <BinaryTree type="DecisionTree" boostWeight="1.0000000000000000e+00" itree="103">
      <Node pos="s" depth="0" NCoef="0" IVar="2" Cut="8.9656421875000000e+04" cType="1" res="4.4221830368041992e-01" rms="4.9671030044555664e-01" purity="4.4237357378005981e-01" nType="0">
        <Node pos="l" depth="1" NCoef="0" IVar="2" Cut="8.9419570312500000e+04" cType="1" res="inf" rms="0.0000000000000000e+00" purity="5.9839040040969849e-01" nType="0">
          <Node pos="l" depth="2" NCoef="0" IVar="-1" Cut="0.0000000000000000e+00" cType="1" res="1.0792976245284081e-03" rms="3.9328005909919739e-01" purity="3.8017308712005615e-01" nType="-99"/>
          <Node pos="r" depth="2" NCoef="0" IVar="-1" Cut="0.0000000000000000e+00" cType="1" res="1.2994309145142324e-05" rms="3.0941733717918396e-01" purity="8.6723250150680542e-01" nType="-99"/>
        </Node>
        <Node pos="r" depth="1" NCoef="0" IVar="0" Cut="2.0000000000000000e+00" cType="1" res="2.6483545079827309e-02" rms="3.8495853543281555e-01" purity="3.7908187508583069e-01" nType="0">
          <Node pos="l" depth="2" NCoef="0" IVar="-1" Cut="0.0000000000000000e+00" cType="1" res="-1.6943742521107197e-03" rms="3.6840537190437317e-01" purity="2.2173346579074860e-01" nType="-99"/>
          <Node pos="r" depth="2" NCoef="0" IVar="-1" Cut="0.0000000000000000e+00" cType="1" res="4.8483978025615215e-03" rms="3.7371996045112610e-01" purity="8.3007925748825073e-01" nType="-99"/>
        </Node>
      </Node>
    </BinaryTree>
    <BinaryTree type="DecisionTree" boostWeight="1.0000000000000000e+00" itree="104">
      <Node pos="s" depth="0" NCoef="0" IVar="0" Cut="2.0000000000000000e+00" cType="1" res="3.1439166516065598e-02" rms="3.8715922832489014e-01" purity="3.8359835743904114e-01" nType="0">
        <Node pos="l" depth="1" NCoef="0" IVar="4" Cut="6.1094273437500000e+04" cType="1" res="2.2752672433853149e-01" rms="4.1923537850379944e-01" purity="2.2752672433853149e-01" nType="0">
          <Node pos="l" depth="2" NCoef="0" IVar="-1" Cut="0.0000000000000000e+00" cType="1" res="-4.2458144016563892e-03" rms="3.5499334335327148e-01" purity="1.6915923357009888e-01" nType="-99"/>
          <Node pos="r" depth="2" NCoef="0" IVar="-1" Cut="0.0000000000000000e+00" cType="1" res="2.3758076131343842e-03" rms="3.9404481649398804e-01" purity="8.0510014295578003e-01" nType="-99"/>
        </Node>
        <Node pos="r" depth="1" NCoef="0" IVar="5" Cut="4.4367518750000000e+05" cType="1" res="8.3223325014114380e-01" rms="3.7406387925148010e-01" purity="8.3253592252731323e-01" nType="0">
          <Node pos="l" depth="2" NCoef="0" IVar="-1" Cut="0.0000000000000000e+00" cType="1" res="2.6902533136308193e-03" rms="4.3465787172317505e-01" purity="7.4579209089279175e-01" nType="-99"/>
          <Node pos="r" depth="2" NCoef="0" IVar="-1" Cut="0.0000000000000000e+00" cType="1" res="5.0544305704534054e-03" rms="3.0834069848060608e-01" purity="8.9716076850891113e-01" nType="-99"/>
        </Node>
      </Node>
    </BinaryTree>
    <BinaryTree type="DecisionTree" boostWeight="1.0000000000000000e+00" itree="105">
      <Node pos="s" depth="0" NCoef="0" IVar="4" Cut="2.3692052734375000e+04" cType="1" res="4.5362511277198792e-01" rms="4.9811142683029175e-01" purity="4.5395672321319580e-01" nType="0">
        <Node pos="l" depth="1" NCoef="0" IVar="0" Cut="1.0000000000000000e+00" cType="1" res="-1.2860291637480259e-02" rms="3.1902706623077393e-01" purity="2.1443609893321991e-01" nType="0">
          <Node pos="l" depth="2" NCoef="0" IVar="-1" Cut="0.0000000000000000e+00" cType="1" res="-1.3400074094533920e-02" rms="2.1747748553752899e-01" purity="4.9144752323627472e-02" nType="-99"/>
          <Node pos="r" depth="2" NCoef="0" IVar="-1" Cut="0.0000000000000000e+00" cType="1" res="3.2979382667690516e-03" rms="4.0409415960311890e-01" purity="4.3211635947227478e-01" nType="-99"/>
        </Node>
        <Node pos="r" depth="1" NCoef="0" IVar="2" Cut="8.9600062500000000e+04" cType="1" res="6.6377007961273193e-01" rms="4.7268831729888916e-01" purity="6.6435337066650391e-01" nType="0">
          <Node pos="l" depth="2" NCoef="0" IVar="-1" Cut="0.0000000000000000e+00" cType="1" res="1.5103159057616722e-05" rms="4.0404883027076721e-01" purity="8.1583386659622192e-01" nType="-99"/>
          <Node pos="r" depth="2" NCoef="0" IVar="-1" Cut="0.0000000000000000e+00" cType="1" res="1.0060231434181333e-03" rms="4.4579759240150452e-01" purity="5.8030021190643311e-01" nType="-99"/>
        </Node>
      </Node>
    </BinaryTree>
    <BinaryTree type="DecisionTree" boostWeight="1.0000000000000000e+00" itree="106">
      <Node pos="s" depth="0" NCoef="0" IVar="2" Cut="8.9600773437500000e+04" cType="1" res="5.2406299114227295e-01" rms="4.9949011206626892e-01" purity="5.2413237094879150e-01" nType="0">
        <Node pos="l" depth="1" NCoef="0" IVar="2" Cut="8.9247882812500000e+04" cType="1" res="7.5556218624114990e-01" rms="4.2979076504707336e-01" purity="7.5559425354003906e-01" nType="0">
          <Node pos="l" depth="2" NCoef="0" IVar="-1" Cut="0.0000000000000000e+00" cType="1" res="1.0802256874740124e-03" rms="3.9507013559341431e-01" purity="3.9829796552658081e-01" nType="-99"/>
          <Node pos="r" depth="2" NCoef="0" IVar="-1" Cut="0.0000000000000000e+00" cType="1" res="9.2714562924811617e-06" rms="2.4599473178386688e-01" purity="9.2390018701553345e-01" nType="-99"/>
        </Node>
        <Node pos="r" depth="1" NCoef="0" IVar="5" Cut="3.7553265625000000e+05" cType="1" res="3.7803700566291809e-01" rms="4.8499271273612976e-01" purity="3.7812989950180054e-01" nType="0">
          <Node pos="l" depth="2" NCoef="0" IVar="-1" Cut="0.0000000000000000e+00" cType="1" res="-1.7013656906783581e-03" rms="3.6712849140167236e-01" purity="2.3672056198120117e-01" nType="-99"/>
          <Node pos="r" depth="2" NCoef="0" IVar="-1" Cut="0.0000000000000000e+00" cType="1" res="3.7459041923284531e-03" rms="3.7909495830535889e-01" purity="7.6483047008514404e-01" nType="-99"/>
        </Node>
      </Node>
    </BinaryTree>
    <BinaryTree type="DecisionTree" boostWeight="1.0000000000000000e+00" itree="107">
      <Node pos="s" depth="0" NCoef="0" IVar="0" Cut="2.0000000000000000e+00" cType="1" res="3.5987716168165207e-02" rms="3.8852232694625854e-01" purity="3.8849428296089172e-01" nType="0">
        <Node pos="l" depth="1" NCoef="0" IVar="4" Cut="6.2491187500000000e+04" cType="1" res="0.0000000000000000e+00" rms="0.0000000000000000e+00" purity="2.3764601349830627e-01" nType="0">
          <Node pos="l" depth="2" NCoef="0" IVar="-1" Cut="0.0000000000000000e+00" cType="1" res="-3.0491063371300697e-03" rms="3.6061340570449829e-01" purity="1.7918838560581207e-01" nType="-99"/>
          <Node pos="r" depth="2" NCoef="0" IVar="-1" Cut="0.0000000000000000e+00" cType="1" res="2.0408185664564371e-03" rms="3.9402696490287781e-01" purity="8.0502921342849731e-01" nType="-99"/>
        </Node>
        <Node pos="r" depth="1" NCoef="0" IVar="5" Cut="5.3500137500000000e+05" cType="1" res="1.1221614748535558e-09" rms="3.6683844815106867e+17" purity="8.3118736743927002e-01" nType="0">
          <Node pos="l" depth="2" NCoef="0" IVar="-1" Cut="0.0000000000000000e+00" cType="1" res="2.9480964876711369e-03" rms="4.1890400648117065e-01" purity="7.6957648992538452e-01" nType="-99"/>
          <Node pos="r" depth="2" NCoef="0" IVar="-1" Cut="0.0000000000000000e+00" cType="1" res="4.8648687079548836e-03" rms="2.8566032648086548e-01" purity="9.1400212049484253e-01" nType="-99"/>
        </Node>
      </Node>
    </BinaryTree>
    <BinaryTree type="DecisionTree" boostWeight="1.0000000000000000e+00" itree="108">
      <Node pos="s" depth="0" NCoef="0" IVar="5" Cut="1.6133364062500000e+05" cType="1" res="4.7816926240921021e-01" rms="4.9952319264411926e-01" purity="4.7816929221153259e-01" nType="0">
        <Node pos="l" depth="1" NCoef="0" IVar="-1" Cut="0.0000000000000000e+00" cType="1" res="7.5038251452497207e-06" rms="3.6043807864189148e-01" purity="7.5825172662734985e-01" nType="-99"/>
        <Node pos="r" depth="1" NCoef="0" IVar="0" Cut="2.0000000000000000e+00" cType="1" res="3.8985654711723328e-02" rms="3.8928604125976562e-01" purity="4.0121522545814514e-01" nType="0">
          <Node pos="l" depth="2" NCoef="0" IVar="-1" Cut="0.0000000000000000e+00" cType="1" res="-9.0978096704930067e-04" rms="3.7558695673942566e-01" purity="2.4062533676624298e-01" nType="-99"/>
          <Node pos="r" depth="2" NCoef="0" IVar="-1" Cut="0.0000000000000000e+00" cType="1" res="3.7036051508039236e-03" rms="3.7763941287994385e-01" purity="8.2617270946502686e-01" nType="-99"/>
        </Node>
      </Node>
    </BinaryTree>
    <BinaryTree type="DecisionTree" boostWeight="1.0000000000000000e+00" itree="109">
      <Node pos="s" depth="0" NCoef="0" IVar="4" Cut="5.2310660156250000e+04" cType="1" res="3.8908028602600098e-01" rms="4.8754161596298218e-01" purity="3.8908028602600098e-01" nType="0">
        <Node pos="l" depth="1" NCoef="0" IVar="0" Cut="2.0000000000000000e+00" cType="1" res="-7.9334517940878868e-03" rms="3.7493652105331421e-01" purity="3.0176213383674622e-01" nType="0">
          <Node pos="l" depth="2" NCoef="0" IVar="-1" Cut="0.0000000000000000e+00" cType="1" res="-3.5580813419073820e-03" rms="3.5275188088417053e-01" purity="1.6448731720447540e-01" nType="-99"/>
          <Node pos="r" depth="2" NCoef="0" IVar="-1" Cut="0.0000000000000000e+00" cType="1" res="4.2326156981289387e-03" rms="4.0266239643096924e-01" purity="7.9313176870346069e-01" nType="-99"/>
        </Node>
        <Node pos="r" depth="1" NCoef="0" IVar="4" Cut="8.0186960937500000e+04" cType="1" res="8.1834876537322998e-01" rms="3.8555681705474854e-01" purity="8.1834876537322998e-01" nType="0">
          <Node pos="l" depth="2" NCoef="0" IVar="-1" Cut="0.0000000000000000e+00" cType="1" res="2.8507381211966276e-03" rms="4.2792937159538269e-01" purity="7.3467713594436646e-01" nType="-99"/>
          <Node pos="r" depth="2" NCoef="0" IVar="-1" Cut="0.0000000000000000e+00" cType="1" res="2.4771622847765684e-03" rms="2.8243929147720337e-01" purity="9.1057598590850830e-01" nType="-99"/>
        </Node>
      </Node>
    </BinaryTree>
    <BinaryTree type="DecisionTree" boostWeight="1.0000000000000000e+00" itree="110">
      <Node pos="s" depth="0" NCoef="0" IVar="2" Cut="8.9656421875000000e+04" cType="1" res="5.2824795246124268e-01" rms="4.9936440587043762e-01" purity="5.2865284681320190e-01" nType="0">
        <Node pos="l" depth="1" NCoef="0" IVar="2" Cut="8.9241890625000000e+04" cType="1" res="7.4738496541976929e-01" rms="4.3451201915740967e-01" purity="7.4738496541976929e-01" nType="0">
          <Node pos="l" depth="2" NCoef="0" IVar="-1" Cut="0.0000000000000000e+00" cType="1" res="8.0651359166949987e-04" rms="3.8092285394668579e-01" purity="3.6811375617980957e-01" nType="-99"/>
          <Node pos="r" depth="2" NCoef="0" IVar="-1" Cut="0.0000000000000000e+00" cType="1" res="9.4460765467374586e-06" rms="2.6792573928833008e-01" purity="9.0891581773757935e-01" nType="-99"/>
        </Node>
        <Node pos="r" depth="1" NCoef="0" IVar="5" Cut="3.7553265625000000e+05" cType="1" res="3.9009499549865723e-01" rms="4.8807993531227112e-01" purity="3.9079090952873230e-01" nType="0">
          <Node pos="l" depth="2" NCoef="0" IVar="-1" Cut="0.0000000000000000e+00" cType="1" res="-1.3118491042405367e-03" rms="3.6932489275932312e-01" purity="2.4511693418025970e-01" nType="-99"/>
          <Node pos="r" depth="2" NCoef="0" IVar="-1" Cut="0.0000000000000000e+00" cType="1" res="3.6461164709180593e-03" rms="3.7179961800575256e-01" purity="7.7863013744354248e-01" nType="-99"/>
        </Node>
      </Node>
    </BinaryTree>
    <BinaryTree type="DecisionTree" boostWeight="1.0000000000000000e+00" itree="111">
      <Node pos="s" depth="0" NCoef="0" IVar="0" Cut="2.0000000000000000e+00" cType="1" res="3.8807302713394165e-02" rms="3.8626283407211304e-01" purity="3.9464285969734192e-01" nType="0">
        <Node pos="l" depth="1" NCoef="0" IVar="4" Cut="6.2516804687500000e+04" cType="1" res="2.3589546978473663e-01" rms="4.2455717921257019e-01" purity="2.3589546978473663e-01" nType="0">
          <Node pos="l" depth="2" NCoef="0" IVar="-1" Cut="0.0000000000000000e+00" cType="1" res="-2.8864750638604164e-03" rms="3.5893312096595764e-01" purity="1.7799291014671326e-01" nType="-99"/>
          <Node pos="r" depth="2" NCoef="0" IVar="-1" Cut="0.0000000000000000e+00" cType="1" res="2.3313073907047510e-03" rms="3.8871610164642334e-01" purity="8.1276410818099976e-01" nType="-99"/>
        </Node>
        <Node pos="r" depth="1" NCoef="0" IVar="0" Cut="3.0000000000000000e+00" cType="1" res="2.0737488567829132e-01" rms="3.6986333131790161e-01" purity="8.3586263656616211e-01" nType="0">
          <Node pos="l" depth="2" NCoef="0" IVar="-1" Cut="0.0000000000000000e+00" cType="1" res="2.5246727745980024e-03" rms="4.1797962784767151e-01" purity="7.7147263288497925e-01" nType="-99"/>
          <Node pos="r" depth="2" NCoef="0" IVar="-1" Cut="0.0000000000000000e+00" cType="1" res="1.7933506751433015e-03" rms="2.9768124222755432e-01" purity="9.0407288074493408e-01" nType="-99"/>
        </Node>
      </Node>
    </BinaryTree>
    <BinaryTree type="DecisionTree" boostWeight="1.0000000000000000e+00" itree="112">
      <Node pos="s" depth="0" NCoef="0" IVar="2" Cut="8.9777640625000000e+04" cType="1" res="4.5457676053047180e-01" rms="4.9821084737777710e-01" purity="4.5501542091369629e-01" nType="0">
        <Node pos="l" depth="1" NCoef="0" IVar="2" Cut="8.9539109375000000e+04" cType="1" res="6.1404269933700562e-01" rms="4.8704436421394348e-01" purity="6.1426061391830444e-01" nType="0">
          <Node pos="l" depth="2" NCoef="0" IVar="-1" Cut="0.0000000000000000e+00" cType="1" res="1.0758779244497418e-03" rms="3.9446428418159485e-01" purity="3.8531494140625000e-01" nType="-99"/>
          <Node pos="r" depth="2" NCoef="0" IVar="-1" Cut="0.0000000000000000e+00" cType="1" res="1.4649171134806238e-05" rms="3.0220362544059753e-01" purity="8.7618815898895264e-01" nType="-99"/>
        </Node>
        <Node pos="r" depth="1" NCoef="0" IVar="0" Cut="2.0000000000000000e+00" cType="1" res="3.0585916712880135e-02" rms="3.8516384363174438e-01" purity="3.8151869177818298e-01" nType="0">
          <Node pos="l" depth="2" NCoef="0" IVar="-1" Cut="0.0000000000000000e+00" cType="1" res="-1.1952618369832635e-03" rms="3.7217432260513306e-01" purity="2.2516936063766479e-01" nType="-99"/>
          <Node pos="r" depth="2" NCoef="0" IVar="-1" Cut="0.0000000000000000e+00" cType="1" res="4.2383070103824139e-03" rms="3.7234708666801453e-01" purity="8.3259350061416626e-01" nType="-99"/>
        </Node>
      </Node>
    </BinaryTree>
    <BinaryTree type="DecisionTree" boostWeight="1.0000000000000000e+00" itree="113">
      <Node pos="s" depth="0" NCoef="0" IVar="1" Cut="1.8991192187500000e+05" cType="1" res="4.4910526275634766e-01" rms="4.9740299582481384e-01" purity="4.4910523295402527e-01" nType="0">
        <Node pos="l" depth="1" NCoef="0" IVar="-1" Cut="0.0000000000000000e+00" cType="1" res="1.2665033864323050e-05" rms="3.8685524463653564e-01" purity="7.2978407144546509e-01" nType="-99"/>
        <Node pos="r" depth="1" NCoef="0" IVar="4" Cut="5.0480183593750000e+04" cType="1" res="3.9827570319175720e-01" rms="4.8954281210899353e-01" purity="3.9827570319175720e-01" nType="0">
          <Node pos="l" depth="2" NCoef="0" IVar="-1" Cut="0.0000000000000000e+00" cType="1" res="-4.1316411807201803e-04" rms="3.7143179774284363e-01" purity="3.0662462115287781e-01" nType="-99"/>
          <Node pos="r" depth="2" NCoef="0" IVar="-1" Cut="0.0000000000000000e+00" cType="1" res="2.6361704804003239e-03" rms="3.7499105930328369e-01" purity="8.1428152322769165e-01" nType="-99"/>
        </Node>
      </Node>
    </BinaryTree>
    <BinaryTree type="DecisionTree" boostWeight="1.0000000000000000e+00" itree="114">
      <Node pos="s" depth="0" NCoef="0" IVar="4" Cut="1.8374689453125000e+04" cType="1" res="5.1565414667129517e-01" rms="4.9987012147903442e-01" purity="5.1576936244964600e-01" nType="0">
        <Node pos="l" depth="1" NCoef="0" IVar="0" Cut="1.0000000000000000e+00" cType="1" res="-4.7066430561244488e-03" rms="3.0475541949272156e-01" purity="1.9684895873069763e-01" nType="0">
          <Node pos="l" depth="2" NCoef="0" IVar="-1" Cut="0.0000000000000000e+00" cType="1" res="-1.0631327517330647e-02" rms="2.0282082259654999e-01" purity="4.3163053691387177e-02" nType="-99"/>
          <Node pos="r" depth="2" NCoef="0" IVar="-1" Cut="0.0000000000000000e+00" cType="1" res="3.5220147110521793e-03" rms="4.0108749270439148e-01" purity="4.2344921827316284e-01" nType="-99"/>
        </Node>
        <Node pos="r" depth="1" NCoef="0" IVar="3" Cut="8.9426554687500000e+04" cType="1" res="6.6835230588912964e-01" rms="4.7080516815185547e-01" purity="6.6835230588912964e-01" nType="0">
          <Node pos="l" depth="2" NCoef="0" IVar="-1" Cut="0.0000000000000000e+00" cType="1" res="1.4067351912672166e-05" rms="4.4556552171707153e-01" purity="7.5820428133010864e-01" nType="-99"/>
          <Node pos="r" depth="2" NCoef="0" IVar="-1" Cut="0.0000000000000000e+00" cType="1" res="1.1344946688041091e-03" rms="4.2962750792503357e-01" purity="5.0563049316406250e-01" nType="-99"/>
        </Node>
      </Node>
    </BinaryTree>
    <BinaryTree type="DecisionTree" boostWeight="1.0000000000000000e+00" itree="115">
      <Node pos="s" depth="0" NCoef="0" IVar="0" Cut="1.0000000000000000e+00" cType="1" res="3.8457315415143967e-02" rms="3.8653805851936340e-01" purity="3.9281198382377625e-01" nType="0">
        <Node pos="l" depth="1" NCoef="0" IVar="4" Cut="4.6396851562500000e+04" cType="1" res="1.4649258553981781e-01" rms="3.5359936952590942e-01" purity="1.4649258553981781e-01" nType="0">
          <Node pos="l" depth="2" NCoef="0" IVar="-1" Cut="0.0000000000000000e+00" cType="1" res="-9.3232877552509308e-03" rms="2.7914407849311829e-01" purity="8.4463216364383698e-02" nType="-99"/>
          <Node pos="r" depth="2" NCoef="0" IVar="-1" Cut="0.0000000000000000e+00" cType="1" res="1.6236387891694903e-03" rms="4.6328309178352356e-01" purity="6.4255762100219727e-01" nType="-99"/>
        </Node>
        <Node pos="r" depth="1" NCoef="0" IVar="5" Cut="3.9611650000000000e+05" cType="1" res="6.0182929039001465e-01" rms="4.8952099680900574e-01" purity="6.0182929039001465e-01" nType="0">
          <Node pos="l" depth="2" NCoef="0" IVar="-1" Cut="0.0000000000000000e+00" cType="1" res="1.5090961242094636e-03" rms="4.4305190443992615e-01" purity="4.4421827793121338e-01" nType="-99"/>
          <Node pos="r" depth="2" NCoef="0" IVar="-1" Cut="0.0000000000000000e+00" cType="1" res="4.0518692694604397e-03" rms="3.5672166943550110e-01" purity="8.2345515489578247e-01" nType="-99"/>
        </Node>
      </Node>
    </BinaryTree>
    <BinaryTree type="DecisionTree" boostWeight="1.0000000000000000e+00" itree="116">
      <Node pos="s" depth="0" NCoef="0" IVar="4" Cut="1.8593867187500000e+04" cType="1" res="6.2315368652343750e-01" rms="4.8497134447097778e-01" purity="6.2351769208908081e-01" nType="0">
        <Node pos="l" depth="1" NCoef="0" IVar="0" Cut="1.0000000000000000e+00" cType="1" res="-9.2688957229256630e-03" rms="2.9666903614997864e-01" purity="1.9211803376674652e-01" nType="0">
          <Node pos="l" depth="2" NCoef="0" IVar="-1" Cut="0.0000000000000000e+00" cType="1" res="-1.2149433605372906e-02" rms="1.8751995265483856e-01" purity="3.6363016813993454e-02" nType="-99"/>
          <Node pos="r" depth="2" NCoef="0" IVar="-1" Cut="0.0000000000000000e+00" cType="1" res="3.5002443473786116e-03" rms="3.9508661627769470e-01" purity="4.1540849208831787e-01" nType="-99"/>
        </Node>
        <Node pos="r" depth="1" NCoef="0" IVar="4" Cut="2.7589519531250000e+04" cType="1" res="7.6697725057601929e-01" rms="4.2319005727767944e-01" purity="7.6734393835067749e-01" nType="0">
          <Node pos="l" depth="2" NCoef="0" IVar="-1" Cut="0.0000000000000000e+00" cType="1" res="9.5854056780808605e-06" rms="3.5917621850967407e-01" purity="8.4609788656234741e-01" nType="-99"/>
          <Node pos="r" depth="2" NCoef="0" IVar="-1" Cut="0.0000000000000000e+00" cType="1" res="1.6747796908020973e-03" rms="4.4274252653121948e-01" purity="6.0077977180480957e-01" nType="-99"/>
        </Node>
      </Node>
    </BinaryTree>
    <BinaryTree type="DecisionTree" boostWeight="1.0000000000000000e+00" itree="117">
      <Node pos="s" depth="0" NCoef="0" IVar="3" Cut="9.5950953125000000e+04" cType="1" res="5.4969292879104614e-01" rms="4.9776557087898254e-01" purity="5.5007684230804443e-01" nType="0">
        <Node pos="l" depth="1" NCoef="0" IVar="0" Cut="2.0000000000000000e+00" cType="1" res="2.7518101036548615e-02" rms="3.8051742315292358e-01" purity="3.7714129686355591e-01" nType="0">
          <Node pos="l" depth="2" NCoef="0" IVar="-1" Cut="0.0000000000000000e+00" cType="1" res="-1.3510562712326646e-03" rms="3.6497247219085693e-01" purity="2.1701073646545410e-01" nType="-99"/>
          <Node pos="r" depth="2" NCoef="0" IVar="-1" Cut="0.0000000000000000e+00" cType="1" res="4.3791118077933788e-03" rms="3.7283119559288025e-01" purity="8.3208537101745605e-01" nType="-99"/>
        </Node>
        <Node pos="r" depth="1" NCoef="0" IVar="2" Cut="8.9294859375000000e+04" cType="1" res="8.5606348514556885e-01" rms="3.5102537274360657e-01" purity="8.5606342554092407e-01" nType="0">
          <Node pos="l" depth="2" NCoef="0" IVar="-1" Cut="0.0000000000000000e+00" cType="1" res="8.1743828559410758e-06" rms="2.0569364726543427e-01" purity="9.5102292299270630e-01" nType="-99"/>
          <Node pos="r" depth="2" NCoef="0" IVar="-1" Cut="0.0000000000000000e+00" cType="1" res="1.3966498663648963e-03" rms="3.9349725842475891e-01" purity="4.0605664253234863e-01" nType="-99"/>
        </Node>
      </Node>
    </BinaryTree>
    <BinaryTree type="DecisionTree" boostWeight="1.0000000000000000e+00" itree="118">
      <Node pos="s" depth="0" NCoef="0" IVar="4" Cut="1.7767003906250000e+04" cType="1" res="5.7508748769760132e-01" rms="4.9446111917495728e-01" purity="5.7521742582321167e-01" nType="0">
        <Node pos="l" depth="1" NCoef="0" IVar="0" Cut="1.0000000000000000e+00" cType="1" res="-1.0360256768763065e-02" rms="2.8963291645050049e-01" purity="1.8738582730293274e-01" nType="0">
          <Node pos="l" depth="2" NCoef="0" IVar="-1" Cut="0.0000000000000000e+00" cType="1" res="-1.1817055754363537e-02" rms="1.8622803688049316e-01" purity="3.5893164575099945e-02" nType="-99"/>
          <Node pos="r" depth="2" NCoef="0" IVar="-1" Cut="0.0000000000000000e+00" cType="1" res="2.8704933356493711e-03" rms="3.8806965947151184e-01" purity="4.1303253173828125e-01" nType="-99"/>
        </Node>
        <Node pos="r" depth="1" NCoef="0" IVar="4" Cut="2.9330328125000000e+04" cType="1" res="7.1866506338119507e-01" rms="4.4984844326972961e-01" purity="7.1884310245513916e-01" nType="0">
          <Node pos="l" depth="2" NCoef="0" IVar="-1" Cut="0.0000000000000000e+00" cType="1" res="1.0197916708420962e-05" rms="4.2042493820190430e-01" purity="7.6948696374893188e-01" nType="-99"/>
          <Node pos="r" depth="2" NCoef="0" IVar="-1" Cut="0.0000000000000000e+00" cType="1" res="1.2737988727167249e-03" rms="4.3865093588829041e-01" purity="6.2287801504135132e-01" nType="-99"/>
        </Node>
      </Node>
    </BinaryTree>
    <BinaryTree type="DecisionTree" boostWeight="1.0000000000000000e+00" itree="119">
      <Node pos="s" depth="0" NCoef="0" IVar="5" Cut="2.5481443750000000e+05" cType="1" res="4.7252392768859863e-01" rms="4.9931704998016357e-01" purity="4.7259640693664551e-01" nType="0">
        <Node pos="l" depth="1" NCoef="0" IVar="4" Cut="5.0718929687500000e+04" cType="1" res="1.7425528168678284e-01" rms="3.7932884693145752e-01" purity="1.7425528168678284e-01" nType="0">
          <Node pos="l" depth="2" NCoef="0" IVar="-1" Cut="0.0000000000000000e+00" cType="1" res="-3.9838524535298347e-03" rms="3.1315594911575317e-01" purity="1.2528365850448608e-01" nType="-99"/>
          <Node pos="r" depth="2" NCoef="0" IVar="-1" Cut="0.0000000000000000e+00" cType="1" res="1.7040639650076628e-03" rms="4.5987939834594727e-01" purity="6.7681729793548584e-01" nType="-99"/>
        </Node>
        <Node pos="r" depth="1" NCoef="0" IVar="5" Cut="2.7730368750000000e+05" cType="1" res="7.1768581867218018e-01" rms="4.5027202367782593e-01" purity="7.1781784296035767e-01" nType="0">
          <Node pos="l" depth="2" NCoef="0" IVar="-1" Cut="0.0000000000000000e+00" cType="1" res="1.3021706763538532e-05" rms="4.0105816721916199e-01" purity="8.2855427265167236e-01" nType="-99"/>
          <Node pos="r" depth="2" NCoef="0" IVar="-1" Cut="0.0000000000000000e+00" cType="1" res="2.8008271474391222e-03" rms="4.1390275955200195e-01" purity="6.5893000364303589e-01" nType="-99"/>
        </Node>
      </Node>
    </BinaryTree>
    <BinaryTree type="DecisionTree" boostWeight="1.0000000000000000e+00" itree="120">
      <Node pos="s" depth="0" NCoef="0" IVar="4" Cut="1.8579189453125000e+04" cType="1" res="5.7730686664581299e-01" rms="4.9398750066757202e-01" purity="5.7730686664581299e-01" nType="0">
        <Node pos="l" depth="1" NCoef="0" IVar="5" Cut="2.5717417187500000e+05" cType="1" res="1.8423125147819519e-01" rms="3.8767266273498535e-01" purity="1.8441851437091827e-01" nType="0">
          <Node pos="l" depth="2" NCoef="0" IVar="-1" Cut="0.0000000000000000e+00" cType="1" res="-1.1047980748116970e-02" rms="2.1341843903064728e-01" purity="5.1177348941564560e-02" nType="-99"/>
          <Node pos="r" depth="2" NCoef="0" IVar="-1" Cut="0.0000000000000000e+00" cType="1" res="1.9958007615059614e-03" rms="3.9797395467758179e-01" purity="4.4235843420028687e-01" nType="-99"/>
        </Node>
        <Node pos="r" depth="1" NCoef="0" IVar="4" Cut="2.7574259765625000e+04" cType="1" res="7.3076140880584717e-01" rms="4.4356417655944824e-01" purity="7.3076140880584717e-01" nType="0">
          <Node pos="l" depth="2" NCoef="0" IVar="-1" Cut="0.0000000000000000e+00" cType="1" res="1.0266558092553169e-05" rms="3.9802128076553345e-01" purity="8.0206614732742310e-01" nType="-99"/>
          <Node pos="r" depth="2" NCoef="0" IVar="-1" Cut="0.0000000000000000e+00" cType="1" res="1.7100775148719549e-03" rms="4.3685927987098694e-01" purity="6.1530882120132446e-01" nType="-99"/>
        </Node>
      </Node>
    </BinaryTree>
    <BinaryTree type="DecisionTree" boostWeight="1.0000000000000000e+00" itree="121">
      <Node pos="s" depth="0" NCoef="0" IVar="5" Cut="2.5844129687500000e+05" cType="1" res="4.6981787681579590e-01" rms="4.9908819794654846e-01" purity="4.6981787681579590e-01" nType="0">
        <Node pos="l" depth="1" NCoef="0" IVar="4" Cut="5.1760183593750000e+04" cType="1" res="1.6516640782356262e-01" rms="3.7133067846298218e-01" purity="1.6516642272472382e-01" nType="0">
          <Node pos="l" depth="2" NCoef="0" IVar="-1" Cut="0.0000000000000000e+00" cType="1" res="-5.2227419801056385e-03" rms="3.0572366714477539e-01" purity="1.1952315270900726e-01" nType="-99"/>
          <Node pos="r" depth="2" NCoef="0" IVar="-1" Cut="0.0000000000000000e+00" cType="1" res="1.8839096883311868e-03" rms="4.6026629209518433e-01" purity="6.7709124088287354e-01" nType="-99"/>
        </Node>
        <Node pos="r" depth="1" NCoef="0" IVar="5" Cut="2.9123709375000000e+05" cType="1" res="7.2515428066253662e-01" rms="4.4643649458885193e-01" purity="7.2515428066253662e-01" nType="0">
          <Node pos="l" depth="2" NCoef="0" IVar="-1" Cut="0.0000000000000000e+00" cType="1" res="1.2819922631024383e-05" rms="4.3940052390098572e-01" purity="7.8916627168655396e-01" nType="-99"/>
          <Node pos="r" depth="2" NCoef="0" IVar="-1" Cut="0.0000000000000000e+00" cType="1" res="1.6302275471389294e-03" rms="4.0476071834564209e-01" purity="6.8652021884918213e-01" nType="-99"/>
        </Node>
      </Node>
    </BinaryTree>
    <BinaryTree type="DecisionTree" boostWeight="1.0000000000000000e+00" itree="122">
      <Node pos="s" depth="0" NCoef="0" IVar="4" Cut="4.5868503906250000e+04" cType="1" res="3.9019981026649475e-01" rms="4.8800039291381836e-01" purity="3.9047765731811523e-01" nType="0">
        <Node pos="l" depth="1" NCoef="0" IVar="0" Cut="1.0000000000000000e+00" cType="1" res="-1.2817454524338245e-02" rms="3.6391964554786682e-01" purity="2.8550726175308228e-01" nType="0">
          <Node pos="l" depth="2" NCoef="0" IVar="-1" Cut="0.0000000000000000e+00" cType="1" res="-1.0244659148156643e-02" rms="2.6680764555931091e-01" purity="7.7383399009704590e-02" nType="-99"/>
          <Node pos="r" depth="2" NCoef="0" IVar="-1" Cut="0.0000000000000000e+00" cType="1" res="2.4620029143989086e-03" rms="4.2677536606788635e-01" purity="5.0112551450729370e-01" nType="-99"/>
        </Node>
        <Node pos="r" depth="1" NCoef="0" IVar="4" Cut="7.9927671875000000e+04" cType="1" res="7.8226274251937866e-01" rms="4.1299226880073547e-01" purity="7.8318518400192261e-01" nType="0">
          <Node pos="l" depth="2" NCoef="0" IVar="-1" Cut="0.0000000000000000e+00" cType="1" res="2.4222920183092356e-03" rms="4.3381547927856445e-01" purity="7.0564037561416626e-01" nType="-99"/>
          <Node pos="r" depth="2" NCoef="0" IVar="-1" Cut="0.0000000000000000e+00" cType="1" res="2.6662703603506088e-03" rms="2.8361189365386963e-01" purity="9.1072678565979004e-01" nType="-99"/>
        </Node>
      </Node>
    </BinaryTree>
    <BinaryTree type="DecisionTree" boostWeight="1.0000000000000000e+00" itree="123">
      <Node pos="s" depth="0" NCoef="0" IVar="2" Cut="8.9656421875000000e+04" cType="1" res="5.8086425065994263e-01" rms="4.9341765046119690e-01" purity="5.8086425065994263e-01" nType="0">
        <Node pos="l" depth="1" NCoef="0" IVar="2" Cut="8.9241890625000000e+04" cType="1" res="8.1372624635696411e-01" rms="3.8932743668556213e-01" purity="8.1372624635696411e-01" nType="0">
          <Node pos="l" depth="2" NCoef="0" IVar="-1" Cut="0.0000000000000000e+00" cType="1" res="9.9859805777668953e-04" rms="3.9280980825424194e-01" purity="3.7000998854637146e-01" nType="-99"/>
          <Node pos="r" depth="2" NCoef="0" IVar="-1" Cut="0.0000000000000000e+00" cType="1" res="9.1716055976576172e-06" rms="2.2292657196521759e-01" purity="9.4054681062698364e-01" nType="-99"/>
        </Node>
        <Node pos="r" depth="1" NCoef="0" IVar="0" Cut="1.0000000000000000e+00" cType="1" res="2.3722939193248749e-02" rms="3.8016501069068909e-01" purity="3.7457463145256042e-01" nType="0">
          <Node pos="l" depth="2" NCoef="0" IVar="-1" Cut="0.0000000000000000e+00" cType="1" res="-4.6545360237360001e-03" rms="3.0150184035301208e-01" purity="1.3290570676326752e-01" nType="-99"/>
          <Node pos="r" depth="2" NCoef="0" IVar="-1" Cut="0.0000000000000000e+00" cType="1" res="2.8599759098142385e-03" rms="4.1852664947509766e-01" purity="5.8043181896209717e-01" nType="-99"/>
        </Node>
      </Node>
    </BinaryTree>
    <BinaryTree type="DecisionTree" boostWeight="1.0000000000000000e+00" itree="124">
      <Node pos="s" depth="0" NCoef="0" IVar="5" Cut="2.5502073437500000e+05" cType="1" res="4.6638801693916321e-01" rms="4.9944519996643066e-01" purity="4.6705430746078491e-01" nType="0">
        <Node pos="l" depth="1" NCoef="0" IVar="5" Cut="2.2461285937500000e+05" cType="1" res="1.5586559474468231e-01" rms="3.6272788047790527e-01" purity="1.5586559474468231e-01" nType="0">
          <Node pos="l" depth="2" NCoef="0" IVar="-1" Cut="0.0000000000000000e+00" cType="1" res="-6.5087587572634220e-03" rms="2.8821259737014771e-01" purity="1.0801244527101517e-01" nType="-99"/>
          <Node pos="r" depth="2" NCoef="0" IVar="-1" Cut="0.0000000000000000e+00" cType="1" res="1.4628523495048285e-03" rms="4.1993787884712219e-01" purity="3.2404974102973938e-01" nType="-99"/>
        </Node>
        <Node pos="r" depth="1" NCoef="0" IVar="5" Cut="2.7740990625000000e+05" cType="1" res="7.1804732084274292e-01" rms="4.5110628008842468e-01" purity="7.1925371885299683e-01" nType="0">
          <Node pos="l" depth="2" NCoef="0" IVar="-1" Cut="0.0000000000000000e+00" cType="1" res="1.3174082596378867e-05" rms="4.0384325385093689e-01" purity="8.2718813419342041e-01" nType="-99"/>
          <Node pos="r" depth="2" NCoef="0" IVar="-1" Cut="0.0000000000000000e+00" cType="1" res="2.9364307411015034e-03" rms="4.0772569179534912e-01" purity="6.6235077381134033e-01" nType="-99"/>
        </Node>
      </Node>
    </BinaryTree>
    <BinaryTree type="DecisionTree" boostWeight="1.0000000000000000e+00" itree="125">
      <Node pos="s" depth="0" NCoef="0" IVar="0" Cut="2.0000000000000000e+00" cType="1" res="3.6113571375608444e-02" rms="3.8411790132522583e-01" purity="3.8463002443313599e-01" nType="0">
        <Node pos="l" depth="1" NCoef="0" IVar="4" Cut="5.7101261718750000e+04" cType="1" res="2.3118758201599121e-01" rms="4.2159208655357361e-01" purity="2.3118758201599121e-01" nType="0">
          <Node pos="l" depth="2" NCoef="0" IVar="-1" Cut="0.0000000000000000e+00" cType="1" res="-2.8619512449949980e-03" rms="3.5761904716491699e-01" purity="1.7213946580886841e-01" nType="-99"/>
          <Node pos="r" depth="2" NCoef="0" IVar="-1" Cut="0.0000000000000000e+00" cType="1" res="2.3686669301241636e-03" rms="4.1612845659255981e-01" purity="7.7104687690734863e-01" nType="-99"/>
        </Node>
        <Node pos="r" depth="1" NCoef="0" IVar="4" Cut="2.2974734375000000e+04" cType="1" res="8.2800740003585815e-01" rms="3.7782403826713562e-01" purity="8.2834732532501221e-01" nType="0">
          <Node pos="l" depth="2" NCoef="0" IVar="-1" Cut="0.0000000000000000e+00" cType="1" res="2.6739554014056921e-03" rms="4.0897926688194275e-01" purity="7.7655911445617676e-01" nType="-99"/>
          <Node pos="r" depth="2" NCoef="0" IVar="-1" Cut="0.0000000000000000e+00" cType="1" res="1.8074352992698550e-03" rms="3.5116219520568848e-01" purity="8.5233497619628906e-01" nType="-99"/>
        </Node>
      </Node>
    </BinaryTree>
    <BinaryTree type="DecisionTree" boostWeight="1.0000000000000000e+00" itree="126">
      <Node pos="s" depth="0" NCoef="0" IVar="3" Cut="8.9426703125000000e+04" cType="1" res="5.2161484956741333e-01" rms="4.9953258037567139e-01" purity="5.2161484956741333e-01" nType="0">
        <Node pos="l" depth="1" NCoef="0" IVar="3" Cut="8.8493140625000000e+04" cType="1" res="6.1639589071273804e-01" rms="4.8626330494880676e-01" purity="6.1639589071273804e-01" nType="0">
          <Node pos="l" depth="2" NCoef="0" IVar="-1" Cut="0.0000000000000000e+00" cType="1" res="6.9217040436342359e-04" rms="3.7881004810333252e-01" purity="4.0156239271163940e-01" nType="-99"/>
          <Node pos="r" depth="2" NCoef="0" IVar="-1" Cut="0.0000000000000000e+00" cType="1" res="1.3622601727547590e-05" rms="3.6867433786392212e-01" purity="8.3319699764251709e-01" nType="-99"/>
        </Node>
        <Node pos="r" depth="1" NCoef="0" IVar="0" Cut="2.0000000000000000e+00" cType="1" res="3.3547818660736084e-02" rms="3.8204362988471985e-01" purity="3.8783508539199829e-01" nType="0">
          <Node pos="l" depth="2" NCoef="0" IVar="-1" Cut="0.0000000000000000e+00" cType="1" res="-8.6169468704611063e-04" rms="3.7164941430091858e-01" purity="2.2572527825832367e-01" nType="-99"/>
          <Node pos="r" depth="2" NCoef="0" IVar="-1" Cut="0.0000000000000000e+00" cType="1" res="3.4312771167606115e-03" rms="3.6931031942367554e-01" purity="8.3493411540985107e-01" nType="-99"/>
        </Node>
      </Node>
    </BinaryTree>
    <BinaryTree type="DecisionTree" boostWeight="1.0000000000000000e+00" itree="127">
      <Node pos="s" depth="0" NCoef="0" IVar="3" Cut="9.5950960937500000e+04" cType="1" res="4.7805589437484741e-01" rms="4.9951821565628052e-01" purity="4.7805589437484741e-01" nType="0">
        <Node pos="l" depth="1" NCoef="0" IVar="0" Cut="1.0000000000000000e+00" cType="1" res="2.7023907750844955e-02" rms="3.8103714585304260e-01" purity="3.7356230616569519e-01" nType="0">
          <Node pos="l" depth="2" NCoef="0" IVar="-1" Cut="0.0000000000000000e+00" cType="1" res="-5.3623938001692295e-03" rms="2.9852977395057678e-01" purity="1.2659867107868195e-01" nType="-99"/>
          <Node pos="r" depth="2" NCoef="0" IVar="-1" Cut="0.0000000000000000e+00" cType="1" res="2.8815267141908407e-03" rms="4.2121535539627075e-01" purity="5.8207923173904419e-01" nType="-99"/>
        </Node>
        <Node pos="r" depth="1" NCoef="0" IVar="3" Cut="9.6733289062500000e+04" cType="1" res="7.7181184291839600e-01" rms="4.1966453194618225e-01" purity="7.7181184291839600e-01" nType="0">
          <Node pos="l" depth="2" NCoef="0" IVar="-1" Cut="0.0000000000000000e+00" cType="1" res="8.4704133769264445e-06" rms="2.6384210586547852e-01" purity="9.1734391450881958e-01" nType="-99"/>
          <Node pos="r" depth="2" NCoef="0" IVar="-1" Cut="0.0000000000000000e+00" cType="1" res="1.0860043112188578e-03" rms="3.9264619350433350e-01" purity="4.2766913771629333e-01" nType="-99"/>
        </Node>
      </Node>
    </BinaryTree>
    <BinaryTree type="DecisionTree" boostWeight="1.0000000000000000e+00" itree="128">
      <Node pos="s" depth="0" NCoef="0" IVar="2" Cut="8.9625710937500000e+04" cType="1" res="5.1939868927001953e-01" rms="4.9962353706359863e-01" purity="5.1939868927001953e-01" nType="0">
        <Node pos="l" depth="1" NCoef="0" IVar="2" Cut="8.9274406250000000e+04" cType="1" res="7.4676537513732910e-01" rms="4.3486416339874268e-01" purity="7.4676537513732910e-01" nType="0">
          <Node pos="l" depth="2" NCoef="0" IVar="-1" Cut="0.0000000000000000e+00" cType="1" res="7.8621204011142254e-04" rms="3.7731754779815674e-01" purity="3.6697024106979370e-01" nType="-99"/>
          <Node pos="r" depth="2" NCoef="0" IVar="-1" Cut="0.0000000000000000e+00" cType="1" res="9.9343642432359047e-06" rms="2.5267580151557922e-01" purity="9.2102992534637451e-01" nType="-99"/>
        </Node>
        <Node pos="r" depth="1" NCoef="0" IVar="4" Cut="6.0221953125000000e+04" cType="1" res="3.7709030508995056e-01" rms="4.8512902855873108e-01" purity="3.7754723429679871e-01" nType="0">
          <Node pos="l" depth="2" NCoef="0" IVar="-1" Cut="0.0000000000000000e+00" cType="1" res="-5.7795412431005388e-05" rms="3.7648800015449524e-01" purity="3.1278952956199646e-01" nType="-99"/>
          <Node pos="r" depth="2" NCoef="0" IVar="-1" Cut="0.0000000000000000e+00" cType="1" res="2.7167818043380976e-03" rms="3.5341569781303406e-01" purity="8.4712034463882446e-01" nType="-99"/>
        </Node>
      </Node>
    </BinaryTree>
    <BinaryTree type="DecisionTree" boostWeight="1.0000000000000000e+00" itree="129">
      <Node pos="s" depth="0" NCoef="0" IVar="3" Cut="9.5950960937500000e+04" cType="1" res="4.8641452193260193e-01" rms="5.0022381544113159e-01" purity="4.8700544238090515e-01" nType="0">
        <Node pos="l" depth="1" NCoef="0" IVar="5" Cut="3.7728428125000000e+05" cType="1" res="3.8487666845321655e-01" rms="4.8686426877975464e-01" purity="3.8569316267967224e-01" nType="0">
          <Node pos="l" depth="2" NCoef="0" IVar="-1" Cut="0.0000000000000000e+00" cType="1" res="-1.2981476029381156e-03" rms="3.6096051335334778e-01" purity="2.4091345071792603e-01" nType="-99"/>
          <Node pos="r" depth="2" NCoef="0" IVar="-1" Cut="0.0000000000000000e+00" cType="1" res="3.5387389361858368e-03" rms="3.6748981475830078e-01" purity="7.8506946563720703e-01" nType="-99"/>
        </Node>
        <Node pos="r" depth="1" NCoef="0" IVar="2" Cut="8.9290359375000000e+04" cType="1" res="7.7377182245254517e-01" rms="4.1904872655868530e-01" purity="7.7432465553283691e-01" nType="0">
          <Node pos="l" depth="2" NCoef="0" IVar="-1" Cut="0.0000000000000000e+00" cType="1" res="8.7210519268410280e-06" rms="2.7363714575767517e-01" purity="9.1079699993133545e-01" nType="-99"/>
          <Node pos="r" depth="2" NCoef="0" IVar="-1" Cut="0.0000000000000000e+00" cType="1" res="1.0837462032213807e-03" rms="3.8728970289230347e-01" purity="4.1996064782142639e-01" nType="-99"/>
        </Node>
      </Node>
    </BinaryTree>
    <BinaryTree type="DecisionTree" boostWeight="1.0000000000000000e+00" itree="130">
      <Node pos="s" depth="0" NCoef="0" IVar="2" Cut="8.9692742187500000e+04" cType="1" res="0.0000000000000000e+00" rms="7.0310282707214355e-01" purity="4.9443939328193665e-01" nType="0">
        <Node pos="l" depth="1" NCoef="0" IVar="2" Cut="8.9456617187500000e+04" cType="1" res="6.9920217990875244e-01" rms="4.5860493183135986e-01" purity="6.9920217990875244e-01" nType="0">
          <Node pos="l" depth="2" NCoef="0" IVar="-1" Cut="0.0000000000000000e+00" cType="1" res="1.0493969311937690e-03" rms="3.8903093338012695e-01" purity="3.8877311348915100e-01" nType="-99"/>
          <Node pos="r" depth="2" NCoef="0" IVar="-1" Cut="0.0000000000000000e+00" cType="1" res="1.3954643691249657e-05" rms="2.5342142581939697e-01" purity="9.2038118839263916e-01" nType="-99"/>
        </Node>
        <Node pos="r" depth="1" NCoef="0" IVar="4" Cut="5.5609820312500000e+04" cType="1" res="3.8074785470962524e-01" rms="4.8582541942596436e-01" purity="3.8112857937812805e-01" nType="0">
          <Node pos="l" depth="2" NCoef="0" IVar="-1" Cut="0.0000000000000000e+00" cType="1" res="-1.8049233767669648e-04" rms="3.7084573507308960e-01" purity="3.0674251914024353e-01" nType="-99"/>
          <Node pos="r" depth="2" NCoef="0" IVar="-1" Cut="0.0000000000000000e+00" cType="1" res="2.7459554839879274e-03" rms="3.7119185924530029e-01" purity="8.2414305210113525e-01" nType="-99"/>
        </Node>
      </Node>
    </BinaryTree>
    <BinaryTree type="DecisionTree" boostWeight="1.0000000000000000e+00" itree="131">
      <Node pos="s" depth="0" NCoef="0" IVar="3" Cut="9.5950507812500000e+04" cType="1" res="6.0367310047149658e-01" rms="4.8913380503654480e-01" purity="6.0367310047149658e-01" nType="0">
        <Node pos="l" depth="1" NCoef="0" IVar="5" Cut="3.0925025000000000e+05" cType="1" res="3.7499457597732544e-01" rms="4.8412153124809265e-01" purity="3.7499457597732544e-01" nType="0">
          <Node pos="l" depth="2" NCoef="0" IVar="-1" Cut="0.0000000000000000e+00" cType="1" res="-2.2430946119129658e-03" rms="3.4528920054435730e-01" purity="1.9591613113880157e-01" nType="-99"/>
          <Node pos="r" depth="2" NCoef="0" IVar="-1" Cut="0.0000000000000000e+00" cType="1" res="2.7888275217264891e-03" rms="4.0169769525527954e-01" purity="7.0254629850387573e-01" nType="-99"/>
        </Node>
        <Node pos="r" depth="1" NCoef="0" IVar="2" Cut="8.9379406250000000e+04" cType="1" res="8.9339518547058105e-01" rms="3.0861017107963562e-01" purity="8.9339524507522583e-01" nType="0">
          <Node pos="l" depth="2" NCoef="0" IVar="-1" Cut="0.0000000000000000e+00" cType="1" res="8.5031133494339883e-06" rms="1.7810221016407013e-01" purity="9.6426868438720703e-01" nType="-99"/>
          <Node pos="r" depth="2" NCoef="0" IVar="-1" Cut="0.0000000000000000e+00" cType="1" res="8.7222328875213861e-04" rms="3.8567933440208435e-01" purity="3.9433997869491577e-01" nType="-99"/>
        </Node>
      </Node>
    </BinaryTree>
    <BinaryTree type="DecisionTree" boostWeight="1.0000000000000000e+00" itree="132">
      <Node pos="s" depth="0" NCoef="0" IVar="2" Cut="8.9629554687500000e+04" cType="1" res="5.9987080097198486e-01" rms="4.9009975790977478e-01" purity="6.0011130571365356e-01" nType="0">
        <Node pos="l" depth="1" NCoef="0" IVar="2" Cut="8.9278125000000000e+04" cType="1" res="8.3044636249542236e-01" rms="3.7524020671844482e-01" purity="8.3044630289077759e-01" nType="0">
          <Node pos="l" depth="2" NCoef="0" IVar="-1" Cut="0.0000000000000000e+00" cType="1" res="1.5231827273964882e-03" rms="3.9185518026351929e-01" purity="4.1029968857765198e-01" nType="-99"/>
          <Node pos="r" depth="2" NCoef="0" IVar="-1" Cut="0.0000000000000000e+00" cType="1" res="1.1314215953461826e-05" rms="2.0220008492469788e-01" purity="9.5277065038681030e-01" nType="-99"/>
        </Node>
        <Node pos="r" depth="1" NCoef="0" IVar="5" Cut="3.6231815625000000e+05" cType="1" res="3.8945090770721436e-01" rms="4.8796287178993225e-01" purity="3.8991096615791321e-01" nType="0">
          <Node pos="l" depth="2" NCoef="0" IVar="-1" Cut="0.0000000000000000e+00" cType="1" res="-1.1258481536060572e-03" rms="3.6408624053001404e-01" purity="2.3775629699230194e-01" nType="-99"/>
          <Node pos="r" depth="2" NCoef="0" IVar="-1" Cut="0.0000000000000000e+00" cType="1" res="1.6290170606225729e-03" rms="3.7938499450683594e-01" purity="7.5770258903503418e-01" nType="-99"/>
        </Node>
      </Node>
    </BinaryTree>
    <BinaryTree type="DecisionTree" boostWeight="1.0000000000000000e+00" itree="133">
      <Node pos="s" depth="0" NCoef="0" IVar="5" Cut="2.4458235937500000e+05" cType="1" res="4.6616595983505249e-01" rms="4.9885395169258118e-01" purity="4.6616595983505249e-01" nType="0">
        <Node pos="l" depth="1" NCoef="0" IVar="4" Cut="4.8773851562500000e+04" cType="1" res="1.4891625940799713e-01" rms="3.5600590705871582e-01" purity="1.4891625940799713e-01" nType="0">
          <Node pos="l" depth="2" NCoef="0" IVar="-1" Cut="0.0000000000000000e+00" cType="1" res="-4.9578770995140076e-03" rms="2.9827851057052612e-01" purity="1.1048974096775055e-01" nType="-99"/>
          <Node pos="r" depth="2" NCoef="0" IVar="-1" Cut="0.0000000000000000e+00" cType="1" res="1.2096174759790301e-03" rms="4.8722743988037109e-01" purity="5.8824497461318970e-01" nType="-99"/>
        </Node>
        <Node pos="r" depth="1" NCoef="0" IVar="5" Cut="2.6965993750000000e+05" cType="1" res="6.9584727287292480e-01" rms="4.6004763245582581e-01" purity="6.9584727287292480e-01" nType="0">
          <Node pos="l" depth="2" NCoef="0" IVar="-1" Cut="0.0000000000000000e+00" cType="1" res="1.3957112969364971e-05" rms="4.1666600108146667e-01" purity="7.9897761344909668e-01" nType="-99"/>
          <Node pos="r" depth="2" NCoef="0" IVar="-1" Cut="0.0000000000000000e+00" cType="1" res="2.5283021386712790e-03" rms="4.1120094060897827e-01" purity="6.3960707187652588e-01" nType="-99"/>
        </Node>
      </Node>
    </BinaryTree>
    <BinaryTree type="DecisionTree" boostWeight="1.0000000000000000e+00" itree="134">
      <Node pos="s" depth="0" NCoef="0" IVar="2" Cut="8.9600773437500000e+04" cType="1" res="5.2362912893295288e-01" rms="4.9955308437347412e-01" purity="5.2374076843261719e-01" nType="0">
        <Node pos="l" depth="1" NCoef="0" IVar="2" Cut="8.9247843750000000e+04" cType="1" res="7.5330895185470581e-01" rms="4.3112304806709290e-01" purity="7.5334149599075317e-01" nType="0">
          <Node pos="l" depth="2" NCoef="0" IVar="-1" Cut="0.0000000000000000e+00" cType="1" res="7.1960460627451539e-04" rms="3.7182667851448059e-01" purity="3.6152806878089905e-01" nType="-99"/>
          <Node pos="r" depth="2" NCoef="0" IVar="-1" Cut="0.0000000000000000e+00" cType="1" res="1.0049522643384989e-05" rms="2.5381213426589966e-01" purity="9.2313152551651001e-01" nType="-99"/>
        </Node>
        <Node pos="r" depth="1" NCoef="0" IVar="4" Cut="4.9057230468750000e+04" cType="1" res="3.8277763128280640e-01" rms="4.8631486296653748e-01" purity="3.8318094611167908e-01" nType="0">
          <Node pos="l" depth="2" NCoef="0" IVar="-1" Cut="0.0000000000000000e+00" cType="1" res="-7.1630813181400299e-04" rms="3.6444714665412903e-01" purity="2.9036638140678406e-01" nType="-99"/>
          <Node pos="r" depth="2" NCoef="0" IVar="-1" Cut="0.0000000000000000e+00" cType="1" res="2.4386879522353411e-03" rms="3.8217306137084961e-01" purity="8.0015683174133301e-01" nType="-99"/>
        </Node>
      </Node>
    </BinaryTree>
    <BinaryTree type="DecisionTree" boostWeight="1.0000000000000000e+00" itree="135">
      <Node pos="s" depth="0" NCoef="0" IVar="5" Cut="3.7154318750000000e+05" cType="1" res="3.8384070992469788e-01" rms="4.8652467131614685e-01" purity="3.8403996825218201e-01" nType="0">
        <Node pos="l" depth="1" NCoef="0" IVar="4" Cut="5.4598812500000000e+04" cType="1" res="2.4352496862411499e-01" rms="4.2920923233032227e-01" purity="2.4352498352527618e-01" nType="0">
          <Node pos="l" depth="2" NCoef="0" IVar="-1" Cut="0.0000000000000000e+00" cType="1" res="-3.1016527209430933e-03" rms="3.4769326448440552e-01" purity="1.8994948267936707e-01" nType="-99"/>
          <Node pos="r" depth="2" NCoef="0" IVar="-1" Cut="0.0000000000000000e+00" cType="1" res="2.0580547861754894e-03" rms="4.3439480662345886e-01" purity="7.3946374654769897e-01" nType="-99"/>
        </Node>
        <Node pos="r" depth="1" NCoef="0" IVar="4" Cut="5.0581843750000000e+04" cType="1" res="7.7071475982666016e-01" rms="4.2126253247261047e-01" purity="7.7146339416503906e-01" nType="0">
          <Node pos="l" depth="2" NCoef="0" IVar="-1" Cut="0.0000000000000000e+00" cType="1" res="4.4442280195653439e-03" rms="3.9907550811767578e-01" purity="7.0588129758834839e-01" nType="-99"/>
          <Node pos="r" depth="2" NCoef="0" IVar="-1" Cut="0.0000000000000000e+00" cType="1" res="1.2239124625921249e-03" rms="2.9358524084091187e-01" purity="9.0206426382064819e-01" nType="-99"/>
        </Node>
      </Node>
    </BinaryTree>
    <BinaryTree type="DecisionTree" boostWeight="1.0000000000000000e+00" itree="136">
      <Node pos="s" depth="0" NCoef="0" IVar="5" Cut="2.6055976562500000e+05" cType="1" res="5.3528404235839844e-01" rms="4.9875348806381226e-01" purity="5.3528398275375366e-01" nType="0">
        <Node pos="l" depth="1" NCoef="0" IVar="5" Cut="2.2440254687500000e+05" cType="1" res="1.7901571094989777e-01" rms="3.8336548209190369e-01" purity="1.7901571094989777e-01" nType="0">
          <Node pos="l" depth="2" NCoef="0" IVar="-1" Cut="0.0000000000000000e+00" cType="1" res="-3.6738489288836718e-03" rms="3.0392885208129883e-01" purity="1.2997418642044067e-01" nType="-99"/>
          <Node pos="r" depth="2" NCoef="0" IVar="-1" Cut="0.0000000000000000e+00" cType="1" res="1.6906162491068244e-03" rms="4.3038520216941833e-01" purity="3.3367323875427246e-01" nType="-99"/>
        </Node>
        <Node pos="r" depth="1" NCoef="0" IVar="5" Cut="2.9334525000000000e+05" cType="1" res="7.8076022863388062e-01" rms="4.1373142600059509e-01" purity="7.8076022863388062e-01" nType="0">
          <Node pos="l" depth="2" NCoef="0" IVar="-1" Cut="0.0000000000000000e+00" cType="1" res="1.3567938367486931e-05" rms="3.5859188437461853e-01" purity="8.8096880912780762e-01" nType="-99"/>
          <Node pos="r" depth="2" NCoef="0" IVar="-1" Cut="0.0000000000000000e+00" cType="1" res="2.6981402188539505e-03" rms="4.0469208359718323e-01" purity="6.7681580781936646e-01" nType="-99"/>
        </Node>
      </Node>
    </BinaryTree>
    <BinaryTree type="DecisionTree" boostWeight="1.0000000000000000e+00" itree="137">
      <Node pos="s" depth="0" NCoef="0" IVar="2" Cut="8.9655289062500000e+04" cType="1" res="5.8840239048004150e-01" rms="4.9221625924110413e-01" purity="5.8849412202835083e-01" nType="0">
        <Node pos="l" depth="1" NCoef="0" IVar="2" Cut="8.9245515625000000e+04" cType="1" res="8.1893306970596313e-01" rms="3.8510364294052124e-01" purity="8.1895625591278076e-01" nType="0">
          <Node pos="l" depth="2" NCoef="0" IVar="-1" Cut="0.0000000000000000e+00" cType="1" res="1.4867334393784404e-03" rms="3.8895967602729797e-01" purity="3.7987136840820312e-01" nType="-99"/>
          <Node pos="r" depth="2" NCoef="0" IVar="-1" Cut="0.0000000000000000e+00" cType="1" res="9.5085952125373296e-06" rms="2.1951477229595184e-01" purity="9.4421076774597168e-01" nType="-99"/>
        </Node>
        <Node pos="r" depth="1" NCoef="0" IVar="0" Cut="2.0000000000000000e+00" cType="1" res="3.1881440430879593e-02" rms="3.7599089741706848e-01" purity="3.8638332486152649e-01" nType="0">
          <Node pos="l" depth="2" NCoef="0" IVar="-1" Cut="0.0000000000000000e+00" cType="1" res="-1.0878056054934859e-03" rms="3.6386489868164062e-01" purity="2.1983005106449127e-01" nType="-99"/>
          <Node pos="r" depth="2" NCoef="0" IVar="-1" Cut="0.0000000000000000e+00" cType="1" res="1.6897830646485090e-03" rms="3.6911687254905701e-01" purity="8.3465009927749634e-01" nType="-99"/>
        </Node>
      </Node>
    </BinaryTree>
    <BinaryTree type="DecisionTree" boostWeight="1.0000000000000000e+00" itree="138">
      <Node pos="s" depth="0" NCoef="0" IVar="2" Cut="8.9600773437500000e+04" cType="1" res="5.2984428405761719e-01" rms="4.9929741024971008e-01" purity="5.3003287315368652e-01" nType="0">
        <Node pos="l" depth="1" NCoef="0" IVar="2" Cut="8.9247882812500000e+04" cType="1" res="7.5592714548110962e-01" rms="4.2953613400459290e-01" purity="7.5592714548110962e-01" nType="0">
          <Node pos="l" depth="2" NCoef="0" IVar="-1" Cut="0.0000000000000000e+00" cType="1" res="1.1954418150708079e-03" rms="3.8585856556892395e-01" purity="3.9813536405563354e-01" nType="-99"/>
          <Node pos="r" depth="2" NCoef="0" IVar="-1" Cut="0.0000000000000000e+00" cType="1" res="1.0101945917995181e-05" rms="2.5830101966857910e-01" purity="9.1948097944259644e-01" nType="-99"/>
        </Node>
        <Node pos="r" depth="1" NCoef="0" IVar="4" Cut="5.5062257812500000e+04" cType="1" res="3.9120182394981384e-01" rms="4.8826110363006592e-01" purity="3.9150601625442505e-01" nType="0">
          <Node pos="l" depth="2" NCoef="0" IVar="-1" Cut="0.0000000000000000e+00" cType="1" res="5.1646591600729153e-05" rms="3.6836221814155579e-01" purity="3.1403589248657227e-01" nType="-99"/>
          <Node pos="r" depth="2" NCoef="0" IVar="-1" Cut="0.0000000000000000e+00" cType="1" res="2.3472430184483528e-03" rms="3.5894024372100830e-01" purity="8.3680087327957153e-01" nType="-99"/>
        </Node>
      </Node>
    </BinaryTree>
    <BinaryTree type="DecisionTree" boostWeight="1.0000000000000000e+00" itree="139">
      <Node pos="s" depth="0" NCoef="0" IVar="4" Cut="1.7938671875000000e+04" cType="1" res="0.0000000000000000e+00" rms="7.4041390419006348e-01" purity="5.4821276664733887e-01" nType="0">
        <Node pos="l" depth="1" NCoef="0" IVar="5" Cut="2.3374504687500000e+05" cType="1" res="1.9426585733890533e-01" rms="3.9563447237014771e-01" purity="1.9515591859817505e-01" nType="0">
          <Node pos="l" depth="2" NCoef="0" IVar="-1" Cut="0.0000000000000000e+00" cType="1" res="-1.0923626832664013e-02" rms="2.0469824969768524e-01" purity="4.4923111796379089e-02" nType="-99"/>
          <Node pos="r" depth="2" NCoef="0" IVar="-1" Cut="0.0000000000000000e+00" cType="1" res="3.2496950589120388e-03" rms="3.9985466003417969e-01" purity="4.0601363778114319e-01" nType="-99"/>
        </Node>
        <Node pos="r" depth="1" NCoef="0" IVar="4" Cut="2.6601597656250000e+04" cType="1" res="6.9515728950500488e-01" rms="4.6089273691177368e-01" purity="6.9566571712493896e-01" nType="0">
          <Node pos="l" depth="2" NCoef="0" IVar="-1" Cut="0.0000000000000000e+00" cType="1" res="1.0181849575019442e-05" rms="4.2553624510765076e-01" purity="7.6071304082870483e-01" nType="-99"/>
          <Node pos="r" depth="2" NCoef="0" IVar="-1" Cut="0.0000000000000000e+00" cType="1" res="8.7575172074139118e-04" rms="4.3208840489387512e-01" purity="6.1293578147888184e-01" nType="-99"/>
        </Node>
      </Node>
    </BinaryTree>
    <BinaryTree type="DecisionTree" boostWeight="1.0000000000000000e+00" itree="140">
      <Node pos="s" depth="0" NCoef="0" IVar="5" Cut="2.4554017187500000e+05" cType="1" res="4.7621378302574158e-01" rms="4.9957308173179626e-01" purity="4.7635281085968018e-01" nType="0">
        <Node pos="l" depth="1" NCoef="0" IVar="4" Cut="4.8818398437500000e+04" cType="1" res="1.5294595062732697e-01" rms="3.5994365811347961e-01" purity="1.5295191109180450e-01" nType="0">
          <Node pos="l" depth="2" NCoef="0" IVar="-1" Cut="0.0000000000000000e+00" cType="1" res="-6.4685158431529999e-03" rms="2.9290866851806641e-01" purity="1.0240952670574188e-01" nType="-99"/>
          <Node pos="r" depth="2" NCoef="0" IVar="-1" Cut="0.0000000000000000e+00" cType="1" res="1.4003460528329015e-03" rms="4.6554929018020630e-01" purity="6.5044742822647095e-01" nType="-99"/>
        </Node>
        <Node pos="r" depth="1" NCoef="0" IVar="5" Cut="2.7061803125000000e+05" cType="1" res="7.0685017108917236e-01" rms="4.5546817779541016e-01" purity="7.0708847045898438e-01" nType="0">
          <Node pos="l" depth="2" NCoef="0" IVar="-1" Cut="0.0000000000000000e+00" cType="1" res="1.4037867003935389e-05" rms="4.1424694657325745e-01" purity="8.0134594440460205e-01" nType="-99"/>
          <Node pos="r" depth="2" NCoef="0" IVar="-1" Cut="0.0000000000000000e+00" cType="1" res="2.5690386537462473e-03" rms="4.0501406788825989e-01" purity="6.5600937604904175e-01" nType="-99"/>
        </Node>
      </Node>
    </BinaryTree>
    <BinaryTree type="DecisionTree" boostWeight="1.0000000000000000e+00" itree="141">
      <Node pos="s" depth="0" NCoef="0" IVar="4" Cut="1.8579189453125000e+04" cType="1" res="5.7755315303802490e-01" rms="4.9394890666007996e-01" purity="5.7755309343338013e-01" nType="0">
        <Node pos="l" depth="1" NCoef="0" IVar="5" Cut="4.4715034375000000e+05" cType="1" res="1.9127953052520752e-01" rms="3.9330860972404480e-01" purity="1.9183757901191711e-01" nType="0">
          <Node pos="l" depth="2" NCoef="0" IVar="-1" Cut="0.0000000000000000e+00" cType="1" res="-1.2348410673439503e-03" rms="2.9625445604324341e-01" purity="1.3969859480857849e-01" nType="-99"/>
          <Node pos="r" depth="2" NCoef="0" IVar="-1" Cut="0.0000000000000000e+00" cType="1" res="4.4782222248613834e-03" rms="3.8074162602424622e-01" purity="6.8621808290481567e-01" nType="-99"/>
        </Node>
        <Node pos="r" depth="1" NCoef="0" IVar="4" Cut="2.7574402343750000e+04" cType="1" res="7.3117977380752563e-01" rms="4.4334626197814941e-01" purity="7.3117977380752563e-01" nType="0">
          <Node pos="l" depth="2" NCoef="0" IVar="-1" Cut="0.0000000000000000e+00" cType="1" res="1.0863486750167795e-05" rms="4.0160638093948364e-01" purity="8.0357307195663452e-01" nType="-99"/>
          <Node pos="r" depth="2" NCoef="0" IVar="-1" Cut="0.0000000000000000e+00" cType="1" res="8.6604122770950198e-04" rms="4.3323788046836853e-01" purity="6.1440235376358032e-01" nType="-99"/>
        </Node>
      </Node>
    </BinaryTree>
    <BinaryTree type="DecisionTree" boostWeight="1.0000000000000000e+00" itree="142">
      <Node pos="s" depth="0" NCoef="0" IVar="3" Cut="9.5950898437500000e+04" cType="1" res="4.8262310028076172e-01" rms="4.9969795346260071e-01" purity="4.8262310028076172e-01" nType="0">
        <Node pos="l" depth="1" NCoef="0" IVar="0" Cut="2.0000000000000000e+00" cType="1" res="2.9045872390270233e-02" rms="3.7236300110816956e-01" purity="3.7916702032089233e-01" nType="0">
          <Node pos="l" depth="2" NCoef="0" IVar="-1" Cut="0.0000000000000000e+00" cType="1" res="-1.0133626637980342e-03" rms="3.5881167650222778e-01" purity="2.2038847208023071e-01" nType="-99"/>
          <Node pos="r" depth="2" NCoef="0" IVar="-1" Cut="0.0000000000000000e+00" cType="1" res="1.7397289630025625e-03" rms="3.7031570076942444e-01" purity="8.3367717266082764e-01" nType="-99"/>
        </Node>
        <Node pos="r" depth="1" NCoef="0" IVar="2" Cut="8.9294859375000000e+04" cType="1" res="7.7029305696487427e-01" rms="4.2064437270164490e-01" purity="7.7029305696487427e-01" nType="0">
          <Node pos="l" depth="2" NCoef="0" IVar="-1" Cut="0.0000000000000000e+00" cType="1" res="8.8799570221453905e-06" rms="2.7923470735549927e-01" purity="9.0817558765411377e-01" nType="-99"/>
          <Node pos="r" depth="2" NCoef="0" IVar="-1" Cut="0.0000000000000000e+00" cType="1" res="1.1691618710756302e-03" rms="3.8513961434364319e-01" purity="4.3789026141166687e-01" nType="-99"/>
        </Node>
      </Node>
    </BinaryTree>
    <BinaryTree type="DecisionTree" boostWeight="1.0000000000000000e+00" itree="143">
      <Node pos="s" depth="0" NCoef="0" IVar="5" Cut="1.6215667187500000e+05" cType="1" res="4.7474938631057739e-01" rms="4.9936199188232422e-01" purity="4.7474938631057739e-01" nType="0">
        <Node pos="l" depth="1" NCoef="0" IVar="-1" Cut="0.0000000000000000e+00" cType="1" res="8.2434698924771510e-06" rms="3.6493793129920959e-01" purity="7.4893790483474731e-01" nType="-99"/>
        <Node pos="r" depth="1" NCoef="0" IVar="4" Cut="5.3210050781250000e+04" cType="1" res="3.9864543080329895e-01" rms="4.8961949348449707e-01" purity="3.9864540100097656e-01" nType="0">
          <Node pos="l" depth="2" NCoef="0" IVar="-1" Cut="0.0000000000000000e+00" cType="1" res="-8.1853679148480296e-05" rms="3.7354961037635803e-01" purity="3.2255190610885620e-01" nType="-99"/>
          <Node pos="r" depth="2" NCoef="0" IVar="-1" Cut="0.0000000000000000e+00" cType="1" res="2.5411467067897320e-03" rms="3.7976989150047302e-01" purity="8.1196045875549316e-01" nType="-99"/>
        </Node>
      </Node>
    </BinaryTree>
    <BinaryTree type="DecisionTree" boostWeight="1.0000000000000000e+00" itree="144">
      <Node pos="s" depth="0" NCoef="0" IVar="4" Cut="5.3227273437500000e+04" cType="1" res="3.8907766342163086e-01" rms="4.8776057362556458e-01" purity="3.8947567343711853e-01" nType="0">
        <Node pos="l" depth="1" NCoef="0" IVar="0" Cut="2.0000000000000000e+00" cType="1" res="-7.4534653685986996e-04" rms="3.7174326181411743e-01" purity="3.0673989653587341e-01" nType="0">
          <Node pos="l" depth="2" NCoef="0" IVar="-1" Cut="0.0000000000000000e+00" cType="1" res="-2.4246885441243649e-03" rms="3.5382515192031860e-01" purity="1.6928452253341675e-01" nType="-99"/>
          <Node pos="r" depth="2" NCoef="0" IVar="-1" Cut="0.0000000000000000e+00" cType="1" res="3.5644043236970901e-03" rms="4.0043133497238159e-01" purity="7.9485589265823364e-01" nType="-99"/>
        </Node>
        <Node pos="r" depth="1" NCoef="0" IVar="4" Cut="8.0878500000000000e+04" cType="1" res="8.2576966285705566e-01" rms="3.7930744886398315e-01" purity="8.2692545652389526e-01" nType="0">
          <Node pos="l" depth="2" NCoef="0" IVar="-1" Cut="0.0000000000000000e+00" cType="1" res="2.5290776975452900e-03" rms="4.1668087244033813e-01" purity="7.4905139207839966e-01" nType="-99"/>
          <Node pos="r" depth="2" NCoef="0" IVar="-1" Cut="0.0000000000000000e+00" cType="1" res="2.3254025727510452e-03" rms="2.8422045707702637e-01" purity="9.0943092107772827e-01" nType="-99"/>
        </Node>
      </Node>
    </BinaryTree>
    <BinaryTree type="DecisionTree" boostWeight="1.0000000000000000e+00" itree="145">
      <Node pos="s" depth="0" NCoef="0" IVar="3" Cut="8.9426492187500000e+04" cType="1" res="5.6966549158096313e-01" rms="4.9534234404563904e-01" purity="5.6995588541030884e-01" nType="0">
        <Node pos="l" depth="1" NCoef="0" IVar="3" Cut="8.8493015625000000e+04" cType="1" res="6.7628902196884155e-01" rms="4.6804454922676086e-01" purity="6.7654806375503540e-01" nType="0">
          <Node pos="l" depth="2" NCoef="0" IVar="-1" Cut="0.0000000000000000e+00" cType="1" res="1.2165553634986281e-03" rms="3.7583470344543457e-01" purity="3.8881537318229675e-01" nType="-99"/>
          <Node pos="r" depth="2" NCoef="0" IVar="-1" Cut="0.0000000000000000e+00" cType="1" res="1.3857318663212936e-05" rms="3.2910063862800598e-01" purity="8.7931638956069946e-01" nType="-99"/>
        </Node>
        <Node pos="r" depth="1" NCoef="0" IVar="0" Cut="2.0000000000000000e+00" cType="1" res="3.7439249455928802e-02" rms="3.8395929336547852e-01" purity="3.8649222254753113e-01" nType="0">
          <Node pos="l" depth="2" NCoef="0" IVar="-1" Cut="0.0000000000000000e+00" cType="1" res="-3.1089756521396339e-04" rms="3.7610456347465515e-01" purity="2.3557791113853455e-01" nType="-99"/>
          <Node pos="r" depth="2" NCoef="0" IVar="-1" Cut="0.0000000000000000e+00" cType="1" res="3.6950102075934410e-03" rms="3.7556535005569458e-01" purity="8.2848161458969116e-01" nType="-99"/>
        </Node>
      </Node>
    </BinaryTree>
    <BinaryTree type="DecisionTree" boostWeight="1.0000000000000000e+00" itree="146">
      <Node pos="s" depth="0" NCoef="0" IVar="4" Cut="1.8561316406250000e+04" cType="1" res="8.8243661955288272e+25" rms="0.0000000000000000e+00" purity="6.2285369634628296e-01" nType="0">
        <Node pos="l" depth="1" NCoef="0" IVar="5" Cut="4.2422559375000000e+05" cType="1" res="1.8612489104270935e-01" rms="3.8920742273330688e-01" purity="1.8612490594387054e-01" nType="0">
          <Node pos="l" depth="2" NCoef="0" IVar="-1" Cut="0.0000000000000000e+00" cType="1" res="-2.9992742929607630e-03" rms="2.8108692169189453e-01" purity="1.2374427169561386e-01" nType="-99"/>
          <Node pos="r" depth="2" NCoef="0" IVar="-1" Cut="0.0000000000000000e+00" cType="1" res="4.3386309407651424e-03" rms="3.7992894649505615e-01" purity="6.8335425853729248e-01" nType="-99"/>
        </Node>
        <Node pos="r" depth="1" NCoef="0" IVar="4" Cut="2.7556687500000000e+04" cType="1" res="0.0000000000000000e+00" rms="inf" purity="7.6826715469360352e-01" nType="0">
          <Node pos="l" depth="2" NCoef="0" IVar="-1" Cut="0.0000000000000000e+00" cType="1" res="1.1553271178854629e-05" rms="3.7611120939254761e-01" purity="8.4079992771148682e-01" nType="-99"/>
          <Node pos="r" depth="2" NCoef="0" IVar="-1" Cut="0.0000000000000000e+00" cType="1" res="8.9406053302809596e-04" rms="4.3043914437294006e-01" purity="6.2776082754135132e-01" nType="-99"/>
        </Node>
      </Node>
    </BinaryTree>
    <BinaryTree type="DecisionTree" boostWeight="1.0000000000000000e+00" itree="147">
      <Node pos="s" depth="0" NCoef="0" IVar="3" Cut="9.5951070312500000e+04" cType="1" res="5.5621409416198730e-01" rms="4.9692991375923157e-01" purity="5.5638974905014038e-01" nType="0">
        <Node pos="l" depth="1" NCoef="0" IVar="5" Cut="3.7035237500000000e+05" cType="1" res="3.8369557261466980e-01" rms="4.8672962188720703e-01" purity="3.8424786925315857e-01" nType="0">
          <Node pos="l" depth="2" NCoef="0" IVar="-1" Cut="0.0000000000000000e+00" cType="1" res="-9.1970450012013316e-04" rms="3.6337846517562866e-01" purity="2.4086965620517731e-01" nType="-99"/>
          <Node pos="r" depth="2" NCoef="0" IVar="-1" Cut="0.0000000000000000e+00" cType="1" res="2.9474608600139618e-03" rms="3.7506976723670959e-01" purity="7.6860302686691284e-01" nType="-99"/>
        </Node>
        <Node pos="r" depth="1" NCoef="0" IVar="2" Cut="8.9294859375000000e+04" cType="1" res="8.5843950510025024e-01" rms="3.4859877824783325e-01" purity="8.5843956470489502e-01" nType="0">
          <Node pos="l" depth="2" NCoef="0" IVar="-1" Cut="0.0000000000000000e+00" cType="1" res="8.7740845629014075e-06" rms="2.1010188758373260e-01" purity="9.5170807838439941e-01" nType="-99"/>
          <Node pos="r" depth="2" NCoef="0" IVar="-1" Cut="0.0000000000000000e+00" cType="1" res="1.2545130448415875e-03" rms="3.8541945815086365e-01" purity="4.2791873216629028e-01" nType="-99"/>
        </Node>
      </Node>
    </BinaryTree>
    <BinaryTree type="DecisionTree" boostWeight="1.0000000000000000e+00" itree="148">
      <Node pos="s" depth="0" NCoef="0" IVar="3" Cut="9.5950953125000000e+04" cType="1" res="4.8404952883720398e-01" rms="5.0012326240539551e-01" purity="4.8449280858039856e-01" nType="0">
        <Node pos="l" depth="1" NCoef="0" IVar="0" Cut="2.0000000000000000e+00" cType="1" res="3.0855884775519371e-02" rms="3.7521925568580627e-01" purity="3.8062521815299988e-01" nType="0">
          <Node pos="l" depth="2" NCoef="0" IVar="-1" Cut="0.0000000000000000e+00" cType="1" res="-7.8778294846415520e-04" rms="3.6363956332206726e-01" purity="2.2502426803112030e-01" nType="-99"/>
          <Node pos="r" depth="2" NCoef="0" IVar="-1" Cut="0.0000000000000000e+00" cType="1" res="3.4232507459819317e-03" rms="3.7284177541732788e-01" purity="8.3092051744461060e-01" nType="-99"/>
        </Node>
        <Node pos="r" depth="1" NCoef="0" IVar="2" Cut="8.9294859375000000e+04" cType="1" res="7.7492648363113403e-01" rms="4.1763073205947876e-01" purity="7.7517563104629517e-01" nType="0">
          <Node pos="l" depth="2" NCoef="0" IVar="-1" Cut="0.0000000000000000e+00" cType="1" res="8.9283403212903067e-06" rms="2.7369078993797302e-01" purity="9.1210466623306274e-01" nType="-99"/>
          <Node pos="r" depth="2" NCoef="0" IVar="-1" Cut="0.0000000000000000e+00" cType="1" res="1.2456348631531000e-03" rms="3.7557971477508545e-01" purity="4.3194076418876648e-01" nType="-99"/>
        </Node>
      </Node>
    </BinaryTree>
    <BinaryTree type="DecisionTree" boostWeight="1.0000000000000000e+00" itree="149">
      <Node pos="s" depth="0" NCoef="0" IVar="1" Cut="2.0203215625000000e+05" cType="1" res="5.2028304338455200e-01" rms="4.9980172514915466e-01" purity="5.2049618959426880e-01" nType="0">
        <Node pos="l" depth="1" NCoef="0" IVar="2" Cut="8.9639835937500000e+04" cType="1" res="2.8768196702003479e-01" rms="4.6766239404678345e-01" purity="7.3660027980804443e-01" nType="0">
          <Node pos="l" depth="2" NCoef="0" IVar="-1" Cut="0.0000000000000000e+00" cType="1" res="1.0107763046107721e-05" rms="2.5916084647178650e-01" purity="9.0941071510314941e-01" nType="-99"/>
          <Node pos="r" depth="2" NCoef="0" IVar="-1" Cut="0.0000000000000000e+00" cType="1" res="-6.3960900297388434e-04" rms="3.4362792968750000e-01" purity="2.4315008521080017e-01" nType="-99"/>
        </Node>
        <Node pos="r" depth="1" NCoef="0" IVar="4" Cut="5.0964031250000000e+04" cType="1" res="4.0199363231658936e-01" rms="4.9063682556152344e-01" purity="4.0232339501380920e-01" nType="0">
          <Node pos="l" depth="2" NCoef="0" IVar="-1" Cut="0.0000000000000000e+00" cType="1" res="-3.4860949381254613e-04" rms="3.6793613433837891e-01" purity="3.1449350714683533e-01" nType="-99"/>
          <Node pos="r" depth="2" NCoef="0" IVar="-1" Cut="0.0000000000000000e+00" cType="1" res="2.4528289213776588e-03" rms="3.7673720717430115e-01" purity="8.0939805507659912e-01" nType="-99"/>
        </Node>
      </Node>
    </BinaryTree>
    <BinaryTree type="DecisionTree" boostWeight="1.0000000000000000e+00" itree="150">
      <Node pos="s" depth="0" NCoef="0" IVar="4" Cut="4.1395703125000000e+04" cType="1" res="3.8372364640235901e-01" rms="4.8640495538711548e-01" purity="3.8383358716964722e-01" nType="0">
        <Node pos="l" depth="1" NCoef="0" IVar="0" Cut="2.0000000000000000e+00" cType="1" res="-1.3035576790571213e-02" rms="3.5371169447898865e-01" purity="2.7620786428451538e-01" nType="0">
          <Node pos="l" depth="2" NCoef="0" IVar="-1" Cut="0.0000000000000000e+00" cType="1" res="-4.0350835770368576e-03" rms="3.3200865983963013e-01" purity="1.4173273742198944e-01" nType="-99"/>
          <Node pos="r" depth="2" NCoef="0" IVar="-1" Cut="0.0000000000000000e+00" cType="1" res="3.5786132793873549e-03" rms="3.9887502789497375e-01" purity="7.9581391811370850e-01" nType="-99"/>
        </Node>
        <Node pos="r" depth="1" NCoef="0" IVar="4" Cut="7.5079187500000000e+04" cType="1" res="7.3780852556228638e-01" rms="4.3982625007629395e-01" purity="7.3814314603805542e-01" nType="0">
          <Node pos="l" depth="2" NCoef="0" IVar="-1" Cut="0.0000000000000000e+00" cType="1" res="2.0692192483693361e-03" rms="4.4454604387283325e-01" purity="6.5375882387161255e-01" nType="-99"/>
          <Node pos="r" depth="2" NCoef="0" IVar="-1" Cut="0.0000000000000000e+00" cType="1" res="2.2980542853474617e-03" rms="3.1123760342597961e-01" purity="8.8745373487472534e-01" nType="-99"/>
        </Node>
      </Node>
    </BinaryTree>
    <BinaryTree type="DecisionTree" boostWeight="1.0000000000000000e+00" itree="151">
      <Node pos="s" depth="0" NCoef="0" IVar="0" Cut="2.0000000000000000e+00" cType="1" res="2.8485303744673729e-02" rms="3.7587618827819824e-01" purity="3.8049983978271484e-01" nType="0">
        <Node pos="l" depth="1" NCoef="0" IVar="4" Cut="6.2868636718750000e+04" cType="1" res="2.2130574285984039e-01" rms="4.1512590646743774e-01" purity="2.2130575776100159e-01" nType="0">
          <Node pos="l" depth="2" NCoef="0" IVar="-1" Cut="0.0000000000000000e+00" cType="1" res="-2.8537670150399208e-03" rms="3.5236054658889771e-01" purity="1.7236751317977905e-01" nType="-99"/>
          <Node pos="r" depth="2" NCoef="0" IVar="-1" Cut="0.0000000000000000e+00" cType="1" res="2.1338323131203651e-03" rms="4.0479210019111633e-01" purity="7.8804725408554077e-01" nType="-99"/>
        </Node>
        <Node pos="r" depth="1" NCoef="0" IVar="0" Cut="3.0000000000000000e+00" cType="1" res="1.6621518135070801e-01" rms="3.7432157993316650e-01" purity="8.2802581787109375e-01" nType="0">
          <Node pos="l" depth="2" NCoef="0" IVar="-1" Cut="0.0000000000000000e+00" cType="1" res="2.0863451063632965e-03" rms="4.2313945293426514e-01" purity="7.6030451059341431e-01" nType="-99"/>
          <Node pos="r" depth="2" NCoef="0" IVar="-1" Cut="0.0000000000000000e+00" cType="1" res="1.6025387449190021e-03" rms="2.9681751132011414e-01" purity="9.0370029211044312e-01" nType="-99"/>
        </Node>
      </Node>
    </BinaryTree>
    <BinaryTree type="DecisionTree" boostWeight="1.0000000000000000e+00" itree="152">
      <Node pos="s" depth="0" NCoef="0" IVar="5" Cut="3.5949703125000000e+05" cType="1" res="3.8639065623283386e-01" rms="4.8692187666893005e-01" purity="3.8639065623283386e-01" nType="0">
        <Node pos="l" depth="1" NCoef="0" IVar="4" Cut="6.2405449218750000e+04" cType="1" res="2.3614001274108887e-01" rms="4.2470920085906982e-01" purity="2.3614002764225006e-01" nType="0">
          <Node pos="l" depth="2" NCoef="0" IVar="-1" Cut="0.0000000000000000e+00" cType="1" res="-2.4230901617556810e-03" rms="3.5146027803421021e-01" purity="1.9690364599227905e-01" nType="-99"/>
          <Node pos="r" depth="2" NCoef="0" IVar="-1" Cut="0.0000000000000000e+00" cType="1" res="2.1363815758377314e-03" rms="4.2427781224250793e-01" purity="7.6383697986602783e-01" nType="-99"/>
        </Node>
        <Node pos="r" depth="1" NCoef="0" IVar="4" Cut="5.1002824218750000e+04" cType="1" res="7.6264911890029907e-01" rms="4.2545908689498901e-01" purity="7.6264911890029907e-01" nType="0">
          <Node pos="l" depth="2" NCoef="0" IVar="-1" Cut="0.0000000000000000e+00" cType="1" res="3.5120963584631681e-03" rms="4.0080124139785767e-01" purity="6.9311279058456421e-01" nType="-99"/>
          <Node pos="r" depth="2" NCoef="0" IVar="-1" Cut="0.0000000000000000e+00" cType="1" res="1.2076015118509531e-03" rms="2.8932449221611023e-01" purity="9.0486854314804077e-01" nType="-99"/>
        </Node>
      </Node>
    </BinaryTree>
    <BinaryTree type="DecisionTree" boostWeight="1.0000000000000000e+00" itree="153">
      <Node pos="s" depth="0" NCoef="0" IVar="5" Cut="1.6088167187500000e+05" cType="1" res="4.7796183824539185e-01" rms="4.9964645504951477e-01" purity="4.7809410095214844e-01" nType="0">
        <Node pos="l" depth="1" NCoef="0" IVar="-1" Cut="0.0000000000000000e+00" cType="1" res="8.4565117504098453e-06" rms="3.5774651169776917e-01" purity="7.6603269577026367e-01" nType="-99"/>
        <Node pos="r" depth="1" NCoef="0" IVar="4" Cut="5.5033109375000000e+04" cType="1" res="4.0053978562355042e-01" rms="4.9017900228500366e-01" purity="4.0070754289627075e-01" nType="0">
          <Node pos="l" depth="2" NCoef="0" IVar="-1" Cut="0.0000000000000000e+00" cType="1" res="-4.9627560656517744e-05" rms="3.7393456697463989e-01" purity="3.2026663422584534e-01" nType="-99"/>
          <Node pos="r" depth="2" NCoef="0" IVar="-1" Cut="0.0000000000000000e+00" cType="1" res="2.6287580840289593e-03" rms="3.6299499869346619e-01" purity="8.3264797925949097e-01" nType="-99"/>
        </Node>
      </Node>
    </BinaryTree>
    <BinaryTree type="DecisionTree" boostWeight="1.0000000000000000e+00" itree="154">
      <Node pos="s" depth="0" NCoef="0" IVar="4" Cut="1.7785007812500000e+04" cType="1" res="5.1542133092880249e-01" rms="4.9976211786270142e-01" purity="5.1542133092880249e-01" nType="0">
        <Node pos="l" depth="1" NCoef="0" IVar="0" Cut="1.0000000000000000e+00" cType="1" res="-5.3668259643018246e-03" rms="2.8955373167991638e-01" purity="1.8614943325519562e-01" nType="0">
          <Node pos="l" depth="2" NCoef="0" IVar="-1" Cut="0.0000000000000000e+00" cType="1" res="-9.8185567185282707e-03" rms="1.8987008929252625e-01" purity="3.7217706441879272e-02" nType="-99"/>
          <Node pos="r" depth="2" NCoef="0" IVar="-1" Cut="0.0000000000000000e+00" cType="1" res="2.2787642665207386e-03" rms="3.9023283123970032e-01" purity="4.1144758462905884e-01" nType="-99"/>
        </Node>
        <Node pos="r" depth="1" NCoef="0" IVar="3" Cut="8.9427882812500000e+04" cType="1" res="6.6325384378433228e-01" rms="4.7259727120399475e-01" purity="6.6325384378433228e-01" nType="0">
          <Node pos="l" depth="2" NCoef="0" IVar="-1" Cut="0.0000000000000000e+00" cType="1" res="1.5182592505880166e-05" rms="4.5440390706062317e-01" purity="7.5003057718276978e-01" nType="-99"/>
          <Node pos="r" depth="2" NCoef="0" IVar="-1" Cut="0.0000000000000000e+00" cType="1" res="1.2633155565708876e-03" rms="4.1991794109344482e-01" purity="5.1660799980163574e-01" nType="-99"/>
        </Node>
      </Node>
    </BinaryTree>
    <BinaryTree type="DecisionTree" boostWeight="1.0000000000000000e+00" itree="155">
      <Node pos="s" depth="0" NCoef="0" IVar="4" Cut="5.5592992187500000e+04" cType="1" res="3.8992998003959656e-01" rms="4.8773413896560669e-01" purity="3.8992998003959656e-01" nType="0">
        <Node pos="l" depth="1" NCoef="0" IVar="0" Cut="2.0000000000000000e+00" cType="1" res="-2.0561282872222364e-04" rms="3.7058877944946289e-01" purity="3.1028997898101807e-01" nType="0">
          <Node pos="l" depth="2" NCoef="0" IVar="-1" Cut="0.0000000000000000e+00" cType="1" res="-2.7528977952897549e-03" rms="3.5318213701248169e-01" purity="1.6762088239192963e-01" nType="-99"/>
          <Node pos="r" depth="2" NCoef="0" IVar="-1" Cut="0.0000000000000000e+00" cType="1" res="3.6057853139936924e-03" rms="3.9703944325447083e-01" purity="8.0060344934463501e-01" nType="-99"/>
        </Node>
        <Node pos="r" depth="1" NCoef="0" IVar="4" Cut="8.1003140625000000e+04" cType="1" res="8.3835256099700928e-01" rms="3.6812710762023926e-01" purity="8.3835256099700928e-01" nType="0">
          <Node pos="l" depth="2" NCoef="0" IVar="-1" Cut="0.0000000000000000e+00" cType="1" res="2.4590252432972193e-03" rms="4.1091349720954895e-01" purity="7.6512950658798218e-01" nType="-99"/>
          <Node pos="r" depth="2" NCoef="0" IVar="-1" Cut="0.0000000000000000e+00" cType="1" res="2.2660293616354465e-03" rms="2.8702312707901001e-01" purity="9.0814071893692017e-01" nType="-99"/>
        </Node>
      </Node>
    </BinaryTree>
    <BinaryTree type="DecisionTree" boostWeight="1.0000000000000000e+00" itree="156">
      <Node pos="s" depth="0" NCoef="0" IVar="2" Cut="8.9620179687500000e+04" cType="1" res="5.3151297569274902e-01" rms="4.9900594353675842e-01" purity="5.3151297569274902e-01" nType="0">
        <Node pos="l" depth="1" NCoef="0" IVar="2" Cut="8.9266453125000000e+04" cType="1" res="7.5333529710769653e-01" rms="4.3106985092163086e-01" purity="7.5333529710769653e-01" nType="0">
          <Node pos="l" depth="2" NCoef="0" IVar="-1" Cut="0.0000000000000000e+00" cType="1" res="1.1920981341972947e-03" rms="3.8547134399414062e-01" purity="3.8928005099296570e-01" nType="-99"/>
          <Node pos="r" depth="2" NCoef="0" IVar="-1" Cut="0.0000000000000000e+00" cType="1" res="1.0443646715430077e-05" rms="2.5749719142913818e-01" purity="9.2263996601104736e-01" nType="-99"/>
        </Node>
        <Node pos="r" depth="1" NCoef="0" IVar="0" Cut="2.0000000000000000e+00" cType="1" res="3.6562513560056686e-02" rms="3.7574380636215210e-01" purity="3.9455837011337280e-01" nType="0">
          <Node pos="l" depth="2" NCoef="0" IVar="-1" Cut="0.0000000000000000e+00" cType="1" res="-4.3715661740861833e-04" rms="3.6860156059265137e-01" purity="2.3390199244022369e-01" nType="-99"/>
          <Node pos="r" depth="2" NCoef="0" IVar="-1" Cut="0.0000000000000000e+00" cType="1" res="3.5409152042120695e-03" rms="3.6340415477752686e-01" purity="8.4036463499069214e-01" nType="-99"/>
        </Node>
      </Node>
    </BinaryTree>
    <BinaryTree type="DecisionTree" boostWeight="1.0000000000000000e+00" itree="157">
      <Node pos="s" depth="0" NCoef="0" IVar="3" Cut="9.5950890625000000e+04" cType="1" res="5.9778690338134766e-01" rms="4.9034449458122253e-01" purity="5.9778684377670288e-01" nType="0">
        <Node pos="l" depth="1" NCoef="0" IVar="5" Cut="2.5651665625000000e+05" cType="1" res="4.7451001405715942e-01" rms="4.9934983253479004e-01" purity="4.7450998425483704e-01" nType="0">
          <Node pos="l" depth="2" NCoef="0" IVar="-1" Cut="0.0000000000000000e+00" cType="1" res="-2.3780302144587040e-03" rms="3.2008200883865356e-01" purity="1.5190182626247406e-01" nType="-99"/>
          <Node pos="r" depth="2" NCoef="0" IVar="-1" Cut="0.0000000000000000e+00" cType="1" res="1.8461016225046478e-05" rms="4.6103620529174805e-01" purity="7.3032474517822266e-01" nType="-99"/>
        </Node>
        <Node pos="r" depth="1" NCoef="0" IVar="2" Cut="8.9315945312500000e+04" cType="1" res="8.5644102096557617e-01" rms="3.5064196586608887e-01" purity="8.5644102096557617e-01" nType="0">
          <Node pos="l" depth="2" NCoef="0" IVar="-1" Cut="0.0000000000000000e+00" cType="1" res="8.8874221546575427e-06" rms="2.1058192849159241e-01" purity="9.5097023248672485e-01" nType="-99"/>
          <Node pos="r" depth="2" NCoef="0" IVar="-1" Cut="0.0000000000000000e+00" cType="1" res="1.1817925842478871e-03" rms="3.9357978105545044e-01" purity="4.1230389475822449e-01" nType="-99"/>
        </Node>
      </Node>
    </BinaryTree>
    <BinaryTree type="DecisionTree" boostWeight="1.0000000000000000e+00" itree="158">
      <Node pos="s" depth="0" NCoef="0" IVar="2" Cut="8.9637539062500000e+04" cType="1" res="5.2410727739334106e-01" rms="5.0004613399505615e-01" purity="5.2492052316665649e-01" nType="0">
        <Node pos="l" depth="1" NCoef="0" IVar="2" Cut="8.9227070312500000e+04" cType="1" res="7.4983447790145874e-01" rms="4.3334007263183594e-01" purity="7.5022244453430176e-01" nType="0">
          <Node pos="l" depth="2" NCoef="0" IVar="-1" Cut="0.0000000000000000e+00" cType="1" res="1.0675877565518022e-03" rms="3.7454688549041748e-01" purity="3.7640273571014404e-01" nType="-99"/>
          <Node pos="r" depth="2" NCoef="0" IVar="-1" Cut="0.0000000000000000e+00" cType="1" res="1.0485315215191804e-05" rms="2.7283394336700439e-01" purity="9.1055202484130859e-01" nType="-99"/>
        </Node>
        <Node pos="r" depth="1" NCoef="0" IVar="4" Cut="6.4850910156250000e+04" cType="1" res="3.8089641928672791e-01" rms="4.8653075098991394e-01" purity="3.8197952508926392e-01" nType="0">
          <Node pos="l" depth="2" NCoef="0" IVar="-1" Cut="0.0000000000000000e+00" cType="1" res="2.5341846048831940e-04" rms="3.7291225790977478e-01" purity="3.2463762164115906e-01" nType="-99"/>
          <Node pos="r" depth="2" NCoef="0" IVar="-1" Cut="0.0000000000000000e+00" cType="1" res="2.6328046806156635e-03" rms="3.3899405598640442e-01" purity="8.6270958185195923e-01" nType="-99"/>
        </Node>
      </Node>
    </BinaryTree>
    <BinaryTree type="DecisionTree" boostWeight="1.0000000000000000e+00" itree="159">
      <Node pos="s" depth="0" NCoef="0" IVar="3" Cut="9.5951070312500000e+04" cType="1" res="4.8135492205619812e-01" rms="4.9976864457130432e-01" purity="4.8147130012512207e-01" nType="0">
        <Node pos="l" depth="1" NCoef="0" IVar="4" Cut="5.3227273437500000e+04" cType="1" res="3.7938645482063293e-01" rms="4.8539644479751587e-01" purity="3.7954378128051758e-01" nType="0">
          <Node pos="l" depth="2" NCoef="0" IVar="-1" Cut="0.0000000000000000e+00" cType="1" res="-6.6056527430191636e-04" rms="3.6047387123107910e-01" purity="2.9208460450172424e-01" nType="-99"/>
          <Node pos="r" depth="2" NCoef="0" IVar="-1" Cut="0.0000000000000000e+00" cType="1" res="1.2143068015575409e-03" rms="3.6389392614364624e-01" purity="8.2768636941909790e-01" nType="-99"/>
        </Node>
        <Node pos="r" depth="1" NCoef="0" IVar="2" Cut="8.9290359375000000e+04" cType="1" res="7.7077341079711914e-01" rms="4.2033532261848450e-01" purity="7.7077341079711914e-01" nType="0">
          <Node pos="l" depth="2" NCoef="0" IVar="-1" Cut="0.0000000000000000e+00" cType="1" res="9.0131416072836146e-06" rms="2.7802079916000366e-01" purity="9.0971982479095459e-01" nType="-99"/>
          <Node pos="r" depth="2" NCoef="0" IVar="-1" Cut="0.0000000000000000e+00" cType="1" res="1.0441783815622330e-03" rms="3.8136655092239380e-01" purity="4.2804247140884399e-01" nType="-99"/>
        </Node>
      </Node>
    </BinaryTree>
    <BinaryTree type="DecisionTree" boostWeight="1.0000000000000000e+00" itree="160">
      <Node pos="s" depth="0" NCoef="0" IVar="1" Cut="1.8991192187500000e+05" cType="1" res="4.4859549403190613e-01" rms="4.9735054373741150e-01" purity="4.4859549403190613e-01" nType="0">
        <Node pos="l" depth="1" NCoef="0" IVar="-1" Cut="0.0000000000000000e+00" cType="1" res="1.4259534509619698e-05" rms="3.9231839776039124e-01" purity="7.3416125774383545e-01" nType="-99"/>
        <Node pos="r" depth="1" NCoef="0" IVar="4" Cut="5.3227273437500000e+04" cType="1" res="3.9817455410957336e-01" rms="4.8952177166938782e-01" purity="3.9817455410957336e-01" nType="0">
          <Node pos="l" depth="2" NCoef="0" IVar="-1" Cut="0.0000000000000000e+00" cType="1" res="-9.9027124633721542e-07" rms="3.6824083328247070e-01" purity="3.1097674369812012e-01" nType="-99"/>
          <Node pos="r" depth="2" NCoef="0" IVar="-1" Cut="0.0000000000000000e+00" cType="1" res="9.3138311058282852e-04" rms="3.5991695523262024e-01" purity="8.3114492893218994e-01" nType="-99"/>
        </Node>
      </Node>
    </BinaryTree>
    <BinaryTree type="DecisionTree" boostWeight="1.0000000000000000e+00" itree="161">
      <Node pos="s" depth="0" NCoef="0" IVar="4" Cut="1.7785007812500000e+04" cType="1" res="5.9338003396987915e-01" rms="4.9151995778083801e-01" purity="5.9383022785186768e-01" nType="0">
        <Node pos="l" depth="1" NCoef="0" IVar="0" Cut="1.0000000000000000e+00" cType="1" res="8.4367586532607675e-04" rms="2.9462590813636780e-01" purity="1.8874055147171021e-01" nType="0">
          <Node pos="l" depth="2" NCoef="0" IVar="-1" Cut="0.0000000000000000e+00" cType="1" res="-9.9202683195471764e-03" rms="1.9666194915771484e-01" purity="3.9995670318603516e-02" nType="-99"/>
          <Node pos="r" depth="2" NCoef="0" IVar="-1" Cut="0.0000000000000000e+00" cType="1" res="3.0446422751992941e-03" rms="3.9222833514213562e-01" purity="4.0873849391937256e-01" nType="-99"/>
        </Node>
        <Node pos="r" depth="1" NCoef="0" IVar="4" Cut="2.9347978515625000e+04" cType="1" res="7.3643881082534790e-01" rms="4.4096818566322327e-01" purity="7.3698246479034424e-01" nType="0">
          <Node pos="l" depth="2" NCoef="0" IVar="-1" Cut="0.0000000000000000e+00" cType="1" res="1.1315873962303158e-05" rms="4.2495331168174744e-01" purity="7.8592991828918457e-01" nType="-99"/>
          <Node pos="r" depth="2" NCoef="0" IVar="-1" Cut="0.0000000000000000e+00" cType="1" res="9.1675686417147517e-04" rms="4.2513021826744080e-01" purity="6.4060866832733154e-01" nType="-99"/>
        </Node>
      </Node>
    </BinaryTree>
    <BinaryTree type="DecisionTree" boostWeight="1.0000000000000000e+00" itree="162">
      <Node pos="s" depth="0" NCoef="0" IVar="2" Cut="8.9637539062500000e+04" cType="1" res="4.5118233561515808e-01" rms="4.9812722206115723e-01" purity="4.5185926556587219e-01" nType="0">
        <Node pos="l" depth="1" NCoef="0" IVar="2" Cut="8.9403007812500000e+04" cType="1" res="5.9812915325164795e-01" rms="4.9053093791007996e-01" purity="5.9837907552719116e-01" nType="0">
          <Node pos="l" depth="2" NCoef="0" IVar="-1" Cut="0.0000000000000000e+00" cType="1" res="8.4157276432961226e-04" rms="3.7412717938423157e-01" purity="3.7337654829025269e-01" nType="-99"/>
          <Node pos="r" depth="2" NCoef="0" IVar="-1" Cut="0.0000000000000000e+00" cType="1" res="1.4940533219487406e-05" rms="3.2048100233078003e-01" purity="8.7019801139831543e-01" nType="-99"/>
        </Node>
        <Node pos="r" depth="1" NCoef="0" IVar="4" Cut="5.0481691406250000e+04" cType="1" res="3.9438554644584656e-01" rms="4.8957121372222900e-01" purity="3.9534950256347656e-01" nType="0">
          <Node pos="l" depth="2" NCoef="0" IVar="-1" Cut="0.0000000000000000e+00" cType="1" res="-2.8191876481287181e-04" rms="3.6249464750289917e-01" purity="2.9988917708396912e-01" nType="-99"/>
          <Node pos="r" depth="2" NCoef="0" IVar="-1" Cut="0.0000000000000000e+00" cType="1" res="1.2637278996407986e-03" rms="3.6237603425979614e-01" purity="8.2642757892608643e-01" nType="-99"/>
        </Node>
      </Node>
    </BinaryTree>
    <BinaryTree type="DecisionTree" boostWeight="1.0000000000000000e+00" itree="163">
      <Node pos="s" depth="0" NCoef="0" IVar="5" Cut="2.5747637500000000e+05" cType="1" res="5.4076725244522095e-01" rms="4.9853861331939697e-01" purity="5.4118496179580688e-01" nType="0">
        <Node pos="l" depth="1" NCoef="0" IVar="4" Cut="3.7086070312500000e+04" cType="1" res="1.7692057788372040e-01" rms="3.8160148262977600e-01" purity="1.7692057788372040e-01" nType="0">
          <Node pos="l" depth="2" NCoef="0" IVar="-1" Cut="0.0000000000000000e+00" cType="1" res="-4.6542268246412277e-03" rms="2.9471263289451599e-01" purity="1.0278953611850739e-01" nType="-99"/>
          <Node pos="r" depth="2" NCoef="0" IVar="-1" Cut="0.0000000000000000e+00" cType="1" res="1.4650603989139199e-03" rms="4.7825121879577637e-01" purity="5.3792798519134521e-01" nType="-99"/>
        </Node>
        <Node pos="r" depth="1" NCoef="0" IVar="5" Cut="2.9027925000000000e+05" cType="1" res="7.8239339590072632e-01" rms="4.1302701830863953e-01" purity="7.8308856487274170e-01" nType="0">
          <Node pos="l" depth="2" NCoef="0" IVar="-1" Cut="0.0000000000000000e+00" cType="1" res="1.4043822375242598e-05" rms="3.6134997010231018e-01" purity="8.7851935625076294e-01" nType="-99"/>
          <Node pos="r" depth="2" NCoef="0" IVar="-1" Cut="0.0000000000000000e+00" cType="1" res="1.5288200229406357e-03" rms="3.9618387818336487e-01" purity="6.8697947263717651e-01" nType="-99"/>
        </Node>
      </Node>
    </BinaryTree>
    <BinaryTree type="DecisionTree" boostWeight="1.0000000000000000e+00" itree="164">
      <Node pos="s" depth="0" NCoef="0" IVar="3" Cut="9.5950898437500000e+04" cType="1" res="3.1000654237399728e-32" rms="3.3728560969296118e+18" purity="4.8364168405532837e-01" nType="0">
        <Node pos="l" depth="1" NCoef="0" IVar="0" Cut="1.0000000000000000e+00" cType="1" res="3.1728107482194901e-02" rms="3.7263873219490051e-01" purity="3.8355803489685059e-01" nType="0">
          <Node pos="l" depth="2" NCoef="0" IVar="-1" Cut="0.0000000000000000e+00" cType="1" res="-3.4939746838063002e-03" rms="2.9936239123344421e-01" purity="1.3475142419338226e-01" nType="-99"/>
          <Node pos="r" depth="2" NCoef="0" IVar="-1" Cut="0.0000000000000000e+00" cType="1" res="2.6823948137462139e-03" rms="4.1011455655097961e-01" purity="5.9598010778427124e-01" nType="-99"/>
        </Node>
        <Node pos="r" depth="1" NCoef="0" IVar="2" Cut="8.9315945312500000e+04" cType="1" res="7.6957356929779053e-01" rms="4.2110577225685120e-01" purity="7.7033144235610962e-01" nType="0">
          <Node pos="l" depth="2" NCoef="0" IVar="-1" Cut="0.0000000000000000e+00" cType="1" res="9.0921575974789448e-06" rms="2.8196191787719727e-01" purity="9.0885484218597412e-01" nType="-99"/>
          <Node pos="r" depth="2" NCoef="0" IVar="-1" Cut="0.0000000000000000e+00" cType="1" res="1.0051103308796883e-03" rms="3.8658282160758972e-01" purity="4.0419897437095642e-01" nType="-99"/>
        </Node>
      </Node>
    </BinaryTree>
    <BinaryTree type="DecisionTree" boostWeight="1.0000000000000000e+00" itree="165">
      <Node pos="s" depth="0" NCoef="0" IVar="3" Cut="9.5950390625000000e+04" cType="1" res="4.8567309975624084e-01" rms="4.9979469180107117e-01" purity="4.8567309975624084e-01" nType="0">
        <Node pos="l" depth="1" NCoef="0" IVar="4" Cut="5.0450804687500000e+04" cType="1" res="3.8394767045974731e-01" rms="4.8634541034698486e-01" purity="3.8394767045974731e-01" nType="0">
          <Node pos="l" depth="2" NCoef="0" IVar="-1" Cut="0.0000000000000000e+00" cType="1" res="-3.0879816040396690e-04" rms="3.6182728409767151e-01" purity="2.9605105519294739e-01" nType="-99"/>
          <Node pos="r" depth="2" NCoef="0" IVar="-1" Cut="0.0000000000000000e+00" cType="1" res="1.2331607285887003e-03" rms="3.8020566105842590e-01" purity="8.0178827047348022e-01" nType="-99"/>
        </Node>
        <Node pos="r" depth="1" NCoef="0" IVar="3" Cut="9.6732101562500000e+04" cType="1" res="7.7226060628890991e-01" rms="4.1967162489891052e-01" purity="7.7251076698303223e-01" nType="0">
          <Node pos="l" depth="2" NCoef="0" IVar="-1" Cut="0.0000000000000000e+00" cType="1" res="8.9373424998484552e-06" rms="2.7139517664909363e-01" purity="9.1407364606857300e-01" nType="-99"/>
          <Node pos="r" depth="2" NCoef="0" IVar="-1" Cut="0.0000000000000000e+00" cType="1" res="1.6629821620881557e-03" rms="3.9862716197967529e-01" purity="4.4795083999633789e-01" nType="-99"/>
        </Node>
      </Node>
    </BinaryTree>
    <BinaryTree type="DecisionTree" boostWeight="1.0000000000000000e+00" itree="166">
      <Node pos="s" depth="0" NCoef="0" IVar="5" Cut="2.5747637500000000e+05" cType="1" res="5.3089588880538940e-01" rms="4.9904453754425049e-01" purity="5.3089588880538940e-01" nType="0">
        <Node pos="l" depth="1" NCoef="0" IVar="5" Cut="2.2250368750000000e+05" cType="1" res="1.4841443300247192e-01" rms="3.5551032423973083e-01" purity="1.4841443300247192e-01" nType="0">
          <Node pos="l" depth="2" NCoef="0" IVar="-1" Cut="0.0000000000000000e+00" cType="1" res="-6.3622263260185719e-03" rms="2.8440669178962708e-01" purity="1.0247837007045746e-01" nType="-99"/>
          <Node pos="r" depth="2" NCoef="0" IVar="-1" Cut="0.0000000000000000e+00" cType="1" res="9.5903890905901790e-04" rms="4.0114372968673706e-01" purity="2.8939649462699890e-01" nType="-99"/>
        </Node>
        <Node pos="r" depth="1" NCoef="0" IVar="5" Cut="2.9027925000000000e+05" cType="1" res="7.7959352731704712e-01" rms="4.1452074050903320e-01" purity="7.7959352731704712e-01" nType="0">
          <Node pos="l" depth="2" NCoef="0" IVar="-1" Cut="0.0000000000000000e+00" cType="1" res="1.4116751117398962e-05" rms="3.6507540941238403e-01" purity="8.7832158803939819e-01" nType="-99"/>
          <Node pos="r" depth="2" NCoef="0" IVar="-1" Cut="0.0000000000000000e+00" cType="1" res="1.5473351813852787e-03" rms="4.0035805106163025e-01" purity="6.7809873819351196e-01" nType="-99"/>
        </Node>
      </Node>
    </BinaryTree>
    <BinaryTree type="DecisionTree" boostWeight="1.0000000000000000e+00" itree="167">
      <Node pos="s" depth="0" NCoef="0" IVar="3" Cut="9.5950968750000000e+04" cType="1" res="5.6011074781417847e-01" rms="4.9637353420257568e-01" purity="5.6011074781417847e-01" nType="0">
        <Node pos="l" depth="1" NCoef="0" IVar="4" Cut="5.3241414062500000e+04" cType="1" res="3.8935193419456482e-01" rms="4.8760333657264709e-01" purity="3.8935193419456482e-01" nType="0">
          <Node pos="l" depth="2" NCoef="0" IVar="-1" Cut="0.0000000000000000e+00" cType="1" res="-3.6434418871067464e-04" rms="3.6083301901817322e-01" purity="2.9822301864624023e-01" nType="-99"/>
          <Node pos="r" depth="2" NCoef="0" IVar="-1" Cut="0.0000000000000000e+00" cType="1" res="1.3205643044784665e-03" rms="3.5983532667160034e-01" purity="8.3203852176666260e-01" nType="-99"/>
        </Node>
        <Node pos="r" depth="1" NCoef="0" IVar="2" Cut="8.9290359375000000e+04" cType="1" res="8.5694468021392822e-01" rms="3.5012924671173096e-01" purity="8.5725271701812744e-01" nType="0">
          <Node pos="l" depth="2" NCoef="0" IVar="-1" Cut="0.0000000000000000e+00" cType="1" res="9.0985668066423386e-06" rms="2.1766132116317749e-01" purity="9.4935452938079834e-01" nType="-99"/>
          <Node pos="r" depth="2" NCoef="0" IVar="-1" Cut="0.0000000000000000e+00" cType="1" res="1.3308466877788305e-03" rms="3.7498208880424500e-01" purity="4.3379232287406921e-01" nType="-99"/>
        </Node>
      </Node>
    </BinaryTree>
    <BinaryTree type="DecisionTree" boostWeight="1.0000000000000000e+00" itree="168">
      <Node pos="s" depth="0" NCoef="0" IVar="5" Cut="1.6215667187500000e+05" cType="1" res="4.8824837803840637e-01" rms="4.9993652105331421e-01" purity="4.8832300305366516e-01" nType="0">
        <Node pos="l" depth="1" NCoef="0" IVar="-1" Cut="0.0000000000000000e+00" cType="1" res="8.5522724475595169e-06" rms="3.6592862010002136e-01" purity="7.5075912475585938e-01" nType="-99"/>
        <Node pos="r" depth="1" NCoef="0" IVar="4" Cut="5.3239878906250000e+04" cType="1" res="4.1743811964988708e-01" rms="4.9323248863220215e-01" purity="4.1753286123275757e-01" nType="0">
          <Node pos="l" depth="2" NCoef="0" IVar="-1" Cut="0.0000000000000000e+00" cType="1" res="1.4680207823403180e-04" rms="3.7078383564949036e-01" purity="3.2479247450828552e-01" nType="-99"/>
          <Node pos="r" depth="2" NCoef="0" IVar="-1" Cut="0.0000000000000000e+00" cType="1" res="1.3564702821895480e-03" rms="3.5365635156631470e-01" purity="8.4001314640045166e-01" nType="-99"/>
        </Node>
      </Node>
    </BinaryTree>
    <BinaryTree type="DecisionTree" boostWeight="1.0000000000000000e+00" itree="169">
      <Node pos="s" depth="0" NCoef="0" IVar="4" Cut="1.7516681640625000e+04" cType="1" res="6.4600896835327148e-01" rms="4.7830879688262939e-01" purity="6.4615178108215332e-01" nType="0">
        <Node pos="l" depth="1" NCoef="0" IVar="0" Cut="1.0000000000000000e+00" cType="1" res="8.0429306253790855e-03" rms="2.9988849163055420e-01" purity="1.9741688668727875e-01" nType="0">
          <Node pos="l" depth="2" NCoef="0" IVar="-1" Cut="0.0000000000000000e+00" cType="1" res="-9.4267101958394051e-03" rms="1.9938541948795319e-01" purity="4.1254587471485138e-02" nType="-99"/>
          <Node pos="r" depth="2" NCoef="0" IVar="-1" Cut="0.0000000000000000e+00" cType="1" res="3.2523262780159712e-03" rms="3.9794605970382690e-01" purity="4.2524001002311707e-01" nType="-99"/>
        </Node>
        <Node pos="r" depth="1" NCoef="0" IVar="4" Cut="3.0203587890625000e+04" cType="1" res="7.7630174160003662e-01" rms="4.1681215167045593e-01" purity="7.7643471956253052e-01" nType="0">
          <Node pos="l" depth="2" NCoef="0" IVar="-1" Cut="0.0000000000000000e+00" cType="1" res="1.2351954865152948e-05" rms="3.8855129480361938e-01" purity="8.2728582620620728e-01" nType="-99"/>
          <Node pos="r" depth="2" NCoef="0" IVar="-1" Cut="0.0000000000000000e+00" cType="1" res="1.2043655151501298e-03" rms="4.2716056108474731e-01" purity="6.3825303316116333e-01" nType="-99"/>
        </Node>
      </Node>
    </BinaryTree>
    <BinaryTree type="DecisionTree" boostWeight="1.0000000000000000e+00" itree="170">
      <Node pos="s" depth="0" NCoef="0" IVar="5" Cut="2.6316584375000000e+05" cType="1" res="4.6478059887886047e-01" rms="4.9885764718055725e-01" purity="4.6496969461441040e-01" nType="0">
        <Node pos="l" depth="1" NCoef="0" IVar="4" Cut="5.2794351562500000e+04" cType="1" res="1.7405976355075836e-01" rms="3.7916085124015808e-01" purity="1.7405974864959717e-01" nType="0">
          <Node pos="l" depth="2" NCoef="0" IVar="-1" Cut="0.0000000000000000e+00" cType="1" res="-3.7861005403101444e-03" rms="3.1115373969078064e-01" purity="1.2774054706096649e-01" nType="-99"/>
          <Node pos="r" depth="2" NCoef="0" IVar="-1" Cut="0.0000000000000000e+00" cType="1" res="1.5196766471490264e-03" rms="4.5940431952476501e-01" purity="6.8494391441345215e-01" nType="-99"/>
        </Node>
        <Node pos="r" depth="1" NCoef="0" IVar="5" Cut="2.8683112500000000e+05" cType="1" res="7.2969251871109009e-01" rms="4.4433233141899109e-01" purity="7.3005396127700806e-01" nType="0">
          <Node pos="l" depth="2" NCoef="0" IVar="-1" Cut="0.0000000000000000e+00" cType="1" res="1.3730429600400385e-05" rms="4.1649037599563599e-01" purity="8.2972449064254761e-01" nType="-99"/>
          <Node pos="r" depth="2" NCoef="0" IVar="-1" Cut="0.0000000000000000e+00" cType="1" res="2.5476822629570961e-03" rms="4.0068951249122620e-01" purity="6.7572748661041260e-01" nType="-99"/>
        </Node>
      </Node>
    </BinaryTree>
    <BinaryTree type="DecisionTree" boostWeight="1.0000000000000000e+00" itree="171">
      <Node pos="s" depth="0" NCoef="0" IVar="2" Cut="8.9606054687500000e+04" cType="1" res="5.2677053213119507e-01" rms="4.9942314624786377e-01" purity="5.2705186605453491e-01" nType="0">
        <Node pos="l" depth="1" NCoef="0" IVar="2" Cut="8.9252812500000000e+04" cType="1" res="7.5609254837036133e-01" rms="4.2943751811981201e-01" purity="7.5625020265579224e-01" nType="0">
          <Node pos="l" depth="2" NCoef="0" IVar="-1" Cut="0.0000000000000000e+00" cType="1" res="9.6789613598957658e-04" rms="3.7421178817749023e-01" purity="3.7885832786560059e-01" nType="-99"/>
          <Node pos="r" depth="2" NCoef="0" IVar="-1" Cut="0.0000000000000000e+00" cType="1" res="1.0683191248972435e-05" rms="2.5517424941062927e-01" purity="9.2472720146179199e-01" nType="-99"/>
        </Node>
        <Node pos="r" depth="1" NCoef="0" IVar="4" Cut="4.5911371093750000e+04" cType="1" res="3.8492053747177124e-01" rms="4.8680955171585083e-01" purity="3.8527840375900269e-01" nType="0">
          <Node pos="l" depth="2" NCoef="0" IVar="-1" Cut="0.0000000000000000e+00" cType="1" res="-2.3302690533455461e-04" rms="3.6062857508659363e-01" purity="2.9008749127388000e-01" nType="-99"/>
          <Node pos="r" depth="2" NCoef="0" IVar="-1" Cut="0.0000000000000000e+00" cType="1" res="2.2820951417088509e-03" rms="3.9617004990577698e-01" purity="7.7086335420608521e-01" nType="-99"/>
        </Node>
      </Node>
    </BinaryTree>
    <BinaryTree type="DecisionTree" boostWeight="1.0000000000000000e+00" itree="172">
      <Node pos="s" depth="0" NCoef="0" IVar="5" Cut="1.6313576562500000e+05" cType="1" res="4.8065653443336487e-01" rms="4.9962568283081055e-01" purity="4.8065653443336487e-01" nType="0">
        <Node pos="l" depth="1" NCoef="0" IVar="3" Cut="8.8985414062500000e+04" cType="1" res="7.3424375057220459e-01" rms="4.4173505902290344e-01" purity="7.3424375057220459e-01" nType="0">
          <Node pos="l" depth="2" NCoef="0" IVar="-1" Cut="0.0000000000000000e+00" cType="1" res="-1.1153893545269966e-02" rms="2.3385921120643616e-01" purity="6.3955895602703094e-02" nType="-99"/>
          <Node pos="r" depth="2" NCoef="0" IVar="-1" Cut="0.0000000000000000e+00" cType="1" res="8.8130527728935704e-06" rms="3.0224698781967163e-01" purity="8.4937018156051636e-01" nType="-99"/>
        </Node>
        <Node pos="r" depth="1" NCoef="0" IVar="5" Cut="4.0681687500000000e+05" cType="1" res="4.0863525867462158e-01" rms="4.9158161878585815e-01" purity="4.0863525867462158e-01" nType="0">
          <Node pos="l" depth="2" NCoef="0" IVar="-1" Cut="0.0000000000000000e+00" cType="1" res="-4.3397815898060799e-04" rms="3.7327662110328674e-01" purity="2.7615296840667725e-01" nType="-99"/>
          <Node pos="r" depth="2" NCoef="0" IVar="-1" Cut="0.0000000000000000e+00" cType="1" res="3.5509408917278051e-03" rms="3.6217674612998962e-01" purity="8.0028223991394043e-01" nType="-99"/>
        </Node>
      </Node>
    </BinaryTree>
    <BinaryTree type="DecisionTree" boostWeight="1.0000000000000000e+00" itree="173">
      <Node pos="s" depth="0" NCoef="0" IVar="1" Cut="2.0203215625000000e+05" cType="1" res="5.2649635076522827e-01" rms="4.9948906898498535e-01" purity="5.2676767110824585e-01" nType="0">
        <Node pos="l" depth="1" NCoef="0" IVar="2" Cut="8.9609945312500000e+04" cType="1" res="2.8469714522361755e-01" rms="4.6327748894691467e-01" purity="7.3273003101348877e-01" nType="0">
          <Node pos="l" depth="2" NCoef="0" IVar="-1" Cut="0.0000000000000000e+00" cType="1" res="1.0530585313972551e-05" rms="2.5271368026733398e-01" purity="9.1565769910812378e-01" nType="-99"/>
          <Node pos="r" depth="2" NCoef="0" IVar="-1" Cut="0.0000000000000000e+00" cType="1" res="-8.8111561490222812e-04" rms="3.4849235415458679e-01" purity="2.2814816236495972e-01" nType="-99"/>
        </Node>
        <Node pos="r" depth="1" NCoef="0" IVar="4" Cut="5.0996410156250000e+04" cType="1" res="4.1612079739570618e-01" rms="4.9321201443672180e-01" purity="4.1653734445571899e-01" nType="0">
          <Node pos="l" depth="2" NCoef="0" IVar="-1" Cut="0.0000000000000000e+00" cType="1" res="2.5998993078246713e-04" rms="3.7261942028999329e-01" purity="3.2550236582756042e-01" nType="-99"/>
          <Node pos="r" depth="2" NCoef="0" IVar="-1" Cut="0.0000000000000000e+00" cType="1" res="1.2245932593941689e-03" rms="3.6453428864479065e-01" purity="8.2146978378295898e-01" nType="-99"/>
        </Node>
      </Node>
    </BinaryTree>
    <BinaryTree type="DecisionTree" boostWeight="1.0000000000000000e+00" itree="174">
      <Node pos="s" depth="0" NCoef="0" IVar="4" Cut="4.7332933593750000e+04" cType="1" res="3.7594616413116455e-01" rms="4.8436623811721802e-01" purity="3.7594613432884216e-01" nType="0">
        <Node pos="l" depth="1" NCoef="0" IVar="0" Cut="3.0000000000000000e+00" cType="1" res="-1.0694665834307671e-02" rms="3.5816058516502380e-01" purity="2.8401786088943481e-01" nType="0">
          <Node pos="l" depth="2" NCoef="0" IVar="-1" Cut="0.0000000000000000e+00" cType="1" res="-2.1890373900532722e-03" rms="3.5500609874725342e-01" purity="2.2214233875274658e-01" nType="-99"/>
          <Node pos="r" depth="2" NCoef="0" IVar="-1" Cut="0.0000000000000000e+00" cType="1" res="5.3429151885211468e-03" rms="3.2150313258171082e-01" purity="8.8383948802947998e-01" nType="-99"/>
        </Node>
        <Node pos="r" depth="1" NCoef="0" IVar="4" Cut="8.0763976562500000e+04" cType="1" res="6.7162847518920898e-01" rms="4.6969604492187500e-01" purity="7.7319514751434326e-01" nType="0">
          <Node pos="l" depth="2" NCoef="0" IVar="-1" Cut="0.0000000000000000e+00" cType="1" res="2.1074158139526844e-03" rms="4.3449884653091431e-01" purity="6.9242751598358154e-01" nType="-99"/>
          <Node pos="r" depth="2" NCoef="0" IVar="-1" Cut="0.0000000000000000e+00" cType="1" res="2.3909183219075203e-03" rms="2.9453897476196289e-01" purity="9.0250039100646973e-01" nType="-99"/>
        </Node>
      </Node>
    </BinaryTree>
    <BinaryTree type="DecisionTree" boostWeight="1.0000000000000000e+00" itree="175">
      <Node pos="s" depth="0" NCoef="0" IVar="5" Cut="2.4458235937500000e+05" cType="1" res="4.6712839603424072e-01" rms="4.9914947152137756e-01" purity="4.6744981408119202e-01" nType="0">
        <Node pos="l" depth="1" NCoef="0" IVar="4" Cut="4.8773851562500000e+04" cType="1" res="1.6124622523784637e-01" rms="3.6775791645050049e-01" purity="1.6124622523784637e-01" nType="0">
          <Node pos="l" depth="2" NCoef="0" IVar="-1" Cut="0.0000000000000000e+00" cType="1" res="-3.7794923409819603e-03" rms="3.0766645073890686e-01" purity="1.1289192736148834e-01" nType="-99"/>
          <Node pos="r" depth="2" NCoef="0" IVar="-1" Cut="0.0000000000000000e+00" cType="1" res="1.3502555666491389e-03" rms="4.7068554162979126e-01" purity="6.3214850425720215e-01" nType="-99"/>
        </Node>
        <Node pos="r" depth="1" NCoef="0" IVar="5" Cut="2.6966084375000000e+05" cType="1" res="6.9370782375335693e-01" rms="4.6138802170753479e-01" purity="6.9426733255386353e-01" nType="0">
          <Node pos="l" depth="2" NCoef="0" IVar="-1" Cut="0.0000000000000000e+00" cType="1" res="1.4299834219855256e-05" rms="4.2338532209396362e-01" purity="7.9298734664916992e-01" nType="-99"/>
          <Node pos="r" depth="2" NCoef="0" IVar="-1" Cut="0.0000000000000000e+00" cType="1" res="2.1498140413314104e-03" rms="4.0474086999893188e-01" purity="6.4044141769409180e-01" nType="-99"/>
        </Node>
      </Node>
    </BinaryTree>
    <BinaryTree type="DecisionTree" boostWeight="1.0000000000000000e+00" itree="176">
      <Node pos="s" depth="0" NCoef="0" IVar="1" Cut="1.9133937500000000e+05" cType="1" res="4.5186713337898254e-01" rms="4.9767783284187317e-01" purity="4.5186713337898254e-01" nType="0">
        <Node pos="l" depth="1" NCoef="0" IVar="3" Cut="8.8280867187500000e+04" cType="1" res="3.8663122802972794e-02" rms="2.1841536462306976e-01" purity="7.0598512887954712e-01" nType="0">
          <Node pos="l" depth="2" NCoef="0" IVar="-1" Cut="0.0000000000000000e+00" cType="1" res="-1.3951080618426204e-03" rms="3.4061986207962036e-01" purity="2.1719323098659515e-01" nType="-99"/>
          <Node pos="r" depth="2" NCoef="0" IVar="-1" Cut="0.0000000000000000e+00" cType="1" res="1.5061727026477456e-05" rms="3.3151629567146301e-01" purity="8.3851546049118042e-01" nType="-99"/>
        </Node>
        <Node pos="r" depth="1" NCoef="0" IVar="4" Cut="6.0221953125000000e+04" cType="1" res="4.0374901890754700e-01" rms="4.9064829945564270e-01" purity="4.0374904870986938e-01" nType="0">
          <Node pos="l" depth="2" NCoef="0" IVar="-1" Cut="0.0000000000000000e+00" cType="1" res="2.1574781567323953e-04" rms="3.6788624525070190e-01" purity="3.3128455281257629e-01" nType="-99"/>
          <Node pos="r" depth="2" NCoef="0" IVar="-1" Cut="0.0000000000000000e+00" cType="1" res="2.3124825675040483e-03" rms="3.3667734265327454e-01" purity="8.6323881149291992e-01" nType="-99"/>
        </Node>
      </Node>
    </BinaryTree>
    <BinaryTree type="DecisionTree" boostWeight="1.0000000000000000e+00" itree="177">
      <Node pos="s" depth="0" NCoef="0" IVar="3" Cut="9.5950960937500000e+04" cType="1" res="5.5820655822753906e-01" rms="4.9686902761459351e-01" purity="5.5885893106460571e-01" nType="0">
        <Node pos="l" depth="1" NCoef="0" IVar="4" Cut="5.3544507812500000e+04" cType="1" res="3.8945871591567993e-01" rms="4.8798847198486328e-01" purity="3.9041313529014587e-01" nType="0">
          <Node pos="l" depth="2" NCoef="0" IVar="-1" Cut="0.0000000000000000e+00" cType="1" res="2.0685953495558351e-04" rms="3.6869126558303833e-01" purity="3.0519071221351624e-01" nType="-99"/>
          <Node pos="r" depth="2" NCoef="0" IVar="-1" Cut="0.0000000000000000e+00" cType="1" res="8.2827376900240779e-04" rms="3.5600915551185608e-01" purity="8.3488285541534424e-01" nType="-99"/>
        </Node>
        <Node pos="r" depth="1" NCoef="0" IVar="2" Cut="8.9384640625000000e+04" cType="1" res="8.5860246419906616e-01" rms="3.4843114018440247e-01" purity="8.5860252380371094e-01" nType="0">
          <Node pos="l" depth="2" NCoef="0" IVar="-1" Cut="0.0000000000000000e+00" cType="1" res="9.1687506937887520e-06" rms="2.1016322076320648e-01" purity="9.5167690515518188e-01" nType="-99"/>
          <Node pos="r" depth="2" NCoef="0" IVar="-1" Cut="0.0000000000000000e+00" cType="1" res="1.2014092644676566e-03" rms="3.8457226753234863e-01" purity="4.3312862515449524e-01" nType="-99"/>
        </Node>
      </Node>
    </BinaryTree>
    <BinaryTree type="DecisionTree" boostWeight="1.0000000000000000e+00" itree="178">
      <Node pos="s" depth="0" NCoef="0" IVar="4" Cut="1.8593867187500000e+04" cType="1" res="5.4249656200408936e-01" rms="4.9819076061248779e-01" purity="5.4249656200408936e-01" nType="0">
        <Node pos="l" depth="1" NCoef="0" IVar="0" Cut="1.0000000000000000e+00" cType="1" res="1.6718172701075673e-03" rms="2.9857566952705383e-01" purity="1.9092749059200287e-01" nType="0">
          <Node pos="l" depth="2" NCoef="0" IVar="-1" Cut="0.0000000000000000e+00" cType="1" res="-8.6341416463255882e-03" rms="1.9531993567943573e-01" purity="4.0098484605550766e-02" nType="-99"/>
          <Node pos="r" depth="2" NCoef="0" IVar="-1" Cut="0.0000000000000000e+00" cType="1" res="3.1087279785424471e-03" rms="3.9999735355377197e-01" purity="4.1082102060317993e-01" nType="-99"/>
        </Node>
        <Node pos="r" depth="1" NCoef="0" IVar="4" Cut="2.7588908203125000e+04" cType="1" res="6.9685894250869751e-01" rms="4.5961564779281616e-01" purity="6.9685900211334229e-01" nType="0">
          <Node pos="l" depth="2" NCoef="0" IVar="-1" Cut="0.0000000000000000e+00" cType="1" res="1.0696994650061242e-05" rms="4.3167087435722351e-01" purity="7.6327884197235107e-01" nType="-99"/>
          <Node pos="r" depth="2" NCoef="0" IVar="-1" Cut="0.0000000000000000e+00" cType="1" res="9.9562678951770067e-04" rms="4.2933568358421326e-01" purity="6.0812026262283325e-01" nType="-99"/>
        </Node>
      </Node>
    </BinaryTree>
    <BinaryTree type="DecisionTree" boostWeight="1.0000000000000000e+00" itree="179">
      <Node pos="s" depth="0" NCoef="0" IVar="4" Cut="5.5592992187500000e+04" cType="1" res="3.9178186655044556e-01" rms="4.8837265372276306e-01" purity="3.9200091361999512e-01" nType="0">
        <Node pos="l" depth="1" NCoef="0" IVar="0" Cut="1.0000000000000000e+00" cType="1" res="-1.0704725282266736e-03" rms="3.6455878615379333e-01" purity="3.0944204330444336e-01" nType="0">
          <Node pos="l" depth="2" NCoef="0" IVar="-1" Cut="0.0000000000000000e+00" cType="1" res="-6.0031209141016006e-03" rms="2.8201362490653992e-01" purity="9.3583777546882629e-02" nType="-99"/>
          <Node pos="r" depth="2" NCoef="0" IVar="-1" Cut="0.0000000000000000e+00" cType="1" res="2.4949633516371250e-03" rms="4.2039772868156433e-01" purity="5.2190423011779785e-01" nType="-99"/>
        </Node>
        <Node pos="r" depth="1" NCoef="0" IVar="4" Cut="8.1003617187500000e+04" cType="1" res="8.4927242994308472e-01" rms="3.5778316855430603e-01" purity="8.4927237033843994e-01" nType="0">
          <Node pos="l" depth="2" NCoef="0" IVar="-1" Cut="0.0000000000000000e+00" cType="1" res="2.3617800325155258e-03" rms="3.9938491582870483e-01" purity="7.7903503179550171e-01" nType="-99"/>
          <Node pos="r" depth="2" NCoef="0" IVar="-1" Cut="0.0000000000000000e+00" cType="1" res="2.2135477047413588e-03" rms="2.7818724513053894e-01" purity="9.1385751962661743e-01" nType="-99"/>
        </Node>
      </Node>
    </BinaryTree>
    <BinaryTree type="DecisionTree" boostWeight="1.0000000000000000e+00" itree="180">
      <Node pos="s" depth="0" NCoef="0" IVar="1" Cut="1.9126706250000000e+05" cType="1" res="inf" rms="0.0000000000000000e+00" purity="5.0150728225708008e-01" nType="0">
        <Node pos="l" depth="1" NCoef="0" IVar="3" Cut="8.8281265625000000e+04" cType="1" res="2.2043701261281967e-02" rms="1.8043240904808044e-01" purity="8.2005977630615234e-01" nType="0">
          <Node pos="l" depth="2" NCoef="0" IVar="-1" Cut="0.0000000000000000e+00" cType="1" res="-3.7993182195350528e-04" rms="3.3236518502235413e-01" purity="2.4033978581428528e-01" nType="-99"/>
          <Node pos="r" depth="2" NCoef="0" IVar="-1" Cut="0.0000000000000000e+00" cType="1" res="1.5151742445596028e-05" rms="2.5713637471199036e-01" purity="9.1002142429351807e-01" nType="-99"/>
        </Node>
        <Node pos="r" depth="1" NCoef="0" IVar="4" Cut="5.3148199218750000e+04" cType="1" res="4.0255036950111389e-01" rms="4.9041163921356201e-01" purity="4.0255036950111389e-01" nType="0">
          <Node pos="l" depth="2" NCoef="0" IVar="-1" Cut="0.0000000000000000e+00" cType="1" res="1.8558790907263756e-04" rms="3.6865818500518799e-01" purity="3.1904587149620056e-01" nType="-99"/>
          <Node pos="r" depth="2" NCoef="0" IVar="-1" Cut="0.0000000000000000e+00" cType="1" res="1.2479439610615373e-03" rms="3.6556914448738098e-01" purity="8.2652103900909424e-01" nType="-99"/>
        </Node>
      </Node>
    </BinaryTree>
    <BinaryTree type="DecisionTree" boostWeight="1.0000000000000000e+00" itree="181">
      <Node pos="s" depth="0" NCoef="0" IVar="4" Cut="1.8405646484375000e+04" cType="1" res="5.9437036514282227e-01" rms="4.9116411805152893e-01" purity="5.9472489356994629e-01" nType="0">
        <Node pos="l" depth="1" NCoef="0" IVar="5" Cut="3.5443762500000000e+05" cType="1" res="1.9501605629920959e-01" rms="3.9621308445930481e-01" purity="1.9519314169883728e-01" nType="0">
          <Node pos="l" depth="2" NCoef="0" IVar="-1" Cut="0.0000000000000000e+00" cType="1" res="-1.8742099637165666e-03" rms="2.7375119924545288e-01" purity="1.0777835547924042e-01" nType="-99"/>
          <Node pos="r" depth="2" NCoef="0" IVar="-1" Cut="0.0000000000000000e+00" cType="1" res="3.6092565860599279e-03" rms="3.9340230822563171e-01" purity="6.2427878379821777e-01" nType="-99"/>
        </Node>
        <Node pos="r" depth="1" NCoef="0" IVar="4" Cut="2.7310359375000000e+04" cType="1" res="7.4366092681884766e-01" rms="4.3676817417144775e-01" purity="7.4408179521560669e-01" nType="0">
          <Node pos="l" depth="2" NCoef="0" IVar="-1" Cut="0.0000000000000000e+00" cType="1" res="1.1727280252671335e-05" rms="4.0081658959388733e-01" purity="8.1646603345870972e-01" nType="-99"/>
          <Node pos="r" depth="2" NCoef="0" IVar="-1" Cut="0.0000000000000000e+00" cType="1" res="1.7203866736963391e-03" rms="4.2757126688957214e-01" purity="6.2089556455612183e-01" nType="-99"/>
        </Node>
      </Node>
    </BinaryTree>
    <BinaryTree type="DecisionTree" boostWeight="1.0000000000000000e+00" itree="182">
      <Node pos="s" depth="0" NCoef="0" IVar="4" Cut="5.9117226562500000e+04" cType="1" res="3.8079807162284851e-01" rms="4.8588684201240540e-01" purity="3.8119849562644958e-01" nType="0">
        <Node pos="l" depth="1" NCoef="0" IVar="0" Cut="2.0000000000000000e+00" cType="1" res="8.3972507854923606e-04" rms="3.6641532182693481e-01" purity="3.1430858373641968e-01" nType="0">
          <Node pos="l" depth="2" NCoef="0" IVar="-1" Cut="0.0000000000000000e+00" cType="1" res="-2.6257713325321674e-03" rms="3.5046592354774475e-01" purity="1.6900329291820526e-01" nType="-99"/>
          <Node pos="r" depth="2" NCoef="0" IVar="-1" Cut="0.0000000000000000e+00" cType="1" res="3.5367349628359079e-03" rms="3.9066314697265625e-01" purity="8.0624043941497803e-01" nType="-99"/>
        </Node>
        <Node pos="r" depth="1" NCoef="0" IVar="4" Cut="7.5582085937500000e+04" cType="1" res="8.4307819604873657e-01" rms="3.6444571614265442e-01" purity="8.4443598985671997e-01" nType="0">
          <Node pos="l" depth="2" NCoef="0" IVar="-1" Cut="0.0000000000000000e+00" cType="1" res="2.6957620866596699e-03" rms="4.0689107775688171e-01" purity="7.7448040246963501e-01" nType="-99"/>
          <Node pos="r" depth="2" NCoef="0" IVar="-1" Cut="0.0000000000000000e+00" cType="1" res="2.3652238305658102e-03" rms="3.1259837746620178e-01" purity="8.8558077812194824e-01" nType="-99"/>
        </Node>
      </Node>
    </BinaryTree>
    <BinaryTree type="DecisionTree" boostWeight="1.0000000000000000e+00" itree="183">
      <Node pos="s" depth="0" NCoef="0" IVar="4" Cut="1.8561316406250000e+04" cType="1" res="5.4666543006896973e-01" rms="4.9781757593154907e-01" purity="5.4666543006896973e-01" nType="0">
        <Node pos="l" depth="1" NCoef="0" IVar="0" Cut="1.0000000000000000e+00" cType="1" res="-5.6739496067166328e-03" rms="2.8575748205184937e-01" purity="1.8341812491416931e-01" nType="0">
          <Node pos="l" depth="2" NCoef="0" IVar="-1" Cut="0.0000000000000000e+00" cType="1" res="-1.0755380615592003e-02" rms="1.8218445777893066e-01" purity="3.4566439688205719e-02" nType="-99"/>
          <Node pos="r" depth="2" NCoef="0" IVar="-1" Cut="0.0000000000000000e+00" cType="1" res="2.1764994598925114e-03" rms="3.8728961348533630e-01" purity="4.0161177515983582e-01" nType="-99"/>
        </Node>
        <Node pos="r" depth="1" NCoef="0" IVar="4" Cut="2.7557050781250000e+04" cType="1" res="7.0395898818969727e-01" rms="4.5650929212570190e-01" purity="7.0395898818969727e-01" nType="0">
          <Node pos="l" depth="2" NCoef="0" IVar="-1" Cut="0.0000000000000000e+00" cType="1" res="1.0868598110391758e-05" rms="4.3191498517990112e-01" purity="7.6296609640121460e-01" nType="-99"/>
          <Node pos="r" depth="2" NCoef="0" IVar="-1" Cut="0.0000000000000000e+00" cType="1" res="1.1492600897327065e-03" rms="4.2893901467323303e-01" purity="6.2675112485885620e-01" nType="-99"/>
        </Node>
      </Node>
    </BinaryTree>
    <BinaryTree type="DecisionTree" boostWeight="1.0000000000000000e+00" itree="184">
      <Node pos="s" depth="0" NCoef="0" IVar="4" Cut="1.8374689453125000e+04" cType="1" res="6.2297135591506958e-01" rms="4.8464217782020569e-01" purity="6.2303632497787476e-01" nType="0">
        <Node pos="l" depth="1" NCoef="0" IVar="0" Cut="1.0000000000000000e+00" cType="1" res="-6.8615784402936697e-04" rms="2.9254862666130066e-01" purity="1.8899343907833099e-01" nType="0">
          <Node pos="l" depth="2" NCoef="0" IVar="-1" Cut="0.0000000000000000e+00" cType="1" res="-6.3953446224331856e-03" rms="2.0362980663776398e-01" purity="4.3299254029989243e-02" nType="-99"/>
          <Node pos="r" depth="2" NCoef="0" IVar="-1" Cut="0.0000000000000000e+00" cType="1" res="1.7956485971808434e-03" rms="3.8501679897308350e-01" purity="4.0129455924034119e-01" nType="-99"/>
        </Node>
        <Node pos="r" depth="1" NCoef="0" IVar="4" Cut="2.7279314453125000e+04" cType="1" res="7.6853483915328979e-01" rms="4.2176893353462219e-01" purity="7.6862156391143799e-01" nType="0">
          <Node pos="l" depth="2" NCoef="0" IVar="-1" Cut="0.0000000000000000e+00" cType="1" res="1.2209657143102959e-05" rms="3.7470513582229614e-01" purity="8.4379637241363525e-01" nType="-99"/>
          <Node pos="r" depth="2" NCoef="0" IVar="-1" Cut="0.0000000000000000e+00" cType="1" res="1.6365813789889216e-03" rms="4.2549595236778259e-01" purity="6.2258625030517578e-01" nType="-99"/>
        </Node>
      </Node>
    </BinaryTree>
    <BinaryTree type="DecisionTree" boostWeight="1.0000000000000000e+00" itree="185">
      <Node pos="s" depth="0" NCoef="0" IVar="4" Cut="5.0450804687500000e+04" cType="1" res="3.9231285452842712e-01" rms="4.8826578259468079e-01" purity="3.9231285452842712e-01" nType="0">
        <Node pos="l" depth="1" NCoef="0" IVar="0" Cut="3.0000000000000000e+00" cType="1" res="2.6020952500402927e-03" rms="3.6760377883911133e-01" purity="3.0500754714012146e-01" nType="0">
          <Node pos="l" depth="2" NCoef="0" IVar="-1" Cut="0.0000000000000000e+00" cType="1" res="-1.0326448827981949e-03" rms="3.6688759922981262e-01" purity="2.3998880386352539e-01" nType="-99"/>
          <Node pos="r" depth="2" NCoef="0" IVar="-1" Cut="0.0000000000000000e+00" cType="1" res="4.8158247955143452e-03" rms="3.1520330905914307e-01" purity="8.8961404561996460e-01" nType="-99"/>
        </Node>
        <Node pos="r" depth="1" NCoef="0" IVar="4" Cut="8.0024648437500000e+04" cType="1" res="8.1018924713134766e-01" rms="3.9215129613876343e-01" purity="8.1018930673599243e-01" nType="0">
          <Node pos="l" depth="2" NCoef="0" IVar="-1" Cut="0.0000000000000000e+00" cType="1" res="7.9838361125439405e-04" rms="4.1490781307220459e-01" purity="7.4374711513519287e-01" nType="-99"/>
          <Node pos="r" depth="2" NCoef="0" IVar="-1" Cut="0.0000000000000000e+00" cType="1" res="2.2927196696400642e-03" rms="2.9439768195152283e-01" purity="9.0168035030364990e-01" nType="-99"/>
        </Node>
      </Node>
    </BinaryTree>
    <BinaryTree type="DecisionTree" boostWeight="1.0000000000000000e+00" itree="186">
      <Node pos="s" depth="0" NCoef="0" IVar="4" Cut="5.3242925781250000e+04" cType="1" res="3.8412290811538696e-01" rms="4.8699811100959778e-01" purity="3.8490021228790283e-01" nType="0">
        <Node pos="l" depth="1" NCoef="0" IVar="0" Cut="3.0000000000000000e+00" cType="1" res="-2.5809828657656908e-03" rms="3.6204335093498230e-01" purity="3.0219906568527222e-01" nType="0">
          <Node pos="l" depth="2" NCoef="0" IVar="-1" Cut="0.0000000000000000e+00" cType="1" res="-1.7330759437754750e-03" rms="3.6073610186576843e-01" purity="2.3394435644149780e-01" nType="-99"/>
          <Node pos="r" depth="2" NCoef="0" IVar="-1" Cut="0.0000000000000000e+00" cType="1" res="4.6829017810523510e-03" rms="3.0764126777648926e-01" purity="8.9524155855178833e-01" nType="-99"/>
        </Node>
        <Node pos="r" depth="1" NCoef="0" IVar="4" Cut="7.5364703125000000e+04" cType="1" res="8.2333993911743164e-01" rms="3.8399153947830200e-01" purity="8.2649612426757812e-01" nType="0">
          <Node pos="l" depth="2" NCoef="0" IVar="-1" Cut="0.0000000000000000e+00" cType="1" res="6.0323491925373673e-04" rms="4.1865360736846924e-01" purity="7.4006032943725586e-01" nType="-99"/>
          <Node pos="r" depth="2" NCoef="0" IVar="-1" Cut="0.0000000000000000e+00" cType="1" res="2.2226031869649887e-03" rms="2.9627680778503418e-01" purity="9.0070241689682007e-01" nType="-99"/>
        </Node>
      </Node>
    </BinaryTree>
    <BinaryTree type="DecisionTree" boostWeight="1.0000000000000000e+00" itree="187">
      <Node pos="s" depth="0" NCoef="0" IVar="2" Cut="8.9708281250000000e+04" cType="1" res="5.2955007553100586e-01" rms="4.9928033351898193e-01" purity="5.2970415353775024e-01" nType="0">
        <Node pos="l" depth="1" NCoef="0" IVar="1" Cut="2.0309048437500000e+05" cType="1" res="7.5197845697402954e-01" rms="4.3203511834144592e-01" purity="7.5212591886520386e-01" nType="0">
          <Node pos="l" depth="2" NCoef="0" IVar="-1" Cut="0.0000000000000000e+00" cType="1" res="1.0757162272057030e-05" rms="2.6867678761482239e-01" purity="9.0343838930130005e-01" nType="-99"/>
          <Node pos="r" depth="2" NCoef="0" IVar="-1" Cut="0.0000000000000000e+00" cType="1" res="3.4215851337648928e-04" rms="3.7665900588035583e-01" purity="4.7830194234848022e-01" nType="-99"/>
        </Node>
        <Node pos="r" depth="1" NCoef="0" IVar="4" Cut="5.0450804687500000e+04" cType="1" res="3.7895226478576660e-01" rms="4.8512622714042664e-01" purity="3.7911078333854675e-01" nType="0">
          <Node pos="l" depth="2" NCoef="0" IVar="-1" Cut="0.0000000000000000e+00" cType="1" res="-3.7052997504360974e-04" rms="3.5987839102745056e-01" purity="2.9263988137245178e-01" nType="-99"/>
          <Node pos="r" depth="2" NCoef="0" IVar="-1" Cut="0.0000000000000000e+00" cType="1" res="2.2147234994918108e-03" rms="3.7803754210472107e-01" purity="8.0151134729385376e-01" nType="-99"/>
        </Node>
      </Node>
    </BinaryTree>
    <BinaryTree type="DecisionTree" boostWeight="1.0000000000000000e+00" itree="188">
      <Node pos="s" depth="0" NCoef="0" IVar="2" Cut="8.9637539062500000e+04" cType="1" res="4.4433927536010742e-01" rms="4.9723708629608154e-01" purity="4.4481843709945679e-01" nType="0">
        <Node pos="l" depth="1" NCoef="0" IVar="2" Cut="8.9402945312500000e+04" cType="1" res="5.9713810682296753e-01" rms="4.9047341942787170e-01" purity="5.9744155406951904e-01" nType="0">
          <Node pos="l" depth="2" NCoef="0" IVar="-1" Cut="0.0000000000000000e+00" cType="1" res="9.7263773204758763e-04" rms="3.7959814071655273e-01" purity="3.6751744151115417e-01" nType="-99"/>
          <Node pos="r" depth="2" NCoef="0" IVar="-1" Cut="0.0000000000000000e+00" cType="1" res="1.5656078176107258e-05" rms="3.2433551549911499e-01" purity="8.7322336435317993e-01" nType="-99"/>
        </Node>
        <Node pos="r" depth="1" NCoef="0" IVar="0" Cut="1.0000000000000000e+00" cType="1" res="2.9918964952230453e-02" rms="3.7137088179588318e-01" purity="3.8479009270668030e-01" nType="0">
          <Node pos="l" depth="2" NCoef="0" IVar="-1" Cut="0.0000000000000000e+00" cType="1" res="-2.8589123394340277e-03" rms="2.9843366146087646e-01" purity="1.3814276456832886e-01" nType="-99"/>
          <Node pos="r" depth="2" NCoef="0" IVar="-1" Cut="0.0000000000000000e+00" cType="1" res="2.4093552492558956e-03" rms="4.1093596816062927e-01" purity="5.9036260843276978e-01" nType="-99"/>
        </Node>
      </Node>
    </BinaryTree>
    <BinaryTree type="DecisionTree" boostWeight="1.0000000000000000e+00" itree="189">
      <Node pos="s" depth="0" NCoef="0" IVar="1" Cut="2.0240409375000000e+05" cType="1" res="5.2220523357391357e-01" rms="4.9991196393966675e-01" purity="5.2267020940780640e-01" nType="0">
        <Node pos="l" depth="1" NCoef="0" IVar="2" Cut="8.9636281250000000e+04" cType="1" res="2.9053485393524170e-01" rms="4.6179917454719543e-01" purity="7.2879183292388916e-01" nType="0">
          <Node pos="l" depth="2" NCoef="0" IVar="-1" Cut="0.0000000000000000e+00" cType="1" res="1.0785303857119288e-05" rms="2.5736778974533081e-01" purity="9.1325360536575317e-01" nType="-99"/>
          <Node pos="r" depth="2" NCoef="0" IVar="-1" Cut="0.0000000000000000e+00" cType="1" res="-2.6092086918652058e-03" rms="3.2881855964660645e-01" purity="2.0446039736270905e-01" nType="-99"/>
        </Node>
        <Node pos="r" depth="1" NCoef="0" IVar="4" Cut="4.1723335937500000e+04" cType="1" res="4.1098934412002563e-01" rms="4.9249637126922607e-01" purity="4.1155725717544556e-01" nType="0">
          <Node pos="l" depth="2" NCoef="0" IVar="-1" Cut="0.0000000000000000e+00" cType="1" res="-2.0620712894015014e-04" rms="3.6485990881919861e-01" purity="3.0186131596565247e-01" nType="-99"/>
          <Node pos="r" depth="2" NCoef="0" IVar="-1" Cut="0.0000000000000000e+00" cType="1" res="1.2758448719978333e-03" rms="4.0095514059066772e-01" purity="7.5096577405929565e-01" nType="-99"/>
        </Node>
      </Node>
    </BinaryTree>
    <BinaryTree type="DecisionTree" boostWeight="1.0000000000000000e+00" itree="190">
      <Node pos="s" depth="0" NCoef="0" IVar="2" Cut="8.9685406250000000e+04" cType="1" res="4.4807440042495728e-01" rms="4.9729642271995544e-01" purity="4.4807440042495728e-01" nType="0">
        <Node pos="l" depth="1" NCoef="0" IVar="2" Cut="8.9451601562500000e+04" cType="1" res="6.0178470611572266e-01" rms="4.8953026533126831e-01" purity="6.0178470611572266e-01" nType="0">
          <Node pos="l" depth="2" NCoef="0" IVar="-1" Cut="0.0000000000000000e+00" cType="1" res="7.1728014154359698e-04" rms="3.7525400519371033e-01" purity="3.6123156547546387e-01" nType="-99"/>
          <Node pos="r" depth="2" NCoef="0" IVar="-1" Cut="0.0000000000000000e+00" cType="1" res="1.6152120224433020e-05" rms="3.2431560754776001e-01" purity="8.7278890609741211e-01" nType="-99"/>
        </Node>
        <Node pos="r" depth="1" NCoef="0" IVar="4" Cut="6.2020578125000000e+04" cType="1" res="3.8538876175880432e-01" rms="4.8668703436851501e-01" purity="3.8538876175880432e-01" nType="0">
          <Node pos="l" depth="2" NCoef="0" IVar="-1" Cut="0.0000000000000000e+00" cType="1" res="1.1960988922510296e-04" rms="3.6509671807289124e-01" purity="3.1819626688957214e-01" nType="-99"/>
          <Node pos="r" depth="2" NCoef="0" IVar="-1" Cut="0.0000000000000000e+00" cType="1" res="2.1287815179675817e-03" rms="3.4178817272186279e-01" purity="8.5835123062133789e-01" nType="-99"/>
        </Node>
      </Node>
    </BinaryTree>
    <BinaryTree type="DecisionTree" boostWeight="1.0000000000000000e+00" itree="191">
      <Node pos="s" depth="0" NCoef="0" IVar="1" Cut="1.9097787500000000e+05" cType="1" res="4.4513598084449768e-01" rms="4.9698081612586975e-01" purity="4.4513595104217529e-01" nType="0">
        <Node pos="l" depth="1" NCoef="0" IVar="-1" Cut="0.0000000000000000e+00" cType="1" res="1.4860523151583038e-05" rms="4.0842914581298828e-01" purity="7.0932722091674805e-01" nType="-99"/>
        <Node pos="r" depth="1" NCoef="0" IVar="4" Cut="4.5901128906250000e+04" cType="1" res="3.9640522003173828e-01" rms="4.8915040493011475e-01" purity="3.9640522003173828e-01" nType="0">
          <Node pos="l" depth="2" NCoef="0" IVar="-1" Cut="0.0000000000000000e+00" cType="1" res="-2.3172031797003001e-04" rms="3.6149480938911438e-01" purity="2.9092192649841309e-01" nType="-99"/>
          <Node pos="r" depth="2" NCoef="0" IVar="-1" Cut="0.0000000000000000e+00" cType="1" res="1.3047192478552461e-03" rms="3.8203093409538269e-01" purity="7.9104918241500854e-01" nType="-99"/>
        </Node>
      </Node>
    </BinaryTree>
    <BinaryTree type="DecisionTree" boostWeight="1.0000000000000000e+00" itree="192">
      <Node pos="s" depth="0" NCoef="0" IVar="4" Cut="5.0450804687500000e+04" cType="1" res="3.8287964463233948e-01" rms="4.8641997575759888e-01" purity="3.8349068164825439e-01" nType="0">
        <Node pos="l" depth="1" NCoef="0" IVar="0" Cut="1.0000000000000000e+00" cType="1" res="-1.0846819495782256e-03" rms="3.6338761448860168e-01" purity="3.0103877186775208e-01" nType="0">
          <Node pos="l" depth="2" NCoef="0" IVar="-1" Cut="0.0000000000000000e+00" cType="1" res="-5.6860693730413914e-03" rms="2.7891582250595093e-01" purity="8.5028052330017090e-02" nType="-99"/>
          <Node pos="r" depth="2" NCoef="0" IVar="-1" Cut="0.0000000000000000e+00" cType="1" res="2.2968982812017202e-03" rms="4.2224392294883728e-01" purity="5.1826190948486328e-01" nType="-99"/>
        </Node>
        <Node pos="r" depth="1" NCoef="0" IVar="4" Cut="8.0025023437500000e+04" cType="1" res="7.9760289192199707e-01" rms="4.0277189016342163e-01" purity="8.0014771223068237e-01" nType="0">
          <Node pos="l" depth="2" NCoef="0" IVar="-1" Cut="0.0000000000000000e+00" cType="1" res="7.1812671376392245e-04" rms="4.2342472076416016e-01" purity="7.3005342483520508e-01" nType="-99"/>
          <Node pos="r" depth="2" NCoef="0" IVar="-1" Cut="0.0000000000000000e+00" cType="1" res="2.6261536404490471e-03" rms="2.9810026288032532e-01" purity="8.9912945032119751e-01" nType="-99"/>
        </Node>
      </Node>
    </BinaryTree>
    <BinaryTree type="DecisionTree" boostWeight="1.0000000000000000e+00" itree="193">
      <Node pos="s" depth="0" NCoef="0" IVar="3" Cut="9.5950960937500000e+04" cType="1" res="4.7856274247169495e-01" rms="5.0025749206542969e-01" purity="4.7936841845512390e-01" nType="0">
        <Node pos="l" depth="1" NCoef="0" IVar="5" Cut="3.9787528125000000e+05" cType="1" res="3.7587955594062805e-01" rms="4.8535183072090149e-01" purity="3.7697190046310425e-01" nType="0">
          <Node pos="l" depth="2" NCoef="0" IVar="-1" Cut="0.0000000000000000e+00" cType="1" res="-5.4015475325286388e-04" rms="3.6081713438034058e-01" purity="2.5569865107536316e-01" nType="-99"/>
          <Node pos="r" depth="2" NCoef="0" IVar="-1" Cut="0.0000000000000000e+00" cType="1" res="3.5839651245623827e-03" rms="3.6684429645538330e-01" purity="7.8050667047500610e-01" nType="-99"/>
        </Node>
        <Node pos="r" depth="1" NCoef="0" IVar="2" Cut="8.9290359375000000e+04" cType="1" res="7.6713973283767700e-01" rms="4.2265397310256958e-01" purity="7.6713973283767700e-01" nType="0">
          <Node pos="l" depth="2" NCoef="0" IVar="-1" Cut="0.0000000000000000e+00" cType="1" res="9.5826799224596471e-06" rms="2.8303161263465881e-01" purity="9.0937894582748413e-01" nType="-99"/>
          <Node pos="r" depth="2" NCoef="0" IVar="-1" Cut="0.0000000000000000e+00" cType="1" res="6.8609282607212663e-04" rms="3.8429236412048340e-01" purity="3.8829126954078674e-01" nType="-99"/>
        </Node>
      </Node>
    </BinaryTree>
    <BinaryTree type="DecisionTree" boostWeight="1.0000000000000000e+00" itree="194">
      <Node pos="s" depth="0" NCoef="0" IVar="4" Cut="1.7878488281250000e+04" cType="1" res="5.4147660732269287e-01" rms="4.9838638305664062e-01" purity="5.4158586263656616e-01" nType="0">
        <Node pos="l" depth="1" NCoef="0" IVar="0" Cut="1.0000000000000000e+00" cType="1" res="3.1385247129946947e-03" rms="2.9140648245811462e-01" purity="1.9262073934078217e-01" nType="0">
          <Node pos="l" depth="2" NCoef="0" IVar="-1" Cut="0.0000000000000000e+00" cType="1" res="-7.7177267521619797e-03" rms="1.9703710079193115e-01" purity="4.0478672832250595e-02" nType="-99"/>
          <Node pos="r" depth="2" NCoef="0" IVar="-1" Cut="0.0000000000000000e+00" cType="1" res="2.4477452971041203e-03" rms="3.8719210028648376e-01" purity="4.1458874940872192e-01" nType="-99"/>
        </Node>
        <Node pos="r" depth="1" NCoef="0" IVar="4" Cut="2.6543646484375000e+04" cType="1" res="6.8694901466369629e-01" rms="4.6390184760093689e-01" purity="6.8710386753082275e-01" nType="0">
          <Node pos="l" depth="2" NCoef="0" IVar="-1" Cut="0.0000000000000000e+00" cType="1" res="1.0991380804625805e-05" rms="4.2980927228927612e-01" purity="7.5838899612426758e-01" nType="-99"/>
          <Node pos="r" depth="2" NCoef="0" IVar="-1" Cut="0.0000000000000000e+00" cType="1" res="8.6411181837320328e-04" rms="4.2627325654029846e-01" purity="5.9530860185623169e-01" nType="-99"/>
        </Node>
      </Node>
    </BinaryTree>
    <BinaryTree type="DecisionTree" boostWeight="1.0000000000000000e+00" itree="195">
      <Node pos="s" depth="0" NCoef="0" IVar="5" Cut="1.6159846875000000e+05" cType="1" res="4.7979840636253357e-01" rms="5.0021147727966309e-01" purity="4.8052012920379639e-01" nType="0">
        <Node pos="l" depth="1" NCoef="0" IVar="-1" Cut="0.0000000000000000e+00" cType="1" res="8.9266732175019570e-06" rms="3.6517065763473511e-01" purity="7.5207620859146118e-01" nType="-99"/>
        <Node pos="r" depth="1" NCoef="0" IVar="4" Cut="5.5631488281250000e+04" cType="1" res="4.0528717637062073e-01" rms="4.9175062775611877e-01" purity="4.0620645880699158e-01" nType="0">
          <Node pos="l" depth="2" NCoef="0" IVar="-1" Cut="0.0000000000000000e+00" cType="1" res="5.5351271294057369e-04" rms="3.7727117538452148e-01" purity="3.3425539731979370e-01" nType="-99"/>
          <Node pos="r" depth="2" NCoef="0" IVar="-1" Cut="0.0000000000000000e+00" cType="1" res="2.4438339751213789e-03" rms="3.6749166250228882e-01" purity="8.2728409767150879e-01" nType="-99"/>
        </Node>
      </Node>
    </BinaryTree>
    <BinaryTree type="DecisionTree" boostWeight="1.0000000000000000e+00" itree="196">
      <Node pos="s" depth="0" NCoef="0" IVar="2" Cut="8.9620179687500000e+04" cType="1" res="5.2848798036575317e-01" rms="4.9984475970268250e-01" purity="5.2914434671401978e-01" nType="0">
        <Node pos="l" depth="1" NCoef="0" IVar="2" Cut="8.9266320312500000e+04" cType="1" res="7.4842536449432373e-01" rms="4.3462291359901428e-01" purity="7.4903762340545654e-01" nType="0">
          <Node pos="l" depth="2" NCoef="0" IVar="-1" Cut="0.0000000000000000e+00" cType="1" res="6.9657410494983196e-04" rms="3.7367969751358032e-01" purity="3.5761955380439758e-01" nType="-99"/>
          <Node pos="r" depth="2" NCoef="0" IVar="-1" Cut="0.0000000000000000e+00" cType="1" res="1.1002089195244480e-05" rms="2.6051321625709534e-01" purity="9.2271262407302856e-01" nType="-99"/>
        </Node>
        <Node pos="r" depth="1" NCoef="0" IVar="4" Cut="5.8002761718750000e+04" cType="1" res="3.9339742064476013e-01" rms="4.8920276761054993e-01" purity="3.9408087730407715e-01" nType="0">
          <Node pos="l" depth="2" NCoef="0" IVar="-1" Cut="0.0000000000000000e+00" cType="1" res="6.5281950810458511e-05" rms="3.6392396688461304e-01" purity="3.1472146511077881e-01" nType="-99"/>
          <Node pos="r" depth="2" NCoef="0" IVar="-1" Cut="0.0000000000000000e+00" cType="1" res="2.2055504377931356e-03" rms="3.3790782094001770e-01" purity="8.6036682128906250e-01" nType="-99"/>
        </Node>
      </Node>
    </BinaryTree>
    <BinaryTree type="DecisionTree" boostWeight="1.0000000000000000e+00" itree="197">
      <Node pos="s" depth="0" NCoef="0" IVar="5" Cut="1.5990256250000000e+05" cType="1" res="3.7951219081878662e+00" rms="0.0000000000000000e+00" purity="6.2400281429290771e-01" nType="0">
        <Node pos="l" depth="1" NCoef="0" IVar="-1" Cut="0.0000000000000000e+00" cType="1" res="9.1095644165761769e-06" rms="2.8884115815162659e-01" purity="8.6633557081222534e-01" nType="-99"/>
        <Node pos="r" depth="1" NCoef="0" IVar="3" Cut="8.9426703125000000e+04" cType="1" res="0.0000000000000000e+00" rms="1.4797765216514867e+17" purity="5.3633743524551392e-01" nType="0">
          <Node pos="l" depth="2" NCoef="0" IVar="-1" Cut="0.0000000000000000e+00" cType="1" res="1.6289934137603268e-05" rms="4.5583623647689819e-01" purity="6.3877940177917480e-01" nType="-99"/>
          <Node pos="r" depth="2" NCoef="0" IVar="-1" Cut="0.0000000000000000e+00" cType="1" res="7.6219602487981319e-04" rms="3.7668156623840332e-01" purity="3.9195898175239563e-01" nType="-99"/>
        </Node>
      </Node>
    </BinaryTree>
    <BinaryTree type="DecisionTree" boostWeight="1.0000000000000000e+00" itree="198">
      <Node pos="s" depth="0" NCoef="0" IVar="3" Cut="9.5951070312500000e+04" cType="1" res="5.5147278308868408e-01" rms="4.9734348058700562e-01" purity="5.5147284269332886e-01" nType="0">
        <Node pos="l" depth="1" NCoef="0" IVar="4" Cut="4.1413183593750000e+04" cType="1" res="3.8083729147911072e-01" rms="4.8559269309043884e-01" purity="3.8083729147911072e-01" nType="0">
          <Node pos="l" depth="2" NCoef="0" IVar="-1" Cut="0.0000000000000000e+00" cType="1" res="-6.4703618409112096e-04" rms="3.4804609417915344e-01" purity="2.7361676096916199e-01" nType="-99"/>
          <Node pos="r" depth="2" NCoef="0" IVar="-1" Cut="0.0000000000000000e+00" cType="1" res="2.2949294652789831e-03" rms="4.0922957658767700e-01" purity="7.3668712377548218e-01" nType="-99"/>
        </Node>
        <Node pos="r" depth="1" NCoef="0" IVar="3" Cut="9.6770148437500000e+04" cType="1" res="8.5372942686080933e-01" rms="3.5337728261947632e-01" purity="8.5372942686080933e-01" nType="0">
          <Node pos="l" depth="2" NCoef="0" IVar="-1" Cut="0.0000000000000000e+00" cType="1" res="9.3042417574906722e-06" rms="2.1138602495193481e-01" purity="9.5320719480514526e-01" nType="-99"/>
          <Node pos="r" depth="2" NCoef="0" IVar="-1" Cut="0.0000000000000000e+00" cType="1" res="1.3523532543331385e-03" rms="4.0574166178703308e-01" purity="4.0496084094047546e-01" nType="-99"/>
        </Node>
      </Node>
    </BinaryTree>
    <BinaryTree type="DecisionTree" boostWeight="1.0000000000000000e+00" itree="199">
      <Node pos="s" depth="0" NCoef="0" IVar="4" Cut="7.4138531250000000e+04" cType="1" res="3.8566827774047852e-01" rms="4.8675277829170227e-01" purity="3.8566827774047852e-01" nType="0">
        <Node pos="l" depth="1" NCoef="0" IVar="0" Cut="3.0000000000000000e+00" cType="1" res="9.4679985195398331e-03" rms="3.7438404560089111e-01" purity="3.3571335673332214e-01" nType="0">
          <Node pos="l" depth="2" NCoef="0" IVar="-1" Cut="0.0000000000000000e+00" cType="1" res="-6.3302612397819757e-04" rms="3.7532985210418701e-01" purity="2.6832488179206848e-01" nType="-99"/>
          <Node pos="r" depth="2" NCoef="0" IVar="-1" Cut="0.0000000000000000e+00" cType="1" res="5.2622477523982525e-03" rms="3.1069967150688171e-01" purity="8.9288270473480225e-01" nType="-99"/>
        </Node>
        <Node pos="r" depth="1" NCoef="0" IVar="-1" Cut="0.0000000000000000e+00" cType="1" res="2.2469847463071346e-03" rms="3.0177500844001770e-01" purity="8.9669203758239746e-01" nType="-99"/>
      </Node>
    </BinaryTree>
    <BinaryTree type="DecisionTree" boostWeight="1.0000000000000000e+00" itree="200">
      <Node pos="s" depth="0" NCoef="0" IVar="4" Cut="1.8593867187500000e+04" cType="1" res="5.9346336126327515e-01" rms="4.9118694663047791e-01" purity="5.9346330165863037e-01" nType="0">
        <Node pos="l" depth="1" NCoef="0" IVar="0" Cut="1.0000000000000000e+00" cType="1" res="8.3696322690229863e-05" rms="2.9206746816635132e-01" purity="1.8272733688354492e-01" nType="0">
          <Node pos="l" depth="2" NCoef="0" IVar="-1" Cut="0.0000000000000000e+00" cType="1" res="-7.7941580675542355e-03" rms="1.8815051019191742e-01" purity="3.6592885851860046e-02" nType="-99"/>
          <Node pos="r" depth="2" NCoef="0" IVar="-1" Cut="0.0000000000000000e+00" cType="1" res="2.3496996145695448e-03" rms="3.9590263366699219e-01" purity="3.9962136745452881e-01" nType="-99"/>
        </Node>
        <Node pos="r" depth="1" NCoef="0" IVar="4" Cut="2.7588890625000000e+04" cType="1" res="7.4704110622406006e-01" rms="4.3470758199691772e-01" purity="7.4704116582870483e-01" nType="0">
          <Node pos="l" depth="2" NCoef="0" IVar="-1" Cut="0.0000000000000000e+00" cType="1" res="1.1999743037449662e-05" rms="4.0125155448913574e-01" purity="8.1782460212707520e-01" nType="-99"/>
          <Node pos="r" depth="2" NCoef="0" IVar="-1" Cut="0.0000000000000000e+00" cType="1" res="1.1273158015683293e-03" rms="4.2442134022712708e-01" purity="6.2433773279190063e-01" nType="-99"/>
        </Node>
      </Node>
    </BinaryTree>
    <BinaryTree type="DecisionTree" boostWeight="1.0000000000000000e+00" itree="201">
      <Node pos="s" depth="0" NCoef="0" IVar="2" Cut="8.9637539062500000e+04" cType="1" res="4.4963091611862183e-01" rms="4.9745649099349976e-01" purity="4.4972452521324158e-01" nType="0">
        <Node pos="l" depth="1" NCoef="0" IVar="2" Cut="8.9402867187500000e+04" cType="1" res="6.0102009773254395e-01" rms="4.8968863487243652e-01" purity="6.0102003812789917e-01" nType="0">
          <Node pos="l" depth="2" NCoef="0" IVar="-1" Cut="0.0000000000000000e+00" cType="1" res="8.0799858551472425e-04" rms="3.6822593212127686e-01" purity="3.8366210460662842e-01" nType="-99"/>
          <Node pos="r" depth="2" NCoef="0" IVar="-1" Cut="0.0000000000000000e+00" cType="1" res="1.5791341866133735e-05" rms="3.3161896467208862e-01" purity="8.6525720357894897e-01" nType="-99"/>
        </Node>
        <Node pos="r" depth="1" NCoef="0" IVar="4" Cut="5.5631488281250000e+04" cType="1" res="3.8936597108840942e-01" rms="4.8792234063148499e-01" purity="3.8980475068092346e-01" nType="0">
          <Node pos="l" depth="2" NCoef="0" IVar="-1" Cut="0.0000000000000000e+00" cType="1" res="-2.3663329557166435e-05" rms="3.6597961187362671e-01" purity="3.1216824054718018e-01" nType="-99"/>
          <Node pos="r" depth="2" NCoef="0" IVar="-1" Cut="0.0000000000000000e+00" cType="1" res="2.1554268896579742e-03" rms="3.5195174813270569e-01" purity="8.4463196992874146e-01" nType="-99"/>
        </Node>
      </Node>
    </BinaryTree>
    <BinaryTree type="DecisionTree" boostWeight="1.0000000000000000e+00" itree="202">
      <Node pos="s" depth="0" NCoef="0" IVar="4" Cut="1.7767003906250000e+04" cType="1" res="6.2587159872055054e-01" rms="4.8406264185905457e-01" purity="6.2609606981277466e-01" nType="0">
        <Node pos="l" depth="1" NCoef="0" IVar="5" Cut="2.1284460937500000e+05" cType="1" res="1.9281786680221558e-01" rms="3.9451125264167786e-01" purity="1.9300453364849091e-01" nType="0">
          <Node pos="l" depth="2" NCoef="0" IVar="-1" Cut="0.0000000000000000e+00" cType="1" res="-7.4129039421677589e-03" rms="1.8643192946910858e-01" purity="3.6344423890113831e-02" nType="-99"/>
          <Node pos="r" depth="2" NCoef="0" IVar="-1" Cut="0.0000000000000000e+00" cType="1" res="2.4691012222319841e-03" rms="3.7516430020332336e-01" purity="3.4297722578048706e-01" nType="-99"/>
        </Node>
        <Node pos="r" depth="1" NCoef="0" IVar="4" Cut="2.9330085937500000e+04" cType="1" res="7.6305669546127319e-01" rms="4.2538583278656006e-01" purity="7.6329314708709717e-01" nType="0">
          <Node pos="l" depth="2" NCoef="0" IVar="-1" Cut="0.0000000000000000e+00" cType="1" res="1.2406238056428265e-05" rms="4.0470954775810242e-01" purity="8.1396257877349854e-01" nType="-99"/>
          <Node pos="r" depth="2" NCoef="0" IVar="-1" Cut="0.0000000000000000e+00" cType="1" res="1.1492208577692509e-03" rms="4.1739472746849060e-01" purity="6.5165704488754272e-01" nType="-99"/>
        </Node>
      </Node>
    </BinaryTree>
    <BinaryTree type="DecisionTree" boostWeight="1.0000000000000000e+00" itree="203">
      <Node pos="s" depth="0" NCoef="0" IVar="5" Cut="1.5990256250000000e+05" cType="1" res="4.8096692562103271e-01" rms="4.9981960654258728e-01" purity="4.8114880919456482e-01" nType="0">
        <Node pos="l" depth="1" NCoef="0" IVar="-1" Cut="0.0000000000000000e+00" cType="1" res="8.9383038357482292e-06" rms="3.5288006067276001e-01" purity="7.7711939811706543e-01" nType="-99"/>
        <Node pos="r" depth="1" NCoef="0" IVar="0" Cut="2.0000000000000000e+00" cType="1" res="3.3554725348949432e-02" rms="3.7870475649833679e-01" purity="4.0287384390830994e-01" nType="0">
          <Node pos="l" depth="2" NCoef="0" IVar="-1" Cut="0.0000000000000000e+00" cType="1" res="-4.4861799688078463e-04" rms="3.7237659096717834e-01" purity="2.3614111542701721e-01" nType="-99"/>
          <Node pos="r" depth="2" NCoef="0" IVar="-1" Cut="0.0000000000000000e+00" cType="1" res="3.4067952074110508e-03" rms="3.7241411209106445e-01" purity="8.2999604940414429e-01" nType="-99"/>
        </Node>
      </Node>
    </BinaryTree>
    <BinaryTree type="DecisionTree" boostWeight="1.0000000000000000e+00" itree="204">
      <Node pos="s" depth="0" NCoef="0" IVar="4" Cut="5.0480183593750000e+04" cType="1" res="3.9185711741447449e-01" rms="4.8816505074501038e-01" purity="3.9185708761215210e-01" nType="0">
        <Node pos="l" depth="1" NCoef="0" IVar="0" Cut="1.0000000000000000e+00" cType="1" res="2.3626596666872501e-03" rms="3.6486521363258362e-01" purity="3.0224314332008362e-01" nType="0">
          <Node pos="l" depth="2" NCoef="0" IVar="-1" Cut="0.0000000000000000e+00" cType="1" res="-5.4147723130881786e-03" rms="2.8416150808334351e-01" purity="8.9521966874599457e-02" nType="-99"/>
          <Node pos="r" depth="2" NCoef="0" IVar="-1" Cut="0.0000000000000000e+00" cType="1" res="2.1060542203485966e-03" rms="4.2367982864379883e-01" purity="5.1891410350799561e-01" nType="-99"/>
        </Node>
        <Node pos="r" depth="1" NCoef="0" IVar="4" Cut="7.5828210937500000e+04" cType="1" res="8.1597143411636353e-01" rms="3.8750749826431274e-01" purity="8.1597137451171875e-01" nType="0">
          <Node pos="l" depth="2" NCoef="0" IVar="-1" Cut="0.0000000000000000e+00" cType="1" res="7.1421620668843389e-04" rms="4.1502723097801208e-01" purity="7.3858416080474854e-01" nType="-99"/>
          <Node pos="r" depth="2" NCoef="0" IVar="-1" Cut="0.0000000000000000e+00" cType="1" res="2.0227476488798857e-03" rms="2.9827332496643066e-01" purity="8.9828717708587646e-01" nType="-99"/>
        </Node>
      </Node>
    </BinaryTree>
    <BinaryTree type="DecisionTree" boostWeight="1.0000000000000000e+00" itree="205">
      <Node pos="s" depth="0" NCoef="0" IVar="3" Cut="8.9426851562500000e+04" cType="1" res="5.2202999591827393e-01" rms="4.9962541460990906e-01" purity="5.2214086055755615e-01" nType="0">
        <Node pos="l" depth="1" NCoef="0" IVar="3" Cut="8.8493437500000000e+04" cType="1" res="6.1226069927215576e-01" rms="4.8723456263542175e-01" purity="6.1226075887680054e-01" nType="0">
          <Node pos="l" depth="2" NCoef="0" IVar="-1" Cut="0.0000000000000000e+00" cType="1" res="5.8707210700958967e-04" rms="3.6922490596771240e-01" purity="3.9711979031562805e-01" nType="-99"/>
          <Node pos="r" depth="2" NCoef="0" IVar="-1" Cut="0.0000000000000000e+00" cType="1" res="1.5213832739391364e-05" rms="3.7677258253097534e-01" purity="8.3068376779556274e-01" nType="-99"/>
        </Node>
        <Node pos="r" depth="1" NCoef="0" IVar="4" Cut="3.6728785156250000e+04" cType="1" res="3.9688521623611450e-01" rms="4.8925182223320007e-01" purity="3.9726275205612183e-01" nType="0">
          <Node pos="l" depth="2" NCoef="0" IVar="-1" Cut="0.0000000000000000e+00" cType="1" res="-3.0494734528474510e-04" rms="3.5520499944686890e-01" purity="2.7790212631225586e-01" nType="-99"/>
          <Node pos="r" depth="2" NCoef="0" IVar="-1" Cut="0.0000000000000000e+00" cType="1" res="1.8406325252726674e-03" rms="4.1466069221496582e-01" purity="7.1115303039550781e-01" nType="-99"/>
        </Node>
      </Node>
    </BinaryTree>
    <BinaryTree type="DecisionTree" boostWeight="1.0000000000000000e+00" itree="206">
      <Node pos="s" depth="0" NCoef="0" IVar="2" Cut="8.9600773437500000e+04" cType="1" res="6.0948145389556885e-01" rms="4.8786658048629761e-01" purity="6.0948145389556885e-01" nType="0">
        <Node pos="l" depth="1" NCoef="0" IVar="2" Cut="8.9247859375000000e+04" cType="1" res="7.9926520586013794e-01" rms="4.0055003762245178e-01" purity="7.9926520586013794e-01" nType="0">
          <Node pos="l" depth="2" NCoef="0" IVar="-1" Cut="0.0000000000000000e+00" cType="1" res="1.0025642113760114e-03" rms="3.8228312134742737e-01" purity="3.8961797952651978e-01" nType="-99"/>
          <Node pos="r" depth="2" NCoef="0" IVar="-1" Cut="0.0000000000000000e+00" cType="1" res="1.2087810318917036e-05" rms="2.3061296343803406e-01" purity="9.4125562906265259e-01" nType="-99"/>
        </Node>
        <Node pos="r" depth="1" NCoef="0" IVar="5" Cut="2.5790625000000000e+05" cType="1" res="4.8930963873863220e-01" rms="5.0055688619613647e-01" purity="4.9011340737342834e-01" nType="0">
          <Node pos="l" depth="2" NCoef="0" IVar="-1" Cut="0.0000000000000000e+00" cType="1" res="-1.3214757200330496e-03" rms="3.2520884275436401e-01" purity="1.6137626767158508e-01" nType="-99"/>
          <Node pos="r" depth="2" NCoef="0" IVar="-1" Cut="0.0000000000000000e+00" cType="1" res="1.8417062165099196e-05" rms="4.6191677451133728e-01" purity="7.4112445116043091e-01" nType="-99"/>
        </Node>
      </Node>
    </BinaryTree>
    <BinaryTree type="DecisionTree" boostWeight="1.0000000000000000e+00" itree="207">
      <Node pos="s" depth="0" NCoef="0" IVar="3" Cut="9.5950968750000000e+04" cType="1" res="5.5389493703842163e-01" rms="4.9726998805999756e-01" purity="5.5407702922821045e-01" nType="0">
        <Node pos="l" depth="1" NCoef="0" IVar="4" Cut="6.5336796875000000e+04" cType="1" res="3.7957343459129333e-01" rms="4.8548430204391479e-01" purity="3.7977099418640137e-01" nType="0">
          <Node pos="l" depth="2" NCoef="0" IVar="-1" Cut="0.0000000000000000e+00" cType="1" res="-4.9113736167782918e-05" rms="3.6388248205184937e-01" purity="3.2084399461746216e-01" nType="-99"/>
          <Node pos="r" depth="2" NCoef="0" IVar="-1" Cut="0.0000000000000000e+00" cType="1" res="2.1065112669020891e-03" rms="3.3045884966850281e-01" purity="8.6986571550369263e-01" nType="-99"/>
        </Node>
        <Node pos="r" depth="1" NCoef="0" IVar="2" Cut="8.9384640625000000e+04" cType="1" res="8.5854160785675049e-01" rms="3.4871622920036316e-01" purity="8.5869669914245605e-01" nType="0">
          <Node pos="l" depth="2" NCoef="0" IVar="-1" Cut="0.0000000000000000e+00" cType="1" res="9.4532069851993583e-06" rms="2.1344973146915436e-01" purity="9.5211488008499146e-01" nType="-99"/>
          <Node pos="r" depth="2" NCoef="0" IVar="-1" Cut="0.0000000000000000e+00" cType="1" res="1.0692683281376958e-03" rms="3.8430410623550415e-01" purity="4.3882429599761963e-01" nType="-99"/>
        </Node>
      </Node>
    </BinaryTree>
    <BinaryTree type="DecisionTree" boostWeight="1.0000000000000000e+00" itree="208">
      <Node pos="s" depth="0" NCoef="0" IVar="5" Cut="2.5747637500000000e+05" cType="1" res="4.6973302960395813e-01" rms="4.9913874268531799e-01" purity="4.6985587477684021e-01" nType="0">
        <Node pos="l" depth="1" NCoef="0" IVar="5" Cut="2.2250121875000000e+05" cType="1" res="1.6074974834918976e-01" rms="3.6729997396469116e-01" purity="1.6074976325035095e-01" nType="0">
          <Node pos="l" depth="2" NCoef="0" IVar="-1" Cut="0.0000000000000000e+00" cType="1" res="-3.8374483119696379e-03" rms="2.8378999233245850e-01" purity="1.1372547596693039e-01" nType="-99"/>
          <Node pos="r" depth="2" NCoef="0" IVar="-1" Cut="0.0000000000000000e+00" cType="1" res="1.6331822844222188e-03" rms="4.1043555736541748e-01" purity="3.0603975057601929e-01" nType="-99"/>
        </Node>
        <Node pos="r" depth="1" NCoef="0" IVar="5" Cut="2.9027868750000000e+05" cType="1" res="7.2433644533157349e-01" rms="4.4696140289306641e-01" purity="7.2456061840057373e-01" nType="0">
          <Node pos="l" depth="2" NCoef="0" IVar="-1" Cut="0.0000000000000000e+00" cType="1" res="1.4814461792411748e-05" rms="4.4970870018005371e-01" purity="7.8927445411682129e-01" nType="-99"/>
          <Node pos="r" depth="2" NCoef="0" IVar="-1" Cut="0.0000000000000000e+00" cType="1" res="2.4426670279353857e-03" rms="3.9562979340553284e-01" purity="6.8373006582260132e-01" nType="-99"/>
        </Node>
      </Node>
    </BinaryTree>
    <BinaryTree type="DecisionTree" boostWeight="1.0000000000000000e+00" itree="209">
      <Node pos="s" depth="0" NCoef="0" IVar="1" Cut="1.8991192187500000e+05" cType="1" res="0.0000000000000000e+00" rms="6.7273175716400146e-01" purity="4.5256802439689636e-01" nType="0">
        <Node pos="l" depth="1" NCoef="0" IVar="-1" Cut="0.0000000000000000e+00" cType="1" res="1.5378660464193672e-05" rms="4.0025600790977478e-01" purity="7.3021095991134644e-01" nType="-99"/>
        <Node pos="r" depth="1" NCoef="0" IVar="4" Cut="5.1016566406250000e+04" cType="1" res="4.0361931920051575e-01" rms="4.9062284827232361e-01" purity="4.0361931920051575e-01" nType="0">
          <Node pos="l" depth="2" NCoef="0" IVar="-1" Cut="0.0000000000000000e+00" cType="1" res="2.2083913790993392e-04" rms="3.6473441123962402e-01" purity="3.1505775451660156e-01" nType="-99"/>
          <Node pos="r" depth="2" NCoef="0" IVar="-1" Cut="0.0000000000000000e+00" cType="1" res="1.1902588885277510e-03" rms="3.6652538180351257e-01" purity="8.2006853818893433e-01" nType="-99"/>
        </Node>
      </Node>
    </BinaryTree>
    <BinaryTree type="DecisionTree" boostWeight="1.0000000000000000e+00" itree="210">
      <Node pos="s" depth="0" NCoef="0" IVar="4" Cut="4.1413183593750000e+04" cType="1" res="3.9162078499794006e-01" rms="4.8811262845993042e-01" purity="3.9162078499794006e-01" nType="0">
        <Node pos="l" depth="1" NCoef="0" IVar="0" Cut="3.0000000000000000e+00" cType="1" res="-5.2637150511145592e-03" rms="3.5623726248741150e-01" purity="2.7792388200759888e-01" nType="0">
          <Node pos="l" depth="2" NCoef="0" IVar="-1" Cut="0.0000000000000000e+00" cType="1" res="-1.6393281985074282e-03" rms="3.5506495833396912e-01" purity="2.1873657405376434e-01" nType="-99"/>
          <Node pos="r" depth="2" NCoef="0" IVar="-1" Cut="0.0000000000000000e+00" cType="1" res="4.8162690363824368e-03" rms="3.1857392191886902e-01" purity="8.8619196414947510e-01" nType="-99"/>
        </Node>
        <Node pos="r" depth="1" NCoef="0" IVar="4" Cut="7.5097203125000000e+04" cType="1" res="7.5834435224533081e-01" rms="4.2808666825294495e-01" purity="7.5834435224533081e-01" nType="0">
          <Node pos="l" depth="2" NCoef="0" IVar="-1" Cut="0.0000000000000000e+00" cType="1" res="8.9485570788383484e-04" rms="4.3306723237037659e-01" purity="6.8260979652404785e-01" nType="-99"/>
          <Node pos="r" depth="2" NCoef="0" IVar="-1" Cut="0.0000000000000000e+00" cType="1" res="2.3113805800676346e-03" rms="2.9981493949890137e-01" purity="8.9702117443084717e-01" nType="-99"/>
        </Node>
      </Node>
    </BinaryTree>
    <BinaryTree type="DecisionTree" boostWeight="1.0000000000000000e+00" itree="211">
      <Node pos="s" depth="0" NCoef="0" IVar="4" Cut="5.8002761718750000e+04" cType="1" res="3.8783821463584900e-01" rms="4.8775389790534973e-01" purity="3.8832235336303711e-01" nType="0">
        <Node pos="l" depth="1" NCoef="0" IVar="0" Cut="3.0000000000000000e+00" cType="1" res="1.6992706805467606e-03" rms="3.6819133162498474e-01" purity="3.1481716036796570e-01" nType="0">
          <Node pos="l" depth="2" NCoef="0" IVar="-1" Cut="0.0000000000000000e+00" cType="1" res="-1.0757807176560163e-03" rms="3.6811357736587524e-01" purity="2.4845546483993530e-01" nType="-99"/>
          <Node pos="r" depth="2" NCoef="0" IVar="-1" Cut="0.0000000000000000e+00" cType="1" res="5.2684289403259754e-03" rms="3.1957873702049255e-01" purity="8.8552165031433105e-01" nType="-99"/>
        </Node>
        <Node pos="r" depth="1" NCoef="0" IVar="4" Cut="8.2291257812500000e+04" cType="1" res="8.4361428022384644e-01" rms="3.6503994464874268e-01" purity="8.4493917226791382e-01" nType="0">
          <Node pos="l" depth="2" NCoef="0" IVar="-1" Cut="0.0000000000000000e+00" cType="1" res="1.8989398377016187e-03" rms="4.0977242588996887e-01" purity="7.6625943183898926e-01" nType="-99"/>
          <Node pos="r" depth="2" NCoef="0" IVar="-1" Cut="0.0000000000000000e+00" cType="1" res="2.0596296526491642e-03" rms="2.8379046916961670e-01" purity="9.1019415855407715e-01" nType="-99"/>
        </Node>
      </Node>
    </BinaryTree>
    <BinaryTree type="DecisionTree" boostWeight="1.0000000000000000e+00" itree="212">
      <Node pos="s" depth="0" NCoef="0" IVar="4" Cut="6.5024402343750000e+04" cType="1" res="3.8691231608390808e-01" rms="4.8756933212280273e-01" purity="3.8742497563362122e-01" nType="0">
        <Node pos="l" depth="1" NCoef="0" IVar="0" Cut="2.0000000000000000e+00" cType="1" res="3.9803897961974144e-03" rms="3.6374336481094360e-01" purity="3.2802626490592957e-01" nType="0">
          <Node pos="l" depth="2" NCoef="0" IVar="-1" Cut="0.0000000000000000e+00" cType="1" res="-2.1946709603071213e-03" rms="3.4973633289337158e-01" purity="1.7440651357173920e-01" nType="-99"/>
          <Node pos="r" depth="2" NCoef="0" IVar="-1" Cut="0.0000000000000000e+00" cType="1" res="3.1371945515275002e-03" rms="3.8210791349411011e-01" purity="8.1594270467758179e-01" nType="-99"/>
        </Node>
        <Node pos="r" depth="1" NCoef="0" IVar="1" Cut="2.7684090625000000e+05" cType="1" res="8.6506652832031250e-01" rms="3.4240847826004028e-01" purity="8.6785495281219482e-01" nType="0">
          <Node pos="l" depth="2" NCoef="0" IVar="-1" Cut="0.0000000000000000e+00" cType="1" res="2.2504115477204323e-03" rms="3.7105047702789307e-01" purity="8.2930660247802734e-01" nType="-99"/>
          <Node pos="r" depth="2" NCoef="0" IVar="-1" Cut="0.0000000000000000e+00" cType="1" res="2.0630634389817715e-03" rms="3.0244150757789612e-01" purity="8.9692175388336182e-01" nType="-99"/>
        </Node>
      </Node>
    </BinaryTree>
    <BinaryTree type="DecisionTree" boostWeight="1.0000000000000000e+00" itree="213">
      <Node pos="s" depth="0" NCoef="0" IVar="4" Cut="1.8392562500000000e+04" cType="1" res="5.8401554822921753e-01" rms="4.9292933940887451e-01" purity="5.8405351638793945e-01" nType="0">
        <Node pos="l" depth="1" NCoef="0" IVar="5" Cut="4.6364987500000000e+05" cType="1" res="2.0074503123760223e-01" rms="4.0055769681930542e-01" purity="2.0074504613876343e-01" nType="0">
          <Node pos="l" depth="2" NCoef="0" IVar="-1" Cut="0.0000000000000000e+00" cType="1" res="-3.7374708335846663e-04" rms="2.8679385781288147e-01" purity="1.4754775166511536e-01" nType="-99"/>
          <Node pos="r" depth="2" NCoef="0" IVar="-1" Cut="0.0000000000000000e+00" cType="1" res="3.6805116105824709e-03" rms="3.6923155188560486e-01" purity="7.1899372339248657e-01" nType="-99"/>
        </Node>
        <Node pos="r" depth="1" NCoef="0" IVar="4" Cut="2.7296974609375000e+04" cType="1" res="7.3177552223205566e-01" rms="4.4309443235397339e-01" purity="7.3182809352874756e-01" nType="0">
          <Node pos="l" depth="2" NCoef="0" IVar="-1" Cut="0.0000000000000000e+00" cType="1" res="1.2046637493767776e-05" rms="4.0602117776870728e-01" purity="8.0186641216278076e-01" nType="-99"/>
          <Node pos="r" depth="2" NCoef="0" IVar="-1" Cut="0.0000000000000000e+00" cType="1" res="7.3894200613722205e-04" rms="4.1939586400985718e-01" purity="6.2176531553268433e-01" nType="-99"/>
        </Node>
      </Node>
    </BinaryTree>
    <BinaryTree type="DecisionTree" boostWeight="1.0000000000000000e+00" itree="214">
      <Node pos="s" depth="0" NCoef="0" IVar="4" Cut="1.8579189453125000e+04" cType="1" res="6.1197358369827271e-01" rms="4.8736906051635742e-01" purity="6.1204028129577637e-01" nType="0">
        <Node pos="l" depth="1" NCoef="0" IVar="0" Cut="1.0000000000000000e+00" cType="1" res="7.0080892182886600e-03" rms="2.9641762375831604e-01" purity="1.9173106551170349e-01" nType="0">
          <Node pos="l" depth="2" NCoef="0" IVar="-1" Cut="0.0000000000000000e+00" cType="1" res="-5.6026238016784191e-03" rms="1.9680693745613098e-01" purity="4.1002240031957626e-02" nType="-99"/>
          <Node pos="r" depth="2" NCoef="0" IVar="-1" Cut="0.0000000000000000e+00" cType="1" res="2.8248194139450788e-03" rms="3.9810618758201599e-01" purity="4.1639867424964905e-01" nType="-99"/>
        </Node>
        <Node pos="r" depth="1" NCoef="0" IVar="4" Cut="2.7574642578125000e+04" cType="1" res="7.6082801818847656e-01" rms="4.2661011219024658e-01" purity="7.6085543632507324e-01" nType="0">
          <Node pos="l" depth="2" NCoef="0" IVar="-1" Cut="0.0000000000000000e+00" cType="1" res="1.2619777407962829e-05" rms="3.8092145323753357e-01" purity="8.3342856168746948e-01" nType="-99"/>
          <Node pos="r" depth="2" NCoef="0" IVar="-1" Cut="0.0000000000000000e+00" cType="1" res="9.9811528343707323e-04" rms="4.1907960176467896e-01" purity="6.2728017568588257e-01" nType="-99"/>
        </Node>
      </Node>
    </BinaryTree>
    <BinaryTree type="DecisionTree" boostWeight="1.0000000000000000e+00" itree="215">
      <Node pos="s" depth="0" NCoef="0" IVar="3" Cut="8.9426585937500000e+04" cType="1" res="5.5144226551055908e-01" rms="4.9753051996231079e-01" purity="5.5168205499649048e-01" nType="0">
        <Node pos="l" depth="1" NCoef="0" IVar="3" Cut="8.8493062500000000e+04" cType="1" res="6.6001635789871216e-01" rms="4.7378516197204590e-01" purity="6.6015952825546265e-01" nType="0">
          <Node pos="l" depth="2" NCoef="0" IVar="-1" Cut="0.0000000000000000e+00" cType="1" res="9.5538655295968056e-04" rms="3.6215311288833618e-01" purity="3.7945431470870972e-01" nType="-99"/>
          <Node pos="r" depth="2" NCoef="0" IVar="-1" Cut="0.0000000000000000e+00" cType="1" res="1.5625681044184603e-05" rms="3.3521547913551331e-01" purity="8.7232309579849243e-01" nType="-99"/>
        </Node>
        <Node pos="r" depth="1" NCoef="0" IVar="5" Cut="4.3048081250000000e+05" cType="1" res="3.7612599134445190e-01" rms="4.8453134298324585e-01" purity="3.7639012932777405e-01" nType="0">
          <Node pos="l" depth="2" NCoef="0" IVar="-1" Cut="0.0000000000000000e+00" cType="1" res="-6.7770638270303607e-04" rms="3.6319345235824585e-01" purity="2.5705069303512573e-01" nType="-99"/>
          <Node pos="r" depth="2" NCoef="0" IVar="-1" Cut="0.0000000000000000e+00" cType="1" res="2.8649019077420235e-03" rms="3.4925934672355652e-01" purity="8.0404710769653320e-01" nType="-99"/>
        </Node>
      </Node>
    </BinaryTree>
    <BinaryTree type="DecisionTree" boostWeight="1.0000000000000000e+00" itree="216">
      <Node pos="s" depth="0" NCoef="0" IVar="2" Cut="8.9656421875000000e+04" cType="1" res="4.4150489568710327e-01" rms="4.9676242470741272e-01" purity="4.4188925623893738e-01" nType="0">
        <Node pos="l" depth="1" NCoef="0" IVar="2" Cut="8.9419570312500000e+04" cType="1" res="5.9497219324111938e-01" rms="4.9089741706848145e-01" purity="5.9497219324111938e-01" nType="0">
          <Node pos="l" depth="2" NCoef="0" IVar="-1" Cut="0.0000000000000000e+00" cType="1" res="5.9541244991123676e-04" rms="3.7053492665290833e-01" purity="3.6138501763343811e-01" nType="-99"/>
          <Node pos="r" depth="2" NCoef="0" IVar="-1" Cut="0.0000000000000000e+00" cType="1" res="1.6298386981361546e-05" rms="3.2941433787345886e-01" purity="8.6680227518081665e-01" nType="-99"/>
        </Node>
        <Node pos="r" depth="1" NCoef="0" IVar="4" Cut="5.0994917968750000e+04" cType="1" res="3.8079309463500977e-01" rms="4.8573899269104004e-01" purity="3.8148182630538940e-01" nType="0">
          <Node pos="l" depth="2" NCoef="0" IVar="-1" Cut="0.0000000000000000e+00" cType="1" res="-5.2979489555582404e-04" rms="3.5467571020126343e-01" purity="2.9652619361877441e-01" nType="-99"/>
          <Node pos="r" depth="2" NCoef="0" IVar="-1" Cut="0.0000000000000000e+00" cType="1" res="2.0055340137332678e-03" rms="3.8133075833320618e-01" purity="8.0054360628128052e-01" nType="-99"/>
        </Node>
      </Node>
    </BinaryTree>
    <BinaryTree type="DecisionTree" boostWeight="1.0000000000000000e+00" itree="217">
      <Node pos="s" depth="0" NCoef="0" IVar="4" Cut="5.8019460937500000e+04" cType="1" res="3.9116963744163513e-01" rms="4.8801225423812866e-01" purity="3.9116963744163513e-01" nType="0">
        <Node pos="l" depth="1" NCoef="0" IVar="0" Cut="1.0000000000000000e+00" cType="1" res="5.6626233272254467e-03" rms="3.6857497692108154e-01" purity="3.1477403640747070e-01" nType="0">
          <Node pos="l" depth="2" NCoef="0" IVar="-1" Cut="0.0000000000000000e+00" cType="1" res="-5.3442507050931454e-03" rms="2.9131618142127991e-01" purity="9.7454153001308441e-02" nType="-99"/>
          <Node pos="r" depth="2" NCoef="0" IVar="-1" Cut="0.0000000000000000e+00" cType="1" res="2.2293049842119217e-03" rms="4.2331239581108093e-01" purity="5.2901554107666016e-01" nType="-99"/>
        </Node>
        <Node pos="r" depth="1" NCoef="0" IVar="4" Cut="7.8258921875000000e+04" cType="1" res="8.5536289215087891e-01" rms="3.5173457860946655e-01" purity="8.5536289215087891e-01" nType="0">
          <Node pos="l" depth="2" NCoef="0" IVar="-1" Cut="0.0000000000000000e+00" cType="1" res="2.1150379907339811e-03" rms="4.0566754341125488e-01" purity="7.7406507730484009e-01" nType="-99"/>
          <Node pos="r" depth="2" NCoef="0" IVar="-1" Cut="0.0000000000000000e+00" cType="1" res="2.2456580772995949e-03" rms="2.8347501158714294e-01" purity="9.1147023439407349e-01" nType="-99"/>
        </Node>
      </Node>
    </BinaryTree>
    <BinaryTree type="DecisionTree" boostWeight="1.0000000000000000e+00" itree="218">
      <Node pos="s" depth="0" NCoef="0" IVar="1" Cut="2.0203215625000000e+05" cType="1" res="4.4574323296546936e-01" rms="4.9711859226226807e-01" purity="4.4581389427185059e-01" nType="0">
        <Node pos="l" depth="1" NCoef="0" IVar="2" Cut="8.9636281250000000e+04" cType="1" res="4.9654871225357056e-01" rms="5.1888656616210938e-01" purity="5.5532938241958618e-01" nType="0">
          <Node pos="l" depth="2" NCoef="0" IVar="-1" Cut="0.0000000000000000e+00" cType="1" res="1.5779043678776361e-05" rms="3.6131840944290161e-01" purity="8.0750554800033569e-01" nType="-99"/>
          <Node pos="r" depth="2" NCoef="0" IVar="-1" Cut="0.0000000000000000e+00" cType="1" res="-6.9579429691657424e-05" rms="3.4204328060150146e-01" purity="2.4332277476787567e-01" nType="-99"/>
        </Node>
        <Node pos="r" depth="1" NCoef="0" IVar="4" Cut="5.3210050781250000e+04" cType="1" res="4.1091379523277283e-01" rms="4.9209430813789368e-01" purity="4.1100695729255676e-01" nType="0">
          <Node pos="l" depth="2" NCoef="0" IVar="-1" Cut="0.0000000000000000e+00" cType="1" res="2.5396418641321361e-04" rms="3.7106409668922424e-01" purity="3.2874059677124023e-01" nType="-99"/>
          <Node pos="r" depth="2" NCoef="0" IVar="-1" Cut="0.0000000000000000e+00" cType="1" res="1.1554305674508214e-03" rms="3.6690703034400940e-01" purity="8.2575845718383789e-01" nType="-99"/>
        </Node>
      </Node>
    </BinaryTree>
    <BinaryTree type="DecisionTree" boostWeight="1.0000000000000000e+00" itree="219">
      <Node pos="s" depth="0" NCoef="0" IVar="2" Cut="8.9716664062500000e+04" cType="1" res="5.2530920505523682e-01" rms="4.9935904145240784e-01" purity="5.2530914545059204e-01" nType="0">
        <Node pos="l" depth="1" NCoef="0" IVar="2" Cut="8.9243031250000000e+04" cType="1" res="7.3747652769088745e-01" rms="4.4000557065010071e-01" purity="7.3747646808624268e-01" nType="0">
          <Node pos="l" depth="2" NCoef="0" IVar="-1" Cut="0.0000000000000000e+00" cType="1" res="6.1324401758611202e-04" rms="3.6662703752517700e-01" purity="3.6740112304687500e-01" nType="-99"/>
          <Node pos="r" depth="2" NCoef="0" IVar="-1" Cut="0.0000000000000000e+00" cType="1" res="1.1269095011812169e-05" rms="3.0281120538711548e-01" purity="8.9525121450424194e-01" nType="-99"/>
        </Node>
        <Node pos="r" depth="1" NCoef="0" IVar="4" Cut="5.3188312500000000e+04" cType="1" res="3.8676694035530090e-01" rms="4.8742738366127014e-01" purity="3.8730770349502563e-01" nType="0">
          <Node pos="l" depth="2" NCoef="0" IVar="-1" Cut="0.0000000000000000e+00" cType="1" res="8.9751307541519054e-07" rms="3.6174264550209045e-01" purity="3.0808803439140320e-01" nType="-99"/>
          <Node pos="r" depth="2" NCoef="0" IVar="-1" Cut="0.0000000000000000e+00" cType="1" res="2.4153101257979870e-03" rms="3.6535066366195679e-01" purity="8.2802236080169678e-01" nType="-99"/>
        </Node>
      </Node>
    </BinaryTree>
    <BinaryTree type="DecisionTree" boostWeight="1.0000000000000000e+00" itree="220">
      <Node pos="s" depth="0" NCoef="0" IVar="1" Cut="2.0208595312500000e+05" cType="1" res="5.6400024890899658e-01" rms="4.9602782726287842e-01" purity="5.6419533491134644e-01" nType="0">
        <Node pos="l" depth="1" NCoef="0" IVar="2" Cut="8.9719843750000000e+04" cType="1" res="4.3067052960395813e-01" rms="5.0350278615951538e-01" purity="7.8519266843795776e-01" nType="0">
          <Node pos="l" depth="2" NCoef="0" IVar="-1" Cut="0.0000000000000000e+00" cType="1" res="1.2138399142713752e-05" rms="2.3607538640499115e-01" purity="9.2872297763824463e-01" nType="-99"/>
          <Node pos="r" depth="2" NCoef="0" IVar="-1" Cut="0.0000000000000000e+00" cType="1" res="-1.4763602521270514e-03" rms="3.3364209532737732e-01" purity="2.1889905631542206e-01" nType="-99"/>
        </Node>
        <Node pos="r" depth="1" NCoef="0" IVar="4" Cut="6.0250875000000000e+04" cType="1" res="4.1594544053077698e-01" rms="4.9297037720680237e-01" purity="4.1612294316291809e-01" nType="0">
          <Node pos="l" depth="2" NCoef="0" IVar="-1" Cut="0.0000000000000000e+00" cType="1" res="4.9367907922714949e-04" rms="3.7707453966140747e-01" purity="3.4317535161972046e-01" nType="-99"/>
          <Node pos="r" depth="2" NCoef="0" IVar="-1" Cut="0.0000000000000000e+00" cType="1" res="1.9894249271601439e-03" rms="3.3511176705360413e-01" purity="8.6738443374633789e-01" nType="-99"/>
        </Node>
      </Node>
    </BinaryTree>
    <BinaryTree type="DecisionTree" boostWeight="1.0000000000000000e+00" itree="221">
      <Node pos="s" depth="0" NCoef="0" IVar="3" Cut="8.9425937500000000e+04" cType="1" res="5.9948468208312988e-01" rms="4.9000284075737000e-01" purity="5.9948468208312988e-01" nType="0">
        <Node pos="l" depth="1" NCoef="0" IVar="3" Cut="8.8492515625000000e+04" cType="1" res="7.1187621355056763e-01" rms="4.5288902521133423e-01" purity="7.1187627315521240e-01" nType="0">
          <Node pos="l" depth="2" NCoef="0" IVar="-1" Cut="0.0000000000000000e+00" cType="1" res="5.0930527504533529e-04" rms="3.6713260412216187e-01" purity="3.8736990094184875e-01" nType="-99"/>
          <Node pos="r" depth="2" NCoef="0" IVar="-1" Cut="0.0000000000000000e+00" cType="1" res="1.5385066944872960e-05" rms="3.0790078639984131e-01" purity="9.0098655223846436e-01" nType="-99"/>
        </Node>
        <Node pos="r" depth="1" NCoef="0" IVar="4" Cut="5.6631289062500000e+04" cType="1" res="3.8292291760444641e-01" rms="4.8651689291000366e-01" purity="3.8332861661911011e-01" nType="0">
          <Node pos="l" depth="2" NCoef="0" IVar="-1" Cut="0.0000000000000000e+00" cType="1" res="-1.8239008204545826e-04" rms="3.6718997359275818e-01" purity="3.0984482169151306e-01" nType="-99"/>
          <Node pos="r" depth="2" NCoef="0" IVar="-1" Cut="0.0000000000000000e+00" cType="1" res="2.4108306970447302e-03" rms="3.5973003506660461e-01" purity="8.3678340911865234e-01" nType="-99"/>
        </Node>
      </Node>
    </BinaryTree>
    <BinaryTree type="DecisionTree" boostWeight="1.0000000000000000e+00" itree="222">
      <Node pos="s" depth="0" NCoef="0" IVar="3" Cut="8.9426703125000000e+04" cType="1" res="5.1801532506942749e-01" rms="4.9967533349990845e-01" purity="5.1801532506942749e-01" nType="0">
        <Node pos="l" depth="1" NCoef="0" IVar="3" Cut="8.8493171875000000e+04" cType="1" res="6.1857849359512329e-01" rms="4.8573565483093262e-01" purity="6.1857855319976807e-01" nType="0">
          <Node pos="l" depth="2" NCoef="0" IVar="-1" Cut="0.0000000000000000e+00" cType="1" res="3.5682861926034093e-04" rms="3.6746340990066528e-01" purity="4.1302993893623352e-01" nType="-99"/>
          <Node pos="r" depth="2" NCoef="0" IVar="-1" Cut="0.0000000000000000e+00" cType="1" res="1.5492427337449044e-05" rms="3.8333055377006531e-01" purity="8.2885092496871948e-01" nType="-99"/>
        </Node>
        <Node pos="r" depth="1" NCoef="0" IVar="0" Cut="2.0000000000000000e+00" cType="1" res="1.5443805605173111e-02" rms="3.6433216929435730e-01" purity="3.7260943651199341e-01" nType="0">
          <Node pos="l" depth="2" NCoef="0" IVar="-1" Cut="0.0000000000000000e+00" cType="1" res="-1.2533569242805243e-03" rms="3.5296007990837097e-01" purity="2.0791497826576233e-01" nType="-99"/>
          <Node pos="r" depth="2" NCoef="0" IVar="-1" Cut="0.0000000000000000e+00" cType="1" res="3.0433943029493093e-03" rms="3.7119624018669128e-01" purity="8.2927650213241577e-01" nType="-99"/>
        </Node>
      </Node>
    </BinaryTree>
    <BinaryTree type="DecisionTree" boostWeight="1.0000000000000000e+00" itree="223">
      <Node pos="s" depth="0" NCoef="0" IVar="4" Cut="5.9134316406250000e+04" cType="1" res="3.8028973340988159e-01" rms="4.8545798659324646e-01" purity="3.8028973340988159e-01" nType="0">
        <Node pos="l" depth="1" NCoef="0" IVar="0" Cut="1.0000000000000000e+00" cType="1" res="-5.1478296518325806e-04" rms="3.6258569359779358e-01" purity="3.1349229812622070e-01" nType="0">
          <Node pos="l" depth="2" NCoef="0" IVar="-1" Cut="0.0000000000000000e+00" cType="1" res="-6.0174288228154182e-03" rms="2.7871960401535034e-01" purity="9.0804286301136017e-02" nType="-99"/>
          <Node pos="r" depth="2" NCoef="0" IVar="-1" Cut="0.0000000000000000e+00" cType="1" res="1.9933802541345358e-03" rms="4.2005088925361633e-01" purity="5.2951914072036743e-01" nType="-99"/>
        </Node>
        <Node pos="r" depth="1" NCoef="0" IVar="4" Cut="7.5600718750000000e+04" cType="1" res="8.4024643898010254e-01" rms="3.6637738347053528e-01" purity="8.4024643898010254e-01" nType="0">
          <Node pos="l" depth="2" NCoef="0" IVar="-1" Cut="0.0000000000000000e+00" cType="1" res="1.5782166738063097e-03" rms="4.2131051421165466e-01" purity="7.4833989143371582e-01" nType="-99"/>
          <Node pos="r" depth="2" NCoef="0" IVar="-1" Cut="0.0000000000000000e+00" cType="1" res="2.0264626946300268e-03" rms="3.0838179588317871e-01" purity="8.9214879274368286e-01" nType="-99"/>
        </Node>
      </Node>
    </BinaryTree>
    <BinaryTree type="DecisionTree" boostWeight="1.0000000000000000e+00" itree="224">
      <Node pos="s" depth="0" NCoef="0" IVar="1" Cut="2.0337760937500000e+05" cType="1" res="5.2620869874954224e-01" rms="4.9952298402786255e-01" purity="5.2657961845397949e-01" nType="0">
        <Node pos="l" depth="1" NCoef="0" IVar="2" Cut="8.9670617187500000e+04" cType="1" res="2.8160795569419861e-01" rms="4.6612024307250977e-01" purity="7.2277337312698364e-01" nType="0">
          <Node pos="l" depth="2" NCoef="0" IVar="-1" Cut="0.0000000000000000e+00" cType="1" res="1.1279053978796583e-05" rms="2.6711577177047729e-01" purity="9.0882259607315063e-01" nType="-99"/>
          <Node pos="r" depth="2" NCoef="0" IVar="-1" Cut="0.0000000000000000e+00" cType="1" res="-7.5160752749070525e-04" rms="3.3298340439796448e-01" purity="2.2580403089523315e-01" nType="-99"/>
        </Node>
        <Node pos="r" depth="1" NCoef="0" IVar="4" Cut="4.4628003906250000e+04" cType="1" res="4.1667136549949646e-01" rms="4.9333915114402771e-01" purity="4.1724899411201477e-01" nType="0">
          <Node pos="l" depth="2" NCoef="0" IVar="-1" Cut="0.0000000000000000e+00" cType="1" res="-2.4682993534952402e-04" rms="3.5878571867942810e-01" purity="3.0896827578544617e-01" nType="-99"/>
          <Node pos="r" depth="2" NCoef="0" IVar="-1" Cut="0.0000000000000000e+00" cType="1" res="1.1420273222029209e-03" rms="3.8971763849258423e-01" purity="7.8070545196533203e-01" nType="-99"/>
        </Node>
      </Node>
    </BinaryTree>
    <BinaryTree type="DecisionTree" boostWeight="1.0000000000000000e+00" itree="225">
      <Node pos="s" depth="0" NCoef="0" IVar="2" Cut="8.9600773437500000e+04" cType="1" res="5.2554821968078613e-01" rms="4.9934685230255127e-01" purity="5.2554821968078613e-01" nType="0">
        <Node pos="l" depth="1" NCoef="0" IVar="2" Cut="8.9247882812500000e+04" cType="1" res="7.5333052873611450e-01" rms="4.3107268214225769e-01" purity="7.5333046913146973e-01" nType="0">
          <Node pos="l" depth="2" NCoef="0" IVar="-1" Cut="0.0000000000000000e+00" cType="1" res="1.0699564591050148e-03" rms="3.8680908083915710e-01" purity="3.8554197549819946e-01" nType="-99"/>
          <Node pos="r" depth="2" NCoef="0" IVar="-1" Cut="0.0000000000000000e+00" cType="1" res="1.1373131201253273e-05" rms="2.6873144507408142e-01" purity="9.2096000909805298e-01" nType="-99"/>
        </Node>
        <Node pos="r" depth="1" NCoef="0" IVar="0" Cut="2.0000000000000000e+00" cType="1" res="2.2212598472833633e-02" rms="3.6452627182006836e-01" purity="3.8366046547889709e-01" nType="0">
          <Node pos="l" depth="2" NCoef="0" IVar="-1" Cut="0.0000000000000000e+00" cType="1" res="-9.4506447203457355e-04" rms="3.5670691728591919e-01" purity="2.1360386908054352e-01" nType="-99"/>
          <Node pos="r" depth="2" NCoef="0" IVar="-1" Cut="0.0000000000000000e+00" cType="1" res="2.9918854124844074e-03" rms="3.6214521527290344e-01" purity="8.3861744403839111e-01" nType="-99"/>
        </Node>
      </Node>
    </BinaryTree>
    <BinaryTree type="DecisionTree" boostWeight="1.0000000000000000e+00" itree="226">
      <Node pos="s" depth="0" NCoef="0" IVar="4" Cut="1.8592275390625000e+04" cType="1" res="6.1974984407424927e-01" rms="4.8557147383689880e-01" purity="6.1986947059631348e-01" nType="0">
        <Node pos="l" depth="1" NCoef="0" IVar="5" Cut="4.4490159375000000e+05" cType="1" res="1.8406996130943298e-01" rms="3.8754123449325562e-01" purity="1.8406996130943298e-01" nType="0">
          <Node pos="l" depth="2" NCoef="0" IVar="-1" Cut="0.0000000000000000e+00" cType="1" res="-1.1551846982911229e-03" rms="2.8153899312019348e-01" purity="1.3281053304672241e-01" nType="-99"/>
          <Node pos="r" depth="2" NCoef="0" IVar="-1" Cut="0.0000000000000000e+00" cType="1" res="3.7019944284111261e-03" rms="3.7402912974357605e-01" purity="6.7994987964630127e-01" nType="-99"/>
        </Node>
        <Node pos="r" depth="1" NCoef="0" IVar="4" Cut="2.7587683593750000e+04" cType="1" res="7.6737791299819946e-01" rms="4.2269289493560791e-01" purity="7.6753813028335571e-01" nType="0">
          <Node pos="l" depth="2" NCoef="0" IVar="-1" Cut="0.0000000000000000e+00" cType="1" res="1.3017428500461392e-05" rms="3.7876540422439575e-01" purity="8.4492754936218262e-01" nType="-99"/>
          <Node pos="r" depth="2" NCoef="0" IVar="-1" Cut="0.0000000000000000e+00" cType="1" res="1.3980714138597250e-03" rms="4.2654049396514893e-01" purity="6.1049711704254150e-01" nType="-99"/>
        </Node>
      </Node>
    </BinaryTree>
    <BinaryTree type="DecisionTree" boostWeight="1.0000000000000000e+00" itree="227">
      <Node pos="s" depth="0" NCoef="0" IVar="5" Cut="2.4624140625000000e+05" cType="1" res="4.6962440013885498e-01" rms="4.9939334392547607e-01" purity="4.6994078159332275e-01" nType="0">
        <Node pos="l" depth="1" NCoef="0" IVar="4" Cut="3.8703996093750000e+04" cType="1" res="1.5917713940143585e-01" rms="3.6584120988845825e-01" purity="1.5917715430259705e-01" nType="0">
          <Node pos="l" depth="2" NCoef="0" IVar="-1" Cut="0.0000000000000000e+00" cType="1" res="-4.0988433174788952e-03" rms="2.7667862176895142e-01" purity="9.0955585241317749e-02" nType="-99"/>
          <Node pos="r" depth="2" NCoef="0" IVar="-1" Cut="0.0000000000000000e+00" cType="1" res="1.1344677768647671e-03" rms="4.7324290871620178e-01" purity="5.3435724973678589e-01" nType="-99"/>
        </Node>
        <Node pos="r" depth="1" NCoef="0" IVar="5" Cut="2.7130621875000000e+05" cType="1" res="7.0080989599227905e-01" rms="4.5850557088851929e-01" purity="7.0136183500289917e-01" nType="0">
          <Node pos="l" depth="2" NCoef="0" IVar="-1" Cut="0.0000000000000000e+00" cType="1" res="1.5105735656106845e-05" rms="4.3021154403686523e-01" purity="7.9659456014633179e-01" nType="-99"/>
          <Node pos="r" depth="2" NCoef="0" IVar="-1" Cut="0.0000000000000000e+00" cType="1" res="1.1894926428794861e-03" rms="4.0042427182197571e-01" purity="6.5118229389190674e-01" nType="-99"/>
        </Node>
      </Node>
    </BinaryTree>
    <BinaryTree type="DecisionTree" boostWeight="1.0000000000000000e+00" itree="228">
      <Node pos="s" depth="0" NCoef="0" IVar="1" Cut="2.0179028125000000e+05" cType="1" res="4.9716356396675110e-01" rms="5.0049579143524170e-01" purity="4.9766767024993896e-01" nType="0">
        <Node pos="l" depth="1" NCoef="0" IVar="2" Cut="8.9653429687500000e+04" cType="1" res="6.3564544916152954e-01" rms="4.9316358566284180e-01" purity="6.7668473720550537e-01" nType="0">
          <Node pos="l" depth="2" NCoef="0" IVar="-1" Cut="0.0000000000000000e+00" cType="1" res="1.6039784895838238e-05" rms="2.9699701070785522e-01" purity="8.8370430469512939e-01" nType="-99"/>
          <Node pos="r" depth="2" NCoef="0" IVar="-1" Cut="0.0000000000000000e+00" cType="1" res="-1.2211146531626582e-03" rms="3.3304223418235779e-01" purity="2.2487983107566833e-01" nType="-99"/>
        </Node>
        <Node pos="r" depth="1" NCoef="0" IVar="4" Cut="4.7332933593750000e+04" cType="1" res="4.1896629333496094e-01" rms="4.9412268400192261e-01" purity="4.1968998312950134e-01" nType="0">
          <Node pos="l" depth="2" NCoef="0" IVar="-1" Cut="0.0000000000000000e+00" cType="1" res="1.2876871915068477e-04" rms="3.6681538820266724e-01" purity="3.1527373194694519e-01" nType="-99"/>
          <Node pos="r" depth="2" NCoef="0" IVar="-1" Cut="0.0000000000000000e+00" cType="1" res="1.1697734007611871e-03" rms="3.7091091275215149e-01" purity="8.1189864873886108e-01" nType="-99"/>
        </Node>
      </Node>
    </BinaryTree>
    <BinaryTree type="DecisionTree" boostWeight="1.0000000000000000e+00" itree="229">
      <Node pos="s" depth="0" NCoef="0" IVar="5" Cut="1.5989835937500000e+05" cType="1" res="5.4469245672225952e-01" rms="4.9833804368972778e-01" purity="5.4510825872421265e-01" nType="0">
        <Node pos="l" depth="1" NCoef="0" IVar="-1" Cut="0.0000000000000000e+00" cType="1" res="9.3916760306456126e-06" rms="3.5685959458351135e-01" purity="7.7376747131347656e-01" nType="-99"/>
        <Node pos="r" depth="1" NCoef="0" IVar="1" Cut="2.9476521875000000e+05" cType="1" res="4.9361217021942139e-01" rms="5.0037270784378052e-01" purity="4.9412068724632263e-01" nType="0">
          <Node pos="l" depth="2" NCoef="0" IVar="-1" Cut="0.0000000000000000e+00" cType="1" res="3.5997663508169353e-04" rms="3.6628064513206482e-01" purity="3.3378762006759644e-01" nType="-99"/>
          <Node pos="r" depth="2" NCoef="0" IVar="-1" Cut="0.0000000000000000e+00" cType="1" res="1.7789194316719659e-05" rms="4.6431308984756470e-01" purity="6.8766152858734131e-01" nType="-99"/>
        </Node>
      </Node>
    </BinaryTree>
    <BinaryTree type="DecisionTree" boostWeight="1.0000000000000000e+00" itree="230">
      <Node pos="s" depth="0" NCoef="0" IVar="2" Cut="8.9656421875000000e+04" cType="1" res="5.2610826492309570e-01" rms="4.9941200017929077e-01" purity="5.2637195587158203e-01" nType="0">
        <Node pos="l" depth="1" NCoef="0" IVar="2" Cut="8.9241890625000000e+04" cType="1" res="7.4614578485488892e-01" rms="4.3521517515182495e-01" purity="7.4617767333984375e-01" nType="0">
          <Node pos="l" depth="2" NCoef="0" IVar="-1" Cut="0.0000000000000000e+00" cType="1" res="6.6915387287735939e-04" rms="3.7311401963233948e-01" purity="3.7316787242889404e-01" nType="-99"/>
          <Node pos="r" depth="2" NCoef="0" IVar="-1" Cut="0.0000000000000000e+00" cType="1" res="1.1453521437942982e-05" rms="2.8305721282958984e-01" purity="9.0911811590194702e-01" nType="-99"/>
        </Node>
        <Node pos="r" depth="1" NCoef="0" IVar="4" Cut="6.2489710937500000e+04" cType="1" res="3.8544827699661255e-01" rms="4.8685929179191589e-01" purity="3.8586005568504333e-01" nType="0">
          <Node pos="l" depth="2" NCoef="0" IVar="-1" Cut="0.0000000000000000e+00" cType="1" res="2.9476028430508450e-05" rms="3.5943478345870972e-01" purity="3.2045242190361023e-01" nType="-99"/>
          <Node pos="r" depth="2" NCoef="0" IVar="-1" Cut="0.0000000000000000e+00" cType="1" res="2.0839953795075417e-03" rms="3.3922868967056274e-01" purity="8.6196142435073853e-01" nType="-99"/>
        </Node>
      </Node>
    </BinaryTree>
    <BinaryTree type="DecisionTree" boostWeight="1.0000000000000000e+00" itree="231">
      <Node pos="s" depth="0" NCoef="0" IVar="5" Cut="2.5747637500000000e+05" cType="1" res="4.6820300817489624e-01" rms="4.9927985668182373e-01" purity="4.6865206956863403e-01" nType="0">
        <Node pos="l" depth="1" NCoef="0" IVar="5" Cut="2.2249845312500000e+05" cType="1" res="1.6445145010948181e-01" rms="3.7068471312522888e-01" purity="1.6445145010948181e-01" nType="0">
          <Node pos="l" depth="2" NCoef="0" IVar="-1" Cut="0.0000000000000000e+00" cType="1" res="-3.0562570318579674e-03" rms="2.9245051741600037e-01" purity="1.1798541992902756e-01" nType="-99"/>
          <Node pos="r" depth="2" NCoef="0" IVar="-1" Cut="0.0000000000000000e+00" cType="1" res="1.6501897480338812e-03" rms="4.1780602931976318e-01" purity="3.1064665317535400e-01" nType="-99"/>
        </Node>
        <Node pos="r" depth="1" NCoef="0" IVar="5" Cut="2.9028496875000000e+05" cType="1" res="7.2055983543395996e-01" rms="4.4931825995445251e-01" purity="7.2138196229934692e-01" nType="0">
          <Node pos="l" depth="2" NCoef="0" IVar="-1" Cut="0.0000000000000000e+00" cType="1" res="1.4790941349929199e-05" rms="4.5304948091506958e-01" purity="7.9066568613052368e-01" nType="-99"/>
          <Node pos="r" depth="2" NCoef="0" IVar="-1" Cut="0.0000000000000000e+00" cType="1" res="1.2788120657205582e-03" rms="3.9266204833984375e-01" purity="6.8015986680984497e-01" nType="-99"/>
        </Node>
      </Node>
    </BinaryTree>
    <BinaryTree type="DecisionTree" boostWeight="1.0000000000000000e+00" itree="232">
      <Node pos="s" depth="0" NCoef="0" IVar="2" Cut="8.9600773437500000e+04" cType="1" res="4.4202005863189697e-01" rms="4.9680334329605103e-01" purity="4.4219526648521423e-01" nType="0">
        <Node pos="l" depth="1" NCoef="0" IVar="2" Cut="8.9365484375000000e+04" cType="1" res="6.0068446397781372e-01" rms="4.8975774645805359e-01" purity="6.0068446397781372e-01" nType="0">
          <Node pos="l" depth="2" NCoef="0" IVar="-1" Cut="0.0000000000000000e+00" cType="1" res="7.4028153903782368e-04" rms="3.6864593625068665e-01" purity="3.8370156288146973e-01" nType="-99"/>
          <Node pos="r" depth="2" NCoef="0" IVar="-1" Cut="0.0000000000000000e+00" cType="1" res="1.6378071450162679e-05" rms="3.3072802424430847e-01" purity="8.6773592233657837e-01" nType="-99"/>
        </Node>
        <Node pos="r" depth="1" NCoef="0" IVar="4" Cut="6.2007714843750000e+04" cType="1" res="3.8080602884292603e-01" rms="4.8589852452278137e-01" purity="3.8111060857772827e-01" nType="0">
          <Node pos="l" depth="2" NCoef="0" IVar="-1" Cut="0.0000000000000000e+00" cType="1" res="-9.4271774287335575e-05" rms="3.6089774966239929e-01" purity="3.1731030344963074e-01" nType="-99"/>
          <Node pos="r" depth="2" NCoef="0" IVar="-1" Cut="0.0000000000000000e+00" cType="1" res="2.1258168853819370e-03" rms="3.4589421749114990e-01" purity="8.5511261224746704e-01" nType="-99"/>
        </Node>
      </Node>
    </BinaryTree>
    <BinaryTree type="DecisionTree" boostWeight="1.0000000000000000e+00" itree="233">
      <Node pos="s" depth="0" NCoef="0" IVar="3" Cut="9.5951257812500000e+04" cType="1" res="4.7954165935516357e-01" rms="4.9958127737045288e-01" purity="4.7954162955284119e-01" nType="0">
        <Node pos="l" depth="1" NCoef="0" IVar="4" Cut="6.0281406250000000e+04" cType="1" res="3.7737241387367249e-01" rms="4.8472929000854492e-01" purity="3.7737241387367249e-01" nType="0">
          <Node pos="l" depth="2" NCoef="0" IVar="-1" Cut="0.0000000000000000e+00" cType="1" res="-1.2530884305306245e-05" rms="3.6528736352920532e-01" purity="3.1073760986328125e-01" nType="-99"/>
          <Node pos="r" depth="2" NCoef="0" IVar="-1" Cut="0.0000000000000000e+00" cType="1" res="1.8822061829268932e-03" rms="3.5170987248420715e-01" purity="8.4513491392135620e-01" nType="-99"/>
        </Node>
        <Node pos="r" depth="1" NCoef="0" IVar="2" Cut="8.9294859375000000e+04" cType="1" res="7.6950269937515259e-01" rms="4.2115116119384766e-01" purity="7.6950269937515259e-01" nType="0">
          <Node pos="l" depth="2" NCoef="0" IVar="-1" Cut="0.0000000000000000e+00" cType="1" res="9.8745049399440177e-06" rms="2.8475442528724670e-01" purity="9.1131544113159180e-01" nType="-99"/>
          <Node pos="r" depth="2" NCoef="0" IVar="-1" Cut="0.0000000000000000e+00" cType="1" res="7.4230821337550879e-04" rms="3.8046440482139587e-01" purity="4.0765160322189331e-01" nType="-99"/>
        </Node>
      </Node>
    </BinaryTree>
    <BinaryTree type="DecisionTree" boostWeight="1.0000000000000000e+00" itree="234">
      <Node pos="s" depth="0" NCoef="0" IVar="1" Cut="2.0203215625000000e+05" cType="1" res="4.5344537496566772e-01" rms="4.9813216924667358e-01" purity="4.5393589138984680e-01" nType="0">
        <Node pos="l" depth="1" NCoef="0" IVar="2" Cut="8.9596296875000000e+04" cType="1" res="4.4889038801193237e-01" rms="4.9738094210624695e-01" purity="5.4914397001266479e-01" nType="0">
          <Node pos="l" depth="2" NCoef="0" IVar="-1" Cut="0.0000000000000000e+00" cType="1" res="1.6049507394200191e-05" rms="3.6651715636253357e-01" purity="8.0229103565216064e-01" nType="-99"/>
          <Node pos="r" depth="2" NCoef="0" IVar="-1" Cut="0.0000000000000000e+00" cType="1" res="-1.1328123218845576e-04" rms="3.4536021947860718e-01" purity="2.3440787196159363e-01" nType="-99"/>
        </Node>
        <Node pos="r" depth="1" NCoef="0" IVar="4" Cut="7.0931578125000000e+04" cType="1" res="4.2338091135025024e-01" rms="4.9449741840362549e-01" purity="4.2402553558349609e-01" nType="0">
          <Node pos="l" depth="2" NCoef="0" IVar="-1" Cut="0.0000000000000000e+00" cType="1" res="8.2396750804036856e-04" rms="3.8181158900260925e-01" purity="3.6118212342262268e-01" nType="-99"/>
          <Node pos="r" depth="2" NCoef="0" IVar="-1" Cut="0.0000000000000000e+00" cType="1" res="1.8388048047199845e-03" rms="2.9910877346992493e-01" purity="8.9715325832366943e-01" nType="-99"/>
        </Node>
      </Node>
    </BinaryTree>
    <BinaryTree type="DecisionTree" boostWeight="1.0000000000000000e+00" itree="235">
      <Node pos="s" depth="0" NCoef="0" IVar="2" Cut="8.9656421875000000e+04" cType="1" res="5.8648741245269775e-01" rms="4.9246311187744141e-01" purity="5.8648741245269775e-01" nType="0">
        <Node pos="l" depth="1" NCoef="0" IVar="2" Cut="8.9241945312500000e+04" cType="1" res="8.1742751598358154e-01" rms="3.8631564378738403e-01" purity="8.1742751598358154e-01" nType="0">
          <Node pos="l" depth="2" NCoef="0" IVar="-1" Cut="0.0000000000000000e+00" cType="1" res="8.7183126015588641e-04" rms="3.7619173526763916e-01" purity="3.9020437002182007e-01" nType="-99"/>
          <Node pos="r" depth="2" NCoef="0" IVar="-1" Cut="0.0000000000000000e+00" cType="1" res="1.0727735570981167e-05" rms="2.3058819770812988e-01" purity="9.4284516572952271e-01" nType="-99"/>
        </Node>
        <Node pos="r" depth="1" NCoef="0" IVar="4" Cut="5.9645824218750000e+04" cType="1" res="3.8375014066696167e-01" rms="4.8670822381973267e-01" purity="3.8414907455444336e-01" nType="0">
          <Node pos="l" depth="2" NCoef="0" IVar="-1" Cut="0.0000000000000000e+00" cType="1" res="1.2779262033291161e-04" rms="3.6460366845130920e-01" purity="3.1876441836357117e-01" nType="-99"/>
          <Node pos="r" depth="2" NCoef="0" IVar="-1" Cut="0.0000000000000000e+00" cType="1" res="2.2967304103076458e-03" rms="3.5420566797256470e-01" purity="8.4377294778823853e-01" nType="-99"/>
        </Node>
      </Node>
    </BinaryTree>
    <BinaryTree type="DecisionTree" boostWeight="1.0000000000000000e+00" itree="236">
      <Node pos="s" depth="0" NCoef="0" IVar="5" Cut="1.6215667187500000e+05" cType="1" res="4.8189270496368408e-01" rms="4.9971836805343628e-01" purity="4.8202642798423767e-01" nType="0">
        <Node pos="l" depth="1" NCoef="0" IVar="-1" Cut="0.0000000000000000e+00" cType="1" res="9.4676743174204603e-06" rms="3.7365204095840454e-01" purity="7.4609988927841187e-01" nType="-99"/>
        <Node pos="r" depth="1" NCoef="0" IVar="4" Cut="7.4125140625000000e+04" cType="1" res="4.0898963809013367e-01" rms="4.9170747399330139e-01" purity="4.0916025638580322e-01" nType="0">
          <Node pos="l" depth="2" NCoef="0" IVar="-1" Cut="0.0000000000000000e+00" cType="1" res="3.2709271181374788e-04" rms="3.7368214130401611e-01" purity="3.5087054967880249e-01" nType="-99"/>
          <Node pos="r" depth="2" NCoef="0" IVar="-1" Cut="0.0000000000000000e+00" cType="1" res="1.9995064940303564e-03" rms="2.8775906562805176e-01" purity="9.0756678581237793e-01" nType="-99"/>
        </Node>
      </Node>
    </BinaryTree>
    <BinaryTree type="DecisionTree" boostWeight="1.0000000000000000e+00" itree="237">
      <Node pos="s" depth="0" NCoef="0" IVar="1" Cut="2.9101506250000000e+05" cType="1" res="4.6124359965324402e-01" rms="4.9879002571105957e-01" purity="4.6169549226760864e-01" nType="0">
        <Node pos="l" depth="1" NCoef="0" IVar="5" Cut="2.1095889062500000e+05" cType="1" res="2.2898893058300018e-01" rms="4.4877591729164124e-01" purity="2.9342833161354065e-01" nType="0">
          <Node pos="l" depth="2" NCoef="0" IVar="-1" Cut="0.0000000000000000e+00" cType="1" res="-4.9403253942728043e-03" rms="2.6897612214088440e-01" purity="9.3504689633846283e-02" nType="-99"/>
          <Node pos="r" depth="2" NCoef="0" IVar="-1" Cut="0.0000000000000000e+00" cType="1" res="1.7022032989189029e-03" rms="4.1588163375854492e-01" purity="4.8462286591529846e-01" nType="-99"/>
        </Node>
        <Node pos="r" depth="1" NCoef="0" IVar="1" Cut="3.0767771875000000e+05" cType="1" res="6.7066907882690430e-01" rms="4.7000336647033691e-01" purity="6.7105555534362793e-01" nType="0">
          <Node pos="l" depth="2" NCoef="0" IVar="-1" Cut="0.0000000000000000e+00" cType="1" res="1.4974507394072134e-05" rms="3.6441004276275635e-01" purity="8.6832392215728760e-01" nType="-99"/>
          <Node pos="r" depth="2" NCoef="0" IVar="-1" Cut="0.0000000000000000e+00" cType="1" res="1.5263805398717523e-03" rms="3.9027693867683411e-01" purity="5.4270672798156738e-01" nType="-99"/>
        </Node>
      </Node>
    </BinaryTree>
    <BinaryTree type="DecisionTree" boostWeight="1.0000000000000000e+00" itree="238">
      <Node pos="s" depth="0" NCoef="0" IVar="4" Cut="6.5053777343750000e+04" cType="1" res="3.8140016794204712e-01" rms="4.8573046922683716e-01" purity="3.8140019774436951e-01" nType="0">
        <Node pos="l" depth="1" NCoef="0" IVar="0" Cut="2.0000000000000000e+00" cType="1" res="2.4366032448597252e-04" rms="3.6190527677536011e-01" purity="3.2160258293151855e-01" nType="0">
          <Node pos="l" depth="2" NCoef="0" IVar="-1" Cut="0.0000000000000000e+00" cType="1" res="-2.6488571893423796e-03" rms="3.4840819239616394e-01" purity="1.6845755279064178e-01" nType="-99"/>
          <Node pos="r" depth="2" NCoef="0" IVar="-1" Cut="0.0000000000000000e+00" cType="1" res="3.3463318832218647e-03" rms="3.8124099373817444e-01" purity="8.1700682640075684e-01" nType="-99"/>
        </Node>
        <Node pos="r" depth="1" NCoef="0" IVar="5" Cut="3.8065565625000000e+05" cType="1" res="8.6700856685638428e-01" rms="3.3956551551818848e-01" purity="8.6700850725173950e-01" nType="0">
          <Node pos="l" depth="2" NCoef="0" IVar="-1" Cut="0.0000000000000000e+00" cType="1" res="1.8106023781001568e-03" rms="3.9003568887710571e-01" purity="8.0858820676803589e-01" nType="-99"/>
          <Node pos="r" depth="2" NCoef="0" IVar="-1" Cut="0.0000000000000000e+00" cType="1" res="2.4000410921871662e-03" rms="2.6841196417808533e-01" purity="9.2258477210998535e-01" nType="-99"/>
        </Node>
      </Node>
    </BinaryTree>
    <BinaryTree type="DecisionTree" boostWeight="1.0000000000000000e+00" itree="239">
      <Node pos="s" depth="0" NCoef="0" IVar="1" Cut="2.0039376562500000e+05" cType="1" res="0.0000000000000000e+00" rms="0.0000000000000000e+00" purity="4.9561166763305664e-01" nType="0">
        <Node pos="l" depth="1" NCoef="0" IVar="2" Cut="8.9699460937500000e+04" cType="1" res="6.5147542953491211e-01" rms="4.9024218320846558e-01" purity="6.9990414381027222e-01" nType="0">
          <Node pos="l" depth="2" NCoef="0" IVar="-1" Cut="0.0000000000000000e+00" cType="1" res="1.6465492080897093e-05" rms="2.8457039594650269e-01" purity="8.9420551061630249e-01" nType="-99"/>
          <Node pos="r" depth="2" NCoef="0" IVar="-1" Cut="0.0000000000000000e+00" cType="1" res="-9.8523870110511780e-04" rms="3.3947262167930603e-01" purity="2.2334977984428406e-01" nType="-99"/>
        </Node>
        <Node pos="r" depth="1" NCoef="0" IVar="4" Cut="5.5033109375000000e+04" cType="1" res="inf" rms="0.0000000000000000e+00" purity="4.0913781523704529e-01" nType="0">
          <Node pos="l" depth="2" NCoef="0" IVar="-1" Cut="0.0000000000000000e+00" cType="1" res="2.7814717032015324e-04" rms="3.6954692006111145e-01" purity="3.3148014545440674e-01" nType="-99"/>
          <Node pos="r" depth="2" NCoef="0" IVar="-1" Cut="0.0000000000000000e+00" cType="1" res="2.0042795222252607e-03" rms="3.6170998215675354e-01" purity="8.3434039354324341e-01" nType="-99"/>
        </Node>
      </Node>
    </BinaryTree>
    <BinaryTree type="DecisionTree" boostWeight="1.0000000000000000e+00" itree="240">
      <Node pos="s" depth="0" NCoef="0" IVar="5" Cut="2.5942600000000000e+05" cType="1" res="4.7283598780632019e-01" rms="4.9951708316802979e-01" purity="4.7315850853919983e-01" nType="0">
        <Node pos="l" depth="1" NCoef="0" IVar="4" Cut="3.7086070312500000e+04" cType="1" res="1.7518813908100128e-01" rms="3.8012793660163879e-01" purity="1.7518815398216248e-01" nType="0">
          <Node pos="l" depth="2" NCoef="0" IVar="-1" Cut="0.0000000000000000e+00" cType="1" res="-3.7507065571844578e-03" rms="2.8343656659126282e-01" purity="9.8945036530494690e-02" nType="-99"/>
          <Node pos="r" depth="2" NCoef="0" IVar="-1" Cut="0.0000000000000000e+00" cType="1" res="1.3139002257958055e-03" rms="4.7574910521507263e-01" purity="5.3970909118652344e-01" nType="-99"/>
        </Node>
        <Node pos="r" depth="1" NCoef="0" IVar="5" Cut="2.9221625000000000e+05" cType="1" res="7.2733259201049805e-01" rms="4.4586241245269775e-01" purity="7.2793084383010864e-01" nType="0">
          <Node pos="l" depth="2" NCoef="0" IVar="-1" Cut="0.0000000000000000e+00" cType="1" res="1.4951189768908080e-05" rms="4.5124047994613647e-01" purity="7.9500073194503784e-01" nType="-99"/>
          <Node pos="r" depth="2" NCoef="0" IVar="-1" Cut="0.0000000000000000e+00" cType="1" res="1.2510123196989298e-03" rms="3.9269575476646423e-01" purity="6.8679416179656982e-01" nType="-99"/>
        </Node>
      </Node>
    </BinaryTree>
    <BinaryTree type="DecisionTree" boostWeight="1.0000000000000000e+00" itree="241">
      <Node pos="s" depth="0" NCoef="0" IVar="5" Cut="4.0263796875000000e+05" cType="1" res="0.0000000000000000e+00" rms="1.9580649387275059e+17" purity="3.8331291079521179e-01" nType="0">
        <Node pos="l" depth="1" NCoef="0" IVar="4" Cut="6.5688335937500000e+04" cType="1" res="2.6024085283279419e-01" rms="4.3876594305038452e-01" purity="2.6032674312591553e-01" nType="0">
          <Node pos="l" depth="2" NCoef="0" IVar="-1" Cut="0.0000000000000000e+00" cType="1" res="-1.3962365919724107e-03" rms="3.5645148158073425e-01" purity="2.2117859125137329e-01" nType="-99"/>
          <Node pos="r" depth="2" NCoef="0" IVar="-1" Cut="0.0000000000000000e+00" cType="1" res="1.9253508653491735e-03" rms="3.9653411507606506e-01" purity="8.0289375782012939e-01" nType="-99"/>
        </Node>
        <Node pos="r" depth="1" NCoef="0" IVar="4" Cut="5.3210050781250000e+04" cType="1" res="7.8801792860031128e-01" rms="4.1056874394416809e-01" purity="7.8999060392379761e-01" nType="0">
          <Node pos="l" depth="2" NCoef="0" IVar="-1" Cut="0.0000000000000000e+00" cType="1" res="3.6468093749135733e-03" rms="3.8782626390457153e-01" purity="7.3442041873931885e-01" nType="-99"/>
          <Node pos="r" depth="2" NCoef="0" IVar="-1" Cut="0.0000000000000000e+00" cType="1" res="2.7537792921066284e-03" rms="2.8081265091896057e-01" purity="9.1134846210479736e-01" nType="-99"/>
        </Node>
      </Node>
    </BinaryTree>
    <BinaryTree type="DecisionTree" boostWeight="1.0000000000000000e+00" itree="242">
      <Node pos="s" depth="0" NCoef="0" IVar="4" Cut="1.7767003906250000e+04" cType="1" res="5.7956969738006592e-01" rms="4.9362805485725403e-01" purity="5.7956963777542114e-01" nType="0">
        <Node pos="l" depth="1" NCoef="0" IVar="5" Cut="4.4403531250000000e+05" cType="1" res="1.9009120762348175e-01" rms="3.9294421672821045e-01" purity="1.9053982198238373e-01" nType="0">
          <Node pos="l" depth="2" NCoef="0" IVar="-1" Cut="0.0000000000000000e+00" cType="1" res="-6.3382234657183290e-04" rms="2.7994102239608765e-01" purity="1.3332144916057587e-01" nType="-99"/>
          <Node pos="r" depth="2" NCoef="0" IVar="-1" Cut="0.0000000000000000e+00" cType="1" res="3.9699790067970753e-03" rms="3.7549635767936707e-01" purity="7.0582491159439087e-01" nType="-99"/>
        </Node>
        <Node pos="r" depth="1" NCoef="0" IVar="4" Cut="2.9330085937500000e+04" cType="1" res="7.2164332866668701e-01" rms="4.4818994402885437e-01" purity="7.2164332866668701e-01" nType="0">
          <Node pos="l" depth="2" NCoef="0" IVar="-1" Cut="0.0000000000000000e+00" cType="1" res="1.2448525012587197e-05" rms="4.3384677171707153e-01" purity="7.6804631948471069e-01" nType="-99"/>
          <Node pos="r" depth="2" NCoef="0" IVar="-1" Cut="0.0000000000000000e+00" cType="1" res="1.5008458867669106e-03" rms="4.1814881563186646e-01" purity="6.3435691595077515e-01" nType="-99"/>
        </Node>
      </Node>
    </BinaryTree>
    <BinaryTree type="DecisionTree" boostWeight="1.0000000000000000e+00" itree="243">
      <Node pos="s" depth="0" NCoef="0" IVar="3" Cut="8.9426296875000000e+04" cType="1" res="5.2058655023574829e-01" rms="4.9957600235939026e-01" purity="5.2058655023574829e-01" nType="0">
        <Node pos="l" depth="1" NCoef="0" IVar="3" Cut="8.8492664062500000e+04" cType="1" res="6.1233568191528320e-01" rms="4.8721730709075928e-01" purity="6.1233568191528320e-01" nType="0">
          <Node pos="l" depth="2" NCoef="0" IVar="-1" Cut="0.0000000000000000e+00" cType="1" res="5.3025677334517241e-04" rms="3.6006271839141846e-01" purity="3.9701828360557556e-01" nType="-99"/>
          <Node pos="r" depth="2" NCoef="0" IVar="-1" Cut="0.0000000000000000e+00" cType="1" res="1.5908517525531352e-05" rms="3.8129791617393494e-01" purity="8.3282113075256348e-01" nType="-99"/>
        </Node>
        <Node pos="r" depth="1" NCoef="0" IVar="4" Cut="5.6631289062500000e+04" cType="1" res="3.8994210958480835e-01" rms="4.8785415291786194e-01" purity="3.9020398259162903e-01" nType="0">
          <Node pos="l" depth="2" NCoef="0" IVar="-1" Cut="0.0000000000000000e+00" cType="1" res="-2.2481776250060648e-04" rms="3.7121105194091797e-01" purity="3.1008189916610718e-01" nType="-99"/>
          <Node pos="r" depth="2" NCoef="0" IVar="-1" Cut="0.0000000000000000e+00" cType="1" res="1.7088443273678422e-03" rms="3.5457319021224976e-01" purity="8.4371876716613770e-01" nType="-99"/>
        </Node>
      </Node>
    </BinaryTree>
    <BinaryTree type="DecisionTree" boostWeight="1.0000000000000000e+00" itree="244">
      <Node pos="s" depth="0" NCoef="0" IVar="3" Cut="9.5950898437500000e+04" cType="1" res="5.4253399372100830e-01" rms="4.9837562441825867e-01" purity="5.4292577505111694e-01" nType="0">
        <Node pos="l" depth="1" NCoef="0" IVar="5" Cut="2.5252848437500000e+05" cType="1" res="4.7312667965888977e-01" rms="4.9952185153961182e-01" purity="4.7356167435646057e-01" nType="0">
          <Node pos="l" depth="2" NCoef="0" IVar="-1" Cut="0.0000000000000000e+00" cType="1" res="-2.3166553582996130e-03" rms="3.1575495004653931e-01" purity="1.4705052971839905e-01" nType="-99"/>
          <Node pos="r" depth="2" NCoef="0" IVar="-1" Cut="0.0000000000000000e+00" cType="1" res="1.8632594219525345e-05" rms="4.7147202491760254e-01" purity="7.2397905588150024e-01" nType="-99"/>
        </Node>
        <Node pos="r" depth="1" NCoef="0" IVar="3" Cut="9.6732921875000000e+04" cType="1" res="7.7143114805221558e-01" rms="4.1991087794303894e-01" purity="7.7167993783950806e-01" nType="0">
          <Node pos="l" depth="2" NCoef="0" IVar="-1" Cut="0.0000000000000000e+00" cType="1" res="9.9355866041150875e-06" rms="2.7790427207946777e-01" purity="9.1652828454971313e-01" nType="-99"/>
          <Node pos="r" depth="2" NCoef="0" IVar="-1" Cut="0.0000000000000000e+00" cType="1" res="1.4901619870215654e-03" rms="3.8724648952484131e-01" purity="4.4840285181999207e-01" nType="-99"/>
        </Node>
      </Node>
    </BinaryTree>
    <BinaryTree type="DecisionTree" boostWeight="1.0000000000000000e+00" itree="245">
      <Node pos="s" depth="0" NCoef="0" IVar="4" Cut="5.9149851562500000e+04" cType="1" res="3.9064240455627441e-01" rms="4.8833078145980835e-01" purity="3.9106842875480652e-01" nType="0">
        <Node pos="l" depth="1" NCoef="0" IVar="0" Cut="3.0000000000000000e+00" cType="1" res="8.0467283260077238e-04" rms="3.6245626211166382e-01" purity="3.1511870026588440e-01" nType="0">
          <Node pos="l" depth="2" NCoef="0" IVar="-1" Cut="0.0000000000000000e+00" cType="1" res="-1.2073941761627793e-03" rms="3.6286696791648865e-01" purity="2.4762023985385895e-01" nType="-99"/>
          <Node pos="r" depth="2" NCoef="0" IVar="-1" Cut="0.0000000000000000e+00" cType="1" res="4.2712944559752941e-03" rms="3.1357958912849426e-01" purity="8.9061284065246582e-01" nType="-99"/>
        </Node>
        <Node pos="r" depth="1" NCoef="0" IVar="4" Cut="8.1101937500000000e+04" cType="1" res="8.6017471551895142e-01" rms="3.4872263669967651e-01" purity="8.6150801181793213e-01" nType="0">
          <Node pos="l" depth="2" NCoef="0" IVar="-1" Cut="0.0000000000000000e+00" cType="1" res="1.5144078060984612e-03" rms="3.9560455083847046e-01" purity="7.8971248865127563e-01" nType="-99"/>
          <Node pos="r" depth="2" NCoef="0" IVar="-1" Cut="0.0000000000000000e+00" cType="1" res="2.3255539126694202e-03" rms="2.7488160133361816e-01" purity="9.1763025522232056e-01" nType="-99"/>
        </Node>
      </Node>
    </BinaryTree>
    <BinaryTree type="DecisionTree" boostWeight="1.0000000000000000e+00" itree="246">
      <Node pos="s" depth="0" NCoef="0" IVar="5" Cut="1.6215667187500000e+05" cType="1" res="4.8033490777015686e-01" rms="4.9961313605308533e-01" purity="4.8033493757247925e-01" nType="0">
        <Node pos="l" depth="1" NCoef="0" IVar="-1" Cut="0.0000000000000000e+00" cType="1" res="9.6358617156511173e-06" rms="3.7360802292823792e-01" purity="7.4759733676910400e-01" nType="-99"/>
        <Node pos="r" depth="1" NCoef="0" IVar="4" Cut="3.9859898437500000e+04" cType="1" res="0.0000000000000000e+00" rms="6.0890661188750528e-06" purity="4.0612038969993591e-01" nType="0">
          <Node pos="l" depth="2" NCoef="0" IVar="-1" Cut="0.0000000000000000e+00" cType="1" res="-3.4999049967154860e-04" rms="3.5932084918022156e-01" purity="2.9046252369880676e-01" nType="-99"/>
          <Node pos="r" depth="2" NCoef="0" IVar="-1" Cut="0.0000000000000000e+00" cType="1" res="1.8617655150592327e-03" rms="4.0621796250343323e-01" purity="7.4014610052108765e-01" nType="-99"/>
        </Node>
      </Node>
    </BinaryTree>
    <BinaryTree type="DecisionTree" boostWeight="1.0000000000000000e+00" itree="247">
      <Node pos="s" depth="0" NCoef="0" IVar="2" Cut="8.9600773437500000e+04" cType="1" res="5.6849294900894165e-01" rms="4.9545878171920776e-01" purity="5.6889486312866211e-01" nType="0">
        <Node pos="l" depth="1" NCoef="0" IVar="2" Cut="8.9247882812500000e+04" cType="1" res="8.0223214626312256e-01" rms="3.9831614494323730e-01" purity="8.0238717794418335e-01" nType="0">
          <Node pos="l" depth="2" NCoef="0" IVar="-1" Cut="0.0000000000000000e+00" cType="1" res="8.3295808872207999e-04" rms="3.7120059132575989e-01" purity="3.8799193501472473e-01" nType="-99"/>
          <Node pos="r" depth="2" NCoef="0" IVar="-1" Cut="0.0000000000000000e+00" cType="1" res="1.2774957212968729e-05" rms="2.2909712791442871e-01" purity="9.4484478235244751e-01" nType="-99"/>
        </Node>
        <Node pos="r" depth="1" NCoef="0" IVar="4" Cut="4.5868503906250000e+04" cType="1" res="3.9386734366416931e-01" rms="4.8891109228134155e-01" purity="3.9445373415946960e-01" nType="0">
          <Node pos="l" depth="2" NCoef="0" IVar="-1" Cut="0.0000000000000000e+00" cType="1" res="-7.5315305730327964e-04" rms="3.5193276405334473e-01" purity="2.8057020902633667e-01" nType="-99"/>
          <Node pos="r" depth="2" NCoef="0" IVar="-1" Cut="0.0000000000000000e+00" cType="1" res="8.0857763532549143e-04" rms="3.7235409021377563e-01" purity="8.0027079582214355e-01" nType="-99"/>
        </Node>
      </Node>
    </BinaryTree>
    <BinaryTree type="DecisionTree" boostWeight="1.0000000000000000e+00" itree="248">
      <Node pos="s" depth="0" NCoef="0" IVar="4" Cut="4.7302878906250000e+04" cType="1" res="3.8573521375656128e-01" rms="4.8695796728134155e-01" purity="3.8591974973678589e-01" nType="0">
        <Node pos="l" depth="1" NCoef="0" IVar="0" Cut="3.0000000000000000e+00" cType="1" res="-4.4794226996600628e-03" rms="3.5549411177635193e-01" purity="2.8986027836799622e-01" nType="0">
          <Node pos="l" depth="2" NCoef="0" IVar="-1" Cut="0.0000000000000000e+00" cType="1" res="-1.4215663541108370e-03" rms="3.5493633151054382e-01" purity="2.2643026709556580e-01" nType="-99"/>
          <Node pos="r" depth="2" NCoef="0" IVar="-1" Cut="0.0000000000000000e+00" cType="1" res="4.8621837049722672e-03" rms="3.1729245185852051e-01" purity="8.8695758581161499e-01" nType="-99"/>
        </Node>
        <Node pos="r" depth="1" NCoef="0" IVar="4" Cut="7.5166992187500000e+04" cType="1" res="7.9059636592864990e-01" rms="4.0732055902481079e-01" purity="7.9095268249511719e-01" nType="0">
          <Node pos="l" depth="2" NCoef="0" IVar="-1" Cut="0.0000000000000000e+00" cType="1" res="1.7225693445652723e-03" rms="4.2488068342208862e-01" purity="7.1699184179306030e-01" nType="-99"/>
          <Node pos="r" depth="2" NCoef="0" IVar="-1" Cut="0.0000000000000000e+00" cType="1" res="2.3259404115378857e-03" rms="3.0408030748367310e-01" purity="8.9319670200347900e-01" nType="-99"/>
        </Node>
      </Node>
    </BinaryTree>
    <BinaryTree type="DecisionTree" boostWeight="1.0000000000000000e+00" itree="249">
      <Node pos="s" depth="0" NCoef="0" IVar="3" Cut="8.9427125000000000e+04" cType="1" res="0.0000000000000000e+00" rms="6.2584531178732671e+21" purity="5.1454049348831177e-01" nType="0">
        <Node pos="l" depth="1" NCoef="0" IVar="3" Cut="8.8493609375000000e+04" cType="1" res="6.0896658897399902e-01" rms="4.8798185586929321e-01" purity="6.0896658897399902e-01" nType="0">
          <Node pos="l" depth="2" NCoef="0" IVar="-1" Cut="0.0000000000000000e+00" cType="1" res="9.6739665605127811e-04" rms="3.6817568540573120e-01" purity="3.8321316242218018e-01" nType="-99"/>
          <Node pos="r" depth="2" NCoef="0" IVar="-1" Cut="0.0000000000000000e+00" cType="1" res="1.5978830560925417e-05" rms="3.7958458065986633e-01" purity="8.3456200361251831e-01" nType="-99"/>
        </Node>
        <Node pos="r" depth="1" NCoef="0" IVar="5" Cut="4.0701593750000000e+05" cType="1" res="3.8224595785140991e-01" rms="4.8593619465827942e-01" purity="3.8224595785140991e-01" nType="0">
          <Node pos="l" depth="2" NCoef="0" IVar="-1" Cut="0.0000000000000000e+00" cType="1" res="-6.4510758966207504e-04" rms="3.6571300029754639e-01" purity="2.5677117705345154e-01" nType="-99"/>
          <Node pos="r" depth="2" NCoef="0" IVar="-1" Cut="0.0000000000000000e+00" cType="1" res="3.0775780323892832e-03" rms="3.5592553019523621e-01" purity="7.8692811727523804e-01" nType="-99"/>
        </Node>
      </Node>
    </BinaryTree>
    <BinaryTree type="DecisionTree" boostWeight="1.0000000000000000e+00" itree="250">
      <Node pos="s" depth="0" NCoef="0" IVar="4" Cut="1.7801371093750000e+04" cType="1" res="5.7963454723358154e-01" rms="4.9366840720176697e-01" purity="5.7973796129226685e-01" nType="0">
        <Node pos="l" depth="1" NCoef="0" IVar="5" Cut="4.7338390625000000e+05" cType="1" res="1.9929447770118713e-01" rms="3.9946988224983215e-01" purity="1.9965198636054993e-01" nType="0">
          <Node pos="l" depth="2" NCoef="0" IVar="-1" Cut="0.0000000000000000e+00" cType="1" res="-2.6452814927324653e-04" rms="2.7912974357604980e-01" purity="1.4233358204364777e-01" nType="-99"/>
          <Node pos="r" depth="2" NCoef="0" IVar="-1" Cut="0.0000000000000000e+00" cType="1" res="4.0789316408336163e-03" rms="3.5851112008094788e-01" purity="7.5099301338195801e-01" nType="-99"/>
        </Node>
        <Node pos="r" depth="1" NCoef="0" IVar="4" Cut="2.9364853515625000e+04" cType="1" res="7.2186642885208130e-01" rms="4.4807955622673035e-01" purity="7.2193968296051025e-01" nType="0">
          <Node pos="l" depth="2" NCoef="0" IVar="-1" Cut="0.0000000000000000e+00" cType="1" res="1.2426565263012890e-05" rms="4.3553167581558228e-01" purity="7.6669144630432129e-01" nType="-99"/>
          <Node pos="r" depth="2" NCoef="0" IVar="-1" Cut="0.0000000000000000e+00" cType="1" res="1.4741371851414442e-03" rms="4.1669020056724548e-01" purity="6.3979601860046387e-01" nType="-99"/>
        </Node>
      </Node>
    </BinaryTree>
    <BinaryTree type="DecisionTree" boostWeight="1.0000000000000000e+00" itree="251">
      <Node pos="s" depth="0" NCoef="0" IVar="1" Cut="1.9126706250000000e+05" cType="1" res="4.4891878962516785e-01" rms="4.9738386273384094e-01" purity="4.4891881942749023e-01" nType="0">
        <Node pos="l" depth="1" NCoef="0" IVar="1" Cut="1.8719475000000000e+05" cType="1" res="3.5643946379423141e-02" rms="2.2282664477825165e-01" purity="7.0766395330429077e-01" nType="0">
          <Node pos="l" depth="2" NCoef="0" IVar="-1" Cut="0.0000000000000000e+00" cType="1" res="-2.6031996821984649e-04" rms="3.3209663629531860e-01" purity="2.2408916056156158e-01" nType="-99"/>
          <Node pos="r" depth="2" NCoef="0" IVar="-1" Cut="0.0000000000000000e+00" cType="1" res="1.6608055375399999e-05" rms="3.3552277088165283e-01" purity="8.4292942285537720e-01" nType="-99"/>
        </Node>
        <Node pos="r" depth="1" NCoef="0" IVar="0" Cut="3.0000000000000000e+00" cType="1" res="3.0879039317369461e-02" rms="3.7193208932876587e-01" purity="3.9967304468154907e-01" nType="0">
          <Node pos="l" depth="2" NCoef="0" IVar="-1" Cut="0.0000000000000000e+00" cType="1" res="2.7615594444796443e-04" rms="3.7781417369842529e-01" purity="3.2132190465927124e-01" nType="-99"/>
          <Node pos="r" depth="2" NCoef="0" IVar="-1" Cut="0.0000000000000000e+00" cType="1" res="1.3594995252788067e-03" rms="2.8822112083435059e-01" purity="9.0963393449783325e-01" nType="-99"/>
        </Node>
      </Node>
    </BinaryTree>
    <BinaryTree type="DecisionTree" boostWeight="1.0000000000000000e+00" itree="252">
      <Node pos="s" depth="0" NCoef="0" IVar="4" Cut="5.5033109375000000e+04" cType="1" res="3.8671088218688965e-01" rms="4.8757228255271912e-01" purity="3.8735055923461914e-01" nType="0">
        <Node pos="l" depth="1" NCoef="0" IVar="0" Cut="3.0000000000000000e+00" cType="1" res="-3.9634681306779385e-03" rms="3.6135694384574890e-01" purity="3.0262225866317749e-01" nType="0">
          <Node pos="l" depth="2" NCoef="0" IVar="-1" Cut="0.0000000000000000e+00" cType="1" res="-1.3567501446232200e-03" rms="3.6165651679039001e-01" purity="2.3903979361057281e-01" nType="-99"/>
          <Node pos="r" depth="2" NCoef="0" IVar="-1" Cut="0.0000000000000000e+00" cType="1" res="4.6520358882844448e-03" rms="3.1960457563400269e-01" purity="8.8431489467620850e-01" nType="-99"/>
        </Node>
        <Node pos="r" depth="1" NCoef="0" IVar="4" Cut="7.5997765625000000e+04" cType="1" res="8.3237564563751221e-01" rms="3.7564843893051147e-01" purity="8.3604711294174194e-01" nType="0">
          <Node pos="l" depth="2" NCoef="0" IVar="-1" Cut="0.0000000000000000e+00" cType="1" res="1.8180061597377062e-03" rms="4.2007201910018921e-01" purity="7.4402165412902832e-01" nType="-99"/>
          <Node pos="r" depth="2" NCoef="0" IVar="-1" Cut="0.0000000000000000e+00" cType="1" res="1.9578819628804922e-03" rms="2.9602429270744324e-01" purity="9.0176498889923096e-01" nType="-99"/>
        </Node>
      </Node>
    </BinaryTree>
    <BinaryTree type="DecisionTree" boostWeight="1.0000000000000000e+00" itree="253">
      <Node pos="s" depth="0" NCoef="0" IVar="3" Cut="8.9426531250000000e+04" cType="1" res="5.5402404069900513e-01" rms="4.9720337986946106e-01" purity="5.5415385961532593e-01" nType="0">
        <Node pos="l" depth="1" NCoef="0" IVar="3" Cut="8.8493015625000000e+04" cType="1" res="6.5853136777877808e-01" rms="4.7434058785438538e-01" purity="6.5866255760192871e-01" nType="0">
          <Node pos="l" depth="2" NCoef="0" IVar="-1" Cut="0.0000000000000000e+00" cType="1" res="9.2948990641161799e-04" rms="3.6460098624229431e-01" purity="3.8247624039649963e-01" nType="-99"/>
          <Node pos="r" depth="2" NCoef="0" IVar="-1" Cut="0.0000000000000000e+00" cType="1" res="1.6138714272528887e-05" rms="3.4463077783584595e-01" purity="8.6876618862152100e-01" nType="-99"/>
        </Node>
        <Node pos="r" depth="1" NCoef="0" IVar="4" Cut="6.1030218750000000e+04" cType="1" res="3.8797730207443237e-01" rms="4.8775336146354675e-01" purity="3.8855731487274170e-01" nType="0">
          <Node pos="l" depth="2" NCoef="0" IVar="-1" Cut="0.0000000000000000e+00" cType="1" res="-5.0118938088417053e-04" rms="3.6131238937377930e-01" purity="3.1128641963005066e-01" nType="-99"/>
          <Node pos="r" depth="2" NCoef="0" IVar="-1" Cut="0.0000000000000000e+00" cType="1" res="1.9853529520332813e-03" rms="3.1421846151351929e-01" purity="8.8284546136856079e-01" nType="-99"/>
        </Node>
      </Node>
    </BinaryTree>
    <BinaryTree type="DecisionTree" boostWeight="1.0000000000000000e+00" itree="254">
      <Node pos="s" depth="0" NCoef="0" IVar="5" Cut="1.5990256250000000e+05" cType="1" res="4.8624023795127869e-01" rms="4.9981063604354858e-01" purity="4.8624026775360107e-01" nType="0">
        <Node pos="l" depth="1" NCoef="0" IVar="-1" Cut="0.0000000000000000e+00" cType="1" res="9.6411731647094712e-06" rms="3.5758084058761597e-01" purity="7.7580493688583374e-01" nType="-99"/>
        <Node pos="r" depth="1" NCoef="0" IVar="4" Cut="4.7302878906250000e+04" cType="1" res="4.1165953874588013e-01" rms="4.9213409423828125e-01" purity="4.1165953874588013e-01" nType="0">
          <Node pos="l" depth="2" NCoef="0" IVar="-1" Cut="0.0000000000000000e+00" cType="1" res="9.9515040346886963e-05" rms="3.6641222238540649e-01" purity="3.1124582886695862e-01" nType="-99"/>
          <Node pos="r" depth="2" NCoef="0" IVar="-1" Cut="0.0000000000000000e+00" cType="1" res="2.0054609049111605e-03" rms="3.7217366695404053e-01" purity="8.0383628606796265e-01" nType="-99"/>
        </Node>
      </Node>
    </BinaryTree>
    <BinaryTree type="DecisionTree" boostWeight="1.0000000000000000e+00" itree="255">
      <Node pos="s" depth="0" NCoef="0" IVar="1" Cut="2.0203215625000000e+05" cType="1" res="5.2868235111236572e-01" rms="4.9924895167350769e-01" purity="5.2875453233718872e-01" nType="0">
        <Node pos="l" depth="1" NCoef="0" IVar="2" Cut="8.9716445312500000e+04" cType="1" res="2.8638163208961487e-01" rms="4.6393138170242310e-01" purity="7.3251956701278687e-01" nType="0">
          <Node pos="l" depth="2" NCoef="0" IVar="-1" Cut="0.0000000000000000e+00" cType="1" res="1.1693715350702405e-05" rms="2.6946631073951721e-01" purity="9.0663999319076538e-01" nType="-99"/>
          <Node pos="r" depth="2" NCoef="0" IVar="-1" Cut="0.0000000000000000e+00" cType="1" res="-4.1380207403562963e-04" rms="3.2614618539810181e-01" purity="2.3439082503318787e-01" nType="-99"/>
        </Node>
        <Node pos="r" depth="1" NCoef="0" IVar="4" Cut="5.9117226562500000e+04" cType="1" res="4.1798415780067444e-01" rms="4.9334043264389038e-01" purity="4.1809552907943726e-01" nType="0">
          <Node pos="l" depth="2" NCoef="0" IVar="-1" Cut="0.0000000000000000e+00" cType="1" res="4.2781414231285453e-04" rms="3.7290507555007935e-01" purity="3.4463778138160706e-01" nType="-99"/>
          <Node pos="r" depth="2" NCoef="0" IVar="-1" Cut="0.0000000000000000e+00" cType="1" res="1.9567324779927731e-03" rms="3.4013497829437256e-01" purity="8.5950988531112671e-01" nType="-99"/>
        </Node>
      </Node>
    </BinaryTree>
    <BinaryTree type="DecisionTree" boostWeight="1.0000000000000000e+00" itree="256">
      <Node pos="s" depth="0" NCoef="0" IVar="4" Cut="5.3239878906250000e+04" cType="1" res="0.0000000000000000e+00" rms="9.5079374658732032e+16" purity="3.8491511344909668e-01" nType="0">
        <Node pos="l" depth="1" NCoef="0" IVar="0" Cut="1.0000000000000000e+00" cType="1" res="-2.5749676860868931e-03" rms="3.6046913266181946e-01" purity="3.0050501227378845e-01" nType="0">
          <Node pos="l" depth="2" NCoef="0" IVar="-1" Cut="0.0000000000000000e+00" cType="1" res="-5.1314481534063816e-03" rms="2.7758654952049255e-01" purity="8.8774174451828003e-02" nType="-99"/>
          <Node pos="r" depth="2" NCoef="0" IVar="-1" Cut="0.0000000000000000e+00" cType="1" res="2.0326587837189436e-03" rms="4.2202332615852356e-01" purity="5.1646673679351807e-01" nType="-99"/>
        </Node>
        <Node pos="r" depth="1" NCoef="0" IVar="4" Cut="8.0890710937500000e+04" cType="1" res="8.2779026031494141e-01" rms="3.7756264209747314e-01" purity="8.2779026031494141e-01" nType="0">
          <Node pos="l" depth="2" NCoef="0" IVar="-1" Cut="0.0000000000000000e+00" cType="1" res="3.9604195626452565e-04" rms="3.9858666062355042e-01" purity="7.6948922872543335e-01" nType="-99"/>
          <Node pos="r" depth="2" NCoef="0" IVar="-1" Cut="0.0000000000000000e+00" cType="1" res="2.1607901435345411e-03" rms="2.9575836658477783e-01" purity="9.0243947505950928e-01" nType="-99"/>
        </Node>
      </Node>
    </BinaryTree>
    <BinaryTree type="DecisionTree" boostWeight="1.0000000000000000e+00" itree="257">
      <Node pos="s" depth="0" NCoef="0" IVar="5" Cut="2.4554017187500000e+05" cType="1" res="inf" rms="0.0000000000000000e+00" purity="4.6903714537620544e-01" nType="0">
        <Node pos="l" depth="1" NCoef="0" IVar="4" Cut="3.9188679687500000e+04" cType="1" res="1.4899602532386780e-01" rms="3.5608455538749695e-01" purity="1.4899601042270660e-01" nType="0">
          <Node pos="l" depth="2" NCoef="0" IVar="-1" Cut="0.0000000000000000e+00" cType="1" res="-4.3912138789892197e-03" rms="2.7786782383918762e-01" purity="8.8901244103908539e-02" nType="-99"/>
          <Node pos="r" depth="2" NCoef="0" IVar="-1" Cut="0.0000000000000000e+00" cType="1" res="6.9250405067577958e-04" rms="4.7242468595504761e-01" purity="5.0227940082550049e-01" nType="-99"/>
        </Node>
        <Node pos="r" depth="1" NCoef="0" IVar="5" Cut="2.7061793750000000e+05" cType="1" res="7.0373547077178955e-01" rms="4.5660907030105591e-01" purity="7.0373547077178955e-01" nType="0">
          <Node pos="l" depth="2" NCoef="0" IVar="-1" Cut="0.0000000000000000e+00" cType="1" res="1.5477295164600946e-05" rms="4.3029528856277466e-01" purity="7.9609400033950806e-01" nType="-99"/>
          <Node pos="r" depth="2" NCoef="0" IVar="-1" Cut="0.0000000000000000e+00" cType="1" res="1.1924224672839046e-03" rms="3.9922901988029480e-01" purity="6.5364068746566772e-01" nType="-99"/>
        </Node>
      </Node>
    </BinaryTree>
    <BinaryTree type="DecisionTree" boostWeight="1.0000000000000000e+00" itree="258">
      <Node pos="s" depth="0" NCoef="0" IVar="3" Cut="8.9426546875000000e+04" cType="1" res="5.5741363763809204e-01" rms="4.9670428037643433e-01" purity="5.5757516622543335e-01" nType="0">
        <Node pos="l" depth="1" NCoef="0" IVar="3" Cut="8.8493062500000000e+04" cType="1" res="6.5755367279052734e-01" rms="4.7454771399497986e-01" purity="6.5781742334365845e-01" nType="0">
          <Node pos="l" depth="2" NCoef="0" IVar="-1" Cut="0.0000000000000000e+00" cType="1" res="8.6433376418426633e-04" rms="3.6191987991333008e-01" purity="3.7833228707313538e-01" nType="-99"/>
          <Node pos="r" depth="2" NCoef="0" IVar="-1" Cut="0.0000000000000000e+00" cType="1" res="1.6470912669319659e-05" rms="3.4111505746841431e-01" purity="8.7203258275985718e-01" nType="-99"/>
        </Node>
        <Node pos="r" depth="1" NCoef="0" IVar="0" Cut="2.0000000000000000e+00" cType="1" res="2.8896702453494072e-02" rms="3.6884137988090515e-01" purity="3.9910376071929932e-01" nType="0">
          <Node pos="l" depth="2" NCoef="0" IVar="-1" Cut="0.0000000000000000e+00" cType="1" res="-3.2896400080062449e-04" rms="3.6552163958549500e-01" purity="2.3088176548480988e-01" nType="-99"/>
          <Node pos="r" depth="2" NCoef="0" IVar="-1" Cut="0.0000000000000000e+00" cType="1" res="2.6865429244935513e-03" rms="3.5904932022094727e-01" purity="8.4361362457275391e-01" nType="-99"/>
        </Node>
      </Node>
    </BinaryTree>
    <BinaryTree type="DecisionTree" boostWeight="1.0000000000000000e+00" itree="259">
      <Node pos="s" depth="0" NCoef="0" IVar="1" Cut="2.8971800000000000e+05" cType="1" res="4.7470942139625549e-01" rms="4.9948439002037048e-01" purity="4.7483372688293457e-01" nType="0">
        <Node pos="l" depth="1" NCoef="0" IVar="4" Cut="4.4986867187500000e+04" cType="1" res="2.3077839612960815e-01" rms="4.6146327257156372e-01" purity="3.1653401255607605e-01" nType="0">
          <Node pos="l" depth="2" NCoef="0" IVar="-1" Cut="0.0000000000000000e+00" cType="1" res="-3.8906038389541209e-04" rms="3.4140855073928833e-01" purity="2.3630411922931671e-01" nType="-99"/>
          <Node pos="r" depth="2" NCoef="0" IVar="-1" Cut="0.0000000000000000e+00" cType="1" res="1.5023524174466729e-03" rms="4.2782601714134216e-01" purity="7.1658492088317871e-01" nType="-99"/>
        </Node>
        <Node pos="r" depth="1" NCoef="0" IVar="1" Cut="3.0638490625000000e+05" cType="1" res="6.7147916555404663e-01" rms="4.6997213363647461e-01" purity="6.7175805568695068e-01" nType="0">
          <Node pos="l" depth="2" NCoef="0" IVar="-1" Cut="0.0000000000000000e+00" cType="1" res="1.5281037121894769e-05" rms="3.6601647734642029e-01" purity="8.6678224802017212e-01" nType="-99"/>
          <Node pos="r" depth="2" NCoef="0" IVar="-1" Cut="0.0000000000000000e+00" cType="1" res="1.4212663518264890e-03" rms="3.8331508636474609e-01" purity="5.4986172914505005e-01" nType="-99"/>
        </Node>
      </Node>
    </BinaryTree>
    <BinaryTree type="DecisionTree" boostWeight="1.0000000000000000e+00" itree="260">
      <Node pos="s" depth="0" NCoef="0" IVar="1" Cut="2.0040878125000000e+05" cType="1" res="4.9787122011184692e-01" rms="5.0004959106445312e-01" purity="4.9792528152465820e-01" nType="0">
        <Node pos="l" depth="1" NCoef="0" IVar="2" Cut="8.9653828125000000e+04" cType="1" res="6.4430290460586548e-01" rms="5.0239151716232300e-01" purity="7.0216739177703857e-01" nType="0">
          <Node pos="l" depth="2" NCoef="0" IVar="-1" Cut="0.0000000000000000e+00" cType="1" res="1.6989652067422867e-05" rms="2.8673702478408813e-01" purity="8.9358127117156982e-01" nType="-99"/>
          <Node pos="r" depth="2" NCoef="0" IVar="-1" Cut="0.0000000000000000e+00" cType="1" res="2.0448023860808462e-05" rms="3.4959116578102112e-01" purity="2.4400968849658966e-01" nType="-99"/>
        </Node>
        <Node pos="r" depth="1" NCoef="0" IVar="4" Cut="6.4850910156250000e+04" cType="1" res="4.0884983539581299e-01" rms="4.9170044064521790e-01" purity="4.0892750024795532e-01" nType="0">
          <Node pos="l" depth="2" NCoef="0" IVar="-1" Cut="0.0000000000000000e+00" cType="1" res="2.3020659864414483e-04" rms="3.6791074275970459e-01" purity="3.4449282288551331e-01" nType="-99"/>
          <Node pos="r" depth="2" NCoef="0" IVar="-1" Cut="0.0000000000000000e+00" cType="1" res="1.8921346636489034e-03" rms="3.2555171847343445e-01" purity="8.7581980228424072e-01" nType="-99"/>
        </Node>
      </Node>
    </BinaryTree>
    <BinaryTree type="DecisionTree" boostWeight="1.0000000000000000e+00" itree="261">
      <Node pos="s" depth="0" NCoef="0" IVar="3" Cut="8.9426867187500000e+04" cType="1" res="5.6900435686111450e-01" rms="4.9530404806137085e-01" purity="5.6909209489822388e-01" nType="0">
        <Node pos="l" depth="1" NCoef="0" IVar="3" Cut="8.8493375000000000e+04" cType="1" res="6.7594611644744873e-01" rms="4.6809861063957214e-01" purity="6.7601943016052246e-01" nType="0">
          <Node pos="l" depth="2" NCoef="0" IVar="-1" Cut="0.0000000000000000e+00" cType="1" res="6.0550658963620663e-04" rms="3.5578158497810364e-01" purity="3.7931585311889648e-01" nType="-99"/>
          <Node pos="r" depth="2" NCoef="0" IVar="-1" Cut="0.0000000000000000e+00" cType="1" res="1.5791842088219710e-05" rms="3.3727627992630005e-01" purity="8.8121759891510010e-01" nType="-99"/>
        </Node>
        <Node pos="r" depth="1" NCoef="0" IVar="4" Cut="5.8033171875000000e+04" cType="1" res="3.9245247840881348e-01" rms="4.8841062188148499e-01" purity="3.9256387948989868e-01" nType="0">
          <Node pos="l" depth="2" NCoef="0" IVar="-1" Cut="0.0000000000000000e+00" cType="1" res="-3.9658980676904321e-04" rms="3.5990858078002930e-01" purity="3.1246551871299744e-01" nType="-99"/>
          <Node pos="r" depth="2" NCoef="0" IVar="-1" Cut="0.0000000000000000e+00" cType="1" res="1.7882608808577061e-03" rms="3.3668315410614014e-01" purity="8.5919570922851562e-01" nType="-99"/>
        </Node>
      </Node>
    </BinaryTree>
    <BinaryTree type="DecisionTree" boostWeight="1.0000000000000000e+00" itree="262">
      <Node pos="s" depth="0" NCoef="0" IVar="5" Cut="4.2791278125000000e+05" cType="1" res="3.8325881958007812e-01" rms="4.8618051409721375e-01" purity="3.8325881958007812e-01" nType="0">
        <Node pos="l" depth="1" NCoef="0" IVar="4" Cut="6.7521414062500000e+04" cType="1" res="7.0076953836105512e+32" rms="0.0000000000000000e+00" purity="2.7418386936187744e-01" nType="0">
          <Node pos="l" depth="2" NCoef="0" IVar="-1" Cut="0.0000000000000000e+00" cType="1" res="-7.9155288403853774e-04" rms="3.6313772201538086e-01" purity="2.3662394285202026e-01" nType="-99"/>
          <Node pos="r" depth="2" NCoef="0" IVar="-1" Cut="0.0000000000000000e+00" cType="1" res="1.8772917101159692e-03" rms="3.9332446455955505e-01" purity="8.0419003963470459e-01" nType="-99"/>
        </Node>
        <Node pos="r" depth="1" NCoef="0" IVar="0" Cut="3.0000000000000000e+00" cType="1" res="1.3420960307121277e-01" rms="3.5459110140800476e-01" purity="7.9728811979293823e-01" nType="0">
          <Node pos="l" depth="2" NCoef="0" IVar="-1" Cut="0.0000000000000000e+00" cType="1" res="1.6747163608670235e-03" rms="4.1535806655883789e-01" purity="6.7647337913513184e-01" nType="-99"/>
          <Node pos="r" depth="2" NCoef="0" IVar="-1" Cut="0.0000000000000000e+00" cType="1" res="4.1755898855626583e-03" rms="2.6775237917900085e-01" purity="9.2354118824005127e-01" nType="-99"/>
        </Node>
      </Node>
    </BinaryTree>
    <BinaryTree type="DecisionTree" boostWeight="1.0000000000000000e+00" itree="263">
      <Node pos="s" depth="0" NCoef="0" IVar="0" Cut="3.0000000000000000e+00" cType="1" res="3.1019408255815506e-02" rms="3.6716368794441223e-01" purity="3.9377579092979431e-01" nType="0">
        <Node pos="l" depth="1" NCoef="0" IVar="4" Cut="6.5288492187500000e+04" cType="1" res="3.1343463063240051e-01" rms="4.6388939023017883e-01" purity="3.1343463063240051e-01" nType="0">
          <Node pos="l" depth="2" NCoef="0" IVar="-1" Cut="0.0000000000000000e+00" cType="1" res="-6.3012243481352925e-04" rms="3.6890077590942383e-01" purity="2.5982490181922913e-01" nType="-99"/>
          <Node pos="r" depth="2" NCoef="0" IVar="-1" Cut="0.0000000000000000e+00" cType="1" res="1.8419799162074924e-03" rms="3.6597278714179993e-01" purity="8.3571457862854004e-01" nType="-99"/>
        </Node>
        <Node pos="r" depth="1" NCoef="0" IVar="4" Cut="2.9581353515625000e+04" cType="1" res="9.1563230752944946e-01" rms="2.7793848514556885e-01" purity="9.1563230752944946e-01" nType="0">
          <Node pos="l" depth="2" NCoef="0" IVar="-1" Cut="0.0000000000000000e+00" cType="1" res="4.0545901283621788e-03" rms="3.1009879708290100e-01" purity="8.9440393447875977e-01" nType="-99"/>
          <Node pos="r" depth="2" NCoef="0" IVar="-1" Cut="0.0000000000000000e+00" cType="1" res="1.1067779269069433e-03" rms="2.5939166545867920e-01" purity="9.2777359485626221e-01" nType="-99"/>
        </Node>
      </Node>
    </BinaryTree>
    <BinaryTree type="DecisionTree" boostWeight="1.0000000000000000e+00" itree="264">
      <Node pos="s" depth="0" NCoef="0" IVar="5" Cut="2.2444151562500000e+05" cType="1" res="2.2694567579362168e-12" rms="0.0000000000000000e+00" purity="3.7846788763999939e-01" nType="0">
        <Node pos="l" depth="1" NCoef="0" IVar="4" Cut="2.3583228515625000e+04" cType="1" res="1.0751437395811081e-01" rms="3.0976608395576477e-01" purity="1.0751436650753021e-01" nType="0">
          <Node pos="l" depth="2" NCoef="0" IVar="-1" Cut="0.0000000000000000e+00" cType="1" res="-5.1851142197847366e-03" rms="2.2033452987670898e-01" purity="5.2113283425569534e-02" nType="-99"/>
          <Node pos="r" depth="2" NCoef="0" IVar="-1" Cut="0.0000000000000000e+00" cType="1" res="-4.8896530643105507e-03" rms="3.8743844628334045e-01" purity="2.2894440591335297e-01" nType="-99"/>
        </Node>
        <Node pos="r" depth="1" NCoef="0" IVar="4" Cut="4.1395703125000000e+04" cType="1" res="5.6663811206817627e-01" rms="4.9609705805778503e-01" purity="5.6732511520385742e-01" nType="0">
          <Node pos="l" depth="2" NCoef="0" IVar="-1" Cut="0.0000000000000000e+00" cType="1" res="1.3768706703558564e-03" rms="4.1531643271446228e-01" purity="4.6293768286705017e-01" nType="-99"/>
          <Node pos="r" depth="2" NCoef="0" IVar="-1" Cut="0.0000000000000000e+00" cType="1" res="1.2343039270490408e-03" rms="3.7839066982269287e-01" purity="8.0542761087417603e-01" nType="-99"/>
        </Node>
      </Node>
    </BinaryTree>
    <BinaryTree type="DecisionTree" boostWeight="1.0000000000000000e+00" itree="265">
      <Node pos="s" depth="0" NCoef="0" IVar="4" Cut="1.7767003906250000e+04" cType="1" res="5.8108490705490112e-01" rms="4.9338144063949585e-01" purity="5.8108490705490112e-01" nType="0">
        <Node pos="l" depth="1" NCoef="0" IVar="3" Cut="9.5668007812500000e+04" cType="1" res="1.8337640166282654e-01" rms="3.8820526003837585e-01" purity="1.8468411266803741e-01" nType="0">
          <Node pos="l" depth="2" NCoef="0" IVar="-1" Cut="0.0000000000000000e+00" cType="1" res="-1.4001756208017468e-03" rms="2.7251505851745605e-01" purity="1.7097426950931549e-01" nType="-99"/>
          <Node pos="r" depth="2" NCoef="0" IVar="-1" Cut="0.0000000000000000e+00" cType="1" res="3.8565827999264002e-03" rms="3.7514671683311462e-01" purity="2.6662486791610718e-01" nType="-99"/>
        </Node>
        <Node pos="r" depth="1" NCoef="0" IVar="4" Cut="2.9330294921875000e+04" cType="1" res="7.2387826442718506e-01" rms="4.4707775115966797e-01" purity="7.2387826442718506e-01" nType="0">
          <Node pos="l" depth="2" NCoef="0" IVar="-1" Cut="0.0000000000000000e+00" cType="1" res="1.2805581718566827e-05" rms="4.3442401289939880e-01" purity="7.6979267597198486e-01" nType="-99"/>
          <Node pos="r" depth="2" NCoef="0" IVar="-1" Cut="0.0000000000000000e+00" cType="1" res="9.8349933978170156e-04" rms="4.1671955585479736e-01" purity="6.4149665832519531e-01" nType="-99"/>
        </Node>
      </Node>
    </BinaryTree>
    <BinaryTree type="DecisionTree" boostWeight="1.0000000000000000e+00" itree="266">
      <Node pos="s" depth="0" NCoef="0" IVar="1" Cut="1.8991192187500000e+05" cType="1" res="4.4495072960853577e-01" rms="4.9696034193038940e-01" purity="4.4495072960853577e-01" nType="0">
        <Node pos="l" depth="1" NCoef="0" IVar="-1" Cut="0.0000000000000000e+00" cType="1" res="1.6756082914071158e-05" rms="4.0819680690765381e-01" purity="7.2449165582656860e-01" nType="-99"/>
        <Node pos="r" depth="1" NCoef="0" IVar="4" Cut="5.3032480468750000e+04" cType="1" res="3.9535430073738098e-01" rms="4.8892664909362793e-01" purity="3.9535433053970337e-01" nType="0">
          <Node pos="l" depth="2" NCoef="0" IVar="-1" Cut="0.0000000000000000e+00" cType="1" res="2.8433898933144519e-06" rms="3.6358359456062317e-01" purity="3.0907189846038818e-01" nType="-99"/>
          <Node pos="r" depth="2" NCoef="0" IVar="-1" Cut="0.0000000000000000e+00" cType="1" res="1.0604445124045014e-03" rms="3.6273136734962463e-01" purity="8.2459098100662231e-01" nType="-99"/>
        </Node>
      </Node>
    </BinaryTree>
    <BinaryTree type="DecisionTree" boostWeight="1.0000000000000000e+00" itree="267">
      <Node pos="s" depth="0" NCoef="0" IVar="4" Cut="3.7077156250000000e+04" cType="1" res="3.8280197978019714e-01" rms="4.8607060313224792e-01" purity="3.8280197978019714e-01" nType="0">
        <Node pos="l" depth="1" NCoef="0" IVar="0" Cut="1.0000000000000000e+00" cType="1" res="-1.1317785829305649e-02" rms="3.4242326021194458e-01" purity="2.5748339295387268e-01" nType="0">
          <Node pos="l" depth="2" NCoef="0" IVar="-1" Cut="0.0000000000000000e+00" cType="1" res="-6.8448344245553017e-03" rms="2.5817409157752991e-01" purity="6.8528532981872559e-02" nType="-99"/>
          <Node pos="r" depth="2" NCoef="0" IVar="-1" Cut="0.0000000000000000e+00" cType="1" res="1.6711195930838585e-03" rms="4.1427996754646301e-01" purity="4.7517412900924683e-01" nType="-99"/>
        </Node>
        <Node pos="r" depth="1" NCoef="0" IVar="4" Cut="8.0743742187500000e+04" cType="1" res="7.0655220746994019e-01" rms="4.5534184575080872e-01" purity="7.0655220746994019e-01" nType="0">
          <Node pos="l" depth="2" NCoef="0" IVar="-1" Cut="0.0000000000000000e+00" cType="1" res="7.7076139859855175e-04" rms="4.3464350700378418e-01" purity="6.4640641212463379e-01" nType="-99"/>
          <Node pos="r" depth="2" NCoef="0" IVar="-1" Cut="0.0000000000000000e+00" cType="1" res="2.2972079459577799e-03" rms="3.0481350421905518e-01" purity="8.9529109001159668e-01" nType="-99"/>
        </Node>
      </Node>
    </BinaryTree>
    <BinaryTree type="DecisionTree" boostWeight="1.0000000000000000e+00" itree="268">
      <Node pos="s" depth="0" NCoef="0" IVar="3" Cut="8.9426546875000000e+04" cType="1" res="5.1324301958084106e-01" rms="4.9982458353042603e-01" purity="5.1324301958084106e-01" nType="0">
        <Node pos="l" depth="1" NCoef="0" IVar="3" Cut="8.8493062500000000e+04" cType="1" res="6.1168825626373291e-01" rms="4.8736611008644104e-01" purity="6.1168825626373291e-01" nType="0">
          <Node pos="l" depth="2" NCoef="0" IVar="-1" Cut="0.0000000000000000e+00" cType="1" res="8.2405266584828496e-04" rms="3.6043098568916321e-01" purity="3.8731116056442261e-01" nType="-99"/>
          <Node pos="r" depth="2" NCoef="0" IVar="-1" Cut="0.0000000000000000e+00" cType="1" res="1.6439569662907161e-05" rms="3.8594192266464233e-01" purity="8.3150213956832886e-01" nType="-99"/>
        </Node>
        <Node pos="r" depth="1" NCoef="0" IVar="4" Cut="6.0984042968750000e+04" cType="1" res="3.7390100955963135e-01" rms="4.8413100838661194e-01" purity="3.7429997324943542e-01" nType="0">
          <Node pos="l" depth="2" NCoef="0" IVar="-1" Cut="0.0000000000000000e+00" cType="1" res="-1.3490587298292667e-04" rms="3.6483392119407654e-01" purity="3.1310415267944336e-01" nType="-99"/>
          <Node pos="r" depth="2" NCoef="0" IVar="-1" Cut="0.0000000000000000e+00" cType="1" res="1.8603290664032102e-03" rms="3.5379949212074280e-01" purity="8.4624999761581421e-01" nType="-99"/>
        </Node>
      </Node>
    </BinaryTree>
    <BinaryTree type="DecisionTree" boostWeight="1.0000000000000000e+00" itree="269">
      <Node pos="s" depth="0" NCoef="0" IVar="2" Cut="8.9600773437500000e+04" cType="1" res="0.0000000000000000e+00" rms="0.0000000000000000e+00" purity="6.5629267692565918e-01" nType="0">
        <Node pos="l" depth="1" NCoef="0" IVar="2" Cut="8.9247843750000000e+04" cType="1" res="8.7785333395004272e-01" rms="3.2745510339736938e-01" purity="8.7797218561172485e-01" nType="0">
          <Node pos="l" depth="2" NCoef="0" IVar="-1" Cut="0.0000000000000000e+00" cType="1" res="1.0424846550449729e-03" rms="3.8005223870277405e-01" purity="3.9966750144958496e-01" nType="-99"/>
          <Node pos="r" depth="2" NCoef="0" IVar="-1" Cut="0.0000000000000000e+00" cType="1" res="1.1685713616316207e-05" rms="1.8003962934017181e-01" purity="9.6796369552612305e-01" nType="-99"/>
        </Node>
        <Node pos="r" depth="1" NCoef="0" IVar="4" Cut="5.7584117187500000e+04" cType="1" res="3.8419419527053833e-01" rms="4.8677948117256165e-01" purity="3.8468989729881287e-01" nType="0">
          <Node pos="l" depth="2" NCoef="0" IVar="-1" Cut="0.0000000000000000e+00" cType="1" res="-6.5617008658591658e-05" rms="3.6248436570167542e-01" purity="3.1263518333435059e-01" nType="-99"/>
          <Node pos="r" depth="2" NCoef="0" IVar="-1" Cut="0.0000000000000000e+00" cType="1" res="1.7478383379057050e-03" rms="3.5687181353569031e-01" purity="8.3776247501373291e-01" nType="-99"/>
        </Node>
      </Node>
    </BinaryTree>
    <BinaryTree type="DecisionTree" boostWeight="1.0000000000000000e+00" itree="270">
      <Node pos="s" depth="0" NCoef="0" IVar="1" Cut="1.9183270312500000e+05" cType="1" res="5.8614236116409302e-01" rms="4.9252358078956604e-01" purity="5.8614242076873779e-01" nType="0">
        <Node pos="l" depth="1" NCoef="0" IVar="3" Cut="8.8509539062500000e+04" cType="1" res="1.4928792603313923e-02" rms="1.4577484130859375e-01" purity="8.6006897687911987e-01" nType="0">
          <Node pos="l" depth="2" NCoef="0" IVar="-1" Cut="0.0000000000000000e+00" cType="1" res="-1.9634561613202095e-03" rms="3.1872341036796570e-01" purity="1.9660274684429169e-01" nType="-99"/>
          <Node pos="r" depth="2" NCoef="0" IVar="-1" Cut="0.0000000000000000e+00" cType="1" res="1.7322930943919346e-05" rms="2.2637404501438141e-01" purity="9.3714666366577148e-01" nType="-99"/>
        </Node>
        <Node pos="r" depth="1" NCoef="0" IVar="2" Cut="9.1836718750000000e+04" cType="1" res="4.8234319686889648e-01" rms="4.9968814849853516e-01" purity="4.8234322667121887e-01" nType="0">
          <Node pos="l" depth="2" NCoef="0" IVar="-1" Cut="0.0000000000000000e+00" cType="1" res="1.0480815544724464e-03" rms="3.7262490391731262e-01" purity="3.9464262127876282e-01" nType="-99"/>
          <Node pos="r" depth="2" NCoef="0" IVar="-1" Cut="0.0000000000000000e+00" cType="1" res="1.5983299817889929e-05" rms="4.7730484604835510e-01" purity="6.0937625169754028e-01" nType="-99"/>
        </Node>
      </Node>
    </BinaryTree>
    <BinaryTree type="DecisionTree" boostWeight="1.0000000000000000e+00" itree="271">
      <Node pos="s" depth="0" NCoef="0" IVar="4" Cut="5.3210050781250000e+04" cType="1" res="0.0000000000000000e+00" rms="0.0000000000000000e+00" purity="3.8936996459960938e-01" nType="0">
        <Node pos="l" depth="1" NCoef="0" IVar="5" Cut="4.1253296875000000e+05" cType="1" res="3.0443763732910156e-01" rms="4.6052849292755127e-01" purity="3.0476874113082886e-01" nType="0">
          <Node pos="l" depth="2" NCoef="0" IVar="-1" Cut="0.0000000000000000e+00" cType="1" res="-1.5224403468891978e-03" rms="3.5139200091362000e-01" purity="2.0655588805675507e-01" nType="-99"/>
          <Node pos="r" depth="2" NCoef="0" IVar="-1" Cut="0.0000000000000000e+00" cType="1" res="3.2542184926569462e-03" rms="3.8628780841827393e-01" purity="7.4253243207931519e-01" nType="-99"/>
        </Node>
        <Node pos="r" depth="1" NCoef="0" IVar="4" Cut="8.0860750000000000e+04" cType="1" res="0.0000000000000000e+00" rms="0.0000000000000000e+00" purity="8.2464724779129028e-01" nType="0">
          <Node pos="l" depth="2" NCoef="0" IVar="-1" Cut="0.0000000000000000e+00" cType="1" res="1.4909931924194098e-03" rms="4.1501304507255554e-01" purity="7.4690389633178711e-01" nType="-99"/>
          <Node pos="r" depth="2" NCoef="0" IVar="-1" Cut="0.0000000000000000e+00" cType="1" res="1.9218232482671738e-03" rms="2.8160247206687927e-01" purity="9.1142451763153076e-01" nType="-99"/>
        </Node>
      </Node>
    </BinaryTree>
    <BinaryTree type="DecisionTree" boostWeight="1.0000000000000000e+00" itree="272">
      <Node pos="s" depth="0" NCoef="0" IVar="3" Cut="8.9284945312500000e+04" cType="1" res="5.9112626314163208e-01" rms="4.9162587523460388e-01" purity="5.9112626314163208e-01" nType="0">
        <Node pos="l" depth="1" NCoef="0" IVar="4" Cut="5.4440062500000000e+04" cType="1" res="3.7850445508956909e-01" rms="4.8501425981521606e-01" purity="3.7850445508956909e-01" nType="0">
          <Node pos="l" depth="2" NCoef="0" IVar="-1" Cut="0.0000000000000000e+00" cType="1" res="3.5489902074914426e-05" rms="3.5956400632858276e-01" purity="2.9988172650337219e-01" nType="-99"/>
          <Node pos="r" depth="2" NCoef="0" IVar="-1" Cut="0.0000000000000000e+00" cType="1" res="1.8593813292682171e-03" rms="3.6350908875465393e-01" purity="8.3110100030899048e-01" nType="-99"/>
        </Node>
        <Node pos="r" depth="1" NCoef="0" IVar="3" Cut="8.9623007812500000e+04" cType="1" res="6.8305385112762451e-01" rms="4.6535637974739075e-01" purity="6.8319368362426758e-01" nType="0">
          <Node pos="l" depth="2" NCoef="0" IVar="-1" Cut="0.0000000000000000e+00" cType="1" res="1.5577536032651551e-05" rms="2.5850069522857666e-01" purity="9.4045269489288330e-01" nType="-99"/>
          <Node pos="r" depth="2" NCoef="0" IVar="-1" Cut="0.0000000000000000e+00" cType="1" res="1.0982910680468194e-05" rms="4.4789907336235046e-01" purity="5.5133140087127686e-01" nType="-99"/>
        </Node>
      </Node>
    </BinaryTree>
    <BinaryTree type="DecisionTree" boostWeight="1.0000000000000000e+00" itree="273">
      <Node pos="s" depth="0" NCoef="0" IVar="1" Cut="1.9133937500000000e+05" cType="1" res="5.5421978235244751e-01" rms="4.9705150723457336e-01" purity="5.5421978235244751e-01" nType="0">
        <Node pos="l" depth="1" NCoef="0" IVar="3" Cut="8.8355804687500000e+04" cType="1" res="1.9624996930360794e-02" rms="1.6528014838695526e-01" purity="8.2310980558395386e-01" nType="0">
          <Node pos="l" depth="2" NCoef="0" IVar="-1" Cut="0.0000000000000000e+00" cType="1" res="-3.6713550798594952e-04" rms="3.1107470393180847e-01" purity="2.4827659130096436e-01" nType="-99"/>
          <Node pos="r" depth="2" NCoef="0" IVar="-1" Cut="0.0000000000000000e+00" cType="1" res="1.7382963051204570e-05" rms="2.6350307464599609e-01" purity="9.1117203235626221e-01" nType="-99"/>
        </Node>
        <Node pos="r" depth="1" NCoef="0" IVar="2" Cut="9.1849609375000000e+04" cType="1" res="4.8288270831108093e-01" rms="4.9970692396163940e-01" purity="4.8288273811340332e-01" nType="0">
          <Node pos="l" depth="2" NCoef="0" IVar="-1" Cut="0.0000000000000000e+00" cType="1" res="5.0256337272003293e-04" rms="3.6657780408859253e-01" purity="3.9359170198440552e-01" nType="-99"/>
          <Node pos="r" depth="2" NCoef="0" IVar="-1" Cut="0.0000000000000000e+00" cType="1" res="1.6304344171658158e-05" rms="4.7054141759872437e-01" purity="6.1500144004821777e-01" nType="-99"/>
        </Node>
      </Node>
    </BinaryTree>
    <BinaryTree type="DecisionTree" boostWeight="1.0000000000000000e+00" itree="274">
      <Node pos="s" depth="0" NCoef="0" IVar="4" Cut="5.0964031250000000e+04" cType="1" res="4.4332864202606403e-13" rms="0.0000000000000000e+00" purity="3.8037669658660889e-01" nType="0">
        <Node pos="l" depth="1" NCoef="0" IVar="0" Cut="3.0000000000000000e+00" cType="1" res="-5.5009834468364716e-03" rms="3.6129862070083618e-01" purity="2.9205769300460815e-01" nType="0">
          <Node pos="l" depth="2" NCoef="0" IVar="-1" Cut="0.0000000000000000e+00" cType="1" res="-1.4447965659201145e-03" rms="3.6123135685920715e-01" purity="2.3235599696636200e-01" nType="-99"/>
          <Node pos="r" depth="2" NCoef="0" IVar="-1" Cut="0.0000000000000000e+00" cType="1" res="3.8501801900565624e-03" rms="3.2967966794967651e-01" purity="8.7679499387741089e-01" nType="-99"/>
        </Node>
        <Node pos="r" depth="1" NCoef="0" IVar="4" Cut="7.6573679687500000e+04" cType="1" res="5.4062140857457791e+35" rms="0.0000000000000000e+00" purity="8.0557423830032349e-01" nType="0">
          <Node pos="l" depth="2" NCoef="0" IVar="-1" Cut="0.0000000000000000e+00" cType="1" res="5.2133569261059165e-04" rms="4.0958574414253235e-01" purity="7.3397278785705566e-01" nType="-99"/>
          <Node pos="r" depth="2" NCoef="0" IVar="-1" Cut="0.0000000000000000e+00" cType="1" res="2.1251696161925793e-03" rms="3.0297678709030151e-01" purity="8.9583033323287964e-01" nType="-99"/>
        </Node>
      </Node>
    </BinaryTree>
    <BinaryTree type="DecisionTree" boostWeight="1.0000000000000000e+00" itree="275">
      <Node pos="s" depth="0" NCoef="0" IVar="3" Cut="9.5950507812500000e+04" cType="1" res="inf" rms="0.0000000000000000e+00" purity="4.7631421685218811e-01" nType="0">
        <Node pos="l" depth="1" NCoef="0" IVar="5" Cut="4.3611050000000000e+05" cType="1" res="3.7211087346076965e-01" rms="4.8359215259552002e-01" purity="3.7251374125480652e-01" nType="0">
          <Node pos="l" depth="2" NCoef="0" IVar="-1" Cut="0.0000000000000000e+00" cType="1" res="-4.0909767267294228e-04" rms="3.6004534363746643e-01" purity="2.7193024754524231e-01" nType="-99"/>
          <Node pos="r" depth="2" NCoef="0" IVar="-1" Cut="0.0000000000000000e+00" cType="1" res="3.6936160176992416e-03" rms="3.5874128341674805e-01" purity="8.0056327581405640e-01" nType="-99"/>
        </Node>
        <Node pos="r" depth="1" NCoef="0" IVar="2" Cut="8.9294859375000000e+04" cType="1" res="7.7205657958984375e-01" rms="4.1950589418411255e-01" purity="7.7231055498123169e-01" nType="0">
          <Node pos="l" depth="2" NCoef="0" IVar="-1" Cut="0.0000000000000000e+00" cType="1" res="1.0547878446232062e-05" rms="2.8569906949996948e-01" purity="9.1582775115966797e-01" nType="-99"/>
          <Node pos="r" depth="2" NCoef="0" IVar="-1" Cut="0.0000000000000000e+00" cType="1" res="3.7698019878007472e-04" rms="3.6865204572677612e-01" purity="3.9625704288482666e-01" nType="-99"/>
        </Node>
      </Node>
    </BinaryTree>
    <BinaryTree type="DecisionTree" boostWeight="1.0000000000000000e+00" itree="276">
      <Node pos="s" depth="0" NCoef="0" IVar="1" Cut="2.0240409375000000e+05" cType="1" res="4.4261258840560913e-01" rms="4.9681723117828369e-01" purity="4.4273325800895691e-01" nType="0">
        <Node pos="l" depth="1" NCoef="0" IVar="2" Cut="8.9662929687500000e+04" cType="1" res="4.8276489973068237e-01" rms="5.2233874797821045e-01" purity="5.4661315679550171e-01" nType="0">
          <Node pos="l" depth="2" NCoef="0" IVar="-1" Cut="0.0000000000000000e+00" cType="1" res="1.7179927453980781e-05" rms="3.7745243310928345e-01" purity="7.9325085878372192e-01" nType="-99"/>
          <Node pos="r" depth="2" NCoef="0" IVar="-1" Cut="0.0000000000000000e+00" cType="1" res="6.4647720137145370e-05" rms="3.4238487482070923e-01" purity="2.3274052143096924e-01" nType="-99"/>
        </Node>
        <Node pos="r" depth="1" NCoef="0" IVar="4" Cut="6.2007714843750000e+04" cType="1" res="4.0893638134002686e-01" rms="4.9179995059967041e-01" purity="4.0909618139266968e-01" nType="0">
          <Node pos="l" depth="2" NCoef="0" IVar="-1" Cut="0.0000000000000000e+00" cType="1" res="2.4399351968895644e-04" rms="3.7103274464607239e-01" purity="3.4242516756057739e-01" nType="-99"/>
          <Node pos="r" depth="2" NCoef="0" IVar="-1" Cut="0.0000000000000000e+00" cType="1" res="1.9456848967820406e-03" rms="3.3627280592918396e-01" purity="8.6377656459808350e-01" nType="-99"/>
        </Node>
      </Node>
    </BinaryTree>
    <BinaryTree type="DecisionTree" boostWeight="1.0000000000000000e+00" itree="277">
      <Node pos="s" depth="0" NCoef="0" IVar="3" Cut="9.5951140625000000e+04" cType="1" res="6.0288751125335693e-01" rms="4.8929965496063232e-01" purity="6.0288751125335693e-01" nType="0">
        <Node pos="l" depth="1" NCoef="0" IVar="5" Cut="2.5342376562500000e+05" cType="1" res="4.8132547736167908e-01" rms="4.9965113401412964e-01" purity="4.8132547736167908e-01" nType="0">
          <Node pos="l" depth="2" NCoef="0" IVar="-1" Cut="0.0000000000000000e+00" cType="1" res="-1.6453837743028998e-03" rms="3.0860969424247742e-01" purity="1.4670979976654053e-01" nType="-99"/>
          <Node pos="r" depth="2" NCoef="0" IVar="-1" Cut="0.0000000000000000e+00" cType="1" res="1.9493436411721632e-05" rms="4.6753168106079102e-01" purity="7.3571580648422241e-01" nType="-99"/>
        </Node>
        <Node pos="r" depth="1" NCoef="0" IVar="3" Cut="9.6732921875000000e+04" cType="1" res="8.5578989982604980e-01" rms="3.5130262374877930e-01" purity="8.5594630241394043e-01" nType="0">
          <Node pos="l" depth="2" NCoef="0" IVar="-1" Cut="0.0000000000000000e+00" cType="1" res="1.0325463335902896e-05" rms="2.1743211150169373e-01" purity="9.5352560281753540e-01" nType="-99"/>
          <Node pos="r" depth="2" NCoef="0" IVar="-1" Cut="0.0000000000000000e+00" cType="1" res="1.2527757789939642e-03" rms="3.9403682947158813e-01" purity="4.3935784697532654e-01" nType="-99"/>
        </Node>
      </Node>
    </BinaryTree>
    <BinaryTree type="DecisionTree" boostWeight="1.0000000000000000e+00" itree="278">
      <Node pos="s" depth="0" NCoef="0" IVar="4" Cut="4.5898105468750000e+04" cType="1" res="3.8226079940795898e-01" rms="4.8651072382926941e-01" purity="3.8302764296531677e-01" nType="0">
        <Node pos="l" depth="1" NCoef="0" IVar="0" Cut="3.0000000000000000e+00" cType="1" res="-1.0370007716119289e-02" rms="3.5063877701759338e-01" purity="2.8019389510154724e-01" nType="0">
          <Node pos="l" depth="2" NCoef="0" IVar="-1" Cut="0.0000000000000000e+00" cType="1" res="-1.9397932337597013e-03" rms="3.4969803690910339e-01" purity="2.1897503733634949e-01" nType="-99"/>
          <Node pos="r" depth="2" NCoef="0" IVar="-1" Cut="0.0000000000000000e+00" cType="1" res="4.2108255438506603e-03" rms="3.2401922345161438e-01" purity="8.8244682550430298e-01" nType="-99"/>
        </Node>
        <Node pos="r" depth="1" NCoef="0" IVar="5" Cut="3.0527796875000000e+05" cType="1" res="7.8139692544937134e-01" rms="4.1722863912582397e-01" purity="7.8638076782226562e-01" nType="0">
          <Node pos="l" depth="2" NCoef="0" IVar="-1" Cut="0.0000000000000000e+00" cType="1" res="1.1333543807268143e-03" rms="4.6871569752693176e-01" purity="6.2037903070449829e-01" nType="-99"/>
          <Node pos="r" depth="2" NCoef="0" IVar="-1" Cut="0.0000000000000000e+00" cType="1" res="1.1106589809060097e-03" rms="3.1178382039070129e-01" purity="8.8275462388992310e-01" nType="-99"/>
        </Node>
      </Node>
    </BinaryTree>
    <BinaryTree type="DecisionTree" boostWeight="1.0000000000000000e+00" itree="279">
      <Node pos="s" depth="0" NCoef="0" IVar="1" Cut="2.0040878125000000e+05" cType="1" res="4.5051828026771545e-01" rms="4.9791002273559570e-01" purity="4.5101428031921387e-01" nType="0">
        <Node pos="l" depth="1" NCoef="0" IVar="2" Cut="8.9595960937500000e+04" cType="1" res="0.0000000000000000e+00" rms="0.0000000000000000e+00" purity="5.8123475313186646e-01" nType="0">
          <Node pos="l" depth="2" NCoef="0" IVar="-1" Cut="0.0000000000000000e+00" cType="1" res="1.7562742868904024e-05" rms="3.6184167861938477e-01" purity="8.1772476434707642e-01" nType="-99"/>
          <Node pos="r" depth="2" NCoef="0" IVar="-1" Cut="0.0000000000000000e+00" cType="1" res="1.1452751932665706e-03" rms="3.5191908478736877e-01" purity="2.7028602361679077e-01" nType="-99"/>
        </Node>
        <Node pos="r" depth="1" NCoef="0" IVar="4" Cut="6.5336796875000000e+04" cType="1" res="4.1136375069618225e-01" rms="4.9257856607437134e-01" purity="4.1200834512710571e-01" nType="0">
          <Node pos="l" depth="2" NCoef="0" IVar="-1" Cut="0.0000000000000000e+00" cType="1" res="1.4667930372525007e-04" rms="3.6530929803848267e-01" purity="3.4380358457565308e-01" nType="-99"/>
          <Node pos="r" depth="2" NCoef="0" IVar="-1" Cut="0.0000000000000000e+00" cType="1" res="1.9697945099323988e-03" rms="3.1103497743606567e-01" purity="8.8898164033889771e-01" nType="-99"/>
        </Node>
      </Node>
    </BinaryTree>
    <BinaryTree type="DecisionTree" boostWeight="1.0000000000000000e+00" itree="280">
      <Node pos="s" depth="0" NCoef="0" IVar="4" Cut="4.1706113281250000e+04" cType="1" res="3.8720634579658508e-01" rms="4.8711147904396057e-01" purity="3.8720634579658508e-01" nType="0">
        <Node pos="l" depth="1" NCoef="0" IVar="0" Cut="1.0000000000000000e+00" cType="1" res="-1.2519100680947304e-02" rms="3.4385147690773010e-01" purity="2.7149832248687744e-01" nType="0">
          <Node pos="l" depth="2" NCoef="0" IVar="-1" Cut="0.0000000000000000e+00" cType="1" res="-7.2218091227114201e-03" rms="2.5168976187705994e-01" purity="6.7150048911571503e-02" nType="-99"/>
          <Node pos="r" depth="2" NCoef="0" IVar="-1" Cut="0.0000000000000000e+00" cType="1" res="1.5597011661157012e-03" rms="4.1568148136138916e-01" purity="4.9250596761703491e-01" nType="-99"/>
        </Node>
        <Node pos="r" depth="1" NCoef="0" IVar="4" Cut="8.0709046875000000e+04" cType="1" res="7.5234484672546387e-01" rms="4.3165042996406555e-01" purity="7.5234478712081909e-01" nType="0">
          <Node pos="l" depth="2" NCoef="0" IVar="-1" Cut="0.0000000000000000e+00" cType="1" res="1.4346871757879853e-03" rms="4.3824428319931030e-01" purity="6.7191582918167114e-01" nType="-99"/>
          <Node pos="r" depth="2" NCoef="0" IVar="-1" Cut="0.0000000000000000e+00" cType="1" res="1.9540200009942055e-03" rms="2.7880096435546875e-01" purity="9.1446220874786377e-01" nType="-99"/>
        </Node>
      </Node>
    </BinaryTree>
    <BinaryTree type="DecisionTree" boostWeight="1.0000000000000000e+00" itree="281">
      <Node pos="s" depth="0" NCoef="0" IVar="2" Cut="8.9731320312500000e+04" cType="1" res="5.2975010871887207e-01" rms="4.9911415576934814e-01" purity="5.2975016832351685e-01" nType="0">
        <Node pos="l" depth="1" NCoef="0" IVar="2" Cut="8.9253289062500000e+04" cType="1" res="7.4107527732849121e-01" rms="4.3804419040679932e-01" purity="7.4107527732849121e-01" nType="0">
          <Node pos="l" depth="2" NCoef="0" IVar="-1" Cut="0.0000000000000000e+00" cType="1" res="1.1084973812103271e-03" rms="3.8061553239822388e-01" purity="3.8087150454521179e-01" nType="-99"/>
          <Node pos="r" depth="2" NCoef="0" IVar="-1" Cut="0.0000000000000000e+00" cType="1" res="1.2498983778641559e-05" rms="3.1616941094398499e-01" purity="8.9355635643005371e-01" nType="-99"/>
        </Node>
        <Node pos="r" depth="1" NCoef="0" IVar="4" Cut="3.7077156250000000e+04" cType="1" res="3.8901802897453308e-01" rms="4.8770329356193542e-01" purity="3.8932287693023682e-01" nType="0">
          <Node pos="l" depth="2" NCoef="0" IVar="-1" Cut="0.0000000000000000e+00" cType="1" res="-2.6212583179585636e-04" rms="3.4724149107933044e-01" purity="2.6991561055183411e-01" nType="-99"/>
          <Node pos="r" depth="2" NCoef="0" IVar="-1" Cut="0.0000000000000000e+00" cType="1" res="1.7713701818138361e-03" rms="4.0900716185569763e-01" purity="7.0692294836044312e-01" nType="-99"/>
        </Node>
      </Node>
    </BinaryTree>
    <BinaryTree type="DecisionTree" boostWeight="1.0000000000000000e+00" itree="282">
      <Node pos="s" depth="0" NCoef="0" IVar="4" Cut="5.6683011718750000e+04" cType="1" res="3.8830646872520447e-01" rms="4.8780936002731323e-01" purity="3.8884404301643372e-01" nType="0">
        <Node pos="l" depth="1" NCoef="0" IVar="0" Cut="2.0000000000000000e+00" cType="1" res="5.6314873509109020e-03" rms="3.6353421211242676e-01" purity="3.1841808557510376e-01" nType="0">
          <Node pos="l" depth="2" NCoef="0" IVar="-1" Cut="0.0000000000000000e+00" cType="1" res="-1.4281761832535267e-03" rms="3.5218340158462524e-01" purity="1.6911083459854126e-01" nType="-99"/>
          <Node pos="r" depth="2" NCoef="0" IVar="-1" Cut="0.0000000000000000e+00" cType="1" res="2.6756827719509602e-03" rms="3.8508850336074829e-01" purity="8.1076186895370483e-01" nType="-99"/>
        </Node>
        <Node pos="r" depth="1" NCoef="0" IVar="4" Cut="7.6442320312500000e+04" cType="1" res="8.3212029933929443e-01" rms="3.7619808316230774e-01" purity="8.3471280336380005e-01" nType="0">
          <Node pos="l" depth="2" NCoef="0" IVar="-1" Cut="0.0000000000000000e+00" cType="1" res="1.6134220641106367e-03" rms="4.1021275520324707e-01" purity="7.6605957746505737e-01" nType="-99"/>
          <Node pos="r" depth="2" NCoef="0" IVar="-1" Cut="0.0000000000000000e+00" cType="1" res="2.1632213611155748e-03" rms="3.1201907992362976e-01" purity="8.8790816068649292e-01" nType="-99"/>
        </Node>
      </Node>
    </BinaryTree>
    <BinaryTree type="DecisionTree" boostWeight="1.0000000000000000e+00" itree="283">
      <Node pos="s" depth="0" NCoef="0" IVar="3" Cut="9.5950960937500000e+04" cType="1" res="4.8755419254302979e-01" rms="5.0007325410842896e-01" purity="4.8793449997901917e-01" nType="0">
        <Node pos="l" depth="1" NCoef="0" IVar="4" Cut="5.3239878906250000e+04" cType="1" res="3.9082461595535278e-01" rms="4.8820275068283081e-01" purity="3.9143639802932739e-01" nType="0">
          <Node pos="l" depth="2" NCoef="0" IVar="-1" Cut="0.0000000000000000e+00" cType="1" res="2.2988362616160884e-05" rms="3.5737568140029907e-01" purity="3.0431181192398071e-01" nType="-99"/>
          <Node pos="r" depth="2" NCoef="0" IVar="-1" Cut="0.0000000000000000e+00" cType="1" res="9.1578118735924363e-04" rms="3.5628470778465271e-01" purity="8.3121109008789062e-01" nType="-99"/>
        </Node>
        <Node pos="r" depth="1" NCoef="0" IVar="2" Cut="8.9290359375000000e+04" cType="1" res="7.7226686477661133e-01" rms="4.1967487335205078e-01" purity="7.7252310514450073e-01" nType="0">
          <Node pos="l" depth="2" NCoef="0" IVar="-1" Cut="0.0000000000000000e+00" cType="1" res="1.0613266567816027e-05" rms="2.9155537486076355e-01" purity="9.1411656141281128e-01" nType="-99"/>
          <Node pos="r" depth="2" NCoef="0" IVar="-1" Cut="0.0000000000000000e+00" cType="1" res="5.5123912170529366e-04" rms="3.6716586351394653e-01" purity="4.0487062931060791e-01" nType="-99"/>
        </Node>
      </Node>
    </BinaryTree>
    <BinaryTree type="DecisionTree" boostWeight="1.0000000000000000e+00" itree="284">
      <Node pos="s" depth="0" NCoef="0" IVar="1" Cut="2.0102762500000000e+05" cType="1" res="4.4426178932189941e-01" rms="4.9697414040565491e-01" purity="4.4451606273651123e-01" nType="0">
        <Node pos="l" depth="1" NCoef="0" IVar="2" Cut="8.9610320312500000e+04" cType="1" res="4.9338653683662415e-01" rms="5.1851719617843628e-01" purity="5.5740958452224731e-01" nType="0">
          <Node pos="l" depth="2" NCoef="0" IVar="-1" Cut="0.0000000000000000e+00" cType="1" res="1.7672959074843675e-05" rms="3.6415344476699829e-01" purity="8.1559139490127563e-01" nType="-99"/>
          <Node pos="r" depth="2" NCoef="0" IVar="-1" Cut="0.0000000000000000e+00" cType="1" res="-3.7206723936833441e-04" rms="3.3729717135429382e-01" purity="2.3183676600456238e-01" nType="-99"/>
        </Node>
        <Node pos="r" depth="1" NCoef="0" IVar="4" Cut="5.3210050781250000e+04" cType="1" res="4.0922179818153381e-01" rms="4.9181017279624939e-01" purity="4.0955486893653870e-01" nType="0">
          <Node pos="l" depth="2" NCoef="0" IVar="-1" Cut="0.0000000000000000e+00" cType="1" res="-1.4544691657647491e-04" rms="3.6173871159553528e-01" purity="3.2126426696777344e-01" nType="-99"/>
          <Node pos="r" depth="2" NCoef="0" IVar="-1" Cut="0.0000000000000000e+00" cType="1" res="9.7476644441485405e-04" rms="3.5902911424636841e-01" purity="8.3086401224136353e-01" nType="-99"/>
        </Node>
      </Node>
    </BinaryTree>
    <BinaryTree type="DecisionTree" boostWeight="1.0000000000000000e+00" itree="285">
      <Node pos="s" depth="0" NCoef="0" IVar="0" Cut="2.0000000000000000e+00" cType="1" res="1.7789704725146294e-02" rms="3.6118102073669434e-01" purity="3.7767809629440308e-01" nType="0">
        <Node pos="l" depth="1" NCoef="0" IVar="4" Cut="5.8034636718750000e+04" cType="1" res="2.1895545721054077e-01" rms="4.1353833675384521e-01" purity="2.1895545721054077e-01" nType="0">
          <Node pos="l" depth="2" NCoef="0" IVar="-1" Cut="0.0000000000000000e+00" cType="1" res="-2.1577575244009495e-03" rms="3.4328004717826843e-01" purity="1.6398371756076813e-01" nType="-99"/>
          <Node pos="r" depth="2" NCoef="0" IVar="-1" Cut="0.0000000000000000e+00" cType="1" res="1.6135049518197775e-03" rms="4.1277575492858887e-01" purity="7.7012819051742554e-01" nType="-99"/>
        </Node>
        <Node pos="r" depth="1" NCoef="0" IVar="4" Cut="1.8561316406250000e+04" cType="1" res="8.3265954256057739e-01" rms="3.7327957153320312e-01" purity="8.3306670188903809e-01" nType="0">
          <Node pos="l" depth="2" NCoef="0" IVar="-1" Cut="0.0000000000000000e+00" cType="1" res="8.1505416892468929e-04" rms="3.9450466632843018e-01" purity="7.9241788387298584e-01" nType="-99"/>
          <Node pos="r" depth="2" NCoef="0" IVar="-1" Cut="0.0000000000000000e+00" cType="1" res="2.8214787598699331e-03" rms="3.5264673829078674e-01" purity="8.4649914503097534e-01" nType="-99"/>
        </Node>
      </Node>
    </BinaryTree>
    <BinaryTree type="DecisionTree" boostWeight="1.0000000000000000e+00" itree="286">
      <Node pos="s" depth="0" NCoef="0" IVar="3" Cut="8.9427171875000000e+04" cType="1" res="0.0000000000000000e+00" rms="0.0000000000000000e+00" purity="5.1332545280456543e-01" nType="0">
        <Node pos="l" depth="1" NCoef="0" IVar="3" Cut="8.8493515625000000e+04" cType="1" res="6.0777431726455688e-01" rms="4.8824656009674072e-01" purity="6.0777431726455688e-01" nType="0">
          <Node pos="l" depth="2" NCoef="0" IVar="-1" Cut="0.0000000000000000e+00" cType="1" res="7.0257711922749877e-04" rms="3.5567814111709595e-01" purity="3.8391706347465515e-01" nType="-99"/>
          <Node pos="r" depth="2" NCoef="0" IVar="-1" Cut="0.0000000000000000e+00" cType="1" res="1.6866051737451926e-05" rms="3.8580259680747986e-01" purity="8.3072590827941895e-01" nType="-99"/>
        </Node>
        <Node pos="r" depth="1" NCoef="0" IVar="4" Cut="4.4880632812500000e+04" cType="1" res="8.2440211136512000e+13" rms="0.0000000000000000e+00" purity="3.8041967153549194e-01" nType="0">
          <Node pos="l" depth="2" NCoef="0" IVar="-1" Cut="0.0000000000000000e+00" cType="1" res="-6.1523076146841049e-04" rms="3.5296365618705750e-01" purity="2.7992665767669678e-01" nType="-99"/>
          <Node pos="r" depth="2" NCoef="0" IVar="-1" Cut="0.0000000000000000e+00" cType="1" res="1.8553853733465075e-03" rms="3.8582682609558105e-01" purity="7.7853316068649292e-01" nType="-99"/>
        </Node>
      </Node>
    </BinaryTree>
    <BinaryTree type="DecisionTree" boostWeight="1.0000000000000000e+00" itree="287">
      <Node pos="s" depth="0" NCoef="0" IVar="2" Cut="8.9656421875000000e+04" cType="1" res="5.2430087327957153e-01" rms="4.9956771731376648e-01" purity="5.2451914548873901e-01" nType="0">
        <Node pos="l" depth="1" NCoef="0" IVar="2" Cut="8.9241890625000000e+04" cType="1" res="7.4176430702209473e-01" rms="4.3766427040100098e-01" purity="7.4194949865341187e-01" nType="0">
          <Node pos="l" depth="2" NCoef="0" IVar="-1" Cut="0.0000000000000000e+00" cType="1" res="6.4708065474405885e-04" rms="3.7379762530326843e-01" purity="3.6559325456619263e-01" nType="-99"/>
          <Node pos="r" depth="2" NCoef="0" IVar="-1" Cut="0.0000000000000000e+00" cType="1" res="1.2512685316323768e-05" rms="2.9907694458961487e-01" purity="9.0625202655792236e-01" nType="-99"/>
        </Node>
        <Node pos="r" depth="1" NCoef="0" IVar="4" Cut="6.4270628906250000e+04" cType="1" res="3.8574460148811340e-01" rms="4.8701640963554382e-01" purity="3.8598388433456421e-01" nType="0">
          <Node pos="l" depth="2" NCoef="0" IVar="-1" Cut="0.0000000000000000e+00" cType="1" res="1.9276789680588990e-04" rms="3.6326777935028076e-01" purity="3.2350388169288635e-01" nType="-99"/>
          <Node pos="r" depth="2" NCoef="0" IVar="-1" Cut="0.0000000000000000e+00" cType="1" res="1.7278717132285237e-03" rms="3.3451026678085327e-01" purity="8.6611509323120117e-01" nType="-99"/>
        </Node>
      </Node>
    </BinaryTree>
    <BinaryTree type="DecisionTree" boostWeight="1.0000000000000000e+00" itree="288">
      <Node pos="s" depth="0" NCoef="0" IVar="1" Cut="2.0337760937500000e+05" cType="1" res="4.4449862837791443e-01" rms="4.9728614091873169e-01" purity="4.4496697187423706e-01" nType="0">
        <Node pos="l" depth="1" NCoef="0" IVar="2" Cut="8.9714968750000000e+04" cType="1" res="4.7045463323593140e-01" rms="5.2165484428405762e-01" purity="5.3761047124862671e-01" nType="0">
          <Node pos="l" depth="2" NCoef="0" IVar="-1" Cut="0.0000000000000000e+00" cType="1" res="1.7483958799857646e-05" rms="3.8653188943862915e-01" purity="7.8357207775115967e-01" nType="-99"/>
          <Node pos="r" depth="2" NCoef="0" IVar="-1" Cut="0.0000000000000000e+00" cType="1" res="1.1153995001222938e-04" rms="3.4171408414840698e-01" purity="2.3290297389030457e-01" nType="-99"/>
        </Node>
        <Node pos="r" depth="1" NCoef="0" IVar="4" Cut="4.6352164062500000e+04" cType="1" res="4.1348978877067566e-01" rms="4.9296492338180542e-01" purity="4.1411408782005310e-01" nType="0">
          <Node pos="l" depth="2" NCoef="0" IVar="-1" Cut="0.0000000000000000e+00" cType="1" res="-1.7044576816260815e-04" rms="3.6442756652832031e-01" purity="3.0747196078300476e-01" nType="-99"/>
          <Node pos="r" depth="2" NCoef="0" IVar="-1" Cut="0.0000000000000000e+00" cType="1" res="1.0760546429082751e-03" rms="3.7423801422119141e-01" purity="8.0045068264007568e-01" nType="-99"/>
        </Node>
      </Node>
    </BinaryTree>
    <BinaryTree type="DecisionTree" boostWeight="1.0000000000000000e+00" itree="289">
      <Node pos="s" depth="0" NCoef="0" IVar="2" Cut="8.9637539062500000e+04" cType="1" res="4.4876545667648315e-01" rms="4.9741774797439575e-01" purity="4.4890800118446350e-01" nType="0">
        <Node pos="l" depth="1" NCoef="0" IVar="2" Cut="8.9402945312500000e+04" cType="1" res="6.0103815793991089e-01" rms="4.8968487977981567e-01" purity="6.0103815793991089e-01" nType="0">
          <Node pos="l" depth="2" NCoef="0" IVar="-1" Cut="0.0000000000000000e+00" cType="1" res="6.8885722430422902e-04" rms="3.5442572832107544e-01" purity="3.8689887523651123e-01" nType="-99"/>
          <Node pos="r" depth="2" NCoef="0" IVar="-1" Cut="0.0000000000000000e+00" cType="1" res="1.8129432646674104e-05" rms="3.3987078070640564e-01" purity="8.6701548099517822e-01" nType="-99"/>
        </Node>
        <Node pos="r" depth="1" NCoef="0" IVar="4" Cut="6.4850910156250000e+04" cType="1" res="3.8810160756111145e-01" rms="4.8746582865715027e-01" purity="3.8837605714797974e-01" nType="0">
          <Node pos="l" depth="2" NCoef="0" IVar="-1" Cut="0.0000000000000000e+00" cType="1" res="2.2925710072740912e-04" rms="3.6446312069892883e-01" purity="3.2808303833007812e-01" nType="-99"/>
          <Node pos="r" depth="2" NCoef="0" IVar="-1" Cut="0.0000000000000000e+00" cType="1" res="1.8691922305151820e-03" rms="3.2918381690979004e-01" purity="8.7159788608551025e-01" nType="-99"/>
        </Node>
      </Node>
    </BinaryTree>
    <BinaryTree type="DecisionTree" boostWeight="1.0000000000000000e+00" itree="290">
      <Node pos="s" depth="0" NCoef="0" IVar="2" Cut="9.1849609375000000e+04" cType="1" res="4.6472036838531494e-01" rms="4.9916797876358032e-01" purity="4.6531441807746887e-01" nType="0">
        <Node pos="l" depth="1" NCoef="0" IVar="4" Cut="7.3442726562500000e+04" cType="1" res="3.7484940886497498e-01" rms="4.8461347818374634e-01" purity="3.7536230683326721e-01" nType="0">
          <Node pos="l" depth="2" NCoef="0" IVar="-1" Cut="0.0000000000000000e+00" cType="1" res="8.3122031355742365e-06" rms="3.6314183473587036e-01" purity="3.2497817277908325e-01" nType="-99"/>
          <Node pos="r" depth="2" NCoef="0" IVar="-1" Cut="0.0000000000000000e+00" cType="1" res="1.9386409549042583e-03" rms="3.0597198009490967e-01" purity="8.9170736074447632e-01" nType="-99"/>
        </Node>
        <Node pos="r" depth="1" NCoef="0" IVar="2" Cut="9.2047007812500000e+04" cType="1" res="6.0092300176620483e-01" rms="4.8997649550437927e-01" purity="6.0164004564285278e-01" nType="0">
          <Node pos="l" depth="2" NCoef="0" IVar="-1" Cut="0.0000000000000000e+00" cType="1" res="1.5912715753074735e-05" rms="3.5192027688026428e-01" purity="8.7719810009002686e-01" nType="-99"/>
          <Node pos="r" depth="2" NCoef="0" IVar="-1" Cut="0.0000000000000000e+00" cType="1" res="1.0487792314961553e-03" rms="3.7710556387901306e-01" purity="3.9274409413337708e-01" nType="-99"/>
        </Node>
      </Node>
    </BinaryTree>
    <BinaryTree type="DecisionTree" boostWeight="1.0000000000000000e+00" itree="291">
      <Node pos="s" depth="0" NCoef="0" IVar="2" Cut="9.1865859375000000e+04" cType="1" res="5.3042286634445190e-01" rms="4.9907359480857849e-01" purity="5.3042286634445190e-01" nType="0">
        <Node pos="l" depth="1" NCoef="0" IVar="4" Cut="5.3272324218750000e+04" cType="1" res="inf" rms="0.0000000000000000e+00" purity="3.7912142276763916e-01" nType="0">
          <Node pos="l" depth="2" NCoef="0" IVar="-1" Cut="0.0000000000000000e+00" cType="1" res="-5.1742309005931020e-04" rms="3.5680150985717773e-01" purity="2.9247123003005981e-01" nType="-99"/>
          <Node pos="r" depth="2" NCoef="0" IVar="-1" Cut="0.0000000000000000e+00" cType="1" res="8.2684605149552226e-04" rms="3.6795037984848022e-01" purity="8.1991606950759888e-01" nType="-99"/>
        </Node>
        <Node pos="r" depth="1" NCoef="0" IVar="2" Cut="9.2056843750000000e+04" cType="1" res="7.0219671726226807e-01" rms="4.5740926265716553e-01" purity="7.0230346918106079e-01" nType="0">
          <Node pos="l" depth="2" NCoef="0" IVar="-1" Cut="0.0000000000000000e+00" cType="1" res="1.5821018678252585e-05" rms="2.7257168292999268e-01" purity="9.3274831771850586e-01" nType="-99"/>
          <Node pos="r" depth="2" NCoef="0" IVar="-1" Cut="0.0000000000000000e+00" cType="1" res="1.0691058123484254e-03" rms="3.6995258927345276e-01" purity="3.8929677009582520e-01" nType="-99"/>
        </Node>
      </Node>
    </BinaryTree>
    <BinaryTree type="DecisionTree" boostWeight="1.0000000000000000e+00" itree="292">
      <Node pos="s" depth="0" NCoef="0" IVar="1" Cut="1.9097787500000000e+05" cType="1" res="4.5227175951004028e-01" rms="4.9771681427955627e-01" purity="4.5227175951004028e-01" nType="0">
        <Node pos="l" depth="1" NCoef="0" IVar="-1" Cut="0.0000000000000000e+00" cType="1" res="1.7526501324027777e-05" rms="4.2078632116317749e-01" purity="7.0875126123428345e-01" nType="-99"/>
        <Node pos="r" depth="1" NCoef="0" IVar="4" Cut="5.3210050781250000e+04" cType="1" res="4.0547829866409302e-01" rms="4.9098438024520874e-01" purity="4.0547826886177063e-01" nType="0">
          <Node pos="l" depth="2" NCoef="0" IVar="-1" Cut="0.0000000000000000e+00" cType="1" res="1.8600035400595516e-04" rms="3.6284527182579041e-01" purity="3.1740444898605347e-01" nType="-99"/>
          <Node pos="r" depth="2" NCoef="0" IVar="-1" Cut="0.0000000000000000e+00" cType="1" res="1.0670383926481009e-03" rms="3.5288828611373901e-01" purity="8.3825147151947021e-01" nType="-99"/>
        </Node>
      </Node>
    </BinaryTree>
    <BinaryTree type="DecisionTree" boostWeight="1.0000000000000000e+00" itree="293">
      <Node pos="s" depth="0" NCoef="0" IVar="4" Cut="1.8593867187500000e+04" cType="1" res="6.1924636363983154e-01" rms="4.8578438162803650e-01" purity="6.1951726675033569e-01" nType="0">
        <Node pos="l" depth="1" NCoef="0" IVar="0" Cut="1.0000000000000000e+00" cType="1" res="6.7711481824517250e-03" rms="2.9380580782890320e-01" purity="1.9910429418087006e-01" nType="0">
          <Node pos="l" depth="2" NCoef="0" IVar="-1" Cut="0.0000000000000000e+00" cType="1" res="-5.4224962368607521e-03" rms="1.9600550830364227e-01" purity="3.9743877947330475e-02" nType="-99"/>
          <Node pos="r" depth="2" NCoef="0" IVar="-1" Cut="0.0000000000000000e+00" cType="1" res="1.8843135330826044e-03" rms="3.9081886410713196e-01" purity="4.2439752817153931e-01" nType="-99"/>
        </Node>
        <Node pos="r" depth="1" NCoef="0" IVar="4" Cut="2.7590380859375000e+04" cType="1" res="7.6380109786987305e-01" rms="4.2500025033950806e-01" purity="7.6410424709320068e-01" nType="0">
          <Node pos="l" depth="2" NCoef="0" IVar="-1" Cut="0.0000000000000000e+00" cType="1" res="1.3896315977035556e-05" rms="3.8574543595314026e-01" purity="8.3899229764938354e-01" nType="-99"/>
          <Node pos="r" depth="2" NCoef="0" IVar="-1" Cut="0.0000000000000000e+00" cType="1" res="1.1364609235897660e-03" rms="4.1657540202140808e-01" purity="6.1322724819183350e-01" nType="-99"/>
        </Node>
      </Node>
    </BinaryTree>
    <BinaryTree type="DecisionTree" boostWeight="1.0000000000000000e+00" itree="294">
      <Node pos="s" depth="0" NCoef="0" IVar="5" Cut="1.6358775000000000e+05" cType="1" res="0.0000000000000000e+00" rms="9.2598530211840000e+13" purity="4.8221805691719055e-01" nType="0">
        <Node pos="l" depth="1" NCoef="0" IVar="5" Cut="1.5299259375000000e+05" cType="1" res="7.3569655418395996e-01" rms="4.4096159934997559e-01" purity="7.3569655418395996e-01" nType="0">
          <Node pos="l" depth="2" NCoef="0" IVar="-1" Cut="0.0000000000000000e+00" cType="1" res="-1.0230676271021366e-02" rms="2.3661263287067413e-01" purity="5.8573577553033829e-02" nType="-99"/>
          <Node pos="r" depth="2" NCoef="0" IVar="-1" Cut="0.0000000000000000e+00" cType="1" res="1.0407497939013410e-05" rms="3.0554535984992981e-01" purity="8.5594737529754639e-01" nType="-99"/>
        </Node>
        <Node pos="r" depth="1" NCoef="0" IVar="4" Cut="5.9134316406250000e+04" cType="1" res="1.5506786526355768e+35" rms="0.0000000000000000e+00" purity="4.1076192259788513e-01" nType="0">
          <Node pos="l" depth="2" NCoef="0" IVar="-1" Cut="0.0000000000000000e+00" cType="1" res="3.0739454086869955e-04" rms="3.7350475788116455e-01" purity="3.3554166555404663e-01" nType="-99"/>
          <Node pos="r" depth="2" NCoef="0" IVar="-1" Cut="0.0000000000000000e+00" cType="1" res="1.7083998536691070e-03" rms="3.3959913253784180e-01" purity="8.6003392934799194e-01" nType="-99"/>
        </Node>
      </Node>
    </BinaryTree>
    <BinaryTree type="DecisionTree" boostWeight="1.0000000000000000e+00" itree="295">
      <Node pos="s" depth="0" NCoef="0" IVar="4" Cut="5.3210050781250000e+04" cType="1" res="3.8327342271804810e-01" rms="4.8653668165206909e-01" purity="3.8361647725105286e-01" nType="0">
        <Node pos="l" depth="1" NCoef="0" IVar="0" Cut="3.0000000000000000e+00" cType="1" res="-3.5069156438112259e-03" rms="3.5845220088958740e-01" purity="2.9646152257919312e-01" nType="0">
          <Node pos="l" depth="2" NCoef="0" IVar="-1" Cut="0.0000000000000000e+00" cType="1" res="-1.2865388998761773e-03" rms="3.5961189866065979e-01" purity="2.3119816184043884e-01" nType="-99"/>
          <Node pos="r" depth="2" NCoef="0" IVar="-1" Cut="0.0000000000000000e+00" cType="1" res="4.5740385539829731e-03" rms="3.1336647272109985e-01" purity="8.8950818777084351e-01" nType="-99"/>
        </Node>
        <Node pos="r" depth="1" NCoef="0" IVar="4" Cut="8.0865078125000000e+04" cType="1" res="8.2805544137954712e-01" rms="3.7733224034309387e-01" purity="8.2805538177490234e-01" nType="0">
          <Node pos="l" depth="2" NCoef="0" IVar="-1" Cut="0.0000000000000000e+00" cType="1" res="6.1018520500510931e-04" rms="4.0242975950241089e-01" purity="7.7195888757705688e-01" nType="-99"/>
          <Node pos="r" depth="2" NCoef="0" IVar="-1" Cut="0.0000000000000000e+00" cType="1" res="2.0799634512513876e-03" rms="2.9459127783775330e-01" purity="9.0324109792709351e-01" nType="-99"/>
        </Node>
      </Node>
    </BinaryTree>
    <BinaryTree type="DecisionTree" boostWeight="1.0000000000000000e+00" itree="296">
      <Node pos="s" depth="0" NCoef="0" IVar="1" Cut="2.0208595312500000e+05" cType="1" res="5.2729356288909912e-01" rms="4.9932909011840820e-01" purity="5.2736806869506836e-01" nType="0">
        <Node pos="l" depth="1" NCoef="0" IVar="2" Cut="8.9600773437500000e+04" cType="1" res="2.8363934159278870e-01" rms="4.6202081441879272e-01" purity="7.3033994436264038e-01" nType="0">
          <Node pos="l" depth="2" NCoef="0" IVar="-1" Cut="0.0000000000000000e+00" cType="1" res="1.2425924978742842e-05" rms="2.6703006029129028e-01" purity="9.1320806741714478e-01" nType="-99"/>
          <Node pos="r" depth="2" NCoef="0" IVar="-1" Cut="0.0000000000000000e+00" cType="1" res="-1.8831380875781178e-03" rms="3.3169740438461304e-01" purity="2.1245959401130676e-01" nType="-99"/>
        </Node>
        <Node pos="r" depth="1" NCoef="0" IVar="4" Cut="4.7320230468750000e+04" cType="1" res="4.1708996891975403e-01" rms="4.9311670660972595e-01" purity="4.1712814569473267e-01" nType="0">
          <Node pos="l" depth="2" NCoef="0" IVar="-1" Cut="0.0000000000000000e+00" cType="1" res="-2.4310761364176869e-04" rms="3.5660371184349060e-01" purity="3.1299895048141479e-01" nType="-99"/>
          <Node pos="r" depth="2" NCoef="0" IVar="-1" Cut="0.0000000000000000e+00" cType="1" res="1.9162240205332637e-03" rms="3.6788561940193176e-01" purity="8.1063753366470337e-01" nType="-99"/>
        </Node>
      </Node>
    </BinaryTree>
    <BinaryTree type="DecisionTree" boostWeight="1.0000000000000000e+00" itree="297">
      <Node pos="s" depth="0" NCoef="0" IVar="3" Cut="8.9426554687500000e+04" cType="1" res="5.5147683620452881e-01" rms="4.9763345718383789e-01" purity="5.5176573991775513e-01" nType="0">
        <Node pos="l" depth="1" NCoef="0" IVar="3" Cut="8.8493046875000000e+04" cType="1" res="6.5435224771499634e-01" rms="4.7598829865455627e-01" purity="6.5474164485931396e-01" nType="0">
          <Node pos="l" depth="2" NCoef="0" IVar="-1" Cut="0.0000000000000000e+00" cType="1" res="3.4424036857672036e-04" rms="3.6102503538131714e-01" purity="3.7253138422966003e-01" nType="-99"/>
          <Node pos="r" depth="2" NCoef="0" IVar="-1" Cut="0.0000000000000000e+00" cType="1" res="1.7054821000783704e-05" rms="3.4931966662406921e-01" purity="8.6791676282882690e-01" nType="-99"/>
        </Node>
        <Node pos="r" depth="1" NCoef="0" IVar="4" Cut="6.1021261718750000e+04" cType="1" res="3.8720208406448364e-01" rms="4.8724225163459778e-01" purity="3.8733050227165222e-01" nType="0">
          <Node pos="l" depth="2" NCoef="0" IVar="-1" Cut="0.0000000000000000e+00" cType="1" res="2.1193991415202618e-04" rms="3.6741265654563904e-01" purity="3.2442927360534668e-01" nType="-99"/>
          <Node pos="r" depth="2" NCoef="0" IVar="-1" Cut="0.0000000000000000e+00" cType="1" res="1.5669375425204635e-03" rms="3.4577640891075134e-01" purity="8.5312157869338989e-01" nType="-99"/>
        </Node>
      </Node>
    </BinaryTree>
    <BinaryTree type="DecisionTree" boostWeight="1.0000000000000000e+00" itree="298">
      <Node pos="s" depth="0" NCoef="0" IVar="1" Cut="2.8551362500000000e+05" cType="1" res="4.7626227140426636e-01" rms="4.9971902370452881e-01" purity="4.7671020030975342e-01" nType="0">
        <Node pos="l" depth="1" NCoef="0" IVar="4" Cut="4.0186972656250000e+04" cType="1" res="2.3928818106651306e-01" rms="4.5894405245780945e-01" purity="3.1442511081695557e-01" nType="0">
          <Node pos="l" depth="2" NCoef="0" IVar="-1" Cut="0.0000000000000000e+00" cType="1" res="-4.8551341751590371e-04" rms="3.3577024936676025e-01" purity="2.2296637296676636e-01" nType="-99"/>
          <Node pos="r" depth="2" NCoef="0" IVar="-1" Cut="0.0000000000000000e+00" cType="1" res="1.5647138934582472e-03" rms="4.3053871393203735e-01" purity="6.8141043186187744e-01" nType="-99"/>
        </Node>
        <Node pos="r" depth="1" NCoef="0" IVar="1" Cut="3.0139915625000000e+05" cType="1" res="6.6874581575393677e-01" rms="4.7149780392646790e-01" purity="6.6972661018371582e-01" nType="0">
          <Node pos="l" depth="2" NCoef="0" IVar="-1" Cut="0.0000000000000000e+00" cType="1" res="1.6102101653814316e-05" rms="3.7216439843177795e-01" purity="8.6532795429229736e-01" nType="-99"/>
          <Node pos="r" depth="2" NCoef="0" IVar="-1" Cut="0.0000000000000000e+00" cType="1" res="1.4367813710123301e-03" rms="3.8193312287330627e-01" purity="5.4368770122528076e-01" nType="-99"/>
        </Node>
      </Node>
    </BinaryTree>
    <BinaryTree type="DecisionTree" boostWeight="1.0000000000000000e+00" itree="299">
      <Node pos="s" depth="0" NCoef="0" IVar="0" Cut="1.0000000000000000e+00" cType="1" res="2.9253918677568436e-02" rms="3.6606752872467041e-01" purity="3.9545854926109314e-01" nType="0">
        <Node pos="l" depth="1" NCoef="0" IVar="4" Cut="4.4891855468750000e+04" cType="1" res="1.4926946163177490e-01" rms="3.5635387897491455e-01" purity="1.4926946163177490e-01" nType="0">
          <Node pos="l" depth="2" NCoef="0" IVar="-1" Cut="0.0000000000000000e+00" cType="1" res="-5.2388231270015240e-03" rms="2.7412137389183044e-01" purity="8.1819124519824982e-02" nType="-99"/>
          <Node pos="r" depth="2" NCoef="0" IVar="-1" Cut="0.0000000000000000e+00" cType="1" res="1.0159014491364360e-03" rms="4.4855430722236633e-01" purity="6.3324683904647827e-01" nType="-99"/>
        </Node>
        <Node pos="r" depth="1" NCoef="0" IVar="5" Cut="3.7409040625000000e+05" cType="1" res="6.0017168521881104e-01" rms="4.9058192968368530e-01" purity="6.0156923532485962e-01" nType="0">
          <Node pos="l" depth="2" NCoef="0" IVar="-1" Cut="0.0000000000000000e+00" cType="1" res="1.1376958573237062e-03" rms="4.3817582726478577e-01" purity="4.2447993159294128e-01" nType="-99"/>
          <Node pos="r" depth="2" NCoef="0" IVar="-1" Cut="0.0000000000000000e+00" cType="1" res="1.4627173077315092e-03" rms="3.5408717393875122e-01" purity="8.1317549943923950e-01" nType="-99"/>
        </Node>
      </Node>
    </BinaryTree>
    <BinaryTree type="DecisionTree" boostWeight="1.0000000000000000e+00" itree="300">
      <Node pos="s" depth="0" NCoef="0" IVar="3" Cut="9.5950453125000000e+04" cType="1" res="4.7751352190971375e-01" rms="4.9949410557746887e-01" purity="4.7760313749313354e-01" nType="0">
        <Node pos="l" depth="1" NCoef="0" IVar="0" Cut="2.0000000000000000e+00" cType="1" res="1.4947836287319660e-02" rms="3.6065730452537537e-01" purity="3.6878415942192078e-01" nType="0">
          <Node pos="l" depth="2" NCoef="0" IVar="-1" Cut="0.0000000000000000e+00" cType="1" res="-1.0203137062489986e-03" rms="3.5245060920715332e-01" purity="2.0858062803745270e-01" nType="-99"/>
          <Node pos="r" depth="2" NCoef="0" IVar="-1" Cut="0.0000000000000000e+00" cType="1" res="2.7154195122420788e-03" rms="3.6870795488357544e-01" purity="8.3006680011749268e-01" nType="-99"/>
        </Node>
        <Node pos="r" depth="1" NCoef="0" IVar="2" Cut="8.9290359375000000e+04" cType="1" res="7.7384471893310547e-01" rms="4.1834083199501038e-01" purity="7.7384471893310547e-01" nType="0">
          <Node pos="l" depth="2" NCoef="0" IVar="-1" Cut="0.0000000000000000e+00" cType="1" res="1.0764664693851955e-05" rms="2.9466670751571655e-01" purity="9.1213810443878174e-01" nType="-99"/>
          <Node pos="r" depth="2" NCoef="0" IVar="-1" Cut="0.0000000000000000e+00" cType="1" res="1.2014128733426332e-03" rms="3.8673403859138489e-01" purity="4.4372209906578064e-01" nType="-99"/>
        </Node>
      </Node>
    </BinaryTree>
    <BinaryTree type="DecisionTree" boostWeight="1.0000000000000000e+00" itree="301">
      <Node pos="s" depth="0" NCoef="0" IVar="1" Cut="1.9129831250000000e+05" cType="1" res="4.4961667060852051e-01" rms="4.9745503067970276e-01" purity="4.4961667060852051e-01" nType="0">
        <Node pos="l" depth="1" NCoef="0" IVar="1" Cut="1.8706645312500000e+05" cType="1" res="3.2466355711221695e-02" rms="2.2469915449619293e-01" purity="7.0711278915405273e-01" nType="0">
          <Node pos="l" depth="2" NCoef="0" IVar="-1" Cut="0.0000000000000000e+00" cType="1" res="-7.2270818054676056e-04" rms="3.3469042181968689e-01" purity="2.1697302162647247e-01" nType="-99"/>
          <Node pos="r" depth="2" NCoef="0" IVar="-1" Cut="0.0000000000000000e+00" cType="1" res="1.8141503460356034e-05" rms="3.4519809484481812e-01" purity="8.3856219053268433e-01" nType="-99"/>
        </Node>
        <Node pos="r" depth="1" NCoef="0" IVar="4" Cut="6.6935703125000000e+04" cType="1" res="4.0005210041999817e-01" rms="4.8990857601165771e-01" purity="4.0005213022232056e-01" nType="0">
          <Node pos="l" depth="2" NCoef="0" IVar="-1" Cut="0.0000000000000000e+00" cType="1" res="2.7675143792293966e-04" rms="3.6543655395507812e-01" purity="3.3852654695510864e-01" nType="-99"/>
          <Node pos="r" depth="2" NCoef="0" IVar="-1" Cut="0.0000000000000000e+00" cType="1" res="1.6590146115049720e-03" rms="3.0902159214019775e-01" purity="8.8743019104003906e-01" nType="-99"/>
        </Node>
      </Node>
    </BinaryTree>
    <BinaryTree type="DecisionTree" boostWeight="1.0000000000000000e+00" itree="302">
      <Node pos="s" depth="0" NCoef="0" IVar="2" Cut="8.9600773437500000e+04" cType="1" res="5.2523607015609741e-01" rms="4.9965834617614746e-01" purity="5.2553141117095947e-01" nType="0">
        <Node pos="l" depth="1" NCoef="0" IVar="2" Cut="8.9247882812500000e+04" cType="1" res="7.5214058160781860e-01" rms="4.3176978826522827e-01" purity="7.5223654508590698e-01" nType="0">
          <Node pos="l" depth="2" NCoef="0" IVar="-1" Cut="0.0000000000000000e+00" cType="1" res="9.5372728537768126e-04" rms="3.7816780805587769e-01" purity="3.7713685631752014e-01" nType="-99"/>
          <Node pos="r" depth="2" NCoef="0" IVar="-1" Cut="0.0000000000000000e+00" cType="1" res="1.2739013072859962e-05" rms="2.6920792460441589e-01" purity="9.2289954423904419e-01" nType="-99"/>
        </Node>
        <Node pos="r" depth="1" NCoef="0" IVar="4" Cut="7.5835773437500000e+04" cType="1" res="3.8354167342185974e-01" rms="4.8667985200881958e-01" purity="3.8396149873733521e-01" nType="0">
          <Node pos="l" depth="2" NCoef="0" IVar="-1" Cut="0.0000000000000000e+00" cType="1" res="4.5011904148850590e-05" rms="3.6116510629653931e-01" purity="3.3559006452560425e-01" nType="-99"/>
          <Node pos="r" depth="2" NCoef="0" IVar="-1" Cut="0.0000000000000000e+00" cType="1" res="1.9274108344689012e-03" rms="2.9812034964561462e-01" purity="8.9951115846633911e-01" nType="-99"/>
        </Node>
      </Node>
    </BinaryTree>
    <BinaryTree type="DecisionTree" boostWeight="1.0000000000000000e+00" itree="303">
      <Node pos="s" depth="0" NCoef="0" IVar="1" Cut="2.0102762500000000e+05" cType="1" res="4.4712412357330322e-01" rms="4.9750757217407227e-01" purity="4.4750323891639709e-01" nType="0">
        <Node pos="l" depth="1" NCoef="0" IVar="2" Cut="8.9636281250000000e+04" cType="1" res="2.6804631948471069e-01" rms="0.0000000000000000e+00" purity="5.6607294082641602e-01" nType="0">
          <Node pos="l" depth="2" NCoef="0" IVar="-1" Cut="0.0000000000000000e+00" cType="1" res="1.7973317881114781e-05" rms="3.6855688691139221e-01" purity="8.1127822399139404e-01" nType="-99"/>
          <Node pos="r" depth="2" NCoef="0" IVar="-1" Cut="0.0000000000000000e+00" cType="1" res="8.7767979130148888e-04" rms="3.5176309943199158e-01" purity="2.4964316189289093e-01" nType="-99"/>
        </Node>
        <Node pos="r" depth="1" NCoef="0" IVar="4" Cut="5.5592992187500000e+04" cType="1" res="4.1104677319526672e-01" rms="4.9243363738059998e-01" purity="4.1154086589813232e-01" nType="0">
          <Node pos="l" depth="2" NCoef="0" IVar="-1" Cut="0.0000000000000000e+00" cType="1" res="3.5424184170551598e-04" rms="3.6802953481674194e-01" purity="3.3318027853965759e-01" nType="-99"/>
          <Node pos="r" depth="2" NCoef="0" IVar="-1" Cut="0.0000000000000000e+00" cType="1" res="1.7800173955038190e-03" rms="3.5184466838836670e-01" purity="8.4337872266769409e-01" nType="-99"/>
        </Node>
      </Node>
    </BinaryTree>
    <BinaryTree type="DecisionTree" boostWeight="1.0000000000000000e+00" itree="304">
      <Node pos="s" depth="0" NCoef="0" IVar="5" Cut="2.5746739062500000e+05" cType="1" res="4.6975201368331909e-01" rms="4.9908423423767090e-01" purity="4.6975201368331909e-01" nType="0">
        <Node pos="l" depth="1" NCoef="0" IVar="5" Cut="1.8913748437500000e+05" cType="1" res="1.6438297927379608e-01" rms="3.7062272429466248e-01" purity="1.6438296437263489e-01" nType="0">
          <Node pos="l" depth="2" NCoef="0" IVar="-1" Cut="0.0000000000000000e+00" cType="1" res="-4.6541541814804077e-03" rms="2.5356861948966980e-01" purity="8.4118120372295380e-02" nType="-99"/>
          <Node pos="r" depth="2" NCoef="0" IVar="-1" Cut="0.0000000000000000e+00" cType="1" res="6.1419972917065024e-04" rms="3.6941453814506531e-01" purity="2.2703480720520020e-01" nType="-99"/>
        </Node>
        <Node pos="r" depth="1" NCoef="0" IVar="5" Cut="2.8041609375000000e+05" cType="1" res="7.2294288873672485e-01" rms="4.4754493236541748e-01" purity="7.2294288873672485e-01" nType="0">
          <Node pos="l" depth="2" NCoef="0" IVar="-1" Cut="0.0000000000000000e+00" cType="1" res="1.5862873624428175e-05" rms="4.2854836583137512e-01" purity="8.2551610469818115e-01" nType="-99"/>
          <Node pos="r" depth="2" NCoef="0" IVar="-1" Cut="0.0000000000000000e+00" cType="1" res="1.0435889707878232e-03" rms="3.9456462860107422e-01" purity="6.7037802934646606e-01" nType="-99"/>
        </Node>
      </Node>
    </BinaryTree>
    <BinaryTree type="DecisionTree" boostWeight="1.0000000000000000e+00" itree="305">
      <Node pos="s" depth="0" NCoef="0" IVar="1" Cut="2.0309048437500000e+05" cType="1" res="6.1519926786422729e-01" rms="4.8663941025733948e-01" purity="6.1541950702667236e-01" nType="0">
        <Node pos="l" depth="1" NCoef="0" IVar="2" Cut="8.9620320312500000e+04" cType="1" res="3.1945782899856567e-01" rms="4.7339901328086853e-01" purity="8.3389866352081299e-01" nType="0">
          <Node pos="l" depth="2" NCoef="0" IVar="-1" Cut="0.0000000000000000e+00" cType="1" res="1.2630183846340515e-05" rms="2.0303744077682495e-01" purity="9.5132136344909668e-01" nType="-99"/>
          <Node pos="r" depth="2" NCoef="0" IVar="-1" Cut="0.0000000000000000e+00" cType="1" res="-1.1234547710046172e-03" rms="3.3370912075042725e-01" purity="2.2261458635330200e-01" nType="-99"/>
        </Node>
        <Node pos="r" depth="1" NCoef="0" IVar="4" Cut="5.9148351562500000e+04" cType="1" res="4.1670313477516174e-01" rms="4.9318453669548035e-01" purity="4.1712322831153870e-01" nType="0">
          <Node pos="l" depth="2" NCoef="0" IVar="-1" Cut="0.0000000000000000e+00" cType="1" res="1.7211453814525157e-04" rms="3.6629986763000488e-01" purity="3.4222680330276489e-01" nType="-99"/>
          <Node pos="r" depth="2" NCoef="0" IVar="-1" Cut="0.0000000000000000e+00" cType="1" res="1.6115683829411864e-03" rms="3.3816051483154297e-01" purity="8.5951071977615356e-01" nType="-99"/>
        </Node>
      </Node>
    </BinaryTree>
    <BinaryTree type="DecisionTree" boostWeight="1.0000000000000000e+00" itree="306">
      <Node pos="s" depth="0" NCoef="0" IVar="3" Cut="9.5950968750000000e+04" cType="1" res="5.5381149053573608e-01" rms="4.9716132879257202e-01" purity="5.5395287275314331e-01" nType="0">
        <Node pos="l" depth="1" NCoef="0" IVar="5" Cut="3.9929056250000000e+05" cType="1" res="3.8242128491401672e-01" rms="4.8620063066482544e-01" purity="3.8285765051841736e-01" nType="0">
          <Node pos="l" depth="2" NCoef="0" IVar="-1" Cut="0.0000000000000000e+00" cType="1" res="-2.5973154697567225e-04" rms="3.5790473222732544e-01" purity="2.5996991991996765e-01" nType="-99"/>
          <Node pos="r" depth="2" NCoef="0" IVar="-1" Cut="0.0000000000000000e+00" cType="1" res="2.7771918103098869e-03" rms="3.5371816158294678e-01" purity="7.9347133636474609e-01" nType="-99"/>
        </Node>
        <Node pos="r" depth="1" NCoef="0" IVar="2" Cut="8.9367234375000000e+04" cType="1" res="8.5914570093154907e-01" rms="3.4787121415138245e-01" purity="8.5914570093154907e-01" nType="0">
          <Node pos="l" depth="2" NCoef="0" IVar="-1" Cut="0.0000000000000000e+00" cType="1" res="1.0823013326444197e-05" rms="2.2418899834156036e-01" purity="9.5236539840698242e-01" nType="-99"/>
          <Node pos="r" depth="2" NCoef="0" IVar="-1" Cut="0.0000000000000000e+00" cType="1" res="2.0475841301959008e-04" rms="3.6795914173126221e-01" purity="3.9133948087692261e-01" nType="-99"/>
        </Node>
      </Node>
    </BinaryTree>
    <BinaryTree type="DecisionTree" boostWeight="1.0000000000000000e+00" itree="307">
      <Node pos="s" depth="0" NCoef="0" IVar="1" Cut="2.0203215625000000e+05" cType="1" res="5.7765340805053711e-01" rms="4.9403166770935059e-01" purity="5.7775074243545532e-01" nType="0">
        <Node pos="l" depth="1" NCoef="0" IVar="2" Cut="8.9610320312500000e+04" cType="1" res="2.7967754006385803e-01" rms="4.6083724498748779e-01" purity="7.2819471359252930e-01" nType="0">
          <Node pos="l" depth="2" NCoef="0" IVar="-1" Cut="0.0000000000000000e+00" cType="1" res="1.2552302905532997e-05" rms="2.7077755331993103e-01" purity="9.1056495904922485e-01" nType="-99"/>
          <Node pos="r" depth="2" NCoef="0" IVar="-1" Cut="0.0000000000000000e+00" cType="1" res="-1.0391314281150699e-03" rms="3.2827490568161011e-01" purity="2.1829819679260254e-01" nType="-99"/>
        </Node>
        <Node pos="r" depth="1" NCoef="0" IVar="2" Cut="9.1880640625000000e+04" cType="1" res="5.0885844230651855e-01" rms="5.0006330013275146e-01" purity="5.0900024175643921e-01" nType="0">
          <Node pos="l" depth="2" NCoef="0" IVar="-1" Cut="0.0000000000000000e+00" cType="1" res="8.5790507728233933e-04" rms="3.6587667465209961e-01" purity="4.1471004486083984e-01" nType="-99"/>
          <Node pos="r" depth="2" NCoef="0" IVar="-1" Cut="0.0000000000000000e+00" cType="1" res="1.7085649233194999e-05" rms="4.7667923569679260e-01" purity="6.4226162433624268e-01" nType="-99"/>
        </Node>
      </Node>
    </BinaryTree>
    <BinaryTree type="DecisionTree" boostWeight="1.0000000000000000e+00" itree="308">
      <Node pos="s" depth="0" NCoef="0" IVar="4" Cut="7.0948406250000000e+04" cType="1" res="3.9368602633476257e-01" rms="4.8921731114387512e-01" purity="3.9432224631309509e-01" nType="0">
        <Node pos="l" depth="1" NCoef="0" IVar="0" Cut="1.0000000000000000e+00" cType="1" res="8.5420878604054451e-03" rms="3.6482575535774231e-01" purity="3.3906617760658264e-01" nType="0">
          <Node pos="l" depth="2" NCoef="0" IVar="-1" Cut="0.0000000000000000e+00" cType="1" res="-4.2154649272561073e-03" rms="2.8918409347534180e-01" purity="1.0695976763963699e-01" nType="-99"/>
          <Node pos="r" depth="2" NCoef="0" IVar="-1" Cut="0.0000000000000000e+00" cType="1" res="1.0159461526200175e-03" rms="4.1710171103477478e-01" purity="5.5287629365921021e-01" nType="-99"/>
        </Node>
        <Node pos="r" depth="1" NCoef="0" IVar="-1" Cut="0.0000000000000000e+00" cType="1" res="1.6324631869792938e-03" rms="3.0339497327804565e-01" purity="8.9409589767456055e-01" nType="-99"/>
      </Node>
    </BinaryTree>
    <BinaryTree type="DecisionTree" boostWeight="1.0000000000000000e+00" itree="309">
      <Node pos="s" depth="0" NCoef="0" IVar="4" Cut="4.1425984375000000e+04" cType="1" res="3.8458612561225891e-01" rms="4.8698821663856506e-01" purity="3.8549691438674927e-01" nType="0">
        <Node pos="l" depth="1" NCoef="0" IVar="0" Cut="3.0000000000000000e+00" cType="1" res="-8.4075480699539185e-03" rms="3.4448271989822388e-01" purity="2.7635246515274048e-01" nType="0">
          <Node pos="l" depth="2" NCoef="0" IVar="-1" Cut="0.0000000000000000e+00" cType="1" res="-1.8580717733129859e-03" rms="3.4421396255493164e-01" purity="2.1195766329765320e-01" nType="-99"/>
          <Node pos="r" depth="2" NCoef="0" IVar="-1" Cut="0.0000000000000000e+00" cType="1" res="3.8160574622452259e-03" rms="3.1288114190101624e-01" purity="8.9116954803466797e-01" nType="-99"/>
        </Node>
        <Node pos="r" depth="1" NCoef="0" IVar="4" Cut="8.0724234375000000e+04" cType="1" res="7.3934251070022583e-01" rms="4.4131347537040710e-01" purity="7.4280345439910889e-01" nType="0">
          <Node pos="l" depth="2" NCoef="0" IVar="-1" Cut="0.0000000000000000e+00" cType="1" res="1.5073405811563134e-03" rms="4.3086677789688110e-01" purity="6.7554157972335815e-01" nType="-99"/>
          <Node pos="r" depth="2" NCoef="0" IVar="-1" Cut="0.0000000000000000e+00" cType="1" res="1.8010870553553104e-03" rms="3.0231934785842896e-01" purity="8.9623498916625977e-01" nType="-99"/>
        </Node>
      </Node>
    </BinaryTree>
    <BinaryTree type="DecisionTree" boostWeight="1.0000000000000000e+00" itree="310">
      <Node pos="s" depth="0" NCoef="0" IVar="1" Cut="1.9957456250000000e+05" cType="1" res="4.4756224751472473e-01" rms="4.9741008877754211e-01" purity="4.4797927141189575e-01" nType="0">
        <Node pos="l" depth="1" NCoef="0" IVar="2" Cut="8.9632320312500000e+04" cType="1" res="4.9594742059707642e-01" rms="5.3029841184616089e-01" purity="5.7818996906280518e-01" nType="0">
          <Node pos="l" depth="2" NCoef="0" IVar="-1" Cut="0.0000000000000000e+00" cType="1" res="1.8341517716180533e-05" rms="3.6060160398483276e-01" purity="8.2565993070602417e-01" nType="-99"/>
          <Node pos="r" depth="2" NCoef="0" IVar="-1" Cut="0.0000000000000000e+00" cType="1" res="-1.8719697254709899e-04" rms="3.3003860712051392e-01" purity="2.3469747602939606e-01" nType="-99"/>
        </Node>
        <Node pos="r" depth="1" NCoef="0" IVar="4" Cut="5.3561335937500000e+04" cType="1" res="4.1000711917877197e-01" rms="4.9205249547958374e-01" purity="4.1054400801658630e-01" nType="0">
          <Node pos="l" depth="2" NCoef="0" IVar="-1" Cut="0.0000000000000000e+00" cType="1" res="-5.8206478570355102e-05" rms="3.6179777979850769e-01" purity="3.2306444644927979e-01" nType="-99"/>
          <Node pos="r" depth="2" NCoef="0" IVar="-1" Cut="0.0000000000000000e+00" cType="1" res="9.7915821243077517e-04" rms="3.5449272394180298e-01" purity="8.3690524101257324e-01" nType="-99"/>
        </Node>
      </Node>
    </BinaryTree>
    <BinaryTree type="DecisionTree" boostWeight="1.0000000000000000e+00" itree="311">
      <Node pos="s" depth="0" NCoef="0" IVar="2" Cut="9.1846109375000000e+04" cType="1" res="4.7139146924018860e-01" rms="4.9918088316917419e-01" purity="4.7139146924018860e-01" nType="0">
        <Node pos="l" depth="1" NCoef="0" IVar="4" Cut="6.9511250000000000e+04" cType="1" res="3.8205453753471375e-01" rms="4.8588976263999939e-01" purity="3.8205447793006897e-01" nType="0">
          <Node pos="l" depth="2" NCoef="0" IVar="-1" Cut="0.0000000000000000e+00" cType="1" res="-1.2700485240202397e-04" rms="3.5804259777069092e-01" purity="3.2196745276451111e-01" nType="-99"/>
          <Node pos="r" depth="2" NCoef="0" IVar="-1" Cut="0.0000000000000000e+00" cType="1" res="1.8388754688203335e-03" rms="3.0544045567512512e-01" purity="8.9048653841018677e-01" nType="-99"/>
        </Node>
        <Node pos="r" depth="1" NCoef="0" IVar="2" Cut="9.2043570312500000e+04" cType="1" res="6.0695838928222656e-01" rms="4.8886436223983765e-01" purity="6.0777777433395386e-01" nType="0">
          <Node pos="l" depth="2" NCoef="0" IVar="-1" Cut="0.0000000000000000e+00" cType="1" res="1.6284437151625752e-05" rms="3.5248804092407227e-01" purity="8.7684822082519531e-01" nType="-99"/>
          <Node pos="r" depth="2" NCoef="0" IVar="-1" Cut="0.0000000000000000e+00" cType="1" res="1.0357586434110999e-03" rms="3.6825233697891235e-01" purity="4.0165683627128601e-01" nType="-99"/>
        </Node>
      </Node>
    </BinaryTree>
    <BinaryTree type="DecisionTree" boostWeight="1.0000000000000000e+00" itree="312">
      <Node pos="s" depth="0" NCoef="0" IVar="4" Cut="7.9674312500000000e+04" cType="1" res="3.8753819465637207e-01" rms="4.8718819022178650e-01" purity="3.8753816485404968e-01" nType="0">
        <Node pos="l" depth="1" NCoef="0" IVar="0" Cut="3.0000000000000000e+00" cType="1" res="9.7485538572072983e-03" rms="3.6679008603096008e-01" purity="3.4222084283828735e-01" nType="0">
          <Node pos="l" depth="2" NCoef="0" IVar="-1" Cut="0.0000000000000000e+00" cType="1" res="-3.8602887070737779e-04" rms="3.7064749002456665e-01" purity="2.7100691199302673e-01" nType="-99"/>
          <Node pos="r" depth="2" NCoef="0" IVar="-1" Cut="0.0000000000000000e+00" cType="1" res="4.6184509992599487e-03" rms="3.0380776524543762e-01" purity="8.9706277847290039e-01" nType="-99"/>
        </Node>
        <Node pos="r" depth="1" NCoef="0" IVar="-1" Cut="0.0000000000000000e+00" cType="1" res="1.8519485602155328e-03" rms="2.8322485089302063e-01" purity="9.0997308492660522e-01" nType="-99"/>
      </Node>
    </BinaryTree>
    <BinaryTree type="DecisionTree" boostWeight="1.0000000000000000e+00" itree="313">
      <Node pos="s" depth="0" NCoef="0" IVar="1" Cut="1.8991192187500000e+05" cType="1" res="5.3899574279785156e-01" rms="4.9847701191902161e-01" purity="5.3899574279785156e-01" nType="0">
        <Node pos="l" depth="1" NCoef="0" IVar="-1" Cut="0.0000000000000000e+00" cType="1" res="1.8251061192131601e-05" rms="3.0054795742034912e-01" purity="8.8397538661956787e-01" nType="-99"/>
        <Node pos="r" depth="1" NCoef="0" IVar="4" Cut="7.0948406250000000e+04" cType="1" res="3.9559745788574219e-01" rms="4.8897865414619446e-01" purity="3.9559745788574219e-01" nType="0">
          <Node pos="l" depth="2" NCoef="0" IVar="-1" Cut="0.0000000000000000e+00" cType="1" res="3.6929358611814678e-04" rms="3.6742272973060608e-01" purity="3.4311845898628235e-01" nType="-99"/>
          <Node pos="r" depth="2" NCoef="0" IVar="-1" Cut="0.0000000000000000e+00" cType="1" res="1.8077210988849401e-03" rms="3.1352466344833374e-01" purity="8.8462805747985840e-01" nType="-99"/>
        </Node>
      </Node>
    </BinaryTree>
    <BinaryTree type="DecisionTree" boostWeight="1.0000000000000000e+00" itree="314">
      <Node pos="s" depth="0" NCoef="0" IVar="1" Cut="1.9097787500000000e+05" cType="1" res="4.4374173879623413e-01" rms="4.9682492017745972e-01" purity="4.4374173879623413e-01" nType="0">
        <Node pos="l" depth="1" NCoef="0" IVar="4" Cut="2.1087853515625000e+04" cType="1" res="3.1542174518108368e-02" rms="2.1590137481689453e-01" purity="7.0730412006378174e-01" nType="0">
          <Node pos="l" depth="2" NCoef="0" IVar="-1" Cut="0.0000000000000000e+00" cType="1" res="1.0639504762366414e-03" rms="2.6261243224143982e-01" purity="1.3338759541511536e-01" nType="-99"/>
          <Node pos="r" depth="2" NCoef="0" IVar="-1" Cut="0.0000000000000000e+00" cType="1" res="1.8012140571954660e-05" rms="3.6259356141090393e-01" purity="8.7043255567550659e-01" nType="-99"/>
        </Node>
        <Node pos="r" depth="1" NCoef="0" IVar="4" Cut="7.4108828125000000e+04" cType="1" res="3.9383423328399658e-01" rms="4.8859885334968567e-01" purity="3.9383426308631897e-01" nType="0">
          <Node pos="l" depth="2" NCoef="0" IVar="-1" Cut="0.0000000000000000e+00" cType="1" res="3.2820047636050731e-05" rms="3.6294719576835632e-01" purity="3.4048032760620117e-01" nType="-99"/>
          <Node pos="r" depth="2" NCoef="0" IVar="-1" Cut="0.0000000000000000e+00" cType="1" res="1.8580674659460783e-03" rms="2.9045021533966064e-01" purity="9.0406531095504761e-01" nType="-99"/>
        </Node>
      </Node>
    </BinaryTree>
    <BinaryTree type="DecisionTree" boostWeight="1.0000000000000000e+00" itree="315">
      <Node pos="s" depth="0" NCoef="0" IVar="4" Cut="1.7767003906250000e+04" cType="1" res="5.5018919706344604e-01" rms="4.9747467041015625e-01" purity="5.5018919706344604e-01" nType="0">
        <Node pos="l" depth="1" NCoef="0" IVar="0" Cut="1.0000000000000000e+00" cType="1" res="6.4874003874137998e-04" rms="2.8341811895370483e-01" purity="1.8531213700771332e-01" nType="0">
          <Node pos="l" depth="2" NCoef="0" IVar="-1" Cut="0.0000000000000000e+00" cType="1" res="-8.3599109202623367e-03" rms="1.7601129412651062e-01" purity="3.1787198036909103e-02" nType="-99"/>
          <Node pos="r" depth="2" NCoef="0" IVar="-1" Cut="0.0000000000000000e+00" cType="1" res="1.5472151571884751e-03" rms="3.8945394754409790e-01" purity="4.1098883748054504e-01" nType="-99"/>
        </Node>
        <Node pos="r" depth="1" NCoef="0" IVar="4" Cut="2.9332019531250000e+04" cType="1" res="6.9604891538619995e-01" rms="4.5996177196502686e-01" purity="6.9604891538619995e-01" nType="0">
          <Node pos="l" depth="2" NCoef="0" IVar="-1" Cut="0.0000000000000000e+00" cType="1" res="1.2692527889157645e-05" rms="4.6021190285682678e-01" purity="7.2813570499420166e-01" nType="-99"/>
          <Node pos="r" depth="2" NCoef="0" IVar="-1" Cut="0.0000000000000000e+00" cType="1" res="7.0373760536313057e-04" rms="4.1205307841300964e-01" purity="6.4735645055770874e-01" nType="-99"/>
        </Node>
      </Node>
    </BinaryTree>
    <BinaryTree type="DecisionTree" boostWeight="1.0000000000000000e+00" itree="316">
      <Node pos="s" depth="0" NCoef="0" IVar="4" Cut="5.0964031250000000e+04" cType="1" res="3.8992422819137573e-01" rms="4.8773282766342163e-01" purity="3.8992422819137573e-01" nType="0">
        <Node pos="l" depth="1" NCoef="0" IVar="0" Cut="3.0000000000000000e+00" cType="1" res="-1.0021602502092719e-03" rms="3.5688146948814392e-01" purity="2.9856500029563904e-01" nType="0">
          <Node pos="l" depth="2" NCoef="0" IVar="-1" Cut="0.0000000000000000e+00" cType="1" res="-1.0646873852238059e-03" rms="3.5808858275413513e-01" purity="2.3445917665958405e-01" nType="-99"/>
          <Node pos="r" depth="2" NCoef="0" IVar="-1" Cut="0.0000000000000000e+00" cType="1" res="4.0634246543049812e-03" rms="3.1458956003189087e-01" purity="8.8957315683364868e-01" nType="-99"/>
        </Node>
        <Node pos="r" depth="1" NCoef="0" IVar="5" Cut="3.2453993750000000e+05" cType="1" res="8.1169706583023071e-01" rms="3.9095386862754822e-01" purity="8.1169706583023071e-01" nType="0">
          <Node pos="l" depth="2" NCoef="0" IVar="-1" Cut="0.0000000000000000e+00" cType="1" res="8.0981344217434525e-04" rms="4.5538571476936340e-01" purity="6.6601186990737915e-01" nType="-99"/>
          <Node pos="r" depth="2" NCoef="0" IVar="-1" Cut="0.0000000000000000e+00" cType="1" res="6.3772051362320781e-04" rms="2.9107457399368286e-01" purity="9.0246915817260742e-01" nType="-99"/>
        </Node>
      </Node>
    </BinaryTree>
    <BinaryTree type="DecisionTree" boostWeight="1.0000000000000000e+00" itree="317">
      <Node pos="s" depth="0" NCoef="0" IVar="5" Cut="1.6215667187500000e+05" cType="1" res="4.8446759581565857e-01" rms="4.9982023239135742e-01" purity="4.8452910780906677e-01" nType="0">
        <Node pos="l" depth="1" NCoef="0" IVar="-1" Cut="0.0000000000000000e+00" cType="1" res="1.0620196917443536e-05" rms="3.7640485167503357e-01" purity="7.4682611227035522e-01" nType="-99"/>
        <Node pos="r" depth="1" NCoef="0" IVar="4" Cut="5.3241414062500000e+04" cType="1" res="4.1211342811584473e-01" rms="4.9229508638381958e-01" purity="4.1219195723533630e-01" nType="0">
          <Node pos="l" depth="2" NCoef="0" IVar="-1" Cut="0.0000000000000000e+00" cType="1" res="2.7281651273369789e-04" rms="3.7030997872352600e-01" purity="3.2626613974571228e-01" nType="-99"/>
          <Node pos="r" depth="2" NCoef="0" IVar="-1" Cut="0.0000000000000000e+00" cType="1" res="9.7286724485456944e-04" rms="3.5200294852256775e-01" purity="8.3638298511505127e-01" nType="-99"/>
        </Node>
      </Node>
    </BinaryTree>
    <BinaryTree type="DecisionTree" boostWeight="1.0000000000000000e+00" itree="318">
      <Node pos="s" depth="0" NCoef="0" IVar="3" Cut="9.5950343750000000e+04" cType="1" res="5.4269295930862427e-01" rms="4.9845662713050842e-01" purity="5.4303222894668579e-01" nType="0">
        <Node pos="l" depth="1" NCoef="0" IVar="2" Cut="9.1849609375000000e+04" cType="1" res="4.7398936748504639e-01" rms="4.9968838691711426e-01" purity="4.7435438632965088e-01" nType="0">
          <Node pos="l" depth="2" NCoef="0" IVar="-1" Cut="0.0000000000000000e+00" cType="1" res="2.9663290479220450e-04" rms="3.5150587558746338e-01" purity="3.7844887375831604e-01" nType="-99"/>
          <Node pos="r" depth="2" NCoef="0" IVar="-1" Cut="0.0000000000000000e+00" cType="1" res="1.6886442608665675e-05" rms="4.7767171263694763e-01" purity="6.1856597661972046e-01" nType="-99"/>
        </Node>
        <Node pos="r" depth="1" NCoef="0" IVar="2" Cut="8.9294859375000000e+04" cType="1" res="7.7498275041580200e-01" rms="4.1759368777275085e-01" purity="7.7523499727249146e-01" nType="0">
          <Node pos="l" depth="2" NCoef="0" IVar="-1" Cut="0.0000000000000000e+00" cType="1" res="1.0976606063195504e-05" rms="2.9405927658081055e-01" purity="9.1213965415954590e-01" nType="-99"/>
          <Node pos="r" depth="2" NCoef="0" IVar="-1" Cut="0.0000000000000000e+00" cType="1" res="1.4203196624293923e-03" rms="3.9225482940673828e-01" purity="4.2983239889144897e-01" nType="-99"/>
        </Node>
      </Node>
    </BinaryTree>
    <BinaryTree type="DecisionTree" boostWeight="1.0000000000000000e+00" itree="319">
      <Node pos="s" depth="0" NCoef="0" IVar="5" Cut="1.7616529687500000e+05" cType="1" res="5.6373000144958496e-01" rms="4.9604421854019165e-01" purity="5.6392556428909302e-01" nType="0">
        <Node pos="l" depth="1" NCoef="0" IVar="2" Cut="8.9689414062500000e+04" cType="1" res="7.5938266515731812e-01" rms="4.2745834589004517e-01" purity="7.5938266515731812e-01" nType="0">
          <Node pos="l" depth="2" NCoef="0" IVar="-1" Cut="0.0000000000000000e+00" cType="1" res="1.3846809451933950e-05" rms="2.3352316021919250e-01" purity="9.2415142059326172e-01" nType="-99"/>
          <Node pos="r" depth="2" NCoef="0" IVar="-1" Cut="0.0000000000000000e+00" cType="1" res="-5.5007440969347954e-03" rms="2.5521945953369141e-01" purity="8.3025284111499786e-02" nType="-99"/>
        </Node>
        <Node pos="r" depth="1" NCoef="0" IVar="4" Cut="3.7135582031250000e+04" cType="1" res="4.3673914670944214e-01" rms="4.9618366360664368e-01" purity="4.3706154823303223e-01" nType="0">
          <Node pos="l" depth="2" NCoef="0" IVar="-1" Cut="0.0000000000000000e+00" cType="1" res="3.4664559643715620e-04" rms="3.6823230981826782e-01" purity="3.1242066621780396e-01" nType="-99"/>
          <Node pos="r" depth="2" NCoef="0" IVar="-1" Cut="0.0000000000000000e+00" cType="1" res="1.7084561986848712e-03" rms="4.0733391046524048e-01" purity="7.2658723592758179e-01" nType="-99"/>
        </Node>
      </Node>
    </BinaryTree>
    <BinaryTree type="DecisionTree" boostWeight="1.0000000000000000e+00" itree="320">
      <Node pos="s" depth="0" NCoef="0" IVar="5" Cut="1.5990256250000000e+05" cType="1" res="4.8373243212699890e-01" rms="4.9973529577255249e-01" purity="4.8373243212699890e-01" nType="0">
        <Node pos="l" depth="1" NCoef="0" IVar="-1" Cut="0.0000000000000000e+00" cType="1" res="1.0581929927866440e-05" rms="3.6394980549812317e-01" purity="7.7096325159072876e-01" nType="-99"/>
        <Node pos="r" depth="1" NCoef="0" IVar="4" Cut="6.0250875000000000e+04" cType="1" res="4.0880528092384338e-01" rms="4.9161317944526672e-01" purity="4.0880531072616577e-01" nType="0">
          <Node pos="l" depth="2" NCoef="0" IVar="-1" Cut="0.0000000000000000e+00" cType="1" res="1.1262083717156202e-04" rms="3.6832329630851746e-01" purity="3.3808284997940063e-01" nType="-99"/>
          <Node pos="r" depth="2" NCoef="0" IVar="-1" Cut="0.0000000000000000e+00" cType="1" res="1.6443998320028186e-03" rms="3.3678629994392395e-01" purity="8.6281877756118774e-01" nType="-99"/>
        </Node>
      </Node>
    </BinaryTree>
    <BinaryTree type="DecisionTree" boostWeight="1.0000000000000000e+00" itree="321">
      <Node pos="s" depth="0" NCoef="0" IVar="2" Cut="9.1849609375000000e+04" cType="1" res="4.6676135063171387e-01" rms="4.9889397621154785e-01" purity="4.6676132082939148e-01" nType="0">
        <Node pos="l" depth="1" NCoef="0" IVar="4" Cut="7.0973789062500000e+04" cType="1" res="3.8525491952896118e-01" rms="4.8665550351142883e-01" purity="3.8525491952896118e-01" nType="0">
          <Node pos="l" depth="2" NCoef="0" IVar="-1" Cut="0.0000000000000000e+00" cType="1" res="8.0728917964734137e-05" rms="3.6299434304237366e-01" purity="3.2967859506607056e-01" nType="-99"/>
          <Node pos="r" depth="2" NCoef="0" IVar="-1" Cut="0.0000000000000000e+00" cType="1" res="1.7222140450030565e-03" rms="3.1327039003372192e-01" purity="8.8503336906433105e-01" nType="-99"/>
        </Node>
        <Node pos="r" depth="1" NCoef="0" IVar="2" Cut="9.2047007812500000e+04" cType="1" res="5.9357827901840210e-01" rms="4.9146792292594910e-01" purity="5.9450072050094604e-01" nType="0">
          <Node pos="l" depth="2" NCoef="0" IVar="-1" Cut="0.0000000000000000e+00" cType="1" res="1.6195717762457207e-05" rms="3.5615074634552002e-01" purity="8.7317681312561035e-01" nType="-99"/>
          <Node pos="r" depth="2" NCoef="0" IVar="-1" Cut="0.0000000000000000e+00" cType="1" res="7.5156259117648005e-04" rms="3.6596393585205078e-01" purity="3.7925311923027039e-01" nType="-99"/>
        </Node>
      </Node>
    </BinaryTree>
    <BinaryTree type="DecisionTree" boostWeight="1.0000000000000000e+00" itree="322">
      <Node pos="s" depth="0" NCoef="0" IVar="1" Cut="1.8991192187500000e+05" cType="1" res="4.5189705491065979e-01" rms="4.9768072366714478e-01" purity="4.5189708471298218e-01" nType="0">
        <Node pos="l" depth="1" NCoef="0" IVar="-1" Cut="0.0000000000000000e+00" cType="1" res="1.7951981135411188e-05" rms="4.1313213109970093e-01" purity="7.3126453161239624e-01" nType="-99"/>
        <Node pos="r" depth="1" NCoef="0" IVar="4" Cut="6.8821250000000000e+04" cType="1" res="4.0327063202857971e-01" rms="4.9055421352386475e-01" purity="4.0327066183090210e-01" nType="0">
          <Node pos="l" depth="2" NCoef="0" IVar="-1" Cut="0.0000000000000000e+00" cType="1" res="3.0343231628648937e-04" rms="3.6731368303298950e-01" purity="3.4647417068481445e-01" nType="-99"/>
          <Node pos="r" depth="2" NCoef="0" IVar="-1" Cut="0.0000000000000000e+00" cType="1" res="1.8000612035393715e-03" rms="3.1406566500663757e-01" purity="8.8496810197830200e-01" nType="-99"/>
        </Node>
      </Node>
    </BinaryTree>
    <BinaryTree type="DecisionTree" boostWeight="1.0000000000000000e+00" itree="323">
      <Node pos="s" depth="0" NCoef="0" IVar="4" Cut="4.5868503906250000e+04" cType="1" res="3.8032293319702148e-01" rms="4.8574283719062805e-01" purity="3.8072514533996582e-01" nType="0">
        <Node pos="l" depth="1" NCoef="0" IVar="0" Cut="3.0000000000000000e+00" cType="1" res="-8.2079321146011353e-03" rms="3.4807655215263367e-01" purity="2.8130850195884705e-01" nType="0">
          <Node pos="l" depth="2" NCoef="0" IVar="-1" Cut="0.0000000000000000e+00" cType="1" res="-1.4923583948984742e-03" rms="3.4822031855583191e-01" purity="2.1739955246448517e-01" nType="-99"/>
          <Node pos="r" depth="2" NCoef="0" IVar="-1" Cut="0.0000000000000000e+00" cType="1" res="3.8406439125537872e-03" rms="3.1626042723655701e-01" purity="8.8754963874816895e-01" nType="-99"/>
        </Node>
        <Node pos="r" depth="1" NCoef="0" IVar="4" Cut="7.9927671875000000e+04" cType="1" res="7.8086948394775391e-01" rms="4.1513499617576599e-01" purity="7.8349661827087402e-01" nType="0">
          <Node pos="l" depth="2" NCoef="0" IVar="-1" Cut="0.0000000000000000e+00" cType="1" res="1.4739204198122025e-03" rms="4.2036911845207214e-01" purity="7.1253824234008789e-01" nType="-99"/>
          <Node pos="r" depth="2" NCoef="0" IVar="-1" Cut="0.0000000000000000e+00" cType="1" res="1.8164095235988498e-03" rms="2.9451489448547363e-01" purity="9.0238982439041138e-01" nType="-99"/>
        </Node>
      </Node>
    </BinaryTree>
    <BinaryTree type="DecisionTree" boostWeight="1.0000000000000000e+00" itree="324">
      <Node pos="s" depth="0" NCoef="0" IVar="2" Cut="8.9655289062500000e+04" cType="1" res="5.6305056810379028e-01" rms="4.9614092707633972e-01" purity="5.6349205970764160e-01" nType="0">
        <Node pos="l" depth="1" NCoef="0" IVar="2" Cut="8.9245531250000000e+04" cType="1" res="7.9617428779602051e-01" rms="4.0304508805274963e-01" purity="7.9659307003021240e-01" nType="0">
          <Node pos="l" depth="2" NCoef="0" IVar="-1" Cut="0.0000000000000000e+00" cType="1" res="7.5688568176701665e-04" rms="3.6602914333343506e-01" purity="3.8913324475288391e-01" nType="-99"/>
          <Node pos="r" depth="2" NCoef="0" IVar="-1" Cut="0.0000000000000000e+00" cType="1" res="1.3995586414239369e-05" rms="2.6178616285324097e-01" purity="9.3137687444686890e-01" nType="-99"/>
        </Node>
        <Node pos="r" depth="1" NCoef="0" IVar="4" Cut="6.4850910156250000e+04" cType="1" res="3.8039648532867432e-01" rms="4.8573601245880127e-01" purity="3.8095447421073914e-01" nType="0">
          <Node pos="l" depth="2" NCoef="0" IVar="-1" Cut="0.0000000000000000e+00" cType="1" res="1.8342472685617395e-05" rms="3.6046558618545532e-01" purity="3.2314383983612061e-01" nType="-99"/>
          <Node pos="r" depth="2" NCoef="0" IVar="-1" Cut="0.0000000000000000e+00" cType="1" res="2.0003044046461582e-03" rms="3.4056761860847473e-01" purity="8.6246699094772339e-01" nType="-99"/>
        </Node>
      </Node>
    </BinaryTree>
    <BinaryTree type="DecisionTree" boostWeight="1.0000000000000000e+00" itree="325">
      <Node pos="s" depth="0" NCoef="0" IVar="5" Cut="3.5949703125000000e+05" cType="1" res="3.8752505183219910e-01" rms="4.8744341731071472e-01" purity="3.8823440670967102e-01" nType="0">
        <Node pos="l" depth="1" NCoef="0" IVar="4" Cut="6.2138511718750000e+04" cType="1" res="2.3750366270542145e-01" rms="4.2555338144302368e-01" purity="2.3750364780426025e-01" nType="0">
          <Node pos="l" depth="2" NCoef="0" IVar="-1" Cut="0.0000000000000000e+00" cType="1" res="-1.1717245215550065e-03" rms="3.5095611214637756e-01" purity="1.9991756975650787e-01" nType="-99"/>
          <Node pos="r" depth="2" NCoef="0" IVar="-1" Cut="0.0000000000000000e+00" cType="1" res="1.2794567737728357e-03" rms="4.2461395263671875e-01" purity="7.5392353534698486e-01" nType="-99"/>
        </Node>
        <Node pos="r" depth="1" NCoef="0" IVar="4" Cut="5.1095070312500000e+04" cType="1" res="7.5621664524078369e-01" rms="4.3014547228813171e-01" purity="7.5847053527832031e-01" nType="0">
          <Node pos="l" depth="2" NCoef="0" IVar="-1" Cut="0.0000000000000000e+00" cType="1" res="2.0794789306819439e-03" rms="3.9991503953933716e-01" purity="6.7939281463623047e-01" nType="-99"/>
          <Node pos="r" depth="2" NCoef="0" IVar="-1" Cut="0.0000000000000000e+00" cType="1" res="6.0613983077928424e-04" rms="2.8265267610549927e-01" purity="9.0856862068176270e-01" nType="-99"/>
        </Node>
      </Node>
    </BinaryTree>
    <BinaryTree type="DecisionTree" boostWeight="1.0000000000000000e+00" itree="326">
      <Node pos="s" depth="0" NCoef="0" IVar="3" Cut="8.9284828125000000e+04" cType="1" res="0.0000000000000000e+00" rms="7.3624396324157715e-01" purity="5.4211288690567017e-01" nType="0">
        <Node pos="l" depth="1" NCoef="0" IVar="5" Cut="3.7136265625000000e+05" cType="1" res="3.8740107417106628e-01" rms="4.8748373985290527e-01" purity="3.8771995902061462e-01" nType="0">
          <Node pos="l" depth="2" NCoef="0" IVar="-1" Cut="0.0000000000000000e+00" cType="1" res="-7.0924079045653343e-04" rms="3.5362643003463745e-01" purity="2.3845027387142181e-01" nType="-99"/>
          <Node pos="r" depth="2" NCoef="0" IVar="-1" Cut="0.0000000000000000e+00" cType="1" res="5.5625400273129344e-04" rms="3.5519844293594360e-01" purity="7.9304379224777222e-01" nType="-99"/>
        </Node>
        <Node pos="r" depth="1" NCoef="0" IVar="3" Cut="8.9622859375000000e+04" cType="1" res="6.2134379148483276e-01" rms="4.8505225777626038e-01" purity="6.2143123149871826e-01" nType="0">
          <Node pos="l" depth="2" NCoef="0" IVar="-1" Cut="0.0000000000000000e+00" cType="1" res="1.6251242414000444e-05" rms="3.4219995141029358e-01" purity="8.8862240314483643e-01" nType="-99"/>
          <Node pos="r" depth="2" NCoef="0" IVar="-1" Cut="0.0000000000000000e+00" cType="1" res="1.1532752978382632e-05" rms="4.5192864537239075e-01" purity="5.4785972833633423e-01" nType="-99"/>
        </Node>
      </Node>
    </BinaryTree>
    <BinaryTree type="DecisionTree" boostWeight="1.0000000000000000e+00" itree="327">
      <Node pos="s" depth="0" NCoef="0" IVar="4" Cut="7.6838750000000000e+04" cType="1" res="3.8231888413429260e-01" rms="4.8595386743545532e-01" purity="3.8231888413429260e-01" nType="0">
        <Node pos="l" depth="1" NCoef="0" IVar="0" Cut="1.0000000000000000e+00" cType="1" res="6.0846088454127312e-03" rms="3.6801859736442566e-01" purity="3.3576428890228271e-01" nType="0">
          <Node pos="l" depth="2" NCoef="0" IVar="-1" Cut="0.0000000000000000e+00" cType="1" res="-2.9108528979122639e-03" rms="2.9313626885414124e-01" purity="1.1280341446399689e-01" nType="-99"/>
          <Node pos="r" depth="2" NCoef="0" IVar="-1" Cut="0.0000000000000000e+00" cType="1" res="1.5987111255526543e-03" rms="4.2140182852745056e-01" purity="5.4266017675399780e-01" nType="-99"/>
        </Node>
        <Node pos="r" depth="1" NCoef="0" IVar="-1" Cut="0.0000000000000000e+00" cType="1" res="1.6084564849734306e-03" rms="3.0270621180534363e-01" purity="8.9562410116195679e-01" nType="-99"/>
      </Node>
    </BinaryTree>
    <BinaryTree type="DecisionTree" boostWeight="1.0000000000000000e+00" itree="328">
      <Node pos="s" depth="0" NCoef="0" IVar="4" Cut="1.8561316406250000e+04" cType="1" res="6.1967754364013672e-01" rms="4.8561197519302368e-01" purity="6.1988407373428345e-01" nType="0">
        <Node pos="l" depth="1" NCoef="0" IVar="3" Cut="9.5667765625000000e+04" cType="1" res="1.9007770717144012e-01" rms="3.9259076118469238e-01" purity="1.9025705754756927e-01" nType="0">
          <Node pos="l" depth="2" NCoef="0" IVar="-1" Cut="0.0000000000000000e+00" cType="1" res="-7.4654741911217570e-04" rms="2.7727079391479492e-01" purity="1.7801170051097870e-01" nType="-99"/>
          <Node pos="r" depth="2" NCoef="0" IVar="-1" Cut="0.0000000000000000e+00" cType="1" res="2.8162857051938772e-03" rms="3.5007518529891968e-01" purity="2.6599344611167908e-01" nType="-99"/>
        </Node>
        <Node pos="r" depth="1" NCoef="0" IVar="4" Cut="2.7556832031250000e+04" cType="1" res="7.6504117250442505e-01" rms="4.2412519454956055e-01" purity="7.6525676250457764e-01" nType="0">
          <Node pos="l" depth="2" NCoef="0" IVar="-1" Cut="0.0000000000000000e+00" cType="1" res="1.4419688341149595e-05" rms="3.8655516505241394e-01" purity="8.4103912115097046e-01" nType="-99"/>
          <Node pos="r" depth="2" NCoef="0" IVar="-1" Cut="0.0000000000000000e+00" cType="1" res="1.0904934024438262e-03" rms="4.1625803709030151e-01" purity="6.1292201280593872e-01" nType="-99"/>
        </Node>
      </Node>
    </BinaryTree>
    <BinaryTree type="DecisionTree" boostWeight="1.0000000000000000e+00" itree="329">
      <Node pos="s" depth="0" NCoef="0" IVar="4" Cut="1.7799791015625000e+04" cType="1" res="5.7283174991607666e-01" rms="4.9486777186393738e-01" purity="5.7303035259246826e-01" nType="0">
        <Node pos="l" depth="1" NCoef="0" IVar="4" Cut="1.3274652343750000e+04" cType="1" res="1.7609600722789764e-01" rms="3.8090181350708008e-01" purity="1.7609599232673645e-01" nType="0">
          <Node pos="l" depth="2" NCoef="0" IVar="-1" Cut="0.0000000000000000e+00" cType="1" res="-3.3744338434189558e-03" rms="2.4918663501739502e-01" purity="1.4346623420715332e-01" nType="-99"/>
          <Node pos="r" depth="2" NCoef="0" IVar="-1" Cut="0.0000000000000000e+00" cType="1" res="3.1373817473649979e-03" rms="3.3968588709831238e-01" purity="2.4831846356391907e-01" nType="-99"/>
        </Node>
        <Node pos="r" depth="1" NCoef="0" IVar="4" Cut="2.9362488281250000e+04" cType="1" res="7.1808761358261108e-01" rms="4.5008021593093872e-01" purity="7.1860742568969727e-01" nType="0">
          <Node pos="l" depth="2" NCoef="0" IVar="-1" Cut="0.0000000000000000e+00" cType="1" res="1.3715936802327633e-05" rms="4.3859383463859558e-01" purity="7.6861608028411865e-01" nType="-99"/>
          <Node pos="r" depth="2" NCoef="0" IVar="-1" Cut="0.0000000000000000e+00" cType="1" res="1.1657881550490856e-03" rms="4.1379880905151367e-01" purity="6.2445294857025146e-01" nType="-99"/>
        </Node>
      </Node>
    </BinaryTree>
    <BinaryTree type="DecisionTree" boostWeight="1.0000000000000000e+00" itree="330">
      <Node pos="s" depth="0" NCoef="0" IVar="4" Cut="1.7785007812500000e+04" cType="1" res="5.7683712244033813e-01" rms="4.9440073966979980e-01" purity="5.7717311382293701e-01" nType="0">
        <Node pos="l" depth="1" NCoef="0" IVar="4" Cut="1.3260423828125000e+04" cType="1" res="1.9319055974483490e-01" rms="3.9480116963386536e-01" purity="1.9337767362594604e-01" nType="0">
          <Node pos="l" depth="2" NCoef="0" IVar="-1" Cut="0.0000000000000000e+00" cType="1" res="-1.5657739713788033e-03" rms="2.5862625241279602e-01" purity="1.5962304174900055e-01" nType="-99"/>
          <Node pos="r" depth="2" NCoef="0" IVar="-1" Cut="0.0000000000000000e+00" cType="1" res="3.4821243025362492e-03" rms="3.4635245800018311e-01" purity="2.6746267080307007e-01" nType="-99"/>
        </Node>
        <Node pos="r" depth="1" NCoef="0" IVar="4" Cut="2.9347746093750000e+04" cType="1" res="7.1838551759719849e-01" rms="4.5022073388099670e-01" purity="7.1877652406692505e-01" nType="0">
          <Node pos="l" depth="2" NCoef="0" IVar="-1" Cut="0.0000000000000000e+00" cType="1" res="1.3697169379156549e-05" rms="4.4034773111343384e-01" purity="7.6715320348739624e-01" nType="-99"/>
          <Node pos="r" depth="2" NCoef="0" IVar="-1" Cut="0.0000000000000000e+00" cType="1" res="1.1674372944980860e-03" rms="4.1428923606872559e-01" purity="6.2676537036895752e-01" nType="-99"/>
        </Node>
      </Node>
    </BinaryTree>
    <BinaryTree type="DecisionTree" boostWeight="1.0000000000000000e+00" itree="331">
      <Node pos="s" depth="0" NCoef="0" IVar="3" Cut="9.5950445312500000e+04" cType="1" res="5.5223250389099121e-01" rms="4.9726429581642151e-01" purity="5.5223244428634644e-01" nType="0">
        <Node pos="l" depth="1" NCoef="0" IVar="5" Cut="3.7044740625000000e+05" cType="1" res="3.7926411628723145e-01" rms="4.8520392179489136e-01" purity="3.7926411628723145e-01" nType="0">
          <Node pos="l" depth="2" NCoef="0" IVar="-1" Cut="0.0000000000000000e+00" cType="1" res="-8.8935747044160962e-04" rms="3.5465922951698303e-01" purity="2.3350545763969421e-01" nType="-99"/>
          <Node pos="r" depth="2" NCoef="0" IVar="-1" Cut="0.0000000000000000e+00" cType="1" res="1.1595702962949872e-03" rms="3.6237737536430359e-01" purity="7.7279883623123169e-01" nType="-99"/>
        </Node>
        <Node pos="r" depth="1" NCoef="0" IVar="2" Cut="8.9372250000000000e+04" cType="1" res="8.5465866327285767e-01" rms="3.5244464874267578e-01" purity="8.5481500625610352e-01" nType="0">
          <Node pos="l" depth="2" NCoef="0" IVar="-1" Cut="0.0000000000000000e+00" cType="1" res="1.1071960216213483e-05" rms="2.3053710162639618e-01" purity="9.4894611835479736e-01" nType="-99"/>
          <Node pos="r" depth="2" NCoef="0" IVar="-1" Cut="0.0000000000000000e+00" cType="1" res="2.8422250761650503e-04" rms="3.7282180786132812e-01" purity="3.9574155211448669e-01" nType="-99"/>
        </Node>
      </Node>
    </BinaryTree>
    <BinaryTree type="DecisionTree" boostWeight="1.0000000000000000e+00" itree="332">
      <Node pos="s" depth="0" NCoef="0" IVar="2" Cut="9.1787367187500000e+04" cType="1" res="4.7101399302482605e-01" rms="4.9935579299926758e-01" purity="4.7131368517875671e-01" nType="0">
        <Node pos="l" depth="1" NCoef="0" IVar="4" Cut="7.0962226562500000e+04" cType="1" res="3.7947726249694824e-01" rms="4.8566004633903503e-01" purity="3.8022500276565552e-01" nType="0">
          <Node pos="l" depth="2" NCoef="0" IVar="-1" Cut="0.0000000000000000e+00" cType="1" res="5.8695204643299803e-05" rms="3.6004421114921570e-01" purity="3.2658424973487854e-01" nType="-99"/>
          <Node pos="r" depth="2" NCoef="0" IVar="-1" Cut="0.0000000000000000e+00" cType="1" res="1.7713194247335196e-03" rms="3.1584239006042480e-01" purity="8.8224506378173828e-01" nType="-99"/>
        </Node>
        <Node pos="r" depth="1" NCoef="0" IVar="2" Cut="9.1981835937500000e+04" cType="1" res="6.0195261240005493e-01" rms="4.8949530720710754e-01" purity="6.0217100381851196e-01" nType="0">
          <Node pos="l" depth="2" NCoef="0" IVar="-1" Cut="0.0000000000000000e+00" cType="1" res="1.6457746824016795e-05" rms="3.5593608021736145e-01" purity="8.7356394529342651e-01" nType="-99"/>
          <Node pos="r" depth="2" NCoef="0" IVar="-1" Cut="0.0000000000000000e+00" cType="1" res="1.1617218842729926e-03" rms="3.7867057323455811e-01" purity="4.0956282615661621e-01" nType="-99"/>
        </Node>
      </Node>
    </BinaryTree>
    <BinaryTree type="DecisionTree" boostWeight="1.0000000000000000e+00" itree="333">
      <Node pos="s" depth="0" NCoef="0" IVar="4" Cut="5.3062890625000000e+04" cType="1" res="0.0000000000000000e+00" rms="0.0000000000000000e+00" purity="3.8626116514205933e-01" nType="0">
        <Node pos="l" depth="1" NCoef="0" IVar="0" Cut="2.0000000000000000e+00" cType="1" res="3.1219847733154893e-04" rms="3.5763573646545410e-01" purity="3.0309927463531494e-01" nType="0">
          <Node pos="l" depth="2" NCoef="0" IVar="-1" Cut="0.0000000000000000e+00" cType="1" res="-1.6527307452633977e-03" rms="3.4427025914192200e-01" purity="1.6197857260704041e-01" nType="-99"/>
          <Node pos="r" depth="2" NCoef="0" IVar="-1" Cut="0.0000000000000000e+00" cType="1" res="2.1223311778157949e-03" rms="3.9174929261207581e-01" purity="8.0317384004592896e-01" nType="-99"/>
        </Node>
        <Node pos="r" depth="1" NCoef="0" IVar="4" Cut="8.2669664062500000e+04" cType="1" res="8.1817156076431274e-01" rms="3.8570305705070496e-01" purity="8.1817162036895752e-01" nType="0">
          <Node pos="l" depth="2" NCoef="0" IVar="-1" Cut="0.0000000000000000e+00" cType="1" res="4.8564191092737019e-04" rms="4.0571591258049011e-01" purity="7.5555920600891113e-01" nType="-99"/>
          <Node pos="r" depth="2" NCoef="0" IVar="-1" Cut="0.0000000000000000e+00" cType="1" res="1.7352020367980003e-03" rms="2.9300552606582642e-01" purity="9.0475082397460938e-01" nType="-99"/>
        </Node>
      </Node>
    </BinaryTree>
    <BinaryTree type="DecisionTree" boostWeight="1.0000000000000000e+00" itree="334">
      <Node pos="s" depth="0" NCoef="0" IVar="3" Cut="9.5950898437500000e+04" cType="1" res="5.9975945949554443e-01" rms="4.8994699120521545e-01" purity="5.9975945949554443e-01" nType="0">
        <Node pos="l" depth="1" NCoef="0" IVar="2" Cut="9.1757140625000000e+04" cType="1" res="4.7589030861854553e-01" rms="4.9941837787628174e-01" purity="4.7589030861854553e-01" nType="0">
          <Node pos="l" depth="2" NCoef="0" IVar="-1" Cut="0.0000000000000000e+00" cType="1" res="2.9369498952291906e-04" rms="3.5546532273292542e-01" purity="3.7473708391189575e-01" nType="-99"/>
          <Node pos="r" depth="2" NCoef="0" IVar="-1" Cut="0.0000000000000000e+00" cType="1" res="1.7115968148573302e-05" rms="4.7684717178344727e-01" purity="6.1332583427429199e-01" nType="-99"/>
        </Node>
        <Node pos="r" depth="1" NCoef="0" IVar="3" Cut="9.6732515625000000e+04" cType="1" res="8.5794609785079956e-01" rms="3.4933248162269592e-01" purity="8.5810470581054688e-01" nType="0">
          <Node pos="l" depth="2" NCoef="0" IVar="-1" Cut="0.0000000000000000e+00" cType="1" res="1.0955226571240928e-05" rms="2.1771460771560669e-01" purity="9.5657473802566528e-01" nType="-99"/>
          <Node pos="r" depth="2" NCoef="0" IVar="-1" Cut="0.0000000000000000e+00" cType="1" res="7.0735393092036247e-04" rms="3.8645696640014648e-01" purity="3.9961734414100647e-01" nType="-99"/>
        </Node>
      </Node>
    </BinaryTree>
    <BinaryTree type="DecisionTree" boostWeight="1.0000000000000000e+00" itree="335">
      <Node pos="s" depth="0" NCoef="0" IVar="3" Cut="9.5950960937500000e+04" cType="1" res="4.8473003506660461e-01" rms="4.9996137619018555e-01" purity="4.8509567975997925e-01" nType="0">
        <Node pos="l" depth="1" NCoef="0" IVar="5" Cut="3.7229668750000000e+05" cType="1" res="3.8424372673034668e-01" rms="4.8655295372009277e-01" purity="3.8460829854011536e-01" nType="0">
          <Node pos="l" depth="2" NCoef="0" IVar="-1" Cut="0.0000000000000000e+00" cType="1" res="-2.3368120309896767e-04" rms="3.5916998982429504e-01" purity="2.4234148859977722e-01" nType="-99"/>
          <Node pos="r" depth="2" NCoef="0" IVar="-1" Cut="0.0000000000000000e+00" cType="1" res="1.0989521397277713e-03" rms="3.6061787605285645e-01" purity="7.7317637205123901e-01" nType="-99"/>
        </Node>
        <Node pos="r" depth="1" NCoef="0" IVar="1" Cut="2.2353387500000000e+05" cType="1" res="7.7053320407867432e-01" rms="4.2048993706703186e-01" purity="7.7090197801589966e-01" nType="0">
          <Node pos="l" depth="2" NCoef="0" IVar="-1" Cut="0.0000000000000000e+00" cType="1" res="1.1025467756553553e-05" rms="2.9180458188056946e-01" purity="8.9952993392944336e-01" nType="-99"/>
          <Node pos="r" depth="2" NCoef="0" IVar="-1" Cut="0.0000000000000000e+00" cType="1" res="7.0141459582373500e-04" rms="3.7090402841567993e-01" purity="4.6591106057167053e-01" nType="-99"/>
        </Node>
      </Node>
    </BinaryTree>
    <BinaryTree type="DecisionTree" boostWeight="1.0000000000000000e+00" itree="336">
      <Node pos="s" depth="0" NCoef="0" IVar="4" Cut="1.7785007812500000e+04" cType="1" res="5.7843619585037231e-01" rms="4.9399515986442566e-01" purity="5.7874560356140137e-01" nType="0">
        <Node pos="l" depth="1" NCoef="0" IVar="4" Cut="1.5019415039062500e+04" cType="1" res="1.8629351258277893e-01" rms="3.8951432704925537e-01" purity="1.8662013113498688e-01" nType="0">
          <Node pos="l" depth="2" NCoef="0" IVar="-1" Cut="0.0000000000000000e+00" cType="1" res="-1.3187665026634932e-03" rms="2.6528841257095337e-01" purity="1.6088002920150757e-01" nType="-99"/>
          <Node pos="r" depth="2" NCoef="0" IVar="-1" Cut="0.0000000000000000e+00" cType="1" res="4.3418374843895435e-03" rms="3.6052614450454712e-01" purity="2.9447105526924133e-01" nType="-99"/>
        </Node>
        <Node pos="r" depth="1" NCoef="0" IVar="4" Cut="2.9347746093750000e+04" cType="1" res="7.2413003444671631e-01" rms="4.4723302125930786e-01" purity="7.2455447912216187e-01" nType="0">
          <Node pos="l" depth="2" NCoef="0" IVar="-1" Cut="0.0000000000000000e+00" cType="1" res="1.3813848454446997e-05" rms="4.3672543764114380e-01" purity="7.7272289991378784e-01" nType="-99"/>
          <Node pos="r" depth="2" NCoef="0" IVar="-1" Cut="0.0000000000000000e+00" cType="1" res="1.0739290155470371e-03" rms="4.0925043821334839e-01" purity="6.3385540246963501e-01" nType="-99"/>
        </Node>
      </Node>
    </BinaryTree>
    <BinaryTree type="DecisionTree" boostWeight="1.0000000000000000e+00" itree="337">
      <Node pos="s" depth="0" NCoef="0" IVar="1" Cut="2.0337760937500000e+05" cType="1" res="4.4592085480690002e-01" rms="4.9712902307510376e-01" purity="4.4598269462585449e-01" nType="0">
        <Node pos="l" depth="1" NCoef="0" IVar="2" Cut="8.9636281250000000e+04" cType="1" res="4.6894717216491699e-01" rms="5.2275335788726807e-01" purity="5.3846663236618042e-01" nType="0">
          <Node pos="l" depth="2" NCoef="0" IVar="-1" Cut="0.0000000000000000e+00" cType="1" res="1.8177401216235012e-05" rms="3.8363835215568542e-01" purity="7.9050564765930176e-01" nType="-99"/>
          <Node pos="r" depth="2" NCoef="0" IVar="-1" Cut="0.0000000000000000e+00" cType="1" res="3.7740374682471156e-04" rms="3.4578976035118103e-01" purity="2.4063654243946075e-01" nType="-99"/>
        </Node>
        <Node pos="r" depth="1" NCoef="0" IVar="5" Cut="4.6639031250000000e+05" cType="1" res="4.1475161910057068e-01" rms="4.9276298284530640e-01" purity="4.1483429074287415e-01" nType="0">
          <Node pos="l" depth="2" NCoef="0" IVar="-1" Cut="0.0000000000000000e+00" cType="1" res="-3.1696032237960026e-05" rms="3.7309634685516357e-01" purity="3.0681693553924561e-01" nType="-99"/>
          <Node pos="r" depth="2" NCoef="0" IVar="-1" Cut="0.0000000000000000e+00" cType="1" res="2.8718407265841961e-03" rms="3.4014558792114258e-01" purity="8.1916558742523193e-01" nType="-99"/>
        </Node>
      </Node>
    </BinaryTree>
    <BinaryTree type="DecisionTree" boostWeight="1.0000000000000000e+00" itree="338">
      <Node pos="s" depth="0" NCoef="0" IVar="0" Cut="1.0000000000000000e+00" cType="1" res="1.7562646418809891e-02" rms="3.6099097132682800e-01" purity="3.8318073749542236e-01" nType="0">
        <Node pos="l" depth="1" NCoef="0" IVar="4" Cut="4.5429566406250000e+04" cType="1" res="1.3778287172317505e-01" rms="3.4467196464538574e-01" purity="1.3778288662433624e-01" nType="0">
          <Node pos="l" depth="2" NCoef="0" IVar="-1" Cut="0.0000000000000000e+00" cType="1" res="-5.6889974512159824e-03" rms="2.6753678917884827e-01" purity="7.9251058399677277e-02" nType="-99"/>
          <Node pos="r" depth="2" NCoef="0" IVar="-1" Cut="0.0000000000000000e+00" cType="1" res="5.0273328088223934e-04" rms="4.5701727271080017e-01" purity="5.9138584136962891e-01" nType="-99"/>
        </Node>
        <Node pos="r" depth="1" NCoef="0" IVar="4" Cut="3.4884867187500000e+04" cType="1" res="5.8973467350006104e-01" rms="4.9288898706436157e-01" purity="5.9114253520965576e-01" nType="0">
          <Node pos="l" depth="2" NCoef="0" IVar="-1" Cut="0.0000000000000000e+00" cType="1" res="1.1816995684057474e-03" rms="4.0688985586166382e-01" purity="4.7350487112998962e-01" nType="-99"/>
          <Node pos="r" depth="2" NCoef="0" IVar="-1" Cut="0.0000000000000000e+00" cType="1" res="9.8034925758838654e-04" rms="3.8919970393180847e-01" purity="7.7305191755294800e-01" nType="-99"/>
        </Node>
      </Node>
    </BinaryTree>
    <BinaryTree type="DecisionTree" boostWeight="1.0000000000000000e+00" itree="339">
      <Node pos="s" depth="0" NCoef="0" IVar="3" Cut="9.5950351562500000e+04" cType="1" res="4.7825464606285095e-01" rms="4.9977344274520874e-01" purity="4.7859019041061401e-01" nType="0">
        <Node pos="l" depth="1" NCoef="0" IVar="4" Cut="5.5033109375000000e+04" cType="1" res="3.7518280744552612e-01" rms="4.8451608419418335e-01" purity="3.7583270668983459e-01" nType="0">
          <Node pos="l" depth="2" NCoef="0" IVar="-1" Cut="0.0000000000000000e+00" cType="1" res="-2.0896583737339824e-04" rms="3.5001289844512939e-01" purity="3.0124348402023315e-01" nType="-99"/>
          <Node pos="r" depth="2" NCoef="0" IVar="-1" Cut="0.0000000000000000e+00" cType="1" res="1.7458358779549599e-03" rms="3.6965802311897278e-01" purity="8.2184344530105591e-01" nType="-99"/>
        </Node>
        <Node pos="r" depth="1" NCoef="0" IVar="3" Cut="9.6731960937500000e+04" cType="1" res="7.6949143409729004e-01" rms="4.2115837335586548e-01" purity="7.6949143409729004e-01" nType="0">
          <Node pos="l" depth="2" NCoef="0" IVar="-1" Cut="0.0000000000000000e+00" cType="1" res="1.1054882634198293e-05" rms="2.8917872905731201e-01" purity="9.1668772697448730e-01" nType="-99"/>
          <Node pos="r" depth="2" NCoef="0" IVar="-1" Cut="0.0000000000000000e+00" cType="1" res="7.5967895099893212e-04" rms="3.9223217964172363e-01" purity="4.1615664958953857e-01" nType="-99"/>
        </Node>
      </Node>
    </BinaryTree>
    <BinaryTree type="DecisionTree" boostWeight="1.0000000000000000e+00" itree="340">
      <Node pos="s" depth="0" NCoef="0" IVar="2" Cut="8.9674031250000000e+04" cType="1" res="5.2880632877349854e-01" rms="4.9916949868202209e-01" purity="5.2880632877349854e-01" nType="0">
        <Node pos="l" depth="1" NCoef="0" IVar="2" Cut="8.9263265625000000e+04" cType="1" res="7.4865800142288208e-01" rms="4.3378472328186035e-01" purity="7.4865800142288208e-01" nType="0">
          <Node pos="l" depth="2" NCoef="0" IVar="-1" Cut="0.0000000000000000e+00" cType="1" res="1.0664702858775854e-03" rms="3.6608991026878357e-01" purity="4.0480679273605347e-01" nType="-99"/>
          <Node pos="r" depth="2" NCoef="0" IVar="-1" Cut="0.0000000000000000e+00" cType="1" res="1.3086362741887569e-05" rms="3.0337727069854736e-01" purity="9.0673774480819702e-01" nType="-99"/>
        </Node>
        <Node pos="r" depth="1" NCoef="0" IVar="4" Cut="7.4079312500000000e+04" cType="1" res="3.8394588232040405e-01" rms="4.8650655150413513e-01" purity="3.8410305976867676e-01" nType="0">
          <Node pos="l" depth="2" NCoef="0" IVar="-1" Cut="0.0000000000000000e+00" cType="1" res="2.5786232436075807e-04" rms="3.6369815468788147e-01" purity="3.3727908134460449e-01" nType="-99"/>
          <Node pos="r" depth="2" NCoef="0" IVar="-1" Cut="0.0000000000000000e+00" cType="1" res="1.6211521578952670e-03" rms="3.0984669923782349e-01" purity="8.8994908332824707e-01" nType="-99"/>
        </Node>
      </Node>
    </BinaryTree>
    <BinaryTree type="DecisionTree" boostWeight="1.0000000000000000e+00" itree="341">
      <Node pos="s" depth="0" NCoef="0" IVar="2" Cut="9.1879203125000000e+04" cType="1" res="5.7992357015609741e-01" rms="4.9365609884262085e-01" purity="5.8000773191452026e-01" nType="0">
        <Node pos="l" depth="1" NCoef="0" IVar="4" Cut="7.3448796875000000e+04" cType="1" res="3.7877684831619263e-01" rms="4.8526203632354736e-01" purity="3.7895113229751587e-01" nType="0">
          <Node pos="l" depth="2" NCoef="0" IVar="-1" Cut="0.0000000000000000e+00" cType="1" res="3.0772207537665963e-04" rms="3.6357128620147705e-01" purity="3.3170005679130554e-01" nType="-99"/>
          <Node pos="r" depth="2" NCoef="0" IVar="-1" Cut="0.0000000000000000e+00" cType="1" res="1.7089428147301078e-03" rms="3.1463319063186646e-01" purity="8.8555681705474854e-01" nType="-99"/>
        </Node>
        <Node pos="r" depth="1" NCoef="0" IVar="2" Cut="9.2076015625000000e+04" cType="1" res="7.6738464832305908e-01" rms="4.2270338535308838e-01" purity="7.6755738258361816e-01" nType="0">
          <Node pos="l" depth="2" NCoef="0" IVar="-1" Cut="0.0000000000000000e+00" cType="1" res="1.6596817658864893e-05" rms="2.2891111671924591e-01" purity="9.5384651422500610e-01" nType="-99"/>
          <Node pos="r" depth="2" NCoef="0" IVar="-1" Cut="0.0000000000000000e+00" cType="1" res="4.0952532435767353e-04" rms="3.6969345808029175e-01" purity="3.7381881475448608e-01" nType="-99"/>
        </Node>
      </Node>
    </BinaryTree>
    <BinaryTree type="DecisionTree" boostWeight="1.0000000000000000e+00" itree="342">
      <Node pos="s" depth="0" NCoef="0" IVar="1" Cut="2.0309048437500000e+05" cType="1" res="4.5542809367179871e-01" rms="4.9821186065673828e-01" purity="4.5572391152381897e-01" nType="0">
        <Node pos="l" depth="1" NCoef="0" IVar="2" Cut="8.9596296875000000e+04" cType="1" res="4.8584750294685364e-01" rms="5.2139127254486084e-01" purity="5.5351895093917847e-01" nType="0">
          <Node pos="l" depth="2" NCoef="0" IVar="-1" Cut="0.0000000000000000e+00" cType="1" res="1.8705382899497636e-05" rms="3.7624186277389526e-01" purity="8.0531114339828491e-01" nType="-99"/>
          <Node pos="r" depth="2" NCoef="0" IVar="-1" Cut="0.0000000000000000e+00" cType="1" res="1.7352631548419595e-03" rms="3.6216008663177490e-01" purity="2.6048040390014648e-01" nType="-99"/>
        </Node>
        <Node pos="r" depth="1" NCoef="0" IVar="4" Cut="7.8753968750000000e+04" cType="1" res="4.2247590422630310e-01" rms="4.9422615766525269e-01" purity="4.2287108302116394e-01" nType="0">
          <Node pos="l" depth="2" NCoef="0" IVar="-1" Cut="0.0000000000000000e+00" cType="1" res="3.1319446861743927e-04" rms="3.6981931328773499e-01" purity="3.7148818373680115e-01" nType="-99"/>
          <Node pos="r" depth="2" NCoef="0" IVar="-1" Cut="0.0000000000000000e+00" cType="1" res="1.7215709667652845e-03" rms="2.7453380823135376e-01" purity="9.1700786352157593e-01" nType="-99"/>
        </Node>
      </Node>
    </BinaryTree>
    <BinaryTree type="DecisionTree" boostWeight="1.0000000000000000e+00" itree="343">
      <Node pos="s" depth="0" NCoef="0" IVar="4" Cut="5.3210050781250000e+04" cType="1" res="3.8497826457023621e-01" rms="4.8659017682075500e-01" purity="3.8497826457023621e-01" nType="0">
        <Node pos="l" depth="1" NCoef="0" IVar="5" Cut="4.6551053125000000e+05" cType="1" res="3.0265191197395325e-01" rms="4.5949384570121765e-01" purity="3.0273279547691345e-01" nType="0">
          <Node pos="l" depth="2" NCoef="0" IVar="-1" Cut="0.0000000000000000e+00" cType="1" res="-1.0737112024798989e-03" rms="3.5218849778175354e-01" purity="2.2631520032882690e-01" nType="-99"/>
          <Node pos="r" depth="2" NCoef="0" IVar="-1" Cut="0.0000000000000000e+00" cType="1" res="3.3894926309585571e-03" rms="3.7027424573898315e-01" purity="7.6631200313568115e-01" nType="-99"/>
        </Node>
        <Node pos="r" depth="1" NCoef="0" IVar="4" Cut="8.0862609375000000e+04" cType="1" res="8.2629340887069702e-01" rms="3.7885695695877075e-01" purity="8.2629340887069702e-01" nType="0">
          <Node pos="l" depth="2" NCoef="0" IVar="-1" Cut="0.0000000000000000e+00" cType="1" res="1.1665810598060489e-03" rms="4.1087663173675537e-01" purity="7.5942075252532959e-01" nType="-99"/>
          <Node pos="r" depth="2" NCoef="0" IVar="-1" Cut="0.0000000000000000e+00" cType="1" res="1.7429511062800884e-03" rms="2.8671318292617798e-01" purity="9.0717148780822754e-01" nType="-99"/>
        </Node>
      </Node>
    </BinaryTree>
    <BinaryTree type="DecisionTree" boostWeight="1.0000000000000000e+00" itree="344">
      <Node pos="s" depth="0" NCoef="0" IVar="3" Cut="9.5951031250000000e+04" cType="1" res="5.4594987630844116e-01" rms="4.9800023436546326e-01" purity="5.4606550931930542e-01" nType="0">
        <Node pos="l" depth="1" NCoef="0" IVar="2" Cut="9.1774695312500000e+04" cType="1" res="4.7516378760337830e-01" rms="4.9938279390335083e-01" purity="4.7516375780105591e-01" nType="0">
          <Node pos="l" depth="2" NCoef="0" IVar="-1" Cut="0.0000000000000000e+00" cType="1" res="3.6799328518100083e-04" rms="3.5571154952049255e-01" purity="3.8069799542427063e-01" nType="-99"/>
          <Node pos="r" depth="2" NCoef="0" IVar="-1" Cut="0.0000000000000000e+00" cType="1" res="1.7046082575689070e-05" rms="4.7891405224800110e-01" purity="6.1014240980148315e-01" nType="-99"/>
        </Node>
        <Node pos="r" depth="1" NCoef="0" IVar="2" Cut="8.9314257812500000e+04" cType="1" res="7.7577370405197144e-01" rms="4.1707175970077515e-01" purity="7.7626472711563110e-01" nType="0">
          <Node pos="l" depth="2" NCoef="0" IVar="-1" Cut="0.0000000000000000e+00" cType="1" res="1.1218719009775668e-05" rms="2.9254639148712158e-01" purity="9.1376101970672607e-01" nType="-99"/>
          <Node pos="r" depth="2" NCoef="0" IVar="-1" Cut="0.0000000000000000e+00" cType="1" res="8.4969488671049476e-04" rms="3.6613154411315918e-01" purity="4.6193760633468628e-01" nType="-99"/>
        </Node>
      </Node>
    </BinaryTree>
    <BinaryTree type="DecisionTree" boostWeight="1.0000000000000000e+00" itree="345">
      <Node pos="s" depth="0" NCoef="0" IVar="0" Cut="1.0000000000000000e+00" cType="1" res="2.2539857774972916e-02" rms="3.6617407202720642e-01" purity="3.8578170537948608e-01" nType="0">
        <Node pos="l" depth="1" NCoef="0" IVar="4" Cut="4.5426609375000000e+04" cType="1" res="1.4140513539314270e-01" rms="3.4843897819519043e-01" purity="1.4140513539314270e-01" nType="0">
          <Node pos="l" depth="2" NCoef="0" IVar="-1" Cut="0.0000000000000000e+00" cType="1" res="-5.1379264332354069e-03" rms="2.7232643961906433e-01" purity="8.0995120108127594e-02" nType="-99"/>
          <Node pos="r" depth="2" NCoef="0" IVar="-1" Cut="0.0000000000000000e+00" cType="1" res="7.1905727963894606e-04" rms="4.5471808314323425e-01" purity="6.1011713743209839e-01" nType="-99"/>
        </Node>
        <Node pos="r" depth="1" NCoef="0" IVar="5" Cut="7.3343193750000000e+05" cType="1" res="5.9257221221923828e-01" rms="4.9161618947982788e-01" purity="5.9355789422988892e-01" nType="0">
          <Node pos="l" depth="2" NCoef="0" IVar="-1" Cut="0.0000000000000000e+00" cType="1" res="1.2632030993700027e-03" rms="4.2257785797119141e-01" purity="5.4631316661834717e-01" nType="-99"/>
          <Node pos="r" depth="2" NCoef="0" IVar="-1" Cut="0.0000000000000000e+00" cType="1" res="4.1496800258755684e-03" rms="2.8144076466560364e-01" purity="9.0878975391387939e-01" nType="-99"/>
        </Node>
      </Node>
    </BinaryTree>
    <BinaryTree type="DecisionTree" boostWeight="1.0000000000000000e+00" itree="346">
      <Node pos="s" depth="0" NCoef="0" IVar="4" Cut="5.0964031250000000e+04" cType="1" res="3.7565231323242188e-01" rms="4.8429086804389954e-01" purity="3.7565231323242188e-01" nType="0">
        <Node pos="l" depth="1" NCoef="0" IVar="0" Cut="3.0000000000000000e+00" cType="1" res="-5.5609866976737976e-03" rms="3.5690191388130188e-01" purity="2.9191327095031738e-01" nType="0">
          <Node pos="l" depth="2" NCoef="0" IVar="-1" Cut="0.0000000000000000e+00" cType="1" res="-1.1388567509129643e-03" rms="3.5813778638839722e-01" purity="2.2944553196430206e-01" nType="-99"/>
          <Node pos="r" depth="2" NCoef="0" IVar="-1" Cut="0.0000000000000000e+00" cType="1" res="4.0908548980951309e-03" rms="3.2293364405632019e-01" purity="8.8049131631851196e-01" nType="-99"/>
        </Node>
        <Node pos="r" depth="1" NCoef="0" IVar="4" Cut="8.0841492187500000e+04" cType="1" res="8.0571204423904419e-01" rms="3.9565154910087585e-01" purity="8.0571198463439941e-01" nType="0">
          <Node pos="l" depth="2" NCoef="0" IVar="-1" Cut="0.0000000000000000e+00" cType="1" res="1.3785581104457378e-03" rms="4.1590443253517151e-01" purity="7.3686939477920532e-01" nType="-99"/>
          <Node pos="r" depth="2" NCoef="0" IVar="-1" Cut="0.0000000000000000e+00" cType="1" res="2.0463650580495596e-03" rms="2.9695382714271545e-01" purity="8.9933562278747559e-01" nType="-99"/>
        </Node>
      </Node>
    </BinaryTree>
    <BinaryTree type="DecisionTree" boostWeight="1.0000000000000000e+00" itree="347">
      <Node pos="s" depth="0" NCoef="0" IVar="3" Cut="8.9284734375000000e+04" cType="1" res="5.9104877710342407e-01" rms="4.9196848273277283e-01" purity="5.9147530794143677e-01" nType="0">
        <Node pos="l" depth="1" NCoef="0" IVar="4" Cut="5.3239878906250000e+04" cType="1" res="3.7866744399070740e-01" rms="4.8555129766464233e-01" purity="3.7914904952049255e-01" nType="0">
          <Node pos="l" depth="2" NCoef="0" IVar="-1" Cut="0.0000000000000000e+00" cType="1" res="-3.4251363831572235e-04" rms="3.4562253952026367e-01" purity="2.9480189085006714e-01" nType="-99"/>
          <Node pos="r" depth="2" NCoef="0" IVar="-1" Cut="0.0000000000000000e+00" cType="1" res="6.0034758644178510e-04" rms="3.6249843239784241e-01" purity="8.2514691352844238e-01" nType="-99"/>
        </Node>
        <Node pos="r" depth="1" NCoef="0" IVar="3" Cut="8.9622796875000000e+04" cType="1" res="6.8234252929687500e-01" rms="4.6575951576232910e-01" purity="6.8281102180480957e-01" nType="0">
          <Node pos="l" depth="2" NCoef="0" IVar="-1" Cut="0.0000000000000000e+00" cType="1" res="1.6775242329458706e-05" rms="2.6728838682174683e-01" purity="9.3802076578140259e-01" nType="-99"/>
          <Node pos="r" depth="2" NCoef="0" IVar="-1" Cut="0.0000000000000000e+00" cType="1" res="1.1937257113459054e-05" rms="4.5271888375282288e-01" purity="5.5266284942626953e-01" nType="-99"/>
        </Node>
      </Node>
    </BinaryTree>
    <BinaryTree type="DecisionTree" boostWeight="1.0000000000000000e+00" itree="348">
      <Node pos="s" depth="0" NCoef="0" IVar="3" Cut="8.9426296875000000e+04" cType="1" res="5.5838400125503540e-01" rms="4.9672487378120422e-01" purity="5.5858397483825684e-01" nType="0">
        <Node pos="l" depth="1" NCoef="0" IVar="3" Cut="8.8492710937500000e+04" cType="1" res="6.5789020061492920e-01" rms="4.7466507554054260e-01" purity="6.5812641382217407e-01" nType="0">
          <Node pos="l" depth="2" NCoef="0" IVar="-1" Cut="0.0000000000000000e+00" cType="1" res="7.3423265712335706e-04" rms="3.5527226328849792e-01" purity="3.8623365759849548e-01" nType="-99"/>
          <Node pos="r" depth="2" NCoef="0" IVar="-1" Cut="0.0000000000000000e+00" cType="1" res="1.8015776731772348e-05" rms="3.5048919916152954e-01" purity="8.7018352746963501e-01" nType="-99"/>
        </Node>
        <Node pos="r" depth="1" NCoef="0" IVar="4" Cut="4.9138789062500000e+04" cType="1" res="4.0226796269416809e-01" rms="4.9073266983032227e-01" purity="4.0278089046478271e-01" nType="0">
          <Node pos="l" depth="2" NCoef="0" IVar="-1" Cut="0.0000000000000000e+00" cType="1" res="6.4354346250183880e-05" rms="3.5678151249885559e-01" purity="3.0916422605514526e-01" nType="-99"/>
          <Node pos="r" depth="2" NCoef="0" IVar="-1" Cut="0.0000000000000000e+00" cType="1" res="1.6523844096809626e-03" rms="3.6634841561317444e-01" purity="8.1758123636245728e-01" nType="-99"/>
        </Node>
      </Node>
    </BinaryTree>
    <BinaryTree type="DecisionTree" boostWeight="1.0000000000000000e+00" itree="349">
      <Node pos="s" depth="0" NCoef="0" IVar="0" Cut="1.0000000000000000e+00" cType="1" res="2.5897195935249329e-01" rms="4.6497014164924622e-01" purity="5.7430952787399292e-01" nType="0">
        <Node pos="l" depth="1" NCoef="0" IVar="4" Cut="1.9447337890625000e+04" cType="1" res="5.6999611854553223e-01" rms="4.9507629871368408e-01" purity="5.6999617815017700e-01" nType="0">
          <Node pos="l" depth="2" NCoef="0" IVar="-1" Cut="0.0000000000000000e+00" cType="1" res="-7.9643260687589645e-04" rms="2.1611581742763519e-01" purity="4.9252256751060486e-02" nType="-99"/>
          <Node pos="r" depth="2" NCoef="0" IVar="-1" Cut="0.0000000000000000e+00" cType="1" res="1.3896116797695868e-05" rms="4.3943786621093750e-01" purity="7.7346807718276978e-01" nType="-99"/>
        </Node>
        <Node pos="r" depth="1" NCoef="0" IVar="5" Cut="4.6547440625000000e+05" cType="1" res="5.8166623115539551e-01" rms="4.9351954460144043e-01" purity="5.8189719915390015e-01" nType="0">
          <Node pos="l" depth="2" NCoef="0" IVar="-1" Cut="0.0000000000000000e+00" cType="1" res="6.3736108131706715e-04" rms="4.3002116680145264e-01" purity="4.6601420640945435e-01" nType="-99"/>
          <Node pos="r" depth="2" NCoef="0" IVar="-1" Cut="0.0000000000000000e+00" cType="1" res="3.2674667891114950e-03" rms="3.3323478698730469e-01" purity="8.4177207946777344e-01" nType="-99"/>
        </Node>
      </Node>
    </BinaryTree>
    <BinaryTree type="DecisionTree" boostWeight="1.0000000000000000e+00" itree="350">
      <Node pos="s" depth="0" NCoef="0" IVar="4" Cut="7.5250492187500000e+04" cType="1" res="3.7940225005149841e-01" rms="4.8523828387260437e-01" purity="3.7940222024917603e-01" nType="0">
        <Node pos="l" depth="1" NCoef="0" IVar="0" Cut="3.0000000000000000e+00" cType="1" res="5.4144212044775486e-03" rms="3.6446127295494080e-01" purity="3.3433756232261658e-01" nType="0">
          <Node pos="l" depth="2" NCoef="0" IVar="-1" Cut="0.0000000000000000e+00" cType="1" res="-5.3876015590503812e-04" rms="3.6787387728691101e-01" purity="2.6689147949218750e-01" nType="-99"/>
          <Node pos="r" depth="2" NCoef="0" IVar="-1" Cut="0.0000000000000000e+00" cType="1" res="4.3905866332352161e-03" rms="3.1010031700134277e-01" purity="8.9243096113204956e-01" nType="-99"/>
        </Node>
        <Node pos="r" depth="1" NCoef="0" IVar="-1" Cut="0.0000000000000000e+00" cType="1" res="1.6683961730450392e-03" rms="3.1112089753150940e-01" purity="8.8601690530776978e-01" nType="-99"/>
      </Node>
    </BinaryTree>
    <BinaryTree type="DecisionTree" boostWeight="1.0000000000000000e+00" itree="351">
      <Node pos="s" depth="0" NCoef="0" IVar="2" Cut="9.1846109375000000e+04" cType="1" res="5.3528195619583130e-01" rms="4.9886885285377502e-01" purity="5.3553467988967896e-01" nType="0">
        <Node pos="l" depth="1" NCoef="0" IVar="5" Cut="3.6105650000000000e+05" cType="1" res="3.8680878281593323e-01" rms="4.8724070191383362e-01" purity="3.8713487982749939e-01" nType="0">
          <Node pos="l" depth="2" NCoef="0" IVar="-1" Cut="0.0000000000000000e+00" cType="1" res="-7.8543071867898107e-04" rms="3.4790429472923279e-01" purity="2.3306122422218323e-01" nType="-99"/>
          <Node pos="r" depth="2" NCoef="0" IVar="-1" Cut="0.0000000000000000e+00" cType="1" res="1.0114435572177172e-03" rms="3.6168465018272400e-01" purity="7.7236026525497437e-01" nType="-99"/>
        </Node>
        <Node pos="r" depth="1" NCoef="0" IVar="2" Cut="9.2043570312500000e+04" cType="1" res="7.0432704687118530e-01" rms="4.5658877491950989e-01" purity="7.0471906661987305e-01" nType="0">
          <Node pos="l" depth="2" NCoef="0" IVar="-1" Cut="0.0000000000000000e+00" cType="1" res="1.6847552615217865e-05" rms="2.7509203553199768e-01" purity="9.3298852443695068e-01" nType="-99"/>
          <Node pos="r" depth="2" NCoef="0" IVar="-1" Cut="0.0000000000000000e+00" cType="1" res="7.1300991112366319e-04" rms="3.6645406484603882e-01" purity="3.9075097441673279e-01" nType="-99"/>
        </Node>
      </Node>
    </BinaryTree>
    <BinaryTree type="DecisionTree" boostWeight="1.0000000000000000e+00" itree="352">
      <Node pos="s" depth="0" NCoef="0" IVar="3" Cut="9.5951000000000000e+04" cType="1" res="5.3870075941085815e-01" rms="4.9849998950958252e-01" purity="5.3870081901550293e-01" nType="0">
        <Node pos="l" depth="1" NCoef="0" IVar="2" Cut="9.1865054687500000e+04" cType="1" res="4.6976813673973083e-01" rms="4.9908518791198730e-01" purity="4.6976813673973083e-01" nType="0">
          <Node pos="l" depth="2" NCoef="0" IVar="-1" Cut="0.0000000000000000e+00" cType="1" res="4.4946276466362178e-04" rms="3.5781073570251465e-01" purity="3.6689791083335876e-01" nType="-99"/>
          <Node pos="r" depth="2" NCoef="0" IVar="-1" Cut="0.0000000000000000e+00" cType="1" res="1.7494056010036729e-05" rms="4.7985878586769104e-01" purity="6.2191170454025269e-01" nType="-99"/>
        </Node>
        <Node pos="r" depth="1" NCoef="0" IVar="3" Cut="9.6732921875000000e+04" cType="1" res="7.6855480670928955e-01" rms="4.2266249656677246e-01" purity="7.6969236135482788e-01" nType="0">
          <Node pos="l" depth="2" NCoef="0" IVar="-1" Cut="0.0000000000000000e+00" cType="1" res="1.1195358638360631e-05" rms="2.9399153590202332e-01" purity="9.1674339771270752e-01" nType="-99"/>
          <Node pos="r" depth="2" NCoef="0" IVar="-1" Cut="0.0000000000000000e+00" cType="1" res="7.7136594336479902e-04" rms="3.8490140438079834e-01" purity="4.1994047164916992e-01" nType="-99"/>
        </Node>
      </Node>
    </BinaryTree>
    <BinaryTree type="DecisionTree" boostWeight="1.0000000000000000e+00" itree="353">
      <Node pos="s" depth="0" NCoef="0" IVar="1" Cut="2.8505650000000000e+05" cType="1" res="4.7334492206573486e-01" rms="4.9949511885643005e-01" purity="4.7355076670646667e-01" nType="0">
        <Node pos="l" depth="1" NCoef="0" IVar="4" Cut="6.2512332031250000e+04" cType="1" res="2.2152705490589142e-01" rms="4.4855806231498718e-01" purity="2.9683932662010193e-01" nType="0">
          <Node pos="l" depth="2" NCoef="0" IVar="-1" Cut="0.0000000000000000e+00" cType="1" res="-5.4959091357886791e-04" rms="3.4464257955551147e-01" purity="2.5350332260131836e-01" nType="-99"/>
          <Node pos="r" depth="2" NCoef="0" IVar="-1" Cut="0.0000000000000000e+00" cType="1" res="1.8935477128252387e-03" rms="3.8395455479621887e-01" purity="8.0913746356964111e-01" nType="-99"/>
        </Node>
        <Node pos="r" depth="1" NCoef="0" IVar="1" Cut="3.0094643750000000e+05" cType="1" res="6.7381536960601807e-01" rms="4.6908873319625854e-01" purity="6.7407143115997314e-01" nType="0">
          <Node pos="l" depth="2" NCoef="0" IVar="-1" Cut="0.0000000000000000e+00" cType="1" res="1.7277689039474353e-05" rms="3.7451845407485962e-01" purity="8.7462973594665527e-01" nType="-99"/>
          <Node pos="r" depth="2" NCoef="0" IVar="-1" Cut="0.0000000000000000e+00" cType="1" res="1.0440150508657098e-03" rms="3.7200653553009033e-01" purity="5.4381078481674194e-01" nType="-99"/>
        </Node>
      </Node>
    </BinaryTree>
    <BinaryTree type="DecisionTree" boostWeight="1.0000000000000000e+00" itree="354">
      <Node pos="s" depth="0" NCoef="0" IVar="5" Cut="1.7639929687500000e+05" cType="1" res="5.2967131137847900e-01" rms="4.9936228990554810e-01" purity="5.3011363744735718e-01" nType="0">
        <Node pos="l" depth="1" NCoef="0" IVar="2" Cut="8.9690085937500000e+04" cType="1" res="6.9613802433013916e-01" rms="4.5992377400398254e-01" purity="6.9613802433013916e-01" nType="0">
          <Node pos="l" depth="2" NCoef="0" IVar="-1" Cut="0.0000000000000000e+00" cType="1" res="1.3032669812673703e-05" rms="2.6947286725044250e-01" purity="8.9548975229263306e-01" nType="-99"/>
          <Node pos="r" depth="2" NCoef="0" IVar="-1" Cut="0.0000000000000000e+00" cType="1" res="-4.3099806644022465e-03" rms="2.5780305266380310e-01" purity="8.3621434867382050e-02" nType="-99"/>
        </Node>
        <Node pos="r" depth="1" NCoef="0" IVar="4" Cut="5.3544507812500000e+04" cType="1" res="4.4509276747703552e-01" rms="4.9734473228454590e-01" purity="4.4575977325439453e-01" nType="0">
          <Node pos="l" depth="2" NCoef="0" IVar="-1" Cut="0.0000000000000000e+00" cType="1" res="3.6175060085952282e-04" rms="3.7931716442108154e-01" purity="3.5555782914161682e-01" nType="-99"/>
          <Node pos="r" depth="2" NCoef="0" IVar="-1" Cut="0.0000000000000000e+00" cType="1" res="9.8161888308823109e-04" rms="3.4728032350540161e-01" purity="8.4463185071945190e-01" nType="-99"/>
        </Node>
      </Node>
    </BinaryTree>
    <BinaryTree type="DecisionTree" boostWeight="1.0000000000000000e+00" itree="355">
      <Node pos="s" depth="0" NCoef="0" IVar="1" Cut="2.0309048437500000e+05" cType="1" res="5.0160497426986694e-01" rms="5.0011730194091797e-01" purity="5.0172483921051025e-01" nType="0">
        <Node pos="l" depth="1" NCoef="0" IVar="2" Cut="8.9633867187500000e+04" cType="1" res="6.2329679727554321e-01" rms="5.0325769186019897e-01" purity="6.7322242259979248e-01" nType="0">
          <Node pos="l" depth="2" NCoef="0" IVar="-1" Cut="0.0000000000000000e+00" cType="1" res="1.8911436200141907e-05" rms="3.0683943629264832e-01" purity="8.8227933645248413e-01" nType="-99"/>
          <Node pos="r" depth="2" NCoef="0" IVar="-1" Cut="0.0000000000000000e+00" cType="1" res="1.4947980525903404e-04" rms="3.4134778380393982e-01" purity="2.3797886073589325e-01" nType="-99"/>
        </Node>
        <Node pos="r" depth="1" NCoef="0" IVar="4" Cut="7.8768671875000000e+04" cType="1" res="4.2180857062339783e-01" rms="4.9402600526809692e-01" purity="4.2198416590690613e-01" nType="0">
          <Node pos="l" depth="2" NCoef="0" IVar="-1" Cut="0.0000000000000000e+00" cType="1" res="5.5588426766917109e-04" rms="3.7476870417594910e-01" purity="3.7121421098709106e-01" nType="-99"/>
          <Node pos="r" depth="2" NCoef="0" IVar="-1" Cut="0.0000000000000000e+00" cType="1" res="1.5379341784864664e-03" rms="2.8488749265670776e-01" purity="9.0954828262329102e-01" nType="-99"/>
        </Node>
      </Node>
    </BinaryTree>
    <BinaryTree type="DecisionTree" boostWeight="1.0000000000000000e+00" itree="356">
      <Node pos="s" depth="0" NCoef="0" IVar="3" Cut="9.5950492187500000e+04" cType="1" res="4.8102852702140808e-01" rms="4.9990606307983398e-01" purity="4.8136061429977417e-01" nType="0">
        <Node pos="l" depth="1" NCoef="0" IVar="4" Cut="7.0948406250000000e+04" cType="1" res="3.7582316994667053e-01" rms="4.8463994264602661e-01" purity="3.7611892819404602e-01" nType="0">
          <Node pos="l" depth="2" NCoef="0" IVar="-1" Cut="0.0000000000000000e+00" cType="1" res="-1.3557191414292902e-04" rms="3.5779467225074768e-01" purity="3.2490566372871399e-01" nType="-99"/>
          <Node pos="r" depth="2" NCoef="0" IVar="-1" Cut="0.0000000000000000e+00" cType="1" res="1.6795177944004536e-03" rms="3.1821331381797791e-01" purity="8.8185566663742065e-01" nType="-99"/>
        </Node>
        <Node pos="r" depth="1" NCoef="0" IVar="2" Cut="8.9290359375000000e+04" cType="1" res="7.7235192060470581e-01" rms="4.1953307390213013e-01" purity="7.7278465032577515e-01" nType="0">
          <Node pos="l" depth="2" NCoef="0" IVar="-1" Cut="0.0000000000000000e+00" cType="1" res="1.1507245289976709e-05" rms="3.0192801356315613e-01" purity="9.1163748502731323e-01" nType="-99"/>
          <Node pos="r" depth="2" NCoef="0" IVar="-1" Cut="0.0000000000000000e+00" cType="1" res="7.0111296372488141e-04" rms="3.8689303398132324e-01" purity="4.1132494807243347e-01" nType="-99"/>
        </Node>
      </Node>
    </BinaryTree>
    <BinaryTree type="DecisionTree" boostWeight="1.0000000000000000e+00" itree="357">
      <Node pos="s" depth="0" NCoef="0" IVar="3" Cut="9.5950343750000000e+04" cType="1" res="inf" rms="0.0000000000000000e+00" purity="4.8716145753860474e-01" nType="0">
        <Node pos="l" depth="1" NCoef="0" IVar="0" Cut="3.0000000000000000e+00" cType="1" res="1.8445866182446480e-02" rms="3.5802775621414185e-01" purity="3.8664379715919495e-01" nType="0">
          <Node pos="l" depth="2" NCoef="0" IVar="-1" Cut="0.0000000000000000e+00" cType="1" res="-1.0793388355523348e-05" rms="3.6412143707275391e-01" purity="3.0656090378761292e-01" nType="-99"/>
          <Node pos="r" depth="2" NCoef="0" IVar="-1" Cut="0.0000000000000000e+00" cType="1" res="6.4811168704181910e-04" rms="2.8666204214096069e-01" purity="9.1026556491851807e-01" nType="-99"/>
        </Node>
        <Node pos="r" depth="1" NCoef="0" IVar="2" Cut="8.9314257812500000e+04" cType="1" res="7.7346462011337280e-01" rms="4.1858941316604614e-01" purity="7.7346462011337280e-01" nType="0">
          <Node pos="l" depth="2" NCoef="0" IVar="-1" Cut="0.0000000000000000e+00" cType="1" res="1.1355775313859340e-05" rms="2.9545959830284119e-01" purity="9.1314476728439331e-01" nType="-99"/>
          <Node pos="r" depth="2" NCoef="0" IVar="-1" Cut="0.0000000000000000e+00" cType="1" res="1.0088979033753276e-03" rms="3.7879726290702820e-01" purity="4.2617455124855042e-01" nType="-99"/>
        </Node>
      </Node>
    </BinaryTree>
    <BinaryTree type="DecisionTree" boostWeight="1.0000000000000000e+00" itree="358">
      <Node pos="s" depth="0" NCoef="0" IVar="0" Cut="2.0000000000000000e+00" cType="1" res="2.1744748577475548e-02" rms="3.6120638251304626e-01" purity="3.9073619246482849e-01" nType="0">
        <Node pos="l" depth="1" NCoef="0" IVar="4" Cut="6.1107031250000000e+04" cType="1" res="2.2744801640510559e-01" rms="4.1918423771858215e-01" purity="2.2744800150394440e-01" nType="0">
          <Node pos="l" depth="2" NCoef="0" IVar="-1" Cut="0.0000000000000000e+00" cType="1" res="-9.4395730411633849e-04" rms="3.5129648447036743e-01" purity="1.7913307249546051e-01" nType="-99"/>
          <Node pos="r" depth="2" NCoef="0" IVar="-1" Cut="0.0000000000000000e+00" cType="1" res="1.3359291478991508e-03" rms="4.0457946062088013e-01" purity="7.8470671176910400e-01" nType="-99"/>
        </Node>
        <Node pos="r" depth="1" NCoef="0" IVar="4" Cut="2.3817392578125000e+04" cType="1" res="8.3758461475372314e-01" rms="3.6922144889831543e-01" purity="8.3825939893722534e-01" nType="0">
          <Node pos="l" depth="2" NCoef="0" IVar="-1" Cut="0.0000000000000000e+00" cType="1" res="7.8064610715955496e-04" rms="3.9998653531074524e-01" purity="7.8389424085617065e-01" nType="-99"/>
          <Node pos="r" depth="2" NCoef="0" IVar="-1" Cut="0.0000000000000000e+00" cType="1" res="1.1990320635959506e-03" rms="3.3324652910232544e-01" purity="8.6504757404327393e-01" nType="-99"/>
        </Node>
      </Node>
    </BinaryTree>
    <BinaryTree type="DecisionTree" boostWeight="1.0000000000000000e+00" itree="359">
      <Node pos="s" depth="0" NCoef="0" IVar="1" Cut="1.9126706250000000e+05" cType="1" res="5.5150622129440308e-01" rms="4.9734002351760864e-01" purity="5.5150622129440308e-01" nType="0">
        <Node pos="l" depth="1" NCoef="0" IVar="3" Cut="8.8281265625000000e+04" cType="1" res="1.6719453036785126e-02" rms="1.7409808933734894e-01" purity="8.2013458013534546e-01" nType="0">
          <Node pos="l" depth="2" NCoef="0" IVar="-1" Cut="0.0000000000000000e+00" cType="1" res="-9.9982717074453831e-04" rms="3.2242685556411743e-01" purity="2.0426961779594421e-01" nType="-99"/>
          <Node pos="r" depth="2" NCoef="0" IVar="-1" Cut="0.0000000000000000e+00" cType="1" res="1.8922521121567115e-05" rms="2.6744258403778076e-01" purity="9.1249257326126099e-01" nType="-99"/>
        </Node>
        <Node pos="r" depth="1" NCoef="0" IVar="2" Cut="9.1882625000000000e+04" cType="1" res="4.8084270954132080e-01" rms="4.9963286519050598e-01" purity="4.8084273934364319e-01" nType="0">
          <Node pos="l" depth="2" NCoef="0" IVar="-1" Cut="0.0000000000000000e+00" cType="1" res="7.7420624438673258e-04" rms="3.6294344067573547e-01" purity="3.9677685499191284e-01" nType="-99"/>
          <Node pos="r" depth="2" NCoef="0" IVar="-1" Cut="0.0000000000000000e+00" cType="1" res="1.7124752048403025e-05" rms="4.8597487807273865e-01" purity="6.1040955781936646e-01" nType="-99"/>
        </Node>
      </Node>
    </BinaryTree>
    <BinaryTree type="DecisionTree" boostWeight="1.0000000000000000e+00" itree="360">
      <Node pos="s" depth="0" NCoef="0" IVar="3" Cut="8.9426773437500000e+04" cType="1" res="5.2238762378692627e-01" rms="4.9949854612350464e-01" purity="5.2238762378692627e-01" nType="0">
        <Node pos="l" depth="1" NCoef="0" IVar="3" Cut="8.8493195312500000e+04" cType="1" res="6.1580604314804077e-01" rms="4.8640412092208862e-01" purity="6.1580604314804077e-01" nType="0">
          <Node pos="l" depth="2" NCoef="0" IVar="-1" Cut="0.0000000000000000e+00" cType="1" res="4.2377240606583655e-04" rms="3.5618928074836731e-01" purity="3.9427891373634338e-01" nType="-99"/>
          <Node pos="r" depth="2" NCoef="0" IVar="-1" Cut="0.0000000000000000e+00" cType="1" res="1.7946515072253533e-05" rms="3.8876974582672119e-01" purity="8.3560806512832642e-01" nType="-99"/>
        </Node>
        <Node pos="r" depth="1" NCoef="0" IVar="4" Cut="6.1035363281250000e+04" cType="1" res="3.9045882225036621e-01" rms="4.8810300230979919e-01" purity="3.9070263504981995e-01" nType="0">
          <Node pos="l" depth="2" NCoef="0" IVar="-1" Cut="0.0000000000000000e+00" cType="1" res="1.0860262409551069e-04" rms="3.6927229166030884e-01" purity="3.2439714670181274e-01" nType="-99"/>
          <Node pos="r" depth="2" NCoef="0" IVar="-1" Cut="0.0000000000000000e+00" cType="1" res="1.3107681879773736e-03" rms="3.5035157203674316e-01" purity="8.4810113906860352e-01" nType="-99"/>
        </Node>
      </Node>
    </BinaryTree>
    <BinaryTree type="DecisionTree" boostWeight="1.0000000000000000e+00" itree="361">
      <Node pos="s" depth="0" NCoef="0" IVar="4" Cut="3.9859898437500000e+04" cType="1" res="3.8572609424591064e-01" rms="4.8712712526321411e-01" purity="3.8627812266349792e-01" nType="0">
        <Node pos="l" depth="1" NCoef="0" IVar="0" Cut="3.0000000000000000e+00" cType="1" res="-7.8143449500203133e-03" rms="3.4587156772613525e-01" purity="2.7037122845649719e-01" nType="0">
          <Node pos="l" depth="2" NCoef="0" IVar="-1" Cut="0.0000000000000000e+00" cType="1" res="-1.4465529238805175e-03" rms="3.4584599733352661e-01" purity="2.1065042912960052e-01" nType="-99"/>
          <Node pos="r" depth="2" NCoef="0" IVar="-1" Cut="0.0000000000000000e+00" cType="1" res="3.5874480381608009e-03" rms="3.2526606321334839e-01" purity="8.8057845830917358e-01" nType="-99"/>
        </Node>
        <Node pos="r" depth="1" NCoef="0" IVar="4" Cut="7.7134640625000000e+04" cType="1" res="7.3304772377014160e-01" rms="4.4350236654281616e-01" purity="7.3427385091781616e-01" nType="0">
          <Node pos="l" depth="2" NCoef="0" IVar="-1" Cut="0.0000000000000000e+00" cType="1" res="6.1623688088729978e-04" rms="4.3172115087509155e-01" purity="6.6133624315261841e-01" nType="-99"/>
          <Node pos="r" depth="2" NCoef="0" IVar="-1" Cut="0.0000000000000000e+00" cType="1" res="1.8817473901435733e-03" rms="3.0291041731834412e-01" purity="8.9440095424652100e-01" nType="-99"/>
        </Node>
      </Node>
    </BinaryTree>
    <BinaryTree type="DecisionTree" boostWeight="1.0000000000000000e+00" itree="362">
      <Node pos="s" depth="0" NCoef="0" IVar="3" Cut="8.9426835937500000e+04" cType="1" res="5.1428604125976562e-01" rms="4.9979585409164429e-01" purity="5.1428604125976562e-01" nType="0">
        <Node pos="l" depth="1" NCoef="0" IVar="3" Cut="8.8493390625000000e+04" cType="1" res="6.0622394084930420e-01" rms="4.8858621716499329e-01" purity="6.0622394084930420e-01" nType="0">
          <Node pos="l" depth="2" NCoef="0" IVar="-1" Cut="0.0000000000000000e+00" cType="1" res="6.5058068139478564e-04" rms="3.5824859142303467e-01" purity="3.8335764408111572e-01" nType="-99"/>
          <Node pos="r" depth="2" NCoef="0" IVar="-1" Cut="0.0000000000000000e+00" cType="1" res="1.7708087398204952e-05" rms="3.9418816566467285e-01" purity="8.2796102762222290e-01" nType="-99"/>
        </Node>
        <Node pos="r" depth="1" NCoef="0" IVar="4" Cut="6.1039832031250000e+04" cType="1" res="3.8473093509674072e-01" rms="4.8667508363723755e-01" purity="3.8516727089881897e-01" nType="0">
          <Node pos="l" depth="2" NCoef="0" IVar="-1" Cut="0.0000000000000000e+00" cType="1" res="-3.2086003920994699e-04" rms="3.6038142442703247e-01" purity="3.1735411286354065e-01" nType="-99"/>
          <Node pos="r" depth="2" NCoef="0" IVar="-1" Cut="0.0000000000000000e+00" cType="1" res="1.3452920829877257e-03" rms="3.4074127674102783e-01" purity="8.5704374313354492e-01" nType="-99"/>
        </Node>
      </Node>
    </BinaryTree>
    <BinaryTree type="DecisionTree" boostWeight="1.0000000000000000e+00" itree="363">
      <Node pos="s" depth="0" NCoef="0" IVar="3" Cut="9.5950765625000000e+04" cType="1" res="4.8780378699302673e-01" rms="4.9985122680664062e-01" purity="4.8780381679534912e-01" nType="0">
        <Node pos="l" depth="1" NCoef="0" IVar="4" Cut="3.6808890625000000e+04" cType="1" res="3.8704538345336914e-01" rms="4.8707416653633118e-01" purity="3.8704541325569153e-01" nType="0">
          <Node pos="l" depth="2" NCoef="0" IVar="-1" Cut="0.0000000000000000e+00" cType="1" res="-9.1990514192730188e-04" rms="3.2878968119621277e-01" purity="2.6228219270706177e-01" nType="-99"/>
          <Node pos="r" depth="2" NCoef="0" IVar="-1" Cut="0.0000000000000000e+00" cType="1" res="1.5833225334063172e-03" rms="4.0222832560539246e-01" purity="7.1065664291381836e-01" nType="-99"/>
        </Node>
        <Node pos="r" depth="1" NCoef="0" IVar="2" Cut="8.9295234375000000e+04" cType="1" res="7.7003657817840576e-01" rms="4.2080903053283691e-01" purity="7.7028638124465942e-01" nType="0">
          <Node pos="l" depth="2" NCoef="0" IVar="-1" Cut="0.0000000000000000e+00" cType="1" res="1.1364656529622152e-05" rms="3.0032029747962952e-01" purity="9.1037899255752563e-01" nType="-99"/>
          <Node pos="r" depth="2" NCoef="0" IVar="-1" Cut="0.0000000000000000e+00" cType="1" res="4.3059105519205332e-04" rms="3.6552578210830688e-01" purity="4.2051452398300171e-01" nType="-99"/>
        </Node>
      </Node>
    </BinaryTree>
    <BinaryTree type="DecisionTree" boostWeight="1.0000000000000000e+00" itree="364">
      <Node pos="s" depth="0" NCoef="0" IVar="1" Cut="2.0203215625000000e+05" cType="1" res="5.6566929817199707e-01" rms="4.9577534198760986e-01" purity="5.6584882736206055e-01" nType="0">
        <Node pos="l" depth="1" NCoef="0" IVar="2" Cut="8.9600773437500000e+04" cType="1" res="4.2812660336494446e-01" rms="5.0414121150970459e-01" purity="7.8515094518661499e-01" nType="0">
          <Node pos="l" depth="2" NCoef="0" IVar="-1" Cut="0.0000000000000000e+00" cType="1" res="1.4429103430302348e-05" rms="2.3469449579715729e-01" purity="9.3627345561981201e-01" nType="-99"/>
          <Node pos="r" depth="2" NCoef="0" IVar="-1" Cut="0.0000000000000000e+00" cType="1" res="4.8913319915300235e-05" rms="3.3253839612007141e-01" purity="2.3275579512119293e-01" nType="-99"/>
        </Node>
        <Node pos="r" depth="1" NCoef="0" IVar="4" Cut="6.9479867187500000e+04" cType="1" res="4.1802546381950378e-01" rms="4.9341353774070740e-01" purity="4.1832581162452698e-01" nType="0">
          <Node pos="l" depth="2" NCoef="0" IVar="-1" Cut="0.0000000000000000e+00" cType="1" res="4.8180486191995442e-04" rms="3.7798807024955750e-01" purity="3.5620614886283875e-01" nType="-99"/>
          <Node pos="r" depth="2" NCoef="0" IVar="-1" Cut="0.0000000000000000e+00" cType="1" res="1.6595891211181879e-03" rms="3.0131030082702637e-01" purity="8.9737308025360107e-01" nType="-99"/>
        </Node>
      </Node>
    </BinaryTree>
    <BinaryTree type="DecisionTree" boostWeight="1.0000000000000000e+00" itree="365">
      <Node pos="s" depth="0" NCoef="0" IVar="1" Cut="1.8991192187500000e+05" cType="1" res="4.4329547882080078e-01" rms="4.9677419662475586e-01" purity="4.4329547882080078e-01" nType="0">
        <Node pos="l" depth="1" NCoef="0" IVar="-1" Cut="0.0000000000000000e+00" cType="1" res="1.8935059415525757e-05" rms="4.1448289155960083e-01" purity="7.3317199945449829e-01" nType="-99"/>
        <Node pos="r" depth="1" NCoef="0" IVar="4" Cut="5.5063757812500000e+04" cType="1" res="3.9187926054000854e-01" rms="4.8816993832588196e-01" purity="3.9187923073768616e-01" nType="0">
          <Node pos="l" depth="2" NCoef="0" IVar="-1" Cut="0.0000000000000000e+00" cType="1" res="-9.1909227194264531e-05" rms="3.6424362659454346e-01" purity="3.1081348657608032e-01" nType="-99"/>
          <Node pos="r" depth="2" NCoef="0" IVar="-1" Cut="0.0000000000000000e+00" cType="1" res="1.5195262385532260e-03" rms="3.5152643918991089e-01" purity="8.3982306718826294e-01" nType="-99"/>
        </Node>
      </Node>
    </BinaryTree>
    <BinaryTree type="DecisionTree" boostWeight="1.0000000000000000e+00" itree="366">
      <Node pos="s" depth="0" NCoef="0" IVar="1" Cut="2.0237307812500000e+05" cType="1" res="4.5220124721527100e-01" rms="4.9792188405990601e-01" purity="4.5241215825080872e-01" nType="0">
        <Node pos="l" depth="1" NCoef="0" IVar="2" Cut="8.9658648437500000e+04" cType="1" res="4.7183600068092346e-01" rms="5.2868664264678955e-01" purity="5.5434423685073853e-01" nType="0">
          <Node pos="l" depth="2" NCoef="0" IVar="-1" Cut="0.0000000000000000e+00" cType="1" res="1.9450753825367428e-05" rms="3.8454562425613403e-01" purity="7.9820215702056885e-01" nType="-99"/>
          <Node pos="r" depth="2" NCoef="0" IVar="-1" Cut="0.0000000000000000e+00" cType="1" res="4.9615773605182767e-04" rms="3.4366083145141602e-01" purity="2.4209164083003998e-01" nType="-99"/>
        </Node>
        <Node pos="r" depth="1" NCoef="0" IVar="4" Cut="5.3210050781250000e+04" cType="1" res="4.1885331273078918e-01" rms="4.9365472793579102e-01" purity="4.1913306713104248e-01" nType="0">
          <Node pos="l" depth="2" NCoef="0" IVar="-1" Cut="0.0000000000000000e+00" cType="1" res="1.0269956874253694e-05" rms="3.6346304416656494e-01" purity="3.2657900452613831e-01" nType="-99"/>
          <Node pos="r" depth="2" NCoef="0" IVar="-1" Cut="0.0000000000000000e+00" cType="1" res="8.6773734074085951e-04" rms="3.4942704439163208e-01" purity="8.4278434514999390e-01" nType="-99"/>
        </Node>
      </Node>
    </BinaryTree>
    <BinaryTree type="DecisionTree" boostWeight="1.0000000000000000e+00" itree="367">
      <Node pos="s" depth="0" NCoef="0" IVar="2" Cut="8.9597617187500000e+04" cType="1" res="0.0000000000000000e+00" rms="0.0000000000000000e+00" purity="5.2810233831405640e-01" nType="0">
        <Node pos="l" depth="1" NCoef="0" IVar="2" Cut="8.9250632812500000e+04" cType="1" res="7.5510627031326294e-01" rms="4.3002417683601379e-01" purity="7.5513875484466553e-01" nType="0">
          <Node pos="l" depth="2" NCoef="0" IVar="-1" Cut="0.0000000000000000e+00" cType="1" res="3.2098052906803787e-04" rms="3.5921677947044373e-01" purity="3.7434005737304688e-01" nType="-99"/>
          <Node pos="r" depth="2" NCoef="0" IVar="-1" Cut="0.0000000000000000e+00" cType="1" res="1.3325263353181072e-05" rms="2.7542915940284729e-01" purity="9.2393726110458374e-01" nType="-99"/>
        </Node>
        <Node pos="r" depth="1" NCoef="0" IVar="4" Cut="4.1706113281250000e+04" cType="1" res="4.1968667970653748e+34" rms="0.0000000000000000e+00" purity="3.8979205489158630e-01" nType="0">
          <Node pos="l" depth="2" NCoef="0" IVar="-1" Cut="0.0000000000000000e+00" cType="1" res="-4.2879555257968605e-04" rms="3.4689638018608093e-01" purity="2.8016537427902222e-01" nType="-99"/>
          <Node pos="r" depth="2" NCoef="0" IVar="-1" Cut="0.0000000000000000e+00" cType="1" res="8.6297391681000590e-04" rms="3.9663457870483398e-01" purity="7.5039398670196533e-01" nType="-99"/>
        </Node>
      </Node>
    </BinaryTree>
    <BinaryTree type="DecisionTree" boostWeight="1.0000000000000000e+00" itree="368">
      <Node pos="s" depth="0" NCoef="0" IVar="2" Cut="9.1767757812500000e+04" cType="1" res="4.6550938487052917e-01" rms="4.9897286295890808e-01" purity="4.6585413813591003e-01" nType="0">
        <Node pos="l" depth="1" NCoef="0" IVar="0" Cut="1.0000000000000000e+00" cType="1" res="8.0795949324965477e-03" rms="3.5683923959732056e-01" purity="3.7216535210609436e-01" nType="0">
          <Node pos="l" depth="2" NCoef="0" IVar="-1" Cut="0.0000000000000000e+00" cType="1" res="-3.6963298916816711e-03" rms="2.8156971931457520e-01" purity="1.2648797035217285e-01" nType="-99"/>
          <Node pos="r" depth="2" NCoef="0" IVar="-1" Cut="0.0000000000000000e+00" cType="1" res="1.4175869291648269e-03" rms="4.0575298666954041e-01" purity="5.8351010084152222e-01" nType="-99"/>
        </Node>
        <Node pos="r" depth="1" NCoef="0" IVar="2" Cut="9.1960882812500000e+04" cType="1" res="5.9463036060333252e-01" rms="4.9121698737144470e-01" purity="5.9531098604202271e-01" nType="0">
          <Node pos="l" depth="2" NCoef="0" IVar="-1" Cut="0.0000000000000000e+00" cType="1" res="1.6935022358666174e-05" rms="3.6038070917129517e-01" purity="8.7418353557586670e-01" nType="-99"/>
          <Node pos="r" depth="2" NCoef="0" IVar="-1" Cut="0.0000000000000000e+00" cType="1" res="7.6744100078940392e-04" rms="3.6875018477439880e-01" purity="4.0023070573806763e-01" nType="-99"/>
        </Node>
      </Node>
    </BinaryTree>
    <BinaryTree type="DecisionTree" boostWeight="1.0000000000000000e+00" itree="369">
      <Node pos="s" depth="0" NCoef="0" IVar="5" Cut="1.6704321875000000e+05" cType="1" res="5.4076135158538818e-01" rms="4.9833574891090393e-01" purity="5.4076135158538818e-01" nType="0">
        <Node pos="l" depth="1" NCoef="0" IVar="3" Cut="8.9850476562500000e+04" cType="1" res="6.9955778121948242e-01" rms="4.5845031738281250e-01" purity="6.9955778121948242e-01" nType="0">
          <Node pos="l" depth="2" NCoef="0" IVar="-1" Cut="0.0000000000000000e+00" cType="1" res="-1.2121029198169708e-02" rms="2.2281602025032043e-01" purity="5.3715240210294724e-02" nType="-99"/>
          <Node pos="r" depth="2" NCoef="0" IVar="-1" Cut="0.0000000000000000e+00" cType="1" res="1.1275924407527782e-05" rms="3.0902743339538574e-01" purity="8.5443967580795288e-01" nType="-99"/>
        </Node>
        <Node pos="r" depth="1" NCoef="0" IVar="2" Cut="9.1879203125000000e+04" cType="1" res="4.9961325526237488e-01" rms="4.9999985098838806e-01" purity="4.9961325526237488e-01" nType="0">
          <Node pos="l" depth="2" NCoef="0" IVar="-1" Cut="0.0000000000000000e+00" cType="1" res="5.6712614605203271e-04" rms="3.7066736817359924e-01" purity="4.1576817631721497e-01" nType="-99"/>
          <Node pos="r" depth="2" NCoef="0" IVar="-1" Cut="0.0000000000000000e+00" cType="1" res="1.7211659724125639e-05" rms="4.8510256409645081e-01" purity="6.2584424018859863e-01" nType="-99"/>
        </Node>
      </Node>
    </BinaryTree>
    <BinaryTree type="DecisionTree" boostWeight="1.0000000000000000e+00" itree="370">
      <Node pos="s" depth="0" NCoef="0" IVar="3" Cut="8.9426523437500000e+04" cType="1" res="1.3908768925918764e+32" rms="0.0000000000000000e+00" purity="5.1620489358901978e-01" nType="0">
        <Node pos="l" depth="1" NCoef="0" IVar="3" Cut="8.8492953125000000e+04" cType="1" res="6.0679185390472412e-01" rms="4.8846238851547241e-01" purity="6.0679185390472412e-01" nType="0">
          <Node pos="l" depth="2" NCoef="0" IVar="-1" Cut="0.0000000000000000e+00" cType="1" res="6.0840102378278971e-04" rms="3.5345903038978577e-01" purity="3.8914549350738525e-01" nType="-99"/>
          <Node pos="r" depth="2" NCoef="0" IVar="-1" Cut="0.0000000000000000e+00" cType="1" res="1.7773551007849164e-05" rms="3.9607745409011841e-01" purity="8.2753384113311768e-01" nType="-99"/>
        </Node>
        <Node pos="r" depth="1" NCoef="0" IVar="4" Cut="6.6919265625000000e+04" cType="1" res="3.8543960452079773e-01" rms="4.8735955357551575e-01" purity="3.8623237609863281e-01" nType="0">
          <Node pos="l" depth="2" NCoef="0" IVar="-1" Cut="0.0000000000000000e+00" cType="1" res="2.1123957412783056e-04" rms="3.6874017119407654e-01" purity="3.3091005682945251e-01" nType="-99"/>
          <Node pos="r" depth="2" NCoef="0" IVar="-1" Cut="0.0000000000000000e+00" cType="1" res="1.8557076109573245e-03" rms="3.2589143514633179e-01" purity="8.7180376052856445e-01" nType="-99"/>
        </Node>
      </Node>
    </BinaryTree>
    <BinaryTree type="DecisionTree" boostWeight="1.0000000000000000e+00" itree="371">
      <Node pos="s" depth="0" NCoef="0" IVar="4" Cut="7.3392015625000000e+04" cType="1" res="3.8055452704429626e-01" rms="4.8579564690589905e-01" purity="3.8100340962409973e-01" nType="0">
        <Node pos="l" depth="1" NCoef="0" IVar="0" Cut="2.0000000000000000e+00" cType="1" res="-8.2482067227829248e-05" rms="3.6176037788391113e-01" purity="3.3071318268775940e-01" nType="0">
          <Node pos="l" depth="2" NCoef="0" IVar="-1" Cut="0.0000000000000000e+00" cType="1" res="-1.5804637223482132e-03" rms="3.5071235895156860e-01" purity="1.8242369592189789e-01" nType="-99"/>
          <Node pos="r" depth="2" NCoef="0" IVar="-1" Cut="0.0000000000000000e+00" cType="1" res="2.2788264323025942e-03" rms="3.8630393147468567e-01" purity="8.0892980098724365e-01" nType="-99"/>
        </Node>
        <Node pos="r" depth="1" NCoef="0" IVar="-1" Cut="0.0000000000000000e+00" cType="1" res="1.6039735637605190e-03" rms="3.0679368972778320e-01" purity="8.9074105024337769e-01" nType="-99"/>
      </Node>
    </BinaryTree>
    <BinaryTree type="DecisionTree" boostWeight="1.0000000000000000e+00" itree="372">
      <Node pos="s" depth="0" NCoef="0" IVar="3" Cut="9.5949718750000000e+04" cType="1" res="4.7992664575576782e-01" rms="4.9966266751289368e-01" purity="4.8008072376251221e-01" nType="0">
        <Node pos="l" depth="1" NCoef="0" IVar="4" Cut="7.7975500000000000e+04" cType="1" res="3.7962877750396729e-01" rms="4.8529452085494995e-01" purity="3.7974777817726135e-01" nType="0">
          <Node pos="l" depth="2" NCoef="0" IVar="-1" Cut="0.0000000000000000e+00" cType="1" res="4.4055184116587043e-04" rms="3.6723393201828003e-01" purity="3.4140196442604065e-01" nType="-99"/>
          <Node pos="r" depth="2" NCoef="0" IVar="-1" Cut="0.0000000000000000e+00" cType="1" res="2.0753631833940744e-03" rms="2.9837524890899658e-01" purity="8.9912116527557373e-01" nType="-99"/>
        </Node>
        <Node pos="r" depth="1" NCoef="0" IVar="3" Cut="9.6731250000000000e+04" cType="1" res="7.6875972747802734e-01" rms="4.2162567377090454e-01" purity="7.6901471614837646e-01" nType="0">
          <Node pos="l" depth="2" NCoef="0" IVar="-1" Cut="0.0000000000000000e+00" cType="1" res="1.1318060387566220e-05" rms="2.9343983530998230e-01" purity="9.1376912593841553e-01" nType="-99"/>
          <Node pos="r" depth="2" NCoef="0" IVar="-1" Cut="0.0000000000000000e+00" cType="1" res="5.3286849288269877e-04" rms="3.6526218056678772e-01" purity="4.1916599869728088e-01" nType="-99"/>
        </Node>
      </Node>
    </BinaryTree>
    <BinaryTree type="DecisionTree" boostWeight="1.0000000000000000e+00" itree="373">
      <Node pos="s" depth="0" NCoef="0" IVar="5" Cut="1.6601217187500000e+05" cType="1" res="5.4286640882492065e-01" rms="4.9837812781333923e-01" purity="5.4316186904907227e-01" nType="0">
        <Node pos="l" depth="1" NCoef="0" IVar="5" Cut="1.5709076562500000e+05" cType="1" res="7.0035248994827271e-01" rms="4.5810356736183167e-01" purity="7.0035254955291748e-01" nType="0">
          <Node pos="l" depth="2" NCoef="0" IVar="-1" Cut="0.0000000000000000e+00" cType="1" res="-1.0594377294182777e-02" rms="2.2221828997135162e-01" purity="4.7030359506607056e-02" nType="-99"/>
          <Node pos="r" depth="2" NCoef="0" IVar="-1" Cut="0.0000000000000000e+00" cType="1" res="1.1302712664473802e-05" rms="3.1125891208648682e-01" purity="8.5162544250488281e-01" nType="-99"/>
        </Node>
        <Node pos="r" depth="1" NCoef="0" IVar="2" Cut="9.1857468750000000e+04" cType="1" res="5.0232249498367310e-01" rms="5.0026899576187134e-01" purity="5.0269401073455811e-01" nType="0">
          <Node pos="l" depth="2" NCoef="0" IVar="-1" Cut="0.0000000000000000e+00" cType="1" res="6.3326460076496005e-04" rms="3.6483815312385559e-01" purity="4.1074126958847046e-01" nType="-99"/>
          <Node pos="r" depth="2" NCoef="0" IVar="-1" Cut="0.0000000000000000e+00" cType="1" res="1.7730124454828911e-05" rms="4.7978860139846802e-01" purity="6.3581746816635132e-01" nType="-99"/>
        </Node>
      </Node>
    </BinaryTree>
    <BinaryTree type="DecisionTree" boostWeight="1.0000000000000000e+00" itree="374">
      <Node pos="s" depth="0" NCoef="0" IVar="5" Cut="1.5917245312500000e+05" cType="1" res="4.8698782920837402e-01" rms="4.9983066320419312e-01" purity="4.8698782920837402e-01" nType="0">
        <Node pos="l" depth="1" NCoef="0" IVar="-1" Cut="0.0000000000000000e+00" cType="1" res="1.1075272595917340e-05" rms="3.6262145638465881e-01" purity="7.7864217758178711e-01" nType="-99"/>
        <Node pos="r" depth="1" NCoef="0" IVar="0" Cut="3.0000000000000000e+00" cType="1" res="2.4052994325757027e-02" rms="3.6405470967292786e-01" purity="4.1099515557289124e-01" nType="0">
          <Node pos="l" depth="2" NCoef="0" IVar="-1" Cut="0.0000000000000000e+00" cType="1" res="2.3300820612348616e-04" rms="3.7200525403022766e-01" purity="3.2898494601249695e-01" nType="-99"/>
          <Node pos="r" depth="2" NCoef="0" IVar="-1" Cut="0.0000000000000000e+00" cType="1" res="1.1122865835204720e-03" rms="2.8709459304809570e-01" purity="9.0981930494308472e-01" nType="-99"/>
        </Node>
      </Node>
    </BinaryTree>
    <BinaryTree type="DecisionTree" boostWeight="1.0000000000000000e+00" itree="375">
      <Node pos="s" depth="0" NCoef="0" IVar="2" Cut="8.9668210937500000e+04" cType="1" res="5.9496629238128662e-01" rms="4.9089857935905457e-01" purity="5.9496629238128662e-01" nType="0">
        <Node pos="l" depth="1" NCoef="0" IVar="5" Cut="1.7932395312500000e+05" cType="1" res="8.2609379291534424e-01" rms="3.7902882695198059e-01" purity="8.2609373331069946e-01" nType="0">
          <Node pos="l" depth="2" NCoef="0" IVar="-1" Cut="0.0000000000000000e+00" cType="1" res="1.5317717043217272e-05" rms="2.1933801472187042e-01" purity="9.3463414907455444e-01" nType="-99"/>
          <Node pos="r" depth="2" NCoef="0" IVar="-1" Cut="0.0000000000000000e+00" cType="1" res="1.0803837794810534e-03" rms="3.8463330268859863e-01" purity="4.6263435482978821e-01" nType="-99"/>
        </Node>
        <Node pos="r" depth="1" NCoef="0" IVar="4" Cut="4.4300812500000000e+04" cType="1" res="3.7920865416526794e-01" rms="4.8537123203277588e-01" purity="3.7987801432609558e-01" nType="0">
          <Node pos="l" depth="2" NCoef="0" IVar="-1" Cut="0.0000000000000000e+00" cType="1" res="-1.0181985562667251e-03" rms="3.4628233313560486e-01" purity="2.7522200345993042e-01" nType="-99"/>
          <Node pos="r" depth="2" NCoef="0" IVar="-1" Cut="0.0000000000000000e+00" cType="1" res="1.6134369652718306e-03" rms="3.8470038771629333e-01" purity="7.7035057544708252e-01" nType="-99"/>
        </Node>
      </Node>
    </BinaryTree>
    <BinaryTree type="DecisionTree" boostWeight="1.0000000000000000e+00" itree="376">
      <Node pos="s" depth="0" NCoef="0" IVar="3" Cut="9.5950890625000000e+04" cType="1" res="4.8600459098815918e-01" rms="4.9980407953262329e-01" purity="4.8600462079048157e-01" nType="0">
        <Node pos="l" depth="1" NCoef="0" IVar="5" Cut="4.7389837500000000e+05" cType="1" res="3.8367515802383423e-01" rms="4.8628029227256775e-01" purity="3.8367515802383423e-01" nType="0">
          <Node pos="l" depth="2" NCoef="0" IVar="-1" Cut="0.0000000000000000e+00" cType="1" res="-1.1687591177178547e-04" rms="3.5788229107856750e-01" purity="2.9263672232627869e-01" nType="-99"/>
          <Node pos="r" depth="2" NCoef="0" IVar="-1" Cut="0.0000000000000000e+00" cType="1" res="3.0394236091524363e-03" rms="3.3670461177825928e-01" purity="8.2358843088150024e-01" nType="-99"/>
        </Node>
        <Node pos="r" depth="1" NCoef="0" IVar="2" Cut="8.9367234375000000e+04" cType="1" res="7.7362799644470215e-01" rms="4.1907921433448792e-01" purity="7.7412772178649902e-01" nType="0">
          <Node pos="l" depth="2" NCoef="0" IVar="-1" Cut="0.0000000000000000e+00" cType="1" res="1.1415707376727369e-05" rms="2.9968810081481934e-01" purity="9.0670287609100342e-01" nType="-99"/>
          <Node pos="r" depth="2" NCoef="0" IVar="-1" Cut="0.0000000000000000e+00" cType="1" res="8.8788644643500447e-04" rms="3.7122175097465515e-01" purity="4.5253923535346985e-01" nType="-99"/>
        </Node>
      </Node>
    </BinaryTree>
    <BinaryTree type="DecisionTree" boostWeight="1.0000000000000000e+00" itree="377">
      <Node pos="s" depth="0" NCoef="0" IVar="0" Cut="1.0000000000000000e+00" cType="1" res="3.8339826464653015e-01" rms="4.6268963813781738e-01" purity="6.8010282516479492e-01" nType="0">
        <Node pos="l" depth="1" NCoef="0" IVar="4" Cut="1.9436861328125000e+04" cType="1" res="7.1451348066329956e-01" rms="4.5164582133293152e-01" purity="7.1451348066329956e-01" nType="0">
          <Node pos="l" depth="2" NCoef="0" IVar="-1" Cut="0.0000000000000000e+00" cType="1" res="-6.7649679258465767e-03" rms="1.8698877096176147e-01" purity="3.5918314009904861e-02" nType="-99"/>
          <Node pos="r" depth="2" NCoef="0" IVar="-1" Cut="0.0000000000000000e+00" cType="1" res="1.4280818504630588e-05" rms="3.6091336607933044e-01" purity="8.6851698160171509e-01" nType="-99"/>
        </Node>
        <Node pos="r" depth="1" NCoef="0" IVar="0" Cut="3.0000000000000000e+00" cType="1" res="5.5980034172534943e-02" rms="4.0518614649772644e-01" purity="5.9207725524902344e-01" nType="0">
          <Node pos="l" depth="2" NCoef="0" IVar="-1" Cut="0.0000000000000000e+00" cType="1" res="9.5038453582674265e-04" rms="4.3262079358100891e-01" purity="4.9277633428573608e-01" nType="-99"/>
          <Node pos="r" depth="2" NCoef="0" IVar="-1" Cut="0.0000000000000000e+00" cType="1" res="1.1071083135902882e-03" rms="2.8947120904922485e-01" purity="9.0723329782485962e-01" nType="-99"/>
        </Node>
      </Node>
    </BinaryTree>
    <BinaryTree type="DecisionTree" boostWeight="1.0000000000000000e+00" itree="378">
      <Node pos="s" depth="0" NCoef="0" IVar="2" Cut="8.9600773437500000e+04" cType="1" res="5.8771967887878418e-01" rms="4.9249327182769775e-01" purity="5.8796399831771851e-01" nType="0">
        <Node pos="l" depth="1" NCoef="0" IVar="2" Cut="8.9247859375000000e+04" cType="1" res="8.2007986307144165e-01" rms="3.8418182730674744e-01" purity="8.2012671232223511e-01" nType="0">
          <Node pos="l" depth="2" NCoef="0" IVar="-1" Cut="0.0000000000000000e+00" cType="1" res="3.8974228664301336e-04" rms="3.6616566777229309e-01" purity="3.6998623609542847e-01" nType="-99"/>
          <Node pos="r" depth="2" NCoef="0" IVar="-1" Cut="0.0000000000000000e+00" cType="1" res="1.2510618034866638e-05" rms="2.2351679205894470e-01" purity="9.5318150520324707e-01" nType="-99"/>
        </Node>
        <Node pos="r" depth="1" NCoef="0" IVar="4" Cut="7.4108828125000000e+04" cType="1" res="3.8991039991378784e-01" rms="4.8815363645553589e-01" purity="3.9050021767616272e-01" nType="0">
          <Node pos="l" depth="2" NCoef="0" IVar="-1" Cut="0.0000000000000000e+00" cType="1" res="2.4316171766258776e-04" rms="3.6354348063468933e-01" purity="3.4038615226745605e-01" nType="-99"/>
          <Node pos="r" depth="2" NCoef="0" IVar="-1" Cut="0.0000000000000000e+00" cType="1" res="1.6336755361407995e-03" rms="3.0119031667709351e-01" purity="8.9596223831176758e-01" nType="-99"/>
        </Node>
      </Node>
    </BinaryTree>
    <BinaryTree type="DecisionTree" boostWeight="1.0000000000000000e+00" itree="379">
      <Node pos="s" depth="0" NCoef="0" IVar="2" Cut="8.9597617187500000e+04" cType="1" res="4.5620793104171753e-01" rms="4.9829211831092834e-01" purity="4.5651337504386902e-01" nType="0">
        <Node pos="l" depth="1" NCoef="0" IVar="2" Cut="8.9308554687500000e+04" cType="1" res="6.2127012014389038e-01" rms="4.8537024855613708e-01" purity="6.2156087160110474e-01" nType="0">
          <Node pos="l" depth="2" NCoef="0" IVar="-1" Cut="0.0000000000000000e+00" cType="1" res="1.2499850708991289e-03" rms="3.7013915181159973e-01" purity="4.2636469006538391e-01" nType="-99"/>
          <Node pos="r" depth="2" NCoef="0" IVar="-1" Cut="0.0000000000000000e+00" cType="1" res="1.9508688637870364e-05" rms="3.6927571892738342e-01" purity="8.4708994626998901e-01" nType="-99"/>
        </Node>
        <Node pos="r" depth="1" NCoef="0" IVar="5" Cut="3.6661531250000000e+05" cType="1" res="3.8986921310424805e-01" rms="4.8803392052650452e-01" purity="3.9048644900321960e-01" nType="0">
          <Node pos="l" depth="2" NCoef="0" IVar="-1" Cut="0.0000000000000000e+00" cType="1" res="-6.2464468646794558e-04" rms="3.5054978728294373e-01" purity="2.3866780102252960e-01" nType="-99"/>
          <Node pos="r" depth="2" NCoef="0" IVar="-1" Cut="0.0000000000000000e+00" cType="1" res="1.8768290756270289e-03" rms="3.6138463020324707e-01" purity="7.6982545852661133e-01" nType="-99"/>
        </Node>
      </Node>
    </BinaryTree>
    <BinaryTree type="DecisionTree" boostWeight="1.0000000000000000e+00" itree="380">
      <Node pos="s" depth="0" NCoef="0" IVar="0" Cut="1.0000000000000000e+00" cType="1" res="3.2975897192955017e-01" rms="4.7553357481956482e-01" purity="6.3132596015930176e-01" nType="0">
        <Node pos="l" depth="1" NCoef="0" IVar="4" Cut="1.9616960937500000e+04" cType="1" res="6.5233427286148071e-01" rms="4.7622922062873840e-01" purity="6.5233427286148071e-01" nType="0">
          <Node pos="l" depth="2" NCoef="0" IVar="-1" Cut="0.0000000000000000e+00" cType="1" res="-5.0558906514197588e-04" rms="2.1513208746910095e-01" purity="4.8941738903522491e-02" nType="-99"/>
          <Node pos="r" depth="2" NCoef="0" IVar="-1" Cut="0.0000000000000000e+00" cType="1" res="1.4697516235173680e-05" rms="4.0623956918716431e-01" purity="8.3013188838958740e-01" nType="-99"/>
        </Node>
        <Node pos="r" depth="1" NCoef="0" IVar="0" Cut="3.0000000000000000e+00" cType="1" res="4.6245303004980087e-02" rms="3.9903455972671509e-01" purity="5.8689796924591064e-01" nType="0">
          <Node pos="l" depth="2" NCoef="0" IVar="-1" Cut="0.0000000000000000e+00" cType="1" res="5.7165074395015836e-04" rms="4.2376646399497986e-01" purity="4.8678913712501526e-01" nType="-99"/>
          <Node pos="r" depth="2" NCoef="0" IVar="-1" Cut="0.0000000000000000e+00" cType="1" res="1.1103019351139665e-03" rms="2.9244071245193481e-01" purity="9.0521341562271118e-01" nType="-99"/>
        </Node>
      </Node>
    </BinaryTree>
    <BinaryTree type="DecisionTree" boostWeight="1.0000000000000000e+00" itree="381">
      <Node pos="s" depth="0" NCoef="0" IVar="2" Cut="9.1753601562500000e+04" cType="1" res="4.7390225529670715e-01" rms="4.9949547648429871e-01" purity="4.7414577007293701e-01" nType="0">
        <Node pos="l" depth="1" NCoef="0" IVar="4" Cut="5.3242925781250000e+04" cType="1" res="3.8945707678794861e-01" rms="4.8772326111793518e-01" purity="3.8966429233551025e-01" nType="0">
          <Node pos="l" depth="2" NCoef="0" IVar="-1" Cut="0.0000000000000000e+00" cType="1" res="6.7685097747016698e-05" rms="3.5737320780754089e-01" purity="3.0097001791000366e-01" nType="-99"/>
          <Node pos="r" depth="2" NCoef="0" IVar="-1" Cut="0.0000000000000000e+00" cType="1" res="4.7289225040003657e-04" rms="3.5801160335540771e-01" purity="8.2971739768981934e-01" nType="-99"/>
        </Node>
        <Node pos="r" depth="1" NCoef="0" IVar="2" Cut="9.1953015625000000e+04" cType="1" res="5.9411633014678955e-01" rms="4.9120792746543884e-01" purity="5.9441155195236206e-01" nType="0">
          <Node pos="l" depth="2" NCoef="0" IVar="-1" Cut="0.0000000000000000e+00" cType="1" res="1.7014575860230252e-05" rms="3.6962103843688965e-01" purity="8.6429017782211304e-01" nType="-99"/>
          <Node pos="r" depth="2" NCoef="0" IVar="-1" Cut="0.0000000000000000e+00" cType="1" res="9.9836243316531181e-04" rms="3.7100178003311157e-01" purity="3.9537209272384644e-01" nType="-99"/>
        </Node>
      </Node>
    </BinaryTree>
    <BinaryTree type="DecisionTree" boostWeight="1.0000000000000000e+00" itree="382">
      <Node pos="s" depth="0" NCoef="0" IVar="3" Cut="8.9426296875000000e+04" cType="1" res="5.1734375953674316e-01" rms="4.9974277615547180e-01" purity="5.1738744974136353e-01" nType="0">
        <Node pos="l" depth="1" NCoef="0" IVar="3" Cut="8.8492601562500000e+04" cType="1" res="6.1312907934188843e-01" rms="4.8724433779716492e-01" purity="6.1340922117233276e-01" nType="0">
          <Node pos="l" depth="2" NCoef="0" IVar="-1" Cut="0.0000000000000000e+00" cType="1" res="2.2059099865145981e-04" rms="3.5063627362251282e-01" purity="3.9432638883590698e-01" nType="-99"/>
          <Node pos="r" depth="2" NCoef="0" IVar="-1" Cut="0.0000000000000000e+00" cType="1" res="1.7884161934489384e-05" rms="3.8923048973083496e-01" purity="8.3837366104125977e-01" nType="-99"/>
        </Node>
        <Node pos="r" depth="1" NCoef="0" IVar="4" Cut="6.4861710937500000e+04" cType="1" res="3.8333365321159363e-01" rms="4.8619848489761353e-01" purity="3.8333368301391602e-01" nType="0">
          <Node pos="l" depth="2" NCoef="0" IVar="-1" Cut="0.0000000000000000e+00" cType="1" res="-2.5780059513635933e-04" rms="3.6641803383827209e-01" purity="3.2007163763046265e-01" nType="-99"/>
          <Node pos="r" depth="2" NCoef="0" IVar="-1" Cut="0.0000000000000000e+00" cType="1" res="1.3377486029639840e-03" rms="3.2561784982681274e-01" purity="8.7298941612243652e-01" nType="-99"/>
        </Node>
      </Node>
    </BinaryTree>
    <BinaryTree type="DecisionTree" boostWeight="1.0000000000000000e+00" itree="383">
      <Node pos="s" depth="0" NCoef="0" IVar="1" Cut="1.9996939062500000e+05" cType="1" res="4.9797624349594116e-01" rms="5.0033205747604370e-01" purity="4.9843767285346985e-01" nType="0">
        <Node pos="l" depth="1" NCoef="0" IVar="2" Cut="8.9715734375000000e+04" cType="1" res="6.5334933996200562e-01" rms="4.9341192841529846e-01" purity="7.1066147089004517e-01" nType="0">
          <Node pos="l" depth="2" NCoef="0" IVar="-1" Cut="0.0000000000000000e+00" cType="1" res="1.9158176655764692e-05" rms="2.9304128885269165e-01" purity="8.9614838361740112e-01" nType="-99"/>
          <Node pos="r" depth="2" NCoef="0" IVar="-1" Cut="0.0000000000000000e+00" cType="1" res="6.1123614432290196e-04" rms="3.5261476039886475e-01" purity="2.5061899423599243e-01" nType="-99"/>
        </Node>
        <Node pos="r" depth="1" NCoef="0" IVar="4" Cut="6.5053777343750000e+04" cType="1" res="4.0816608071327209e-01" rms="4.9198046326637268e-01" purity="4.0882235765457153e-01" nType="0">
          <Node pos="l" depth="2" NCoef="0" IVar="-1" Cut="0.0000000000000000e+00" cType="1" res="-2.2305979655357078e-05" rms="3.6476358771324158e-01" purity="3.4420451521873474e-01" nType="-99"/>
          <Node pos="r" depth="2" NCoef="0" IVar="-1" Cut="0.0000000000000000e+00" cType="1" res="1.5748877776786685e-03" rms="3.1685745716094971e-01" purity="8.8066184520721436e-01" nType="-99"/>
        </Node>
      </Node>
    </BinaryTree>
    <BinaryTree type="DecisionTree" boostWeight="1.0000000000000000e+00" itree="384">
      <Node pos="s" depth="0" NCoef="0" IVar="4" Cut="3.9859898437500000e+04" cType="1" res="3.9489570260047913e-01" rms="4.8900768160820007e-01" purity="3.9524635672569275e-01" nType="0">
        <Node pos="l" depth="1" NCoef="0" IVar="0" Cut="3.0000000000000000e+00" cType="1" res="-3.4519764594733715e-03" rms="3.4867689013481140e-01" purity="2.7533182501792908e-01" nType="0">
          <Node pos="l" depth="2" NCoef="0" IVar="-1" Cut="0.0000000000000000e+00" cType="1" res="-1.0298982961103320e-03" rms="3.4977272152900696e-01" purity="2.1711811423301697e-01" nType="-99"/>
          <Node pos="r" depth="2" NCoef="0" IVar="-1" Cut="0.0000000000000000e+00" cType="1" res="4.1122133843600750e-03" rms="3.1814476847648621e-01" purity="8.8593500852584839e-01" nType="-99"/>
        </Node>
        <Node pos="r" depth="1" NCoef="0" IVar="5" Cut="2.2574804687500000e+05" cType="1" res="7.4154061079025269e-01" rms="4.3919205665588379e-01" purity="7.4317419528961182e-01" nType="0">
          <Node pos="l" depth="2" NCoef="0" IVar="-1" Cut="0.0000000000000000e+00" cType="1" res="3.7806015461683273e-04" rms="4.8046496510505676e-01" purity="4.7594118118286133e-01" nType="-99"/>
          <Node pos="r" depth="2" NCoef="0" IVar="-1" Cut="0.0000000000000000e+00" cType="1" res="7.3737394995987415e-04" rms="3.7148389220237732e-01" purity="8.0968046188354492e-01" nType="-99"/>
        </Node>
      </Node>
    </BinaryTree>
    <BinaryTree type="DecisionTree" boostWeight="1.0000000000000000e+00" itree="385">
      <Node pos="s" depth="0" NCoef="0" IVar="0" Cut="1.0000000000000000e+00" cType="1" res="3.9787432551383972e-01" rms="4.5891138911247253e-01" purity="6.9255322217941284e-01" nType="0">
        <Node pos="l" depth="1" NCoef="0" IVar="4" Cut="1.9616960937500000e+04" cType="1" res="7.2940492630004883e-01" rms="4.4426724314689636e-01" purity="7.2940492630004883e-01" nType="0">
          <Node pos="l" depth="2" NCoef="0" IVar="-1" Cut="0.0000000000000000e+00" cType="1" res="-8.7227961048483849e-03" rms="1.8101960420608521e-01" purity="3.3581644296646118e-02" nType="-99"/>
          <Node pos="r" depth="2" NCoef="0" IVar="-1" Cut="0.0000000000000000e+00" cType="1" res="1.3228009265731089e-05" rms="3.4871497750282288e-01" purity="8.7751561403274536e-01" nType="-99"/>
        </Node>
        <Node pos="r" depth="1" NCoef="0" IVar="5" Cut="5.4721300000000000e+05" cType="1" res="5.9521955251693726e-01" rms="4.9084952473640442e-01" purity="5.9521955251693726e-01" nType="0">
          <Node pos="l" depth="2" NCoef="0" IVar="-1" Cut="0.0000000000000000e+00" cType="1" res="9.3751150416210294e-04" rms="4.2353904247283936e-01" purity="5.0838321447372437e-01" nType="-99"/>
          <Node pos="r" depth="2" NCoef="0" IVar="-1" Cut="0.0000000000000000e+00" cType="1" res="2.8311337810009718e-03" rms="3.0700632929801941e-01" purity="8.7683749198913574e-01" nType="-99"/>
        </Node>
      </Node>
    </BinaryTree>
    <BinaryTree type="DecisionTree" boostWeight="1.0000000000000000e+00" itree="386">
      <Node pos="s" depth="0" NCoef="0" IVar="3" Cut="9.5950953125000000e+04" cType="1" res="4.8262354731559753e-01" rms="4.9986165761947632e-01" purity="4.8294076323509216e-01" nType="0">
        <Node pos="l" depth="1" NCoef="0" IVar="5" Cut="2.1455217187500000e+05" cType="1" res="3.7631922960281372e-01" rms="4.8471421003341675e-01" purity="3.7690690159797668e-01" nType="0">
          <Node pos="l" depth="2" NCoef="0" IVar="-1" Cut="0.0000000000000000e+00" cType="1" res="-5.1141520962119102e-03" rms="2.6253458857536316e-01" purity="9.3628980219364166e-02" nType="-99"/>
          <Node pos="r" depth="2" NCoef="0" IVar="-1" Cut="0.0000000000000000e+00" cType="1" res="1.3200546381995082e-03" rms="3.9938935637474060e-01" purity="5.4001516103744507e-01" nType="-99"/>
        </Node>
        <Node pos="r" depth="1" NCoef="0" IVar="3" Cut="9.6732968750000000e+04" cType="1" res="7.7540308237075806e-01" rms="4.1731661558151245e-01" purity="7.7564948797225952e-01" nType="0">
          <Node pos="l" depth="2" NCoef="0" IVar="-1" Cut="0.0000000000000000e+00" cType="1" res="1.1320209523546509e-05" rms="2.9250961542129517e-01" purity="9.1786253452301025e-01" nType="-99"/>
          <Node pos="r" depth="2" NCoef="0" IVar="-1" Cut="0.0000000000000000e+00" cType="1" res="1.2424408923834562e-03" rms="3.8409596681594849e-01" purity="4.6651941537857056e-01" nType="-99"/>
        </Node>
      </Node>
    </BinaryTree>
    <BinaryTree type="DecisionTree" boostWeight="1.0000000000000000e+00" itree="387">
      <Node pos="s" depth="0" NCoef="0" IVar="2" Cut="9.1774695312500000e+04" cType="1" res="4.6861118078231812e-01" rms="4.9911567568778992e-01" purity="4.6896305680274963e-01" nType="0">
        <Node pos="l" depth="1" NCoef="0" IVar="0" Cut="2.0000000000000000e+00" cType="1" res="1.1961345560848713e-02" rms="3.5866838693618774e-01" purity="3.7692412734031677e-01" nType="0">
          <Node pos="l" depth="2" NCoef="0" IVar="-1" Cut="0.0000000000000000e+00" cType="1" res="-8.5423135897144675e-04" rms="3.5366719961166382e-01" purity="2.1267247200012207e-01" nType="-99"/>
          <Node pos="r" depth="2" NCoef="0" IVar="-1" Cut="0.0000000000000000e+00" cType="1" res="8.9831731747835875e-04" rms="3.6163559556007385e-01" purity="8.3483183383941650e-01" nType="-99"/>
        </Node>
        <Node pos="r" depth="1" NCoef="0" IVar="2" Cut="9.1973671875000000e+04" cType="1" res="5.9832555055618286e-01" rms="4.9023675918579102e-01" purity="5.9876507520675659e-01" nType="0">
          <Node pos="l" depth="2" NCoef="0" IVar="-1" Cut="0.0000000000000000e+00" cType="1" res="1.6899328329600394e-05" rms="3.6098837852478027e-01" purity="8.7344264984130859e-01" nType="-99"/>
          <Node pos="r" depth="2" NCoef="0" IVar="-1" Cut="0.0000000000000000e+00" cType="1" res="8.1583467544987798e-04" rms="3.6691635847091675e-01" purity="4.0179470181465149e-01" nType="-99"/>
        </Node>
      </Node>
    </BinaryTree>
    <BinaryTree type="DecisionTree" boostWeight="1.0000000000000000e+00" itree="388">
      <Node pos="s" depth="0" NCoef="0" IVar="2" Cut="9.1862039062500000e+04" cType="1" res="4.7446060180664062e-01" rms="4.9934729933738708e-01" purity="4.7446060180664062e-01" nType="0">
        <Node pos="l" depth="1" NCoef="0" IVar="0" Cut="1.0000000000000000e+00" cType="1" res="1.5806246548891068e-02" rms="3.5354858636856079e-01" purity="3.9283534884452820e-01" nType="0">
          <Node pos="l" depth="2" NCoef="0" IVar="-1" Cut="0.0000000000000000e+00" cType="1" res="-3.1091636046767235e-03" rms="2.7961951494216919e-01" purity="1.2921309471130371e-01" nType="-99"/>
          <Node pos="r" depth="2" NCoef="0" IVar="-1" Cut="0.0000000000000000e+00" cType="1" res="9.1627263464033604e-04" rms="3.9833813905715942e-01" purity="6.0849797725677490e-01" nType="-99"/>
        </Node>
        <Node pos="r" depth="1" NCoef="0" IVar="2" Cut="9.2052406250000000e+04" cType="1" res="6.0193467140197754e-01" rms="4.8949906229972839e-01" purity="6.0193467140197754e-01" nType="0">
          <Node pos="l" depth="2" NCoef="0" IVar="-1" Cut="0.0000000000000000e+00" cType="1" res="1.6953299564193003e-05" rms="3.5273614525794983e-01" purity="8.7947529554367065e-01" nType="-99"/>
          <Node pos="r" depth="2" NCoef="0" IVar="-1" Cut="0.0000000000000000e+00" cType="1" res="6.1582372291013598e-04" rms="3.6151829361915588e-01" purity="3.9237779378890991e-01" nType="-99"/>
        </Node>
      </Node>
    </BinaryTree>
    <BinaryTree type="DecisionTree" boostWeight="1.0000000000000000e+00" itree="389">
      <Node pos="s" depth="0" NCoef="0" IVar="4" Cut="7.3362320312500000e+04" cType="1" res="inf" rms="0.0000000000000000e+00" purity="3.8595724105834961e-01" nType="0">
        <Node pos="l" depth="1" NCoef="0" IVar="0" Cut="3.0000000000000000e+00" cType="1" res="4.9998611211776733e-03" rms="3.6491739749908447e-01" purity="3.3737060427665710e-01" nType="0">
          <Node pos="l" depth="2" NCoef="0" IVar="-1" Cut="0.0000000000000000e+00" cType="1" res="-4.5822755782864988e-04" rms="3.6924529075622559e-01" purity="2.6768520474433899e-01" nType="-99"/>
          <Node pos="r" depth="2" NCoef="0" IVar="-1" Cut="0.0000000000000000e+00" cType="1" res="3.5505043342709541e-03" rms="3.0800652503967285e-01" purity="8.9334207773208618e-01" nType="-99"/>
        </Node>
        <Node pos="r" depth="1" NCoef="0" IVar="-1" Cut="0.0000000000000000e+00" cType="1" res="1.6417148290202022e-03" rms="3.0827286839485168e-01" purity="8.9077186584472656e-01" nType="-99"/>
      </Node>
    </BinaryTree>
    <BinaryTree type="DecisionTree" boostWeight="1.0000000000000000e+00" itree="390">
      <Node pos="s" depth="0" NCoef="0" IVar="4" Cut="7.4146132812500000e+04" cType="1" res="0.0000000000000000e+00" rms="0.0000000000000000e+00" purity="3.8598224520683289e-01" nType="0">
        <Node pos="l" depth="1" NCoef="0" IVar="0" Cut="3.0000000000000000e+00" cType="1" res="4.1633285582065582e-03" rms="3.6330559849739075e-01" purity="3.3687457442283630e-01" nType="0">
          <Node pos="l" depth="2" NCoef="0" IVar="-1" Cut="0.0000000000000000e+00" cType="1" res="-4.9658888019621372e-04" rms="3.6662247776985168e-01" purity="2.6661965250968933e-01" nType="-99"/>
          <Node pos="r" depth="2" NCoef="0" IVar="-1" Cut="0.0000000000000000e+00" cType="1" res="8.2880601985380054e-04" rms="3.1707146763801575e-01" purity="8.8738852739334106e-01" nType="-99"/>
        </Node>
        <Node pos="r" depth="1" NCoef="0" IVar="-1" Cut="0.0000000000000000e+00" cType="1" res="1.5755842905491590e-03" rms="3.0700248479843140e-01" purity="8.9244091510772705e-01" nType="-99"/>
      </Node>
    </BinaryTree>
    <BinaryTree type="DecisionTree" boostWeight="1.0000000000000000e+00" itree="391">
      <Node pos="s" depth="0" NCoef="0" IVar="4" Cut="8.2776101562500000e+04" cType="1" res="3.8157668709754944e-01" rms="4.8590907454490662e-01" purity="3.8170838356018066e-01" nType="0">
        <Node pos="l" depth="1" NCoef="0" IVar="0" Cut="3.0000000000000000e+00" cType="1" res="2.5643126573413610e-03" rms="3.6268532276153564e-01" purity="3.4160378575325012e-01" nType="0">
          <Node pos="l" depth="2" NCoef="0" IVar="-1" Cut="0.0000000000000000e+00" cType="1" res="-6.1678240308538079e-04" rms="3.6686420440673828e-01" purity="2.6884511113166809e-01" nType="-99"/>
          <Node pos="r" depth="2" NCoef="0" IVar="-1" Cut="0.0000000000000000e+00" cType="1" res="3.8344336207956076e-03" rms="3.0805212259292603e-01" purity="8.9302223920822144e-01" nType="-99"/>
        </Node>
        <Node pos="r" depth="1" NCoef="0" IVar="-1" Cut="0.0000000000000000e+00" cType="1" res="1.8609996186569333e-03" rms="2.7630051970481873e-01" purity="9.1619700193405151e-01" nType="-99"/>
      </Node>
    </BinaryTree>
    <BinaryTree type="DecisionTree" boostWeight="1.0000000000000000e+00" itree="392">
      <Node pos="s" depth="0" NCoef="0" IVar="5" Cut="1.6215667187500000e+05" cType="1" res="5.4435724020004272e-01" rms="4.9802854657173157e-01" purity="5.4435724020004272e-01" nType="0">
        <Node pos="l" depth="1" NCoef="0" IVar="-1" Cut="0.0000000000000000e+00" cType="1" res="1.1154092135257088e-05" rms="3.7715682387351990e-01" purity="7.4728864431381226e-01" nType="-99"/>
        <Node pos="r" depth="1" NCoef="0" IVar="2" Cut="9.1774695312500000e+04" cType="1" res="4.9650427699089050e-01" rms="4.9998778104782104e-01" purity="4.9650427699089050e-01" nType="0">
          <Node pos="l" depth="2" NCoef="0" IVar="-1" Cut="0.0000000000000000e+00" cType="1" res="7.0796423824504018e-04" rms="3.6776697635650635e-01" purity="4.0898182988166809e-01" nType="-99"/>
          <Node pos="r" depth="2" NCoef="0" IVar="-1" Cut="0.0000000000000000e+00" cType="1" res="1.7922648112289608e-05" rms="4.8596566915512085e-01" purity="6.1945229768753052e-01" nType="-99"/>
        </Node>
      </Node>
    </BinaryTree>
    <BinaryTree type="DecisionTree" boostWeight="1.0000000000000000e+00" itree="393">
      <Node pos="s" depth="0" NCoef="0" IVar="2" Cut="8.9636281250000000e+04" cType="1" res="5.8509576320648193e-01" rms="4.9270549416542053e-01" purity="5.8509576320648193e-01" nType="0">
        <Node pos="l" depth="1" NCoef="0" IVar="2" Cut="8.9237632812500000e+04" cType="1" res="8.1756645441055298e-01" rms="3.8620141148567200e-01" purity="8.1756645441055298e-01" nType="0">
          <Node pos="l" depth="2" NCoef="0" IVar="-1" Cut="0.0000000000000000e+00" cType="1" res="7.4426032369956374e-04" rms="3.6681857705116272e-01" purity="3.8732621073722839e-01" nType="-99"/>
          <Node pos="r" depth="2" NCoef="0" IVar="-1" Cut="0.0000000000000000e+00" cType="1" res="1.2639118722290732e-05" rms="2.3791454732418060e-01" purity="9.4354844093322754e-01" nType="-99"/>
        </Node>
        <Node pos="r" depth="1" NCoef="0" IVar="4" Cut="6.9479867187500000e+04" cType="1" res="3.8586154580116272e-01" rms="4.8696678876876831e-01" purity="3.8615560531616211e-01" nType="0">
          <Node pos="l" depth="2" NCoef="0" IVar="-1" Cut="0.0000000000000000e+00" cType="1" res="-2.7663603759719990e-05" rms="3.5763987898826599e-01" purity="3.3488765358924866e-01" nType="-99"/>
          <Node pos="r" depth="2" NCoef="0" IVar="-1" Cut="0.0000000000000000e+00" cType="1" res="1.7128230538219213e-03" rms="3.1700915098190308e-01" purity="8.8219243288040161e-01" nType="-99"/>
        </Node>
      </Node>
    </BinaryTree>
    <BinaryTree type="DecisionTree" boostWeight="1.0000000000000000e+00" itree="394">
      <Node pos="s" depth="0" NCoef="0" IVar="3" Cut="8.9426570312500000e+04" cType="1" res="5.5580782890319824e-01" rms="4.9712592363357544e-01" purity="5.5620682239532471e-01" nType="0">
        <Node pos="l" depth="1" NCoef="0" IVar="3" Cut="8.8493015625000000e+04" cType="1" res="6.6214704513549805e-01" rms="4.7318083047866821e-01" purity="6.6258198022842407e-01" nType="0">
          <Node pos="l" depth="2" NCoef="0" IVar="-1" Cut="0.0000000000000000e+00" cType="1" res="4.2634113924577832e-04" rms="3.5800570249557495e-01" purity="3.9964172244071960e-01" nType="-99"/>
          <Node pos="r" depth="2" NCoef="0" IVar="-1" Cut="0.0000000000000000e+00" cType="1" res="1.8433505829307251e-05" rms="3.5186311602592468e-01" purity="8.6952853202819824e-01" nType="-99"/>
        </Node>
        <Node pos="r" depth="1" NCoef="0" IVar="4" Cut="5.4809121093750000e+04" cType="1" res="3.8355055451393127e-01" rms="4.8660087585449219e-01" purity="3.8389143347740173e-01" nType="0">
          <Node pos="l" depth="2" NCoef="0" IVar="-1" Cut="0.0000000000000000e+00" cType="1" res="-1.8059991998597980e-04" rms="3.6306539177894592e-01" purity="3.0077868700027466e-01" nType="-99"/>
          <Node pos="r" depth="2" NCoef="0" IVar="-1" Cut="0.0000000000000000e+00" cType="1" res="1.4545510057359934e-03" rms="3.5348570346832275e-01" purity="8.3825159072875977e-01" nType="-99"/>
        </Node>
      </Node>
    </BinaryTree>
    <BinaryTree type="DecisionTree" boostWeight="1.0000000000000000e+00" itree="395">
      <Node pos="s" depth="0" NCoef="0" IVar="2" Cut="8.9656492187500000e+04" cType="1" res="5.2879333496093750e-01" rms="4.9917024374008179e-01" purity="5.2879333496093750e-01" nType="0">
        <Node pos="l" depth="1" NCoef="0" IVar="5" Cut="1.7680853125000000e+05" cType="1" res="7.5213402509689331e-01" rms="4.3177360296249390e-01" purity="7.5213396549224854e-01" nType="0">
          <Node pos="l" depth="2" NCoef="0" IVar="-1" Cut="0.0000000000000000e+00" cType="1" res="1.3398739611147903e-05" rms="2.6621001958847046e-01" purity="8.9813578128814697e-01" nType="-99"/>
          <Node pos="r" depth="2" NCoef="0" IVar="-1" Cut="0.0000000000000000e+00" cType="1" res="1.2158177560195327e-03" rms="3.8013127446174622e-01" purity="4.8626229166984558e-01" nType="-99"/>
        </Node>
        <Node pos="r" depth="1" NCoef="0" IVar="4" Cut="7.7503929687500000e+04" cType="1" res="3.8155171275138855e-01" rms="4.8602420091629028e-01" purity="3.8193389773368835e-01" nType="0">
          <Node pos="l" depth="2" NCoef="0" IVar="-1" Cut="0.0000000000000000e+00" cType="1" res="-1.2255176261533052e-04" rms="3.5533794760704041e-01" purity="3.3689403533935547e-01" nType="-99"/>
          <Node pos="r" depth="2" NCoef="0" IVar="-1" Cut="0.0000000000000000e+00" cType="1" res="1.7040573293343186e-03" rms="3.0447778105735779e-01" purity="8.9448308944702148e-01" nType="-99"/>
        </Node>
      </Node>
    </BinaryTree>
    <BinaryTree type="DecisionTree" boostWeight="1.0000000000000000e+00" itree="396">
      <Node pos="s" depth="0" NCoef="0" IVar="4" Cut="8.3366750000000000e+04" cType="1" res="3.8664010167121887e-01" rms="4.8742726445198059e-01" purity="3.8707590103149414e-01" nType="0">
        <Node pos="l" depth="1" NCoef="0" IVar="0" Cut="3.0000000000000000e+00" cType="1" res="8.2981893792748451e-03" rms="3.6890912055969238e-01" purity="3.4529280662536621e-01" nType="0">
          <Node pos="l" depth="2" NCoef="0" IVar="-1" Cut="0.0000000000000000e+00" cType="1" res="-2.4715784820728004e-04" rms="3.7438389658927917e-01" purity="2.7567347884178162e-01" nType="-99"/>
          <Node pos="r" depth="2" NCoef="0" IVar="-1" Cut="0.0000000000000000e+00" cType="1" res="3.4840919543057680e-03" rms="3.0278772115707397e-01" purity="8.9701861143112183e-01" nType="-99"/>
        </Node>
        <Node pos="r" depth="1" NCoef="0" IVar="-1" Cut="0.0000000000000000e+00" cType="1" res="1.7724686767905951e-03" rms="2.7193677425384521e-01" purity="9.2028152942657471e-01" nType="-99"/>
      </Node>
    </BinaryTree>
    <BinaryTree type="DecisionTree" boostWeight="1.0000000000000000e+00" itree="397">
      <Node pos="s" depth="0" NCoef="0" IVar="2" Cut="8.9681101562500000e+04" cType="1" res="5.8604013919830322e-01" rms="4.9254146218299866e-01" purity="5.8604013919830322e-01" nType="0">
        <Node pos="l" depth="1" NCoef="0" IVar="2" Cut="8.9272265625000000e+04" cType="1" res="8.1164729595184326e-01" rms="3.9099356532096863e-01" purity="8.1164729595184326e-01" nType="0">
          <Node pos="l" depth="2" NCoef="0" IVar="-1" Cut="0.0000000000000000e+00" cType="1" res="5.7650805683806539e-04" rms="3.6477208137512207e-01" purity="3.6983826756477356e-01" nType="-99"/>
          <Node pos="r" depth="2" NCoef="0" IVar="-1" Cut="0.0000000000000000e+00" cType="1" res="1.2638289263122715e-05" rms="2.5577500462532043e-01" purity="9.3867731094360352e-01" nType="-99"/>
        </Node>
        <Node pos="r" depth="1" NCoef="0" IVar="4" Cut="5.8031683593750000e+04" cType="1" res="3.8677263259887695e-01" rms="4.8716628551483154e-01" purity="3.8692405819892883e-01" nType="0">
          <Node pos="l" depth="2" NCoef="0" IVar="-1" Cut="0.0000000000000000e+00" cType="1" res="-8.2995247794315219e-05" rms="3.5783210396766663e-01" purity="3.1347703933715820e-01" nType="-99"/>
          <Node pos="r" depth="2" NCoef="0" IVar="-1" Cut="0.0000000000000000e+00" cType="1" res="1.4442461542785168e-03" rms="3.4378379583358765e-01" purity="8.5205405950546265e-01" nType="-99"/>
        </Node>
      </Node>
    </BinaryTree>
    <BinaryTree type="DecisionTree" boostWeight="1.0000000000000000e+00" itree="398">
      <Node pos="s" depth="0" NCoef="0" IVar="2" Cut="8.9692742187500000e+04" cType="1" res="5.9629112482070923e-01" rms="4.9064043164253235e-01" purity="5.9629112482070923e-01" nType="0">
        <Node pos="l" depth="1" NCoef="0" IVar="2" Cut="8.9279593750000000e+04" cType="1" res="8.2218933105468750e-01" rms="3.8235327601432800e-01" purity="8.2218933105468750e-01" nType="0">
          <Node pos="l" depth="2" NCoef="0" IVar="-1" Cut="0.0000000000000000e+00" cType="1" res="9.1288377007003874e-05" rms="3.5757669806480408e-01" purity="3.6624324321746826e-01" nType="-99"/>
          <Node pos="r" depth="2" NCoef="0" IVar="-1" Cut="0.0000000000000000e+00" cType="1" res="1.5548152077826671e-05" rms="2.3991148173809052e-01" purity="9.4538354873657227e-01" nType="-99"/>
        </Node>
        <Node pos="r" depth="1" NCoef="0" IVar="4" Cut="6.4850910156250000e+04" cType="1" res="3.8743934035301208e-01" rms="4.8723804950714111e-01" purity="3.8777735829353333e-01" nType="0">
          <Node pos="l" depth="2" NCoef="0" IVar="-1" Cut="0.0000000000000000e+00" cType="1" res="-5.2386909374035895e-05" rms="3.5604849457740784e-01" purity="3.2271346449851990e-01" nType="-99"/>
          <Node pos="r" depth="2" NCoef="0" IVar="-1" Cut="0.0000000000000000e+00" cType="1" res="1.4312950661405921e-03" rms="3.2252722978591919e-01" purity="8.7572318315505981e-01" nType="-99"/>
        </Node>
      </Node>
    </BinaryTree>
    <BinaryTree type="DecisionTree" boostWeight="1.0000000000000000e+00" itree="399">
      <Node pos="s" depth="0" NCoef="0" IVar="3" Cut="9.5950390625000000e+04" cType="1" res="4.8555284738540649e-01" rms="4.9979123473167419e-01" purity="4.8555284738540649e-01" nType="0">
        <Node pos="l" depth="1" NCoef="0" IVar="4" Cut="5.3242925781250000e+04" cType="1" res="3.8758435845375061e-01" rms="4.8719885945320129e-01" purity="3.8758435845375061e-01" nType="0">
          <Node pos="l" depth="2" NCoef="0" IVar="-1" Cut="0.0000000000000000e+00" cType="1" res="1.5914445975795388e-04" rms="3.5580399632453918e-01" purity="3.0567815899848938e-01" nType="-99"/>
          <Node pos="r" depth="2" NCoef="0" IVar="-1" Cut="0.0000000000000000e+00" cType="1" res="7.7337905531749129e-04" rms="3.6148253083229065e-01" purity="8.2608175277709961e-01" nType="-99"/>
        </Node>
        <Node pos="r" depth="1" NCoef="0" IVar="2" Cut="8.9290359375000000e+04" cType="1" res="7.6968264579772949e-01" rms="4.2103594541549683e-01" purity="7.6968264579772949e-01" nType="0">
          <Node pos="l" depth="2" NCoef="0" IVar="-1" Cut="0.0000000000000000e+00" cType="1" res="1.1464018825790845e-05" rms="2.9879951477050781e-01" purity="9.1127640008926392e-01" nType="-99"/>
          <Node pos="r" depth="2" NCoef="0" IVar="-1" Cut="0.0000000000000000e+00" cType="1" res="4.2684061918407679e-04" rms="3.6818706989288330e-01" purity="4.0864124894142151e-01" nType="-99"/>
        </Node>
      </Node>
    </BinaryTree>
    <BinaryTree type="DecisionTree" boostWeight="1.0000000000000000e+00" itree="400">
      <Node pos="s" depth="0" NCoef="0" IVar="4" Cut="5.3241414062500000e+04" cType="1" res="3.8657349348068237e-01" rms="4.8696449398994446e-01" purity="3.8657349348068237e-01" nType="0">
        <Node pos="l" depth="1" NCoef="0" IVar="0" Cut="3.0000000000000000e+00" cType="1" res="-5.6703402660787106e-03" rms="3.5603913664817810e-01" purity="2.9781913757324219e-01" nType="0">
          <Node pos="l" depth="2" NCoef="0" IVar="-1" Cut="0.0000000000000000e+00" cType="1" res="-1.1433264007791877e-03" rms="3.5834077000617981e-01" purity="2.3216460645198822e-01" nType="-99"/>
          <Node pos="r" depth="2" NCoef="0" IVar="-1" Cut="0.0000000000000000e+00" cType="1" res="4.0350165218114853e-03" rms="3.1481650471687317e-01" purity="8.8775229454040527e-01" nType="-99"/>
        </Node>
        <Node pos="r" depth="1" NCoef="0" IVar="4" Cut="8.0894578125000000e+04" cType="1" res="8.3278638124465942e-01" rms="3.7316650152206421e-01" purity="8.3278632164001465e-01" nType="0">
          <Node pos="l" depth="2" NCoef="0" IVar="-1" Cut="0.0000000000000000e+00" cType="1" res="2.9115701909177005e-04" rms="3.9194104075431824e-01" purity="7.7648401260375977e-01" nType="-99"/>
          <Node pos="r" depth="2" NCoef="0" IVar="-1" Cut="0.0000000000000000e+00" cType="1" res="1.7325986409559846e-03" rms="2.9469537734985352e-01" purity="9.0285915136337280e-01" nType="-99"/>
        </Node>
      </Node>
    </BinaryTree>
    <BinaryTree type="DecisionTree" boostWeight="1.0000000000000000e+00" itree="401">
      <Node pos="s" depth="0" NCoef="0" IVar="1" Cut="1.9874823437500000e+05" cType="1" res="4.4719189405441284e-01" rms="4.9748513102531433e-01" purity="4.4765114784240723e-01" nType="0">
        <Node pos="l" depth="1" NCoef="0" IVar="2" Cut="8.9715734375000000e+04" cType="1" res="5.2873635292053223e-01" rms="5.1354408264160156e-01" purity="5.8774673938751221e-01" nType="0">
          <Node pos="l" depth="2" NCoef="0" IVar="-1" Cut="0.0000000000000000e+00" cType="1" res="1.9392091417103074e-05" rms="3.6906102299690247e-01" purity="8.1941729784011841e-01" nType="-99"/>
          <Node pos="r" depth="2" NCoef="0" IVar="-1" Cut="0.0000000000000000e+00" cType="1" res="-4.7633831854909658e-04" rms="3.3373135328292847e-01" purity="2.1928548812866211e-01" nType="-99"/>
        </Node>
        <Node pos="r" depth="1" NCoef="0" IVar="4" Cut="7.8767250000000000e+04" cType="1" res="4.0923610329627991e-01" rms="4.9205458164215088e-01" purity="4.0981930494308472e-01" nType="0">
          <Node pos="l" depth="2" NCoef="0" IVar="-1" Cut="0.0000000000000000e+00" cType="1" res="2.6588927721604705e-04" rms="3.7072613835334778e-01" purity="3.6049669981002808e-01" nType="-99"/>
          <Node pos="r" depth="2" NCoef="0" IVar="-1" Cut="0.0000000000000000e+00" cType="1" res="1.5284881228581071e-03" rms="2.7941358089447021e-01" purity="9.1401654481887817e-01" nType="-99"/>
        </Node>
      </Node>
    </BinaryTree>
    <BinaryTree type="DecisionTree" boostWeight="1.0000000000000000e+00" itree="402">
      <Node pos="s" depth="0" NCoef="0" IVar="1" Cut="2.0146712500000000e+05" cType="1" res="0.0000000000000000e+00" rms="6.6391402482986450e-01" purity="4.4087743759155273e-01" nType="0">
        <Node pos="l" depth="1" NCoef="0" IVar="2" Cut="8.9674507812500000e+04" cType="1" res="4.8828148841857910e-01" rms="5.1960319280624390e-01" purity="5.5498290061950684e-01" nType="0">
          <Node pos="l" depth="2" NCoef="0" IVar="-1" Cut="0.0000000000000000e+00" cType="1" res="1.9403429178055376e-05" rms="3.8535469770431519e-01" purity="7.9766446352005005e-01" nType="-99"/>
          <Node pos="r" depth="2" NCoef="0" IVar="-1" Cut="0.0000000000000000e+00" cType="1" res="-4.6149842091836035e-04" rms="3.3585584163665771e-01" purity="2.2498448193073273e-01" nType="-99"/>
        </Node>
        <Node pos="r" depth="1" NCoef="0" IVar="4" Cut="7.8753968750000000e+04" cType="1" res="4.0460509061813354e-01" rms="4.9107721447944641e-01" purity="4.0498787164688110e-01" nType="0">
          <Node pos="l" depth="2" NCoef="0" IVar="-1" Cut="0.0000000000000000e+00" cType="1" res="1.1187796917511150e-04" rms="3.6771181225776672e-01" purity="3.5919964313507080e-01" nType="-99"/>
          <Node pos="r" depth="2" NCoef="0" IVar="-1" Cut="0.0000000000000000e+00" cType="1" res="1.6888937680050731e-03" rms="2.9615107178688049e-01" purity="9.0153449773788452e-01" nType="-99"/>
        </Node>
      </Node>
    </BinaryTree>
    <BinaryTree type="DecisionTree" boostWeight="1.0000000000000000e+00" itree="403">
      <Node pos="s" depth="0" NCoef="0" IVar="5" Cut="5.2307812500000000e+05" cType="1" res="3.8865497708320618e-01" rms="4.8744463920593262e-01" purity="3.8865494728088379e-01" nType="0">
        <Node pos="l" depth="1" NCoef="0" IVar="4" Cut="6.6983296875000000e+04" cType="1" res="3.1097748875617981e-01" rms="4.6289360523223877e-01" purity="3.1097748875617981e-01" nType="0">
          <Node pos="l" depth="2" NCoef="0" IVar="-1" Cut="0.0000000000000000e+00" cType="1" res="-3.4185053664259613e-04" rms="3.6520475149154663e-01" purity="2.6933971047401428e-01" nType="-99"/>
          <Node pos="r" depth="2" NCoef="0" IVar="-1" Cut="0.0000000000000000e+00" cType="1" res="1.3797705760225654e-03" rms="3.7243935465812683e-01" purity="8.2918757200241089e-01" nType="-99"/>
        </Node>
        <Node pos="r" depth="1" NCoef="0" IVar="4" Cut="4.1325593750000000e+04" cType="1" res="8.4487253427505493e-01" rms="3.6202615499496460e-01" purity="8.4487253427505493e-01" nType="0">
          <Node pos="l" depth="2" NCoef="0" IVar="-1" Cut="0.0000000000000000e+00" cType="1" res="3.0616950243711472e-03" rms="3.6174449324607849e-01" purity="7.8354263305664062e-01" nType="-99"/>
          <Node pos="r" depth="2" NCoef="0" IVar="-1" Cut="0.0000000000000000e+00" cType="1" res="2.3551993072032928e-03" rms="2.7181619405746460e-01" purity="9.1228294372558594e-01" nType="-99"/>
        </Node>
      </Node>
    </BinaryTree>
    <BinaryTree type="DecisionTree" boostWeight="1.0000000000000000e+00" itree="404">
      <Node pos="s" depth="0" NCoef="0" IVar="1" Cut="1.9097787500000000e+05" cType="1" res="4.9266040325164795e-01" rms="4.9994611740112305e-01" purity="4.9266040325164795e-01" nType="0">
        <Node pos="l" depth="1" NCoef="0" IVar="-1" Cut="0.0000000000000000e+00" cType="1" res="1.9353245079400949e-05" rms="3.6105149984359741e-01" purity="8.2572394609451294e-01" nType="-99"/>
        <Node pos="r" depth="1" NCoef="0" IVar="5" Cut="4.2904681250000000e+05" cType="1" res="3.9047574996948242e-01" rms="4.8785698413848877e-01" purity="3.9047574996948242e-01" nType="0">
          <Node pos="l" depth="2" NCoef="0" IVar="-1" Cut="0.0000000000000000e+00" cType="1" res="-4.0168120176531374e-04" rms="3.6349859833717346e-01" purity="2.7571243047714233e-01" nType="-99"/>
          <Node pos="r" depth="2" NCoef="0" IVar="-1" Cut="0.0000000000000000e+00" cType="1" res="2.2560930810868740e-03" rms="3.4296932816505432e-01" purity="8.0042368173599243e-01" nType="-99"/>
        </Node>
      </Node>
    </BinaryTree>
    <BinaryTree type="DecisionTree" boostWeight="1.0000000000000000e+00" itree="405">
      <Node pos="s" depth="0" NCoef="0" IVar="5" Cut="4.6151765625000000e+05" cType="1" res="3.7810072302818298e-01" rms="4.8507016897201538e-01" purity="3.7825322151184082e-01" nType="0">
        <Node pos="l" depth="1" NCoef="0" IVar="4" Cut="6.6157578125000000e+04" cType="1" res="2.8056177496910095e-01" rms="4.4927370548248291e-01" purity="2.8056180477142334e-01" nType="0">
          <Node pos="l" depth="2" NCoef="0" IVar="-1" Cut="0.0000000000000000e+00" cType="1" res="-1.3949907151982188e-03" rms="3.5126826167106628e-01" purity="2.3676411807537079e-01" nType="-99"/>
          <Node pos="r" depth="2" NCoef="0" IVar="-1" Cut="0.0000000000000000e+00" cType="1" res="1.3472699793055654e-03" rms="3.8417416810989380e-01" purity="8.1587845087051392e-01" nType="-99"/>
        </Node>
        <Node pos="r" depth="1" NCoef="0" IVar="0" Cut="3.0000000000000000e+00" cType="1" res="9.4875887036323547e-02" rms="3.4635302424430847e-01" purity="8.1429350376129150e-01" nType="0">
          <Node pos="l" depth="2" NCoef="0" IVar="-1" Cut="0.0000000000000000e+00" cType="1" res="1.4767237007617950e-03" rms="4.0588870644569397e-01" purity="7.0737481117248535e-01" nType="-99"/>
          <Node pos="r" depth="2" NCoef="0" IVar="-1" Cut="0.0000000000000000e+00" cType="1" res="4.1358037851750851e-03" rms="2.7014124393463135e-01" purity="9.2200243473052979e-01" nType="-99"/>
        </Node>
      </Node>
    </BinaryTree>
    <BinaryTree type="DecisionTree" boostWeight="1.0000000000000000e+00" itree="406">
      <Node pos="s" depth="0" NCoef="0" IVar="5" Cut="1.6313576562500000e+05" cType="1" res="5.6165748834609985e-01" rms="4.9618378281593323e-01" purity="5.6165748834609985e-01" nType="0">
        <Node pos="l" depth="1" NCoef="0" IVar="5" Cut="1.5253657812500000e+05" cType="1" res="8.4764391183853149e-01" rms="3.5936570167541504e-01" purity="8.4764385223388672e-01" nType="0">
          <Node pos="l" depth="2" NCoef="0" IVar="-1" Cut="0.0000000000000000e+00" cType="1" res="-1.0137279517948627e-02" rms="2.0872554183006287e-01" purity="5.1425367593765259e-02" nType="-99"/>
          <Node pos="r" depth="2" NCoef="0" IVar="-1" Cut="0.0000000000000000e+00" cType="1" res="1.1381447620806284e-05" rms="2.3610915243625641e-01" purity="9.2064112424850464e-01" nType="-99"/>
        </Node>
        <Node pos="r" depth="1" NCoef="0" IVar="4" Cut="5.0481691406250000e+04" cType="1" res="4.2628824710845947e-01" rms="4.9453672766685486e-01" purity="4.2628821730613708e-01" nType="0">
          <Node pos="l" depth="2" NCoef="0" IVar="-1" Cut="0.0000000000000000e+00" cType="1" res="3.6135970731265843e-04" rms="3.6739587783813477e-01" purity="3.2721132040023804e-01" nType="-99"/>
          <Node pos="r" depth="2" NCoef="0" IVar="-1" Cut="0.0000000000000000e+00" cType="1" res="6.6385540412738919e-04" rms="3.5568580031394958e-01" purity="8.2959872484207153e-01" nType="-99"/>
        </Node>
      </Node>
    </BinaryTree>
    <BinaryTree type="DecisionTree" boostWeight="1.0000000000000000e+00" itree="407">
      <Node pos="s" depth="0" NCoef="0" IVar="0" Cut="1.0000000000000000e+00" cType="1" res="2.5905683636665344e-01" rms="4.6721997857093811e-01" purity="5.7835847139358521e-01" nType="0">
        <Node pos="l" depth="1" NCoef="0" IVar="4" Cut="1.9615392578125000e+04" cType="1" res="5.7491505146026611e-01" rms="4.9435588717460632e-01" purity="5.7491505146026611e-01" nType="0">
          <Node pos="l" depth="2" NCoef="0" IVar="-1" Cut="0.0000000000000000e+00" cType="1" res="-2.6550039183348417e-03" rms="2.0073691010475159e-01" purity="4.2421683669090271e-02" nType="-99"/>
          <Node pos="r" depth="2" NCoef="0" IVar="-1" Cut="0.0000000000000000e+00" cType="1" res="1.4308747267932631e-05" rms="4.3780058622360229e-01" purity="7.7973341941833496e-01" nType="-99"/>
        </Node>
        <Node pos="r" depth="1" NCoef="0" IVar="5" Cut="4.6643365625000000e+05" cType="1" res="4.3015331280959531e+24" rms="0.0000000000000000e+00" purity="5.8425629138946533e-01" nType="0">
          <Node pos="l" depth="2" NCoef="0" IVar="-1" Cut="0.0000000000000000e+00" cType="1" res="7.2175718378275633e-04" rms="4.3371900916099548e-01" purity="4.6755400300025940e-01" nType="-99"/>
          <Node pos="r" depth="2" NCoef="0" IVar="-1" Cut="0.0000000000000000e+00" cType="1" res="2.8894662391394377e-03" rms="3.3981513977050781e-01" purity="8.4195631742477417e-01" nType="-99"/>
        </Node>
      </Node>
    </BinaryTree>
    <BinaryTree type="DecisionTree" boostWeight="1.0000000000000000e+00" itree="408">
      <Node pos="s" depth="0" NCoef="0" IVar="3" Cut="9.5951023437500000e+04" cType="1" res="4.7823026776313782e-01" rms="4.9971628189086914e-01" purity="4.7842055559158325e-01" nType="0">
        <Node pos="l" depth="1" NCoef="0" IVar="4" Cut="7.6855453125000000e+04" cType="1" res="3.7481158971786499e-01" rms="4.8415505886077881e-01" purity="3.7488988041877747e-01" nType="0">
          <Node pos="l" depth="2" NCoef="0" IVar="-1" Cut="0.0000000000000000e+00" cType="1" res="-1.0767260391730815e-04" rms="3.5878390073776245e-01" purity="3.2916447520256042e-01" nType="-99"/>
          <Node pos="r" depth="2" NCoef="0" IVar="-1" Cut="0.0000000000000000e+00" cType="1" res="1.5094564296305180e-03" rms="3.0112925171852112e-01" purity="8.9767712354660034e-01" nType="-99"/>
        </Node>
        <Node pos="r" depth="1" NCoef="0" IVar="2" Cut="8.9294859375000000e+04" cType="1" res="7.7235919237136841e-01" rms="4.1930949687957764e-01" purity="7.7286809682846069e-01" nType="0">
          <Node pos="l" depth="2" NCoef="0" IVar="-1" Cut="0.0000000000000000e+00" cType="1" res="1.1599877325352281e-05" rms="2.9635393619537354e-01" purity="9.1433191299438477e-01" nType="-99"/>
          <Node pos="r" depth="2" NCoef="0" IVar="-1" Cut="0.0000000000000000e+00" cType="1" res="7.9142051981762052e-04" rms="3.9597684144973755e-01" purity="4.0698343515396118e-01" nType="-99"/>
        </Node>
      </Node>
    </BinaryTree>
    <BinaryTree type="DecisionTree" boostWeight="1.0000000000000000e+00" itree="409">
      <Node pos="s" depth="0" NCoef="0" IVar="4" Cut="8.2776101562500000e+04" cType="1" res="3.9015683531761169e-01" rms="4.8778527975082397e-01" purity="3.9015680551528931e-01" nType="0">
        <Node pos="l" depth="1" NCoef="0" IVar="0" Cut="3.0000000000000000e+00" cType="1" res="2.8394090477377176e-03" rms="3.6265224218368530e-01" purity="3.4371289610862732e-01" nType="0">
          <Node pos="l" depth="2" NCoef="0" IVar="-1" Cut="0.0000000000000000e+00" cType="1" res="-5.5174453882500529e-04" rms="3.6739397048950195e-01" purity="2.7165985107421875e-01" nType="-99"/>
          <Node pos="r" depth="2" NCoef="0" IVar="-1" Cut="0.0000000000000000e+00" cType="1" res="8.6157536134123802e-04" rms="3.0440029501914978e-01" purity="8.9612120389938354e-01" nType="-99"/>
        </Node>
        <Node pos="r" depth="1" NCoef="0" IVar="-1" Cut="0.0000000000000000e+00" cType="1" res="1.4593907399103045e-03" rms="2.6694911718368530e-01" purity="9.2122960090637207e-01" nType="-99"/>
      </Node>
    </BinaryTree>
    <BinaryTree type="DecisionTree" boostWeight="1.0000000000000000e+00" itree="410">
      <Node pos="s" depth="0" NCoef="0" IVar="2" Cut="9.1862039062500000e+04" cType="1" res="0.0000000000000000e+00" rms="0.0000000000000000e+00" purity="4.6133616566658020e-01" nType="0">
        <Node pos="l" depth="1" NCoef="0" IVar="4" Cut="7.3285914062500000e+04" cType="1" res="3.7132433056831360e-01" rms="4.8333409428596497e-01" purity="3.7149360775947571e-01" nType="0">
          <Node pos="l" depth="2" NCoef="0" IVar="-1" Cut="0.0000000000000000e+00" cType="1" res="-3.2058820943348110e-04" rms="3.5688239336013794e-01" purity="3.2009801268577576e-01" nType="-99"/>
          <Node pos="r" depth="2" NCoef="0" IVar="-1" Cut="0.0000000000000000e+00" cType="1" res="1.4155586250126362e-03" rms="3.1977790594100952e-01" purity="8.8129132986068726e-01" nType="-99"/>
        </Node>
        <Node pos="r" depth="1" NCoef="0" IVar="2" Cut="9.2052398437500000e+04" cType="1" res="5.9811496734619141e-01" rms="4.9027895927429199e-01" purity="5.9850883483886719e-01" nType="0">
          <Node pos="l" depth="2" NCoef="0" IVar="-1" Cut="0.0000000000000000e+00" cType="1" res="1.6932159269344993e-05" rms="3.5931488871574402e-01" purity="8.7377417087554932e-01" nType="-99"/>
          <Node pos="r" depth="2" NCoef="0" IVar="-1" Cut="0.0000000000000000e+00" cType="1" res="6.5847788937389851e-04" rms="3.6529567837715149e-01" purity="3.8764485716819763e-01" nType="-99"/>
        </Node>
      </Node>
    </BinaryTree>
    <BinaryTree type="DecisionTree" boostWeight="1.0000000000000000e+00" itree="411">
      <Node pos="s" depth="0" NCoef="0" IVar="4" Cut="5.3573656250000000e+04" cType="1" res="3.8780936598777771e-01" rms="4.8725071549415588e-01" purity="3.8780936598777771e-01" nType="0">
        <Node pos="l" depth="1" NCoef="0" IVar="0" Cut="1.0000000000000000e+00" cType="1" res="-1.7912577604874969e-03" rms="3.5861206054687500e-01" purity="3.0438324809074402e-01" nType="0">
          <Node pos="l" depth="2" NCoef="0" IVar="-1" Cut="0.0000000000000000e+00" cType="1" res="-4.8987125046551228e-03" rms="2.7928477525711060e-01" purity="8.5326410830020905e-02" nType="-99"/>
          <Node pos="r" depth="2" NCoef="0" IVar="-1" Cut="0.0000000000000000e+00" cType="1" res="1.4021500246599317e-03" rms="4.1969403624534607e-01" purity="5.2284210920333862e-01" nType="-99"/>
        </Node>
        <Node pos="r" depth="1" NCoef="0" IVar="4" Cut="7.8045421875000000e+04" cType="1" res="8.3180189132690430e-01" rms="3.7404212355613708e-01" purity="8.3180183172225952e-01" nType="0">
          <Node pos="l" depth="2" NCoef="0" IVar="-1" Cut="0.0000000000000000e+00" cType="1" res="4.1407006210647523e-04" rms="3.9512220025062561e-01" purity="7.7258259057998657e-01" nType="-99"/>
          <Node pos="r" depth="2" NCoef="0" IVar="-1" Cut="0.0000000000000000e+00" cType="1" res="1.6386052593588829e-03" rms="3.0642455816268921e-01" purity="8.9377826452255249e-01" nType="-99"/>
        </Node>
      </Node>
    </BinaryTree>
    <BinaryTree type="DecisionTree" boostWeight="1.0000000000000000e+00" itree="412">
      <Node pos="s" depth="0" NCoef="0" IVar="4" Cut="7.4108828125000000e+04" cType="1" res="3.9470848441123962e-01" rms="4.8917931318283081e-01" purity="3.9519450068473816e-01" nType="0">
        <Node pos="l" depth="1" NCoef="0" IVar="0" Cut="3.0000000000000000e+00" cType="1" res="9.4899432733654976e-03" rms="3.6368104815483093e-01" purity="3.4748324751853943e-01" nType="0">
          <Node pos="l" depth="2" NCoef="0" IVar="-1" Cut="0.0000000000000000e+00" cType="1" res="-1.7845086404122412e-04" rms="3.6859047412872314e-01" purity="2.7543953061103821e-01" nType="-99"/>
          <Node pos="r" depth="2" NCoef="0" IVar="-1" Cut="0.0000000000000000e+00" cType="1" res="8.6189917055889964e-04" rms="3.0581197142601013e-01" purity="8.9590311050415039e-01" nType="-99"/>
        </Node>
        <Node pos="r" depth="1" NCoef="0" IVar="-1" Cut="0.0000000000000000e+00" cType="1" res="1.5716258203610778e-03" rms="2.9384055733680725e-01" purity="9.0253686904907227e-01" nType="-99"/>
      </Node>
    </BinaryTree>
    <BinaryTree type="DecisionTree" boostWeight="1.0000000000000000e+00" itree="413">
      <Node pos="s" depth="0" NCoef="0" IVar="5" Cut="1.6601217187500000e+05" cType="1" res="4.8990574479103088e-01" rms="5.0026941299438477e-01" purity="4.9027714133262634e-01" nType="0">
        <Node pos="l" depth="1" NCoef="0" IVar="3" Cut="8.9708671875000000e+04" cType="1" res="7.0245659351348877e-01" rms="4.5717754960060120e-01" purity="7.0245659351348877e-01" nType="0">
          <Node pos="l" depth="2" NCoef="0" IVar="-1" Cut="0.0000000000000000e+00" cType="1" res="-6.9031440652906895e-03" rms="2.1063253283500671e-01" purity="5.2528440952301025e-02" nType="-99"/>
          <Node pos="r" depth="2" NCoef="0" IVar="-1" Cut="0.0000000000000000e+00" cType="1" res="1.1483595699246507e-05" rms="3.1223136186599731e-01" purity="8.5172498226165771e-01" nType="-99"/>
        </Node>
        <Node pos="r" depth="1" NCoef="0" IVar="4" Cut="8.3403453125000000e+04" cType="1" res="4.2728379368782043e-01" rms="4.9516984820365906e-01" purity="4.2776465415954590e-01" nType="0">
          <Node pos="l" depth="2" NCoef="0" IVar="-1" Cut="0.0000000000000000e+00" cType="1" res="7.1490235859528184e-04" rms="3.7842011451721191e-01" purity="3.8109025359153748e-01" nType="-99"/>
          <Node pos="r" depth="2" NCoef="0" IVar="-1" Cut="0.0000000000000000e+00" cType="1" res="1.4892771141603589e-03" rms="2.7344512939453125e-01" purity="9.1686451435089111e-01" nType="-99"/>
        </Node>
      </Node>
    </BinaryTree>
    <BinaryTree type="DecisionTree" boostWeight="1.0000000000000000e+00" itree="414">
      <Node pos="s" depth="0" NCoef="0" IVar="4" Cut="4.7302878906250000e+04" cType="1" res="3.8859117031097412e-01" rms="4.8789939284324646e-01" purity="3.8904893398284912e-01" nType="0">
        <Node pos="l" depth="1" NCoef="0" IVar="0" Cut="1.0000000000000000e+00" cType="1" res="-9.2818838311359286e-04" rms="3.5339280962944031e-01" purity="2.9503795504570007e-01" nType="0">
          <Node pos="l" depth="2" NCoef="0" IVar="-1" Cut="0.0000000000000000e+00" cType="1" res="-4.5491182245314121e-03" rms="2.7297630906105042e-01" purity="8.4421694278717041e-02" nType="-99"/>
          <Node pos="r" depth="2" NCoef="0" IVar="-1" Cut="0.0000000000000000e+00" cType="1" res="1.2905908515676856e-03" rms="4.1723456978797913e-01" purity="5.1018446683883667e-01" nType="-99"/>
        </Node>
        <Node pos="r" depth="1" NCoef="0" IVar="4" Cut="8.0735281250000000e+04" cType="1" res="7.8826427459716797e-01" rms="4.0941116213798523e-01" purity="7.8897804021835327e-01" nType="0">
          <Node pos="l" depth="2" NCoef="0" IVar="-1" Cut="0.0000000000000000e+00" cType="1" res="4.3643274693749845e-04" rms="4.1808143258094788e-01" purity="7.1834522485733032e-01" nType="-99"/>
          <Node pos="r" depth="2" NCoef="0" IVar="-1" Cut="0.0000000000000000e+00" cType="1" res="1.7212412785738707e-03" rms="2.8929886221885681e-01" purity="9.0586358308792114e-01" nType="-99"/>
        </Node>
      </Node>
    </BinaryTree>
    <BinaryTree type="DecisionTree" boostWeight="1.0000000000000000e+00" itree="415">
      <Node pos="s" depth="0" NCoef="0" IVar="5" Cut="1.6383207812500000e+05" cType="1" res="5.4561769962310791e-01" rms="4.9821403622627258e-01" purity="5.4607576131820679e-01" nType="0">
        <Node pos="l" depth="1" NCoef="0" IVar="3" Cut="8.9123367187500000e+04" cType="1" res="7.3165613412857056e-01" rms="4.4309753179550171e-01" purity="7.3165619373321533e-01" nType="0">
          <Node pos="l" depth="2" NCoef="0" IVar="-1" Cut="0.0000000000000000e+00" cType="1" res="-1.4517786912620068e-02" rms="2.0680120587348938e-01" purity="3.9511468261480331e-02" nType="-99"/>
          <Node pos="r" depth="2" NCoef="0" IVar="-1" Cut="0.0000000000000000e+00" cType="1" res="1.1521711712703109e-05" rms="3.1002211570739746e-01" purity="8.5423988103866577e-01" nType="-99"/>
        </Node>
        <Node pos="r" depth="1" NCoef="0" IVar="2" Cut="9.1773078125000000e+04" cType="1" res="5.0119626522064209e-01" rms="5.0036782026290894e-01" purity="5.0176370143890381e-01" nType="0">
          <Node pos="l" depth="2" NCoef="0" IVar="-1" Cut="0.0000000000000000e+00" cType="1" res="5.1354290917515755e-04" rms="3.6615261435508728e-01" purity="4.1913399100303650e-01" nType="-99"/>
          <Node pos="r" depth="2" NCoef="0" IVar="-1" Cut="0.0000000000000000e+00" cType="1" res="1.8147984519600868e-05" rms="4.8383063077926636e-01" purity="6.1930668354034424e-01" nType="-99"/>
        </Node>
      </Node>
    </BinaryTree>
    <BinaryTree type="DecisionTree" boostWeight="1.0000000000000000e+00" itree="416">
      <Node pos="s" depth="0" NCoef="0" IVar="1" Cut="2.0208595312500000e+05" cType="1" res="4.9260547757148743e-01" rms="5.0014823675155640e-01" purity="4.9287301301956177e-01" nType="0">
        <Node pos="l" depth="1" NCoef="0" IVar="2" Cut="8.9636281250000000e+04" cType="1" res="0.0000000000000000e+00" rms="0.0000000000000000e+00" purity="6.8016618490219116e-01" nType="0">
          <Node pos="l" depth="2" NCoef="0" IVar="-1" Cut="0.0000000000000000e+00" cType="1" res="1.9658002202049829e-05" rms="3.0702403187751770e-01" purity="8.8517177104949951e-01" nType="-99"/>
          <Node pos="r" depth="2" NCoef="0" IVar="-1" Cut="0.0000000000000000e+00" cType="1" res="9.6374853455927223e-05" rms="3.3608835935592651e-01" purity="2.2564689815044403e-01" nType="-99"/>
        </Node>
        <Node pos="r" depth="1" NCoef="0" IVar="4" Cut="5.0467765625000000e+04" cType="1" res="4.0784719586372375e-01" rms="4.9173417687416077e-01" purity="4.0823563933372498e-01" nType="0">
          <Node pos="l" depth="2" NCoef="0" IVar="-1" Cut="0.0000000000000000e+00" cType="1" res="-1.0772951645776629e-04" rms="3.6048626899719238e-01" purity="3.1915575265884399e-01" nType="-99"/>
          <Node pos="r" depth="2" NCoef="0" IVar="-1" Cut="0.0000000000000000e+00" cType="1" res="8.0844346666708589e-04" rms="3.6793428659439087e-01" purity="8.1304174661636353e-01" nType="-99"/>
        </Node>
      </Node>
    </BinaryTree>
    <BinaryTree type="DecisionTree" boostWeight="1.0000000000000000e+00" itree="417">
      <Node pos="s" depth="0" NCoef="0" IVar="2" Cut="9.1808140625000000e+04" cType="1" res="4.7283485531806946e-01" rms="4.9926149845123291e-01" purity="4.7283485531806946e-01" nType="0">
        <Node pos="l" depth="1" NCoef="0" IVar="0" Cut="1.0000000000000000e+00" cType="1" res="1.6367420554161072e-02" rms="3.6298269033432007e-01" purity="3.8046485185623169e-01" nType="0">
          <Node pos="l" depth="2" NCoef="0" IVar="-1" Cut="0.0000000000000000e+00" cType="1" res="-1.8588283564895391e-03" rms="2.9828768968582153e-01" purity="1.3612785935401917e-01" nType="-99"/>
          <Node pos="r" depth="2" NCoef="0" IVar="-1" Cut="0.0000000000000000e+00" cType="1" res="1.4688565861433744e-03" rms="4.0721815824508667e-01" purity="5.9036737680435181e-01" nType="-99"/>
        </Node>
        <Node pos="r" depth="1" NCoef="0" IVar="2" Cut="9.2002164062500000e+04" cType="1" res="6.0643064975738525e-01" rms="4.8881193995475769e-01" purity="6.0669529438018799e-01" nType="0">
          <Node pos="l" depth="2" NCoef="0" IVar="-1" Cut="0.0000000000000000e+00" cType="1" res="1.7582338841748424e-05" rms="3.5637283325195312e-01" purity="8.8031738996505737e-01" nType="-99"/>
          <Node pos="r" depth="2" NCoef="0" IVar="-1" Cut="0.0000000000000000e+00" cType="1" res="7.7170162694528699e-04" rms="3.6212542653083801e-01" purity="4.0724909305572510e-01" nType="-99"/>
        </Node>
      </Node>
    </BinaryTree>
    <BinaryTree type="DecisionTree" boostWeight="1.0000000000000000e+00" itree="418">
      <Node pos="s" depth="0" NCoef="0" IVar="2" Cut="8.9637539062500000e+04" cType="1" res="5.8527386188507080e-01" rms="4.9267470836639404e-01" purity="5.8527386188507080e-01" nType="0">
        <Node pos="l" depth="1" NCoef="0" IVar="2" Cut="8.9227132812500000e+04" cType="1" res="8.1799119710922241e-01" rms="3.8585177063941956e-01" purity="8.1799119710922241e-01" nType="0">
          <Node pos="l" depth="2" NCoef="0" IVar="-1" Cut="0.0000000000000000e+00" cType="1" res="8.1536947982385755e-04" rms="3.7495905160903931e-01" purity="3.9065453410148621e-01" nType="-99"/>
          <Node pos="r" depth="2" NCoef="0" IVar="-1" Cut="0.0000000000000000e+00" cType="1" res="1.2923683243570849e-05" rms="2.4418212473392487e-01" purity="9.4297188520431519e-01" nType="-99"/>
        </Node>
        <Node pos="r" depth="1" NCoef="0" IVar="5" Cut="5.3573006250000000e+05" cType="1" res="3.8187590241432190e-01" rms="4.8593178391456604e-01" purity="3.8195890188217163e-01" nType="0">
          <Node pos="l" depth="2" NCoef="0" IVar="-1" Cut="0.0000000000000000e+00" cType="1" res="-3.4200344089185819e-05" rms="3.6417248845100403e-01" purity="3.0805787444114685e-01" nType="-99"/>
          <Node pos="r" depth="2" NCoef="0" IVar="-1" Cut="0.0000000000000000e+00" cType="1" res="2.7640447951853275e-03" rms="3.3096373081207275e-01" purity="8.3829224109649658e-01" nType="-99"/>
        </Node>
      </Node>
    </BinaryTree>
    <BinaryTree type="DecisionTree" boostWeight="1.0000000000000000e+00" itree="419">
      <Node pos="s" depth="0" NCoef="0" IVar="5" Cut="1.6215667187500000e+05" cType="1" res="4.7764590382575989e-01" rms="4.9950003623962402e-01" purity="4.7764587402343750e-01" nType="0">
        <Node pos="l" depth="1" NCoef="0" IVar="-1" Cut="0.0000000000000000e+00" cType="1" res="1.1490894394228235e-05" rms="3.7978166341781616e-01" purity="7.4708658456802368e-01" nType="-99"/>
        <Node pos="r" depth="1" NCoef="0" IVar="4" Cut="4.1395703125000000e+04" cType="1" res="4.0299046039581299e-01" rms="4.9049887061119080e-01" purity="4.0299049019813538e-01" nType="0">
          <Node pos="l" depth="2" NCoef="0" IVar="-1" Cut="0.0000000000000000e+00" cType="1" res="-6.6804030211642385e-04" rms="3.5028010606765747e-01" purity="2.8963279724121094e-01" nType="-99"/>
          <Node pos="r" depth="2" NCoef="0" IVar="-1" Cut="0.0000000000000000e+00" cType="1" res="1.2960975291207433e-03" rms="3.9264559745788574e-01" purity="7.5213390588760376e-01" nType="-99"/>
        </Node>
      </Node>
    </BinaryTree>
    <BinaryTree type="DecisionTree" boostWeight="1.0000000000000000e+00" itree="420">
      <Node pos="s" depth="0" NCoef="0" IVar="4" Cut="7.6838750000000000e+04" cType="1" res="0.0000000000000000e+00" rms="0.0000000000000000e+00" purity="3.8392603397369385e-01" nType="0">
        <Node pos="l" depth="1" NCoef="0" IVar="0" Cut="1.0000000000000000e+00" cType="1" res="4.8672645352780819e-03" rms="3.6255931854248047e-01" purity="3.3788275718688965e-01" nType="0">
          <Node pos="l" depth="2" NCoef="0" IVar="-1" Cut="0.0000000000000000e+00" cType="1" res="-2.7539327275007963e-03" rms="2.8677222132682800e-01" purity="1.0779780149459839e-01" nType="-99"/>
          <Node pos="r" depth="2" NCoef="0" IVar="-1" Cut="0.0000000000000000e+00" cType="1" res="1.3878148747608066e-03" rms="4.1752707958221436e-01" purity="5.5152952671051025e-01" nType="-99"/>
        </Node>
        <Node pos="r" depth="1" NCoef="0" IVar="-1" Cut="0.0000000000000000e+00" cType="1" res="1.4484934508800507e-03" rms="2.9952880740165710e-01" purity="8.9731013774871826e-01" nType="-99"/>
      </Node>
    </BinaryTree>
    <BinaryTree type="DecisionTree" boostWeight="1.0000000000000000e+00" itree="421">
      <Node pos="s" depth="0" NCoef="0" IVar="0" Cut="2.0000000000000000e+00" cType="1" res="1.0915521532297134e-02" rms="3.5512199997901917e-01" purity="3.8448661565780640e-01" nType="0">
        <Node pos="l" depth="1" NCoef="0" IVar="4" Cut="6.1094273437500000e+04" cType="1" res="2.1651510894298553e-01" rms="4.1616758704185486e-01" purity="2.2007423639297485e-01" nType="0">
          <Node pos="l" depth="2" NCoef="0" IVar="-1" Cut="0.0000000000000000e+00" cType="1" res="-1.7597044352442026e-03" rms="3.4068566560745239e-01" purity="1.6527761518955231e-01" nType="-99"/>
          <Node pos="r" depth="2" NCoef="0" IVar="-1" Cut="0.0000000000000000e+00" cType="1" res="9.6052198205143213e-04" rms="4.0364509820938110e-01" purity="7.8323674201965332e-01" nType="-99"/>
        </Node>
        <Node pos="r" depth="1" NCoef="0" IVar="0" Cut="4.0000000000000000e+00" cType="1" res="7.7798247337341309e-02" rms="3.6464688181877136e-01" purity="8.3342051506042480e-01" nType="0">
          <Node pos="l" depth="2" NCoef="0" IVar="-1" Cut="0.0000000000000000e+00" cType="1" res="1.4733587158843875e-03" rms="3.9579102396965027e-01" purity="7.9652726650238037e-01" nType="-99"/>
          <Node pos="r" depth="2" NCoef="0" IVar="-1" Cut="0.0000000000000000e+00" cType="1" res="4.4705215259455144e-04" rms="2.2436535358428955e-01" purity="9.4871443510055542e-01" nType="-99"/>
        </Node>
      </Node>
    </BinaryTree>
    <BinaryTree type="DecisionTree" boostWeight="1.0000000000000000e+00" itree="422">
      <Node pos="s" depth="0" NCoef="0" IVar="4" Cut="4.1737476562500000e+04" cType="1" res="3.7191471457481384e-01" rms="4.8366105556488037e-01" purity="3.7259376049041748e-01" nType="0">
        <Node pos="l" depth="1" NCoef="0" IVar="0" Cut="3.0000000000000000e+00" cType="1" res="-9.0699214488267899e-03" rms="3.4384256601333618e-01" purity="2.7029690146446228e-01" nType="0">
          <Node pos="l" depth="2" NCoef="0" IVar="-1" Cut="0.0000000000000000e+00" cType="1" res="-1.4377563493326306e-03" rms="3.4418943524360657e-01" purity="2.1032439172267914e-01" nType="-99"/>
          <Node pos="r" depth="2" NCoef="0" IVar="-1" Cut="0.0000000000000000e+00" cType="1" res="2.8866373468190432e-03" rms="3.2447066903114319e-01" purity="8.8108348846435547e-01" nType="-99"/>
        </Node>
        <Node pos="r" depth="1" NCoef="0" IVar="4" Cut="8.0739445312500000e+04" cType="1" res="7.3390311002731323e-01" rms="4.4292750954627991e-01" purity="7.3637127876281738e-01" nType="0">
          <Node pos="l" depth="2" NCoef="0" IVar="-1" Cut="0.0000000000000000e+00" cType="1" res="1.0132736060768366e-03" rms="4.2953515052795410e-01" purity="6.6837680339813232e-01" nType="-99"/>
          <Node pos="r" depth="2" NCoef="0" IVar="-1" Cut="0.0000000000000000e+00" cType="1" res="1.8360409885644913e-03" rms="3.0830654501914978e-01" purity="8.9119708538055420e-01" nType="-99"/>
        </Node>
      </Node>
    </BinaryTree>
    <BinaryTree type="DecisionTree" boostWeight="1.0000000000000000e+00" itree="423">
      <Node pos="s" depth="0" NCoef="0" IVar="1" Cut="2.0208595312500000e+05" cType="1" res="5.4182994365692139e-01" rms="4.9848985671997070e-01" purity="5.4207175970077515e-01" nType="0">
        <Node pos="l" depth="1" NCoef="0" IVar="2" Cut="8.9723593750000000e+04" cType="1" res="7.1624231338500977e-01" rms="4.6542426943778992e-01" purity="7.5260716676712036e-01" nType="0">
          <Node pos="l" depth="2" NCoef="0" IVar="-1" Cut="0.0000000000000000e+00" cType="1" res="2.0077828594367020e-05" rms="2.6558399200439453e-01" purity="9.1793233156204224e-01" nType="-99"/>
          <Node pos="r" depth="2" NCoef="0" IVar="-1" Cut="0.0000000000000000e+00" cType="1" res="-1.9812416285276413e-03" rms="3.3168494701385498e-01" purity="2.1514309942722321e-01" nType="-99"/>
        </Node>
        <Node pos="r" depth="1" NCoef="0" IVar="4" Cut="5.0993410156250000e+04" cType="1" res="4.2079812288284302e-01" rms="4.9407267570495605e-01" purity="4.2117887735366821e-01" nType="0">
          <Node pos="l" depth="2" NCoef="0" IVar="-1" Cut="0.0000000000000000e+00" cType="1" res="2.0589091946021654e-05" rms="3.6216962337493896e-01" purity="3.2223439216613770e-01" nType="-99"/>
          <Node pos="r" depth="2" NCoef="0" IVar="-1" Cut="0.0000000000000000e+00" cType="1" res="7.7656132634729147e-04" rms="3.5525342822074890e-01" purity="8.2926756143569946e-01" nType="-99"/>
        </Node>
      </Node>
    </BinaryTree>
    <BinaryTree type="DecisionTree" boostWeight="1.0000000000000000e+00" itree="424">
      <Node pos="s" depth="0" NCoef="0" IVar="3" Cut="8.9426585937500000e+04" cType="1" res="5.2462351322174072e-01" rms="4.9945023655891418e-01" purity="5.2484279870986938e-01" nType="0">
        <Node pos="l" depth="1" NCoef="0" IVar="3" Cut="8.8493062500000000e+04" cType="1" res="6.1336725950241089e-01" rms="4.8697829246520996e-01" purity="6.1364829540252686e-01" nType="0">
          <Node pos="l" depth="2" NCoef="0" IVar="-1" Cut="0.0000000000000000e+00" cType="1" res="2.0139483967795968e-04" rms="3.4861958026885986e-01" purity="3.9551645517349243e-01" nType="-99"/>
          <Node pos="r" depth="2" NCoef="0" IVar="-1" Cut="0.0000000000000000e+00" cType="1" res="1.8624248696141876e-05" rms="3.9732864499092102e-01" purity="8.3247298002243042e-01" nType="-99"/>
        </Node>
        <Node pos="r" depth="1" NCoef="0" IVar="4" Cut="5.7108402343750000e+04" cType="1" res="4.0281510353088379e-01" rms="4.9072262644767761e-01" purity="4.0320339798927307e-01" nType="0">
          <Node pos="l" depth="2" NCoef="0" IVar="-1" Cut="0.0000000000000000e+00" cType="1" res="3.2522675610380247e-06" rms="3.6063218116760254e-01" purity="3.1761434674263000e-01" nType="-99"/>
          <Node pos="r" depth="2" NCoef="0" IVar="-1" Cut="0.0000000000000000e+00" cType="1" res="1.2198891490697861e-03" rms="3.3294430375099182e-01" purity="8.6185908317565918e-01" nType="-99"/>
        </Node>
      </Node>
    </BinaryTree>
    <BinaryTree type="DecisionTree" boostWeight="1.0000000000000000e+00" itree="425">
      <Node pos="s" depth="0" NCoef="0" IVar="1" Cut="1.9097787500000000e+05" cType="1" res="4.5014777779579163e-01" rms="4.9750855565071106e-01" purity="4.5014777779579163e-01" nType="0">
        <Node pos="l" depth="1" NCoef="0" IVar="-1" Cut="0.0000000000000000e+00" cType="1" res="1.9765901015489362e-05" rms="4.2705276608467102e-01" purity="7.1216881275177002e-01" nType="-99"/>
        <Node pos="r" depth="1" NCoef="0" IVar="4" Cut="4.7332933593750000e+04" cType="1" res="4.0164643526077271e-01" rms="4.9023115634918213e-01" purity="4.0164646506309509e-01" nType="0">
          <Node pos="l" depth="2" NCoef="0" IVar="-1" Cut="0.0000000000000000e+00" cType="1" res="-4.1322550714539830e-06" rms="3.5665163397789001e-01" purity="3.0138912796974182e-01" nType="-99"/>
          <Node pos="r" depth="2" NCoef="0" IVar="-1" Cut="0.0000000000000000e+00" cType="1" res="7.9430901678279042e-04" rms="3.7178355455398560e-01" purity="7.9972726106643677e-01" nType="-99"/>
        </Node>
      </Node>
    </BinaryTree>
    <BinaryTree type="DecisionTree" boostWeight="1.0000000000000000e+00" itree="426">
      <Node pos="s" depth="0" NCoef="0" IVar="5" Cut="1.6016320312500000e+05" cType="1" res="4.7973927855491638e-01" rms="4.9976804852485657e-01" purity="4.7991785407066345e-01" nType="0">
        <Node pos="l" depth="1" NCoef="0" IVar="-1" Cut="0.0000000000000000e+00" cType="1" res="1.1643003745120950e-05" rms="3.6225807666778564e-01" purity="7.7674496173858643e-01" nType="-99"/>
        <Node pos="r" depth="1" NCoef="0" IVar="4" Cut="7.5278507812500000e+04" cType="1" res="4.0102550387382507e-01" rms="4.9033659696578979e-01" purity="4.0125143527984619e-01" nType="0">
          <Node pos="l" depth="2" NCoef="0" IVar="-1" Cut="0.0000000000000000e+00" cType="1" res="1.1289028043393046e-04" rms="3.6597210168838501e-01" purity="3.5196703672409058e-01" nType="-99"/>
          <Node pos="r" depth="2" NCoef="0" IVar="-1" Cut="0.0000000000000000e+00" cType="1" res="1.4595022657886147e-03" rms="3.0498149991035461e-01" purity="8.9235305786132812e-01" nType="-99"/>
        </Node>
      </Node>
    </BinaryTree>
    <BinaryTree type="DecisionTree" boostWeight="1.0000000000000000e+00" itree="427">
      <Node pos="s" depth="0" NCoef="0" IVar="1" Cut="1.9097787500000000e+05" cType="1" res="4.4144058227539062e-01" rms="4.9655896425247192e-01" purity="4.4144058227539062e-01" nType="0">
        <Node pos="l" depth="1" NCoef="0" IVar="-1" Cut="0.0000000000000000e+00" cType="1" res="1.9893954231520183e-05" rms="4.2782616615295410e-01" purity="7.0979350805282593e-01" nType="-99"/>
        <Node pos="r" depth="1" NCoef="0" IVar="4" Cut="7.6867679687500000e+04" cType="1" res="3.9023727178573608e-01" rms="4.8780339956283569e-01" purity="3.9023727178573608e-01" nType="0">
          <Node pos="l" depth="2" NCoef="0" IVar="-1" Cut="0.0000000000000000e+00" cType="1" res="1.0794754052767530e-04" rms="3.6410269141197205e-01" purity="3.4346497058868408e-01" nType="-99"/>
          <Node pos="r" depth="2" NCoef="0" IVar="-1" Cut="0.0000000000000000e+00" cType="1" res="1.5653439331799746e-03" rms="2.9701012372970581e-01" purity="8.9965736865997314e-01" nType="-99"/>
        </Node>
      </Node>
    </BinaryTree>
    <BinaryTree type="DecisionTree" boostWeight="1.0000000000000000e+00" itree="428">
      <Node pos="s" depth="0" NCoef="0" IVar="2" Cut="9.1882625000000000e+04" cType="1" res="5.3232133388519287e-01" rms="4.9912923574447632e-01" purity="5.3249609470367432e-01" nType="0">
        <Node pos="l" depth="1" NCoef="0" IVar="4" Cut="3.6674894531250000e+04" cType="1" res="3.8566130399703979e-01" rms="4.8708233237266541e-01" purity="3.8598385453224182e-01" nType="0">
          <Node pos="l" depth="2" NCoef="0" IVar="-1" Cut="0.0000000000000000e+00" cType="1" res="-6.5117713529616594e-04" rms="3.3335769176483154e-01" purity="2.6131439208984375e-01" nType="-99"/>
          <Node pos="r" depth="2" NCoef="0" IVar="-1" Cut="0.0000000000000000e+00" cType="1" res="1.2442988809198141e-03" rms="4.0751075744628906e-01" purity="7.0865923166275024e-01" nType="-99"/>
        </Node>
        <Node pos="r" depth="1" NCoef="0" IVar="2" Cut="9.2075085937500000e+04" cType="1" res="7.0547145605087280e-01" rms="4.5594978332519531e-01" purity="7.0558017492294312e-01" nType="0">
          <Node pos="l" depth="2" NCoef="0" IVar="-1" Cut="0.0000000000000000e+00" cType="1" res="1.7449514416512102e-05" rms="2.7382531762123108e-01" purity="9.3253284692764282e-01" nType="-99"/>
          <Node pos="r" depth="2" NCoef="0" IVar="-1" Cut="0.0000000000000000e+00" cType="1" res="3.0043229344300926e-04" rms="3.5632222890853882e-01" purity="3.8337320089340210e-01" nType="-99"/>
        </Node>
      </Node>
    </BinaryTree>
    <BinaryTree type="DecisionTree" boostWeight="1.0000000000000000e+00" itree="429">
      <Node pos="s" depth="0" NCoef="0" IVar="4" Cut="7.0931578125000000e+04" cType="1" res="0.0000000000000000e+00" rms="0.0000000000000000e+00" purity="3.8437420129776001e-01" nType="0">
        <Node pos="l" depth="1" NCoef="0" IVar="0" Cut="3.0000000000000000e+00" cType="1" res="5.3773401305079460e-04" rms="3.6020949482917786e-01" purity="3.3130234479904175e-01" nType="0">
          <Node pos="l" depth="2" NCoef="0" IVar="-1" Cut="0.0000000000000000e+00" cType="1" res="-8.0886407522484660e-04" rms="3.6472111940383911e-01" purity="2.5823473930358887e-01" nType="-99"/>
          <Node pos="r" depth="2" NCoef="0" IVar="-1" Cut="0.0000000000000000e+00" cType="1" res="3.1323553994297981e-03" rms="3.0409219861030579e-01" purity="8.9632517099380493e-01" nType="-99"/>
        </Node>
        <Node pos="r" depth="1" NCoef="0" IVar="-1" Cut="0.0000000000000000e+00" cType="1" res="1.5995305730029941e-03" rms="3.0933108925819397e-01" purity="8.8940024375915527e-01" nType="-99"/>
      </Node>
    </BinaryTree>
    <BinaryTree type="DecisionTree" boostWeight="1.0000000000000000e+00" itree="430">
      <Node pos="s" depth="0" NCoef="0" IVar="0" Cut="1.0000000000000000e+00" cType="1" res="2.7967834472656250e-01" rms="4.7547060251235962e-01" purity="5.8824872970581055e-01" nType="0">
        <Node pos="l" depth="1" NCoef="0" IVar="4" Cut="1.9682429687500000e+04" cType="1" res="5.9102886915206909e-01" rms="4.9164393544197083e-01" purity="5.9102886915206909e-01" nType="0">
          <Node pos="l" depth="2" NCoef="0" IVar="-1" Cut="0.0000000000000000e+00" cType="1" res="-8.9401972945779562e-04" rms="2.0847660303115845e-01" purity="4.5314837247133255e-02" nType="-99"/>
          <Node pos="r" depth="2" NCoef="0" IVar="-1" Cut="0.0000000000000000e+00" cType="1" res="1.4586439647246152e-05" rms="4.3580669164657593e-01" purity="7.9047101736068726e-01" nType="-99"/>
        </Node>
        <Node pos="r" depth="1" NCoef="0" IVar="5" Cut="5.6709300000000000e+05" cType="1" res="5.8314603567123413e-01" rms="4.9303826689720154e-01" purity="5.8314603567123413e-01" nType="0">
          <Node pos="l" depth="2" NCoef="0" IVar="-1" Cut="0.0000000000000000e+00" cType="1" res="7.0476165274158120e-04" rms="4.2767667770385742e-01" purity="5.0334084033966064e-01" nType="-99"/>
          <Node pos="r" depth="2" NCoef="0" IVar="-1" Cut="0.0000000000000000e+00" cType="1" res="2.6908356230705976e-03" rms="3.0782315135002136e-01" purity="8.7308758497238159e-01" nType="-99"/>
        </Node>
      </Node>
    </BinaryTree>
    <BinaryTree type="DecisionTree" boostWeight="1.0000000000000000e+00" itree="431">
      <Node pos="s" depth="0" NCoef="0" IVar="0" Cut="1.0000000000000000e+00" cType="1" res="2.5826770067214966e-01" rms="4.6424931287765503e-01" purity="5.8040559291839600e-01" nType="0">
        <Node pos="l" depth="1" NCoef="0" IVar="4" Cut="2.1007773437500000e+04" cType="1" res="5.7048672437667847e-01" rms="4.9500668048858643e-01" purity="5.7048672437667847e-01" nType="0">
          <Node pos="l" depth="2" NCoef="0" IVar="-1" Cut="0.0000000000000000e+00" cType="1" res="-2.2672412451356649e-03" rms="2.0753741264343262e-01" purity="4.5485544949769974e-02" nType="-99"/>
          <Node pos="r" depth="2" NCoef="0" IVar="-1" Cut="0.0000000000000000e+00" cType="1" res="1.4741296581632923e-05" rms="4.3299254775047302e-01" purity="7.9531973600387573e-01" nType="-99"/>
        </Node>
        <Node pos="r" depth="1" NCoef="0" IVar="5" Cut="3.2330059375000000e+05" cType="1" res="5.9705156087875366e-01" rms="4.9049055576324463e-01" purity="5.9705162048339844e-01" nType="0">
          <Node pos="l" depth="2" NCoef="0" IVar="-1" Cut="0.0000000000000000e+00" cType="1" res="1.6712506476324052e-04" rms="4.2381271719932556e-01" purity="3.6585733294487000e-01" nType="-99"/>
          <Node pos="r" depth="2" NCoef="0" IVar="-1" Cut="0.0000000000000000e+00" cType="1" res="1.1635769624263048e-03" rms="3.6862292885780334e-01" purity="7.7887660264968872e-01" nType="-99"/>
        </Node>
      </Node>
    </BinaryTree>
    <BinaryTree type="DecisionTree" boostWeight="1.0000000000000000e+00" itree="432">
      <Node pos="s" depth="0" NCoef="0" IVar="2" Cut="9.1808140625000000e+04" cType="1" res="4.6512782573699951e-01" rms="4.9933493137359619e-01" purity="4.6581348776817322e-01" nType="0">
        <Node pos="l" depth="1" NCoef="0" IVar="0" Cut="1.0000000000000000e+00" cType="1" res="1.0801322758197784e-02" rms="3.5357883572578430e-01" purity="3.7315452098846436e-01" nType="0">
          <Node pos="l" depth="2" NCoef="0" IVar="-1" Cut="0.0000000000000000e+00" cType="1" res="-3.0972715467214584e-03" rms="2.7254289388656616e-01" purity="1.2025062739849091e-01" nType="-99"/>
          <Node pos="r" depth="2" NCoef="0" IVar="-1" Cut="0.0000000000000000e+00" cType="1" res="8.5790944285690784e-04" rms="4.0637591481208801e-01" purity="5.9168159961700439e-01" nType="-99"/>
        </Node>
        <Node pos="r" depth="1" NCoef="0" IVar="2" Cut="9.2002265625000000e+04" cType="1" res="5.9844619035720825e-01" rms="4.9050825834274292e-01" purity="5.9915530681610107e-01" nType="0">
          <Node pos="l" depth="2" NCoef="0" IVar="-1" Cut="0.0000000000000000e+00" cType="1" res="1.7631144146434963e-05" rms="3.6164319515228271e-01" purity="8.7393277883529663e-01" nType="-99"/>
          <Node pos="r" depth="2" NCoef="0" IVar="-1" Cut="0.0000000000000000e+00" cType="1" res="9.0746342903003097e-04" rms="3.7121358513832092e-01" purity="3.9916038513183594e-01" nType="-99"/>
        </Node>
      </Node>
    </BinaryTree>
    <BinaryTree type="DecisionTree" boostWeight="1.0000000000000000e+00" itree="433">
      <Node pos="s" depth="0" NCoef="0" IVar="0" Cut="1.0000000000000000e+00" cType="1" res="2.9879543185234070e-01" rms="4.7102150321006775e-01" purity="6.1087197065353394e-01" nType="0">
        <Node pos="l" depth="1" NCoef="0" IVar="4" Cut="1.9683986328125000e+04" cType="1" res="6.1869060993194580e-01" rms="4.8570829629898071e-01" purity="6.1869060993194580e-01" nType="0">
          <Node pos="l" depth="2" NCoef="0" IVar="-1" Cut="0.0000000000000000e+00" cType="1" res="-6.3734402647241950e-04" rms="2.0834846794605255e-01" purity="4.5171611011028290e-02" nType="-99"/>
          <Node pos="r" depth="2" NCoef="0" IVar="-1" Cut="0.0000000000000000e+00" cType="1" res="1.5591182091156952e-05" rms="4.1577190160751343e-01" purity="8.1041812896728516e-01" nType="-99"/>
        </Node>
        <Node pos="r" depth="1" NCoef="0" IVar="4" Cut="3.9220269531250000e+04" cType="1" res="5.9540009498596191e-01" rms="4.9140927195549011e-01" purity="5.9598439931869507e-01" nType="0">
          <Node pos="l" depth="2" NCoef="0" IVar="-1" Cut="0.0000000000000000e+00" cType="1" res="1.0866860393434763e-03" rms="4.1772273182868958e-01" purity="4.8997536301612854e-01" nType="-99"/>
          <Node pos="r" depth="2" NCoef="0" IVar="-1" Cut="0.0000000000000000e+00" cType="1" res="8.6341588757932186e-04" rms="3.7784898281097412e-01" purity="7.9499179124832153e-01" nType="-99"/>
        </Node>
      </Node>
    </BinaryTree>
    <BinaryTree type="DecisionTree" boostWeight="1.0000000000000000e+00" itree="434">
      <Node pos="s" depth="0" NCoef="0" IVar="3" Cut="9.5950500000000000e+04" cType="1" res="5.3866440057754517e-01" rms="4.9850282073020935e-01" purity="5.3866440057754517e-01" nType="0">
        <Node pos="l" depth="1" NCoef="0" IVar="2" Cut="9.1849609375000000e+04" cType="1" res="4.7046071290969849e-01" rms="4.9912667274475098e-01" purity="4.7046074271202087e-01" nType="0">
          <Node pos="l" depth="2" NCoef="0" IVar="-1" Cut="0.0000000000000000e+00" cType="1" res="3.1387002673000097e-04" rms="3.5138130187988281e-01" purity="3.7120676040649414e-01" nType="-99"/>
          <Node pos="r" depth="2" NCoef="0" IVar="-1" Cut="0.0000000000000000e+00" cType="1" res="1.8004237062996253e-05" rms="4.8695218563079834e-01" purity="6.1494171619415283e-01" nType="-99"/>
        </Node>
        <Node pos="r" depth="1" NCoef="0" IVar="3" Cut="9.6732203125000000e+04" cType="1" res="7.6839113235473633e-01" rms="4.2186042666435242e-01" purity="7.6890110969543457e-01" nType="0">
          <Node pos="l" depth="2" NCoef="0" IVar="-1" Cut="0.0000000000000000e+00" cType="1" res="1.1784672096837312e-05" rms="2.9732623696327209e-01" purity="9.1351765394210815e-01" nType="-99"/>
          <Node pos="r" depth="2" NCoef="0" IVar="-1" Cut="0.0000000000000000e+00" cType="1" res="6.6706608049571514e-04" rms="3.7658256292343140e-01" purity="4.2854443192481995e-01" nType="-99"/>
        </Node>
      </Node>
    </BinaryTree>
    <BinaryTree type="DecisionTree" boostWeight="1.0000000000000000e+00" itree="435">
      <Node pos="s" depth="0" NCoef="0" IVar="0" Cut="1.0000000000000000e+00" cType="1" res="2.8219646215438843e-01" rms="4.7605958580970764e-01" purity="5.9247863292694092e-01" nType="0">
        <Node pos="l" depth="1" NCoef="0" IVar="4" Cut="2.1021443359375000e+04" cType="1" res="5.9625333547592163e-01" rms="4.9064782261848450e-01" purity="5.9625333547592163e-01" nType="0">
          <Node pos="l" depth="2" NCoef="0" IVar="-1" Cut="0.0000000000000000e+00" cType="1" res="-3.7841909215785563e-04" rms="2.1828870475292206e-01" purity="4.9675825983285904e-02" nType="-99"/>
          <Node pos="r" depth="2" NCoef="0" IVar="-1" Cut="0.0000000000000000e+00" cType="1" res="1.4768076653126627e-05" rms="4.2794936895370483e-01" purity="8.1045746803283691e-01" nType="-99"/>
        </Node>
        <Node pos="r" depth="1" NCoef="0" IVar="5" Cut="5.9272925000000000e+05" cType="1" res="5.8494055271148682e-01" rms="4.9315288662910461e-01" purity="5.8555269241333008e-01" nType="0">
          <Node pos="l" depth="2" NCoef="0" IVar="-1" Cut="0.0000000000000000e+00" cType="1" res="7.7864882769063115e-04" rms="4.2348301410675049e-01" purity="5.1455086469650269e-01" nType="-99"/>
          <Node pos="r" depth="2" NCoef="0" IVar="-1" Cut="0.0000000000000000e+00" cType="1" res="3.3753290772438049e-03" rms="3.0555006861686707e-01" purity="8.8019633293151855e-01" nType="-99"/>
        </Node>
      </Node>
    </BinaryTree>
    <BinaryTree type="DecisionTree" boostWeight="1.0000000000000000e+00" itree="436">
      <Node pos="s" depth="0" NCoef="0" IVar="1" Cut="2.0337760937500000e+05" cType="1" res="4.4102495908737183e-01" rms="4.9675753712654114e-01" purity="4.4127109646797180e-01" nType="0">
        <Node pos="l" depth="1" NCoef="0" IVar="2" Cut="8.9719843750000000e+04" cType="1" res="4.6574020385742188e-01" rms="5.1839041709899902e-01" purity="5.3715634346008301e-01" nType="0">
          <Node pos="l" depth="2" NCoef="0" IVar="-1" Cut="0.0000000000000000e+00" cType="1" res="2.0154751837253571e-05" rms="3.9809495210647583e-01" purity="7.8525704145431519e-01" nType="-99"/>
          <Node pos="r" depth="2" NCoef="0" IVar="-1" Cut="0.0000000000000000e+00" cType="1" res="-6.8600574741140008e-04" rms="3.2829457521438599e-01" purity="2.2787229716777802e-01" nType="-99"/>
        </Node>
        <Node pos="r" depth="1" NCoef="0" IVar="4" Cut="7.6838750000000000e+04" cType="1" res="4.0846967697143555e-01" rms="4.9188584089279175e-01" purity="4.0879914164543152e-01" nType="0">
          <Node pos="l" depth="2" NCoef="0" IVar="-1" Cut="0.0000000000000000e+00" cType="1" res="-9.7398398793302476e-05" rms="3.6441883444786072e-01" purity="3.5628342628479004e-01" nType="-99"/>
          <Node pos="r" depth="2" NCoef="0" IVar="-1" Cut="0.0000000000000000e+00" cType="1" res="1.4215242117643356e-03" rms="2.8775998950004578e-01" purity="9.0649127960205078e-01" nType="-99"/>
        </Node>
      </Node>
    </BinaryTree>
    <BinaryTree type="DecisionTree" boostWeight="1.0000000000000000e+00" itree="437">
      <Node pos="s" depth="0" NCoef="0" IVar="3" Cut="9.5950507812500000e+04" cType="1" res="4.8441964387893677e-01" rms="4.9975720047950745e-01" purity="4.8441964387893677e-01" nType="0">
        <Node pos="l" depth="1" NCoef="0" IVar="4" Cut="5.3210050781250000e+04" cType="1" res="3.8062793016433716e-01" rms="4.8554125428199768e-01" purity="3.8062790036201477e-01" nType="0">
          <Node pos="l" depth="2" NCoef="0" IVar="-1" Cut="0.0000000000000000e+00" cType="1" res="-4.2399804806336761e-04" rms="3.4908354282379150e-01" purity="2.9522460699081421e-01" nType="-99"/>
          <Node pos="r" depth="2" NCoef="0" IVar="-1" Cut="0.0000000000000000e+00" cType="1" res="6.8277161335572600e-04" rms="3.6389970779418945e-01" purity="8.1998318433761597e-01" nType="-99"/>
        </Node>
        <Node pos="r" depth="1" NCoef="0" IVar="2" Cut="8.9310039062500000e+04" cType="1" res="7.7340030670166016e-01" rms="4.1863143444061279e-01" purity="7.7340030670166016e-01" nType="0">
          <Node pos="l" depth="2" NCoef="0" IVar="-1" Cut="0.0000000000000000e+00" cType="1" res="1.2052304555254523e-05" rms="3.0446204543113708e-01" purity="9.0914756059646606e-01" nType="-99"/>
          <Node pos="r" depth="2" NCoef="0" IVar="-1" Cut="0.0000000000000000e+00" cType="1" res="6.7594280699267983e-04" rms="3.6506393551826477e-01" purity="4.4272956252098083e-01" nType="-99"/>
        </Node>
      </Node>
    </BinaryTree>
    <BinaryTree type="DecisionTree" boostWeight="1.0000000000000000e+00" itree="438">
      <Node pos="s" depth="0" NCoef="0" IVar="3" Cut="9.5950968750000000e+04" cType="1" res="4.8426520824432373e-01" rms="4.9984452128410339e-01" purity="4.8453295230865479e-01" nType="0">
        <Node pos="l" depth="1" NCoef="0" IVar="4" Cut="6.9508343750000000e+04" cType="1" res="3.8277584314346313e-01" rms="4.8610162734985352e-01" purity="3.8304996490478516e-01" nType="0">
          <Node pos="l" depth="2" NCoef="0" IVar="-1" Cut="0.0000000000000000e+00" cType="1" res="-9.5454022812191397e-05" rms="3.5756364464759827e-01" purity="3.2899698615074158e-01" nType="-99"/>
          <Node pos="r" depth="2" NCoef="0" IVar="-1" Cut="0.0000000000000000e+00" cType="1" res="1.4451524475589395e-03" rms="3.1322500109672546e-01" purity="8.8301694393157959e-01" nType="-99"/>
        </Node>
        <Node pos="r" depth="1" NCoef="0" IVar="3" Cut="9.6732937500000000e+04" cType="1" res="7.7045071125030518e-01" rms="4.2076164484024048e-01" purity="7.7088433504104614e-01" nType="0">
          <Node pos="l" depth="2" NCoef="0" IVar="-1" Cut="0.0000000000000000e+00" cType="1" res="1.1930769687751308e-05" rms="2.9956272244453430e-01" purity="9.1506648063659668e-01" nType="-99"/>
          <Node pos="r" depth="2" NCoef="0" IVar="-1" Cut="0.0000000000000000e+00" cType="1" res="7.5134699000045657e-04" rms="3.7071365118026733e-01" purity="4.3365433812141418e-01" nType="-99"/>
        </Node>
      </Node>
    </BinaryTree>
    <BinaryTree type="DecisionTree" boostWeight="1.0000000000000000e+00" itree="439">
      <Node pos="s" depth="0" NCoef="0" IVar="4" Cut="5.3210050781250000e+04" cType="1" res="3.8325330615043640e-01" rms="4.8617920279502869e-01" purity="3.8325330615043640e-01" nType="0">
        <Node pos="l" depth="1" NCoef="0" IVar="0" Cut="3.0000000000000000e+00" cType="1" res="-3.0944603495299816e-03" rms="3.5552486777305603e-01" purity="3.0464234948158264e-01" nType="0">
          <Node pos="l" depth="2" NCoef="0" IVar="-1" Cut="0.0000000000000000e+00" cType="1" res="-8.7350024841725826e-04" rms="3.5775890946388245e-01" purity="2.3982295393943787e-01" nType="-99"/>
          <Node pos="r" depth="2" NCoef="0" IVar="-1" Cut="0.0000000000000000e+00" cType="1" res="3.1825734768062830e-03" rms="3.2093903422355652e-01" purity="8.8295650482177734e-01" nType="-99"/>
        </Node>
        <Node pos="r" depth="1" NCoef="0" IVar="4" Cut="8.0865734375000000e+04" cType="1" res="8.1734102964401245e-01" rms="3.8638669252395630e-01" purity="8.1734097003936768e-01" nType="0">
          <Node pos="l" depth="2" NCoef="0" IVar="-1" Cut="0.0000000000000000e+00" cType="1" res="1.0253167711198330e-03" rms="4.1492259502410889e-01" purity="7.4661493301391602e-01" nType="-99"/>
          <Node pos="r" depth="2" NCoef="0" IVar="-1" Cut="0.0000000000000000e+00" cType="1" res="1.6651414334774017e-03" rms="2.9480057954788208e-01" purity="9.0143990516662598e-01" nType="-99"/>
        </Node>
      </Node>
    </BinaryTree>
    <BinaryTree type="DecisionTree" boostWeight="1.0000000000000000e+00" itree="440">
      <Node pos="s" depth="0" NCoef="0" IVar="3" Cut="8.9426773437500000e+04" cType="1" res="5.2255970239639282e-01" rms="4.9963343143463135e-01" purity="5.2270221710205078e-01" nType="0">
        <Node pos="l" depth="1" NCoef="0" IVar="3" Cut="8.8493195312500000e+04" cType="1" res="6.1326521635055542e-01" rms="4.8700204491615295e-01" purity="6.1351013183593750e-01" nType="0">
          <Node pos="l" depth="2" NCoef="0" IVar="-1" Cut="0.0000000000000000e+00" cType="1" res="3.1143790693022311e-04" rms="3.5183796286582947e-01" purity="3.9650785923004150e-01" nType="-99"/>
          <Node pos="r" depth="2" NCoef="0" IVar="-1" Cut="0.0000000000000000e+00" cType="1" res="1.8770233509712853e-05" rms="3.9463794231414795e-01" purity="8.3102595806121826e-01" nType="-99"/>
        </Node>
        <Node pos="r" depth="1" NCoef="0" IVar="4" Cut="6.1035363281250000e+04" cType="1" res="3.9631161093711853e-01" rms="4.8913058638572693e-01" purity="3.9631161093711853e-01" nType="0">
          <Node pos="l" depth="2" NCoef="0" IVar="-1" Cut="0.0000000000000000e+00" cType="1" res="7.2747905505821109e-05" rms="3.6279150843620300e-01" purity="3.2474276423454285e-01" nType="-99"/>
          <Node pos="r" depth="2" NCoef="0" IVar="-1" Cut="0.0000000000000000e+00" cType="1" res="1.3300105929374695e-03" rms="3.2456955313682556e-01" purity="8.7121599912643433e-01" nType="-99"/>
        </Node>
      </Node>
    </BinaryTree>
    <BinaryTree type="DecisionTree" boostWeight="1.0000000000000000e+00" itree="441">
      <Node pos="s" depth="0" NCoef="0" IVar="1" Cut="2.0337760937500000e+05" cType="1" res="0.0000000000000000e+00" rms="0.0000000000000000e+00" purity="4.5456635951995850e-01" nType="0">
        <Node pos="l" depth="1" NCoef="0" IVar="2" Cut="8.9715734375000000e+04" cType="1" res="4.7200581431388855e-01" rms="5.2175766229629517e-01" purity="5.3791999816894531e-01" nType="0">
          <Node pos="l" depth="2" NCoef="0" IVar="-1" Cut="0.0000000000000000e+00" cType="1" res="2.0338611648185179e-05" rms="3.9208799600601196e-01" purity="7.9257029294967651e-01" nType="-99"/>
          <Node pos="r" depth="2" NCoef="0" IVar="-1" Cut="0.0000000000000000e+00" cType="1" res="-8.4421184146776795e-04" rms="3.2096448540687561e-01" purity="2.2399529814720154e-01" nType="-99"/>
        </Node>
        <Node pos="r" depth="1" NCoef="0" IVar="4" Cut="4.7302878906250000e+04" cType="1" res="4.2680463194847107e-01" rms="4.9478712677955627e-01" purity="4.2710080742835999e-01" nType="0">
          <Node pos="l" depth="2" NCoef="0" IVar="-1" Cut="0.0000000000000000e+00" cType="1" res="4.1798452002694830e-05" rms="3.6188149452209473e-01" purity="3.2101270556449890e-01" nType="-99"/>
          <Node pos="r" depth="2" NCoef="0" IVar="-1" Cut="0.0000000000000000e+00" cType="1" res="8.3061854820698500e-04" rms="3.6377197504043579e-01" purity="8.1256943941116333e-01" nType="-99"/>
        </Node>
      </Node>
    </BinaryTree>
    <BinaryTree type="DecisionTree" boostWeight="1.0000000000000000e+00" itree="442">
      <Node pos="s" depth="0" NCoef="0" IVar="2" Cut="9.1818820312500000e+04" cType="1" res="5.3109210729598999e-01" rms="4.9925133585929871e-01" purity="5.3131073713302612e-01" nType="0">
        <Node pos="l" depth="1" NCoef="0" IVar="0" Cut="3.0000000000000000e+00" cType="1" res="1.1782856658101082e-02" rms="3.5411372780799866e-01" purity="3.8247948884963989e-01" nType="0">
          <Node pos="l" depth="2" NCoef="0" IVar="-1" Cut="0.0000000000000000e+00" cType="1" res="-2.1399014804046601e-04" rms="3.6050149798393250e-01" purity="3.0159309506416321e-01" nType="-99"/>
          <Node pos="r" depth="2" NCoef="0" IVar="-1" Cut="0.0000000000000000e+00" cType="1" res="3.3224682556465268e-04" rms="2.8657373785972595e-01" purity="9.1077297925949097e-01" nType="-99"/>
        </Node>
        <Node pos="r" depth="1" NCoef="0" IVar="2" Cut="9.2010187500000000e+04" cType="1" res="6.9561505317687988e-01" rms="4.6026551723480225e-01" purity="6.9572466611862183e-01" nType="0">
          <Node pos="l" depth="2" NCoef="0" IVar="-1" Cut="0.0000000000000000e+00" cType="1" res="1.7439771909266710e-05" rms="2.7930366992950439e-01" purity="9.3186300992965698e-01" nType="-99"/>
          <Node pos="r" depth="2" NCoef="0" IVar="-1" Cut="0.0000000000000000e+00" cType="1" res="5.7833018945530057e-04" rms="3.6115860939025879e-01" purity="3.9130932092666626e-01" nType="-99"/>
        </Node>
      </Node>
    </BinaryTree>
    <BinaryTree type="DecisionTree" boostWeight="1.0000000000000000e+00" itree="443">
      <Node pos="s" depth="0" NCoef="0" IVar="2" Cut="9.1849609375000000e+04" cType="1" res="4.6928933262825012e-01" rms="4.9935108423233032e-01" purity="4.6974152326583862e-01" nType="0">
        <Node pos="l" depth="1" NCoef="0" IVar="0" Cut="1.0000000000000000e+00" cType="1" res="1.7585404217243195e-02" rms="3.5770556330680847e-01" purity="3.8725611567497253e-01" nType="0">
          <Node pos="l" depth="2" NCoef="0" IVar="-1" Cut="0.0000000000000000e+00" cType="1" res="-1.6525489045307040e-03" rms="2.9043003916740417e-01" purity="1.3621719181537628e-01" nType="-99"/>
          <Node pos="r" depth="2" NCoef="0" IVar="-1" Cut="0.0000000000000000e+00" cType="1" res="1.4244685880839825e-03" rms="4.0240091085433960e-01" purity="5.9912854433059692e-01" nType="-99"/>
        </Node>
        <Node pos="r" depth="1" NCoef="0" IVar="2" Cut="9.2047015625000000e+04" cType="1" res="5.9810572862625122e-01" rms="4.9028080701828003e-01" purity="5.9833693504333496e-01" nType="0">
          <Node pos="l" depth="2" NCoef="0" IVar="-1" Cut="0.0000000000000000e+00" cType="1" res="1.7694128473522142e-05" rms="3.6617437005043030e-01" purity="8.7145984172821045e-01" nType="-99"/>
          <Node pos="r" depth="2" NCoef="0" IVar="-1" Cut="0.0000000000000000e+00" cType="1" res="4.8793567111715674e-04" rms="3.6771616339683533e-01" purity="3.7943100929260254e-01" nType="-99"/>
        </Node>
      </Node>
    </BinaryTree>
    <BinaryTree type="DecisionTree" boostWeight="1.0000000000000000e+00" itree="444">
      <Node pos="s" depth="0" NCoef="0" IVar="1" Cut="2.0337760937500000e+05" cType="1" res="0.0000000000000000e+00" rms="0.0000000000000000e+00" purity="5.2833014726638794e-01" nType="0">
        <Node pos="l" depth="1" NCoef="0" IVar="2" Cut="8.9670617187500000e+04" cType="1" res="2.8142371773719788e-01" rms="4.6530237793922424e-01" purity="7.2369384765625000e-01" nType="0">
          <Node pos="l" depth="2" NCoef="0" IVar="-1" Cut="0.0000000000000000e+00" cType="1" res="1.4051861398911569e-05" rms="2.8398084640502930e-01" purity="9.0531545877456665e-01" nType="-99"/>
          <Node pos="r" depth="2" NCoef="0" IVar="-1" Cut="0.0000000000000000e+00" cType="1" res="-1.9195517234038562e-04" rms="3.3640739321708679e-01" purity="2.3313516378402710e-01" nType="-99"/>
        </Node>
        <Node pos="r" depth="1" NCoef="0" IVar="4" Cut="7.6855453125000000e+04" cType="1" res="2.3447913195326023e+32" rms="0.0000000000000000e+00" purity="4.1898816823959351e-01" nType="0">
          <Node pos="l" depth="2" NCoef="0" IVar="-1" Cut="0.0000000000000000e+00" cType="1" res="3.1677054357714951e-04" rms="3.6904814839363098e-01" purity="3.6665236949920654e-01" nType="-99"/>
          <Node pos="r" depth="2" NCoef="0" IVar="-1" Cut="0.0000000000000000e+00" cType="1" res="1.4330307021737099e-03" rms="2.9417428374290466e-01" purity="9.0275788307189941e-01" nType="-99"/>
        </Node>
      </Node>
    </BinaryTree>
    <BinaryTree type="DecisionTree" boostWeight="1.0000000000000000e+00" itree="445">
      <Node pos="s" depth="0" NCoef="0" IVar="2" Cut="9.1804632812500000e+04" cType="1" res="4.6687087416648865e-01" rms="4.9896872043609619e-01" purity="4.6748191118240356e-01" nType="0">
        <Node pos="l" depth="1" NCoef="0" IVar="0" Cut="1.0000000000000000e+00" cType="1" res="9.9914558231830597e-03" rms="3.5521844029426575e-01" purity="3.7905088067054749e-01" nType="0">
          <Node pos="l" depth="2" NCoef="0" IVar="-1" Cut="0.0000000000000000e+00" cType="1" res="-2.1982619073241949e-03" rms="2.7816551923751831e-01" purity="1.3209928572177887e-01" nType="-99"/>
          <Node pos="r" depth="2" NCoef="0" IVar="-1" Cut="0.0000000000000000e+00" cType="1" res="1.3234793441370130e-03" rms="4.0591189265251160e-01" purity="5.9094756841659546e-01" nType="-99"/>
        </Node>
        <Node pos="r" depth="1" NCoef="0" IVar="2" Cut="9.1988617187500000e+04" cType="1" res="5.9691089391708374e-01" rms="4.9082100391387939e-01" purity="5.9749579429626465e-01" nType="0">
          <Node pos="l" depth="2" NCoef="0" IVar="-1" Cut="0.0000000000000000e+00" cType="1" res="1.7643731553107500e-05" rms="3.5401025414466858e-01" purity="8.8097739219665527e-01" nType="-99"/>
          <Node pos="r" depth="2" NCoef="0" IVar="-1" Cut="0.0000000000000000e+00" cType="1" res="6.8644294515252113e-04" rms="3.6632332205772400e-01" purity="3.8995116949081421e-01" nType="-99"/>
        </Node>
      </Node>
    </BinaryTree>
    <BinaryTree type="DecisionTree" boostWeight="1.0000000000000000e+00" itree="446">
      <Node pos="s" depth="0" NCoef="0" IVar="4" Cut="7.4138531250000000e+04" cType="1" res="3.7915244698524475e-01" rms="4.8524689674377441e-01" purity="3.7932670116424561e-01" nType="0">
        <Node pos="l" depth="1" NCoef="0" IVar="0" Cut="3.0000000000000000e+00" cType="1" res="-1.0458384640514851e-03" rms="3.6512941122055054e-01" purity="3.2765880227088928e-01" nType="0">
          <Node pos="l" depth="2" NCoef="0" IVar="-1" Cut="0.0000000000000000e+00" cType="1" res="-6.1482074670493603e-04" rms="3.6925300955772400e-01" purity="2.5965487957000732e-01" nType="-99"/>
          <Node pos="r" depth="2" NCoef="0" IVar="-1" Cut="0.0000000000000000e+00" cType="1" res="3.1667759176343679e-03" rms="3.1530338525772095e-01" purity="8.8678377866744995e-01" nType="-99"/>
        </Node>
        <Node pos="r" depth="1" NCoef="0" IVar="-1" Cut="0.0000000000000000e+00" cType="1" res="1.3951240107417107e-03" rms="3.0126577615737915e-01" purity="8.9558535814285278e-01" nType="-99"/>
      </Node>
    </BinaryTree>
    <BinaryTree type="DecisionTree" boostWeight="1.0000000000000000e+00" itree="447">
      <Node pos="s" depth="0" NCoef="0" IVar="4" Cut="5.3605515625000000e+04" cType="1" res="3.8013631105422974e-01" rms="4.8556700348854065e-01" purity="3.8027894496917725e-01" nType="0">
        <Node pos="l" depth="1" NCoef="0" IVar="0" Cut="2.0000000000000000e+00" cType="1" res="-9.0873725712299347e-03" rms="3.4978282451629639e-01" purity="2.9603227972984314e-01" nType="0">
          <Node pos="l" depth="2" NCoef="0" IVar="-1" Cut="0.0000000000000000e+00" cType="1" res="-2.5138740893453360e-03" rms="3.3454990386962891e-01" purity="1.4951302111148834e-01" nType="-99"/>
          <Node pos="r" depth="2" NCoef="0" IVar="-1" Cut="0.0000000000000000e+00" cType="1" res="1.6298539703711867e-03" rms="3.9163625240325928e-01" purity="7.9989302158355713e-01" nType="-99"/>
        </Node>
        <Node pos="r" depth="1" NCoef="0" IVar="4" Cut="8.2155140625000000e+04" cType="1" res="8.2430803775787354e-01" rms="3.8055789470672607e-01" purity="8.2430797815322876e-01" nType="0">
          <Node pos="l" depth="2" NCoef="0" IVar="-1" Cut="0.0000000000000000e+00" cType="1" res="3.3471177448518574e-04" rms="4.0118747949600220e-01" purity="7.6235091686248779e-01" nType="-99"/>
          <Node pos="r" depth="2" NCoef="0" IVar="-1" Cut="0.0000000000000000e+00" cType="1" res="1.4158610720187426e-03" rms="2.9041215777397156e-01" purity="9.0451008081436157e-01" nType="-99"/>
        </Node>
      </Node>
    </BinaryTree>
    <BinaryTree type="DecisionTree" boostWeight="1.0000000000000000e+00" itree="448">
      <Node pos="s" depth="0" NCoef="0" IVar="3" Cut="9.5951070312500000e+04" cType="1" res="4.8005270957946777e-01" rms="4.9972054362297058e-01" purity="4.8017120361328125e-01" nType="0">
        <Node pos="l" depth="1" NCoef="0" IVar="4" Cut="7.6838750000000000e+04" cType="1" res="3.7628528475761414e-01" rms="4.8461419343948364e-01" purity="3.7652659416198730e-01" nType="0">
          <Node pos="l" depth="2" NCoef="0" IVar="-1" Cut="0.0000000000000000e+00" cType="1" res="-3.0931580113247037e-05" rms="3.6112275719642639e-01" purity="3.2817718386650085e-01" nType="-99"/>
          <Node pos="r" depth="2" NCoef="0" IVar="-1" Cut="0.0000000000000000e+00" cType="1" res="1.4432083116844296e-03" rms="2.9753622412681580e-01" purity="8.9930623769760132e-01" nType="-99"/>
        </Node>
        <Node pos="r" depth="1" NCoef="0" IVar="3" Cut="9.6732937500000000e+04" cType="1" res="7.6744854450225830e-01" rms="4.2245858907699585e-01" purity="7.6744854450225830e-01" nType="0">
          <Node pos="l" depth="2" NCoef="0" IVar="-1" Cut="0.0000000000000000e+00" cType="1" res="1.2013839295832440e-05" rms="2.9679834842681885e-01" purity="9.1801851987838745e-01" nType="-99"/>
          <Node pos="r" depth="2" NCoef="0" IVar="-1" Cut="0.0000000000000000e+00" cType="1" res="8.4095320198684931e-04" rms="3.7868508696556091e-01" purity="4.2429515719413757e-01" nType="-99"/>
        </Node>
      </Node>
    </BinaryTree>
    <BinaryTree type="DecisionTree" boostWeight="1.0000000000000000e+00" itree="449">
      <Node pos="s" depth="0" NCoef="0" IVar="1" Cut="1.9808956250000000e+05" cType="1" res="4.9665039777755737e-01" rms="5.0018697977066040e-01" purity="4.9714887142181396e-01" nType="0">
        <Node pos="l" depth="1" NCoef="0" IVar="2" Cut="8.9723593750000000e+04" cType="1" res="6.7551070451736450e-01" rms="4.8094674944877625e-01" purity="7.2453415393829346e-01" nType="0">
          <Node pos="l" depth="2" NCoef="0" IVar="-1" Cut="0.0000000000000000e+00" cType="1" res="2.0545659936033189e-05" rms="2.9192623496055603e-01" purity="9.0052217245101929e-01" nType="-99"/>
          <Node pos="r" depth="2" NCoef="0" IVar="-1" Cut="0.0000000000000000e+00" cType="1" res="-4.2990682413801551e-04" rms="3.1955638527870178e-01" purity="2.2703829407691956e-01" nType="-99"/>
        </Node>
        <Node pos="r" depth="1" NCoef="0" IVar="4" Cut="7.6855453125000000e+04" cType="1" res="4.0677130222320557e-01" rms="4.9155762791633606e-01" purity="4.0738037228584290e-01" nType="0">
          <Node pos="l" depth="2" NCoef="0" IVar="-1" Cut="0.0000000000000000e+00" cType="1" res="2.7812673943117261e-04" rms="3.7031632661819458e-01" purity="3.5680341720581055e-01" nType="-99"/>
          <Node pos="r" depth="2" NCoef="0" IVar="-1" Cut="0.0000000000000000e+00" cType="1" res="1.4436172787100077e-03" rms="2.8845748305320740e-01" purity="9.0672397613525391e-01" nType="-99"/>
        </Node>
      </Node>
    </BinaryTree>
    <BinaryTree type="DecisionTree" boostWeight="1.0000000000000000e+00" itree="450">
      <Node pos="s" depth="0" NCoef="0" IVar="1" Cut="2.0040878125000000e+05" cType="1" res="4.9648961424827576e-01" rms="5.0030511617660522e-01" purity="4.9712476134300232e-01" nType="0">
        <Node pos="l" depth="1" NCoef="0" IVar="2" Cut="8.9632320312500000e+04" cType="1" res="6.4523696899414062e-01" rms="5.0166755914688110e-01" purity="7.0292347669601440e-01" nType="0">
          <Node pos="l" depth="2" NCoef="0" IVar="-1" Cut="0.0000000000000000e+00" cType="1" res="2.0617408154066652e-05" rms="2.9752939939498901e-01" purity="8.9730238914489746e-01" nType="-99"/>
          <Node pos="r" depth="2" NCoef="0" IVar="-1" Cut="0.0000000000000000e+00" cType="1" res="-3.2510576420463622e-04" rms="3.2278415560722351e-01" purity="2.2800272703170776e-01" nType="-99"/>
        </Node>
        <Node pos="r" depth="1" NCoef="0" IVar="4" Cut="7.6855453125000000e+04" cType="1" res="4.0837994217872620e-01" rms="4.9199476838111877e-01" purity="4.0928620100021362e-01" nType="0">
          <Node pos="l" depth="2" NCoef="0" IVar="-1" Cut="0.0000000000000000e+00" cType="1" res="2.6557501405477524e-04" rms="3.6710575222969055e-01" purity="3.6273226141929626e-01" nType="-99"/>
          <Node pos="r" depth="2" NCoef="0" IVar="-1" Cut="0.0000000000000000e+00" cType="1" res="1.7656720010563731e-03" rms="2.8751093149185181e-01" purity="9.0794211626052856e-01" nType="-99"/>
        </Node>
      </Node>
    </BinaryTree>
    <BinaryTree type="DecisionTree" boostWeight="1.0000000000000000e+00" itree="451">
      <Node pos="s" depth="0" NCoef="0" IVar="4" Cut="7.7981625000000000e+04" cType="1" res="3.8320514559745789e-01" rms="4.8616760969161987e-01" purity="3.8320511579513550e-01" nType="0">
        <Node pos="l" depth="1" NCoef="0" IVar="0" Cut="3.0000000000000000e+00" cType="1" res="4.1959210648201406e-04" rms="3.6231264472007751e-01" purity="3.3320555090904236e-01" nType="0">
          <Node pos="l" depth="2" NCoef="0" IVar="-1" Cut="0.0000000000000000e+00" cType="1" res="-5.9251452330499887e-04" rms="3.6641830205917358e-01" purity="2.6515272259712219e-01" nType="-99"/>
          <Node pos="r" depth="2" NCoef="0" IVar="-1" Cut="0.0000000000000000e+00" cType="1" res="3.5910857841372490e-03" rms="3.1186982989311218e-01" purity="8.9058554172515869e-01" nType="-99"/>
        </Node>
        <Node pos="r" depth="1" NCoef="0" IVar="-1" Cut="0.0000000000000000e+00" cType="1" res="1.4404639368876815e-03" rms="2.9045811295509338e-01" purity="9.0496098995208740e-01" nType="-99"/>
      </Node>
    </BinaryTree>
    <BinaryTree type="DecisionTree" boostWeight="1.0000000000000000e+00" itree="452">
      <Node pos="s" depth="0" NCoef="0" IVar="1" Cut="2.0203215625000000e+05" cType="1" res="4.4023424386978149e-01" rms="4.9653390049934387e-01" purity="4.4035211205482483e-01" nType="0">
        <Node pos="l" depth="1" NCoef="0" IVar="2" Cut="8.9633867187500000e+04" cType="1" res="4.7379001975059509e-01" rms="5.2202564477920532e-01" purity="5.4891085624694824e-01" nType="0">
          <Node pos="l" depth="2" NCoef="0" IVar="-1" Cut="0.0000000000000000e+00" cType="1" res="2.0323506760178134e-05" rms="3.8305228948593140e-01" purity="8.0411791801452637e-01" nType="-99"/>
          <Node pos="r" depth="2" NCoef="0" IVar="-1" Cut="0.0000000000000000e+00" cType="1" res="-3.0640824115835130e-04" rms="3.3111482858657837e-01" purity="2.2546008229255676e-01" nType="-99"/>
        </Node>
        <Node pos="r" depth="1" NCoef="0" IVar="4" Cut="7.6855453125000000e+04" cType="1" res="4.0539702773094177e-01" rms="4.9112719297409058e-01" purity="4.0555268526077271e-01" nType="0">
          <Node pos="l" depth="2" NCoef="0" IVar="-1" Cut="0.0000000000000000e+00" cType="1" res="-2.2863649064674973e-05" rms="3.6446219682693481e-01" purity="3.5581400990486145e-01" nType="-99"/>
          <Node pos="r" depth="2" NCoef="0" IVar="-1" Cut="0.0000000000000000e+00" cType="1" res="1.5435717068612576e-03" rms="2.8611585497856140e-01" purity="9.0961140394210815e-01" nType="-99"/>
        </Node>
      </Node>
    </BinaryTree>
    <BinaryTree type="DecisionTree" boostWeight="1.0000000000000000e+00" itree="453">
      <Node pos="s" depth="0" NCoef="0" IVar="0" Cut="1.0000000000000000e+00" cType="1" res="3.1253802776336670e-01" rms="4.7518551349639893e-01" purity="6.1956930160522461e-01" nType="0">
        <Node pos="l" depth="1" NCoef="0" IVar="4" Cut="2.1007773437500000e+04" cType="1" res="6.3382810354232788e-01" rms="4.8175722360610962e-01" purity="6.3382810354232788e-01" nType="0">
          <Node pos="l" depth="2" NCoef="0" IVar="-1" Cut="0.0000000000000000e+00" cType="1" res="-5.3725121542811394e-03" rms="1.9016599655151367e-01" purity="3.7235148251056671e-02" nType="-99"/>
          <Node pos="r" depth="2" NCoef="0" IVar="-1" Cut="0.0000000000000000e+00" cType="1" res="1.5584717402816750e-05" rms="4.0493017435073853e-01" purity="8.3382546901702881e-01" nType="-99"/>
        </Node>
        <Node pos="r" depth="1" NCoef="0" IVar="4" Cut="3.6721250000000000e+04" cType="1" res="5.9078931808471680e-01" rms="4.9211403727531433e-01" purity="5.9120827913284302e-01" nType="0">
          <Node pos="l" depth="2" NCoef="0" IVar="-1" Cut="0.0000000000000000e+00" cType="1" res="5.3902924992144108e-04" rms="4.1087457537651062e-01" purity="4.6807965636253357e-01" nType="-99"/>
          <Node pos="r" depth="2" NCoef="0" IVar="-1" Cut="0.0000000000000000e+00" cType="1" res="8.2705297973006964e-04" rms="3.7794277071952820e-01" purity="7.8812384605407715e-01" nType="-99"/>
        </Node>
      </Node>
    </BinaryTree>
    <BinaryTree type="DecisionTree" boostWeight="1.0000000000000000e+00" itree="454">
      <Node pos="s" depth="0" NCoef="0" IVar="3" Cut="8.9425234375000000e+04" cType="1" res="5.1783508062362671e-01" rms="4.9968180060386658e-01" purity="5.1783508062362671e-01" nType="0">
        <Node pos="l" depth="1" NCoef="0" IVar="3" Cut="8.8491796875000000e+04" cType="1" res="6.1175811290740967e-01" rms="4.8735010623931885e-01" purity="6.1175811290740967e-01" nType="0">
          <Node pos="l" depth="2" NCoef="0" IVar="-1" Cut="0.0000000000000000e+00" cType="1" res="3.9916276000440121e-04" rms="3.6049428582191467e-01" purity="3.9294534921646118e-01" nType="-99"/>
          <Node pos="r" depth="2" NCoef="0" IVar="-1" Cut="0.0000000000000000e+00" cType="1" res="1.8854983864002861e-05" rms="3.9717817306518555e-01" purity="8.3076333999633789e-01" nType="-99"/>
        </Node>
        <Node pos="r" depth="1" NCoef="0" IVar="0" Cut="3.0000000000000000e+00" cType="1" res="1.1757508851587772e-02" rms="3.5933238267898560e-01" purity="3.8673606514930725e-01" nType="0">
          <Node pos="l" depth="2" NCoef="0" IVar="-1" Cut="0.0000000000000000e+00" cType="1" res="-6.2923725636210293e-05" rms="3.6698511242866516e-01" purity="3.0956989526748657e-01" nType="-99"/>
          <Node pos="r" depth="2" NCoef="0" IVar="-1" Cut="0.0000000000000000e+00" cType="1" res="2.8169124852865934e-03" rms="2.8688657283782959e-01" purity="9.0856844186782837e-01" nType="-99"/>
        </Node>
      </Node>
    </BinaryTree>
    <BinaryTree type="DecisionTree" boostWeight="1.0000000000000000e+00" itree="455">
      <Node pos="s" depth="0" NCoef="0" IVar="4" Cut="5.3210050781250000e+04" cType="1" res="3.9339974522590637e-01" rms="4.8850423097610474e-01" purity="3.9339974522590637e-01" nType="0">
        <Node pos="l" depth="1" NCoef="0" IVar="0" Cut="3.0000000000000000e+00" cType="1" res="-2.0665486808866262e-03" rms="3.5318449139595032e-01" purity="3.0152758955955505e-01" nType="0">
          <Node pos="l" depth="2" NCoef="0" IVar="-1" Cut="0.0000000000000000e+00" cType="1" res="-8.4436358883976936e-04" rms="3.5644009709358215e-01" purity="2.3303161561489105e-01" nType="-99"/>
          <Node pos="r" depth="2" NCoef="0" IVar="-1" Cut="0.0000000000000000e+00" cType="1" res="3.2165409065783024e-03" rms="3.0750241875648499e-01" purity="8.9381498098373413e-01" nType="-99"/>
        </Node>
        <Node pos="r" depth="1" NCoef="0" IVar="4" Cut="8.0862609375000000e+04" cType="1" res="8.3948022127151489e-01" rms="3.6708742380142212e-01" purity="8.3948028087615967e-01" nType="0">
          <Node pos="l" depth="2" NCoef="0" IVar="-1" Cut="0.0000000000000000e+00" cType="1" res="4.4218348921276629e-04" rms="3.9163276553153992e-01" purity="7.7254831790924072e-01" nType="-99"/>
          <Node pos="r" depth="2" NCoef="0" IVar="-1" Cut="0.0000000000000000e+00" cType="1" res="1.4883199473842978e-03" rms="2.7907040715217590e-01" purity="9.1429615020751953e-01" nType="-99"/>
        </Node>
      </Node>
    </BinaryTree>
    <BinaryTree type="DecisionTree" boostWeight="1.0000000000000000e+00" itree="456">
      <Node pos="s" depth="0" NCoef="0" IVar="2" Cut="9.1849609375000000e+04" cType="1" res="5.2873182296752930e-01" rms="4.9917379021644592e-01" purity="5.2873182296752930e-01" nType="0">
        <Node pos="l" depth="1" NCoef="0" IVar="0" Cut="1.0000000000000000e+00" cType="1" res="1.7348747700452805e-02" rms="3.6080172657966614e-01" purity="3.8115045428276062e-01" nType="0">
          <Node pos="l" depth="2" NCoef="0" IVar="-1" Cut="0.0000000000000000e+00" cType="1" res="-1.4444923726841807e-03" rms="2.9174655675888062e-01" purity="1.3808485865592957e-01" nType="-99"/>
          <Node pos="r" depth="2" NCoef="0" IVar="-1" Cut="0.0000000000000000e+00" cType="1" res="1.5770135214552283e-03" rms="4.0870031714439392e-01" purity="5.9470367431640625e-01" nType="-99"/>
        </Node>
        <Node pos="r" depth="1" NCoef="0" IVar="2" Cut="9.2047007812500000e+04" cType="1" res="6.9703000783920288e-01" rms="4.5978102087974548e-01" purity="6.9742000102996826e-01" nType="0">
          <Node pos="l" depth="2" NCoef="0" IVar="-1" Cut="0.0000000000000000e+00" cType="1" res="1.7586900867172517e-05" rms="2.7964478731155396e-01" purity="9.2996841669082642e-01" nType="-99"/>
          <Node pos="r" depth="2" NCoef="0" IVar="-1" Cut="0.0000000000000000e+00" cType="1" res="3.9579853182658553e-04" rms="3.6950632929801941e-01" purity="3.7800222635269165e-01" nType="-99"/>
        </Node>
      </Node>
    </BinaryTree>
    <BinaryTree type="DecisionTree" boostWeight="1.0000000000000000e+00" itree="457">
      <Node pos="s" depth="0" NCoef="0" IVar="2" Cut="9.1773078125000000e+04" cType="1" res="4.7434374690055847e-01" rms="4.9934130907058716e-01" purity="4.7434374690055847e-01" nType="0">
        <Node pos="l" depth="1" NCoef="0" IVar="5" Cut="5.1082518750000000e+05" cType="1" res="3.8780024647712708e-01" rms="4.8724859952926636e-01" purity="3.8780024647712708e-01" nType="0">
          <Node pos="l" depth="2" NCoef="0" IVar="-1" Cut="0.0000000000000000e+00" cType="1" res="-7.8874116297811270e-05" rms="3.5973373055458069e-01" purity="3.0024266242980957e-01" nType="-99"/>
          <Node pos="r" depth="2" NCoef="0" IVar="-1" Cut="0.0000000000000000e+00" cType="1" res="2.5687424931675196e-03" rms="3.0971696972846985e-01" purity="8.5564202070236206e-01" nType="-99"/>
        </Node>
        <Node pos="r" depth="1" NCoef="0" IVar="2" Cut="9.1967843750000000e+04" cType="1" res="5.9959578514099121e-01" rms="4.9037930369377136e-01" purity="5.9998685121536255e-01" nType="0">
          <Node pos="l" depth="2" NCoef="0" IVar="-1" Cut="0.0000000000000000e+00" cType="1" res="1.7856937120086513e-05" rms="3.5948553681373596e-01" purity="8.7664252519607544e-01" nType="-99"/>
          <Node pos="r" depth="2" NCoef="0" IVar="-1" Cut="0.0000000000000000e+00" cType="1" res="9.2428515199571848e-04" rms="3.7520396709442139e-01" purity="3.9795261621475220e-01" nType="-99"/>
        </Node>
      </Node>
    </BinaryTree>
    <BinaryTree type="DecisionTree" boostWeight="1.0000000000000000e+00" itree="458">
      <Node pos="s" depth="0" NCoef="0" IVar="3" Cut="9.5950953125000000e+04" cType="1" res="4.8580318689346313e-01" rms="5.0004839897155762e-01" purity="4.8611760139465332e-01" nType="0">
        <Node pos="l" depth="1" NCoef="0" IVar="0" Cut="2.0000000000000000e+00" cType="1" res="1.6101919114589691e-02" rms="3.5481470823287964e-01" purity="3.8793164491653442e-01" nType="0">
          <Node pos="l" depth="2" NCoef="0" IVar="-1" Cut="0.0000000000000000e+00" cType="1" res="-2.5447411462664604e-04" rms="3.5146889090538025e-01" purity="2.2500264644622803e-01" nType="-99"/>
          <Node pos="r" depth="2" NCoef="0" IVar="-1" Cut="0.0000000000000000e+00" cType="1" res="1.8572126282379031e-03" rms="3.5732752084732056e-01" purity="8.3944839239120483e-01" nType="-99"/>
        </Node>
        <Node pos="r" depth="1" NCoef="0" IVar="2" Cut="8.9330445312500000e+04" cType="1" res="7.7319520711898804e-01" rms="4.1876527667045593e-01" purity="7.7344834804534912e-01" nType="0">
          <Node pos="l" depth="2" NCoef="0" IVar="-1" Cut="0.0000000000000000e+00" cType="1" res="1.2311424143263139e-05" rms="3.0725148320198059e-01" purity="9.1209286451339722e-01" nType="-99"/>
          <Node pos="r" depth="2" NCoef="0" IVar="-1" Cut="0.0000000000000000e+00" cType="1" res="2.5897688465192914e-04" rms="3.7124767899513245e-01" purity="3.9870181679725647e-01" nType="-99"/>
        </Node>
      </Node>
    </BinaryTree>
    <BinaryTree type="DecisionTree" boostWeight="1.0000000000000000e+00" itree="459">
      <Node pos="s" depth="0" NCoef="0" IVar="2" Cut="9.1774695312500000e+04" cType="1" res="4.6800491213798523e-01" rms="4.9897527694702148e-01" purity="4.6800491213798523e-01" nType="0">
        <Node pos="l" depth="1" NCoef="0" IVar="4" Cut="3.6824542968750000e+04" cType="1" res="3.8523089885711670e-01" rms="4.8664984107017517e-01" purity="3.8523086905479431e-01" nType="0">
          <Node pos="l" depth="2" NCoef="0" IVar="-1" Cut="0.0000000000000000e+00" cType="1" res="-8.8960526045411825e-04" rms="3.3424517512321472e-01" purity="2.6015704870223999e-01" nType="-99"/>
          <Node pos="r" depth="2" NCoef="0" IVar="-1" Cut="0.0000000000000000e+00" cType="1" res="6.3817162299528718e-04" rms="3.9522889256477356e-01" purity="7.1181833744049072e-01" nType="-99"/>
        </Node>
        <Node pos="r" depth="1" NCoef="0" IVar="2" Cut="9.1973664062500000e+04" cType="1" res="5.8832550048828125e-01" rms="4.9213677644729614e-01" purity="5.8832550048828125e-01" nType="0">
          <Node pos="l" depth="2" NCoef="0" IVar="-1" Cut="0.0000000000000000e+00" cType="1" res="1.7687843865132891e-05" rms="3.6295965313911438e-01" purity="8.7293231487274170e-01" nType="-99"/>
          <Node pos="r" depth="2" NCoef="0" IVar="-1" Cut="0.0000000000000000e+00" cType="1" res="3.6200595786795020e-04" rms="3.5874751210212708e-01" purity="3.7913843989372253e-01" nType="-99"/>
        </Node>
      </Node>
    </BinaryTree>
    <BinaryTree type="DecisionTree" boostWeight="1.0000000000000000e+00" itree="460">
      <Node pos="s" depth="0" NCoef="0" IVar="0" Cut="1.0000000000000000e+00" cType="1" res="2.7925527095794678e-01" rms="4.7694215178489685e-01" purity="5.8896708488464355e-01" nType="0">
        <Node pos="l" depth="1" NCoef="0" IVar="4" Cut="2.1009341796875000e+04" cType="1" res="5.9231024980545044e-01" rms="4.9140495061874390e-01" purity="5.9231024980545044e-01" nType="0">
          <Node pos="l" depth="2" NCoef="0" IVar="-1" Cut="0.0000000000000000e+00" cType="1" res="-2.3298847954720259e-03" rms="2.0649532973766327e-01" purity="4.4612817466259003e-02" nType="-99"/>
          <Node pos="r" depth="2" NCoef="0" IVar="-1" Cut="0.0000000000000000e+00" cType="1" res="1.4820658179814927e-05" rms="4.3049263954162598e-01" purity="8.0709928274154663e-01" nType="-99"/>
        </Node>
        <Node pos="r" depth="1" NCoef="0" IVar="5" Cut="4.7589090625000000e+05" cType="1" res="5.8289051055908203e-01" rms="4.9308130145072937e-01" purity="5.8289051055908203e-01" nType="0">
          <Node pos="l" depth="2" NCoef="0" IVar="-1" Cut="0.0000000000000000e+00" cType="1" res="5.2420049905776978e-04" rms="4.2888751626014709e-01" purity="4.7468182444572449e-01" nType="-99"/>
          <Node pos="r" depth="2" NCoef="0" IVar="-1" Cut="0.0000000000000000e+00" cType="1" res="2.9390486888587475e-03" rms="3.3360511064529419e-01" purity="8.4912002086639404e-01" nType="-99"/>
        </Node>
      </Node>
    </BinaryTree>
    <BinaryTree type="DecisionTree" boostWeight="1.0000000000000000e+00" itree="461">
      <Node pos="s" depth="0" NCoef="0" IVar="1" Cut="2.0244487500000000e+05" cType="1" res="5.2561783790588379e-01" rms="4.9960649013519287e-01" purity="5.2594077587127686e-01" nType="0">
        <Node pos="l" depth="1" NCoef="0" IVar="2" Cut="8.9723593750000000e+04" cType="1" res="2.8236126899719238e-01" rms="4.6424487233161926e-01" purity="7.3192042112350464e-01" nType="0">
          <Node pos="l" depth="2" NCoef="0" IVar="-1" Cut="0.0000000000000000e+00" cType="1" res="1.4307193850982003e-05" rms="2.8153750300407410e-01" purity="9.0540367364883423e-01" nType="-99"/>
          <Node pos="r" depth="2" NCoef="0" IVar="-1" Cut="0.0000000000000000e+00" cType="1" res="-5.2307732403278351e-04" rms="3.3461183309555054e-01" purity="2.1948739886283875e-01" nType="-99"/>
        </Node>
        <Node pos="r" depth="1" NCoef="0" IVar="4" Cut="3.5506140625000000e+04" cType="1" res="4.1383355855941772e-01" rms="4.9293074011802673e-01" purity="4.1433149576187134e-01" nType="0">
          <Node pos="l" depth="2" NCoef="0" IVar="-1" Cut="0.0000000000000000e+00" cType="1" res="-7.3336641071364284e-04" rms="3.4118831157684326e-01" purity="2.8127628564834595e-01" nType="-99"/>
          <Node pos="r" depth="2" NCoef="0" IVar="-1" Cut="0.0000000000000000e+00" cType="1" res="1.2599497567862272e-03" rms="4.0346398949623108e-01" purity="7.0961076021194458e-01" nType="-99"/>
        </Node>
      </Node>
    </BinaryTree>
    <BinaryTree type="DecisionTree" boostWeight="1.0000000000000000e+00" itree="462">
      <Node pos="s" depth="0" NCoef="0" IVar="2" Cut="9.1836718750000000e+04" cType="1" res="4.7411903738975525e-01" rms="4.9932971596717834e-01" purity="4.7411900758743286e-01" nType="0">
        <Node pos="l" depth="1" NCoef="0" IVar="4" Cut="4.6352164062500000e+04" cType="1" res="3.8660892844200134e-01" rms="4.8697274923324585e-01" purity="3.8660889863967896e-01" nType="0">
          <Node pos="l" depth="2" NCoef="0" IVar="-1" Cut="0.0000000000000000e+00" cType="1" res="-6.4499047584831715e-04" rms="3.4576743841171265e-01" purity="2.7970495820045471e-01" nType="-99"/>
          <Node pos="r" depth="2" NCoef="0" IVar="-1" Cut="0.0000000000000000e+00" cType="1" res="6.5227627055719495e-04" rms="3.6611714959144592e-01" purity="7.9818528890609741e-01" nType="-99"/>
        </Node>
        <Node pos="r" depth="1" NCoef="0" IVar="2" Cut="9.2028312500000000e+04" cType="1" res="6.0580259561538696e-01" rms="4.8883816599845886e-01" purity="6.0618376731872559e-01" nType="0">
          <Node pos="l" depth="2" NCoef="0" IVar="-1" Cut="0.0000000000000000e+00" cType="1" res="1.7817048501456156e-05" rms="3.5370424389839172e-01" purity="8.8138943910598755e-01" nType="-99"/>
          <Node pos="r" depth="2" NCoef="0" IVar="-1" Cut="0.0000000000000000e+00" cType="1" res="8.6198135977610946e-04" rms="3.7155985832214355e-01" purity="4.0524032711982727e-01" nType="-99"/>
        </Node>
      </Node>
    </BinaryTree>
    <BinaryTree type="DecisionTree" boostWeight="1.0000000000000000e+00" itree="463">
      <Node pos="s" depth="0" NCoef="0" IVar="3" Cut="8.9426265625000000e+04" cType="1" res="5.1703691482543945e-01" rms="4.9970966577529907e-01" purity="5.1703691482543945e-01" nType="0">
        <Node pos="l" depth="1" NCoef="0" IVar="3" Cut="8.8492664062500000e+04" cType="1" res="6.1115247011184692e-01" rms="4.8748859763145447e-01" purity="6.1115252971649170e-01" nType="0">
          <Node pos="l" depth="2" NCoef="0" IVar="-1" Cut="0.0000000000000000e+00" cType="1" res="2.0900515664834529e-04" rms="3.4845903515815735e-01" purity="3.9237278699874878e-01" nType="-99"/>
          <Node pos="r" depth="2" NCoef="0" IVar="-1" Cut="0.0000000000000000e+00" cType="1" res="1.9012295524589717e-05" rms="3.9670342206954956e-01" purity="8.3244574069976807e-01" nType="-99"/>
        </Node>
        <Node pos="r" depth="1" NCoef="0" IVar="0" Cut="3.0000000000000000e+00" cType="1" res="9.6735516563057899e-03" rms="3.6262306571006775e-01" purity="3.8337436318397522e-01" nType="0">
          <Node pos="l" depth="2" NCoef="0" IVar="-1" Cut="0.0000000000000000e+00" cType="1" res="-1.2698186037596315e-04" rms="3.6995592713356018e-01" purity="3.0832859873771667e-01" nType="-99"/>
          <Node pos="r" depth="2" NCoef="0" IVar="-1" Cut="0.0000000000000000e+00" cType="1" res="2.7981863822788000e-03" rms="2.9249686002731323e-01" purity="9.0502649545669556e-01" nType="-99"/>
        </Node>
      </Node>
    </BinaryTree>
    <BinaryTree type="DecisionTree" boostWeight="1.0000000000000000e+00" itree="464">
      <Node pos="s" depth="0" NCoef="0" IVar="4" Cut="7.4108828125000000e+04" cType="1" res="3.7105670571327209e-01" rms="4.8357677459716797e-01" purity="3.7201538681983948e-01" nType="0">
        <Node pos="l" depth="1" NCoef="0" IVar="5" Cut="6.1129612500000000e+05" cType="1" res="3.2133343815803528e-01" rms="4.6710899472236633e-01" purity="3.2186138629913330e-01" nType="0">
          <Node pos="l" depth="2" NCoef="0" IVar="-1" Cut="0.0000000000000000e+00" cType="1" res="-7.8780122566968203e-04" rms="3.5950428247451782e-01" purity="2.7528661489486694e-01" nType="-99"/>
          <Node pos="r" depth="2" NCoef="0" IVar="-1" Cut="0.0000000000000000e+00" cType="1" res="2.9595475643873215e-03" rms="3.4248179197311401e-01" purity="8.2766830921173096e-01" nType="-99"/>
        </Node>
        <Node pos="r" depth="1" NCoef="0" IVar="-1" Cut="0.0000000000000000e+00" cType="1" res="1.5728111611679196e-03" rms="2.9809057712554932e-01" purity="8.9642971754074097e-01" nType="-99"/>
      </Node>
    </BinaryTree>
    <BinaryTree type="DecisionTree" boostWeight="1.0000000000000000e+00" itree="465">
      <Node pos="s" depth="0" NCoef="0" IVar="5" Cut="1.6601217187500000e+05" cType="1" res="5.9813922643661499e-01" rms="4.9043652415275574e-01" purity="5.9829849004745483e-01" nType="0">
        <Node pos="l" depth="1" NCoef="0" IVar="5" Cut="1.5709578125000000e+05" cType="1" res="8.2612240314483643e-01" rms="3.7900418043136597e-01" purity="8.2612246274948120e-01" nType="0">
          <Node pos="l" depth="2" NCoef="0" IVar="-1" Cut="0.0000000000000000e+00" cType="1" res="-8.5507780313491821e-03" rms="2.1755981445312500e-01" purity="4.7310460358858109e-02" nType="-99"/>
          <Node pos="r" depth="2" NCoef="0" IVar="-1" Cut="0.0000000000000000e+00" cType="1" res="1.2025730029563420e-05" rms="2.3674118518829346e-01" purity="9.2204338312149048e-01" nType="-99"/>
        </Node>
        <Node pos="r" depth="1" NCoef="0" IVar="2" Cut="9.1879203125000000e+04" cType="1" res="5.0105053186416626e-01" rms="5.0022596120834351e-01" purity="5.0127768516540527e-01" nType="0">
          <Node pos="l" depth="2" NCoef="0" IVar="-1" Cut="0.0000000000000000e+00" cType="1" res="3.3038671244867146e-04" rms="3.6208340525627136e-01" purity="4.2169439792633057e-01" nType="-99"/>
          <Node pos="r" depth="2" NCoef="0" IVar="-1" Cut="0.0000000000000000e+00" cType="1" res="1.8057709894492291e-05" rms="4.9171510338783264e-01" purity="6.2116497755050659e-01" nType="-99"/>
        </Node>
      </Node>
    </BinaryTree>
    <BinaryTree type="DecisionTree" boostWeight="1.0000000000000000e+00" itree="466">
      <Node pos="s" depth="0" NCoef="0" IVar="3" Cut="8.9426437500000000e+04" cType="1" res="5.6795394420623779e-01" rms="4.9547287821769714e-01" purity="5.6820124387741089e-01" nType="0">
        <Node pos="l" depth="1" NCoef="0" IVar="3" Cut="8.8492687500000000e+04" cType="1" res="6.7841798067092896e-01" rms="4.6720194816589355e-01" purity="6.7866098880767822e-01" nType="0">
          <Node pos="l" depth="2" NCoef="0" IVar="-1" Cut="0.0000000000000000e+00" cType="1" res="2.7257596957497299e-04" rms="3.5016867518424988e-01" purity="3.9355632662773132e-01" nType="-99"/>
          <Node pos="r" depth="2" NCoef="0" IVar="-1" Cut="0.0000000000000000e+00" cType="1" res="1.8497017663321458e-05" rms="3.5117962956428528e-01" purity="8.7910419702529907e-01" nType="-99"/>
        </Node>
        <Node pos="r" depth="1" NCoef="0" IVar="4" Cut="5.8002761718750000e+04" cType="1" res="3.7149330973625183e-01" rms="4.8331981897354126e-01" purity="3.7174832820892334e-01" nType="0">
          <Node pos="l" depth="2" NCoef="0" IVar="-1" Cut="0.0000000000000000e+00" cType="1" res="-4.3671618914231658e-04" rms="3.5766214132308960e-01" purity="3.0576390027999878e-01" nType="-99"/>
          <Node pos="r" depth="2" NCoef="0" IVar="-1" Cut="0.0000000000000000e+00" cType="1" res="1.3289018534123898e-03" rms="3.6195704340934753e-01" purity="8.3389574289321899e-01" nType="-99"/>
        </Node>
      </Node>
    </BinaryTree>
    <BinaryTree type="DecisionTree" boostWeight="1.0000000000000000e+00" itree="467">
      <Node pos="s" depth="0" NCoef="0" IVar="4" Cut="7.8753968750000000e+04" cType="1" res="3.9366194605827332e-01" rms="4.8880127072334290e-01" purity="3.9389640092849731e-01" nType="0">
        <Node pos="l" depth="1" NCoef="0" IVar="0" Cut="1.0000000000000000e+00" cType="1" res="1.0060559026896954e-02" rms="3.6458399891853333e-01" purity="3.5043630003929138e-01" nType="0">
          <Node pos="l" depth="2" NCoef="0" IVar="-1" Cut="0.0000000000000000e+00" cType="1" res="-2.2032854612916708e-03" rms="3.0416989326477051e-01" purity="1.1276321858167648e-01" nType="-99"/>
          <Node pos="r" depth="2" NCoef="0" IVar="-1" Cut="0.0000000000000000e+00" cType="1" res="1.2510557426139712e-03" rms="4.0913251042366028e-01" purity="5.6339710950851440e-01" nType="-99"/>
        </Node>
        <Node pos="r" depth="1" NCoef="0" IVar="-1" Cut="0.0000000000000000e+00" cType="1" res="1.4412631280720234e-03" rms="2.8512018918991089e-01" purity="9.0922039747238159e-01" nType="-99"/>
      </Node>
    </BinaryTree>
    <BinaryTree type="DecisionTree" boostWeight="1.0000000000000000e+00" itree="468">
      <Node pos="s" depth="0" NCoef="0" IVar="3" Cut="8.9426265625000000e+04" cType="1" res="5.1517927646636963e-01" rms="4.9976953864097595e-01" purity="5.1517927646636963e-01" nType="0">
        <Node pos="l" depth="1" NCoef="0" IVar="3" Cut="8.8492710937500000e+04" cType="1" res="6.0762220621109009e-01" rms="4.8828011751174927e-01" purity="6.0762214660644531e-01" nType="0">
          <Node pos="l" depth="2" NCoef="0" IVar="-1" Cut="0.0000000000000000e+00" cType="1" res="2.5283879949711263e-04" rms="3.5017684102058411e-01" purity="3.8907834887504578e-01" nType="-99"/>
          <Node pos="r" depth="2" NCoef="0" IVar="-1" Cut="0.0000000000000000e+00" cType="1" res="1.9000883185071871e-05" rms="3.9649394154548645e-01" purity="8.2992666959762573e-01" nType="-99"/>
        </Node>
        <Node pos="r" depth="1" NCoef="0" IVar="4" Cut="4.9086253906250000e+04" cType="1" res="3.8459205627441406e-01" rms="4.8675781488418579e-01" purity="3.8484421372413635e-01" nType="0">
          <Node pos="l" depth="2" NCoef="0" IVar="-1" Cut="0.0000000000000000e+00" cType="1" res="-2.8325669700279832e-04" rms="3.5771760344505310e-01" purity="2.9424628615379333e-01" nType="-99"/>
          <Node pos="r" depth="2" NCoef="0" IVar="-1" Cut="0.0000000000000000e+00" cType="1" res="1.2767813168466091e-03" rms="3.7789750099182129e-01" purity="8.0130583047866821e-01" nType="-99"/>
        </Node>
      </Node>
    </BinaryTree>
    <BinaryTree type="DecisionTree" boostWeight="1.0000000000000000e+00" itree="469">
      <Node pos="s" depth="0" NCoef="0" IVar="3" Cut="9.5950960937500000e+04" cType="1" res="5.4422038793563843e-01" rms="4.9804070591926575e-01" purity="5.4422038793563843e-01" nType="0">
        <Node pos="l" depth="1" NCoef="0" IVar="2" Cut="9.1763960937500000e+04" cType="1" res="4.7511455416679382e-01" rms="4.9938032031059265e-01" purity="4.7511455416679382e-01" nType="0">
          <Node pos="l" depth="2" NCoef="0" IVar="-1" Cut="0.0000000000000000e+00" cType="1" res="4.4577434891834855e-04" rms="3.5594329237937927e-01" purity="3.7614583969116211e-01" nType="-99"/>
          <Node pos="r" depth="2" NCoef="0" IVar="-1" Cut="0.0000000000000000e+00" cType="1" res="1.8372411432210356e-05" rms="4.8494127392768860e-01" purity="6.1201816797256470e-01" nType="-99"/>
        </Node>
        <Node pos="r" depth="1" NCoef="0" IVar="2" Cut="8.9294859375000000e+04" cType="1" res="7.7188891172409058e-01" rms="4.1961461305618286e-01" purity="7.7213734388351440e-01" nType="0">
          <Node pos="l" depth="2" NCoef="0" IVar="-1" Cut="0.0000000000000000e+00" cType="1" res="1.2370355761959217e-05" rms="3.0481627583503723e-01" purity="9.1348719596862793e-01" nType="-99"/>
          <Node pos="r" depth="2" NCoef="0" IVar="-1" Cut="0.0000000000000000e+00" cType="1" res="9.9553749896585941e-04" rms="3.9286711812019348e-01" purity="4.1545817255973816e-01" nType="-99"/>
        </Node>
      </Node>
    </BinaryTree>
    <BinaryTree type="DecisionTree" boostWeight="1.0000000000000000e+00" itree="470">
      <Node pos="s" depth="0" NCoef="0" IVar="5" Cut="1.5990256250000000e+05" cType="1" res="5.4385769367218018e-01" rms="4.9807280302047729e-01" purity="5.4385763406753540e-01" nType="0">
        <Node pos="l" depth="1" NCoef="0" IVar="-1" Cut="0.0000000000000000e+00" cType="1" res="1.1945410733460449e-05" rms="3.6558344960212708e-01" purity="7.7407079935073853e-01" nType="-99"/>
        <Node pos="r" depth="1" NCoef="0" IVar="2" Cut="9.1808140625000000e+04" cType="1" res="0.0000000000000000e+00" rms="0.0000000000000000e+00" purity="4.9266764521598816e-01" nType="0">
          <Node pos="l" depth="2" NCoef="0" IVar="-1" Cut="0.0000000000000000e+00" cType="1" res="5.8469519717618823e-04" rms="3.6684009432792664e-01" purity="4.0316218137741089e-01" nType="-99"/>
          <Node pos="r" depth="2" NCoef="0" IVar="-1" Cut="0.0000000000000000e+00" cType="1" res="1.8641410861164331e-05" rms="4.8483121395111084e-01" purity="6.2001711130142212e-01" nType="-99"/>
        </Node>
      </Node>
    </BinaryTree>
    <BinaryTree type="DecisionTree" boostWeight="1.0000000000000000e+00" itree="471">
      <Node pos="s" depth="0" NCoef="0" IVar="1" Cut="2.0203215625000000e+05" cType="1" res="5.8890151977539062e-01" rms="4.9209406971931458e-01" purity="5.8896160125732422e-01" nType="0">
        <Node pos="l" depth="1" NCoef="0" IVar="2" Cut="8.9596296875000000e+04" cType="1" res="2.0246554911136627e-01" rms="4.1120406985282898e-01" purity="8.1237071752548218e-01" nType="0">
          <Node pos="l" depth="2" NCoef="0" IVar="-1" Cut="0.0000000000000000e+00" cType="1" res="1.3395612768363208e-05" rms="2.1901124715805054e-01" purity="9.4627618789672852e-01" nType="-99"/>
          <Node pos="r" depth="2" NCoef="0" IVar="-1" Cut="0.0000000000000000e+00" cType="1" res="1.8779977108351886e-04" rms="3.3171203732490540e-01" purity="2.2970211505889893e-01" nType="-99"/>
        </Node>
        <Node pos="r" depth="1" NCoef="0" IVar="4" Cut="3.7107207031250000e+04" cType="1" res="4.1893932223320007e-01" rms="4.9349254369735718e-01" purity="4.1904506087303162e-01" nType="0">
          <Node pos="l" depth="2" NCoef="0" IVar="-1" Cut="0.0000000000000000e+00" cType="1" res="-1.0794438421726227e-03" rms="3.4069320559501648e-01" purity="2.7770969271659851e-01" nType="-99"/>
          <Node pos="r" depth="2" NCoef="0" IVar="-1" Cut="0.0000000000000000e+00" cType="1" res="4.6199857024475932e-04" rms="3.8491928577423096e-01" purity="7.4074536561965942e-01" nType="-99"/>
        </Node>
      </Node>
    </BinaryTree>
    <BinaryTree type="DecisionTree" boostWeight="1.0000000000000000e+00" itree="472">
      <Node pos="s" depth="0" NCoef="0" IVar="1" Cut="1.9097787500000000e+05" cType="1" res="4.5045000314712524e-01" rms="4.9753874540328979e-01" purity="4.5045000314712524e-01" nType="0">
        <Node pos="l" depth="1" NCoef="0" IVar="4" Cut="2.1139253906250000e+04" cType="1" res="2.9774986207485199e-02" rms="2.2046336531639099e-01" purity="7.0718967914581299e-01" nType="0">
          <Node pos="l" depth="2" NCoef="0" IVar="-1" Cut="0.0000000000000000e+00" cType="1" res="3.4925285726785660e-03" rms="2.7952739596366882e-01" purity="1.2082232534885406e-01" nType="-99"/>
          <Node pos="r" depth="2" NCoef="0" IVar="-1" Cut="0.0000000000000000e+00" cType="1" res="2.0515604774118401e-05" rms="3.7071585655212402e-01" purity="8.6788880825042725e-01" nType="-99"/>
        </Node>
        <Node pos="r" depth="1" NCoef="0" IVar="4" Cut="3.9913238281250000e+04" cType="1" res="4.0184113383293152e-01" rms="4.9027016758918762e-01" purity="4.0184113383293152e-01" nType="0">
          <Node pos="l" depth="2" NCoef="0" IVar="-1" Cut="0.0000000000000000e+00" cType="1" res="-3.4610851434990764e-04" rms="3.4525886178016663e-01" purity="2.8478917479515076e-01" nType="-99"/>
          <Node pos="r" depth="2" NCoef="0" IVar="-1" Cut="0.0000000000000000e+00" cType="1" res="1.2451051734387875e-03" rms="3.9387139678001404e-01" purity="7.4478882551193237e-01" nType="-99"/>
        </Node>
      </Node>
    </BinaryTree>
    <BinaryTree type="DecisionTree" boostWeight="1.0000000000000000e+00" itree="473">
      <Node pos="s" depth="0" NCoef="0" IVar="4" Cut="6.4850910156250000e+04" cType="1" res="3.7709742784500122e-01" rms="4.8472741246223450e-01" purity="3.7737715244293213e-01" nType="0">
        <Node pos="l" depth="1" NCoef="0" IVar="0" Cut="1.0000000000000000e+00" cType="1" res="-2.3391041904687881e-03" rms="3.6061900854110718e-01" purity="3.1964498758316040e-01" nType="0">
          <Node pos="l" depth="2" NCoef="0" IVar="-1" Cut="0.0000000000000000e+00" cType="1" res="-3.9325361140072346e-03" rms="2.8343287110328674e-01" purity="9.6635393798351288e-02" nType="-99"/>
          <Node pos="r" depth="2" NCoef="0" IVar="-1" Cut="0.0000000000000000e+00" cType="1" res="1.1232212418690324e-03" rms="4.1893982887268066e-01" purity="5.3147274255752563e-01" nType="-99"/>
        </Node>
        <Node pos="r" depth="1" NCoef="0" IVar="4" Cut="8.1539609375000000e+04" cType="1" res="8.5522937774658203e-01" rms="3.5273885726928711e-01" purity="8.5783684253692627e-01" nType="0">
          <Node pos="l" depth="2" NCoef="0" IVar="-1" Cut="0.0000000000000000e+00" cType="1" res="1.0150833986699581e-03" rms="3.8493412733078003e-01" purity="8.0479270219802856e-01" nType="-99"/>
          <Node pos="r" depth="2" NCoef="0" IVar="-1" Cut="0.0000000000000000e+00" cType="1" res="1.5238990308716893e-03" rms="3.1057241559028625e-01" purity="8.9008623361587524e-01" nType="-99"/>
        </Node>
      </Node>
    </BinaryTree>
    <BinaryTree type="DecisionTree" boostWeight="1.0000000000000000e+00" itree="474">
      <Node pos="s" depth="0" NCoef="0" IVar="1" Cut="2.0102762500000000e+05" cType="1" res="4.4548922777175903e-01" rms="4.9719840288162231e-01" purity="4.4576019048690796e-01" nType="0">
        <Node pos="l" depth="1" NCoef="0" IVar="2" Cut="8.9610320312500000e+04" cType="1" res="4.8256859183311462e-01" rms="5.2454560995101929e-01" purity="5.5891752243041992e-01" nType="0">
          <Node pos="l" depth="2" NCoef="0" IVar="-1" Cut="0.0000000000000000e+00" cType="1" res="2.1163757992326282e-05" rms="3.7512564659118652e-01" purity="8.1422525644302368e-01" nType="-99"/>
          <Node pos="r" depth="2" NCoef="0" IVar="-1" Cut="0.0000000000000000e+00" cType="1" res="-2.3029113435768522e-05" rms="3.3379122614860535e-01" purity="2.2328323125839233e-01" nType="-99"/>
        </Node>
        <Node pos="r" depth="1" NCoef="0" IVar="4" Cut="4.7302878906250000e+04" cType="1" res="4.1076794266700745e-01" rms="4.9220901727676392e-01" purity="4.1112178564071655e-01" nType="0">
          <Node pos="l" depth="2" NCoef="0" IVar="-1" Cut="0.0000000000000000e+00" cType="1" res="-1.4763990475330502e-04" rms="3.5728979110717773e-01" purity="3.1408214569091797e-01" nType="-99"/>
          <Node pos="r" depth="2" NCoef="0" IVar="-1" Cut="0.0000000000000000e+00" cType="1" res="1.2254549656063318e-03" rms="3.7690100073814392e-01" purity="7.9362064599990845e-01" nType="-99"/>
        </Node>
      </Node>
    </BinaryTree>
    <BinaryTree type="DecisionTree" boostWeight="1.0000000000000000e+00" itree="475">
      <Node pos="s" depth="0" NCoef="0" IVar="3" Cut="9.5951070312500000e+04" cType="1" res="4.9218708276748657e-01" rms="4.9993896484375000e-01" purity="4.9218711256980896e-01" nType="0">
        <Node pos="l" depth="1" NCoef="0" IVar="4" Cut="5.3575156250000000e+04" cType="1" res="3.9332225918769836e-01" rms="4.8848730325698853e-01" purity="3.9332225918769836e-01" nType="0">
          <Node pos="l" depth="2" NCoef="0" IVar="-1" Cut="0.0000000000000000e+00" cType="1" res="-1.4900611131452024e-04" rms="3.4906771779060364e-01" purity="3.0519983172416687e-01" nType="-99"/>
          <Node pos="r" depth="2" NCoef="0" IVar="-1" Cut="0.0000000000000000e+00" cType="1" res="4.9633288290351629e-04" rms="3.4631395339965820e-01" purity="8.3906978368759155e-01" nType="-99"/>
        </Node>
        <Node pos="r" depth="1" NCoef="0" IVar="2" Cut="8.9294859375000000e+04" cType="1" res="7.7246469259262085e-01" rms="4.1924095153808594e-01" purity="7.7271211147308350e-01" nType="0">
          <Node pos="l" depth="2" NCoef="0" IVar="-1" Cut="0.0000000000000000e+00" cType="1" res="1.2402274478517938e-05" rms="3.0620044469833374e-01" purity="9.1245895624160767e-01" nType="-99"/>
          <Node pos="r" depth="2" NCoef="0" IVar="-1" Cut="0.0000000000000000e+00" cType="1" res="2.3847588454373181e-04" rms="3.5291233658790588e-01" purity="4.3067184090614319e-01" nType="-99"/>
        </Node>
      </Node>
    </BinaryTree>
    <BinaryTree type="DecisionTree" boostWeight="1.0000000000000000e+00" itree="476">
      <Node pos="s" depth="0" NCoef="0" IVar="5" Cut="1.7155285937500000e+05" cType="1" res="5.2800768613815308e-01" rms="4.9939388036727905e-01" purity="5.2818644046783447e-01" nType="0">
        <Node pos="l" depth="1" NCoef="0" IVar="2" Cut="8.9927679687500000e+04" cType="1" res="7.3644506931304932e-01" rms="4.4056069850921631e-01" purity="7.3644512891769409e-01" nType="0">
          <Node pos="l" depth="2" NCoef="0" IVar="-1" Cut="0.0000000000000000e+00" cType="1" res="1.4415091754926834e-05" rms="2.6359507441520691e-01" purity="9.0124231576919556e-01" nType="-99"/>
          <Node pos="r" depth="2" NCoef="0" IVar="-1" Cut="0.0000000000000000e+00" cType="1" res="-2.7597362641245127e-03" rms="2.4522124230861664e-01" purity="7.9160489141941071e-02" nType="-99"/>
        </Node>
        <Node pos="r" depth="1" NCoef="0" IVar="4" Cut="3.7094507812500000e+04" cType="1" res="4.2972749471664429e-01" rms="4.9530264735221863e-01" purity="4.2999044060707092e-01" nType="0">
          <Node pos="l" depth="2" NCoef="0" IVar="-1" Cut="0.0000000000000000e+00" cType="1" res="-6.1380706029012799e-04" rms="3.5260343551635742e-01" purity="2.9271757602691650e-01" nType="-99"/>
          <Node pos="r" depth="2" NCoef="0" IVar="-1" Cut="0.0000000000000000e+00" cType="1" res="1.2894961982965469e-03" rms="3.9304187893867493e-01" purity="7.3680895566940308e-01" nType="-99"/>
        </Node>
      </Node>
    </BinaryTree>
    <BinaryTree type="DecisionTree" boostWeight="1.0000000000000000e+00" itree="477">
      <Node pos="s" depth="0" NCoef="0" IVar="4" Cut="5.1695871093750000e+04" cType="1" res="3.8368946313858032e-01" rms="4.8628371953964233e-01" purity="3.8368946313858032e-01" nType="0">
        <Node pos="l" depth="1" NCoef="0" IVar="0" Cut="3.0000000000000000e+00" cType="1" res="-6.2466566450893879e-03" rms="3.5438761115074158e-01" purity="2.9428827762603760e-01" nType="0">
          <Node pos="l" depth="2" NCoef="0" IVar="-1" Cut="0.0000000000000000e+00" cType="1" res="-1.1823434615507722e-03" rms="3.5703593492507935e-01" purity="2.2709108889102936e-01" nType="-99"/>
          <Node pos="r" depth="2" NCoef="0" IVar="-1" Cut="0.0000000000000000e+00" cType="1" res="2.6905741542577744e-03" rms="3.1779175996780396e-01" purity="8.8520759344100952e-01" nType="-99"/>
        </Node>
        <Node pos="r" depth="1" NCoef="0" IVar="4" Cut="8.1585664062500000e+04" cType="1" res="8.1388604640960693e-01" rms="3.8919863104820251e-01" purity="8.1388604640960693e-01" nType="0">
          <Node pos="l" depth="2" NCoef="0" IVar="-1" Cut="0.0000000000000000e+00" cType="1" res="3.5356605076231062e-04" rms="4.1258531808853149e-01" purity="7.4393981695175171e-01" nType="-99"/>
          <Node pos="r" depth="2" NCoef="0" IVar="-1" Cut="0.0000000000000000e+00" cType="1" res="1.2938135769218206e-03" rms="2.9474040865898132e-01" purity="9.0306705236434937e-01" nType="-99"/>
        </Node>
      </Node>
    </BinaryTree>
    <BinaryTree type="DecisionTree" boostWeight="1.0000000000000000e+00" itree="478">
      <Node pos="s" depth="0" NCoef="0" IVar="5" Cut="1.6601217187500000e+05" cType="1" res="4.8718890547752380e-01" rms="4.9983584880828857e-01" purity="4.8718890547752380e-01" nType="0">
        <Node pos="l" depth="1" NCoef="0" IVar="5" Cut="1.5709578125000000e+05" cType="1" res="7.0735079050064087e-01" rms="4.5497873425483704e-01" purity="7.0735079050064087e-01" nType="0">
          <Node pos="l" depth="2" NCoef="0" IVar="-1" Cut="0.0000000000000000e+00" cType="1" res="-7.5445161201059818e-03" rms="2.2185595333576202e-01" purity="5.9500321745872498e-02" nType="-99"/>
          <Node pos="r" depth="2" NCoef="0" IVar="-1" Cut="0.0000000000000000e+00" cType="1" res="1.2249612154846545e-05" rms="3.1179431080818176e-01" purity="8.5416579246520996e-01" nType="-99"/>
        </Node>
        <Node pos="r" depth="1" NCoef="0" IVar="4" Cut="7.8753968750000000e+04" cType="1" res="4.2202329635620117e-01" rms="4.9388220906257629e-01" purity="4.2202326655387878e-01" nType="0">
          <Node pos="l" depth="2" NCoef="0" IVar="-1" Cut="0.0000000000000000e+00" cType="1" res="3.3452475327067077e-04" rms="3.7129566073417664e-01" purity="3.7470406293869019e-01" nType="-99"/>
          <Node pos="r" depth="2" NCoef="0" IVar="-1" Cut="0.0000000000000000e+00" cType="1" res="1.3631278416141868e-03" rms="2.8408920764923096e-01" purity="9.0843904018402100e-01" nType="-99"/>
        </Node>
      </Node>
    </BinaryTree>
    <BinaryTree type="DecisionTree" boostWeight="1.0000000000000000e+00" itree="479">
      <Node pos="s" depth="0" NCoef="0" IVar="3" Cut="8.9426531250000000e+04" cType="1" res="5.1202267408370972e-01" rms="5.0009709596633911e-01" purity="5.1226437091827393e-01" nType="0">
        <Node pos="l" depth="1" NCoef="0" IVar="3" Cut="8.8493015625000000e+04" cType="1" res="6.0663735866546631e-01" rms="4.8849612474441528e-01" purity="6.0663741827011108e-01" nType="0">
          <Node pos="l" depth="2" NCoef="0" IVar="-1" Cut="0.0000000000000000e+00" cType="1" res="4.4118426740169525e-04" rms="3.5481640696525574e-01" purity="3.7773224711418152e-01" nType="-99"/>
          <Node pos="r" depth="2" NCoef="0" IVar="-1" Cut="0.0000000000000000e+00" cType="1" res="1.9131814042339101e-05" rms="4.0253874659538269e-01" purity="8.3002251386642456e-01" nType="-99"/>
        </Node>
        <Node pos="r" depth="1" NCoef="0" IVar="0" Cut="3.0000000000000000e+00" cType="1" res="1.1228309944272041e-02" rms="3.6460697650909424e-01" purity="3.7809783220291138e-01" nType="0">
          <Node pos="l" depth="2" NCoef="0" IVar="-1" Cut="0.0000000000000000e+00" cType="1" res="-7.7303531043071416e-07" rms="3.7243995070457458e-01" purity="3.0326774716377258e-01" nType="-99"/>
          <Node pos="r" depth="2" NCoef="0" IVar="-1" Cut="0.0000000000000000e+00" cType="1" res="3.1540873460471630e-03" rms="2.9184043407440186e-01" purity="9.0457093715667725e-01" nType="-99"/>
        </Node>
      </Node>
    </BinaryTree>
    <BinaryTree type="DecisionTree" boostWeight="1.0000000000000000e+00" itree="480">
      <Node pos="s" depth="0" NCoef="0" IVar="2" Cut="9.1845796875000000e+04" cType="1" res="4.6875986456871033e-01" rms="4.9902310967445374e-01" purity="4.6875986456871033e-01" nType="0">
        <Node pos="l" depth="1" NCoef="0" IVar="5" Cut="5.7079281250000000e+05" cType="1" res="3.8301533460617065e-01" rms="4.8612198233604431e-01" purity="3.8301530480384827e-01" nType="0">
          <Node pos="l" depth="2" NCoef="0" IVar="-1" Cut="0.0000000000000000e+00" cType="1" res="-8.7729087681509554e-05" rms="3.5862290859222412e-01" purity="3.1725323200225830e-01" nType="-99"/>
          <Node pos="r" depth="2" NCoef="0" IVar="-1" Cut="0.0000000000000000e+00" cType="1" res="2.8000161983072758e-03" rms="3.0603355169296265e-01" purity="8.6179727315902710e-01" nType="-99"/>
        </Node>
        <Node pos="r" depth="1" NCoef="0" IVar="2" Cut="9.2035859375000000e+04" cType="1" res="5.9792906045913696e-01" rms="4.9031612277030945e-01" purity="5.9792906045913696e-01" nType="0">
          <Node pos="l" depth="2" NCoef="0" IVar="-1" Cut="0.0000000000000000e+00" cType="1" res="1.8150873074773699e-05" rms="3.5428935289382935e-01" purity="8.8058537244796753e-01" nType="-99"/>
          <Node pos="r" depth="2" NCoef="0" IVar="-1" Cut="0.0000000000000000e+00" cType="1" res="4.9014558317139745e-04" rms="3.6761215329170227e-01" purity="3.8354805111885071e-01" nType="-99"/>
        </Node>
      </Node>
    </BinaryTree>
    <BinaryTree type="DecisionTree" boostWeight="1.0000000000000000e+00" itree="481">
      <Node pos="s" depth="0" NCoef="0" IVar="4" Cut="8.2745929687500000e+04" cType="1" res="3.8716965913772583e-01" rms="4.8710298538208008e-01" purity="3.8716968894004822e-01" nType="0">
        <Node pos="l" depth="1" NCoef="0" IVar="0" Cut="2.0000000000000000e+00" cType="1" res="1.5309393638744950e-03" rms="3.5988044738769531e-01" purity="3.4486255049705505e-01" nType="0">
          <Node pos="l" depth="2" NCoef="0" IVar="-1" Cut="0.0000000000000000e+00" cType="1" res="-1.0532889282330871e-03" rms="3.5180795192718506e-01" purity="1.8848539888858795e-01" nType="-99"/>
          <Node pos="r" depth="2" NCoef="0" IVar="-1" Cut="0.0000000000000000e+00" cType="1" res="1.5547588700428605e-03" rms="3.7845689058303833e-01" purity="8.1523770093917847e-01" nType="-99"/>
        </Node>
        <Node pos="r" depth="1" NCoef="0" IVar="-1" Cut="0.0000000000000000e+00" cType="1" res="1.6946033574640751e-03" rms="2.7583357691764832e-01" purity="9.1697543859481812e-01" nType="-99"/>
      </Node>
    </BinaryTree>
    <BinaryTree type="DecisionTree" boostWeight="1.0000000000000000e+00" itree="482">
      <Node pos="s" depth="0" NCoef="0" IVar="1" Cut="1.9097787500000000e+05" cType="1" res="4.5072129368782043e-01" rms="4.9756568670272827e-01" purity="4.5072129368782043e-01" nType="0">
        <Node pos="l" depth="1" NCoef="0" IVar="4" Cut="2.0876916015625000e+04" cType="1" res="3.5264760255813599e-02" rms="2.1386449038982391e-01" purity="7.0252364873886108e-01" nType="0">
          <Node pos="l" depth="2" NCoef="0" IVar="-1" Cut="0.0000000000000000e+00" cType="1" res="-2.3251806851476431e-04" rms="2.4107502400875092e-01" purity="1.0704427212476730e-01" nType="-99"/>
          <Node pos="r" depth="2" NCoef="0" IVar="-1" Cut="0.0000000000000000e+00" cType="1" res="2.0553565263981000e-05" rms="3.7328052520751953e-01" purity="8.6760729551315308e-01" nType="-99"/>
        </Node>
        <Node pos="r" depth="1" NCoef="0" IVar="4" Cut="5.9148351562500000e+04" cType="1" res="4.0379315614700317e-01" rms="4.9065694212913513e-01" purity="4.0379318594932556e-01" nType="0">
          <Node pos="l" depth="2" NCoef="0" IVar="-1" Cut="0.0000000000000000e+00" cType="1" res="3.3177697332575917e-04" rms="3.6601653695106506e-01" purity="3.3092004060745239e-01" nType="-99"/>
          <Node pos="r" depth="2" NCoef="0" IVar="-1" Cut="0.0000000000000000e+00" cType="1" res="1.1590633075684309e-03" rms="3.3817130327224731e-01" purity="8.5596323013305664e-01" nType="-99"/>
        </Node>
      </Node>
    </BinaryTree>
    <BinaryTree type="DecisionTree" boostWeight="1.0000000000000000e+00" itree="483">
      <Node pos="s" depth="0" NCoef="0" IVar="3" Cut="9.5950500000000000e+04" cType="1" res="4.8437419533729553e-01" rms="4.9975576996803284e-01" purity="4.8437419533729553e-01" nType="0">
        <Node pos="l" depth="1" NCoef="0" IVar="0" Cut="4.0000000000000000e+00" cType="1" res="1.4647756703197956e-02" rms="3.5908463597297668e-01" purity="3.8251984119415283e-01" nType="0">
          <Node pos="l" depth="2" NCoef="0" IVar="-1" Cut="0.0000000000000000e+00" cType="1" res="2.9381210333667696e-04" rms="3.6489948630332947e-01" purity="3.4359273314476013e-01" nType="-99"/>
          <Node pos="r" depth="2" NCoef="0" IVar="-1" Cut="0.0000000000000000e+00" cType="1" res="3.7006675847806036e-04" rms="2.2578814625740051e-01" purity="9.4799906015396118e-01" nType="-99"/>
        </Node>
        <Node pos="r" depth="1" NCoef="0" IVar="3" Cut="9.6732148437500000e+04" cType="1" res="7.7190756797790527e-01" rms="4.1960251331329346e-01" purity="7.7190756797790527e-01" nType="0">
          <Node pos="l" depth="2" NCoef="0" IVar="-1" Cut="0.0000000000000000e+00" cType="1" res="1.2327148397162091e-05" rms="2.9982155561447144e-01" purity="9.1613340377807617e-01" nType="-99"/>
          <Node pos="r" depth="2" NCoef="0" IVar="-1" Cut="0.0000000000000000e+00" cType="1" res="1.0873706778511405e-03" rms="3.7919801473617554e-01" purity="4.3612691760063171e-01" nType="-99"/>
        </Node>
      </Node>
    </BinaryTree>
    <BinaryTree type="DecisionTree" boostWeight="1.0000000000000000e+00" itree="484">
      <Node pos="s" depth="0" NCoef="0" IVar="3" Cut="8.9426531250000000e+04" cType="1" res="5.1621365547180176e-01" rms="4.9994799494743347e-01" purity="5.1642447710037231e-01" nType="0">
        <Node pos="l" depth="1" NCoef="0" IVar="3" Cut="8.8492914062500000e+04" cType="1" res="0.0000000000000000e+00" rms="7.6375213998080000e+13" purity="6.0939025878906250e-01" nType="0">
          <Node pos="l" depth="2" NCoef="0" IVar="-1" Cut="0.0000000000000000e+00" cType="1" res="2.5739570264704525e-04" rms="3.5047775506973267e-01" purity="3.9161598682403564e-01" nType="-99"/>
          <Node pos="r" depth="2" NCoef="0" IVar="-1" Cut="0.0000000000000000e+00" cType="1" res="1.9094435629085638e-05" rms="3.9861452579498291e-01" purity="8.3114707469940186e-01" nType="-99"/>
        </Node>
        <Node pos="r" depth="1" NCoef="0" IVar="3" Cut="9.8861007812500000e+04" cType="1" res="3.8642415404319763e-01" rms="4.8719504475593567e-01" purity="3.8691002130508423e-01" nType="0">
          <Node pos="l" depth="2" NCoef="0" IVar="-1" Cut="0.0000000000000000e+00" cType="1" res="1.2059154687449336e-04" rms="3.5578772425651550e-01" purity="3.7324085831642151e-01" nType="-99"/>
          <Node pos="r" depth="2" NCoef="0" IVar="-1" Cut="0.0000000000000000e+00" cType="1" res="1.8420884152874351e-03" rms="3.9917829632759094e-01" purity="5.4522061347961426e-01" nType="-99"/>
        </Node>
      </Node>
    </BinaryTree>
    <BinaryTree type="DecisionTree" boostWeight="1.0000000000000000e+00" itree="485">
      <Node pos="s" depth="0" NCoef="0" IVar="1" Cut="2.0203215625000000e+05" cType="1" res="5.8208537101745605e-01" rms="4.9332076311111450e-01" purity="5.8218872547149658e-01" nType="0">
        <Node pos="l" depth="1" NCoef="0" IVar="2" Cut="8.9596296875000000e+04" cType="1" res="2.9039153456687927e-01" rms="4.6619483828544617e-01" purity="7.3593634366989136e-01" nType="0">
          <Node pos="l" depth="2" NCoef="0" IVar="-1" Cut="0.0000000000000000e+00" cType="1" res="1.4488593478745315e-05" rms="2.7189961075782776e-01" purity="9.1483670473098755e-01" nType="-99"/>
          <Node pos="r" depth="2" NCoef="0" IVar="-1" Cut="0.0000000000000000e+00" cType="1" res="-4.4773722765967250e-04" rms="3.2104760408401489e-01" purity="2.2800354659557343e-01" nType="-99"/>
        </Node>
        <Node pos="r" depth="1" NCoef="0" IVar="2" Cut="9.1808140625000000e+04" cType="1" res="5.1344805955886841e-01" rms="4.9996864795684814e-01" purity="5.1359754800796509e-01" nType="0">
          <Node pos="l" depth="2" NCoef="0" IVar="-1" Cut="0.0000000000000000e+00" cType="1" res="2.8389459475874901e-04" rms="3.5496827960014343e-01" purity="4.3529450893402100e-01" nType="-99"/>
          <Node pos="r" depth="2" NCoef="0" IVar="-1" Cut="0.0000000000000000e+00" cType="1" res="1.7985494196182117e-05" rms="4.9174523353576660e-01" purity="6.2428575754165649e-01" nType="-99"/>
        </Node>
      </Node>
    </BinaryTree>
    <BinaryTree type="DecisionTree" boostWeight="1.0000000000000000e+00" itree="486">
      <Node pos="s" depth="0" NCoef="0" IVar="5" Cut="1.6188084375000000e+05" cType="1" res="5.4603874683380127e-01" rms="4.9787592887878418e-01" purity="5.4603874683380127e-01" nType="0">
        <Node pos="l" depth="1" NCoef="0" IVar="-1" Cut="0.0000000000000000e+00" cType="1" res="1.2111145224480424e-05" rms="3.7401613593101501e-01" purity="7.5831860303878784e-01" nType="-99"/>
        <Node pos="r" depth="1" NCoef="0" IVar="2" Cut="9.1808140625000000e+04" cType="1" res="4.9731779098510742e-01" rms="4.9999281764030457e-01" purity="4.9731779098510742e-01" nType="0">
          <Node pos="l" depth="2" NCoef="0" IVar="-1" Cut="0.0000000000000000e+00" cType="1" res="5.5123039055615664e-04" rms="3.5964739322662354e-01" purity="4.1436961293220520e-01" nType="-99"/>
          <Node pos="r" depth="2" NCoef="0" IVar="-1" Cut="0.0000000000000000e+00" cType="1" res="1.8208047549705952e-05" rms="4.8658993840217590e-01" purity="6.1778819561004639e-01" nType="-99"/>
        </Node>
      </Node>
    </BinaryTree>
    <BinaryTree type="DecisionTree" boostWeight="1.0000000000000000e+00" itree="487">
      <Node pos="s" depth="0" NCoef="0" IVar="3" Cut="9.5950507812500000e+04" cType="1" res="4.8756554722785950e-01" rms="4.9989199638366699e-01" purity="4.8761212825775146e-01" nType="0">
        <Node pos="l" depth="1" NCoef="0" IVar="0" Cut="2.0000000000000000e+00" cType="1" res="1.2758313678205013e-02" rms="3.5171800851821899e-01" purity="3.8641387224197388e-01" nType="0">
          <Node pos="l" depth="2" NCoef="0" IVar="-1" Cut="0.0000000000000000e+00" cType="1" res="-5.6328828213736415e-04" rms="3.4856954216957092e-01" purity="2.1758535504341125e-01" nType="-99"/>
          <Node pos="r" depth="2" NCoef="0" IVar="-1" Cut="0.0000000000000000e+00" cType="1" res="5.9473339933902025e-04" rms="3.5299149155616760e-01" purity="8.4307509660720825e-01" nType="-99"/>
        </Node>
        <Node pos="r" depth="1" NCoef="0" IVar="2" Cut="8.9392515625000000e+04" cType="1" res="7.7300840616226196e-01" rms="4.1888710856437683e-01" purity="7.7300840616226196e-01" nType="0">
          <Node pos="l" depth="2" NCoef="0" IVar="-1" Cut="0.0000000000000000e+00" cType="1" res="1.2520749805844389e-05" rms="3.1249698996543884e-01" purity="9.0892028808593750e-01" nType="-99"/>
          <Node pos="r" depth="2" NCoef="0" IVar="-1" Cut="0.0000000000000000e+00" cType="1" res="5.5759173119440675e-04" rms="3.6169615387916565e-01" purity="4.3090948462486267e-01" nType="-99"/>
        </Node>
      </Node>
    </BinaryTree>
    <BinaryTree type="DecisionTree" boostWeight="1.0000000000000000e+00" itree="488">
      <Node pos="s" depth="0" NCoef="0" IVar="4" Cut="8.2774625000000000e+04" cType="1" res="3.8552758097648621e-01" rms="4.8685723543167114e-01" purity="3.8566148281097412e-01" nType="0">
        <Node pos="l" depth="1" NCoef="0" IVar="3" Cut="9.8929414062500000e+04" cType="1" res="3.4777343273162842e-01" rms="4.7641435265541077e-01" purity="3.4791699051856995e-01" nType="0">
          <Node pos="l" depth="2" NCoef="0" IVar="-1" Cut="0.0000000000000000e+00" cType="1" res="-1.5518272994086146e-04" rms="3.5906621813774109e-01" purity="3.4037318825721741e-01" nType="-99"/>
          <Node pos="r" depth="2" NCoef="0" IVar="-1" Cut="0.0000000000000000e+00" cType="1" res="1.9224372226744890e-03" rms="4.4832995533943176e-01" purity="5.2499723434448242e-01" nType="-99"/>
        </Node>
        <Node pos="r" depth="1" NCoef="0" IVar="-1" Cut="0.0000000000000000e+00" cType="1" res="1.6158556099981070e-03" rms="2.8566449880599976e-01" purity="9.0792888402938843e-01" nType="-99"/>
      </Node>
    </BinaryTree>
    <BinaryTree type="DecisionTree" boostWeight="1.0000000000000000e+00" itree="489">
      <Node pos="s" depth="0" NCoef="0" IVar="5" Cut="1.5990256250000000e+05" cType="1" res="4.8342713713645935e-01" rms="4.9984958767890930e-01" purity="4.8372894525527954e-01" nType="0">
        <Node pos="l" depth="1" NCoef="0" IVar="-1" Cut="0.0000000000000000e+00" cType="1" res="1.2107005204597954e-05" rms="3.6833518743515015e-01" purity="7.7011460065841675e-01" nType="-99"/>
        <Node pos="r" depth="1" NCoef="0" IVar="4" Cut="4.4824601562500000e+04" cType="1" res="4.0712735056877136e-01" rms="4.9145907163619995e-01" purity="4.0750947594642639e-01" nType="0">
          <Node pos="l" depth="2" NCoef="0" IVar="-1" Cut="0.0000000000000000e+00" cType="1" res="-3.7776987301185727e-04" rms="3.5441294312477112e-01" purity="3.0098149180412292e-01" nType="-99"/>
          <Node pos="r" depth="2" NCoef="0" IVar="-1" Cut="0.0000000000000000e+00" cType="1" res="1.2601572088897228e-03" rms="3.7633100152015686e-01" purity="7.8903675079345703e-01" nType="-99"/>
        </Node>
      </Node>
    </BinaryTree>
    <BinaryTree type="DecisionTree" boostWeight="1.0000000000000000e+00" itree="490">
      <Node pos="s" depth="0" NCoef="0" IVar="2" Cut="9.1758406250000000e+04" cType="1" res="4.7206678986549377e-01" rms="4.9921911954879761e-01" purity="4.7206681966781616e-01" nType="0">
        <Node pos="l" depth="1" NCoef="0" IVar="4" Cut="6.9511250000000000e+04" cType="1" res="3.8849493861198425e-01" rms="4.8740807175636292e-01" purity="3.8849493861198425e-01" nType="0">
          <Node pos="l" depth="2" NCoef="0" IVar="-1" Cut="0.0000000000000000e+00" cType="1" res="1.8444939632900059e-04" rms="3.6034300923347473e-01" purity="3.3440655469894409e-01" nType="-99"/>
          <Node pos="r" depth="2" NCoef="0" IVar="-1" Cut="0.0000000000000000e+00" cType="1" res="1.4798286138102412e-03" rms="3.0926558375358582e-01" purity="8.8515770435333252e-01" nType="-99"/>
        </Node>
        <Node pos="r" depth="1" NCoef="0" IVar="2" Cut="9.1942117187500000e+04" cType="1" res="5.9116852283477783e-01" rms="4.9177461862564087e-01" purity="5.9132254123687744e-01" nType="0">
          <Node pos="l" depth="2" NCoef="0" IVar="-1" Cut="0.0000000000000000e+00" cType="1" res="1.8049153368338011e-05" rms="3.5733634233474731e-01" purity="8.7941038608551025e-01" nType="-99"/>
          <Node pos="r" depth="2" NCoef="0" IVar="-1" Cut="0.0000000000000000e+00" cType="1" res="4.7895192983560264e-04" rms="3.6389225721359253e-01" purity="3.8681107759475708e-01" nType="-99"/>
        </Node>
      </Node>
    </BinaryTree>
    <BinaryTree type="DecisionTree" boostWeight="1.0000000000000000e+00" itree="491">
      <Node pos="s" depth="0" NCoef="0" IVar="5" Cut="6.3658368750000000e+05" cType="1" res="3.8726338744163513e-01" rms="4.8712468147277832e-01" purity="3.8726338744163513e-01" nType="0">
        <Node pos="l" depth="1" NCoef="0" IVar="4" Cut="7.3180921875000000e+04" cType="1" res="3.3271324634552002e-01" rms="4.7118481993675232e-01" purity="3.3286181092262268e-01" nType="0">
          <Node pos="l" depth="2" NCoef="0" IVar="-1" Cut="0.0000000000000000e+00" cType="1" res="-2.0186587062198669e-04" rms="3.6582538485527039e-01" purity="2.9394930601119995e-01" nType="-99"/>
          <Node pos="r" depth="2" NCoef="0" IVar="-1" Cut="0.0000000000000000e+00" cType="1" res="1.3850792311131954e-03" rms="3.4404081106185913e-01" purity="8.6085343360900879e-01" nType="-99"/>
        </Node>
        <Node pos="r" depth="1" NCoef="0" IVar="5" Cut="7.8371900000000000e+05" cType="1" res="8.7628656625747681e-01" rms="3.2925432920455933e-01" purity="8.7628650665283203e-01" nType="0">
          <Node pos="l" depth="2" NCoef="0" IVar="-1" Cut="0.0000000000000000e+00" cType="1" res="1.7981880810111761e-03" rms="3.2035899162292480e-01" purity="8.3452790975570679e-01" nType="-99"/>
          <Node pos="r" depth="2" NCoef="0" IVar="-1" Cut="0.0000000000000000e+00" cType="1" res="3.5891116131097078e-03" rms="2.7689361572265625e-01" purity="9.0242904424667358e-01" nType="-99"/>
        </Node>
      </Node>
    </BinaryTree>
    <BinaryTree type="DecisionTree" boostWeight="1.0000000000000000e+00" itree="492">
      <Node pos="s" depth="0" NCoef="0" IVar="2" Cut="9.1879203125000000e+04" cType="1" res="4.6662643551826477e-01" rms="4.9904549121856689e-01" purity="4.6707409620285034e-01" nType="0">
        <Node pos="l" depth="1" NCoef="0" IVar="5" Cut="5.3043956250000000e+05" cType="1" res="3.8096305727958679e-01" rms="4.8569607734680176e-01" purity="3.8150277733802795e-01" nType="0">
          <Node pos="l" depth="2" NCoef="0" IVar="-1" Cut="0.0000000000000000e+00" cType="1" res="-3.0620006145909429e-04" rms="3.5827761888504028e-01" purity="3.0039975047111511e-01" nType="-99"/>
          <Node pos="r" depth="2" NCoef="0" IVar="-1" Cut="0.0000000000000000e+00" cType="1" res="2.3290307726711035e-03" rms="3.0926573276519775e-01" purity="8.5702478885650635e-01" nType="-99"/>
        </Node>
        <Node pos="r" depth="1" NCoef="0" IVar="2" Cut="9.2075976562500000e+04" cType="1" res="6.0210603475570679e-01" rms="4.8977184295654297e-01" purity="6.0240811109542847e-01" nType="0">
          <Node pos="l" depth="2" NCoef="0" IVar="-1" Cut="0.0000000000000000e+00" cType="1" res="1.7996400856645778e-05" rms="3.6021205782890320e-01" purity="8.7765896320343018e-01" nType="-99"/>
          <Node pos="r" depth="2" NCoef="0" IVar="-1" Cut="0.0000000000000000e+00" cType="1" res="1.2449121277313679e-04" rms="3.5527062416076660e-01" purity="3.8614797592163086e-01" nType="-99"/>
        </Node>
      </Node>
    </BinaryTree>
    <BinaryTree type="DecisionTree" boostWeight="1.0000000000000000e+00" itree="493">
      <Node pos="s" depth="0" NCoef="0" IVar="2" Cut="9.1879203125000000e+04" cType="1" res="4.6498277783393860e-01" rms="4.9889904260635376e-01" purity="4.6510928869247437e-01" nType="0">
        <Node pos="l" depth="1" NCoef="0" IVar="5" Cut="5.3553393750000000e+05" cType="1" res="3.7522608041763306e-01" rms="4.8439526557922363e-01" purity="3.7543338537216187e-01" nType="0">
          <Node pos="l" depth="2" NCoef="0" IVar="-1" Cut="0.0000000000000000e+00" cType="1" res="-7.6262680522631854e-05" rms="3.6096996068954468e-01" purity="3.0587694048881531e-01" nType="-99"/>
          <Node pos="r" depth="2" NCoef="0" IVar="-1" Cut="0.0000000000000000e+00" cType="1" res="2.9552686028182507e-03" rms="3.2858166098594666e-01" purity="8.4577268362045288e-01" nType="-99"/>
        </Node>
        <Node pos="r" depth="1" NCoef="0" IVar="2" Cut="9.2075976562500000e+04" cType="1" res="6.0538816452026367e-01" rms="4.8876714706420898e-01" purity="6.0538816452026367e-01" nType="0">
          <Node pos="l" depth="2" NCoef="0" IVar="-1" Cut="0.0000000000000000e+00" cType="1" res="1.8009919585892931e-05" rms="3.5959565639495850e-01" purity="8.7886327505111694e-01" nType="-99"/>
          <Node pos="r" depth="2" NCoef="0" IVar="-1" Cut="0.0000000000000000e+00" cType="1" res="4.1878817137330770e-04" rms="3.5912540555000305e-01" purity="3.8755056262016296e-01" nType="-99"/>
        </Node>
      </Node>
    </BinaryTree>
    <BinaryTree type="DecisionTree" boostWeight="1.0000000000000000e+00" itree="494">
      <Node pos="s" depth="0" NCoef="0" IVar="1" Cut="2.0203215625000000e+05" cType="1" res="4.9236482381820679e-01" rms="5.0007867813110352e-01" purity="4.9250182509422302e-01" nType="0">
        <Node pos="l" depth="1" NCoef="0" IVar="2" Cut="8.9636281250000000e+04" cType="1" res="6.3720339536666870e-01" rms="4.9822354316711426e-01" purity="6.8298417329788208e-01" nType="0">
          <Node pos="l" depth="2" NCoef="0" IVar="-1" Cut="0.0000000000000000e+00" cType="1" res="2.1009789634263143e-05" rms="3.0940091609954834e-01" purity="8.8675677776336670e-01" nType="-99"/>
          <Node pos="r" depth="2" NCoef="0" IVar="-1" Cut="0.0000000000000000e+00" cType="1" res="4.9043068429455161e-04" rms="3.4386107325553894e-01" purity="2.3933495581150055e-01" nType="-99"/>
        </Node>
        <Node pos="r" depth="1" NCoef="0" IVar="4" Cut="7.8737789062500000e+04" cType="1" res="4.0456759929656982e-01" rms="4.9101197719573975e-01" purity="4.0476769208908081e-01" nType="0">
          <Node pos="l" depth="2" NCoef="0" IVar="-1" Cut="0.0000000000000000e+00" cType="1" res="-7.1046699304133654e-05" rms="3.6639294028282166e-01" purity="3.5759362578392029e-01" nType="-99"/>
          <Node pos="r" depth="2" NCoef="0" IVar="-1" Cut="0.0000000000000000e+00" cType="1" res="1.5481514856219292e-03" rms="2.9114422202110291e-01" purity="9.0541285276412964e-01" nType="-99"/>
        </Node>
      </Node>
    </BinaryTree>
    <BinaryTree type="DecisionTree" boostWeight="1.0000000000000000e+00" itree="495">
      <Node pos="s" depth="0" NCoef="0" IVar="5" Cut="1.6699128125000000e+05" cType="1" res="4.8607188463211060e-01" rms="5.0027149915695190e-01" purity="4.8653745651245117e-01" nType="0">
        <Node pos="l" depth="1" NCoef="0" IVar="3" Cut="8.9992273437500000e+04" cType="1" res="0.0000000000000000e+00" rms="0.0000000000000000e+00" purity="6.9851976633071899e-01" nType="0">
          <Node pos="l" depth="2" NCoef="0" IVar="-1" Cut="0.0000000000000000e+00" cType="1" res="-2.5370409712195396e-03" rms="2.3917809128761292e-01" purity="7.4324831366539001e-02" nType="-99"/>
          <Node pos="r" depth="2" NCoef="0" IVar="-1" Cut="0.0000000000000000e+00" cType="1" res="1.2215527021908201e-05" rms="3.0926784873008728e-01" purity="8.5675829648971558e-01" nType="-99"/>
        </Node>
        <Node pos="r" depth="1" NCoef="0" IVar="4" Cut="5.0964031250000000e+04" cType="1" res="0.0000000000000000e+00" rms="0.0000000000000000e+00" purity="4.2245131731033325e-01" nType="0">
          <Node pos="l" depth="2" NCoef="0" IVar="-1" Cut="0.0000000000000000e+00" cType="1" res="-9.1929221525788307e-05" rms="3.6573675274848938e-01" purity="3.2243829965591431e-01" nType="-99"/>
          <Node pos="r" depth="2" NCoef="0" IVar="-1" Cut="0.0000000000000000e+00" cType="1" res="5.4900464601814747e-04" rms="3.4763017296791077e-01" purity="8.3524560928344727e-01" nType="-99"/>
        </Node>
      </Node>
    </BinaryTree>
    <BinaryTree type="DecisionTree" boostWeight="1.0000000000000000e+00" itree="496">
      <Node pos="s" depth="0" NCoef="0" IVar="0" Cut="1.0000000000000000e+00" cType="1" res="2.1478068828582764e-01" rms="4.6340033411979675e-01" purity="5.4472672939300537e-01" nType="0">
        <Node pos="l" depth="1" NCoef="0" IVar="4" Cut="2.1007773437500000e+04" cType="1" res="5.1718676090240479e-01" rms="4.9970453977584839e-01" purity="5.1718682050704956e-01" nType="0">
          <Node pos="l" depth="2" NCoef="0" IVar="-1" Cut="0.0000000000000000e+00" cType="1" res="-3.4951297566294670e-03" rms="1.9573819637298584e-01" purity="4.0093164891004562e-02" nType="-99"/>
          <Node pos="r" depth="2" NCoef="0" IVar="-1" Cut="0.0000000000000000e+00" cType="1" res="1.4155009921523742e-05" rms="4.6228042244911194e-01" purity="7.5636446475982666e-01" nType="-99"/>
        </Node>
        <Node pos="r" depth="1" NCoef="0" IVar="5" Cut="4.3483525000000000e+05" cType="1" res="5.8533811569213867e-01" rms="4.9292486906051636e-01" purity="5.8633089065551758e-01" nType="0">
          <Node pos="l" depth="2" NCoef="0" IVar="-1" Cut="0.0000000000000000e+00" cType="1" res="2.5498884497210383e-04" rms="4.2601814866065979e-01" purity="4.5323765277862549e-01" nType="-99"/>
          <Node pos="r" depth="2" NCoef="0" IVar="-1" Cut="0.0000000000000000e+00" cType="1" res="2.1100183948874474e-03" rms="3.3926388621330261e-01" purity="8.3373260498046875e-01" nType="-99"/>
        </Node>
      </Node>
    </BinaryTree>
    <BinaryTree type="DecisionTree" boostWeight="1.0000000000000000e+00" itree="497">
      <Node pos="s" depth="0" NCoef="0" IVar="2" Cut="9.1849609375000000e+04" cType="1" res="6.2781983613967896e-01" rms="4.8352214694023132e-01" purity="6.2795138359069824e-01" nType="0">
        <Node pos="l" depth="1" NCoef="0" IVar="0" Cut="1.0000000000000000e+00" cType="1" res="1.4959352090954781e-02" rms="3.5686036944389343e-01" purity="3.8977348804473877e-01" nType="0">
          <Node pos="l" depth="2" NCoef="0" IVar="-1" Cut="0.0000000000000000e+00" cType="1" res="-1.5794750070199370e-03" rms="2.9281097650527954e-01" purity="1.3900966942310333e-01" nType="-99"/>
          <Node pos="r" depth="2" NCoef="0" IVar="-1" Cut="0.0000000000000000e+00" cType="1" res="7.8467413550242782e-04" rms="4.0064978599548340e-01" purity="6.0145550966262817e-01" nType="-99"/>
        </Node>
        <Node pos="r" depth="1" NCoef="0" IVar="2" Cut="9.2047007812500000e+04" cType="1" res="8.0831998586654663e-01" rms="3.9362263679504395e-01" purity="8.0832004547119141e-01" nType="0">
          <Node pos="l" depth="2" NCoef="0" IVar="-1" Cut="0.0000000000000000e+00" cType="1" res="1.8023943994194269e-05" rms="2.0915295183658600e-01" purity="9.6375387907028198e-01" nType="-99"/>
          <Node pos="r" depth="2" NCoef="0" IVar="-1" Cut="0.0000000000000000e+00" cType="1" res="6.0229568043723702e-04" rms="3.6352342367172241e-01" purity="4.0248525142669678e-01" nType="-99"/>
        </Node>
      </Node>
    </BinaryTree>
    <BinaryTree type="DecisionTree" boostWeight="1.0000000000000000e+00" itree="498">
      <Node pos="s" depth="0" NCoef="0" IVar="1" Cut="2.8536803125000000e+05" cType="1" res="4.7460696101188660e-01" rms="4.9959692358970642e-01" purity="4.7500526905059814e-01" nType="0">
        <Node pos="l" depth="1" NCoef="0" IVar="5" Cut="2.3055621875000000e+05" cType="1" res="2.3100115358829498e-01" rms="4.5483702421188354e-01" purity="3.0751258134841919e-01" nType="0">
          <Node pos="l" depth="2" NCoef="0" IVar="-1" Cut="0.0000000000000000e+00" cType="1" res="-1.5374702634289861e-03" rms="2.9218414425849915e-01" purity="1.2679803371429443e-01" nType="-99"/>
          <Node pos="r" depth="2" NCoef="0" IVar="-1" Cut="0.0000000000000000e+00" cType="1" res="1.2491211527958512e-03" rms="4.1249847412109375e-01" purity="5.8036392927169800e-01" nType="-99"/>
        </Node>
        <Node pos="r" depth="1" NCoef="0" IVar="1" Cut="3.0125525000000000e+05" cType="1" res="6.6927134990692139e-01" rms="4.7103172540664673e-01" purity="6.7013365030288696e-01" nType="0">
          <Node pos="l" depth="2" NCoef="0" IVar="-1" Cut="0.0000000000000000e+00" cType="1" res="1.8222664948552847e-05" rms="3.8836541771888733e-01" purity="8.6891466379165649e-01" nType="-99"/>
          <Node pos="r" depth="2" NCoef="0" IVar="-1" Cut="0.0000000000000000e+00" cType="1" res="7.0785172283649445e-04" rms="3.7488901615142822e-01" purity="5.3888916969299316e-01" nType="-99"/>
        </Node>
      </Node>
    </BinaryTree>
    <BinaryTree type="DecisionTree" boostWeight="1.0000000000000000e+00" itree="499">
      <Node pos="s" depth="0" NCoef="0" IVar="1" Cut="1.9133937500000000e+05" cType="1" res="4.9915680289268494e-01" rms="4.9999928474426270e-01" purity="4.9915683269500732e-01" nType="0">
        <Node pos="l" depth="1" NCoef="0" IVar="4" Cut="2.2376515625000000e+04" cType="1" res="2.0625861361622810e-02" rms="1.6768476366996765e-01" purity="8.1204557418823242e-01" nType="0">
          <Node pos="l" depth="2" NCoef="0" IVar="-1" Cut="0.0000000000000000e+00" cType="1" res="-6.2794348923489451e-04" rms="2.3603077232837677e-01" purity="1.0678641498088837e-01" nType="-99"/>
          <Node pos="r" depth="2" NCoef="0" IVar="-1" Cut="0.0000000000000000e+00" cType="1" res="2.0905465135001577e-05" rms="2.8888854384422302e-01" purity="9.2902415990829468e-01" nType="-99"/>
        </Node>
        <Node pos="r" depth="1" NCoef="0" IVar="0" Cut="1.0000000000000000e+00" cType="1" res="1.7095785588026047e-02" rms="3.6353230476379395e-01" purity="4.0306925773620605e-01" nType="0">
          <Node pos="l" depth="2" NCoef="0" IVar="-1" Cut="0.0000000000000000e+00" cType="1" res="-1.2587619712576270e-03" rms="2.9971730709075928e-01" purity="1.4768482744693756e-01" nType="-99"/>
          <Node pos="r" depth="2" NCoef="0" IVar="-1" Cut="0.0000000000000000e+00" cType="1" res="1.1430935701355338e-03" rms="4.0475934743881226e-01" purity="6.0541945695877075e-01" nType="-99"/>
        </Node>
      </Node>
    </BinaryTree>
    <BinaryTree type="DecisionTree" boostWeight="1.0000000000000000e+00" itree="500">
      <Node pos="s" depth="0" NCoef="0" IVar="1" Cut="2.0102762500000000e+05" cType="1" res="4.4194906949996948e-01" rms="4.9712535738945007e-01" purity="4.4261959195137024e-01" nType="0">
        <Node pos="l" depth="1" NCoef="0" IVar="2" Cut="8.9665414062500000e+04" cType="1" res="5.0431853532791138e-01" rms="5.2124804258346558e-01" purity="5.6623196601867676e-01" nType="0">
          <Node pos="l" depth="2" NCoef="0" IVar="-1" Cut="0.0000000000000000e+00" cType="1" res="2.1104908228153363e-05" rms="3.7981957197189331e-01" purity="8.1079149246215820e-01" nType="-99"/>
          <Node pos="r" depth="2" NCoef="0" IVar="-1" Cut="0.0000000000000000e+00" cType="1" res="1.0643425630405545e-03" rms="3.4561735391616821e-01" purity="2.3705293238162994e-01" nType="-99"/>
        </Node>
        <Node pos="r" depth="1" NCoef="0" IVar="4" Cut="6.0221953125000000e+04" cType="1" res="4.0336379408836365e-01" rms="4.9124464392662048e-01" purity="4.0424245595932007e-01" nType="0">
          <Node pos="l" depth="2" NCoef="0" IVar="-1" Cut="0.0000000000000000e+00" cType="1" res="-4.0927162626758218e-04" rms="3.5754832625389099e-01" purity="3.3334264159202576e-01" nType="-99"/>
          <Node pos="r" depth="2" NCoef="0" IVar="-1" Cut="0.0000000000000000e+00" cType="1" res="1.3452055864036083e-03" rms="3.4121897816658020e-01" purity="8.5537993907928467e-01" nType="-99"/>
        </Node>
      </Node>
    </BinaryTree>
    <BinaryTree type="DecisionTree" boostWeight="1.0000000000000000e+00" itree="501">
      <Node pos="s" depth="0" NCoef="0" IVar="5" Cut="1.6215667187500000e+05" cType="1" res="4.8141059279441833e-01" rms="4.9986106157302856e-01" purity="4.8161727190017700e-01" nType="0">
        <Node pos="l" depth="1" NCoef="0" IVar="-1" Cut="0.0000000000000000e+00" cType="1" res="1.2190087545604911e-05" rms="3.8054373860359192e-01" purity="7.4663424491882324e-01" nType="-99"/>
        <Node pos="r" depth="1" NCoef="0" IVar="4" Cut="5.0980992187500000e+04" cType="1" res="4.0875607728958130e-01" rms="4.9187174439430237e-01" purity="4.0901935100555420e-01" nType="0">
          <Node pos="l" depth="2" NCoef="0" IVar="-1" Cut="0.0000000000000000e+00" cType="1" res="-5.9334408433642238e-05" rms="3.6742374300956726e-01" purity="3.1478393077850342e-01" nType="-99"/>
          <Node pos="r" depth="2" NCoef="0" IVar="-1" Cut="0.0000000000000000e+00" cType="1" res="7.1496906457468867e-04" rms="3.6247488856315613e-01" purity="8.2030194997787476e-01" nType="-99"/>
        </Node>
      </Node>
    </BinaryTree>
    <BinaryTree type="DecisionTree" boostWeight="1.0000000000000000e+00" itree="502">
      <Node pos="s" depth="0" NCoef="0" IVar="4" Cut="5.2278535156250000e+04" cType="1" res="3.9775347709655762e-01" rms="4.8943400382995605e-01" purity="3.9775347709655762e-01" nType="0">
        <Node pos="l" depth="1" NCoef="0" IVar="0" Cut="3.0000000000000000e+00" cType="1" res="3.3638852182775736e-03" rms="3.6012542247772217e-01" purity="3.0871564149856567e-01" nType="0">
          <Node pos="l" depth="2" NCoef="0" IVar="-1" Cut="0.0000000000000000e+00" cType="1" res="-2.7617550222203135e-04" rms="3.6360016465187073e-01" purity="2.4469125270843506e-01" nType="-99"/>
          <Node pos="r" depth="2" NCoef="0" IVar="-1" Cut="0.0000000000000000e+00" cType="1" res="2.7352855540812016e-03" rms="3.1890660524368286e-01" purity="8.8435971736907959e-01" nType="-99"/>
        </Node>
        <Node pos="r" depth="1" NCoef="0" IVar="4" Cut="8.0156351562500000e+04" cType="1" res="8.2900267839431763e-01" rms="3.7650662660598755e-01" purity="8.2900267839431763e-01" nType="0">
          <Node pos="l" depth="2" NCoef="0" IVar="-1" Cut="0.0000000000000000e+00" cType="1" res="3.9279292104765773e-04" rms="4.0088003873825073e-01" purity="7.6015436649322510e-01" nType="-99"/>
          <Node pos="r" depth="2" NCoef="0" IVar="-1" Cut="0.0000000000000000e+00" cType="1" res="1.4040545793250203e-03" rms="2.7932095527648926e-01" purity="9.1395944356918335e-01" nType="-99"/>
        </Node>
      </Node>
    </BinaryTree>
    <BinaryTree type="DecisionTree" boostWeight="1.0000000000000000e+00" itree="503">
      <Node pos="s" depth="0" NCoef="0" IVar="3" Cut="9.5950890625000000e+04" cType="1" res="4.7637724876403809e-01" rms="4.9963733553886414e-01" purity="4.7657272219657898e-01" nType="0">
        <Node pos="l" depth="1" NCoef="0" IVar="5" Cut="5.2348096875000000e+05" cType="1" res="0.0000000000000000e+00" rms="2.3373959265882149e-06" purity="3.6938160657882690e-01" nType="0">
          <Node pos="l" depth="2" NCoef="0" IVar="-1" Cut="0.0000000000000000e+00" cType="1" res="-3.7009376683272421e-04" rms="3.6072367429733276e-01" purity="2.9133513569831848e-01" nType="-99"/>
          <Node pos="r" depth="2" NCoef="0" IVar="-1" Cut="0.0000000000000000e+00" cType="1" res="2.0423275418579578e-03" rms="3.2521337270736694e-01" purity="8.3532297611236572e-01" nType="-99"/>
        </Node>
        <Node pos="r" depth="1" NCoef="0" IVar="2" Cut="8.9294859375000000e+04" cType="1" res="7.7442002296447754e-01" rms="4.1826286911964417e-01" purity="7.7467018365859985e-01" nType="0">
          <Node pos="l" depth="2" NCoef="0" IVar="-1" Cut="0.0000000000000000e+00" cType="1" res="1.2529337254818529e-05" rms="3.0578890442848206e-01" purity="9.1217494010925293e-01" nType="-99"/>
          <Node pos="r" depth="2" NCoef="0" IVar="-1" Cut="0.0000000000000000e+00" cType="1" res="3.0194767168723047e-04" rms="3.4744313359260559e-01" purity="4.3424957990646362e-01" nType="-99"/>
        </Node>
      </Node>
    </BinaryTree>
    <BinaryTree type="DecisionTree" boostWeight="1.0000000000000000e+00" itree="504">
      <Node pos="s" depth="0" NCoef="0" IVar="1" Cut="1.8991192187500000e+05" cType="1" res="4.4791063666343689e-01" rms="4.9727928638458252e-01" purity="4.4791060686111450e-01" nType="0">
        <Node pos="l" depth="1" NCoef="0" IVar="-1" Cut="0.0000000000000000e+00" cType="1" res="2.1060512153781019e-05" rms="4.2072936892509460e-01" purity="7.3471659421920776e-01" nType="-99"/>
        <Node pos="r" depth="1" NCoef="0" IVar="4" Cut="4.3573023437500000e+04" cType="1" res="3.9730897545814514e-01" rms="4.8934093117713928e-01" purity="3.9730897545814514e-01" nType="0">
          <Node pos="l" depth="2" NCoef="0" IVar="-1" Cut="0.0000000000000000e+00" cType="1" res="-8.3282700506970286e-04" rms="3.4302225708961487e-01" purity="2.8286865353584290e-01" nType="-99"/>
          <Node pos="r" depth="2" NCoef="0" IVar="-1" Cut="0.0000000000000000e+00" cType="1" res="5.4058537352830172e-04" rms="3.7942004203796387e-01" purity="7.7530610561370850e-01" nType="-99"/>
        </Node>
      </Node>
    </BinaryTree>
    <BinaryTree type="DecisionTree" boostWeight="1.0000000000000000e+00" itree="505">
      <Node pos="s" depth="0" NCoef="0" IVar="3" Cut="8.9426570312500000e+04" cType="1" res="5.5539804697036743e-01" rms="4.9722832441329956e-01" purity="5.5577826499938965e-01" nType="0">
        <Node pos="l" depth="1" NCoef="0" IVar="3" Cut="8.8493039062500000e+04" cType="1" res="6.6356569528579712e-01" rms="4.7271412611007690e-01" purity="6.6389995813369751e-01" nType="0">
          <Node pos="l" depth="2" NCoef="0" IVar="-1" Cut="0.0000000000000000e+00" cType="1" res="8.6761015700176358e-04" rms="3.6200505495071411e-01" purity="3.9725759625434875e-01" nType="-99"/>
          <Node pos="r" depth="2" NCoef="0" IVar="-1" Cut="0.0000000000000000e+00" cType="1" res="1.9798584617092274e-05" rms="3.5982030630111694e-01" purity="8.7367480993270874e-01" nType="-99"/>
        </Node>
        <Node pos="r" depth="1" NCoef="0" IVar="0" Cut="3.0000000000000000e+00" cType="1" res="7.9845450818538666e-03" rms="3.6392384767532349e-01" purity="3.8099241256713867e-01" nType="0">
          <Node pos="l" depth="2" NCoef="0" IVar="-1" Cut="0.0000000000000000e+00" cType="1" res="-1.5383603749796748e-04" rms="3.7244313955307007e-01" purity="3.0301508307456970e-01" nType="-99"/>
          <Node pos="r" depth="2" NCoef="0" IVar="-1" Cut="0.0000000000000000e+00" cType="1" res="3.1544445082545280e-03" rms="2.8772011399269104e-01" purity="9.0772426128387451e-01" nType="-99"/>
        </Node>
      </Node>
    </BinaryTree>
    <BinaryTree type="DecisionTree" boostWeight="1.0000000000000000e+00" itree="506">
      <Node pos="s" depth="0" NCoef="0" IVar="2" Cut="9.1849609375000000e+04" cType="1" res="4.6893450617790222e-01" rms="4.9903398752212524e-01" purity="4.6893450617790222e-01" nType="0">
        <Node pos="l" depth="1" NCoef="0" IVar="4" Cut="6.6949203125000000e+04" cType="1" res="3.8116526603698730e-01" rms="4.8567304015159607e-01" purity="3.8116526603698730e-01" nType="0">
          <Node pos="l" depth="2" NCoef="0" IVar="-1" Cut="0.0000000000000000e+00" cType="1" res="-1.1633129179244861e-04" rms="3.5677266120910645e-01" purity="3.2378554344177246e-01" nType="-99"/>
          <Node pos="r" depth="2" NCoef="0" IVar="-1" Cut="0.0000000000000000e+00" cType="1" res="1.1796242324635386e-03" rms="3.2971316576004028e-01" purity="8.6753749847412109e-01" nType="-99"/>
        </Node>
        <Node pos="r" depth="1" NCoef="0" IVar="2" Cut="9.2047007812500000e+04" cType="1" res="6.0286450386047363e-01" rms="4.8930451273918152e-01" purity="6.0302454233169556e-01" nType="0">
          <Node pos="l" depth="2" NCoef="0" IVar="-1" Cut="0.0000000000000000e+00" cType="1" res="1.8240994904772379e-05" rms="3.6018329858779907e-01" purity="8.7839722633361816e-01" nType="-99"/>
          <Node pos="r" depth="2" NCoef="0" IVar="-1" Cut="0.0000000000000000e+00" cType="1" res="5.5237376363947988e-04" rms="3.6904796957969666e-01" purity="3.9204230904579163e-01" nType="-99"/>
        </Node>
      </Node>
    </BinaryTree>
    <BinaryTree type="DecisionTree" boostWeight="1.0000000000000000e+00" itree="507">
      <Node pos="s" depth="0" NCoef="0" IVar="3" Cut="9.5950500000000000e+04" cType="1" res="5.5512237548828125e-01" rms="4.9699911475181580e-01" purity="5.5528187751770020e-01" nType="0">
        <Node pos="l" depth="1" NCoef="0" IVar="4" Cut="7.0948406250000000e+04" cType="1" res="3.8437047600746155e-01" rms="4.8652133345603943e-01" purity="3.8444364070892334e-01" nType="0">
          <Node pos="l" depth="2" NCoef="0" IVar="-1" Cut="0.0000000000000000e+00" cType="1" res="-5.0922294576594140e-06" rms="3.5483050346374512e-01" purity="3.3385878801345825e-01" nType="-99"/>
          <Node pos="r" depth="2" NCoef="0" IVar="-1" Cut="0.0000000000000000e+00" cType="1" res="1.3462263159453869e-03" rms="3.1538054347038269e-01" purity="8.8189703226089478e-01" nType="-99"/>
        </Node>
        <Node pos="r" depth="1" NCoef="0" IVar="2" Cut="8.9374570312500000e+04" cType="1" res="8.5426241159439087e-01" rms="3.5316747426986694e-01" purity="8.5480237007141113e-01" nType="0">
          <Node pos="l" depth="2" NCoef="0" IVar="-1" Cut="0.0000000000000000e+00" cType="1" res="1.2502434401540086e-05" rms="2.3962849378585815e-01" purity="9.4848865270614624e-01" nType="-99"/>
          <Node pos="r" depth="2" NCoef="0" IVar="-1" Cut="0.0000000000000000e+00" cType="1" res="1.7318381651421078e-05" rms="3.4855136275291443e-01" purity="4.2183133959770203e-01" nType="-99"/>
        </Node>
      </Node>
    </BinaryTree>
    <BinaryTree type="DecisionTree" boostWeight="1.0000000000000000e+00" itree="508">
      <Node pos="s" depth="0" NCoef="0" IVar="5" Cut="1.5960065625000000e+05" cType="1" res="4.7958627343177795e-01" rms="4.9963057041168213e-01" purity="4.7963371872901917e-01" nType="0">
        <Node pos="l" depth="1" NCoef="0" IVar="-1" Cut="0.0000000000000000e+00" cType="1" res="1.2184119441371877e-05" rms="3.6705175042152405e-01" purity="7.7260828018188477e-01" nType="-99"/>
        <Node pos="r" depth="1" NCoef="0" IVar="4" Cut="8.2745929687500000e+04" cType="1" res="4.0178042650222778e-01" rms="4.9031922221183777e-01" purity="4.0184044837951660e-01" nType="0">
          <Node pos="l" depth="2" NCoef="0" IVar="-1" Cut="0.0000000000000000e+00" cType="1" res="2.1579779058811255e-05" rms="3.6628997325897217e-01" purity="3.6067888140678406e-01" nType="-99"/>
          <Node pos="r" depth="2" NCoef="0" IVar="-1" Cut="0.0000000000000000e+00" cType="1" res="1.2927416246384382e-03" rms="2.9253298044204712e-01" purity="9.0356934070587158e-01" nType="-99"/>
        </Node>
      </Node>
    </BinaryTree>
    <BinaryTree type="DecisionTree" boostWeight="1.0000000000000000e+00" itree="509">
      <Node pos="s" depth="0" NCoef="0" IVar="3" Cut="9.5951023437500000e+04" cType="1" res="4.7603574395179749e-01" rms="4.9942538142204285e-01" purity="4.7619038820266724e-01" nType="0">
        <Node pos="l" depth="1" NCoef="0" IVar="5" Cut="2.1391607812500000e+05" cType="1" res="3.7459051609039307e-01" rms="4.8401701450347900e-01" purity="3.7471058964729309e-01" nType="0">
          <Node pos="l" depth="2" NCoef="0" IVar="-1" Cut="0.0000000000000000e+00" cType="1" res="-3.2529199961572886e-03" rms="2.7324402332305908e-01" purity="1.0209469497203827e-01" nType="-99"/>
          <Node pos="r" depth="2" NCoef="0" IVar="-1" Cut="0.0000000000000000e+00" cType="1" res="1.1048886226490140e-03" rms="4.0084928274154663e-01" purity="5.3655666112899780e-01" nType="-99"/>
        </Node>
        <Node pos="r" depth="1" NCoef="0" IVar="2" Cut="8.9294859375000000e+04" cType="1" res="7.6226681470870972e-01" rms="4.2591318488121033e-01" purity="7.6270496845245361e-01" nType="0">
          <Node pos="l" depth="2" NCoef="0" IVar="-1" Cut="0.0000000000000000e+00" cType="1" res="1.2512356988736428e-05" rms="3.1069949269294739e-01" purity="9.0913581848144531e-01" nType="-99"/>
          <Node pos="r" depth="2" NCoef="0" IVar="-1" Cut="0.0000000000000000e+00" cType="1" res="-4.6695259516127408e-04" rms="3.6135780811309814e-01" purity="3.8303697109222412e-01" nType="-99"/>
        </Node>
      </Node>
    </BinaryTree>
    <BinaryTree type="DecisionTree" boostWeight="1.0000000000000000e+00" itree="510">
      <Node pos="s" depth="0" NCoef="0" IVar="4" Cut="7.4108828125000000e+04" cType="1" res="3.8505765795707703e-01" rms="4.8660895228385925e-01" purity="3.8505765795707703e-01" nType="0">
        <Node pos="l" depth="1" NCoef="0" IVar="0" Cut="3.0000000000000000e+00" cType="1" res="3.3862728159874678e-03" rms="3.6345604062080383e-01" purity="3.3943089842796326e-01" nType="0">
          <Node pos="l" depth="2" NCoef="0" IVar="-1" Cut="0.0000000000000000e+00" cType="1" res="-2.9053722391836345e-04" rms="3.6839854717254639e-01" purity="2.7042919397354126e-01" nType="-99"/>
          <Node pos="r" depth="2" NCoef="0" IVar="-1" Cut="0.0000000000000000e+00" cType="1" res="2.9156366363167763e-03" rms="3.1149563193321228e-01" purity="8.9009714126586914e-01" nType="-99"/>
        </Node>
        <Node pos="r" depth="1" NCoef="0" IVar="-1" Cut="0.0000000000000000e+00" cType="1" res="1.5738335205242038e-03" rms="3.0529218912124634e-01" purity="8.9332693815231323e-01" nType="-99"/>
      </Node>
    </BinaryTree>
    <BinaryTree type="DecisionTree" boostWeight="1.0000000000000000e+00" itree="511">
      <Node pos="s" depth="0" NCoef="0" IVar="4" Cut="6.1317605468750000e+04" cType="1" res="3.8718709349632263e-01" rms="4.8710700869560242e-01" purity="3.8718712329864502e-01" nType="0">
        <Node pos="l" depth="1" NCoef="0" IVar="0" Cut="3.0000000000000000e+00" cType="1" res="-2.8034108690917492e-03" rms="3.5579106211662292e-01" purity="3.1726059317588806e-01" nType="0">
          <Node pos="l" depth="2" NCoef="0" IVar="-1" Cut="0.0000000000000000e+00" cType="1" res="-7.2788866236805916e-04" rms="3.5972523689270020e-01" purity="2.4909579753875732e-01" nType="-99"/>
          <Node pos="r" depth="2" NCoef="0" IVar="-1" Cut="0.0000000000000000e+00" cType="1" res="2.7867583557963371e-03" rms="3.0874690413475037e-01" purity="8.9170461893081665e-01" nType="-99"/>
        </Node>
        <Node pos="r" depth="1" NCoef="0" IVar="4" Cut="7.9560460937500000e+04" cType="1" res="8.6394000053405762e-01" rms="3.4285226464271545e-01" purity="8.6394000053405762e-01" nType="0">
          <Node pos="l" depth="2" NCoef="0" IVar="-1" Cut="0.0000000000000000e+00" cType="1" res="7.2666082996875048e-04" rms="3.9507764577865601e-01" purity="7.8994345664978027e-01" nType="-99"/>
          <Node pos="r" depth="2" NCoef="0" IVar="-1" Cut="0.0000000000000000e+00" cType="1" res="1.3600852107629180e-03" rms="2.8289452195167542e-01" purity="9.0944391489028931e-01" nType="-99"/>
        </Node>
      </Node>
    </BinaryTree>
    <BinaryTree type="DecisionTree" boostWeight="1.0000000000000000e+00" itree="512">
      <Node pos="s" depth="0" NCoef="0" IVar="2" Cut="8.9620179687500000e+04" cType="1" res="5.6326663494110107e-01" rms="4.9598118662834167e-01" purity="5.6326663494110107e-01" nType="0">
        <Node pos="l" depth="1" NCoef="0" IVar="2" Cut="8.9266335937500000e+04" cType="1" res="0.0000000000000000e+00" rms="0.0000000000000000e+00" purity="7.9385304450988770e-01" nType="0">
          <Node pos="l" depth="2" NCoef="0" IVar="-1" Cut="0.0000000000000000e+00" cType="1" res="3.8850112468935549e-04" rms="3.7424734234809875e-01" purity="3.6823326349258423e-01" nType="-99"/>
          <Node pos="r" depth="2" NCoef="0" IVar="-1" Cut="0.0000000000000000e+00" cType="1" res="1.6109550415421836e-05" rms="2.5621363520622253e-01" purity="9.4154095649719238e-01" nType="-99"/>
        </Node>
        <Node pos="r" depth="1" NCoef="0" IVar="4" Cut="3.6703898437500000e+04" cType="1" res="3.8716074824333191e-01" rms="4.8736429214477539e-01" purity="3.8754713535308838e-01" nType="0">
          <Node pos="l" depth="2" NCoef="0" IVar="-1" Cut="0.0000000000000000e+00" cType="1" res="-6.8275019293650985e-04" rms="3.3630105853080750e-01" purity="2.6164463162422180e-01" nType="-99"/>
          <Node pos="r" depth="2" NCoef="0" IVar="-1" Cut="0.0000000000000000e+00" cType="1" res="5.0696125254034996e-04" rms="4.0234833955764771e-01" purity="7.1257156133651733e-01" nType="-99"/>
        </Node>
      </Node>
    </BinaryTree>
    <BinaryTree type="DecisionTree" boostWeight="1.0000000000000000e+00" itree="513">
      <Node pos="s" depth="0" NCoef="0" IVar="4" Cut="5.0964031250000000e+04" cType="1" res="inf" rms="0.0000000000000000e+00" purity="3.9634495973587036e-01" nType="0">
        <Node pos="l" depth="1" NCoef="0" IVar="0" Cut="1.0000000000000000e+00" cType="1" res="-5.2554294234141707e-04" rms="3.5326784849166870e-01" purity="3.0116620659828186e-01" nType="0">
          <Node pos="l" depth="2" NCoef="0" IVar="-1" Cut="0.0000000000000000e+00" cType="1" res="-4.0873521938920021e-03" rms="2.7122202515602112e-01" purity="8.3121016621589661e-02" nType="-99"/>
          <Node pos="r" depth="2" NCoef="0" IVar="-1" Cut="0.0000000000000000e+00" cType="1" res="1.0486865648999810e-03" rms="4.1720744967460632e-01" purity="5.1848608255386353e-01" nType="-99"/>
        </Node>
        <Node pos="r" depth="1" NCoef="0" IVar="4" Cut="8.0849406250000000e+04" cType="1" res="1.5984611582553188e-41" rms="9.0681236982345581e-01" purity="8.2230871915817261e-01" nType="0">
          <Node pos="l" depth="2" NCoef="0" IVar="-1" Cut="0.0000000000000000e+00" cType="1" res="2.4277863849420100e-04" rms="3.9883458614349365e-01" purity="7.5740063190460205e-01" nType="-99"/>
          <Node pos="r" depth="2" NCoef="0" IVar="-1" Cut="0.0000000000000000e+00" cType="1" res="1.2600244954228401e-03" rms="2.9194259643554688e-01" purity="9.0617316961288452e-01" nType="-99"/>
        </Node>
      </Node>
    </BinaryTree>
    <BinaryTree type="DecisionTree" boostWeight="1.0000000000000000e+00" itree="514">
      <Node pos="s" depth="0" NCoef="0" IVar="2" Cut="8.9656421875000000e+04" cType="1" res="1.3513216748833656e-02" rms="1.1546556651592255e-01" purity="5.2961361408233643e-01" nType="0">
        <Node pos="l" depth="1" NCoef="0" IVar="2" Cut="8.9241945312500000e+04" cType="1" res="7.5016534328460693e-01" rms="4.3295392394065857e-01" purity="7.5019711256027222e-01" nType="0">
          <Node pos="l" depth="2" NCoef="0" IVar="-1" Cut="0.0000000000000000e+00" cType="1" res="3.4120053896913305e-05" rms="3.4760260581970215e-01" purity="3.6708581447601318e-01" nType="-99"/>
          <Node pos="r" depth="2" NCoef="0" IVar="-1" Cut="0.0000000000000000e+00" cType="1" res="1.4958221981942188e-05" rms="3.0541002750396729e-01" purity="9.1125065088272095e-01" nType="-99"/>
        </Node>
        <Node pos="r" depth="1" NCoef="0" IVar="4" Cut="7.5851945312500000e+04" cType="1" res="0.0000000000000000e+00" rms="0.0000000000000000e+00" purity="3.8863453269004822e-01" nType="0">
          <Node pos="l" depth="2" NCoef="0" IVar="-1" Cut="0.0000000000000000e+00" cType="1" res="1.3042944192420691e-04" rms="3.6082845926284790e-01" purity="3.3983802795410156e-01" nType="-99"/>
          <Node pos="r" depth="2" NCoef="0" IVar="-1" Cut="0.0000000000000000e+00" cType="1" res="1.3326733605936170e-03" rms="3.0016714334487915e-01" purity="8.9527809619903564e-01" nType="-99"/>
        </Node>
      </Node>
    </BinaryTree>
    <BinaryTree type="DecisionTree" boostWeight="1.0000000000000000e+00" itree="515">
      <Node pos="s" depth="0" NCoef="0" IVar="0" Cut="1.0000000000000000e+00" cType="1" res="3.3657401800155640e-01" rms="4.7849103808403015e-01" purity="6.3669902086257935e-01" nType="0">
        <Node pos="l" depth="1" NCoef="0" IVar="4" Cut="1.9618507812500000e+04" cType="1" res="6.5948539972305298e-01" rms="4.7388228774070740e-01" purity="6.5948534011840820e-01" nType="0">
          <Node pos="l" depth="2" NCoef="0" IVar="-1" Cut="0.0000000000000000e+00" cType="1" res="-2.7274682652205229e-03" rms="1.8742638826370239e-01" purity="3.6600165069103241e-02" nType="-99"/>
          <Node pos="r" depth="2" NCoef="0" IVar="-1" Cut="0.0000000000000000e+00" cType="1" res="1.4465890671999659e-05" rms="3.9848667383193970e-01" purity="8.3540844917297363e-01" nType="-99"/>
        </Node>
        <Node pos="r" depth="1" NCoef="0" IVar="5" Cut="7.3763525000000000e+05" cType="1" res="5.8680778741836548e-01" rms="4.9310597777366638e-01" purity="5.8797132968902588e-01" nType="0">
          <Node pos="l" depth="2" NCoef="0" IVar="-1" Cut="0.0000000000000000e+00" cType="1" res="7.8839570051059127e-04" rms="4.1988369822502136e-01" purity="5.4257017374038696e-01" nType="-99"/>
          <Node pos="r" depth="2" NCoef="0" IVar="-1" Cut="0.0000000000000000e+00" cType="1" res="3.6934989038854837e-03" rms="2.8309416770935059e-01" purity="9.0376710891723633e-01" nType="-99"/>
        </Node>
      </Node>
    </BinaryTree>
    <BinaryTree type="DecisionTree" boostWeight="1.0000000000000000e+00" itree="516">
      <Node pos="s" depth="0" NCoef="0" IVar="3" Cut="9.5950960937500000e+04" cType="1" res="4.7826671600341797e-01" rms="4.9952745437622070e-01" purity="4.7826671600341797e-01" nType="0">
        <Node pos="l" depth="1" NCoef="0" IVar="4" Cut="7.7944625000000000e+04" cType="1" res="3.7313914299011230e-01" rms="4.8363861441612244e-01" purity="3.7313914299011230e-01" nType="0">
          <Node pos="l" depth="2" NCoef="0" IVar="-1" Cut="0.0000000000000000e+00" cType="1" res="-3.7092063575983047e-04" rms="3.5475626587867737e-01" purity="3.2594242691993713e-01" nType="-99"/>
          <Node pos="r" depth="2" NCoef="0" IVar="-1" Cut="0.0000000000000000e+00" cType="1" res="1.4293945860117674e-03" rms="2.9003360867500305e-01" purity="9.0608960390090942e-01" nType="-99"/>
        </Node>
        <Node pos="r" depth="1" NCoef="0" IVar="3" Cut="9.6695718750000000e+04" cType="1" res="7.6979702711105347e-01" rms="4.2096266150474548e-01" purity="7.7029383182525635e-01" nType="0">
          <Node pos="l" depth="2" NCoef="0" IVar="-1" Cut="0.0000000000000000e+00" cType="1" res="1.2462804079405032e-05" rms="3.0068153142929077e-01" purity="9.1590720415115356e-01" nType="-99"/>
          <Node pos="r" depth="2" NCoef="0" IVar="-1" Cut="0.0000000000000000e+00" cType="1" res="7.1020412724465132e-04" rms="3.7163114547729492e-01" purity="4.4643890857696533e-01" nType="-99"/>
        </Node>
      </Node>
    </BinaryTree>
    <BinaryTree type="DecisionTree" boostWeight="1.0000000000000000e+00" itree="517">
      <Node pos="s" depth="0" NCoef="0" IVar="0" Cut="1.0000000000000000e+00" cType="1" res="2.6028341054916382e-01" rms="4.6965929865837097e-01" purity="5.7897996902465820e-01" nType="0">
        <Node pos="l" depth="1" NCoef="0" IVar="4" Cut="1.9615392578125000e+04" cType="1" res="5.7012587785720825e-01" rms="4.9505794048309326e-01" purity="5.7012587785720825e-01" nType="0">
          <Node pos="l" depth="2" NCoef="0" IVar="-1" Cut="0.0000000000000000e+00" cType="1" res="-4.0873358957469463e-03" rms="1.8294991552829742e-01" purity="3.4738220274448395e-02" nType="-99"/>
          <Node pos="r" depth="2" NCoef="0" IVar="-1" Cut="0.0000000000000000e+00" cType="1" res="1.5677553165005520e-05" rms="4.4070208072662354e-01" purity="7.7769386768341064e-01" nType="-99"/>
        </Node>
        <Node pos="r" depth="1" NCoef="0" IVar="0" Cut="4.0000000000000000e+00" cType="1" res="3.8611002266407013e-02" rms="3.9967021346092224e-01" purity="5.9413003921508789e-01" nType="0">
          <Node pos="l" depth="2" NCoef="0" IVar="-1" Cut="0.0000000000000000e+00" cType="1" res="7.1352516533806920e-04" rms="4.1585141420364380e-01" purity="5.4685121774673462e-01" nType="-99"/>
          <Node pos="r" depth="2" NCoef="0" IVar="-1" Cut="0.0000000000000000e+00" cType="1" res="3.9494439261034131e-04" rms="2.2648528218269348e-01" purity="9.4752091169357300e-01" nType="-99"/>
        </Node>
      </Node>
    </BinaryTree>
    <BinaryTree type="DecisionTree" boostWeight="1.0000000000000000e+00" itree="518">
      <Node pos="s" depth="0" NCoef="0" IVar="1" Cut="1.9126706250000000e+05" cType="1" res="5.4350018501281738e-01" rms="4.9810412526130676e-01" purity="5.4350018501281738e-01" nType="0">
        <Node pos="l" depth="1" NCoef="0" IVar="1" Cut="1.8719876562500000e+05" cType="1" res="2.4973701685667038e-02" rms="1.6744802892208099e-01" purity="8.6520463228225708e-01" nType="0">
          <Node pos="l" depth="2" NCoef="0" IVar="-1" Cut="0.0000000000000000e+00" cType="1" res="-1.3994006440043449e-04" rms="3.1462320685386658e-01" purity="2.3968262970447540e-01" nType="-99"/>
          <Node pos="r" depth="2" NCoef="0" IVar="-1" Cut="0.0000000000000000e+00" cType="1" res="2.1293917598086409e-05" rms="2.3685517907142639e-01" purity="9.3602132797241211e-01" nType="-99"/>
        </Node>
        <Node pos="r" depth="1" NCoef="0" IVar="4" Cut="7.6838750000000000e+04" cType="1" res="4.0740731358528137e-01" rms="4.9135181307792664e-01" purity="4.0740731358528137e-01" nType="0">
          <Node pos="l" depth="2" NCoef="0" IVar="-1" Cut="0.0000000000000000e+00" cType="1" res="2.8500444022938609e-04" rms="3.6668559908866882e-01" purity="3.6063644289970398e-01" nType="-99"/>
          <Node pos="r" depth="2" NCoef="0" IVar="-1" Cut="0.0000000000000000e+00" cType="1" res="1.3103998498991132e-03" rms="2.9516726732254028e-01" purity="9.0145361423492432e-01" nType="-99"/>
        </Node>
      </Node>
    </BinaryTree>
    <BinaryTree type="DecisionTree" boostWeight="1.0000000000000000e+00" itree="519">
      <Node pos="s" depth="0" NCoef="0" IVar="3" Cut="9.5950960937500000e+04" cType="1" res="4.7973251342773438e-01" rms="4.9988213181495667e-01" purity="4.8009106516838074e-01" nType="0">
        <Node pos="l" depth="1" NCoef="0" IVar="4" Cut="3.5506140625000000e+04" cType="1" res="3.7880533933639526e-01" rms="4.8556104302406311e-01" purity="3.7965837121009827e-01" nType="0">
          <Node pos="l" depth="2" NCoef="0" IVar="-1" Cut="0.0000000000000000e+00" cType="1" res="-9.3709334032610059e-04" rms="3.2668343186378479e-01" purity="2.5600677728652954e-01" nType="-99"/>
          <Node pos="r" depth="2" NCoef="0" IVar="-1" Cut="0.0000000000000000e+00" cType="1" res="1.0451056296005845e-03" rms="4.0798929333686829e-01" purity="6.8739861249923706e-01" nType="-99"/>
        </Node>
        <Node pos="r" depth="1" NCoef="0" IVar="2" Cut="8.9294859375000000e+04" cType="1" res="7.6703703403472900e-01" rms="4.2271882295608521e-01" purity="7.6729029417037964e-01" nType="0">
          <Node pos="l" depth="2" NCoef="0" IVar="-1" Cut="0.0000000000000000e+00" cType="1" res="1.2752701877616346e-05" rms="3.0481517314910889e-01" purity="9.1568970680236816e-01" nType="-99"/>
          <Node pos="r" depth="2" NCoef="0" IVar="-1" Cut="0.0000000000000000e+00" cType="1" res="-5.2474415861070156e-04" rms="3.6881506443023682e-01" purity="3.7299701571464539e-01" nType="-99"/>
        </Node>
      </Node>
    </BinaryTree>
    <BinaryTree type="DecisionTree" boostWeight="1.0000000000000000e+00" itree="520">
      <Node pos="s" depth="0" NCoef="0" IVar="5" Cut="1.6744325000000000e+05" cType="1" res="4.8438104987144470e-01" rms="4.9999907612800598e-01" purity="4.8471212387084961e-01" nType="0">
        <Node pos="l" depth="1" NCoef="0" IVar="3" Cut="9.0137726562500000e+04" cType="1" res="6.9416850805282593e-01" rms="4.6075871586799622e-01" purity="6.9416850805282593e-01" nType="0">
          <Node pos="l" depth="2" NCoef="0" IVar="-1" Cut="0.0000000000000000e+00" cType="1" res="-2.8457578737288713e-03" rms="2.2465021908283234e-01" purity="7.0431008934974670e-02" nType="-99"/>
          <Node pos="r" depth="2" NCoef="0" IVar="-1" Cut="0.0000000000000000e+00" cType="1" res="1.2456137483241037e-05" rms="3.0709588527679443e-01" purity="8.5758262872695923e-01" nType="-99"/>
        </Node>
        <Node pos="r" depth="1" NCoef="0" IVar="4" Cut="7.8425695312500000e+04" cType="1" res="4.1979467868804932e-01" rms="4.9384710192680359e-01" purity="4.2022761702537537e-01" nType="0">
          <Node pos="l" depth="2" NCoef="0" IVar="-1" Cut="0.0000000000000000e+00" cType="1" res="3.2332184491679072e-04" rms="3.7702775001525879e-01" purity="3.7018701434135437e-01" nType="-99"/>
          <Node pos="r" depth="2" NCoef="0" IVar="-1" Cut="0.0000000000000000e+00" cType="1" res="1.3011496048420668e-03" rms="2.8691825270652771e-01" purity="9.0939468145370483e-01" nType="-99"/>
        </Node>
      </Node>
    </BinaryTree>
    <BinaryTree type="DecisionTree" boostWeight="1.0000000000000000e+00" itree="521">
      <Node pos="s" depth="0" NCoef="0" IVar="1" Cut="2.0102762500000000e+05" cType="1" res="4.4759759306907654e-01" rms="4.9735534191131592e-01" purity="4.4784522056579590e-01" nType="0">
        <Node pos="l" depth="1" NCoef="0" IVar="2" Cut="8.9653828125000000e+04" cType="1" res="4.8644879460334778e-01" rms="5.2080082893371582e-01" purity="5.5141741037368774e-01" nType="0">
          <Node pos="l" depth="2" NCoef="0" IVar="-1" Cut="0.0000000000000000e+00" cType="1" res="2.1280284272506833e-05" rms="3.8581344485282898e-01" purity="8.0736571550369263e-01" nType="-99"/>
          <Node pos="r" depth="2" NCoef="0" IVar="-1" Cut="0.0000000000000000e+00" cType="1" res="-9.9995662458240986e-04" rms="3.3198425173759460e-01" purity="2.1168988943099976e-01" nType="-99"/>
        </Node>
        <Node pos="r" depth="1" NCoef="0" IVar="4" Cut="5.0980992187500000e+04" cType="1" res="4.1599190235137939e-01" rms="4.9303546547889709e-01" purity="4.1631492972373962e-01" nType="0">
          <Node pos="l" depth="2" NCoef="0" IVar="-1" Cut="0.0000000000000000e+00" cType="1" res="-2.1313234174158424e-04" rms="3.5683882236480713e-01" purity="3.2141089439392090e-01" nType="-99"/>
          <Node pos="r" depth="2" NCoef="0" IVar="-1" Cut="0.0000000000000000e+00" cType="1" res="6.7912205122411251e-04" rms="3.5543835163116455e-01" purity="8.2620972394943237e-01" nType="-99"/>
        </Node>
      </Node>
    </BinaryTree>
    <BinaryTree type="DecisionTree" boostWeight="1.0000000000000000e+00" itree="522">
      <Node pos="s" depth="0" NCoef="0" IVar="2" Cut="8.9606054687500000e+04" cType="1" res="5.3158938884735107e-01" rms="4.9917256832122803e-01" purity="5.3203141689300537e-01" nType="0">
        <Node pos="l" depth="1" NCoef="0" IVar="2" Cut="8.9252843750000000e+04" cType="1" res="7.5435918569564819e-01" rms="4.3046650290489197e-01" purity="7.5456017255783081e-01" nType="0">
          <Node pos="l" depth="2" NCoef="0" IVar="-1" Cut="0.0000000000000000e+00" cType="1" res="7.5626344187185168e-04" rms="3.6885330080986023e-01" purity="3.8833057880401611e-01" nType="-99"/>
          <Node pos="r" depth="2" NCoef="0" IVar="-1" Cut="0.0000000000000000e+00" cType="1" res="1.4931246369087603e-05" rms="2.8521785140037537e-01" purity="9.2367088794708252e-01" nType="-99"/>
        </Node>
        <Node pos="r" depth="1" NCoef="0" IVar="4" Cut="3.7094507812500000e+04" cType="1" res="3.9070859551429749e-01" rms="4.8806521296501160e-01" purity="3.9130306243896484e-01" nType="0">
          <Node pos="l" depth="2" NCoef="0" IVar="-1" Cut="0.0000000000000000e+00" cType="1" res="-3.1223331461660564e-04" rms="3.3715450763702393e-01" purity="2.7164235711097717e-01" nType="-99"/>
          <Node pos="r" depth="2" NCoef="0" IVar="-1" Cut="0.0000000000000000e+00" cType="1" res="1.1736714513972402e-03" rms="4.0572667121887207e-01" purity="7.0810431241989136e-01" nType="-99"/>
        </Node>
      </Node>
    </BinaryTree>
    <BinaryTree type="DecisionTree" boostWeight="1.0000000000000000e+00" itree="523">
      <Node pos="s" depth="0" NCoef="0" IVar="4" Cut="8.2745929687500000e+04" cType="1" res="0.0000000000000000e+00" rms="1.3797259242110976e+16" purity="3.8149437308311462e-01" nType="0">
        <Node pos="l" depth="1" NCoef="0" IVar="0" Cut="3.0000000000000000e+00" cType="1" res="9.5379876438528299e-04" rms="3.6033663153648376e-01" purity="3.4518998861312866e-01" nType="0">
          <Node pos="l" depth="2" NCoef="0" IVar="-1" Cut="0.0000000000000000e+00" cType="1" res="-4.6024573384784162e-04" rms="3.6541375517845154e-01" purity="2.7341169118881226e-01" nType="-99"/>
          <Node pos="r" depth="2" NCoef="0" IVar="-1" Cut="0.0000000000000000e+00" cType="1" res="3.3566646743565798e-03" rms="3.0913701653480530e-01" purity="8.9208143949508667e-01" nType="-99"/>
        </Node>
        <Node pos="r" depth="1" NCoef="0" IVar="-1" Cut="0.0000000000000000e+00" cType="1" res="1.3341620797291398e-03" rms="3.0474191904067993e-01" purity="8.9695835113525391e-01" nType="-99"/>
      </Node>
    </BinaryTree>
    <BinaryTree type="DecisionTree" boostWeight="1.0000000000000000e+00" itree="524">
      <Node pos="s" depth="0" NCoef="0" IVar="5" Cut="1.5917245312500000e+05" cType="1" res="4.7542950510978699e-01" rms="4.9962854385375977e-01" purity="4.7575113177299500e-01" nType="0">
        <Node pos="l" depth="1" NCoef="0" IVar="-1" Cut="0.0000000000000000e+00" cType="1" res="1.2411794159561396e-05" rms="3.5862714052200317e-01" purity="7.8354191780090332e-01" nType="-99"/>
        <Node pos="r" depth="1" NCoef="0" IVar="0" Cut="3.0000000000000000e+00" cType="1" res="8.6197564378380775e-03" rms="3.6607468128204346e-01" purity="3.9483043551445007e-01" nType="0">
          <Node pos="l" depth="2" NCoef="0" IVar="-1" Cut="0.0000000000000000e+00" cType="1" res="-7.4422074249014258e-05" rms="3.7361636757850647e-01" purity="3.2014030218124390e-01" nType="-99"/>
          <Node pos="r" depth="2" NCoef="0" IVar="-1" Cut="0.0000000000000000e+00" cType="1" res="2.7112595271319151e-03" rms="3.0142110586166382e-01" purity="8.9794886112213135e-01" nType="-99"/>
        </Node>
      </Node>
    </BinaryTree>
    <BinaryTree type="DecisionTree" boostWeight="1.0000000000000000e+00" itree="525">
      <Node pos="s" depth="0" NCoef="0" IVar="2" Cut="9.1849609375000000e+04" cType="1" res="4.6720913052558899e-01" rms="4.9919119477272034e-01" purity="4.6747621893882751e-01" nType="0">
        <Node pos="l" depth="1" NCoef="0" IVar="0" Cut="3.0000000000000000e+00" cType="1" res="5.6125191040337086e-03" rms="3.4908792376518250e-01" purity="3.8061803579330444e-01" nType="0">
          <Node pos="l" depth="2" NCoef="0" IVar="-1" Cut="0.0000000000000000e+00" cType="1" res="-3.8345973007380962e-04" rms="3.5689434409141541e-01" purity="2.9853841662406921e-01" nType="-99"/>
          <Node pos="r" depth="2" NCoef="0" IVar="-1" Cut="0.0000000000000000e+00" cType="1" res="7.3290924774482846e-04" rms="2.7509361505508423e-01" purity="9.1746270656585693e-01" nType="-99"/>
        </Node>
        <Node pos="r" depth="1" NCoef="0" IVar="2" Cut="9.2047007812500000e+04" cType="1" res="6.0069620609283447e-01" rms="4.9004787206649780e-01" purity="6.0098284482955933e-01" nType="0">
          <Node pos="l" depth="2" NCoef="0" IVar="-1" Cut="0.0000000000000000e+00" cType="1" res="1.8390386685496196e-05" rms="3.5864749550819397e-01" purity="8.7837523221969604e-01" nType="-99"/>
          <Node pos="r" depth="2" NCoef="0" IVar="-1" Cut="0.0000000000000000e+00" cType="1" res="3.3633192651905119e-04" rms="3.5750594735145569e-01" purity="3.9049720764160156e-01" nType="-99"/>
        </Node>
      </Node>
    </BinaryTree>
    <BinaryTree type="DecisionTree" boostWeight="1.0000000000000000e+00" itree="526">
      <Node pos="s" depth="0" NCoef="0" IVar="1" Cut="1.9126706250000000e+05" cType="1" res="4.4818457961082458e-01" rms="4.9730792641639709e-01" purity="4.4818460941314697e-01" nType="0">
        <Node pos="l" depth="1" NCoef="0" IVar="1" Cut="1.8719825000000000e+05" cType="1" res="3.7471249699592590e-02" rms="2.1675714850425720e-01" purity="7.0337849855422974e-01" nType="0">
          <Node pos="l" depth="2" NCoef="0" IVar="-1" Cut="0.0000000000000000e+00" cType="1" res="-1.6938329208642244e-03" rms="3.1344214081764221e-01" purity="1.9524988532066345e-01" nType="-99"/>
          <Node pos="r" depth="2" NCoef="0" IVar="-1" Cut="0.0000000000000000e+00" cType="1" res="2.1204381482675672e-05" rms="3.5303264856338501e-01" purity="8.3951097726821899e-01" nType="-99"/>
        </Node>
        <Node pos="r" depth="1" NCoef="0" IVar="4" Cut="7.6867679687500000e+04" cType="1" res="4.0016478300094604e-01" rms="4.8993155360221863e-01" purity="4.0016478300094604e-01" nType="0">
          <Node pos="l" depth="2" NCoef="0" IVar="-1" Cut="0.0000000000000000e+00" cType="1" res="2.4608461535535753e-04" rms="3.6548376083374023e-01" purity="3.5304671525955200e-01" nType="-99"/>
          <Node pos="r" depth="2" NCoef="0" IVar="-1" Cut="0.0000000000000000e+00" cType="1" res="1.4739820035174489e-03" rms="2.9583010077476501e-01" purity="9.0098410844802856e-01" nType="-99"/>
        </Node>
      </Node>
    </BinaryTree>
    <BinaryTree type="DecisionTree" boostWeight="1.0000000000000000e+00" itree="527">
      <Node pos="s" depth="0" NCoef="0" IVar="5" Cut="1.6601217187500000e+05" cType="1" res="4.8257046937942505e-01" rms="4.9974289536476135e-01" purity="4.8270541429519653e-01" nType="0">
        <Node pos="l" depth="1" NCoef="0" IVar="5" Cut="1.5709498437500000e+05" cType="1" res="7.0296776294708252e-01" rms="4.5695087313652039e-01" purity="7.0296776294708252e-01" nType="0">
          <Node pos="l" depth="2" NCoef="0" IVar="-1" Cut="0.0000000000000000e+00" cType="1" res="-9.6462788060307503e-03" rms="1.9958773255348206e-01" purity="4.3654616922140121e-02" nType="-99"/>
          <Node pos="r" depth="2" NCoef="0" IVar="-1" Cut="0.0000000000000000e+00" cType="1" res="1.2407273970893584e-05" rms="3.1252434849739075e-01" purity="8.5238653421401978e-01" nType="-99"/>
        </Node>
        <Node pos="r" depth="1" NCoef="0" IVar="4" Cut="8.2745929687500000e+04" cType="1" res="4.1693493723869324e-01" rms="4.9311342835426331e-01" purity="4.1711005568504333e-01" nType="0">
          <Node pos="l" depth="2" NCoef="0" IVar="-1" Cut="0.0000000000000000e+00" cType="1" res="4.9581320490688086e-04" rms="3.7541967630386353e-01" purity="3.7651678919792175e-01" nType="-99"/>
          <Node pos="r" depth="2" NCoef="0" IVar="-1" Cut="0.0000000000000000e+00" cType="1" res="1.4861222589388490e-03" rms="2.8376093506813049e-01" purity="9.0974062681198120e-01" nType="-99"/>
        </Node>
      </Node>
    </BinaryTree>
    <BinaryTree type="DecisionTree" boostWeight="1.0000000000000000e+00" itree="528">
      <Node pos="s" depth="0" NCoef="0" IVar="1" Cut="2.0179028125000000e+05" cType="1" res="4.4779422879219055e-01" rms="4.9745130538940430e-01" purity="4.4797745347023010e-01" nType="0">
        <Node pos="l" depth="1" NCoef="0" IVar="2" Cut="8.9636281250000000e+04" cType="1" res="7.0334160700440407e-03" rms="8.3570010960102081e-02" purity="5.5732345581054688e-01" nType="0">
          <Node pos="l" depth="2" NCoef="0" IVar="-1" Cut="0.0000000000000000e+00" cType="1" res="2.1186962840147316e-05" rms="3.8410985469818115e-01" purity="8.0464464426040649e-01" nType="-99"/>
          <Node pos="r" depth="2" NCoef="0" IVar="-1" Cut="0.0000000000000000e+00" cType="1" res="1.1574269738048315e-03" rms="3.4150844812393188e-01" purity="2.4671740829944611e-01" nType="-99"/>
        </Node>
        <Node pos="r" depth="1" NCoef="0" IVar="4" Cut="7.7944625000000000e+04" cType="1" res="4.1289600729942322e-01" rms="4.9259978532791138e-01" purity="4.1313767433166504e-01" nType="0">
          <Node pos="l" depth="2" NCoef="0" IVar="-1" Cut="0.0000000000000000e+00" cType="1" res="9.7450720204506069e-06" rms="3.6786004900932312e-01" purity="3.6082544922828674e-01" nType="-99"/>
          <Node pos="r" depth="2" NCoef="0" IVar="-1" Cut="0.0000000000000000e+00" cType="1" res="1.2084022164344788e-03" rms="2.8644785284996033e-01" purity="9.0849667787551880e-01" nType="-99"/>
        </Node>
      </Node>
    </BinaryTree>
    <BinaryTree type="DecisionTree" boostWeight="1.0000000000000000e+00" itree="529">
      <Node pos="s" depth="0" NCoef="0" IVar="4" Cut="3.6721250000000000e+04" cType="1" res="3.8894265890121460e-01" rms="4.8802486062049866e-01" purity="3.8944467902183533e-01" nType="0">
        <Node pos="l" depth="1" NCoef="0" IVar="0" Cut="1.0000000000000000e+00" cType="1" res="-1.5266111586242914e-03" rms="3.4084475040435791e-01" purity="2.6777431368827820e-01" nType="0">
          <Node pos="l" depth="2" NCoef="0" IVar="-1" Cut="0.0000000000000000e+00" cType="1" res="-3.3210699912160635e-03" rms="2.5684893131256104e-01" purity="7.1218095719814301e-02" nType="-99"/>
          <Node pos="r" depth="2" NCoef="0" IVar="-1" Cut="0.0000000000000000e+00" cType="1" res="1.0590199381113052e-03" rms="4.1380807757377625e-01" purity="4.8784664273262024e-01" nType="-99"/>
        </Node>
        <Node pos="r" depth="1" NCoef="0" IVar="4" Cut="7.9944054687500000e+04" cType="1" res="7.0261555910110474e-01" rms="4.5901134610176086e-01" purity="7.0436006784439087e-01" nType="0">
          <Node pos="l" depth="2" NCoef="0" IVar="-1" Cut="0.0000000000000000e+00" cType="1" res="4.6076974831521511e-04" rms="4.2889162898063660e-01" purity="6.4528769254684448e-01" nType="-99"/>
          <Node pos="r" depth="2" NCoef="0" IVar="-1" Cut="0.0000000000000000e+00" cType="1" res="1.3376267161220312e-03" rms="3.0998539924621582e-01" purity="8.8968342542648315e-01" nType="-99"/>
        </Node>
      </Node>
    </BinaryTree>
    <BinaryTree type="DecisionTree" boostWeight="1.0000000000000000e+00" itree="530">
      <Node pos="s" depth="0" NCoef="0" IVar="4" Cut="7.8767250000000000e+04" cType="1" res="3.8567712903022766e-01" rms="4.8675483465194702e-01" purity="3.8567712903022766e-01" nType="0">
        <Node pos="l" depth="1" NCoef="0" IVar="0" Cut="1.0000000000000000e+00" cType="1" res="4.7241649590432644e-03" rms="3.6383181810379028e-01" purity="3.4134149551391602e-01" nType="0">
          <Node pos="l" depth="2" NCoef="0" IVar="-1" Cut="0.0000000000000000e+00" cType="1" res="-2.0085864234715700e-03" rms="2.9788196086883545e-01" purity="1.0806893557310104e-01" nType="-99"/>
          <Node pos="r" depth="2" NCoef="0" IVar="-1" Cut="0.0000000000000000e+00" cType="1" res="1.1239107698202133e-03" rms="4.1367694735527039e-01" purity="5.5605781078338623e-01" nType="-99"/>
        </Node>
        <Node pos="r" depth="1" NCoef="0" IVar="-1" Cut="0.0000000000000000e+00" cType="1" res="1.3125546975061297e-03" rms="2.9145061969757080e-01" purity="9.0374124050140381e-01" nType="-99"/>
      </Node>
    </BinaryTree>
    <BinaryTree type="DecisionTree" boostWeight="1.0000000000000000e+00" itree="531">
      <Node pos="s" depth="0" NCoef="0" IVar="1" Cut="2.0237307812500000e+05" cType="1" res="4.9869450926780701e-01" rms="5.0015634298324585e-01" purity="4.9900206923484802e-01" nType="0">
        <Node pos="l" depth="1" NCoef="0" IVar="2" Cut="8.9600773437500000e+04" cType="1" res="6.3575071096420288e-01" rms="4.9777853488922119e-01" purity="6.7896109819412231e-01" nType="0">
          <Node pos="l" depth="2" NCoef="0" IVar="-1" Cut="0.0000000000000000e+00" cType="1" res="2.1460038624354638e-05" rms="3.1538769602775574e-01" purity="8.8441830873489380e-01" nType="-99"/>
          <Node pos="r" depth="2" NCoef="0" IVar="-1" Cut="0.0000000000000000e+00" cType="1" res="-2.2190619347384200e-05" rms="3.3289715647697449e-01" purity="2.2455660998821259e-01" nType="-99"/>
        </Node>
        <Node pos="r" depth="1" NCoef="0" IVar="4" Cut="7.4167796875000000e+04" cType="1" res="4.1781860589981079e-01" rms="4.9335485696792603e-01" purity="4.1818800568580627e-01" nType="0">
          <Node pos="l" depth="2" NCoef="0" IVar="-1" Cut="0.0000000000000000e+00" cType="1" res="1.9011364202015102e-04" rms="3.6736896634101868e-01" purity="3.6509072780609131e-01" nType="-99"/>
          <Node pos="r" depth="2" NCoef="0" IVar="-1" Cut="0.0000000000000000e+00" cType="1" res="1.3551521115005016e-03" rms="2.9696694016456604e-01" purity="9.0105104446411133e-01" nType="-99"/>
        </Node>
      </Node>
    </BinaryTree>
    <BinaryTree type="DecisionTree" boostWeight="1.0000000000000000e+00" itree="532">
      <Node pos="s" depth="0" NCoef="0" IVar="2" Cut="8.9687210937500000e+04" cType="1" res="5.8774048089981079e-01" rms="4.9245598912239075e-01" purity="5.8811068534851074e-01" nType="0">
        <Node pos="l" depth="1" NCoef="0" IVar="2" Cut="8.9278390625000000e+04" cType="1" res="8.1305259466171265e-01" rms="3.8986933231353760e-01" purity="8.1318575143814087e-01" nType="0">
          <Node pos="l" depth="2" NCoef="0" IVar="-1" Cut="0.0000000000000000e+00" cType="1" res="2.2388351499103010e-04" rms="3.5587307810783386e-01" purity="3.7529268860816956e-01" nType="-99"/>
          <Node pos="r" depth="2" NCoef="0" IVar="-1" Cut="0.0000000000000000e+00" cType="1" res="1.4042158909433056e-05" rms="2.5647065043449402e-01" purity="9.4152778387069702e-01" nType="-99"/>
        </Node>
        <Node pos="r" depth="1" NCoef="0" IVar="4" Cut="7.3362320312500000e+04" cType="1" res="3.8266757130622864e-01" rms="4.8629835247993469e-01" purity="3.8350626826286316e-01" nType="0">
          <Node pos="l" depth="2" NCoef="0" IVar="-1" Cut="0.0000000000000000e+00" cType="1" res="-2.6638802955858409e-04" rms="3.5821914672851562e-01" purity="3.2646489143371582e-01" nType="-99"/>
          <Node pos="r" depth="2" NCoef="0" IVar="-1" Cut="0.0000000000000000e+00" cType="1" res="1.3844771310687065e-03" rms="2.9344227910041809e-01" purity="9.0218198299407959e-01" nType="-99"/>
        </Node>
      </Node>
    </BinaryTree>
    <BinaryTree type="DecisionTree" boostWeight="1.0000000000000000e+00" itree="533">
      <Node pos="s" depth="0" NCoef="0" IVar="1" Cut="1.8991192187500000e+05" cType="1" res="6.1555910110473633e-01" rms="4.8646283149719238e-01" purity="6.1555910110473633e-01" nType="0">
        <Node pos="l" depth="1" NCoef="0" IVar="-1" Cut="0.0000000000000000e+00" cType="1" res="2.1508931240532547e-05" rms="2.8133279085159302e-01" purity="9.0784549713134766e-01" nType="-99"/>
        <Node pos="r" depth="1" NCoef="0" IVar="2" Cut="9.1865859375000000e+04" cType="1" res="4.8031502962112427e-01" rms="4.9961236119270325e-01" purity="4.8031499981880188e-01" nType="0">
          <Node pos="l" depth="2" NCoef="0" IVar="-1" Cut="0.0000000000000000e+00" cType="1" res="2.2163036919664592e-04" rms="3.5548248887062073e-01" purity="3.9072510600090027e-01" nType="-99"/>
          <Node pos="r" depth="2" NCoef="0" IVar="-1" Cut="0.0000000000000000e+00" cType="1" res="1.8789371097227558e-05" rms="4.9032220244407654e-01" purity="6.1334669589996338e-01" nType="-99"/>
        </Node>
      </Node>
    </BinaryTree>
    <BinaryTree type="DecisionTree" boostWeight="1.0000000000000000e+00" itree="534">
      <Node pos="s" depth="0" NCoef="0" IVar="2" Cut="9.1871109375000000e+04" cType="1" res="4.7047087550163269e-01" rms="4.9925759434700012e-01" purity="4.7069218754768372e-01" nType="0">
        <Node pos="l" depth="1" NCoef="0" IVar="4" Cut="6.0252363281250000e+04" cType="1" res="3.8157296180725098e-01" rms="4.8599421977996826e-01" purity="3.8178828358650208e-01" nType="0">
          <Node pos="l" depth="2" NCoef="0" IVar="-1" Cut="0.0000000000000000e+00" cType="1" res="-1.6469691763631999e-04" rms="3.5106799006462097e-01" purity="3.1115338206291199e-01" nType="-99"/>
          <Node pos="r" depth="2" NCoef="0" IVar="-1" Cut="0.0000000000000000e+00" cType="1" res="1.1728856479749084e-03" rms="3.4291666746139526e-01" purity="8.5202825069427490e-01" nType="-99"/>
        </Node>
        <Node pos="r" depth="1" NCoef="0" IVar="2" Cut="9.2060671875000000e+04" cType="1" res="6.0615110397338867e-01" rms="4.8860201239585876e-01" purity="6.0638147592544556e-01" nType="0">
          <Node pos="l" depth="2" NCoef="0" IVar="-1" Cut="0.0000000000000000e+00" cType="1" res="1.8522427126299590e-05" rms="3.5550001263618469e-01" purity="8.8329917192459106e-01" nType="-99"/>
          <Node pos="r" depth="2" NCoef="0" IVar="-1" Cut="0.0000000000000000e+00" cType="1" res="4.4135763891972601e-04" rms="3.5679897665977478e-01" purity="3.9425942301750183e-01" nType="-99"/>
        </Node>
      </Node>
    </BinaryTree>
    <BinaryTree type="DecisionTree" boostWeight="1.0000000000000000e+00" itree="535">
      <Node pos="s" depth="0" NCoef="0" IVar="3" Cut="9.5951070312500000e+04" cType="1" res="4.8064216971397400e-01" rms="4.9975511431694031e-01" purity="4.8085936903953552e-01" nType="0">
        <Node pos="l" depth="1" NCoef="0" IVar="0" Cut="1.0000000000000000e+00" cType="1" res="1.0166862979531288e-02" rms="3.5220125317573547e-01" purity="3.8144877552986145e-01" nType="0">
          <Node pos="l" depth="2" NCoef="0" IVar="-1" Cut="0.0000000000000000e+00" cType="1" res="-1.8765019485726953e-03" rms="2.8176233172416687e-01" purity="1.3034573197364807e-01" nType="-99"/>
          <Node pos="r" depth="2" NCoef="0" IVar="-1" Cut="0.0000000000000000e+00" cType="1" res="7.2445994010195136e-04" rms="4.0020564198493958e-01" purity="5.9383600950241089e-01" nType="-99"/>
        </Node>
        <Node pos="r" depth="1" NCoef="0" IVar="2" Cut="8.9295234375000000e+04" cType="1" res="7.6843655109405518e-01" rms="4.2183151841163635e-01" purity="7.6894289255142212e-01" nType="0">
          <Node pos="l" depth="2" NCoef="0" IVar="-1" Cut="0.0000000000000000e+00" cType="1" res="1.2675784091698006e-05" rms="3.0930438637733459e-01" purity="9.1054153442382812e-01" nType="-99"/>
          <Node pos="r" depth="2" NCoef="0" IVar="-1" Cut="0.0000000000000000e+00" cType="1" res="2.7013142243959010e-04" rms="3.7051808834075928e-01" purity="4.1437208652496338e-01" nType="-99"/>
        </Node>
      </Node>
    </BinaryTree>
    <BinaryTree type="DecisionTree" boostWeight="1.0000000000000000e+00" itree="536">
      <Node pos="s" depth="0" NCoef="0" IVar="4" Cut="7.6867679687500000e+04" cType="1" res="3.9081048965454102e-01" rms="4.8800659179687500e-01" purity="3.9088329672813416e-01" nType="0">
        <Node pos="l" depth="1" NCoef="0" IVar="0" Cut="4.0000000000000000e+00" cType="1" res="6.3020489178597927e-03" rms="3.6593651771545410e-01" purity="3.4570613503456116e-01" nType="0">
          <Node pos="l" depth="2" NCoef="0" IVar="-1" Cut="0.0000000000000000e+00" cType="1" res="3.1890413083601743e-05" rms="3.7019431591033936e-01" purity="3.1488990783691406e-01" nType="-99"/>
          <Node pos="r" depth="2" NCoef="0" IVar="-1" Cut="0.0000000000000000e+00" cType="1" res="5.0100893713533878e-04" rms="2.4780964851379395e-01" purity="9.3540114164352417e-01" nType="-99"/>
        </Node>
        <Node pos="r" depth="1" NCoef="0" IVar="-1" Cut="0.0000000000000000e+00" cType="1" res="1.3667722232639790e-03" rms="2.9533606767654419e-01" purity="9.0044182538986206e-01" nType="-99"/>
      </Node>
    </BinaryTree>
    <BinaryTree type="DecisionTree" boostWeight="1.0000000000000000e+00" itree="537">
      <Node pos="s" depth="0" NCoef="0" IVar="3" Cut="9.5950507812500000e+04" cType="1" res="4.8421004414558411e-01" rms="4.9975061416625977e-01" purity="4.8421001434326172e-01" nType="0">
        <Node pos="l" depth="1" NCoef="0" IVar="4" Cut="3.7094507812500000e+04" cType="1" res="0.0000000000000000e+00" rms="1.4956565625000000e+05" purity="3.7929046154022217e-01" nType="0">
          <Node pos="l" depth="2" NCoef="0" IVar="-1" Cut="0.0000000000000000e+00" cType="1" res="-5.9236137894913554e-04" rms="3.3449620008468628e-01" purity="2.5900155305862427e-01" nType="-99"/>
          <Node pos="r" depth="2" NCoef="0" IVar="-1" Cut="0.0000000000000000e+00" cType="1" res="6.4304674742743373e-04" rms="4.0289491415023804e-01" purity="7.0613014698028564e-01" nType="-99"/>
        </Node>
        <Node pos="r" depth="1" NCoef="0" IVar="2" Cut="8.9384226562500000e+04" cType="1" res="4.2156809568405151e-01" rms="4.9385237693786621e-01" purity="7.7681928873062134e-01" nType="0">
          <Node pos="l" depth="2" NCoef="0" IVar="-1" Cut="0.0000000000000000e+00" cType="1" res="1.2952104953001253e-05" rms="3.1367182731628418e-01" purity="9.1086453199386597e-01" nType="-99"/>
          <Node pos="r" depth="2" NCoef="0" IVar="-1" Cut="0.0000000000000000e+00" cType="1" res="4.5441530528478324e-04" rms="3.7259554862976074e-01" purity="4.2772346735000610e-01" nType="-99"/>
        </Node>
      </Node>
    </BinaryTree>
    <BinaryTree type="DecisionTree" boostWeight="1.0000000000000000e+00" itree="538">
      <Node pos="s" depth="0" NCoef="0" IVar="3" Cut="9.5950898437500000e+04" cType="1" res="4.7765114903450012e-01" rms="4.9950027465820312e-01" purity="4.7765114903450012e-01" nType="0">
        <Node pos="l" depth="1" NCoef="0" IVar="4" Cut="7.8753968750000000e+04" cType="1" res="3.7647190690040588e-01" rms="4.8450058698654175e-01" purity="3.7647190690040588e-01" nType="0">
          <Node pos="l" depth="2" NCoef="0" IVar="-1" Cut="0.0000000000000000e+00" cType="1" res="-4.9399131967220455e-05" rms="3.6035111546516418e-01" purity="3.3100664615631104e-01" nType="-99"/>
          <Node pos="r" depth="2" NCoef="0" IVar="-1" Cut="0.0000000000000000e+00" cType="1" res="1.4035360654816031e-03" rms="2.9313710331916809e-01" purity="9.0323913097381592e-01" nType="-99"/>
        </Node>
        <Node pos="r" depth="1" NCoef="0" IVar="3" Cut="9.6695703125000000e+04" cType="1" res="7.6321929693222046e-01" rms="4.2510658502578735e-01" purity="7.6321929693222046e-01" nType="0">
          <Node pos="l" depth="2" NCoef="0" IVar="-1" Cut="0.0000000000000000e+00" cType="1" res="1.2496027011366095e-05" rms="3.0875727534294128e-01" purity="9.1319280862808228e-01" nType="-99"/>
          <Node pos="r" depth="2" NCoef="0" IVar="-1" Cut="0.0000000000000000e+00" cType="1" res="3.9348468999378383e-04" rms="3.6745527386665344e-01" purity="4.2002078890800476e-01" nType="-99"/>
        </Node>
      </Node>
    </BinaryTree>
    <BinaryTree type="DecisionTree" boostWeight="1.0000000000000000e+00" itree="539">
      <Node pos="s" depth="0" NCoef="0" IVar="2" Cut="9.1849609375000000e+04" cType="1" res="4.7126629948616028e-01" rms="4.9930492043495178e-01" purity="4.7139734029769897e-01" nType="0">
        <Node pos="l" depth="1" NCoef="0" IVar="4" Cut="3.5728851562500000e+04" cType="1" res="3.8301137089729309e-01" rms="4.8623648285865784e-01" purity="3.8312363624572754e-01" nType="0">
          <Node pos="l" depth="2" NCoef="0" IVar="-1" Cut="0.0000000000000000e+00" cType="1" res="-8.8341330410912633e-04" rms="3.2908275723457336e-01" purity="2.5605592131614685e-01" nType="-99"/>
          <Node pos="r" depth="2" NCoef="0" IVar="-1" Cut="0.0000000000000000e+00" cType="1" res="1.0945897083729506e-03" rms="4.0631166100502014e-01" purity="7.0049417018890381e-01" nType="-99"/>
        </Node>
        <Node pos="r" depth="1" NCoef="0" IVar="2" Cut="9.2047007812500000e+04" cType="1" res="6.0433560609817505e-01" rms="4.8912730813026428e-01" purity="6.0462641716003418e-01" nType="0">
          <Node pos="l" depth="2" NCoef="0" IVar="-1" Cut="0.0000000000000000e+00" cType="1" res="1.8671957150218077e-05" rms="3.6284825205802917e-01" purity="8.7722659111022949e-01" nType="-99"/>
          <Node pos="r" depth="2" NCoef="0" IVar="-1" Cut="0.0000000000000000e+00" cType="1" res="3.6338370409794152e-04" rms="3.5632157325744629e-01" purity="3.9581659436225891e-01" nType="-99"/>
        </Node>
      </Node>
    </BinaryTree>
    <BinaryTree type="DecisionTree" boostWeight="1.0000000000000000e+00" itree="540">
      <Node pos="s" depth="0" NCoef="0" IVar="1" Cut="2.0340862500000000e+05" cType="1" res="5.2945035696029663e-01" rms="4.9918410181999207e-01" purity="5.2958256006240845e-01" nType="0">
        <Node pos="l" depth="1" NCoef="0" IVar="2" Cut="8.9655093750000000e+04" cType="1" res="2.8907671570777893e-01" rms="4.6741113066673279e-01" purity="7.2578495740890503e-01" nType="0">
          <Node pos="l" depth="2" NCoef="0" IVar="-1" Cut="0.0000000000000000e+00" cType="1" res="1.4953572645026725e-05" rms="2.8310430049896240e-01" purity="9.0903890132904053e-01" nType="-99"/>
          <Node pos="r" depth="2" NCoef="0" IVar="-1" Cut="0.0000000000000000e+00" cType="1" res="-1.3591205060947686e-04" rms="3.2477396726608276e-01" purity="2.3482476174831390e-01" nType="-99"/>
        </Node>
        <Node pos="r" depth="1" NCoef="0" IVar="4" Cut="5.3227273437500000e+04" cType="1" res="4.2047616839408875e-01" rms="4.9371749162673950e-01" purity="4.2068165540695190e-01" nType="0">
          <Node pos="l" depth="2" NCoef="0" IVar="-1" Cut="0.0000000000000000e+00" cType="1" res="1.8354918574914336e-04" rms="3.6498054862022400e-01" purity="3.3198067545890808e-01" nType="-99"/>
          <Node pos="r" depth="2" NCoef="0" IVar="-1" Cut="0.0000000000000000e+00" cType="1" res="6.5812288084998727e-04" rms="3.4758085012435913e-01" purity="8.4051984548568726e-01" nType="-99"/>
        </Node>
      </Node>
    </BinaryTree>
    <BinaryTree type="DecisionTree" boostWeight="1.0000000000000000e+00" itree="541">
      <Node pos="s" depth="0" NCoef="0" IVar="4" Cut="8.2745929687500000e+04" cType="1" res="3.8783329725265503e-01" rms="4.8747146129608154e-01" purity="3.8804304599761963e-01" nType="0">
        <Node pos="l" depth="1" NCoef="0" IVar="0" Cut="4.0000000000000000e+00" cType="1" res="5.8934711851179600e-03" rms="3.6626189947128296e-01" purity="3.5040235519409180e-01" nType="0">
          <Node pos="l" depth="2" NCoef="0" IVar="-1" Cut="0.0000000000000000e+00" cType="1" res="-3.4335236705373973e-05" rms="3.7123772501945496e-01" purity="3.1636637449264526e-01" nType="-99"/>
          <Node pos="r" depth="2" NCoef="0" IVar="-1" Cut="0.0000000000000000e+00" cType="1" res="5.5992213310673833e-04" rms="2.3793704807758331e-01" purity="9.4105851650238037e-01" nType="-99"/>
        </Node>
        <Node pos="r" depth="1" NCoef="0" IVar="-1" Cut="0.0000000000000000e+00" cType="1" res="1.3986905105412006e-03" rms="2.8631222248077393e-01" purity="9.0920448303222656e-01" nType="-99"/>
      </Node>
    </BinaryTree>
    <BinaryTree type="DecisionTree" boostWeight="1.0000000000000000e+00" itree="542">
      <Node pos="s" depth="0" NCoef="0" IVar="4" Cut="5.3544507812500000e+04" cType="1" res="3.8706368207931519e-01" rms="4.8707842826843262e-01" purity="3.8706368207931519e-01" nType="0">
        <Node pos="l" depth="1" NCoef="0" IVar="0" Cut="1.0000000000000000e+00" cType="1" res="1.9419151358306408e-03" rms="3.5903441905975342e-01" purity="3.0390229821205139e-01" nType="0">
          <Node pos="l" depth="2" NCoef="0" IVar="-1" Cut="0.0000000000000000e+00" cType="1" res="-2.6160965207964182e-03" rms="2.8005802631378174e-01" purity="9.1588102281093597e-02" nType="-99"/>
          <Node pos="r" depth="2" NCoef="0" IVar="-1" Cut="0.0000000000000000e+00" cType="1" res="1.1998991249129176e-03" rms="4.2266595363616943e-01" purity="5.1844453811645508e-01" nType="-99"/>
        </Node>
        <Node pos="r" depth="1" NCoef="0" IVar="4" Cut="7.8019757812500000e+04" cType="1" res="8.2471132278442383e-01" rms="3.8373664021492004e-01" purity="8.2781606912612915e-01" nType="0">
          <Node pos="l" depth="2" NCoef="0" IVar="-1" Cut="0.0000000000000000e+00" cType="1" res="8.0328527837991714e-04" rms="4.0924188494682312e-01" purity="7.5483548641204834e-01" nType="-99"/>
          <Node pos="r" depth="2" NCoef="0" IVar="-1" Cut="0.0000000000000000e+00" cType="1" res="1.3115776237100363e-03" rms="2.9586330056190491e-01" purity="9.0138638019561768e-01" nType="-99"/>
        </Node>
      </Node>
    </BinaryTree>
    <BinaryTree type="DecisionTree" boostWeight="1.0000000000000000e+00" itree="543">
      <Node pos="s" depth="0" NCoef="0" IVar="2" Cut="9.1849609375000000e+04" cType="1" res="5.3596627712249756e-01" rms="4.9870476126670837e-01" purity="5.3596627712249756e-01" nType="0">
        <Node pos="l" depth="1" NCoef="0" IVar="4" Cut="7.0963703125000000e+04" cType="1" res="3.8303911685943604e-01" rms="4.8612770438194275e-01" purity="3.8303908705711365e-01" nType="0">
          <Node pos="l" depth="2" NCoef="0" IVar="-1" Cut="0.0000000000000000e+00" cType="1" res="-1.0039979679277167e-04" rms="3.5570079088211060e-01" purity="3.2619029283523560e-01" nType="-99"/>
          <Node pos="r" depth="2" NCoef="0" IVar="-1" Cut="0.0000000000000000e+00" cType="1" res="1.2467425549402833e-03" rms="3.0938065052032471e-01" purity="8.8555020093917847e-01" nType="-99"/>
        </Node>
        <Node pos="r" depth="1" NCoef="0" IVar="2" Cut="9.2047039062500000e+04" cType="1" res="7.0832836627960205e-01" rms="4.5453196763992310e-01" purity="7.0832836627960205e-01" nType="0">
          <Node pos="l" depth="2" NCoef="0" IVar="-1" Cut="0.0000000000000000e+00" cType="1" res="1.8509346773498692e-05" rms="2.8784647583961487e-01" purity="9.2909657955169678e-01" nType="-99"/>
          <Node pos="r" depth="2" NCoef="0" IVar="-1" Cut="0.0000000000000000e+00" cType="1" res="8.7215518578886986e-04" rms="3.6489281058311462e-01" purity="4.1246360540390015e-01" nType="-99"/>
        </Node>
      </Node>
    </BinaryTree>
    <BinaryTree type="DecisionTree" boostWeight="1.0000000000000000e+00" itree="544">
      <Node pos="s" depth="0" NCoef="0" IVar="5" Cut="1.6159846875000000e+05" cType="1" res="4.8975414037704468e-01" rms="5.0001227855682373e-01" purity="4.9013179540634155e-01" nType="0">
        <Node pos="l" depth="1" NCoef="0" IVar="-1" Cut="0.0000000000000000e+00" cType="1" res="1.2504660844570026e-05" rms="3.7653598189353943e-01" purity="7.5748610496520996e-01" nType="-99"/>
        <Node pos="r" depth="1" NCoef="0" IVar="4" Cut="4.1429074218750000e+04" cType="1" res="4.1895899176597595e-01" rms="4.9353885650634766e-01" purity="4.1943648457527161e-01" nType="0">
          <Node pos="l" depth="2" NCoef="0" IVar="-1" Cut="0.0000000000000000e+00" cType="1" res="-2.4452168145217001e-04" rms="3.5001778602600098e-01" purity="2.9865959286689758e-01" nType="-99"/>
          <Node pos="r" depth="2" NCoef="0" IVar="-1" Cut="0.0000000000000000e+00" cType="1" res="6.9496314972639084e-04" rms="3.8330024480819702e-01" purity="7.7025830745697021e-01" nType="-99"/>
        </Node>
      </Node>
    </BinaryTree>
    <BinaryTree type="DecisionTree" boostWeight="1.0000000000000000e+00" itree="545">
      <Node pos="s" depth="0" NCoef="0" IVar="1" Cut="2.0102762500000000e+05" cType="1" res="4.4850796461105347e-01" rms="4.9734151363372803e-01" purity="4.4869729876518250e-01" nType="0">
        <Node pos="l" depth="1" NCoef="0" IVar="2" Cut="8.9715734375000000e+04" cType="1" res="4.9041241407394409e-01" rms="5.3510576486587524e-01" purity="5.6859236955642700e-01" nType="0">
          <Node pos="l" depth="2" NCoef="0" IVar="-1" Cut="0.0000000000000000e+00" cType="1" res="2.2411617464968003e-05" rms="3.8368064165115356e-01" purity="8.0914902687072754e-01" nType="-99"/>
          <Node pos="r" depth="2" NCoef="0" IVar="-1" Cut="0.0000000000000000e+00" cType="1" res="7.9662381904199719e-04" rms="3.4301730990409851e-01" purity="2.4200814962387085e-01" nType="-99"/>
        </Node>
        <Node pos="r" depth="1" NCoef="0" IVar="4" Cut="8.0310070312500000e+04" cType="1" res="4.1075509786605835e-01" rms="4.9197086691856384e-01" purity="4.1100394725799561e-01" nType="0">
          <Node pos="l" depth="2" NCoef="0" IVar="-1" Cut="0.0000000000000000e+00" cType="1" res="-5.5438900744775310e-05" rms="3.6606624722480774e-01" purity="3.6249315738677979e-01" nType="-99"/>
          <Node pos="r" depth="2" NCoef="0" IVar="-1" Cut="0.0000000000000000e+00" cType="1" res="1.2556528672575951e-03" rms="2.8703370690345764e-01" purity="9.0882790088653564e-01" nType="-99"/>
        </Node>
      </Node>
    </BinaryTree>
    <BinaryTree type="DecisionTree" boostWeight="1.0000000000000000e+00" itree="546">
      <Node pos="s" depth="0" NCoef="0" IVar="3" Cut="8.9426312500000000e+04" cType="1" res="6.0172343254089355e-01" rms="4.8954299092292786e-01" purity="6.0172337293624878e-01" nType="0">
        <Node pos="l" depth="1" NCoef="0" IVar="3" Cut="8.8492835937500000e+04" cType="1" res="7.1654236316680908e-01" rms="4.5067659020423889e-01" purity="7.1654236316680908e-01" nType="0">
          <Node pos="l" depth="2" NCoef="0" IVar="-1" Cut="0.0000000000000000e+00" cType="1" res="3.9164497866295278e-04" rms="3.5406032204627991e-01" purity="4.0237835049629211e-01" nType="-99"/>
          <Node pos="r" depth="2" NCoef="0" IVar="-1" Cut="0.0000000000000000e+00" cType="1" res="1.9766253899433650e-05" rms="3.2537120580673218e-01" purity="9.0095990896224976e-01" nType="-99"/>
        </Node>
        <Node pos="r" depth="1" NCoef="0" IVar="5" Cut="5.9591043750000000e+05" cType="1" res="3.7997364997863770e-01" rms="4.8551496863365173e-01" purity="3.8024404644966125e-01" nType="0">
          <Node pos="l" depth="2" NCoef="0" IVar="-1" Cut="0.0000000000000000e+00" cType="1" res="-2.5998556520789862e-04" rms="3.6427384614944458e-01" purity="3.1703656911849976e-01" nType="-99"/>
          <Node pos="r" depth="2" NCoef="0" IVar="-1" Cut="0.0000000000000000e+00" cType="1" res="2.6954121422022581e-03" rms="3.0954259634017944e-01" purity="8.6266100406646729e-01" nType="-99"/>
        </Node>
      </Node>
    </BinaryTree>
    <BinaryTree type="DecisionTree" boostWeight="1.0000000000000000e+00" itree="547">
      <Node pos="s" depth="0" NCoef="0" IVar="4" Cut="7.5250492187500000e+04" cType="1" res="0.0000000000000000e+00" rms="3.5909299640479730e-06" purity="3.8176366686820984e-01" nType="0">
        <Node pos="l" depth="1" NCoef="0" IVar="0" Cut="1.0000000000000000e+00" cType="1" res="-5.7206285418942571e-05" rms="3.6071529984474182e-01" purity="3.3518201112747192e-01" nType="0">
          <Node pos="l" depth="2" NCoef="0" IVar="-1" Cut="0.0000000000000000e+00" cType="1" res="-3.2818350009620190e-03" rms="2.8770846128463745e-01" purity="1.0264401137828827e-01" nType="-99"/>
          <Node pos="r" depth="2" NCoef="0" IVar="-1" Cut="0.0000000000000000e+00" cType="1" res="9.5391093054786325e-04" rms="4.1496777534484863e-01" purity="5.4853045940399170e-01" nType="-99"/>
        </Node>
        <Node pos="r" depth="1" NCoef="0" IVar="-1" Cut="0.0000000000000000e+00" cType="1" res="1.1908069718629122e-03" rms="3.1309598684310913e-01" purity="8.8559174537658691e-01" nType="-99"/>
      </Node>
    </BinaryTree>
    <BinaryTree type="DecisionTree" boostWeight="1.0000000000000000e+00" itree="548">
      <Node pos="s" depth="0" NCoef="0" IVar="1" Cut="1.8991192187500000e+05" cType="1" res="5.5272579193115234e-01" rms="4.9721223115921021e-01" purity="5.5272579193115234e-01" nType="0">
        <Node pos="l" depth="1" NCoef="0" IVar="-1" Cut="0.0000000000000000e+00" cType="1" res="2.1772762920591049e-05" rms="3.5618209838867188e-01" purity="8.3901596069335938e-01" nType="-99"/>
        <Node pos="r" depth="1" NCoef="0" IVar="2" Cut="9.1808140625000000e+04" cType="1" res="4.8036745190620422e-01" rms="4.9961441755294800e-01" purity="4.8036748170852661e-01" nType="0">
          <Node pos="l" depth="2" NCoef="0" IVar="-1" Cut="0.0000000000000000e+00" cType="1" res="2.6509456802159548e-04" rms="3.5600990056991577e-01" purity="3.9244505763053894e-01" nType="-99"/>
          <Node pos="r" depth="2" NCoef="0" IVar="-1" Cut="0.0000000000000000e+00" cType="1" res="1.8839227777789347e-05" rms="4.9070021510124207e-01" purity="6.0479855537414551e-01" nType="-99"/>
        </Node>
      </Node>
    </BinaryTree>
    <BinaryTree type="DecisionTree" boostWeight="1.0000000000000000e+00" itree="549">
      <Node pos="s" depth="0" NCoef="0" IVar="4" Cut="8.2747820312500000e+04" cType="1" res="3.8574200868606567e-01" rms="4.8707228899002075e-01" purity="3.8614100217819214e-01" nType="0">
        <Node pos="l" depth="1" NCoef="0" IVar="0" Cut="1.0000000000000000e+00" cType="1" res="4.3156812898814678e-03" rms="3.6228054761886597e-01" purity="3.4741148352622986e-01" nType="0">
          <Node pos="l" depth="2" NCoef="0" IVar="-1" Cut="0.0000000000000000e+00" cType="1" res="-2.1322378888726234e-03" rms="2.9317119717597961e-01" purity="1.1246638745069504e-01" nType="-99"/>
          <Node pos="r" depth="2" NCoef="0" IVar="-1" Cut="0.0000000000000000e+00" cType="1" res="9.7307015676051378e-04" rms="4.1334855556488037e-01" purity="5.5951350927352905e-01" nType="-99"/>
        </Node>
        <Node pos="r" depth="1" NCoef="0" IVar="-1" Cut="0.0000000000000000e+00" cType="1" res="1.3317601988092065e-03" rms="2.9389804601669312e-01" purity="9.0349620580673218e-01" nType="-99"/>
      </Node>
    </BinaryTree>
    <BinaryTree type="DecisionTree" boostWeight="1.0000000000000000e+00" itree="550">
      <Node pos="s" depth="0" NCoef="0" IVar="3" Cut="8.9426515625000000e+04" cType="1" res="5.1569998264312744e-01" rms="4.9975344538688660e-01" purity="5.1569998264312744e-01" nType="0">
        <Node pos="l" depth="1" NCoef="0" IVar="3" Cut="8.8492953125000000e+04" cType="1" res="6.0874325037002563e-01" rms="4.8803165555000305e-01" purity="6.0874325037002563e-01" nType="0">
          <Node pos="l" depth="2" NCoef="0" IVar="-1" Cut="0.0000000000000000e+00" cType="1" res="5.0678884144872427e-04" rms="3.4684479236602783e-01" purity="3.8554614782333374e-01" nType="-99"/>
          <Node pos="r" depth="2" NCoef="0" IVar="-1" Cut="0.0000000000000000e+00" cType="1" res="1.9999017240479589e-05" rms="4.0095320343971252e-01" purity="8.3146333694458008e-01" nType="-99"/>
        </Node>
        <Node pos="r" depth="1" NCoef="0" IVar="5" Cut="7.4482350000000000e+05" cType="1" res="3.8330361247062683e-01" rms="4.8644632101058960e-01" purity="3.8355165719985962e-01" nType="0">
          <Node pos="l" depth="2" NCoef="0" IVar="-1" Cut="0.0000000000000000e+00" cType="1" res="4.7531826567137614e-05" rms="3.6852124333381653e-01" purity="3.4076118469238281e-01" nType="-99"/>
          <Node pos="r" depth="2" NCoef="0" IVar="-1" Cut="0.0000000000000000e+00" cType="1" res="2.8594543691724539e-03" rms="2.7486443519592285e-01" purity="8.9545762538909912e-01" nType="-99"/>
        </Node>
      </Node>
    </BinaryTree>
    <BinaryTree type="DecisionTree" boostWeight="1.0000000000000000e+00" itree="551">
      <Node pos="s" depth="0" NCoef="0" IVar="3" Cut="8.9426570312500000e+04" cType="1" res="5.1541936397552490e-01" rms="4.9995088577270508e-01" purity="5.1575112342834473e-01" nType="0">
        <Node pos="l" depth="1" NCoef="0" IVar="3" Cut="8.8492914062500000e+04" cType="1" res="6.0179221630096436e-01" rms="4.8969328403472900e-01" purity="6.0209423303604126e-01" nType="0">
          <Node pos="l" depth="2" NCoef="0" IVar="-1" Cut="0.0000000000000000e+00" cType="1" res="2.3723168123979121e-04" rms="3.4969818592071533e-01" purity="3.7941670417785645e-01" nType="-99"/>
          <Node pos="r" depth="2" NCoef="0" IVar="-1" Cut="0.0000000000000000e+00" cType="1" res="2.0022282114950940e-05" rms="4.0436840057373047e-01" purity="8.2836079597473145e-01" nType="-99"/>
        </Node>
        <Node pos="r" depth="1" NCoef="0" IVar="4" Cut="6.6949203125000000e+04" cType="1" res="3.9483058452606201e-01" rms="4.8904639482498169e-01" purity="3.9520385861396790e-01" nType="0">
          <Node pos="l" depth="2" NCoef="0" IVar="-1" Cut="0.0000000000000000e+00" cType="1" res="1.9711835193447769e-04" rms="3.6633154749870300e-01" purity="3.3624473214149475e-01" nType="-99"/>
          <Node pos="r" depth="2" NCoef="0" IVar="-1" Cut="0.0000000000000000e+00" cType="1" res="1.1837444035336375e-03" rms="3.2156729698181152e-01" purity="8.7875890731811523e-01" nType="-99"/>
        </Node>
      </Node>
    </BinaryTree>
    <BinaryTree type="DecisionTree" boostWeight="1.0000000000000000e+00" itree="552">
      <Node pos="s" depth="0" NCoef="0" IVar="1" Cut="1.9097787500000000e+05" cType="1" res="4.5110556483268738e-01" rms="4.9760359525680542e-01" purity="4.5110556483268738e-01" nType="0">
        <Node pos="l" depth="1" NCoef="0" IVar="-1" Cut="0.0000000000000000e+00" cType="1" res="2.1636649762513116e-05" rms="4.3418201804161072e-01" purity="7.0691263675689697e-01" nType="-99"/>
        <Node pos="r" depth="1" NCoef="0" IVar="4" Cut="7.3390562500000000e+04" cType="1" res="4.0431889891624451e-01" rms="4.9075973033905029e-01" purity="4.0431889891624451e-01" nType="0">
          <Node pos="l" depth="2" NCoef="0" IVar="-1" Cut="0.0000000000000000e+00" cType="1" res="1.4606247714255005e-04" rms="3.6201465129852295e-01" purity="3.5625210404396057e-01" nType="-99"/>
          <Node pos="r" depth="2" NCoef="0" IVar="-1" Cut="0.0000000000000000e+00" cType="1" res="1.1854448821395636e-03" rms="3.0510851740837097e-01" purity="8.9408773183822632e-01" nType="-99"/>
        </Node>
      </Node>
    </BinaryTree>
    <BinaryTree type="DecisionTree" boostWeight="1.0000000000000000e+00" itree="553">
      <Node pos="s" depth="0" NCoef="0" IVar="1" Cut="1.8991192187500000e+05" cType="1" res="4.4686716794967651e-01" rms="4.9716889858245850e-01" purity="4.4686719775199890e-01" nType="0">
        <Node pos="l" depth="1" NCoef="0" IVar="-1" Cut="0.0000000000000000e+00" cType="1" res="2.1643661966663785e-05" rms="4.2898836731910706e-01" purity="7.2896760702133179e-01" nType="-99"/>
        <Node pos="r" depth="1" NCoef="0" IVar="4" Cut="5.0964031250000000e+04" cType="1" res="3.9698889851570129e-01" rms="4.8927366733551025e-01" purity="3.9698889851570129e-01" nType="0">
          <Node pos="l" depth="2" NCoef="0" IVar="-1" Cut="0.0000000000000000e+00" cType="1" res="-2.6554582291282713e-04" rms="3.5456386208534241e-01" purity="3.0355808138847351e-01" nType="-99"/>
          <Node pos="r" depth="2" NCoef="0" IVar="-1" Cut="0.0000000000000000e+00" cType="1" res="6.3593458617106080e-04" rms="3.5820096731185913e-01" purity="8.2323431968688965e-01" nType="-99"/>
        </Node>
      </Node>
    </BinaryTree>
    <BinaryTree type="DecisionTree" boostWeight="1.0000000000000000e+00" itree="554">
      <Node pos="s" depth="0" NCoef="0" IVar="1" Cut="2.0337760937500000e+05" cType="1" res="5.0257104635238647e-01" rms="5.0009787082672119e-01" purity="5.0273889303207397e-01" nType="0">
        <Node pos="l" depth="1" NCoef="0" IVar="2" Cut="8.9655093750000000e+04" cType="1" res="6.1355596780776978e-01" rms="5.0857818126678467e-01" purity="6.7101538181304932e-01" nType="0">
          <Node pos="l" depth="2" NCoef="0" IVar="-1" Cut="0.0000000000000000e+00" cType="1" res="2.2105192329036072e-05" rms="3.1777301430702209e-01" purity="8.8270783424377441e-01" nType="-99"/>
          <Node pos="r" depth="2" NCoef="0" IVar="-1" Cut="0.0000000000000000e+00" cType="1" res="4.6635788748972118e-04" rms="3.3853214979171753e-01" purity="2.4538463354110718e-01" nType="-99"/>
        </Node>
        <Node pos="r" depth="1" NCoef="0" IVar="4" Cut="7.6855453125000000e+04" cType="1" res="4.2263418436050415e-01" rms="4.9413418769836426e-01" purity="4.2288160324096680e-01" nType="0">
          <Node pos="l" depth="2" NCoef="0" IVar="-1" Cut="0.0000000000000000e+00" cType="1" res="4.8308068653568625e-04" rms="3.7339431047439575e-01" purity="3.7409847974777222e-01" nType="-99"/>
          <Node pos="r" depth="2" NCoef="0" IVar="-1" Cut="0.0000000000000000e+00" cType="1" res="1.1003772960975766e-03" rms="2.9528933763504028e-01" purity="9.0119731426239014e-01" nType="-99"/>
        </Node>
      </Node>
    </BinaryTree>
    <BinaryTree type="DecisionTree" boostWeight="1.0000000000000000e+00" itree="555">
      <Node pos="s" depth="0" NCoef="0" IVar="5" Cut="3.7553265625000000e+05" cType="1" res="inf" rms="0.0000000000000000e+00" purity="3.8968932628631592e-01" nType="0">
        <Node pos="l" depth="1" NCoef="0" IVar="4" Cut="6.4543574218750000e+04" cType="1" res="2.4606418609619141e-01" rms="4.3071639537811279e-01" purity="2.4615441262722015e-01" nType="0">
          <Node pos="l" depth="2" NCoef="0" IVar="-1" Cut="0.0000000000000000e+00" cType="1" res="-1.3435817090794444e-03" rms="3.4376734495162964e-01" purity="2.0028063654899597e-01" nType="-99"/>
          <Node pos="r" depth="2" NCoef="0" IVar="-1" Cut="0.0000000000000000e+00" cType="1" res="8.8944990420714021e-04" rms="3.9297324419021606e-01" purity="8.0180227756500244e-01" nType="-99"/>
        </Node>
        <Node pos="r" depth="1" NCoef="0" IVar="0" Cut="4.0000000000000000e+00" cType="1" res="6.0162257403135300e-02" rms="3.5618302226066589e-01" purity="7.7827501296997070e-01" nType="0">
          <Node pos="l" depth="2" NCoef="0" IVar="-1" Cut="0.0000000000000000e+00" cType="1" res="1.0588668519631028e-03" rms="3.8479700684547424e-01" purity="7.2853296995162964e-01" nType="-99"/>
          <Node pos="r" depth="2" NCoef="0" IVar="-1" Cut="0.0000000000000000e+00" cType="1" res="6.5981206716969609e-04" rms="2.2174631059169769e-01" purity="9.4934225082397461e-01" nType="-99"/>
        </Node>
      </Node>
    </BinaryTree>
    <BinaryTree type="DecisionTree" boostWeight="1.0000000000000000e+00" itree="556">
      <Node pos="s" depth="0" NCoef="0" IVar="1" Cut="2.0138664062500000e+05" cType="1" res="4.4409289956092834e-01" rms="4.9704709649085999e-01" purity="4.4427430629730225e-01" nType="0">
        <Node pos="l" depth="1" NCoef="0" IVar="2" Cut="8.9665414062500000e+04" cType="1" res="4.8222410678863525e-01" rms="5.2636593580245972e-01" purity="5.6029486656188965e-01" nType="0">
          <Node pos="l" depth="2" NCoef="0" IVar="-1" Cut="0.0000000000000000e+00" cType="1" res="2.2095955500844866e-05" rms="3.8472011685371399e-01" purity="8.0926376581192017e-01" nType="-99"/>
          <Node pos="r" depth="2" NCoef="0" IVar="-1" Cut="0.0000000000000000e+00" cType="1" res="1.1622627062024549e-04" rms="3.3189350366592407e-01" purity="2.3291736841201782e-01" nType="-99"/>
        </Node>
        <Node pos="r" depth="1" NCoef="0" IVar="4" Cut="5.3210050781250000e+04" cType="1" res="4.0834924578666687e-01" rms="4.9176964163780212e-01" purity="4.0858647227287292e-01" nType="0">
          <Node pos="l" depth="2" NCoef="0" IVar="-1" Cut="0.0000000000000000e+00" cType="1" res="-5.1346613327041268e-04" rms="3.5975629091262817e-01" purity="3.1627291440963745e-01" nType="-99"/>
          <Node pos="r" depth="2" NCoef="0" IVar="-1" Cut="0.0000000000000000e+00" cType="1" res="6.1554426793009043e-04" rms="3.4904909133911133e-01" purity="8.3788567781448364e-01" nType="-99"/>
        </Node>
      </Node>
    </BinaryTree>
    <BinaryTree type="DecisionTree" boostWeight="1.0000000000000000e+00" itree="557">
      <Node pos="s" depth="0" NCoef="0" IVar="3" Cut="9.5950890625000000e+04" cType="1" res="4.8337209224700928e-01" rms="4.9972343444824219e-01" purity="4.8337209224700928e-01" nType="0">
        <Node pos="l" depth="1" NCoef="0" IVar="5" Cut="4.8592028125000000e+05" cType="1" res="3.8181936740875244e-01" rms="4.8583263158798218e-01" purity="3.8181933760643005e-01" nType="0">
          <Node pos="l" depth="2" NCoef="0" IVar="-1" Cut="0.0000000000000000e+00" cType="1" res="-3.9160720916697755e-05" rms="3.6080512404441833e-01" purity="2.9552903771400452e-01" nType="-99"/>
          <Node pos="r" depth="2" NCoef="0" IVar="-1" Cut="0.0000000000000000e+00" cType="1" res="2.5290751364082098e-03" rms="3.3344414830207825e-01" purity="8.2998996973037720e-01" nType="-99"/>
        </Node>
        <Node pos="r" depth="1" NCoef="0" IVar="2" Cut="8.9290359375000000e+04" cType="1" res="7.7194863557815552e-01" rms="4.1957592964172363e-01" purity="7.7220124006271362e-01" nType="0">
          <Node pos="l" depth="2" NCoef="0" IVar="-1" Cut="0.0000000000000000e+00" cType="1" res="1.3167748875275720e-05" rms="2.9996442794799805e-01" purity="9.1659748554229736e-01" nType="-99"/>
          <Node pos="r" depth="2" NCoef="0" IVar="-1" Cut="0.0000000000000000e+00" cType="1" res="-6.0988240875303745e-04" rms="3.5455220937728882e-01" purity="3.9778679609298706e-01" nType="-99"/>
        </Node>
      </Node>
    </BinaryTree>
    <BinaryTree type="DecisionTree" boostWeight="1.0000000000000000e+00" itree="558">
      <Node pos="s" depth="0" NCoef="0" IVar="4" Cut="8.2745929687500000e+04" cType="1" res="0.0000000000000000e+00" rms="0.0000000000000000e+00" purity="3.8857293128967285e-01" nType="0">
        <Node pos="l" depth="1" NCoef="0" IVar="0" Cut="1.0000000000000000e+00" cType="1" res="1.7462939722463489e-03" rms="3.5702833533287048e-01" purity="3.5107263922691345e-01" nType="0">
          <Node pos="l" depth="2" NCoef="0" IVar="-1" Cut="0.0000000000000000e+00" cType="1" res="-3.2893915195018053e-03" rms="2.8392636775970459e-01" purity="1.0304386168718338e-01" nType="-99"/>
          <Node pos="r" depth="2" NCoef="0" IVar="-1" Cut="0.0000000000000000e+00" cType="1" res="6.1220640782266855e-04" rms="4.0860402584075928e-01" purity="5.6918346881866455e-01" nType="-99"/>
        </Node>
        <Node pos="r" depth="1" NCoef="0" IVar="-1" Cut="0.0000000000000000e+00" cType="1" res="1.4281994663178921e-03" rms="2.9093202948570251e-01" purity="9.0687203407287598e-01" nType="-99"/>
      </Node>
    </BinaryTree>
    <BinaryTree type="DecisionTree" boostWeight="1.0000000000000000e+00" itree="559">
      <Node pos="s" depth="0" NCoef="0" IVar="2" Cut="9.1849609375000000e+04" cType="1" res="4.7106567025184631e-01" rms="4.9916210770606995e-01" purity="4.7106567025184631e-01" nType="0">
        <Node pos="l" depth="1" NCoef="0" IVar="4" Cut="6.0253828125000000e+04" cType="1" res="3.8302728533744812e-01" rms="4.8612487316131592e-01" purity="3.8302728533744812e-01" nType="0">
          <Node pos="l" depth="2" NCoef="0" IVar="-1" Cut="0.0000000000000000e+00" cType="1" res="-1.3787602256343234e-05" rms="3.5511046648025513e-01" purity="3.1274247169494629e-01" nType="-99"/>
          <Node pos="r" depth="2" NCoef="0" IVar="-1" Cut="0.0000000000000000e+00" cType="1" res="1.0329930810257792e-03" rms="3.4378454089164734e-01" purity="8.5229557752609253e-01" nType="-99"/>
        </Node>
        <Node pos="r" depth="1" NCoef="0" IVar="2" Cut="9.2047007812500000e+04" cType="1" res="6.0231500864028931e-01" rms="4.8987761139869690e-01" purity="6.0276341438293457e-01" nType="0">
          <Node pos="l" depth="2" NCoef="0" IVar="-1" Cut="0.0000000000000000e+00" cType="1" res="1.9035785953747109e-05" rms="3.5879459977149963e-01" purity="8.7861293554306030e-01" nType="-99"/>
          <Node pos="r" depth="2" NCoef="0" IVar="-1" Cut="0.0000000000000000e+00" cType="1" res="3.8721697637811303e-04" rms="3.5651609301567078e-01" purity="3.9654460549354553e-01" nType="-99"/>
        </Node>
      </Node>
    </BinaryTree>
    <BinaryTree type="DecisionTree" boostWeight="1.0000000000000000e+00" itree="560">
      <Node pos="s" depth="0" NCoef="0" IVar="2" Cut="8.9655289062500000e+04" cType="1" res="5.6484574079513550e-01" rms="4.9577718973159790e-01" purity="5.6484574079513550e-01" nType="0">
        <Node pos="l" depth="1" NCoef="0" IVar="2" Cut="8.9245523437500000e+04" cType="1" res="7.8952950239181519e-01" rms="4.0764281153678894e-01" purity="7.8952956199645996e-01" nType="0">
          <Node pos="l" depth="2" NCoef="0" IVar="-1" Cut="0.0000000000000000e+00" cType="1" res="-5.6321680312976241e-04" rms="3.4252944588661194e-01" purity="3.5685524344444275e-01" nType="-99"/>
          <Node pos="r" depth="2" NCoef="0" IVar="-1" Cut="0.0000000000000000e+00" cType="1" res="1.6700107153155841e-05" rms="2.7371057868003845e-01" purity="9.3114638328552246e-01" nType="-99"/>
        </Node>
        <Node pos="r" depth="1" NCoef="0" IVar="4" Cut="7.4138531250000000e+04" cType="1" res="3.9199388027191162e-01" rms="4.8828953504562378e-01" purity="3.9234873652458191e-01" nType="0">
          <Node pos="l" depth="2" NCoef="0" IVar="-1" Cut="0.0000000000000000e+00" cType="1" res="1.6285860328935087e-04" rms="3.6211889982223511e-01" purity="3.3847406506538391e-01" nType="-99"/>
          <Node pos="r" depth="2" NCoef="0" IVar="-1" Cut="0.0000000000000000e+00" cType="1" res="1.2243412202224135e-03" rms="2.8924435377120972e-01" purity="9.0514987707138062e-01" nType="-99"/>
        </Node>
      </Node>
    </BinaryTree>
    <BinaryTree type="DecisionTree" boostWeight="1.0000000000000000e+00" itree="561">
      <Node pos="s" depth="0" NCoef="0" IVar="1" Cut="2.0134587500000000e+05" cType="1" res="inf" rms="0.0000000000000000e+00" purity="4.5321795344352722e-01" nType="0">
        <Node pos="l" depth="1" NCoef="0" IVar="2" Cut="8.9690085937500000e+04" cType="1" res="4.9703937768936157e-01" rms="5.2056115865707397e-01" purity="5.5792921781539917e-01" nType="0">
          <Node pos="l" depth="2" NCoef="0" IVar="-1" Cut="0.0000000000000000e+00" cType="1" res="2.1973755792714655e-05" rms="3.8926446437835693e-01" purity="8.0297017097473145e-01" nType="-99"/>
          <Node pos="r" depth="2" NCoef="0" IVar="-1" Cut="0.0000000000000000e+00" cType="1" res="-1.2100921594537795e-04" rms="3.2959267497062683e-01" purity="2.3570497334003448e-01" nType="-99"/>
        </Node>
        <Node pos="r" depth="1" NCoef="0" IVar="4" Cut="6.4850910156250000e+04" cType="1" res="4.2046806216239929e-01" rms="4.9423414468765259e-01" purity="4.2127159237861633e-01" nType="0">
          <Node pos="l" depth="2" NCoef="0" IVar="-1" Cut="0.0000000000000000e+00" cType="1" res="-3.7221295769995777e-06" rms="3.6556547880172729e-01" purity="3.4944900870323181e-01" nType="-99"/>
          <Node pos="r" depth="2" NCoef="0" IVar="-1" Cut="0.0000000000000000e+00" cType="1" res="1.2619486078619957e-03" rms="3.1164261698722839e-01" purity="8.8710981607437134e-01" nType="-99"/>
        </Node>
      </Node>
    </BinaryTree>
    <BinaryTree type="DecisionTree" boostWeight="1.0000000000000000e+00" itree="562">
      <Node pos="s" depth="0" NCoef="0" IVar="3" Cut="9.5950453125000000e+04" cType="1" res="5.5050861835479736e-01" rms="4.9751105904579163e-01" purity="5.5057698488235474e-01" nType="0">
        <Node pos="l" depth="1" NCoef="0" IVar="4" Cut="5.3227273437500000e+04" cType="1" res="3.7861374020576477e-01" rms="4.8506036400794983e-01" purity="3.7863194942474365e-01" nType="0">
          <Node pos="l" depth="2" NCoef="0" IVar="-1" Cut="0.0000000000000000e+00" cType="1" res="-6.3774531008675694e-04" rms="3.4770289063453674e-01" purity="2.9244607686996460e-01" nType="-99"/>
          <Node pos="r" depth="2" NCoef="0" IVar="-1" Cut="0.0000000000000000e+00" cType="1" res="5.3068395936861634e-04" rms="3.5855096578598022e-01" purity="8.2287156581878662e-01" nType="-99"/>
        </Node>
        <Node pos="r" depth="1" NCoef="0" IVar="3" Cut="9.6694921875000000e+04" cType="1" res="8.5588914155960083e-01" rms="3.5120210051536560e-01" purity="8.5604667663574219e-01" nType="0">
          <Node pos="l" depth="2" NCoef="0" IVar="-1" Cut="0.0000000000000000e+00" cType="1" res="1.2877256267529447e-05" rms="2.2989562153816223e-01" purity="9.5339417457580566e-01" nType="-99"/>
          <Node pos="r" depth="2" NCoef="0" IVar="-1" Cut="0.0000000000000000e+00" cType="1" res="3.7610187428072095e-04" rms="3.6365127563476562e-01" purity="4.2590001225471497e-01" nType="-99"/>
        </Node>
      </Node>
    </BinaryTree>
    <BinaryTree type="DecisionTree" boostWeight="1.0000000000000000e+00" itree="563">
      <Node pos="s" depth="0" NCoef="0" IVar="5" Cut="1.6699128125000000e+05" cType="1" res="6.4512383937835693e-01" rms="4.7847577929496765e-01" purity="6.4512383937835693e-01" nType="0">
        <Node pos="l" depth="1" NCoef="0" IVar="5" Cut="1.5863417187500000e+05" cType="1" res="8.6886942386627197e-01" rms="3.3754310011863708e-01" purity="8.6886948347091675e-01" nType="0">
          <Node pos="l" depth="2" NCoef="0" IVar="-1" Cut="0.0000000000000000e+00" cType="1" res="-1.4284708537161350e-02" rms="1.9340592622756958e-01" purity="3.9280198514461517e-02" nType="-99"/>
          <Node pos="r" depth="2" NCoef="0" IVar="-1" Cut="0.0000000000000000e+00" cType="1" res="1.2884840543847531e-05" rms="2.0073665678501129e-01" purity="9.4542402029037476e-01" nType="-99"/>
        </Node>
        <Node pos="r" depth="1" NCoef="0" IVar="2" Cut="9.1787367187500000e+04" cType="1" res="5.0883871316909790e-01" rms="4.9992185831069946e-01" purity="5.0883871316909790e-01" nType="0">
          <Node pos="l" depth="2" NCoef="0" IVar="-1" Cut="0.0000000000000000e+00" cType="1" res="5.1316450117155910e-04" rms="3.6816936731338501e-01" purity="4.2831099033355713e-01" nType="-99"/>
          <Node pos="r" depth="2" NCoef="0" IVar="-1" Cut="0.0000000000000000e+00" cType="1" res="1.9277649698778987e-05" rms="4.9175798892974854e-01" purity="6.2312155961990356e-01" nType="-99"/>
        </Node>
      </Node>
    </BinaryTree>
    <BinaryTree type="DecisionTree" boostWeight="1.0000000000000000e+00" itree="564">
      <Node pos="s" depth="0" NCoef="0" IVar="2" Cut="9.1865859375000000e+04" cType="1" res="3.0198469486914306e+19" rms="0.0000000000000000e+00" purity="4.6452823281288147e-01" nType="0">
        <Node pos="l" depth="1" NCoef="0" IVar="4" Cut="5.0994917968750000e+04" cType="1" res="3.7793409824371338e-01" rms="4.8510855436325073e-01" purity="3.7816447019577026e-01" nType="0">
          <Node pos="l" depth="2" NCoef="0" IVar="-1" Cut="0.0000000000000000e+00" cType="1" res="-4.4853964936919510e-04" rms="3.4671160578727722e-01" purity="2.9254755377769470e-01" nType="-99"/>
          <Node pos="r" depth="2" NCoef="0" IVar="-1" Cut="0.0000000000000000e+00" cType="1" res="5.0016993191093206e-04" rms="3.7348806858062744e-01" purity="8.0405336618423462e-01" nType="-99"/>
        </Node>
        <Node pos="r" depth="1" NCoef="0" IVar="2" Cut="9.2056859375000000e+04" cType="1" res="3.3273811899255034e+35" rms="0.0000000000000000e+00" purity="5.9690499305725098e-01" nType="0">
          <Node pos="l" depth="2" NCoef="0" IVar="-1" Cut="0.0000000000000000e+00" cType="1" res="1.9091625290457159e-05" rms="3.6256873607635498e-01" purity="8.7744134664535522e-01" nType="-99"/>
          <Node pos="r" depth="2" NCoef="0" IVar="-1" Cut="0.0000000000000000e+00" cType="1" res="1.5754866763018072e-04" rms="3.5740008950233459e-01" purity="3.8127535581588745e-01" nType="-99"/>
        </Node>
      </Node>
    </BinaryTree>
    <BinaryTree type="DecisionTree" boostWeight="1.0000000000000000e+00" itree="565">
      <Node pos="s" depth="0" NCoef="0" IVar="0" Cut="4.0000000000000000e+00" cType="1" res="9.3827238306403160e-03" rms="3.5686859488487244e-01" purity="3.8277232646942139e-01" nType="0">
        <Node pos="l" depth="1" NCoef="0" IVar="4" Cut="7.7649757812500000e+04" cType="1" res="3.4280282258987427e-01" rms="4.7464624047279358e-01" purity="3.4280282258987427e-01" nType="0">
          <Node pos="l" depth="2" NCoef="0" IVar="-1" Cut="0.0000000000000000e+00" cType="1" res="-2.9403110966086388e-04" rms="3.6451324820518494e-01" purity="3.0497166514396667e-01" nType="-99"/>
          <Node pos="r" depth="2" NCoef="0" IVar="-1" Cut="0.0000000000000000e+00" cType="1" res="1.1828313581645489e-03" rms="3.2586425542831421e-01" purity="8.7732297182083130e-01" nType="-99"/>
        </Node>
        <Node pos="r" depth="1" NCoef="0" IVar="-1" Cut="0.0000000000000000e+00" cType="1" res="3.9429432945325971e-04" rms="2.2643740475177765e-01" purity="9.4744402170181274e-01" nType="-99"/>
      </Node>
    </BinaryTree>
    <BinaryTree type="DecisionTree" boostWeight="1.0000000000000000e+00" itree="566">
      <Node pos="s" depth="0" NCoef="0" IVar="3" Cut="8.9426312500000000e+04" cType="1" res="5.1259839534759521e-01" rms="5.0005799531936646e-01" purity="5.1281511783599854e-01" nType="0">
        <Node pos="l" depth="1" NCoef="0" IVar="3" Cut="8.8492531250000000e+04" cType="1" res="6.0491150617599487e-01" rms="4.8925185203552246e-01" purity="6.0528528690338135e-01" nType="0">
          <Node pos="l" depth="2" NCoef="0" IVar="-1" Cut="0.0000000000000000e+00" cType="1" res="3.6645741784013808e-04" rms="3.5186868906021118e-01" purity="3.7538331747055054e-01" nType="-99"/>
          <Node pos="r" depth="2" NCoef="0" IVar="-1" Cut="0.0000000000000000e+00" cType="1" res="2.0203613530611619e-05" rms="4.0158978104591370e-01" purity="8.3259201049804688e-01" nType="-99"/>
        </Node>
        <Node pos="r" depth="1" NCoef="0" IVar="4" Cut="6.0984042968750000e+04" cType="1" res="3.8523128628730774e-01" rms="4.8664993047714233e-01" purity="3.8523131608963013e-01" nType="0">
          <Node pos="l" depth="2" NCoef="0" IVar="-1" Cut="0.0000000000000000e+00" cType="1" res="-1.0628101881593466e-04" rms="3.6240449547767639e-01" purity="3.2241320610046387e-01" nType="-99"/>
          <Node pos="r" depth="2" NCoef="0" IVar="-1" Cut="0.0000000000000000e+00" cType="1" res="9.9875044543296099e-04" rms="3.4255969524383545e-01" purity="8.5535305738449097e-01" nType="-99"/>
        </Node>
      </Node>
    </BinaryTree>
    <BinaryTree type="DecisionTree" boostWeight="1.0000000000000000e+00" itree="567">
      <Node pos="s" depth="0" NCoef="0" IVar="1" Cut="1.9097787500000000e+05" cType="1" res="4.3979948759078979e-01" rms="4.9636265635490417e-01" purity="4.3979945778846741e-01" nType="0">
        <Node pos="l" depth="1" NCoef="0" IVar="-1" Cut="0.0000000000000000e+00" cType="1" res="2.1906260371906683e-05" rms="4.3389028310775757e-01" purity="7.1293157339096069e-01" nType="-99"/>
        <Node pos="r" depth="1" NCoef="0" IVar="4" Cut="7.5250492187500000e+04" cType="1" res="3.8900569081306458e-01" rms="4.8752462863922119e-01" purity="3.8900572061538696e-01" nType="0">
          <Node pos="l" depth="2" NCoef="0" IVar="-1" Cut="0.0000000000000000e+00" cType="1" res="-2.6759857428260148e-04" rms="3.5834228992462158e-01" purity="3.3843713998794556e-01" nType="-99"/>
          <Node pos="r" depth="2" NCoef="0" IVar="-1" Cut="0.0000000000000000e+00" cType="1" res="1.2343958951532841e-03" rms="3.0024859309196472e-01" purity="8.9829182624816895e-01" nType="-99"/>
        </Node>
      </Node>
    </BinaryTree>
    <BinaryTree type="DecisionTree" boostWeight="1.0000000000000000e+00" itree="568">
      <Node pos="s" depth="0" NCoef="0" IVar="4" Cut="3.6733953125000000e+04" cType="1" res="3.8871908187866211e-01" rms="4.8809140920639038e-01" purity="3.8941258192062378e-01" nType="0">
        <Node pos="l" depth="1" NCoef="0" IVar="4" Cut="2.3734302734375000e+04" cType="1" res="2.6440623402595520e-01" rms="4.4109138846397400e-01" purity="2.6447227597236633e-01" nType="0">
          <Node pos="l" depth="2" NCoef="0" IVar="-1" Cut="0.0000000000000000e+00" cType="1" res="7.4789213249459863e-04" rms="3.0638059973716736e-01" purity="2.2092294692993164e-01" nType="-99"/>
          <Node pos="r" depth="2" NCoef="0" IVar="-1" Cut="0.0000000000000000e+00" cType="1" res="-1.8978148000314832e-03" rms="4.0078344941139221e-01" purity="3.8350236415863037e-01" nType="-99"/>
        </Node>
        <Node pos="r" depth="1" NCoef="0" IVar="4" Cut="7.9955953125000000e+04" cType="1" res="7.0329153537750244e-01" rms="4.5823386311531067e-01" purity="7.0486807823181152e-01" nType="0">
          <Node pos="l" depth="2" NCoef="0" IVar="-1" Cut="0.0000000000000000e+00" cType="1" res="4.0845634066499770e-04" rms="4.2978101968765259e-01" purity="6.3792347908020020e-01" nType="-99"/>
          <Node pos="r" depth="2" NCoef="0" IVar="-1" Cut="0.0000000000000000e+00" cType="1" res="1.2901984155178070e-03" rms="2.9903352260589600e-01" purity="8.9938628673553467e-01" nType="-99"/>
        </Node>
      </Node>
    </BinaryTree>
    <BinaryTree type="DecisionTree" boostWeight="1.0000000000000000e+00" itree="569">
      <Node pos="s" depth="0" NCoef="0" IVar="4" Cut="8.2762492187500000e+04" cType="1" res="3.7385809421539307e-01" rms="4.8428130149841309e-01" purity="3.7440434098243713e-01" nType="0">
        <Node pos="l" depth="1" NCoef="0" IVar="5" Cut="4.6612153125000000e+05" cType="1" res="3.3356302976608276e-01" rms="4.7191351652145386e-01" purity="3.3396667242050171e-01" nType="0">
          <Node pos="l" depth="2" NCoef="0" IVar="-1" Cut="0.0000000000000000e+00" cType="1" res="-7.9681241186335683e-04" rms="3.6123466491699219e-01" purity="2.4602349102497101e-01" nType="-99"/>
          <Node pos="r" depth="2" NCoef="0" IVar="-1" Cut="0.0000000000000000e+00" cType="1" res="2.0930559840053320e-03" rms="3.5486859083175659e-01" purity="7.9368299245834351e-01" nType="-99"/>
        </Node>
        <Node pos="r" depth="1" NCoef="0" IVar="-1" Cut="0.0000000000000000e+00" cType="1" res="1.3325944310054183e-03" rms="2.9521548748016357e-01" purity="9.0341120958328247e-01" nType="-99"/>
      </Node>
    </BinaryTree>
    <BinaryTree type="DecisionTree" boostWeight="1.0000000000000000e+00" itree="570">
      <Node pos="s" depth="0" NCoef="0" IVar="5" Cut="1.6377478125000000e+05" cType="1" res="5.5085307359695435e-01" rms="4.9760276079177856e-01" purity="5.5120033025741577e-01" nType="0">
        <Node pos="l" depth="1" NCoef="0" IVar="3" Cut="8.9143203125000000e+04" cType="1" res="8.4145259857177734e-01" rms="3.6525353789329529e-01" purity="8.4145253896713257e-01" nType="0">
          <Node pos="l" depth="2" NCoef="0" IVar="-1" Cut="0.0000000000000000e+00" cType="1" res="-3.7641164381057024e-03" rms="2.0216602087020874e-01" purity="6.5175436437129974e-02" nType="-99"/>
          <Node pos="r" depth="2" NCoef="0" IVar="-1" Cut="0.0000000000000000e+00" cType="1" res="1.2913889804622158e-05" rms="2.3651911318302155e-01" purity="9.2081987857818604e-01" nType="-99"/>
        </Node>
        <Node pos="r" depth="1" NCoef="0" IVar="4" Cut="5.5592992187500000e+04" cType="1" res="4.0887013077735901e-01" rms="4.9191966652870178e-01" purity="4.0938708186149597e-01" nType="0">
          <Node pos="l" depth="2" NCoef="0" IVar="-1" Cut="0.0000000000000000e+00" cType="1" res="-2.6890469598583877e-04" rms="3.5961404442787170e-01" purity="3.2833939790725708e-01" nType="-99"/>
          <Node pos="r" depth="2" NCoef="0" IVar="-1" Cut="0.0000000000000000e+00" cType="1" res="1.0117691708728671e-03" rms="3.5409656167030334e-01" purity="8.3815741539001465e-01" nType="-99"/>
        </Node>
      </Node>
    </BinaryTree>
    <BinaryTree type="DecisionTree" boostWeight="1.0000000000000000e+00" itree="571">
      <Node pos="s" depth="0" NCoef="0" IVar="4" Cut="7.7648343750000000e+04" cType="1" res="3.8282713294029236e-01" rms="4.8607665300369263e-01" purity="3.8282713294029236e-01" nType="0">
        <Node pos="l" depth="1" NCoef="0" IVar="0" Cut="3.0000000000000000e+00" cType="1" res="3.3510772045701742e-03" rms="3.6227121949195862e-01" purity="3.3652326464653015e-01" nType="0">
          <Node pos="l" depth="2" NCoef="0" IVar="-1" Cut="0.0000000000000000e+00" cType="1" res="-3.1205388950183988e-04" rms="3.6794495582580566e-01" purity="2.6635324954986572e-01" nType="-99"/>
          <Node pos="r" depth="2" NCoef="0" IVar="-1" Cut="0.0000000000000000e+00" cType="1" res="2.7756604831665754e-03" rms="3.0463269352912903e-01" purity="8.9497458934783936e-01" nType="-99"/>
        </Node>
        <Node pos="r" depth="1" NCoef="0" IVar="-1" Cut="0.0000000000000000e+00" cType="1" res="1.2628879630938172e-03" rms="2.9864320158958435e-01" purity="8.9982575178146362e-01" nType="-99"/>
      </Node>
    </BinaryTree>
    <BinaryTree type="DecisionTree" boostWeight="1.0000000000000000e+00" itree="572">
      <Node pos="s" depth="0" NCoef="0" IVar="5" Cut="1.6601217187500000e+05" cType="1" res="4.7992798686027527e-01" rms="4.9959695339202881e-01" purity="4.7992798686027527e-01" nType="0">
        <Node pos="l" depth="1" NCoef="0" IVar="3" Cut="8.9710968750000000e+04" cType="1" res="7.0187622308731079e-01" rms="4.5743411779403687e-01" purity="7.0187622308731079e-01" nType="0">
          <Node pos="l" depth="2" NCoef="0" IVar="-1" Cut="0.0000000000000000e+00" cType="1" res="-2.1481981966644526e-03" rms="2.2020100057125092e-01" purity="8.1530466675758362e-02" nType="-99"/>
          <Node pos="r" depth="2" NCoef="0" IVar="-1" Cut="0.0000000000000000e+00" cType="1" res="1.2950667041877750e-05" rms="3.1601011753082275e-01" purity="8.5152041912078857e-01" nType="-99"/>
        </Node>
        <Node pos="r" depth="1" NCoef="0" IVar="4" Cut="8.2563625000000000e+04" cType="1" res="4.1227966547012329e-01" rms="4.9224501848220825e-01" purity="4.1227966547012329e-01" nType="0">
          <Node pos="l" depth="2" NCoef="0" IVar="-1" Cut="0.0000000000000000e+00" cType="1" res="1.4246646605897695e-04" rms="3.7004685401916504e-01" purity="3.7288743257522583e-01" nType="-99"/>
          <Node pos="r" depth="2" NCoef="0" IVar="-1" Cut="0.0000000000000000e+00" cType="1" res="1.3581664534285665e-03" rms="2.8856986761093140e-01" purity="9.0614795684814453e-01" nType="-99"/>
        </Node>
      </Node>
    </BinaryTree>
    <BinaryTree type="DecisionTree" boostWeight="1.0000000000000000e+00" itree="573">
      <Node pos="s" depth="0" NCoef="0" IVar="0" Cut="4.0000000000000000e+00" cType="1" res="1.5117518603801727e-02" rms="3.5808122158050537e-01" purity="3.9066916704177856e-01" nType="0">
        <Node pos="l" depth="1" NCoef="0" IVar="5" Cut="2.0628623437500000e+05" cType="1" res="3.4836286306381226e-01" rms="4.7645166516304016e-01" purity="3.4836286306381226e-01" nType="0">
          <Node pos="l" depth="2" NCoef="0" IVar="-1" Cut="0.0000000000000000e+00" cType="1" res="-2.4022075813263655e-03" rms="2.6881995797157288e-01" purity="9.6059471368789673e-02" nType="-99"/>
          <Node pos="r" depth="2" NCoef="0" IVar="-1" Cut="0.0000000000000000e+00" cType="1" res="7.2325899964198470e-04" rms="4.0624746680259705e-01" purity="4.8197209835052490e-01" nType="-99"/>
        </Node>
        <Node pos="r" depth="1" NCoef="0" IVar="-1" Cut="0.0000000000000000e+00" cType="1" res="4.2678622412495315e-04" rms="2.1464402973651886e-01" purity="9.5293217897415161e-01" nType="-99"/>
      </Node>
    </BinaryTree>
    <BinaryTree type="DecisionTree" boostWeight="1.0000000000000000e+00" itree="574">
      <Node pos="s" depth="0" NCoef="0" IVar="1" Cut="2.0203215625000000e+05" cType="1" res="4.4741031527519226e-01" rms="4.9735006690025330e-01" purity="4.4774159789085388e-01" nType="0">
        <Node pos="l" depth="1" NCoef="0" IVar="2" Cut="8.9600773437500000e+04" cType="1" res="4.9285668134689331e-01" rms="5.1420629024505615e-01" purity="5.4509323835372925e-01" nType="0">
          <Node pos="l" depth="2" NCoef="0" IVar="-1" Cut="0.0000000000000000e+00" cType="1" res="2.2135694962344132e-05" rms="3.8564059138298035e-01" purity="8.0580866336822510e-01" nType="-99"/>
          <Node pos="r" depth="2" NCoef="0" IVar="-1" Cut="0.0000000000000000e+00" cType="1" res="-6.1146536609157920e-04" rms="3.2999417185783386e-01" purity="2.2354316711425781e-01" nType="-99"/>
        </Node>
        <Node pos="r" depth="1" NCoef="0" IVar="4" Cut="6.9508343750000000e+04" cType="1" res="4.1700083017349243e-01" rms="4.9322625994682312e-01" purity="4.1743522882461548e-01" nType="0">
          <Node pos="l" depth="2" NCoef="0" IVar="-1" Cut="0.0000000000000000e+00" cType="1" res="2.0934411440975964e-04" rms="3.6724245548248291e-01" purity="3.5385477542877197e-01" nType="-99"/>
          <Node pos="r" depth="2" NCoef="0" IVar="-1" Cut="0.0000000000000000e+00" cType="1" res="1.3067497638985515e-03" rms="2.9668080806732178e-01" purity="8.9848023653030396e-01" nType="-99"/>
        </Node>
      </Node>
    </BinaryTree>
    <BinaryTree type="DecisionTree" boostWeight="1.0000000000000000e+00" itree="575">
      <Node pos="s" depth="0" NCoef="0" IVar="2" Cut="9.1779687500000000e+04" cType="1" res="5.3577232360839844e-01" rms="4.9871870875358582e-01" purity="5.3577232360839844e-01" nType="0">
        <Node pos="l" depth="1" NCoef="0" IVar="0" Cut="1.0000000000000000e+00" cType="1" res="5.3053749725222588e-03" rms="3.5071668028831482e-01" purity="3.8256424665451050e-01" nType="0">
          <Node pos="l" depth="2" NCoef="0" IVar="-1" Cut="0.0000000000000000e+00" cType="1" res="-1.7387386178597808e-03" rms="2.7706912159919739e-01" purity="1.3664342463016510e-01" nType="-99"/>
          <Node pos="r" depth="2" NCoef="0" IVar="-1" Cut="0.0000000000000000e+00" cType="1" res="5.8867054758593440e-04" rms="4.0087458491325378e-01" purity="5.9150046110153198e-01" nType="-99"/>
        </Node>
        <Node pos="r" depth="1" NCoef="0" IVar="2" Cut="9.1978601562500000e+04" cType="1" res="7.0096826553344727e-01" rms="4.5795342326164246e-01" purity="7.0152688026428223e-01" nType="0">
          <Node pos="l" depth="2" NCoef="0" IVar="-1" Cut="0.0000000000000000e+00" cType="1" res="1.8928369172499515e-05" rms="2.8663751482963562e-01" purity="9.2851465940475464e-01" nType="-99"/>
          <Node pos="r" depth="2" NCoef="0" IVar="-1" Cut="0.0000000000000000e+00" cType="1" res="6.6531234188005328e-04" rms="3.6184519529342651e-01" purity="4.0194344520568848e-01" nType="-99"/>
        </Node>
      </Node>
    </BinaryTree>
    <BinaryTree type="DecisionTree" boostWeight="1.0000000000000000e+00" itree="576">
      <Node pos="s" depth="0" NCoef="0" IVar="2" Cut="9.1847968750000000e+04" cType="1" res="4.7206270694732666e-01" rms="4.9973484873771667e-01" purity="4.7257810831069946e-01" nType="0">
        <Node pos="l" depth="1" NCoef="0" IVar="4" Cut="3.6760148437500000e+04" cType="1" res="3.8577207922935486e-01" rms="4.8736163973808289e-01" purity="3.8634148240089417e-01" nType="0">
          <Node pos="l" depth="2" NCoef="0" IVar="-1" Cut="0.0000000000000000e+00" cType="1" res="-7.0432177744805813e-04" rms="3.2770243287086487e-01" purity="2.6168438792228699e-01" nType="-99"/>
          <Node pos="r" depth="2" NCoef="0" IVar="-1" Cut="0.0000000000000000e+00" cType="1" res="1.0032285936176777e-03" rms="4.0189886093139648e-01" purity="7.1015608310699463e-01" nType="-99"/>
        </Node>
        <Node pos="r" depth="1" NCoef="0" IVar="2" Cut="9.2038687500000000e+04" cType="1" res="6.0251289606094360e-01" rms="4.8966884613037109e-01" purity="6.0279738903045654e-01" nType="0">
          <Node pos="l" depth="2" NCoef="0" IVar="-1" Cut="0.0000000000000000e+00" cType="1" res="1.9007447917829268e-05" rms="3.6333432793617249e-01" purity="8.7883758544921875e-01" nType="-99"/>
          <Node pos="r" depth="2" NCoef="0" IVar="-1" Cut="0.0000000000000000e+00" cType="1" res="5.0075829494744539e-04" rms="3.6108183860778809e-01" purity="3.9418900012969971e-01" nType="-99"/>
        </Node>
      </Node>
    </BinaryTree>
    <BinaryTree type="DecisionTree" boostWeight="1.0000000000000000e+00" itree="577">
      <Node pos="s" depth="0" NCoef="0" IVar="3" Cut="9.5950500000000000e+04" cType="1" res="5.9664058685302734e-01" rms="4.9082541465759277e-01" purity="5.9700953960418701e-01" nType="0">
        <Node pos="l" depth="1" NCoef="0" IVar="2" Cut="9.1839507812500000e+04" cType="1" res="0.0000000000000000e+00" rms="8.3381905000000000e+06" purity="4.7364759445190430e-01" nType="0">
          <Node pos="l" depth="2" NCoef="0" IVar="-1" Cut="0.0000000000000000e+00" cType="1" res="3.8424125523306429e-04" rms="3.5267534852027893e-01" purity="3.7730425596237183e-01" nType="-99"/>
          <Node pos="r" depth="2" NCoef="0" IVar="-1" Cut="0.0000000000000000e+00" cType="1" res="1.9177132344339043e-05" rms="4.9188631772994995e-01" purity="6.1775964498519897e-01" nType="-99"/>
        </Node>
        <Node pos="r" depth="1" NCoef="0" IVar="2" Cut="8.9367234375000000e+04" cType="1" res="8.5363376140594482e-01" rms="3.5369598865509033e-01" purity="8.5379141569137573e-01" nType="0">
          <Node pos="l" depth="2" NCoef="0" IVar="-1" Cut="0.0000000000000000e+00" cType="1" res="1.3112292435835116e-05" rms="2.3565785586833954e-01" purity="9.5196503400802612e-01" nType="-99"/>
          <Node pos="r" depth="2" NCoef="0" IVar="-1" Cut="0.0000000000000000e+00" cType="1" res="-2.0020472584292293e-04" rms="3.5849893093109131e-01" purity="3.9352044463157654e-01" nType="-99"/>
        </Node>
      </Node>
    </BinaryTree>
    <BinaryTree type="DecisionTree" boostWeight="1.0000000000000000e+00" itree="578">
      <Node pos="s" depth="0" NCoef="0" IVar="2" Cut="9.1817625000000000e+04" cType="1" res="4.6973589062690735e-01" rms="4.9941554665565491e-01" purity="4.7014018893241882e-01" nType="0">
        <Node pos="l" depth="1" NCoef="0" IVar="4" Cut="6.1326730468750000e+04" cType="1" res="3.8074782490730286e-01" rms="4.8629724979400635e-01" purity="3.8213831186294556e-01" nType="0">
          <Node pos="l" depth="2" NCoef="0" IVar="-1" Cut="0.0000000000000000e+00" cType="1" res="2.1589703101199120e-04" rms="3.5944738984107971e-01" purity="3.1613832712173462e-01" nType="-99"/>
          <Node pos="r" depth="2" NCoef="0" IVar="-1" Cut="0.0000000000000000e+00" cType="1" res="1.2018745765089989e-03" rms="3.3563235402107239e-01" purity="8.6089211702346802e-01" nType="-99"/>
        </Node>
        <Node pos="r" depth="1" NCoef="0" IVar="2" Cut="9.2001062500000000e+04" cType="1" res="5.9937024116516113e-01" rms="4.9029994010925293e-01" purity="5.9963876008987427e-01" nType="0">
          <Node pos="l" depth="2" NCoef="0" IVar="-1" Cut="0.0000000000000000e+00" cType="1" res="1.8894506865763105e-05" rms="3.5821518301963806e-01" purity="8.8130807876586914e-01" nType="-99"/>
          <Node pos="r" depth="2" NCoef="0" IVar="-1" Cut="0.0000000000000000e+00" cType="1" res="7.6437328243628144e-04" rms="3.7244972586631775e-01" purity="3.9959707856178284e-01" nType="-99"/>
        </Node>
      </Node>
    </BinaryTree>
    <BinaryTree type="DecisionTree" boostWeight="1.0000000000000000e+00" itree="579">
      <Node pos="s" depth="0" NCoef="0" IVar="3" Cut="9.5950500000000000e+04" cType="1" res="5.9758514165878296e-01" rms="4.9038469791412354e-01" purity="5.9758514165878296e-01" nType="0">
        <Node pos="l" depth="1" NCoef="0" IVar="2" Cut="9.1849609375000000e+04" cType="1" res="4.7188210487365723e-01" rms="4.9920874834060669e-01" purity="4.7188213467597961e-01" nType="0">
          <Node pos="l" depth="2" NCoef="0" IVar="-1" Cut="0.0000000000000000e+00" cType="1" res="5.9273490478517488e-05" rms="3.4919404983520508e-01" purity="3.7321338057518005e-01" nType="-99"/>
          <Node pos="r" depth="2" NCoef="0" IVar="-1" Cut="0.0000000000000000e+00" cType="1" res="1.8855367670767009e-05" rms="4.9066495895385742e-01" purity="6.1790889501571655e-01" nType="-99"/>
        </Node>
        <Node pos="r" depth="1" NCoef="0" IVar="3" Cut="9.6732351562500000e+04" cType="1" res="8.5593819618225098e-01" rms="3.5115242004394531e-01" purity="8.5609364509582520e-01" nType="0">
          <Node pos="l" depth="2" NCoef="0" IVar="-1" Cut="0.0000000000000000e+00" cType="1" res="1.3026075066591147e-05" rms="2.3319126665592194e-01" purity="9.5372670888900757e-01" nType="-99"/>
          <Node pos="r" depth="2" NCoef="0" IVar="-1" Cut="0.0000000000000000e+00" cType="1" res="8.7572640040889382e-04" rms="3.7229672074317932e-01" purity="4.5199328660964966e-01" nType="-99"/>
        </Node>
      </Node>
    </BinaryTree>
    <BinaryTree type="DecisionTree" boostWeight="1.0000000000000000e+00" itree="580">
      <Node pos="s" depth="0" NCoef="0" IVar="0" Cut="1.0000000000000000e+00" cType="1" res="2.1727450191974640e-01" rms="4.6870458126068115e-01" purity="5.4011648893356323e-01" nType="0">
        <Node pos="l" depth="1" NCoef="0" IVar="4" Cut="1.9116910156250000e+04" cType="1" res="5.1276504993438721e-01" rms="4.9983704090118408e-01" purity="5.1276504993438721e-01" nType="0">
          <Node pos="l" depth="2" NCoef="0" IVar="-1" Cut="0.0000000000000000e+00" cType="1" res="4.7580613754689693e-03" rms="2.1743132174015045e-01" purity="4.9806986004114151e-02" nType="-99"/>
          <Node pos="r" depth="2" NCoef="0" IVar="-1" Cut="0.0000000000000000e+00" cType="1" res="1.4922713489795569e-05" rms="4.7165417671203613e-01" purity="7.2264260053634644e-01" nType="-99"/>
        </Node>
        <Node pos="r" depth="1" NCoef="0" IVar="5" Cut="4.2984803125000000e+05" cType="1" res="5.8123081922531128e-01" rms="4.9377259612083435e-01" purity="5.8213311433792114e-01" nType="0">
          <Node pos="l" depth="2" NCoef="0" IVar="-1" Cut="0.0000000000000000e+00" cType="1" res="1.4359565102495253e-04" rms="4.2824441194534302e-01" purity="4.5344039797782898e-01" nType="-99"/>
          <Node pos="r" depth="2" NCoef="0" IVar="-1" Cut="0.0000000000000000e+00" cType="1" res="2.2163006942719221e-03" rms="3.4353274106979370e-01" purity="8.2881206274032593e-01" nType="-99"/>
        </Node>
      </Node>
    </BinaryTree>
    <BinaryTree type="DecisionTree" boostWeight="1.0000000000000000e+00" itree="581">
      <Node pos="s" depth="0" NCoef="0" IVar="4" Cut="2.0425093750000000e+04" cType="1" res="1.1648449412107455e+33" rms="0.0000000000000000e+00" purity="5.4431575536727905e-01" nType="0">
        <Node pos="l" depth="1" NCoef="0" IVar="5" Cut="1.8877131250000000e+05" cType="1" res="1.9971126317977905e-01" rms="3.9978328347206116e-01" purity="1.9971126317977905e-01" nType="0">
          <Node pos="l" depth="2" NCoef="0" IVar="-1" Cut="0.0000000000000000e+00" cType="1" res="-1.0843207128345966e-02" rms="1.4011396467685699e-01" purity="1.9857419654726982e-02" nType="-99"/>
          <Node pos="r" depth="2" NCoef="0" IVar="-1" Cut="0.0000000000000000e+00" cType="1" res="2.1355617791414261e-03" rms="3.4854847192764282e-01" purity="2.8676164150238037e-01" nType="-99"/>
        </Node>
        <Node pos="r" depth="1" NCoef="0" IVar="4" Cut="2.8288736328125000e+04" cType="1" res="7.2076362371444702e-01" rms="4.4862392544746399e-01" purity="7.2076362371444702e-01" nType="0">
          <Node pos="l" depth="2" NCoef="0" IVar="-1" Cut="0.0000000000000000e+00" cType="1" res="1.5079664990480524e-05" rms="4.4133150577545166e-01" purity="7.9746001958847046e-01" nType="-99"/>
          <Node pos="r" depth="2" NCoef="0" IVar="-1" Cut="0.0000000000000000e+00" cType="1" res="7.0701615186408162e-04" rms="4.1072270274162292e-01" purity="6.2086749076843262e-01" nType="-99"/>
        </Node>
      </Node>
    </BinaryTree>
    <BinaryTree type="DecisionTree" boostWeight="1.0000000000000000e+00" itree="582">
      <Node pos="s" depth="0" NCoef="0" IVar="4" Cut="8.2774625000000000e+04" cType="1" res="3.8788107037544250e-01" rms="4.8726722598075867e-01" purity="3.8788107037544250e-01" nType="0">
        <Node pos="l" depth="1" NCoef="0" IVar="0" Cut="3.0000000000000000e+00" cType="1" res="2.0282303448766470e-03" rms="3.5814717411994934e-01" purity="3.4765011072158813e-01" nType="0">
          <Node pos="l" depth="2" NCoef="0" IVar="-1" Cut="0.0000000000000000e+00" cType="1" res="-3.7233770126476884e-04" rms="3.6391878128051758e-01" purity="2.7645322680473328e-01" nType="-99"/>
          <Node pos="r" depth="2" NCoef="0" IVar="-1" Cut="0.0000000000000000e+00" cType="1" res="2.4070790968835354e-03" rms="3.0054596066474915e-01" purity="8.9843827486038208e-01" nType="-99"/>
        </Node>
        <Node pos="r" depth="1" NCoef="0" IVar="-1" Cut="0.0000000000000000e+00" cType="1" res="1.3006221270188689e-03" rms="2.8643247485160828e-01" purity="9.0945279598236084e-01" nType="-99"/>
      </Node>
    </BinaryTree>
    <BinaryTree type="DecisionTree" boostWeight="1.0000000000000000e+00" itree="583">
      <Node pos="s" depth="0" NCoef="0" IVar="1" Cut="2.0203215625000000e+05" cType="1" res="5.2572596073150635e-01" rms="4.9938723444938660e-01" purity="5.2577537298202515e-01" nType="0">
        <Node pos="l" depth="1" NCoef="0" IVar="2" Cut="8.9636281250000000e+04" cType="1" res="2.7985674142837524e-01" rms="4.6514084935188293e-01" purity="7.3265892267227173e-01" nType="0">
          <Node pos="l" depth="2" NCoef="0" IVar="-1" Cut="0.0000000000000000e+00" cType="1" res="1.5399225958390161e-05" rms="2.7700275182723999e-01" purity="9.1365516185760498e-01" nType="-99"/>
          <Node pos="r" depth="2" NCoef="0" IVar="-1" Cut="0.0000000000000000e+00" cType="1" res="-7.3496351251378655e-04" rms="3.2837948203086853e-01" purity="2.1778614819049835e-01" nType="-99"/>
        </Node>
        <Node pos="r" depth="1" NCoef="0" IVar="4" Cut="3.5488527343750000e+04" cType="1" res="4.1556161642074585e-01" rms="4.9289542436599731e-01" purity="4.1563734412193298e-01" nType="0">
          <Node pos="l" depth="2" NCoef="0" IVar="-1" Cut="0.0000000000000000e+00" cType="1" res="-6.3012301689013839e-04" rms="3.4153762459754944e-01" purity="2.7717787027359009e-01" nType="-99"/>
          <Node pos="r" depth="2" NCoef="0" IVar="-1" Cut="0.0000000000000000e+00" cType="1" res="6.5796228591352701e-04" rms="4.0155595541000366e-01" purity="7.1595388650894165e-01" nType="-99"/>
        </Node>
      </Node>
    </BinaryTree>
    <BinaryTree type="DecisionTree" boostWeight="1.0000000000000000e+00" itree="584">
      <Node pos="s" depth="0" NCoef="0" IVar="5" Cut="6.9956581250000000e+05" cType="1" res="3.7826305627822876e-01" rms="4.8495373129844666e-01" purity="3.7826305627822876e-01" nType="0">
        <Node pos="l" depth="1" NCoef="0" IVar="4" Cut="7.3169710937500000e+04" cType="1" res="0.0000000000000000e+00" rms="0.0000000000000000e+00" purity="3.3329638838768005e-01" nType="0">
          <Node pos="l" depth="2" NCoef="0" IVar="-1" Cut="0.0000000000000000e+00" cType="1" res="-3.1492114067077637e-04" rms="3.6480242013931274e-01" purity="2.9619795083999634e-01" nType="-99"/>
          <Node pos="r" depth="2" NCoef="0" IVar="-1" Cut="0.0000000000000000e+00" cType="1" res="9.1639038873836398e-04" rms="3.5563227534294128e-01" purity="8.4795761108398438e-01" nType="-99"/>
        </Node>
        <Node pos="r" depth="1" NCoef="0" IVar="2" Cut="9.1096179687500000e+04" cType="1" res="8.9091706275939941e-01" rms="3.1174322962760925e-01" purity="8.9091706275939941e-01" nType="0">
          <Node pos="l" depth="2" NCoef="0" IVar="-1" Cut="0.0000000000000000e+00" cType="1" res="3.5933190956711769e-03" rms="2.8345188498497009e-01" purity="8.9517074823379517e-01" nType="-99"/>
          <Node pos="r" depth="2" NCoef="0" IVar="-1" Cut="0.0000000000000000e+00" cType="1" res="3.2619663979858160e-03" rms="2.7947157621383667e-01" purity="8.8682180643081665e-01" nType="-99"/>
        </Node>
      </Node>
    </BinaryTree>
    <BinaryTree type="DecisionTree" boostWeight="1.0000000000000000e+00" itree="585">
      <Node pos="s" depth="0" NCoef="0" IVar="4" Cut="7.7944625000000000e+04" cType="1" res="3.7879940867424011e-01" rms="4.8559257388114929e-01" purity="3.7980315089225769e-01" nType="0">
        <Node pos="l" depth="1" NCoef="0" IVar="5" Cut="6.3107050000000000e+05" cType="1" res="3.3138352632522583e-01" rms="4.7071060538291931e-01" purity="3.3194458484649658e-01" nType="0">
          <Node pos="l" depth="2" NCoef="0" IVar="-1" Cut="0.0000000000000000e+00" cType="1" res="-4.6388353803195059e-04" rms="3.6257177591323853e-01" purity="2.8545331954956055e-01" nType="-99"/>
          <Node pos="r" depth="2" NCoef="0" IVar="-1" Cut="0.0000000000000000e+00" cType="1" res="3.3540991134941578e-03" rms="3.1741312146186829e-01" purity="8.4926789999008179e-01" nType="-99"/>
        </Node>
        <Node pos="r" depth="1" NCoef="0" IVar="-1" Cut="0.0000000000000000e+00" cType="1" res="1.2803612044081092e-03" rms="2.9489225149154663e-01" purity="9.0273952484130859e-01" nType="-99"/>
      </Node>
    </BinaryTree>
    <BinaryTree type="DecisionTree" boostWeight="1.0000000000000000e+00" itree="586">
      <Node pos="s" depth="0" NCoef="0" IVar="3" Cut="9.5950890625000000e+04" cType="1" res="4.8264589905738831e-01" rms="4.9990683794021606e-01" purity="4.8302900791168213e-01" nType="0">
        <Node pos="l" depth="1" NCoef="0" IVar="0" Cut="3.0000000000000000e+00" cType="1" res="6.5865814685821533e-03" rms="3.5266616940498352e-01" purity="3.7958797812461853e-01" nType="0">
          <Node pos="l" depth="2" NCoef="0" IVar="-1" Cut="0.0000000000000000e+00" cType="1" res="-1.5282940876204520e-04" rms="3.5940474271774292e-01" purity="3.0445781350135803e-01" nType="-99"/>
          <Node pos="r" depth="2" NCoef="0" IVar="-1" Cut="0.0000000000000000e+00" cType="1" res="7.0262013468891382e-04" rms="2.9168999195098877e-01" purity="9.0577393770217896e-01" nType="-99"/>
        </Node>
        <Node pos="r" depth="1" NCoef="0" IVar="3" Cut="9.6732921875000000e+04" cType="1" res="7.7572381496429443e-01" rms="4.1710475087165833e-01" purity="7.7597665786743164e-01" nType="0">
          <Node pos="l" depth="2" NCoef="0" IVar="-1" Cut="0.0000000000000000e+00" cType="1" res="1.3092158951621968e-05" rms="3.0505421757698059e-01" purity="9.1759365797042847e-01" nType="-99"/>
          <Node pos="r" depth="2" NCoef="0" IVar="-1" Cut="0.0000000000000000e+00" cType="1" res="1.1812582379207015e-03" rms="3.8106831908226013e-01" purity="4.4127854704856873e-01" nType="-99"/>
        </Node>
      </Node>
    </BinaryTree>
    <BinaryTree type="DecisionTree" boostWeight="1.0000000000000000e+00" itree="587">
      <Node pos="s" depth="0" NCoef="0" IVar="2" Cut="9.1845796875000000e+04" cType="1" res="5.3835910558700562e-01" rms="4.9869716167449951e-01" purity="5.3865861892700195e-01" nType="0">
        <Node pos="l" depth="1" NCoef="0" IVar="4" Cut="3.7138933593750000e+04" cType="1" res="3.9358353614807129e-01" rms="4.8969957232475281e-01" purity="3.9498230814933777e-01" nType="0">
          <Node pos="l" depth="2" NCoef="0" IVar="-1" Cut="0.0000000000000000e+00" cType="1" res="4.0461475146003067e-04" rms="3.4501889348030090e-01" purity="2.6792791485786438e-01" nType="-99"/>
          <Node pos="r" depth="2" NCoef="0" IVar="-1" Cut="0.0000000000000000e+00" cType="1" res="6.5367273055016994e-04" rms="3.9711406826972961e-01" purity="7.2547024488449097e-01" nType="-99"/>
        </Node>
        <Node pos="r" depth="1" NCoef="0" IVar="2" Cut="9.2035945312500000e+04" cType="1" res="7.0414185523986816e-01" rms="4.5654773712158203e-01" purity="7.0434957742691040e-01" nType="0">
          <Node pos="l" depth="2" NCoef="0" IVar="-1" Cut="0.0000000000000000e+00" cType="1" res="1.8929700672742911e-05" rms="2.8361374139785767e-01" purity="9.3265032768249512e-01" nType="-99"/>
          <Node pos="r" depth="2" NCoef="0" IVar="-1" Cut="0.0000000000000000e+00" cType="1" res="2.0597511320374906e-04" rms="3.5525730252265930e-01" purity="3.9109638333320618e-01" nType="-99"/>
        </Node>
      </Node>
    </BinaryTree>
    <BinaryTree type="DecisionTree" boostWeight="1.0000000000000000e+00" itree="588">
      <Node pos="s" depth="0" NCoef="0" IVar="3" Cut="9.5950500000000000e+04" cType="1" res="4.7669279575347900e-01" rms="4.9945646524429321e-01" purity="4.7669276595115662e-01" nType="0">
        <Node pos="l" depth="1" NCoef="0" IVar="4" Cut="5.3210050781250000e+04" cType="1" res="3.7149006128311157e-01" rms="4.8320305347442627e-01" purity="3.7149006128311157e-01" nType="0">
          <Node pos="l" depth="2" NCoef="0" IVar="-1" Cut="0.0000000000000000e+00" cType="1" res="-3.9548426866531372e-04" rms="3.5231330990791321e-01" purity="2.9016339778900146e-01" nType="-99"/>
          <Node pos="r" depth="2" NCoef="0" IVar="-1" Cut="0.0000000000000000e+00" cType="1" res="5.0209381151944399e-04" rms="3.6858877539634705e-01" purity="8.1381207704544067e-01" nType="-99"/>
        </Node>
        <Node pos="r" depth="1" NCoef="0" IVar="2" Cut="8.9294859375000000e+04" cType="1" res="7.7474689483642578e-01" rms="4.1774892807006836e-01" purity="7.7474689483642578e-01" nType="0">
          <Node pos="l" depth="2" NCoef="0" IVar="-1" Cut="0.0000000000000000e+00" cType="1" res="1.3379709344008006e-05" rms="3.1416168808937073e-01" purity="9.1034257411956787e-01" nType="-99"/>
          <Node pos="r" depth="2" NCoef="0" IVar="-1" Cut="0.0000000000000000e+00" cType="1" res="1.1028164590243250e-04" rms="3.7935188412666321e-01" purity="4.0996858477592468e-01" nType="-99"/>
        </Node>
      </Node>
    </BinaryTree>
    <BinaryTree type="DecisionTree" boostWeight="1.0000000000000000e+00" itree="589">
      <Node pos="s" depth="0" NCoef="0" IVar="4" Cut="7.6855453125000000e+04" cType="1" res="3.8946604728698730e-01" rms="4.8787996172904968e-01" purity="3.8978815078735352e-01" nType="0">
        <Node pos="l" depth="1" NCoef="0" IVar="0" Cut="3.0000000000000000e+00" cType="1" res="-2.6118563255295157e-04" rms="3.5686275362968445e-01" purity="3.3997958898544312e-01" nType="0">
          <Node pos="l" depth="2" NCoef="0" IVar="-1" Cut="0.0000000000000000e+00" cType="1" res="-7.9838006058707833e-04" rms="3.6383178830146790e-01" purity="2.5733116269111633e-01" nType="-99"/>
          <Node pos="r" depth="2" NCoef="0" IVar="-1" Cut="0.0000000000000000e+00" cType="1" res="7.4679550016298890e-04" rms="2.9230597615242004e-01" purity="9.0463948249816895e-01" nType="-99"/>
        </Node>
        <Node pos="r" depth="1" NCoef="0" IVar="-1" Cut="0.0000000000000000e+00" cType="1" res="1.2411342468112707e-03" rms="2.9209795594215393e-01" purity="9.0365022420883179e-01" nType="-99"/>
      </Node>
    </BinaryTree>
    <BinaryTree type="DecisionTree" boostWeight="1.0000000000000000e+00" itree="590">
      <Node pos="s" depth="0" NCoef="0" IVar="2" Cut="9.1779687500000000e+04" cType="1" res="5.3483694791793823e-01" rms="4.9878489971160889e-01" purity="5.3483694791793823e-01" nType="0">
        <Node pos="l" depth="1" NCoef="0" IVar="5" Cut="5.3723631250000000e+05" cType="1" res="3.8878971338272095e-01" rms="4.8747539520263672e-01" purity="3.8878971338272095e-01" nType="0">
          <Node pos="l" depth="2" NCoef="0" IVar="-1" Cut="0.0000000000000000e+00" cType="1" res="1.5420795534737408e-04" rms="3.6305102705955505e-01" purity="3.1095468997955322e-01" nType="-99"/>
          <Node pos="r" depth="2" NCoef="0" IVar="-1" Cut="0.0000000000000000e+00" cType="1" res="2.1736205089837313e-03" rms="3.1503224372863770e-01" purity="8.5992449522018433e-01" nType="-99"/>
        </Node>
        <Node pos="r" depth="1" NCoef="0" IVar="2" Cut="9.1978601562500000e+04" cType="1" res="6.9739335775375366e-01" rms="4.5959472656250000e-01" purity="6.9775068759918213e-01" nType="0">
          <Node pos="l" depth="2" NCoef="0" IVar="-1" Cut="0.0000000000000000e+00" cType="1" res="1.8975009879795834e-05" rms="2.8893047571182251e-01" purity="9.2767709493637085e-01" nType="-99"/>
          <Node pos="r" depth="2" NCoef="0" IVar="-1" Cut="0.0000000000000000e+00" cType="1" res="3.8344413042068481e-04" rms="3.5877802968025208e-01" purity="3.9655840396881104e-01" nType="-99"/>
        </Node>
      </Node>
    </BinaryTree>
    <BinaryTree type="DecisionTree" boostWeight="1.0000000000000000e+00" itree="591">
      <Node pos="s" depth="0" NCoef="0" IVar="1" Cut="1.8991192187500000e+05" cType="1" res="0.0000000000000000e+00" rms="0.0000000000000000e+00" purity="4.5176365971565247e-01" nType="0">
        <Node pos="l" depth="1" NCoef="0" IVar="-1" Cut="0.0000000000000000e+00" cType="1" res="2.2409638404496945e-05" rms="4.2884305119514465e-01" purity="7.2442650794982910e-01" nType="-99"/>
        <Node pos="r" depth="1" NCoef="0" IVar="5" Cut="7.6068293750000000e+05" cType="1" res="0.0000000000000000e+00" rms="1.9046240350529126e+17" purity="4.0232297778129578e-01" nType="0">
          <Node pos="l" depth="2" NCoef="0" IVar="-1" Cut="0.0000000000000000e+00" cType="1" res="4.1358295129612088e-04" rms="3.6668649315834045e-01" purity="3.6392098665237427e-01" nType="-99"/>
          <Node pos="r" depth="2" NCoef="0" IVar="-1" Cut="0.0000000000000000e+00" cType="1" res="3.3116457052528858e-03" rms="2.6886829733848572e-01" purity="9.0419936180114746e-01" nType="-99"/>
        </Node>
      </Node>
    </BinaryTree>
    <BinaryTree type="DecisionTree" boostWeight="1.0000000000000000e+00" itree="592">
      <Node pos="s" depth="0" NCoef="0" IVar="3" Cut="9.5950953125000000e+04" cType="1" res="5.4986804723739624e-01" rms="4.9768841266632080e-01" purity="5.5004864931106567e-01" nType="0">
        <Node pos="l" depth="1" NCoef="0" IVar="4" Cut="7.8753968750000000e+04" cType="1" res="3.7464052438735962e-01" rms="4.8432224988937378e-01" purity="3.7492355704307556e-01" nType="0">
          <Node pos="l" depth="2" NCoef="0" IVar="-1" Cut="0.0000000000000000e+00" cType="1" res="-1.8472879310138524e-04" rms="3.5685336589813232e-01" purity="3.3161780238151550e-01" nType="-99"/>
          <Node pos="r" depth="2" NCoef="0" IVar="-1" Cut="0.0000000000000000e+00" cType="1" res="1.2759380042552948e-03" rms="2.9417702555656433e-01" purity="9.0433251857757568e-01" nType="-99"/>
        </Node>
        <Node pos="r" depth="1" NCoef="0" IVar="3" Cut="9.6733625000000000e+04" cType="1" res="8.5869747400283813e-01" rms="3.4833335876464844e-01" purity="8.5869741439819336e-01" nType="0">
          <Node pos="l" depth="2" NCoef="0" IVar="-1" Cut="0.0000000000000000e+00" cType="1" res="1.3036948985245544e-05" rms="2.3065000772476196e-01" purity="9.5391553640365601e-01" nType="-99"/>
          <Node pos="r" depth="2" NCoef="0" IVar="-1" Cut="0.0000000000000000e+00" cType="1" res="8.0959062324836850e-04" rms="3.7897932529449463e-01" purity="4.3057659268379211e-01" nType="-99"/>
        </Node>
      </Node>
    </BinaryTree>
    <BinaryTree type="DecisionTree" boostWeight="1.0000000000000000e+00" itree="593">
      <Node pos="s" depth="0" NCoef="0" IVar="4" Cut="5.8002761718750000e+04" cType="1" res="3.8747149705886841e-01" rms="4.8717281222343445e-01" purity="3.8747149705886841e-01" nType="0">
        <Node pos="l" depth="1" NCoef="0" IVar="5" Cut="6.2255768750000000e+05" cType="1" res="3.0399274826049805e-01" rms="4.6024602651596069e-01" purity="3.0423799157142639e-01" nType="0">
          <Node pos="l" depth="2" NCoef="0" IVar="-1" Cut="0.0000000000000000e+00" cType="1" res="-9.6014403970912099e-04" rms="3.5596767067909241e-01" purity="2.5868934392929077e-01" nType="-99"/>
          <Node pos="r" depth="2" NCoef="0" IVar="-1" Cut="0.0000000000000000e+00" cType="1" res="2.6218986604362726e-03" rms="3.2942086458206177e-01" purity="8.3239907026290894e-01" nType="-99"/>
        </Node>
        <Node pos="r" depth="1" NCoef="0" IVar="4" Cut="8.2293250000000000e+04" cType="1" res="8.5920816659927368e-01" rms="3.4780669212341309e-01" purity="8.5920810699462891e-01" nType="0">
          <Node pos="l" depth="2" NCoef="0" IVar="-1" Cut="0.0000000000000000e+00" cType="1" res="8.2813896005973220e-04" rms="3.8798600435256958e-01" purity="7.9417699575424194e-01" nType="-99"/>
          <Node pos="r" depth="2" NCoef="0" IVar="-1" Cut="0.0000000000000000e+00" cType="1" res="1.1389417340978980e-03" rms="2.7748894691467285e-01" purity="9.1464710235595703e-01" nType="-99"/>
        </Node>
      </Node>
    </BinaryTree>
    <BinaryTree type="DecisionTree" boostWeight="1.0000000000000000e+00" itree="594">
      <Node pos="s" depth="0" NCoef="0" IVar="4" Cut="3.7094507812500000e+04" cType="1" res="3.9284738898277283e-01" rms="4.8838338255882263e-01" purity="3.9284738898277283e-01" nType="0">
        <Node pos="l" depth="1" NCoef="0" IVar="4" Cut="2.3700205078125000e+04" cType="1" res="2.7070534229278564e-01" rms="4.4432416558265686e-01" purity="2.7070537209510803e-01" nType="0">
          <Node pos="l" depth="2" NCoef="0" IVar="-1" Cut="0.0000000000000000e+00" cType="1" res="1.7601842992007732e-03" rms="3.1463027000427246e-01" purity="2.2596928477287292e-01" nType="-99"/>
          <Node pos="r" depth="2" NCoef="0" IVar="-1" Cut="0.0000000000000000e+00" cType="1" res="-1.7343001672998071e-03" rms="4.0050518512725830e-01" purity="3.9073973894119263e-01" nType="-99"/>
        </Node>
        <Node pos="r" depth="1" NCoef="0" IVar="5" Cut="2.2034192187500000e+05" cType="1" res="7.1587646007537842e-01" rms="4.5099598169326782e-01" purity="7.1587640047073364e-01" nType="0">
          <Node pos="l" depth="2" NCoef="0" IVar="-1" Cut="0.0000000000000000e+00" cType="1" res="7.2816656029317528e-05" rms="4.5840534567832947e-01" purity="4.3047067523002625e-01" nType="-99"/>
          <Node pos="r" depth="2" NCoef="0" IVar="-1" Cut="0.0000000000000000e+00" cType="1" res="7.4818939901888371e-04" rms="3.8017317652702332e-01" purity="7.8616392612457275e-01" nType="-99"/>
        </Node>
      </Node>
    </BinaryTree>
    <BinaryTree type="DecisionTree" boostWeight="1.0000000000000000e+00" itree="595">
      <Node pos="s" depth="0" NCoef="0" IVar="5" Cut="1.6601217187500000e+05" cType="1" res="4.8283702135086060e-01" rms="4.9990373849868774e-01" purity="4.8303529620170593e-01" nType="0">
        <Node pos="l" depth="1" NCoef="0" IVar="5" Cut="1.5708737500000000e+05" cType="1" res="7.0194488763809204e-01" rms="4.5740383863449097e-01" purity="7.0194488763809204e-01" nType="0">
          <Node pos="l" depth="2" NCoef="0" IVar="-1" Cut="0.0000000000000000e+00" cType="1" res="-2.6981255505234003e-03" rms="2.1618369221687317e-01" purity="6.8766757845878601e-02" nType="-99"/>
          <Node pos="r" depth="2" NCoef="0" IVar="-1" Cut="0.0000000000000000e+00" cType="1" res="1.3045043488091324e-05" rms="3.1521835923194885e-01" purity="8.5071474313735962e-01" nType="-99"/>
        </Node>
        <Node pos="r" depth="1" NCoef="0" IVar="4" Cut="8.3395968750000000e+04" cType="1" res="4.1674900054931641e-01" rms="4.9328225851058960e-01" purity="4.1700711846351624e-01" nType="0">
          <Node pos="l" depth="2" NCoef="0" IVar="-1" Cut="0.0000000000000000e+00" cType="1" res="1.0843318887054920e-04" rms="3.6904793977737427e-01" purity="3.7357616424560547e-01" nType="-99"/>
          <Node pos="r" depth="2" NCoef="0" IVar="-1" Cut="0.0000000000000000e+00" cType="1" res="1.2585147051140666e-03" rms="2.7988508343696594e-01" purity="9.1413164138793945e-01" nType="-99"/>
        </Node>
      </Node>
    </BinaryTree>
    <BinaryTree type="DecisionTree" boostWeight="1.0000000000000000e+00" itree="596">
      <Node pos="s" depth="0" NCoef="0" IVar="5" Cut="1.6863592187500000e+05" cType="1" res="6.0102289915084839e-01" rms="4.8981919884681702e-01" purity="6.0115134716033936e-01" nType="0">
        <Node pos="l" depth="1" NCoef="0" IVar="3" Cut="9.0417679687500000e+04" cType="1" res="8.0459290742874146e-01" rms="3.9651376008987427e-01" purity="8.0459284782409668e-01" nType="0">
          <Node pos="l" depth="2" NCoef="0" IVar="-1" Cut="0.0000000000000000e+00" cType="1" res="-1.7819739878177643e-03" rms="2.3395693302154541e-01" purity="7.3613777756690979e-02" nType="-99"/>
          <Node pos="r" depth="2" NCoef="0" IVar="-1" Cut="0.0000000000000000e+00" cType="1" res="1.3111903172102757e-05" rms="2.3921789228916168e-01" purity="9.2114013433456421e-01" nType="-99"/>
        </Node>
        <Node pos="r" depth="1" NCoef="0" IVar="2" Cut="9.1812164062500000e+04" cType="1" res="5.0977826118469238e-01" rms="5.0009042024612427e-01" purity="5.0996434688568115e-01" nType="0">
          <Node pos="l" depth="2" NCoef="0" IVar="-1" Cut="0.0000000000000000e+00" cType="1" res="3.8850447162985802e-04" rms="3.6649778485298157e-01" purity="4.2308190464973450e-01" nType="-99"/>
          <Node pos="r" depth="2" NCoef="0" IVar="-1" Cut="0.0000000000000000e+00" cType="1" res="1.9354372852831148e-05" rms="4.9478930234909058e-01" purity="6.3211673498153687e-01" nType="-99"/>
        </Node>
      </Node>
    </BinaryTree>
    <BinaryTree type="DecisionTree" boostWeight="1.0000000000000000e+00" itree="597">
      <Node pos="s" depth="0" NCoef="0" IVar="3" Cut="8.9426250000000000e+04" cType="1" res="5.2010041475296021e-01" rms="4.9980244040489197e-01" purity="5.2038842439651489e-01" nType="0">
        <Node pos="l" depth="1" NCoef="0" IVar="3" Cut="8.8492546875000000e+04" cType="1" res="6.1060649156570435e-01" rms="4.8763492703437805e-01" purity="6.1076974868774414e-01" nType="0">
          <Node pos="l" depth="2" NCoef="0" IVar="-1" Cut="0.0000000000000000e+00" cType="1" res="4.2988217319361866e-04" rms="3.4949082136154175e-01" purity="3.8947707414627075e-01" nType="-99"/>
          <Node pos="r" depth="2" NCoef="0" IVar="-1" Cut="0.0000000000000000e+00" cType="1" res="2.0440400476218201e-05" rms="4.0517711639404297e-01" purity="8.3305066823959351e-01" nType="-99"/>
        </Node>
        <Node pos="r" depth="1" NCoef="0" IVar="4" Cut="6.4882355468750000e+04" cType="1" res="3.9763206243515015e-01" rms="4.8964935541152954e-01" purity="3.9786773920059204e-01" nType="0">
          <Node pos="l" depth="2" NCoef="0" IVar="-1" Cut="0.0000000000000000e+00" cType="1" res="3.1874253181740642e-04" rms="3.6598041653633118e-01" purity="3.3263468742370605e-01" nType="-99"/>
          <Node pos="r" depth="2" NCoef="0" IVar="-1" Cut="0.0000000000000000e+00" cType="1" res="9.8117382731288671e-04" rms="3.1932607293128967e-01" purity="8.7715446949005127e-01" nType="-99"/>
        </Node>
      </Node>
    </BinaryTree>
    <BinaryTree type="DecisionTree" boostWeight="1.0000000000000000e+00" itree="598">
      <Node pos="s" depth="0" NCoef="0" IVar="3" Cut="8.9426570312500000e+04" cType="1" res="0.0000000000000000e+00" rms="0.0000000000000000e+00" purity="5.2482044696807861e-01" nType="0">
        <Node pos="l" depth="1" NCoef="0" IVar="3" Cut="8.8493039062500000e+04" cType="1" res="6.1390942335128784e-01" rms="4.8685178160667419e-01" purity="6.1390936374664307e-01" nType="0">
          <Node pos="l" depth="2" NCoef="0" IVar="-1" Cut="0.0000000000000000e+00" cType="1" res="3.0876277014613152e-04" rms="3.5142642259597778e-01" purity="3.9745649695396423e-01" nType="-99"/>
          <Node pos="r" depth="2" NCoef="0" IVar="-1" Cut="0.0000000000000000e+00" cType="1" res="2.0418941858224571e-05" rms="4.0585768222808838e-01" purity="8.2905524969100952e-01" nType="-99"/>
        </Node>
        <Node pos="r" depth="1" NCoef="0" IVar="3" Cut="9.8944585937500000e+04" cType="1" res="inf" rms="0.0000000000000000e+00" purity="4.0449815988540649e-01" nType="0">
          <Node pos="l" depth="2" NCoef="0" IVar="-1" Cut="0.0000000000000000e+00" cType="1" res="5.1484850700944662e-04" rms="3.5932585597038269e-01" purity="3.9771887660026550e-01" nType="-99"/>
          <Node pos="r" depth="2" NCoef="0" IVar="-1" Cut="0.0000000000000000e+00" cType="1" res="2.1003496367484331e-03" rms="4.3992137908935547e-01" purity="4.9842584133148193e-01" nType="-99"/>
        </Node>
      </Node>
    </BinaryTree>
    <BinaryTree type="DecisionTree" boostWeight="1.0000000000000000e+00" itree="599">
      <Node pos="s" depth="0" NCoef="0" IVar="2" Cut="9.1849609375000000e+04" cType="1" res="4.6811854839324951e-01" rms="4.9903967976570129e-01" purity="4.6842503547668457e-01" nType="0">
        <Node pos="l" depth="1" NCoef="0" IVar="4" Cut="6.5056777343750000e+04" cType="1" res="3.8535556197166443e-01" rms="4.8667919635772705e-01" purity="3.8546693325042725e-01" nType="0">
          <Node pos="l" depth="2" NCoef="0" IVar="-1" Cut="0.0000000000000000e+00" cType="1" res="-4.1320713353343308e-04" rms="3.5144823789596558e-01" purity="3.1608906388282776e-01" nType="-99"/>
          <Node pos="r" depth="2" NCoef="0" IVar="-1" Cut="0.0000000000000000e+00" cType="1" res="1.1043570702895522e-03" rms="3.0894106626510620e-01" purity="8.8299393653869629e-01" nType="-99"/>
        </Node>
        <Node pos="r" depth="1" NCoef="0" IVar="2" Cut="9.2047015625000000e+04" cType="1" res="5.9605461359024048e-01" rms="4.9083468317985535e-01" purity="5.9666270017623901e-01" nType="0">
          <Node pos="l" depth="2" NCoef="0" IVar="-1" Cut="0.0000000000000000e+00" cType="1" res="1.8888686099671759e-05" rms="3.6332130432128906e-01" purity="8.7498754262924194e-01" nType="-99"/>
          <Node pos="r" depth="2" NCoef="0" IVar="-1" Cut="0.0000000000000000e+00" cType="1" res="1.1005545093212277e-04" rms="3.5977879166603088e-01" purity="3.8394197821617126e-01" nType="-99"/>
        </Node>
      </Node>
    </BinaryTree>
    <BinaryTree type="DecisionTree" boostWeight="1.0000000000000000e+00" itree="600">
      <Node pos="s" depth="0" NCoef="0" IVar="4" Cut="5.2971644531250000e+04" cType="1" res="3.8505941629409790e-01" rms="4.8678973317146301e-01" purity="3.8534057140350342e-01" nType="0">
        <Node pos="l" depth="1" NCoef="0" IVar="0" Cut="3.0000000000000000e+00" cType="1" res="-5.0134072080254555e-03" rms="3.5032793879508972e-01" purity="3.0198419094085693e-01" nType="0">
          <Node pos="l" depth="2" NCoef="0" IVar="-1" Cut="0.0000000000000000e+00" cType="1" res="-7.7752396464347839e-04" rms="3.5340210795402527e-01" purity="2.3503789305686951e-01" nType="-99"/>
          <Node pos="r" depth="2" NCoef="0" IVar="-1" Cut="0.0000000000000000e+00" cType="1" res="2.7639609761536121e-03" rms="3.1399482488632202e-01" purity="8.8792568445205688e-01" nType="-99"/>
        </Node>
        <Node pos="r" depth="1" NCoef="0" IVar="4" Cut="8.2514257812500000e+04" cType="1" res="8.2438927888870239e-01" rms="3.8048860430717468e-01" purity="8.2505184412002563e-01" nType="0">
          <Node pos="l" depth="2" NCoef="0" IVar="-1" Cut="0.0000000000000000e+00" cType="1" res="2.9866263503208756e-04" rms="4.0038055181503296e-01" purity="7.6451468467712402e-01" nType="-99"/>
          <Node pos="r" depth="2" NCoef="0" IVar="-1" Cut="0.0000000000000000e+00" cType="1" res="1.3725410681217909e-03" rms="2.8053429722785950e-01" purity="9.1220659017562866e-01" nType="-99"/>
        </Node>
      </Node>
    </BinaryTree>
    <BinaryTree type="DecisionTree" boostWeight="1.0000000000000000e+00" itree="601">
      <Node pos="s" depth="0" NCoef="0" IVar="2" Cut="8.9600773437500000e+04" cType="1" res="5.8657622337341309e-01" rms="4.9265816807746887e-01" purity="5.8698767423629761e-01" nType="0">
        <Node pos="l" depth="1" NCoef="0" IVar="2" Cut="8.9247796875000000e+04" cType="1" res="8.2396817207336426e-01" rms="3.8084724545478821e-01" purity="8.2401472330093384e-01" nType="0">
          <Node pos="l" depth="2" NCoef="0" IVar="-1" Cut="0.0000000000000000e+00" cType="1" res="7.9526694025844336e-04" rms="3.7898063659667969e-01" purity="3.8567414879798889e-01" nType="-99"/>
          <Node pos="r" depth="2" NCoef="0" IVar="-1" Cut="0.0000000000000000e+00" cType="1" res="1.4634173567174003e-05" rms="2.4131435155868530e-01" purity="9.5013511180877686e-01" nType="-99"/>
        </Node>
        <Node pos="r" depth="1" NCoef="0" IVar="4" Cut="6.4214281250000000e+04" cType="1" res="3.8157454133033752e-01" rms="4.8627069592475891e-01" purity="3.8239800930023193e-01" nType="0">
          <Node pos="l" depth="2" NCoef="0" IVar="-1" Cut="0.0000000000000000e+00" cType="1" res="-4.5507293543778360e-04" rms="3.5449987649917603e-01" purity="3.1927403807640076e-01" nType="-99"/>
          <Node pos="r" depth="2" NCoef="0" IVar="-1" Cut="0.0000000000000000e+00" cType="1" res="1.0954200988635421e-03" rms="3.3099448680877686e-01" purity="8.6857920885086060e-01" nType="-99"/>
        </Node>
      </Node>
    </BinaryTree>
    <BinaryTree type="DecisionTree" boostWeight="1.0000000000000000e+00" itree="602">
      <Node pos="s" depth="0" NCoef="0" IVar="1" Cut="1.9126706250000000e+05" cType="1" res="4.4649547338485718e-01" rms="4.9712902307510376e-01" purity="4.4649547338485718e-01" nType="0">
        <Node pos="l" depth="1" NCoef="0" IVar="1" Cut="1.8703604687500000e+05" cType="1" res="3.6101154983043671e-02" rms="2.2446234524250031e-01" purity="6.9561415910720825e-01" nType="0">
          <Node pos="l" depth="2" NCoef="0" IVar="-1" Cut="0.0000000000000000e+00" cType="1" res="-7.3005030571948737e-05" rms="3.1603085994720459e-01" purity="2.1079023182392120e-01" nType="-99"/>
          <Node pos="r" depth="2" NCoef="0" IVar="-1" Cut="0.0000000000000000e+00" cType="1" res="2.2408385120797902e-05" rms="3.6379390954971313e-01" purity="8.3219420909881592e-01" nType="-99"/>
        </Node>
        <Node pos="r" depth="1" NCoef="0" IVar="0" Cut="3.0000000000000000e+00" cType="1" res="6.0308375395834446e-03" rms="3.5346835851669312e-01" purity="3.9892330765724182e-01" nType="0">
          <Node pos="l" depth="2" NCoef="0" IVar="-1" Cut="0.0000000000000000e+00" cType="1" res="-2.5911821285262704e-04" rms="3.6152958869934082e-01" purity="3.1736335158348083e-01" nType="-99"/>
          <Node pos="r" depth="2" NCoef="0" IVar="-1" Cut="0.0000000000000000e+00" cType="1" res="4.6734517673030496e-04" rms="2.8746697306632996e-01" purity="9.0911108255386353e-01" nType="-99"/>
        </Node>
      </Node>
    </BinaryTree>
    <BinaryTree type="DecisionTree" boostWeight="1.0000000000000000e+00" itree="603">
      <Node pos="s" depth="0" NCoef="0" IVar="5" Cut="1.6601217187500000e+05" cType="1" res="5.5159181356430054e-01" rms="4.9733117222785950e-01" purity="5.5159187316894531e-01" nType="0">
        <Node pos="l" depth="1" NCoef="0" IVar="3" Cut="8.9708671875000000e+04" cType="1" res="8.2538837194442749e-01" rms="3.7963458895683289e-01" purity="8.2538837194442749e-01" nType="0">
          <Node pos="l" depth="2" NCoef="0" IVar="-1" Cut="0.0000000000000000e+00" cType="1" res="-6.2621627002954483e-03" rms="1.8709710240364075e-01" purity="4.9356043338775635e-02" nType="-99"/>
          <Node pos="r" depth="2" NCoef="0" IVar="-1" Cut="0.0000000000000000e+00" cType="1" res="1.3127143574820366e-05" rms="2.3830896615982056e-01" purity="9.2099946737289429e-01" nType="-99"/>
        </Node>
        <Node pos="r" depth="1" NCoef="0" IVar="4" Cut="8.2556148437500000e+04" cType="1" res="4.1346243023872375e-01" rms="4.9245432019233704e-01" purity="4.1346246004104614e-01" nType="0">
          <Node pos="l" depth="2" NCoef="0" IVar="-1" Cut="0.0000000000000000e+00" cType="1" res="1.4679023297503591e-04" rms="3.7156423926353455e-01" purity="3.7206062674522400e-01" nType="-99"/>
          <Node pos="r" depth="2" NCoef="0" IVar="-1" Cut="0.0000000000000000e+00" cType="1" res="1.4110924676060677e-03" rms="2.7962782979011536e-01" purity="9.1375434398651123e-01" nType="-99"/>
        </Node>
      </Node>
    </BinaryTree>
    <BinaryTree type="DecisionTree" boostWeight="1.0000000000000000e+00" itree="604">
      <Node pos="s" depth="0" NCoef="0" IVar="4" Cut="4.0186972656250000e+04" cType="1" res="3.8708218932151794e-01" rms="4.8708271980285645e-01" purity="3.8708218932151794e-01" nType="0">
        <Node pos="l" depth="1" NCoef="0" IVar="0" Cut="3.0000000000000000e+00" cType="1" res="-4.6902881003916264e-03" rms="3.4156602621078491e-01" purity="2.7120190858840942e-01" nType="0">
          <Node pos="l" depth="2" NCoef="0" IVar="-1" Cut="0.0000000000000000e+00" cType="1" res="-9.0519082732498646e-04" rms="3.4359070658683777e-01" purity="2.0975339412689209e-01" nType="-99"/>
          <Node pos="r" depth="2" NCoef="0" IVar="-1" Cut="0.0000000000000000e+00" cType="1" res="2.1385443396866322e-03" rms="3.1269276142120361e-01" purity="8.8966041803359985e-01" nType="-99"/>
        </Node>
        <Node pos="r" depth="1" NCoef="0" IVar="4" Cut="7.7749593750000000e+04" cType="1" res="7.4018079042434692e-01" rms="4.3853527307510376e-01" purity="7.4018085002899170e-01" nType="0">
          <Node pos="l" depth="2" NCoef="0" IVar="-1" Cut="0.0000000000000000e+00" cType="1" res="8.2923122681677341e-04" rms="4.2953473329544067e-01" purity="6.6349220275878906e-01" nType="-99"/>
          <Node pos="r" depth="2" NCoef="0" IVar="-1" Cut="0.0000000000000000e+00" cType="1" res="1.1065297294408083e-03" rms="2.9603224992752075e-01" purity="9.0183460712432861e-01" nType="-99"/>
        </Node>
      </Node>
    </BinaryTree>
    <BinaryTree type="DecisionTree" boostWeight="1.0000000000000000e+00" itree="605">
      <Node pos="s" depth="0" NCoef="0" IVar="5" Cut="3.9444043750000000e+05" cType="1" res="3.8475051522254944e-01" rms="4.8686560988426208e-01" purity="3.8522696495056152e-01" nType="0">
        <Node pos="l" depth="1" NCoef="0" IVar="4" Cut="4.4585667968750000e+04" cType="1" res="2.5681367516517639e-01" rms="4.3687573075294495e-01" purity="2.5690075755119324e-01" nType="0">
          <Node pos="l" depth="2" NCoef="0" IVar="-1" Cut="0.0000000000000000e+00" cType="1" res="-1.1563535081222653e-03" rms="3.3335429430007935e-01" purity="1.8299816548824310e-01" nType="-99"/>
          <Node pos="r" depth="2" NCoef="0" IVar="-1" Cut="0.0000000000000000e+00" cType="1" res="5.2394939120858908e-04" rms="4.4999551773071289e-01" purity="6.6304928064346313e-01" nType="-99"/>
        </Node>
        <Node pos="r" depth="1" NCoef="0" IVar="0" Cut="4.0000000000000000e+00" cType="1" res="5.1726397126913071e-02" rms="3.5208848118782043e-01" purity="7.8462380170822144e-01" nType="0">
          <Node pos="l" depth="2" NCoef="0" IVar="-1" Cut="0.0000000000000000e+00" cType="1" res="1.0913108708336949e-03" rms="3.7758094072341919e-01" purity="7.4008446931838989e-01" nType="-99"/>
          <Node pos="r" depth="2" NCoef="0" IVar="-1" Cut="0.0000000000000000e+00" cType="1" res="3.2694074325263500e-03" rms="2.3675855994224548e-01" purity="9.4072282314300537e-01" nType="-99"/>
        </Node>
      </Node>
    </BinaryTree>
    <BinaryTree type="DecisionTree" boostWeight="1.0000000000000000e+00" itree="606">
      <Node pos="s" depth="0" NCoef="0" IVar="5" Cut="4.8029290625000000e+05" cType="1" res="3.8132420182228088e-01" rms="4.8607921600341797e-01" purity="3.8168117403984070e-01" nType="0">
        <Node pos="l" depth="1" NCoef="0" IVar="4" Cut="7.0428984375000000e+04" cType="1" res="0.0000000000000000e+00" rms="0.0000000000000000e+00" purity="2.9139536619186401e-01" nType="0">
          <Node pos="l" depth="2" NCoef="0" IVar="-1" Cut="0.0000000000000000e+00" cType="1" res="-6.5293750958517194e-04" rms="3.5419279336929321e-01" purity="2.5198081135749817e-01" nType="-99"/>
          <Node pos="r" depth="2" NCoef="0" IVar="-1" Cut="0.0000000000000000e+00" cType="1" res="7.2204379830509424e-04" rms="3.6726164817810059e-01" purity="8.2983887195587158e-01" nType="-99"/>
        </Node>
        <Node pos="r" depth="1" NCoef="0" IVar="0" Cut="4.0000000000000000e+00" cType="1" res="6.0777701437473297e-02" rms="3.3578351140022278e-01" purity="8.2457989454269409e-01" nType="0">
          <Node pos="l" depth="2" NCoef="0" IVar="-1" Cut="0.0000000000000000e+00" cType="1" res="1.3963045785203576e-03" rms="3.6756843328475952e-01" purity="7.7829116582870483e-01" nType="-99"/>
          <Node pos="r" depth="2" NCoef="0" IVar="-1" Cut="0.0000000000000000e+00" cType="1" res="4.1815713047981262e-03" rms="2.2956988215446472e-01" purity="9.4460010528564453e-01" nType="-99"/>
        </Node>
      </Node>
    </BinaryTree>
    <BinaryTree type="DecisionTree" boostWeight="1.0000000000000000e+00" itree="607">
      <Node pos="s" depth="0" NCoef="0" IVar="1" Cut="2.0208595312500000e+05" cType="1" res="6.0970437526702881e-01" rms="4.8806422948837280e-01" purity="6.0999512672424316e-01" nType="0">
        <Node pos="l" depth="1" NCoef="0" IVar="2" Cut="8.9632320312500000e+04" cType="1" res="4.1841506958007812e-01" rms="5.0695723295211792e-01" purity="7.8237235546112061e-01" nType="0">
          <Node pos="l" depth="2" NCoef="0" IVar="-1" Cut="0.0000000000000000e+00" cType="1" res="1.7159831259050407e-05" rms="2.5135412812232971e-01" purity="9.3099641799926758e-01" nType="-99"/>
          <Node pos="r" depth="2" NCoef="0" IVar="-1" Cut="0.0000000000000000e+00" cType="1" res="4.2523638694547117e-04" rms="3.3252757787704468e-01" purity="2.3966658115386963e-01" nType="-99"/>
        </Node>
        <Node pos="r" depth="1" NCoef="0" IVar="2" Cut="9.1879929687500000e+04" cType="1" res="5.1183247566223145e-01" rms="5.0023871660232544e-01" purity="5.1228815317153931e-01" nType="0">
          <Node pos="l" depth="2" NCoef="0" IVar="-1" Cut="0.0000000000000000e+00" cType="1" res="2.9032825841568410e-04" rms="3.5391768813133240e-01" purity="4.2386183142662048e-01" nType="-99"/>
          <Node pos="r" depth="2" NCoef="0" IVar="-1" Cut="0.0000000000000000e+00" cType="1" res="1.9653261915664189e-05" rms="4.9371939897537231e-01" purity="6.4115571975708008e-01" nType="-99"/>
        </Node>
      </Node>
    </BinaryTree>
    <BinaryTree type="DecisionTree" boostWeight="1.0000000000000000e+00" itree="608">
      <Node pos="s" depth="0" NCoef="0" IVar="1" Cut="1.8991192187500000e+05" cType="1" res="4.5305728912353516e-01" rms="4.9779149889945984e-01" purity="4.5305725932121277e-01" nType="0">
        <Node pos="l" depth="1" NCoef="0" IVar="-1" Cut="0.0000000000000000e+00" cType="1" res="2.2405640265787952e-05" rms="4.2989599704742432e-01" purity="7.2500103712081909e-01" nType="-99"/>
        <Node pos="r" depth="1" NCoef="0" IVar="4" Cut="5.0450804687500000e+04" cType="1" res="4.0515816211700439e-01" rms="4.9092262983322144e-01" purity="4.0515816211700439e-01" nType="0">
          <Node pos="l" depth="2" NCoef="0" IVar="-1" Cut="0.0000000000000000e+00" cType="1" res="-6.2154425540938973e-04" rms="3.4445473551750183e-01" purity="2.9907199740409851e-01" nType="-99"/>
          <Node pos="r" depth="2" NCoef="0" IVar="-1" Cut="0.0000000000000000e+00" cType="1" res="3.6215633735992014e-04" rms="3.4916713833808899e-01" purity="8.2965296506881714e-01" nType="-99"/>
        </Node>
      </Node>
    </BinaryTree>
    <BinaryTree type="DecisionTree" boostWeight="1.0000000000000000e+00" itree="609">
      <Node pos="s" depth="0" NCoef="0" IVar="1" Cut="1.8991192187500000e+05" cType="1" res="4.5696467161178589e-01" rms="4.9814450740814209e-01" purity="4.5696467161178589e-01" nType="0">
        <Node pos="l" depth="1" NCoef="0" IVar="-1" Cut="0.0000000000000000e+00" cType="1" res="2.2447111405199394e-05" rms="4.2592215538024902e-01" purity="7.3499834537506104e-01" nType="-99"/>
        <Node pos="r" depth="1" NCoef="0" IVar="4" Cut="5.3249441406250000e+04" cType="1" res="4.0967062115669250e-01" rms="4.9177291989326477e-01" purity="4.0967065095901489e-01" nType="0">
          <Node pos="l" depth="2" NCoef="0" IVar="-1" Cut="0.0000000000000000e+00" cType="1" res="2.3143462385633029e-05" rms="3.5764384269714355e-01" purity="3.1613048911094666e-01" nType="-99"/>
          <Node pos="r" depth="2" NCoef="0" IVar="-1" Cut="0.0000000000000000e+00" cType="1" res="4.2583057074807584e-04" rms="3.3792486786842346e-01" purity="8.4426218271255493e-01" nType="-99"/>
        </Node>
      </Node>
    </BinaryTree>
    <BinaryTree type="DecisionTree" boostWeight="1.0000000000000000e+00" itree="610">
      <Node pos="s" depth="0" NCoef="0" IVar="1" Cut="1.9097787500000000e+05" cType="1" res="4.4972458481788635e-01" rms="4.9746596813201904e-01" purity="4.4972458481788635e-01" nType="0">
        <Node pos="l" depth="1" NCoef="0" IVar="4" Cut="2.1087853515625000e+04" cType="1" res="2.3043531924486160e-02" rms="1.9233623147010803e-01" purity="7.0844036340713501e-01" nType="0">
          <Node pos="l" depth="2" NCoef="0" IVar="-1" Cut="0.0000000000000000e+00" cType="1" res="3.3680498600006104e-03" rms="2.6160511374473572e-01" purity="1.2214180082082748e-01" nType="-99"/>
          <Node pos="r" depth="2" NCoef="0" IVar="-1" Cut="0.0000000000000000e+00" cType="1" res="2.2419937522499822e-05" rms="3.7483873963356018e-01" purity="8.6787450313568115e-01" nType="-99"/>
        </Node>
        <Node pos="r" depth="1" NCoef="0" IVar="4" Cut="7.7972640625000000e+04" cType="1" res="4.0226468443870544e-01" rms="4.9035477638244629e-01" purity="4.0226465463638306e-01" nType="0">
          <Node pos="l" depth="2" NCoef="0" IVar="-1" Cut="0.0000000000000000e+00" cType="1" res="3.2801946508698165e-04" rms="3.6714074015617371e-01" purity="3.5845091938972473e-01" nType="-99"/>
          <Node pos="r" depth="2" NCoef="0" IVar="-1" Cut="0.0000000000000000e+00" cType="1" res="1.2699245708063245e-03" rms="2.8466659784317017e-01" purity="9.0997374057769775e-01" nType="-99"/>
        </Node>
      </Node>
    </BinaryTree>
    <BinaryTree type="DecisionTree" boostWeight="1.0000000000000000e+00" itree="611">
      <Node pos="s" depth="0" NCoef="0" IVar="1" Cut="1.9133937500000000e+05" cType="1" res="4.4123861193656921e-01" rms="4.9653509259223938e-01" purity="4.4123861193656921e-01" nType="0">
        <Node pos="l" depth="1" NCoef="0" IVar="3" Cut="8.8335609375000000e+04" cType="1" res="4.0715433657169342e-02" rms="2.3117509484291077e-01" purity="7.0447933673858643e-01" nType="0">
          <Node pos="l" depth="2" NCoef="0" IVar="-1" Cut="0.0000000000000000e+00" cType="1" res="-1.0569726582616568e-03" rms="3.1016331911087036e-01" purity="2.2017103433609009e-01" nType="-99"/>
          <Node pos="r" depth="2" NCoef="0" IVar="-1" Cut="0.0000000000000000e+00" cType="1" res="2.2634467313764617e-05" rms="3.5537537932395935e-01" purity="8.3522617816925049e-01" nType="-99"/>
        </Node>
        <Node pos="r" depth="1" NCoef="0" IVar="4" Cut="4.7302878906250000e+04" cType="1" res="3.9101836085319519e-01" rms="4.8797848820686340e-01" purity="3.9101836085319519e-01" nType="0">
          <Node pos="l" depth="2" NCoef="0" IVar="-1" Cut="0.0000000000000000e+00" cType="1" res="-1.8127464863937348e-04" rms="3.5272839665412903e-01" purity="2.9570990800857544e-01" nType="-99"/>
          <Node pos="r" depth="2" NCoef="0" IVar="-1" Cut="0.0000000000000000e+00" cType="1" res="9.7335735335946083e-04" rms="3.7700667977333069e-01" purity="7.8845906257629395e-01" nType="-99"/>
        </Node>
      </Node>
    </BinaryTree>
    <BinaryTree type="DecisionTree" boostWeight="1.0000000000000000e+00" itree="612">
      <Node pos="s" depth="0" NCoef="0" IVar="1" Cut="2.0203215625000000e+05" cType="1" res="4.5187076926231384e-01" rms="4.9780112504959106e-01" purity="4.5208719372749329e-01" nType="0">
        <Node pos="l" depth="1" NCoef="0" IVar="2" Cut="8.9636281250000000e+04" cType="1" res="4.8744237422943115e-01" rms="5.2269488573074341e-01" purity="5.5742847919464111e-01" nType="0">
          <Node pos="l" depth="2" NCoef="0" IVar="-1" Cut="0.0000000000000000e+00" cType="1" res="2.3076088837115094e-05" rms="3.8612481951713562e-01" purity="8.0740815401077271e-01" nType="-99"/>
          <Node pos="r" depth="2" NCoef="0" IVar="-1" Cut="0.0000000000000000e+00" cType="1" res="-4.2116359691135585e-04" rms="3.2974049448966980e-01" purity="2.2628842294216156e-01" nType="-99"/>
        </Node>
        <Node pos="r" depth="1" NCoef="0" IVar="4" Cut="7.4138531250000000e+04" cType="1" res="4.1856747865676880e-01" rms="4.9348732829093933e-01" purity="4.1885221004486084e-01" nType="0">
          <Node pos="l" depth="2" NCoef="0" IVar="-1" Cut="0.0000000000000000e+00" cType="1" res="1.0712826770031825e-04" rms="3.6454904079437256e-01" purity="3.6173409223556519e-01" nType="-99"/>
          <Node pos="r" depth="2" NCoef="0" IVar="-1" Cut="0.0000000000000000e+00" cType="1" res="1.1963372817263007e-03" rms="2.8007856011390686e-01" purity="9.1119593381881714e-01" nType="-99"/>
        </Node>
      </Node>
    </BinaryTree>
    <BinaryTree type="DecisionTree" boostWeight="1.0000000000000000e+00" itree="613">
      <Node pos="s" depth="0" NCoef="0" IVar="1" Cut="2.0203215625000000e+05" cType="1" res="2.4149989302027291e+34" rms="0.0000000000000000e+00" purity="5.6396311521530151e-01" nType="0">
        <Node pos="l" depth="1" NCoef="0" IVar="2" Cut="8.9719843750000000e+04" cType="1" res="4.2935284972190857e-01" rms="5.0599998235702515e-01" purity="7.8939503431320190e-01" nType="0">
          <Node pos="l" depth="2" NCoef="0" IVar="-1" Cut="0.0000000000000000e+00" cType="1" res="1.7056903743650764e-05" rms="2.4818694591522217e-01" purity="9.3149048089981079e-01" nType="-99"/>
          <Node pos="r" depth="2" NCoef="0" IVar="-1" Cut="0.0000000000000000e+00" cType="1" res="9.9805917125195265e-04" rms="3.3755123615264893e-01" purity="2.5515699386596680e-01" nType="-99"/>
        </Node>
        <Node pos="r" depth="1" NCoef="0" IVar="4" Cut="7.5876343750000000e+04" cType="1" res="4.1126120090484619e-01" rms="4.9228677153587341e-01" purity="4.1179266571998596e-01" nType="0">
          <Node pos="l" depth="2" NCoef="0" IVar="-1" Cut="0.0000000000000000e+00" cType="1" res="-1.8004880985245109e-04" rms="3.6395058035850525e-01" purity="3.5731011629104614e-01" nType="-99"/>
          <Node pos="r" depth="2" NCoef="0" IVar="-1" Cut="0.0000000000000000e+00" cType="1" res="1.1925143189728260e-03" rms="2.8783294558525085e-01" purity="9.0667837858200073e-01" nType="-99"/>
        </Node>
      </Node>
    </BinaryTree>
    <BinaryTree type="DecisionTree" boostWeight="1.0000000000000000e+00" itree="614">
      <Node pos="s" depth="0" NCoef="0" IVar="4" Cut="8.2745929687500000e+04" cType="1" res="3.8479006290435791e-01" rms="4.8654565215110779e-01" purity="3.8479006290435791e-01" nType="0">
        <Node pos="l" depth="1" NCoef="0" IVar="0" Cut="3.0000000000000000e+00" cType="1" res="1.3811672106385231e-03" rms="3.5657832026481628e-01" purity="3.4465914964675903e-01" nType="0">
          <Node pos="l" depth="2" NCoef="0" IVar="-1" Cut="0.0000000000000000e+00" cType="1" res="-3.5496184136718512e-04" rms="3.6175909638404846e-01" purity="2.7405387163162231e-01" nType="-99"/>
          <Node pos="r" depth="2" NCoef="0" IVar="-1" Cut="0.0000000000000000e+00" cType="1" res="2.3959965910762548e-03" rms="3.0629542469978333e-01" purity="8.9373648166656494e-01" nType="-99"/>
        </Node>
        <Node pos="r" depth="1" NCoef="0" IVar="-1" Cut="0.0000000000000000e+00" cType="1" res="1.3863269705325365e-03" rms="2.7300104498863220e-01" purity="9.1752010583877563e-01" nType="-99"/>
      </Node>
    </BinaryTree>
    <BinaryTree type="DecisionTree" boostWeight="1.0000000000000000e+00" itree="615">
      <Node pos="s" depth="0" NCoef="0" IVar="2" Cut="8.9731320312500000e+04" cType="1" res="6.6626942157745361e-01" rms="4.7154477238655090e-01" purity="6.6626942157745361e-01" nType="0">
        <Node pos="l" depth="1" NCoef="0" IVar="2" Cut="8.9253359375000000e+04" cType="1" res="8.4940969944000244e-01" rms="3.5764908790588379e-01" purity="8.4940969944000244e-01" nType="0">
          <Node pos="l" depth="2" NCoef="0" IVar="-1" Cut="0.0000000000000000e+00" cType="1" res="9.2686030257027596e-05" rms="3.5396984219551086e-01" purity="3.7927004694938660e-01" nType="-99"/>
          <Node pos="r" depth="2" NCoef="0" IVar="-1" Cut="0.0000000000000000e+00" cType="1" res="1.4229349289962556e-05" rms="2.3864758014678955e-01" purity="9.4879084825515747e-01" nType="-99"/>
        </Node>
        <Node pos="r" depth="1" NCoef="0" IVar="1" Cut="2.8482178125000000e+05" cType="1" res="4.9327668547630310e-01" rms="5.0022441148757935e-01" purity="4.9365752935409546e-01" nType="0">
          <Node pos="l" depth="2" NCoef="0" IVar="-1" Cut="0.0000000000000000e+00" cType="1" res="6.5217597875744104e-04" rms="3.5023379325866699e-01" purity="3.1826898455619812e-01" nType="-99"/>
          <Node pos="r" depth="2" NCoef="0" IVar="-1" Cut="0.0000000000000000e+00" cType="1" res="1.9619801605585963e-05" rms="4.9570530652999878e-01" purity="6.8803375959396362e-01" nType="-99"/>
        </Node>
      </Node>
    </BinaryTree>
    <BinaryTree type="DecisionTree" boostWeight="1.0000000000000000e+00" itree="616">
      <Node pos="s" depth="0" NCoef="0" IVar="2" Cut="9.1849609375000000e+04" cType="1" res="5.3490316867828369e-01" rms="4.9878028035163879e-01" purity="5.3490316867828369e-01" nType="0">
        <Node pos="l" depth="1" NCoef="0" IVar="4" Cut="5.3263394531250000e+04" cType="1" res="3.8990217447280884e-01" rms="4.8772785067558289e-01" purity="3.8990217447280884e-01" nType="0">
          <Node pos="l" depth="2" NCoef="0" IVar="-1" Cut="0.0000000000000000e+00" cType="1" res="-2.2966545657254755e-04" rms="3.5328412055969238e-01" purity="2.9734927415847778e-01" nType="-99"/>
          <Node pos="r" depth="2" NCoef="0" IVar="-1" Cut="0.0000000000000000e+00" cType="1" res="3.7504418287426233e-04" rms="3.4617227315902710e-01" purity="8.4051501750946045e-01" nType="-99"/>
        </Node>
        <Node pos="r" depth="1" NCoef="0" IVar="2" Cut="9.2047015625000000e+04" cType="1" res="7.0254439115524292e-01" rms="4.5726960897445679e-01" purity="7.0266419649124146e-01" nType="0">
          <Node pos="l" depth="2" NCoef="0" IVar="-1" Cut="0.0000000000000000e+00" cType="1" res="1.9118726413580589e-05" rms="2.8423449397087097e-01" purity="9.3000793457031250e-01" nType="-99"/>
          <Node pos="r" depth="2" NCoef="0" IVar="-1" Cut="0.0000000000000000e+00" cType="1" res="6.0168724303366616e-05" rms="3.5746988654136658e-01" purity="3.8446119427680969e-01" nType="-99"/>
        </Node>
      </Node>
    </BinaryTree>
    <BinaryTree type="DecisionTree" boostWeight="1.0000000000000000e+00" itree="617">
      <Node pos="s" depth="0" NCoef="0" IVar="5" Cut="1.6313576562500000e+05" cType="1" res="4.8192283511161804e-01" rms="4.9988472461700439e-01" purity="4.8222303390502930e-01" nType="0">
        <Node pos="l" depth="1" NCoef="0" IVar="5" Cut="1.5306956250000000e+05" cType="1" res="7.3849982023239136e-01" rms="4.3945175409317017e-01" purity="7.3849976062774658e-01" nType="0">
          <Node pos="l" depth="2" NCoef="0" IVar="-1" Cut="0.0000000000000000e+00" cType="1" res="-2.2290740162134171e-03" rms="2.3230758309364319e-01" purity="7.5523085892200470e-02" nType="-99"/>
          <Node pos="r" depth="2" NCoef="0" IVar="-1" Cut="0.0000000000000000e+00" cType="1" res="1.3163945368432906e-05" rms="3.0826449394226074e-01" purity="8.5842365026473999e-01" nType="-99"/>
        </Node>
        <Node pos="r" depth="1" NCoef="0" IVar="4" Cut="3.5519035156250000e+04" cType="1" res="4.0930056571960449e-01" rms="4.9198067188262939e-01" purity="4.0968576073646545e-01" nType="0">
          <Node pos="l" depth="2" NCoef="0" IVar="-1" Cut="0.0000000000000000e+00" cType="1" res="-2.8652569744735956e-04" rms="3.4496665000915527e-01" purity="2.8294527530670166e-01" nType="-99"/>
          <Node pos="r" depth="2" NCoef="0" IVar="-1" Cut="0.0000000000000000e+00" cType="1" res="1.0055613238364458e-03" rms="4.1048189997673035e-01" purity="7.0158445835113525e-01" nType="-99"/>
        </Node>
      </Node>
    </BinaryTree>
    <BinaryTree type="DecisionTree" boostWeight="1.0000000000000000e+00" itree="618">
      <Node pos="s" depth="0" NCoef="0" IVar="1" Cut="2.0240912500000000e+05" cType="1" res="5.4509079456329346e-01" rms="4.9801942706108093e-01" purity="5.4520493745803833e-01" nType="0">
        <Node pos="l" depth="1" NCoef="0" IVar="2" Cut="8.9651632812500000e+04" cType="1" res="7.1021199226379395e-01" rms="4.7098439931869507e-01" purity="7.5256222486495972e-01" nType="0">
          <Node pos="l" depth="2" NCoef="0" IVar="-1" Cut="0.0000000000000000e+00" cType="1" res="2.2775986508349888e-05" rms="2.6871627569198608e-01" purity="9.1970270872116089e-01" nType="-99"/>
          <Node pos="r" depth="2" NCoef="0" IVar="-1" Cut="0.0000000000000000e+00" cType="1" res="2.6082113618031144e-04" rms="3.2952824234962463e-01" purity="2.4081018567085266e-01" nType="-99"/>
        </Node>
        <Node pos="r" depth="1" NCoef="0" IVar="4" Cut="7.6838750000000000e+04" cType="1" res="4.2615020275115967e-01" rms="4.9453493952751160e-01" purity="4.2625942826271057e-01" nType="0">
          <Node pos="l" depth="2" NCoef="0" IVar="-1" Cut="0.0000000000000000e+00" cType="1" res="4.4734397670254111e-04" rms="3.7500989437103271e-01" purity="3.7412416934967041e-01" nType="-99"/>
          <Node pos="r" depth="2" NCoef="0" IVar="-1" Cut="0.0000000000000000e+00" cType="1" res="1.1196242412552238e-03" rms="2.8039750456809998e-01" purity="9.1345226764678955e-01" nType="-99"/>
        </Node>
      </Node>
    </BinaryTree>
    <BinaryTree type="DecisionTree" boostWeight="1.0000000000000000e+00" itree="619">
      <Node pos="s" depth="0" NCoef="0" IVar="1" Cut="1.9097787500000000e+05" cType="1" res="5.5623060464859009e-01" rms="4.9682804942131042e-01" purity="5.5623060464859009e-01" nType="0">
        <Node pos="l" depth="1" NCoef="0" IVar="-1" Cut="0.0000000000000000e+00" cType="1" res="2.2770824216422625e-05" rms="3.6890831589698792e-01" purity="8.2311159372329712e-01" nType="-99"/>
        <Node pos="r" depth="1" NCoef="0" IVar="2" Cut="9.1808140625000000e+04" cType="1" res="4.8620358109474182e-01" rms="4.9980962276458740e-01" purity="4.8620361089706421e-01" nType="0">
          <Node pos="l" depth="2" NCoef="0" IVar="-1" Cut="0.0000000000000000e+00" cType="1" res="4.2632679105736315e-04" rms="3.5790586471557617e-01" purity="3.9608532190322876e-01" nType="-99"/>
          <Node pos="r" depth="2" NCoef="0" IVar="-1" Cut="0.0000000000000000e+00" cType="1" res="1.9425195205258206e-05" rms="4.8946312069892883e-01" purity="6.1506062746047974e-01" nType="-99"/>
        </Node>
      </Node>
    </BinaryTree>
    <BinaryTree type="DecisionTree" boostWeight="1.0000000000000000e+00" itree="620">
      <Node pos="s" depth="0" NCoef="0" IVar="2" Cut="8.9600773437500000e+04" cType="1" res="5.6464380025863647e-01" rms="4.9626994132995605e-01" purity="5.6516975164413452e-01" nType="0">
        <Node pos="l" depth="1" NCoef="0" IVar="2" Cut="8.9247875000000000e+04" cType="1" res="8.0052679777145386e-01" rms="3.9960438013076782e-01" purity="8.0088293552398682e-01" nType="0">
          <Node pos="l" depth="2" NCoef="0" IVar="-1" Cut="0.0000000000000000e+00" cType="1" res="8.4020249778404832e-04" rms="3.6981701850891113e-01" purity="4.0014657378196716e-01" nType="-99"/>
          <Node pos="r" depth="2" NCoef="0" IVar="-1" Cut="0.0000000000000000e+00" cType="1" res="1.7217760614585131e-05" rms="2.5454431772232056e-01" purity="9.4110691547393799e-01" nType="-99"/>
        </Node>
        <Node pos="r" depth="1" NCoef="0" IVar="0" Cut="4.0000000000000000e+00" cType="1" res="8.9251315221190453e-03" rms="3.5671865940093994e-01" purity="3.8532018661499023e-01" nType="0">
          <Node pos="l" depth="2" NCoef="0" IVar="-1" Cut="0.0000000000000000e+00" cType="1" res="9.1810361482203007e-05" rms="3.6275336146354675e-01" purity="3.4725007414817810e-01" nType="-99"/>
          <Node pos="r" depth="2" NCoef="0" IVar="-1" Cut="0.0000000000000000e+00" cType="1" res="2.8629484586417675e-04" rms="2.2793322801589966e-01" purity="9.4701987504959106e-01" nType="-99"/>
        </Node>
      </Node>
    </BinaryTree>
    <BinaryTree type="DecisionTree" boostWeight="1.0000000000000000e+00" itree="621">
      <Node pos="s" depth="0" NCoef="0" IVar="4" Cut="5.0467765625000000e+04" cType="1" res="1.7502876373413386e+32" rms="0.0000000000000000e+00" purity="3.9058521389961243e-01" nType="0">
        <Node pos="l" depth="1" NCoef="0" IVar="0" Cut="3.0000000000000000e+00" cType="1" res="-5.4827972780913115e-04" rms="3.5305908322334290e-01" purity="3.0104961991310120e-01" nType="0">
          <Node pos="l" depth="2" NCoef="0" IVar="-1" Cut="0.0000000000000000e+00" cType="1" res="-4.9015058903023601e-04" rms="3.5671532154083252e-01" purity="2.3704853653907776e-01" nType="-99"/>
          <Node pos="r" depth="2" NCoef="0" IVar="-1" Cut="0.0000000000000000e+00" cType="1" res="2.2484448272734880e-03" rms="3.1035831570625305e-01" purity="8.9137053489685059e-01" nType="-99"/>
        </Node>
        <Node pos="r" depth="1" NCoef="0" IVar="3" Cut="8.7158421875000000e+04" cType="1" res="8.1304979324340820e-01" rms="3.9096012711524963e-01" purity="8.1427288055419922e-01" nType="0">
          <Node pos="l" depth="2" NCoef="0" IVar="-1" Cut="0.0000000000000000e+00" cType="1" res="4.6342125278897583e-04" rms="3.2879969477653503e-01" purity="8.6204463243484497e-01" nType="-99"/>
          <Node pos="r" depth="2" NCoef="0" IVar="-1" Cut="0.0000000000000000e+00" cType="1" res="7.6605030335485935e-04" rms="3.7415930628776550e-01" purity="7.9157263040542603e-01" nType="-99"/>
        </Node>
      </Node>
    </BinaryTree>
    <BinaryTree type="DecisionTree" boostWeight="1.0000000000000000e+00" itree="622">
      <Node pos="s" depth="0" NCoef="0" IVar="4" Cut="3.5522148437500000e+04" cType="1" res="3.8328909873962402e-01" rms="4.8639294505119324e-01" purity="3.8386183977127075e-01" nType="0">
        <Node pos="l" depth="1" NCoef="0" IVar="5" Cut="6.5175381250000000e+05" cType="1" res="2.5685819983482361e-01" rms="4.3701207637786865e-01" purity="2.5726637244224548e-01" nType="0">
          <Node pos="l" depth="2" NCoef="0" IVar="-1" Cut="0.0000000000000000e+00" cType="1" res="-6.5581512171775103e-04" rms="3.3458334207534790e-01" purity="2.2539697587490082e-01" nType="-99"/>
          <Node pos="r" depth="2" NCoef="0" IVar="-1" Cut="0.0000000000000000e+00" cType="1" res="3.4514882136136293e-03" rms="3.3110579848289490e-01" purity="8.2255983352661133e-01" nType="-99"/>
        </Node>
        <Node pos="r" depth="1" NCoef="0" IVar="4" Cut="8.0766945312500000e+04" cType="1" res="6.9229078292846680e-01" rms="4.6154552698135376e-01" purity="6.9326555728912354e-01" nType="0">
          <Node pos="l" depth="2" NCoef="0" IVar="-1" Cut="0.0000000000000000e+00" cType="1" res="7.6889275806024671e-04" rms="4.3748858571052551e-01" purity="6.2284511327743530e-01" nType="-99"/>
          <Node pos="r" depth="2" NCoef="0" IVar="-1" Cut="0.0000000000000000e+00" cType="1" res="1.2673761229962111e-03" rms="2.9675653576850891e-01" purity="9.0096282958984375e-01" nType="-99"/>
        </Node>
      </Node>
    </BinaryTree>
    <BinaryTree type="DecisionTree" boostWeight="1.0000000000000000e+00" itree="623">
      <Node pos="s" depth="0" NCoef="0" IVar="1" Cut="2.0237307812500000e+05" cType="1" res="5.2773332595825195e-01" rms="4.9949383735656738e-01" purity="5.2799654006958008e-01" nType="0">
        <Node pos="l" depth="1" NCoef="0" IVar="2" Cut="8.9690085937500000e+04" cType="1" res="2.9418170452117920e-01" rms="4.6821734309196472e-01" purity="7.3511427640914917e-01" nType="0">
          <Node pos="l" depth="2" NCoef="0" IVar="-1" Cut="0.0000000000000000e+00" cType="1" res="1.5669615095248446e-05" rms="2.9017505049705505e-01" purity="9.0457248687744141e-01" nType="-99"/>
          <Node pos="r" depth="2" NCoef="0" IVar="-1" Cut="0.0000000000000000e+00" cType="1" res="1.7789335106499493e-04" rms="3.2572388648986816e-01" purity="2.3907105624675751e-01" nType="-99"/>
        </Node>
        <Node pos="r" depth="1" NCoef="0" IVar="4" Cut="5.1021140625000000e+04" cType="1" res="4.1596978902816772e-01" rms="4.9314975738525391e-01" purity="4.1622754931449890e-01" nType="0">
          <Node pos="l" depth="2" NCoef="0" IVar="-1" Cut="0.0000000000000000e+00" cType="1" res="-1.6756835975684226e-04" rms="3.5485967993736267e-01" purity="3.2102024555206299e-01" nType="-99"/>
          <Node pos="r" depth="2" NCoef="0" IVar="-1" Cut="0.0000000000000000e+00" cType="1" res="5.7015614584088326e-04" rms="3.5463565587997437e-01" purity="8.2883042097091675e-01" nType="-99"/>
        </Node>
      </Node>
    </BinaryTree>
    <BinaryTree type="DecisionTree" boostWeight="1.0000000000000000e+00" itree="624">
      <Node pos="s" depth="0" NCoef="0" IVar="0" Cut="1.0000000000000000e+00" cType="1" res="2.1488231420516968e-01" rms="4.6954226493835449e-01" purity="5.4011785984039307e-01" nType="0">
        <Node pos="l" depth="1" NCoef="0" IVar="4" Cut="1.9683986328125000e+04" cType="1" res="5.1006573438644409e-01" rms="4.9989867210388184e-01" purity="5.1006573438644409e-01" nType="0">
          <Node pos="l" depth="2" NCoef="0" IVar="-1" Cut="0.0000000000000000e+00" cType="1" res="2.8788091149181128e-03" rms="2.1096540987491608e-01" purity="4.7709800302982330e-02" nType="-99"/>
          <Node pos="r" depth="2" NCoef="0" IVar="-1" Cut="0.0000000000000000e+00" cType="1" res="1.4943385394872166e-05" rms="4.7393885254859924e-01" purity="7.2873347997665405e-01" nType="-99"/>
        </Node>
        <Node pos="r" depth="1" NCoef="0" IVar="0" Cut="4.0000000000000000e+00" cType="1" res="2.1065033972263336e-02" rms="3.9900195598602295e-01" purity="5.8590644598007202e-01" nType="0">
          <Node pos="l" depth="2" NCoef="0" IVar="-1" Cut="0.0000000000000000e+00" cType="1" res="3.4614332253113389e-04" rms="4.1451236605644226e-01" purity="5.3956413269042969e-01" nType="-99"/>
          <Node pos="r" depth="2" NCoef="0" IVar="-1" Cut="0.0000000000000000e+00" cType="1" res="5.9058755869045854e-04" rms="2.3192630708217621e-01" purity="9.4417244195938110e-01" nType="-99"/>
        </Node>
      </Node>
    </BinaryTree>
    <BinaryTree type="DecisionTree" boostWeight="1.0000000000000000e+00" itree="625">
      <Node pos="s" depth="0" NCoef="0" IVar="1" Cut="1.9097787500000000e+05" cType="1" res="5.5530577898025513e-01" rms="4.9693185091018677e-01" purity="5.5530577898025513e-01" nType="0">
        <Node pos="l" depth="1" NCoef="0" IVar="1" Cut="1.8690914062500000e+05" cType="1" res="2.2587539628148079e-02" rms="1.8542861938476562e-01" purity="8.2186609506607056e-01" nType="0">
          <Node pos="l" depth="2" NCoef="0" IVar="-1" Cut="0.0000000000000000e+00" cType="1" res="-4.7605941654182971e-04" rms="3.0701023340225220e-01" purity="2.3039658367633820e-01" nType="-99"/>
          <Node pos="r" depth="2" NCoef="0" IVar="-1" Cut="0.0000000000000000e+00" cType="1" res="2.2849062588647939e-05" rms="2.7881130576133728e-01" purity="9.1406559944152832e-01" nType="-99"/>
        </Node>
        <Node pos="r" depth="1" NCoef="0" IVar="2" Cut="9.1879203125000000e+04" cType="1" res="4.8479610681533813e-01" rms="4.9976879358291626e-01" purity="4.8479607701301575e-01" nType="0">
          <Node pos="l" depth="2" NCoef="0" IVar="-1" Cut="0.0000000000000000e+00" cType="1" res="2.6114640058949590e-04" rms="3.5581767559051514e-01" purity="3.9204090833663940e-01" nType="-99"/>
          <Node pos="r" depth="2" NCoef="0" IVar="-1" Cut="0.0000000000000000e+00" cType="1" res="1.9830011297017336e-05" rms="4.9172979593276978e-01" purity="6.2133496999740601e-01" nType="-99"/>
        </Node>
      </Node>
    </BinaryTree>
    <BinaryTree type="DecisionTree" boostWeight="1.0000000000000000e+00" itree="626">
      <Node pos="s" depth="0" NCoef="0" IVar="5" Cut="1.6313576562500000e+05" cType="1" res="4.8592609167098999e-01" rms="4.9980187416076660e-01" purity="4.8592609167098999e-01" nType="0">
        <Node pos="l" depth="1" NCoef="0" IVar="5" Cut="1.5253885937500000e+05" cType="1" res="7.3580878973007202e-01" rms="4.4090157747268677e-01" purity="7.3580878973007202e-01" nType="0">
          <Node pos="l" depth="2" NCoef="0" IVar="-1" Cut="0.0000000000000000e+00" cType="1" res="-4.5207869261503220e-03" rms="2.2807358205318451e-01" purity="5.7656366378068924e-02" nType="-99"/>
          <Node pos="r" depth="2" NCoef="0" IVar="-1" Cut="0.0000000000000000e+00" cType="1" res="1.3170618331059813e-05" rms="3.1033593416213989e-01" purity="8.5700845718383789e-01" nType="-99"/>
        </Node>
        <Node pos="r" depth="1" NCoef="0" IVar="4" Cut="3.5519035156250000e+04" cType="1" res="4.1652533411979675e-01" rms="4.9298274517059326e-01" purity="4.1652536392211914e-01" nType="0">
          <Node pos="l" depth="2" NCoef="0" IVar="-1" Cut="0.0000000000000000e+00" cType="1" res="-3.4601832157932222e-04" rms="3.4374016523361206e-01" purity="2.8493306040763855e-01" nType="-99"/>
          <Node pos="r" depth="2" NCoef="0" IVar="-1" Cut="0.0000000000000000e+00" cType="1" res="1.0056399041786790e-03" rms="4.0064206719398499e-01" purity="7.0907890796661377e-01" nType="-99"/>
        </Node>
      </Node>
    </BinaryTree>
    <BinaryTree type="DecisionTree" boostWeight="1.0000000000000000e+00" itree="627">
      <Node pos="s" depth="0" NCoef="0" IVar="3" Cut="8.9426296875000000e+04" cType="1" res="5.7097983360290527e-01" rms="4.9493622779846191e-01" purity="5.7097983360290527e-01" nType="0">
        <Node pos="l" depth="1" NCoef="0" IVar="3" Cut="8.8492710937500000e+04" cType="1" res="6.7919927835464478e-01" rms="4.6678432822227478e-01" purity="6.7919927835464478e-01" nType="0">
          <Node pos="l" depth="2" NCoef="0" IVar="-1" Cut="0.0000000000000000e+00" cType="1" res="5.3059862693771720e-04" rms="3.5331645607948303e-01" purity="3.8254082202911377e-01" nType="-99"/>
          <Node pos="r" depth="2" NCoef="0" IVar="-1" Cut="0.0000000000000000e+00" cType="1" res="2.0193141608615406e-05" rms="3.5186871886253357e-01" purity="8.8382321596145630e-01" nType="-99"/>
        </Node>
        <Node pos="r" depth="1" NCoef="0" IVar="5" Cut="5.3478362500000000e+05" cType="1" res="3.8214641809463501e-01" rms="4.8632967472076416e-01" purity="3.8376069068908691e-01" nType="0">
          <Node pos="l" depth="2" NCoef="0" IVar="-1" Cut="0.0000000000000000e+00" cType="1" res="-9.0328755322843790e-04" rms="3.6133965849876404e-01" purity="2.9618865251541138e-01" nType="-99"/>
          <Node pos="r" depth="2" NCoef="0" IVar="-1" Cut="0.0000000000000000e+00" cType="1" res="1.6351232770830393e-03" rms="3.0692553520202637e-01" purity="8.4745699167251587e-01" nType="-99"/>
        </Node>
      </Node>
    </BinaryTree>
    <BinaryTree type="DecisionTree" boostWeight="1.0000000000000000e+00" itree="628">
      <Node pos="s" depth="0" NCoef="0" IVar="5" Cut="1.6313576562500000e+05" cType="1" res="5.9686625003814697e-01" rms="4.9052718281745911e-01" purity="5.9686625003814697e-01" nType="0">
        <Node pos="l" depth="1" NCoef="0" IVar="5" Cut="1.5254014062500000e+05" cType="1" res="8.4961473941802979e-01" rms="3.5744863748550415e-01" purity="8.4961473941802979e-01" nType="0">
          <Node pos="l" depth="2" NCoef="0" IVar="-1" Cut="0.0000000000000000e+00" cType="1" res="-7.9812658950686455e-03" rms="1.9704151153564453e-01" purity="4.6714402735233307e-02" nType="-99"/>
          <Node pos="r" depth="2" NCoef="0" IVar="-1" Cut="0.0000000000000000e+00" cType="1" res="1.3245417903817724e-05" rms="2.3651294410228729e-01" purity="9.2242246866226196e-01" nType="-99"/>
        </Node>
        <Node pos="r" depth="1" NCoef="0" IVar="2" Cut="9.1824765625000000e+04" cType="1" res="4.9460089206695557e-01" rms="4.9997085332870483e-01" purity="4.9460086226463318e-01" nType="0">
          <Node pos="l" depth="2" NCoef="0" IVar="-1" Cut="0.0000000000000000e+00" cType="1" res="2.7948545175604522e-04" rms="3.6146754026412964e-01" purity="4.1036608815193176e-01" nType="-99"/>
          <Node pos="r" depth="2" NCoef="0" IVar="-1" Cut="0.0000000000000000e+00" cType="1" res="1.9440083633526228e-05" rms="4.9418595433235168e-01" purity="6.1742591857910156e-01" nType="-99"/>
        </Node>
      </Node>
    </BinaryTree>
    <BinaryTree type="DecisionTree" boostWeight="1.0000000000000000e+00" itree="629">
      <Node pos="s" depth="0" NCoef="0" IVar="5" Cut="1.6215667187500000e+05" cType="1" res="4.8273262381553650e-01" rms="4.9970173835754395e-01" purity="4.8273262381553650e-01" nType="0">
        <Node pos="l" depth="1" NCoef="0" IVar="-1" Cut="0.0000000000000000e+00" cType="1" res="1.3211146324465517e-05" rms="3.7707132101058960e-01" purity="7.5754255056381226e-01" nType="-99"/>
        <Node pos="r" depth="1" NCoef="0" IVar="4" Cut="6.8780015625000000e+04" cType="1" res="4.0831118822097778e-01" rms="4.9152126908302307e-01" purity="4.0831118822097778e-01" nType="0">
          <Node pos="l" depth="2" NCoef="0" IVar="-1" Cut="0.0000000000000000e+00" cType="1" res="-8.6757383542135358e-05" rms="3.6454677581787109e-01" purity="3.4934228658676147e-01" nType="-99"/>
          <Node pos="r" depth="2" NCoef="0" IVar="-1" Cut="0.0000000000000000e+00" cType="1" res="1.3018192257732153e-03" rms="3.0563062429428101e-01" purity="8.9079487323760986e-01" nType="-99"/>
        </Node>
      </Node>
    </BinaryTree>
    <BinaryTree type="DecisionTree" boostWeight="1.0000000000000000e+00" itree="630">
      <Node pos="s" depth="0" NCoef="0" IVar="1" Cut="1.9126706250000000e+05" cType="1" res="4.3877533078193665e-01" rms="4.9623736739158630e-01" purity="4.3877533078193665e-01" nType="0">
        <Node pos="l" depth="1" NCoef="0" IVar="1" Cut="1.8719859375000000e+05" cType="1" res="2.9913505539298058e-02" rms="2.0795804262161255e-01" purity="7.0156395435333252e-01" nType="0">
          <Node pos="l" depth="2" NCoef="0" IVar="-1" Cut="0.0000000000000000e+00" cType="1" res="-1.7160932766273618e-03" rms="3.2231888175010681e-01" purity="1.8378937244415283e-01" nType="-99"/>
          <Node pos="r" depth="2" NCoef="0" IVar="-1" Cut="0.0000000000000000e+00" cType="1" res="2.2833301045466214e-05" rms="3.5787299275398254e-01" purity="8.3843433856964111e-01" nType="-99"/>
        </Node>
        <Node pos="r" depth="1" NCoef="0" IVar="5" Cut="7.4039600000000000e+05" cType="1" res="3.8875180482864380e-01" rms="4.8746675252914429e-01" purity="3.8875180482864380e-01" nType="0">
          <Node pos="l" depth="2" NCoef="0" IVar="-1" Cut="0.0000000000000000e+00" cType="1" res="8.8197819422930479e-05" rms="3.6590096354484558e-01" purity="3.5000443458557129e-01" nType="-99"/>
          <Node pos="r" depth="2" NCoef="0" IVar="-1" Cut="0.0000000000000000e+00" cType="1" res="3.4822947345674038e-03" rms="2.8718781471252441e-01" purity="8.9173758029937744e-01" nType="-99"/>
        </Node>
      </Node>
    </BinaryTree>
    <BinaryTree type="DecisionTree" boostWeight="1.0000000000000000e+00" itree="631">
      <Node pos="s" depth="0" NCoef="0" IVar="1" Cut="2.0102762500000000e+05" cType="1" res="4.4984120130538940e-01" rms="4.9791061878204346e-01" purity="4.5027211308479309e-01" nType="0">
        <Node pos="l" depth="1" NCoef="0" IVar="2" Cut="8.9610320312500000e+04" cType="1" res="2.1564638096049915e-12" rms="0.0000000000000000e+00" purity="5.5908370018005371e-01" nType="0">
          <Node pos="l" depth="2" NCoef="0" IVar="-1" Cut="0.0000000000000000e+00" cType="1" res="2.2659996830043383e-05" rms="3.8519233465194702e-01" purity="8.1001561880111694e-01" nType="-99"/>
          <Node pos="r" depth="2" NCoef="0" IVar="-1" Cut="0.0000000000000000e+00" cType="1" res="-2.5413738330826163e-04" rms="3.2972034811973572e-01" purity="2.3046730458736420e-01" nType="-99"/>
        </Node>
        <Node pos="r" depth="1" NCoef="0" IVar="4" Cut="8.0294023437500000e+04" cType="1" res="4.1692188382148743e-01" rms="4.9361801147460938e-01" purity="4.1748258471488953e-01" nType="0">
          <Node pos="l" depth="2" NCoef="0" IVar="-1" Cut="0.0000000000000000e+00" cType="1" res="3.3775236806832254e-04" rms="3.6815533041954041e-01" purity="3.7270054221153259e-01" nType="-99"/>
          <Node pos="r" depth="2" NCoef="0" IVar="-1" Cut="0.0000000000000000e+00" cType="1" res="1.2775030918419361e-03" rms="2.7671107649803162e-01" purity="9.1664361953735352e-01" nType="-99"/>
        </Node>
      </Node>
    </BinaryTree>
    <BinaryTree type="DecisionTree" boostWeight="1.0000000000000000e+00" itree="632">
      <Node pos="s" depth="0" NCoef="0" IVar="4" Cut="8.2745929687500000e+04" cType="1" res="3.9086657762527466e-01" rms="4.8794457316398621e-01" purity="3.9086657762527466e-01" nType="0">
        <Node pos="l" depth="1" NCoef="0" IVar="0" Cut="3.0000000000000000e+00" cType="1" res="-1.4692150580231100e-04" rms="3.6034375429153442e-01" purity="3.4447491168975830e-01" nType="0">
          <Node pos="l" depth="2" NCoef="0" IVar="-1" Cut="0.0000000000000000e+00" cType="1" res="-4.7244940651580691e-04" rms="3.6595562100410461e-01" purity="2.7250432968139648e-01" nType="-99"/>
          <Node pos="r" depth="2" NCoef="0" IVar="-1" Cut="0.0000000000000000e+00" cType="1" res="2.3527988232672215e-03" rms="3.0823609232902527e-01" purity="8.9183187484741211e-01" nType="-99"/>
        </Node>
        <Node pos="r" depth="1" NCoef="0" IVar="-1" Cut="0.0000000000000000e+00" cType="1" res="1.1811278527602553e-03" rms="2.7418658137321472e-01" purity="9.1838598251342773e-01" nType="-99"/>
      </Node>
    </BinaryTree>
    <BinaryTree type="DecisionTree" boostWeight="1.0000000000000000e+00" itree="633">
      <Node pos="s" depth="0" NCoef="0" IVar="5" Cut="1.6799046875000000e+05" cType="1" res="6.0008537769317627e-01" rms="4.8988050222396851e-01" purity="6.0008537769317627e-01" nType="0">
        <Node pos="l" depth="1" NCoef="0" IVar="2" Cut="9.0327398437500000e+04" cType="1" res="8.1082940101623535e-01" rms="3.9164409041404724e-01" purity="8.1082934141159058e-01" nType="0">
          <Node pos="l" depth="2" NCoef="0" IVar="-1" Cut="0.0000000000000000e+00" cType="1" res="1.3169277735869400e-05" rms="2.3897849023342133e-01" purity="9.2075878381729126e-01" nType="-99"/>
          <Node pos="r" depth="2" NCoef="0" IVar="-1" Cut="0.0000000000000000e+00" cType="1" res="-5.5865384638309479e-03" rms="2.3404246568679810e-01" purity="6.3230723142623901e-02" nType="-99"/>
        </Node>
        <Node pos="r" depth="1" NCoef="0" IVar="2" Cut="9.1753601562500000e+04" cType="1" res="5.0677824020385742e-01" rms="4.9995404481887817e-01" purity="5.0677824020385742e-01" nType="0">
          <Node pos="l" depth="2" NCoef="0" IVar="-1" Cut="0.0000000000000000e+00" cType="1" res="2.7310266159474850e-04" rms="3.6259543895721436e-01" purity="4.2085838317871094e-01" nType="-99"/>
          <Node pos="r" depth="2" NCoef="0" IVar="-1" Cut="0.0000000000000000e+00" cType="1" res="1.9292207070975564e-05" rms="4.9417090415954590e-01" purity="6.2499237060546875e-01" nType="-99"/>
        </Node>
      </Node>
    </BinaryTree>
    <BinaryTree type="DecisionTree" boostWeight="1.0000000000000000e+00" itree="634">
      <Node pos="s" depth="0" NCoef="0" IVar="0" Cut="1.0000000000000000e+00" cType="1" res="3.8415554165840149e-01" rms="4.7876921296119690e-01" purity="6.7022484540939331e-01" nType="0">
        <Node pos="l" depth="1" NCoef="0" IVar="4" Cut="2.1009341796875000e+04" cType="1" res="7.0422613620758057e-01" rms="4.5638984441757202e-01" purity="7.0422607660293579e-01" nType="0">
          <Node pos="l" depth="2" NCoef="0" IVar="-1" Cut="0.0000000000000000e+00" cType="1" res="-2.1411834750324488e-03" rms="1.9455389678478241e-01" purity="3.9132431149482727e-02" nType="-99"/>
          <Node pos="r" depth="2" NCoef="0" IVar="-1" Cut="0.0000000000000000e+00" cType="1" res="1.4897932487656362e-05" rms="3.6603716015815735e-01" purity="8.7226980924606323e-01" nType="-99"/>
        </Node>
        <Node pos="r" depth="1" NCoef="0" IVar="5" Cut="4.8907031250000000e+05" cType="1" res="5.8246380090713501e-01" rms="4.9422344565391541e-01" purity="5.8355098962783813e-01" nType="0">
          <Node pos="l" depth="2" NCoef="0" IVar="-1" Cut="0.0000000000000000e+00" cType="1" res="3.4335313830524683e-04" rms="4.3004816770553589e-01" purity="4.7493535280227661e-01" nType="-99"/>
          <Node pos="r" depth="2" NCoef="0" IVar="-1" Cut="0.0000000000000000e+00" cType="1" res="2.0001437515020370e-03" rms="3.2546937465667725e-01" purity="8.5489463806152344e-01" nType="-99"/>
        </Node>
      </Node>
    </BinaryTree>
    <BinaryTree type="DecisionTree" boostWeight="1.0000000000000000e+00" itree="635">
      <Node pos="s" depth="0" NCoef="0" IVar="2" Cut="9.1879929687500000e+04" cType="1" res="5.3810596466064453e-01" rms="4.9854582548141479e-01" purity="5.3810596466064453e-01" nType="0">
        <Node pos="l" depth="1" NCoef="0" IVar="5" Cut="5.1486931250000000e+05" cType="1" res="3.8629722595214844e-01" rms="4.8690006136894226e-01" purity="3.8629719614982605e-01" nType="0">
          <Node pos="l" depth="2" NCoef="0" IVar="-1" Cut="0.0000000000000000e+00" cType="1" res="2.0487526489887387e-04" rms="3.6545240879058838e-01" purity="3.0749192833900452e-01" nType="-99"/>
          <Node pos="r" depth="2" NCoef="0" IVar="-1" Cut="0.0000000000000000e+00" cType="1" res="2.6225592009723186e-03" rms="3.2409095764160156e-01" purity="8.4771019220352173e-01" nType="-99"/>
        </Node>
        <Node pos="r" depth="1" NCoef="0" IVar="2" Cut="9.2070617187500000e+04" cType="1" res="7.1049612760543823e-01" rms="4.5365515351295471e-01" purity="7.1089571714401245e-01" nType="0">
          <Node pos="l" depth="2" NCoef="0" IVar="-1" Cut="0.0000000000000000e+00" cType="1" res="1.9149589206790552e-05" rms="2.7991801500320435e-01" purity="9.3279945850372314e-01" nType="-99"/>
          <Node pos="r" depth="2" NCoef="0" IVar="-1" Cut="0.0000000000000000e+00" cType="1" res="5.4843688849359751e-04" rms="3.5749748349189758e-01" purity="4.1193693876266479e-01" nType="-99"/>
        </Node>
      </Node>
    </BinaryTree>
    <BinaryTree type="DecisionTree" boostWeight="1.0000000000000000e+00" itree="636">
      <Node pos="s" depth="0" NCoef="0" IVar="2" Cut="8.9655093750000000e+04" cType="1" res="5.3213089704513550e-01" rms="4.9923497438430786e-01" purity="5.3242313861846924e-01" nType="0">
        <Node pos="l" depth="1" NCoef="0" IVar="1" Cut="2.1112656250000000e+05" cType="1" res="7.4868190288543701e-01" rms="4.3377104401588440e-01" purity="7.4874424934387207e-01" nType="0">
          <Node pos="l" depth="2" NCoef="0" IVar="-1" Cut="0.0000000000000000e+00" cType="1" res="1.5820209227968007e-05" rms="3.1522721052169800e-01" purity="8.8578194379806519e-01" nType="-99"/>
          <Node pos="r" depth="2" NCoef="0" IVar="-1" Cut="0.0000000000000000e+00" cType="1" res="3.8284837501123548e-04" rms="3.6083623766899109e-01" purity="4.4132176041603088e-01" nType="-99"/>
        </Node>
        <Node pos="r" depth="1" NCoef="0" IVar="4" Cut="7.4168093750000000e+04" cType="1" res="3.9388656616210938e-01" rms="4.8905923962593079e-01" purity="3.9432555437088013e-01" nType="0">
          <Node pos="l" depth="2" NCoef="0" IVar="-1" Cut="0.0000000000000000e+00" cType="1" res="3.9297741022892296e-04" rms="3.6442142724990845e-01" purity="3.4467023611068726e-01" nType="-99"/>
          <Node pos="r" depth="2" NCoef="0" IVar="-1" Cut="0.0000000000000000e+00" cType="1" res="1.2343698181211948e-03" rms="2.8846105933189392e-01" purity="9.0456068515777588e-01" nType="-99"/>
        </Node>
      </Node>
    </BinaryTree>
    <BinaryTree type="DecisionTree" boostWeight="1.0000000000000000e+00" itree="637">
      <Node pos="s" depth="0" NCoef="0" IVar="5" Cut="1.6188084375000000e+05" cType="1" res="5.3960961103439331e-01" rms="4.9876058101654053e-01" purity="5.3994059562683105e-01" nType="0">
        <Node pos="l" depth="1" NCoef="0" IVar="-1" Cut="0.0000000000000000e+00" cType="1" res="1.3119474715495016e-05" rms="3.8009661436080933e-01" purity="7.5225836038589478e-01" nType="-99"/>
        <Node pos="r" depth="1" NCoef="0" IVar="2" Cut="9.1879203125000000e+04" cType="1" res="4.8950347304344177e-01" rms="5.0029873847961426e-01" purity="4.8991248011589050e-01" nType="0">
          <Node pos="l" depth="2" NCoef="0" IVar="-1" Cut="0.0000000000000000e+00" cType="1" res="3.4585551475174725e-05" rms="3.5674890875816345e-01" purity="3.9835146069526672e-01" nType="-99"/>
          <Node pos="r" depth="2" NCoef="0" IVar="-1" Cut="0.0000000000000000e+00" cType="1" res="1.9522911316016689e-05" rms="4.9496096372604370e-01" purity="6.2864929437637329e-01" nType="-99"/>
        </Node>
      </Node>
    </BinaryTree>
    <BinaryTree type="DecisionTree" boostWeight="1.0000000000000000e+00" itree="638">
      <Node pos="s" depth="0" NCoef="0" IVar="5" Cut="1.6763029687500000e+05" cType="1" res="4.7939044237136841e-01" rms="4.9957507848739624e-01" purity="4.7939044237136841e-01" nType="0">
        <Node pos="l" depth="1" NCoef="0" IVar="3" Cut="9.0125046875000000e+04" cType="1" res="6.9012218713760376e-01" rms="4.6244302392005920e-01" purity="6.9012218713760376e-01" nType="0">
          <Node pos="l" depth="2" NCoef="0" IVar="-1" Cut="0.0000000000000000e+00" cType="1" res="-2.5128148263320327e-04" rms="2.5317761301994324e-01" purity="8.7365910410881042e-02" nType="-99"/>
          <Node pos="r" depth="2" NCoef="0" IVar="-1" Cut="0.0000000000000000e+00" cType="1" res="1.3155573469703086e-05" rms="3.1063032150268555e-01" purity="8.5622030496597290e-01" nType="-99"/>
        </Node>
        <Node pos="r" depth="1" NCoef="0" IVar="4" Cut="3.5520601562500000e+04" cType="1" res="4.1258493065834045e-01" rms="4.9229931831359863e-01" purity="4.1258493065834045e-01" nType="0">
          <Node pos="l" depth="2" NCoef="0" IVar="-1" Cut="0.0000000000000000e+00" cType="1" res="-6.4400676637887955e-04" rms="3.4556737542152405e-01" purity="2.8364735841751099e-01" nType="-99"/>
          <Node pos="r" depth="2" NCoef="0" IVar="-1" Cut="0.0000000000000000e+00" cType="1" res="8.2928396295756102e-04" rms="4.0455108880996704e-01" purity="7.0484292507171631e-01" nType="-99"/>
        </Node>
      </Node>
    </BinaryTree>
    <BinaryTree type="DecisionTree" boostWeight="1.0000000000000000e+00" itree="639">
      <Node pos="s" depth="0" NCoef="0" IVar="3" Cut="9.5950390625000000e+04" cType="1" res="5.4775840044021606e-01" rms="4.9801284074783325e-01" purity="5.4811340570449829e-01" nType="0">
        <Node pos="l" depth="1" NCoef="0" IVar="0" Cut="1.0000000000000000e+00" cType="1" res="1.8810776527971029e-03" rms="3.4994205832481384e-01" purity="3.7055814266204834e-01" nType="0">
          <Node pos="l" depth="2" NCoef="0" IVar="-1" Cut="0.0000000000000000e+00" cType="1" res="-2.2031150292605162e-03" rms="2.7140757441520691e-01" purity="1.2649537622928619e-01" nType="-99"/>
          <Node pos="r" depth="2" NCoef="0" IVar="-1" Cut="0.0000000000000000e+00" cType="1" res="8.7878009071573615e-04" rms="4.0402504801750183e-01" purity="5.8043175935745239e-01" nType="-99"/>
        </Node>
        <Node pos="r" depth="1" NCoef="0" IVar="3" Cut="9.6731984375000000e+04" cType="1" res="8.5890173912048340e-01" rms="3.4834942221641541e-01" purity="8.5905951261520386e-01" nType="0">
          <Node pos="l" depth="2" NCoef="0" IVar="-1" Cut="0.0000000000000000e+00" cType="1" res="1.3230096556071658e-05" rms="2.3135037720203400e-01" purity="9.5542335510253906e-01" nType="-99"/>
          <Node pos="r" depth="2" NCoef="0" IVar="-1" Cut="0.0000000000000000e+00" cType="1" res="3.7065977812744677e-04" rms="3.7210983037948608e-01" purity="4.2430654168128967e-01" nType="-99"/>
        </Node>
      </Node>
    </BinaryTree>
    <BinaryTree type="DecisionTree" boostWeight="1.0000000000000000e+00" itree="640">
      <Node pos="s" depth="0" NCoef="0" IVar="0" Cut="1.0000000000000000e+00" cType="1" res="2.8366965055465698e-01" rms="4.8284003138542175e-01" purity="5.9273064136505127e-01" nType="0">
        <Node pos="l" depth="1" NCoef="0" IVar="4" Cut="2.1007773437500000e+04" cType="1" res="5.9462469816207886e-01" rms="4.9096453189849854e-01" purity="5.9462469816207886e-01" nType="0">
          <Node pos="l" depth="2" NCoef="0" IVar="-1" Cut="0.0000000000000000e+00" cType="1" res="1.7130693595390767e-04" rms="2.0459917187690735e-01" purity="4.3844502419233322e-02" nType="-99"/>
          <Node pos="r" depth="2" NCoef="0" IVar="-1" Cut="0.0000000000000000e+00" cType="1" res="1.6336325643351302e-05" rms="4.3346580862998962e-01" purity="8.0566471815109253e-01" nType="-99"/>
        </Node>
        <Node pos="r" depth="1" NCoef="0" IVar="5" Cut="3.6481243750000000e+05" cType="1" res="5.8929067850112915e-01" rms="4.9196258187294006e-01" purity="5.8929067850112915e-01" nType="0">
          <Node pos="l" depth="2" NCoef="0" IVar="-1" Cut="0.0000000000000000e+00" cType="1" res="1.4512419875245541e-04" rms="4.3230426311492920e-01" purity="4.0657961368560791e-01" nType="-99"/>
          <Node pos="r" depth="2" NCoef="0" IVar="-1" Cut="0.0000000000000000e+00" cType="1" res="1.4581483555957675e-03" rms="3.6172950267791748e-01" purity="8.0236250162124634e-01" nType="-99"/>
        </Node>
      </Node>
    </BinaryTree>
    <BinaryTree type="DecisionTree" boostWeight="1.0000000000000000e+00" itree="641">
      <Node pos="s" depth="0" NCoef="0" IVar="3" Cut="8.9426804687500000e+04" cType="1" res="5.1553857326507568e-01" rms="4.9981972575187683e-01" purity="5.1559978723526001e-01" nType="0">
        <Node pos="l" depth="1" NCoef="0" IVar="3" Cut="8.8493320312500000e+04" cType="1" res="6.0957252979278564e-01" rms="4.8784613609313965e-01" purity="6.0957252979278564e-01" nType="0">
          <Node pos="l" depth="2" NCoef="0" IVar="-1" Cut="0.0000000000000000e+00" cType="1" res="3.8801218033768237e-04" rms="3.4993365406990051e-01" purity="3.9055365324020386e-01" nType="-99"/>
          <Node pos="r" depth="2" NCoef="0" IVar="-1" Cut="0.0000000000000000e+00" cType="1" res="2.0771762137883343e-05" rms="4.0806850790977478e-01" purity="8.2720553874969482e-01" nType="-99"/>
        </Node>
        <Node pos="r" depth="1" NCoef="0" IVar="5" Cut="5.3243343750000000e+05" cType="1" res="3.8032746315002441e-01" rms="4.8654150962829590e-01" purity="3.8197952508926392e-01" nType="0">
          <Node pos="l" depth="2" NCoef="0" IVar="-1" Cut="0.0000000000000000e+00" cType="1" res="-4.4971072929911315e-04" rms="3.5588949918746948e-01" purity="2.9810261726379395e-01" nType="-99"/>
          <Node pos="r" depth="2" NCoef="0" IVar="-1" Cut="0.0000000000000000e+00" cType="1" res="2.0866172853857279e-03" rms="3.1963807344436646e-01" purity="8.4977763891220093e-01" nType="-99"/>
        </Node>
      </Node>
    </BinaryTree>
    <BinaryTree type="DecisionTree" boostWeight="1.0000000000000000e+00" itree="642">
      <Node pos="s" depth="0" NCoef="0" IVar="4" Cut="8.2774625000000000e+04" cType="1" res="3.8294282555580139e-01" rms="4.8610454797744751e-01" purity="3.8294285535812378e-01" nType="0">
        <Node pos="l" depth="1" NCoef="0" IVar="0" Cut="3.0000000000000000e+00" cType="1" res="-4.6688830479979515e-03" rms="3.5695680975914001e-01" purity="3.3756113052368164e-01" nType="0">
          <Node pos="l" depth="2" NCoef="0" IVar="-1" Cut="0.0000000000000000e+00" cType="1" res="-6.9642992457374930e-04" rms="3.6156502366065979e-01" purity="2.6836055517196655e-01" nType="-99"/>
          <Node pos="r" depth="2" NCoef="0" IVar="-1" Cut="0.0000000000000000e+00" cType="1" res="2.4110772646963596e-03" rms="3.1135362386703491e-01" purity="8.8922816514968872e-01" nType="-99"/>
        </Node>
        <Node pos="r" depth="1" NCoef="0" IVar="-1" Cut="0.0000000000000000e+00" cType="1" res="1.2538636801764369e-03" rms="2.7613568305969238e-01" purity="9.1533666849136353e-01" nType="-99"/>
      </Node>
    </BinaryTree>
    <BinaryTree type="DecisionTree" boostWeight="1.0000000000000000e+00" itree="643">
      <Node pos="s" depth="0" NCoef="0" IVar="1" Cut="1.8991192187500000e+05" cType="1" res="4.5061513781547546e-01" rms="4.9755516648292542e-01" purity="4.5061516761779785e-01" nType="0">
        <Node pos="l" depth="1" NCoef="0" IVar="-1" Cut="0.0000000000000000e+00" cType="1" res="2.2667463781544939e-05" rms="4.3050754070281982e-01" purity="7.2763818502426147e-01" nType="-99"/>
        <Node pos="r" depth="1" NCoef="0" IVar="3" Cut="9.8929406250000000e+04" cType="1" res="4.0101671218872070e-01" rms="4.9010437726974487e-01" purity="4.0101671218872070e-01" nType="0">
          <Node pos="l" depth="2" NCoef="0" IVar="-1" Cut="0.0000000000000000e+00" cType="1" res="1.9190130115021020e-04" rms="3.5514125227928162e-01" purity="3.9578709006309509e-01" nType="-99"/>
          <Node pos="r" depth="2" NCoef="0" IVar="-1" Cut="0.0000000000000000e+00" cType="1" res="2.3682119790464640e-03" rms="4.2603635787963867e-01" purity="5.1750493049621582e-01" nType="-99"/>
        </Node>
      </Node>
    </BinaryTree>
    <BinaryTree type="DecisionTree" boostWeight="1.0000000000000000e+00" itree="644">
      <Node pos="s" depth="0" NCoef="0" IVar="5" Cut="1.5990256250000000e+05" cType="1" res="5.5235093832015991e-01" rms="4.9739938974380493e-01" purity="5.5249774456024170e-01" nType="0">
        <Node pos="l" depth="1" NCoef="0" IVar="-1" Cut="0.0000000000000000e+00" cType="1" res="1.3194935490901116e-05" rms="2.9392582178115845e-01" purity="8.7025040388107300e-01" nType="-99"/>
        <Node pos="r" depth="1" NCoef="0" IVar="5" Cut="7.2725693750000000e+05" cType="1" res="4.0566223859786987e-01" rms="4.9123808741569519e-01" purity="4.0587672591209412e-01" nType="0">
          <Node pos="l" depth="2" NCoef="0" IVar="-1" Cut="0.0000000000000000e+00" cType="1" res="1.7761584604158998e-04" rms="3.7215343117713928e-01" purity="3.6172035336494446e-01" nType="-99"/>
          <Node pos="r" depth="2" NCoef="0" IVar="-1" Cut="0.0000000000000000e+00" cType="1" res="2.1757527720183134e-03" rms="2.7425703406333923e-01" purity="9.0209931135177612e-01" nType="-99"/>
        </Node>
      </Node>
    </BinaryTree>
    <BinaryTree type="DecisionTree" boostWeight="1.0000000000000000e+00" itree="645">
      <Node pos="s" depth="0" NCoef="0" IVar="0" Cut="1.0000000000000000e+00" cType="1" res="3.1702819466590881e-01" rms="4.8564296960830688e-01" purity="6.1700499057769775e-01" nType="0">
        <Node pos="l" depth="1" NCoef="0" IVar="4" Cut="1.9682429687500000e+04" cType="1" res="6.3260102272033691e-01" rms="4.8209643363952637e-01" purity="6.3260102272033691e-01" nType="0">
          <Node pos="l" depth="2" NCoef="0" IVar="-1" Cut="0.0000000000000000e+00" cType="1" res="1.9758574198931456e-03" rms="2.0578449964523315e-01" purity="4.4407229870557785e-02" nType="-99"/>
          <Node pos="r" depth="2" NCoef="0" IVar="-1" Cut="0.0000000000000000e+00" cType="1" res="1.7249938537133858e-05" rms="4.1322404146194458e-01" purity="8.2090866565704346e-01" nType="-99"/>
        </Node>
        <Node pos="r" depth="1" NCoef="0" IVar="5" Cut="4.1132612500000000e+05" cType="1" res="5.8471703529357910e-01" rms="4.9320086836814880e-01" purity="5.8547037839889526e-01" nType="0">
          <Node pos="l" depth="2" NCoef="0" IVar="-1" Cut="0.0000000000000000e+00" cType="1" res="-1.1808556155301630e-04" rms="4.3162724375724792e-01" purity="4.3349555134773254e-01" nType="-99"/>
          <Node pos="r" depth="2" NCoef="0" IVar="-1" Cut="0.0000000000000000e+00" cType="1" res="1.6229668399319053e-03" rms="3.4516251087188721e-01" purity="8.2548922300338745e-01" nType="-99"/>
        </Node>
      </Node>
    </BinaryTree>
    <BinaryTree type="DecisionTree" boostWeight="1.0000000000000000e+00" itree="646">
      <Node pos="s" depth="0" NCoef="0" IVar="1" Cut="1.9097787500000000e+05" cType="1" res="4.4222953915596008e-01" rms="4.9665135145187378e-01" purity="4.4222953915596008e-01" nType="0">
        <Node pos="l" depth="1" NCoef="0" IVar="4" Cut="2.1359623046875000e+04" cType="1" res="3.7731885910034180e-02" rms="2.2979131340980530e-01" purity="7.0831775665283203e-01" nType="0">
          <Node pos="l" depth="2" NCoef="0" IVar="-1" Cut="0.0000000000000000e+00" cType="1" res="2.4680697824805975e-03" rms="2.8856468200683594e-01" purity="1.5535774827003479e-01" nType="-99"/>
          <Node pos="r" depth="2" NCoef="0" IVar="-1" Cut="0.0000000000000000e+00" cType="1" res="2.2560150682693347e-05" rms="3.7840107083320618e-01" purity="8.6772930622100830e-01" nType="-99"/>
        </Node>
        <Node pos="r" depth="1" NCoef="0" IVar="4" Cut="4.7332933593750000e+04" cType="1" res="3.9195990562438965e-01" rms="4.8818781971931458e-01" purity="3.9195990562438965e-01" nType="0">
          <Node pos="l" depth="2" NCoef="0" IVar="-1" Cut="0.0000000000000000e+00" cType="1" res="-1.2988116941414773e-04" rms="3.5820019245147705e-01" purity="2.9876464605331421e-01" nType="-99"/>
          <Node pos="r" depth="2" NCoef="0" IVar="-1" Cut="0.0000000000000000e+00" cType="1" res="8.4331771358847618e-04" rms="3.8376912474632263e-01" purity="7.8381210565567017e-01" nType="-99"/>
        </Node>
      </Node>
    </BinaryTree>
    <BinaryTree type="DecisionTree" boostWeight="1.0000000000000000e+00" itree="647">
      <Node pos="s" depth="0" NCoef="0" IVar="4" Cut="5.3544507812500000e+04" cType="1" res="3.9579361677169800e-01" rms="4.8902046680450439e-01" purity="3.9579361677169800e-01" nType="0">
        <Node pos="l" depth="1" NCoef="0" IVar="0" Cut="3.0000000000000000e+00" cType="1" res="-1.8772738985717297e-04" rms="3.5230326652526855e-01" purity="3.0894693732261658e-01" nType="0">
          <Node pos="l" depth="2" NCoef="0" IVar="-1" Cut="0.0000000000000000e+00" cType="1" res="-4.6643821406178176e-04" rms="3.5647729039192200e-01" purity="2.4102018773555756e-01" nType="-99"/>
          <Node pos="r" depth="2" NCoef="0" IVar="-1" Cut="0.0000000000000000e+00" cType="1" res="2.2939813788980246e-03" rms="3.0866867303848267e-01" purity="8.9142197370529175e-01" nType="-99"/>
        </Node>
        <Node pos="r" depth="1" NCoef="0" IVar="4" Cut="7.8019757812500000e+04" cType="1" res="8.3257055282592773e-01" rms="3.7335884571075439e-01" purity="8.3257055282592773e-01" nType="0">
          <Node pos="l" depth="2" NCoef="0" IVar="-1" Cut="0.0000000000000000e+00" cType="1" res="5.5578915635123849e-04" rms="4.1012173891067505e-01" purity="7.5443798303604126e-01" nType="-99"/>
          <Node pos="r" depth="2" NCoef="0" IVar="-1" Cut="0.0000000000000000e+00" cType="1" res="1.0972763411700726e-03" rms="2.8951868414878845e-01" purity="9.0702766180038452e-01" nType="-99"/>
        </Node>
      </Node>
    </BinaryTree>
    <BinaryTree type="DecisionTree" boostWeight="1.0000000000000000e+00" itree="648">
      <Node pos="s" depth="0" NCoef="0" IVar="3" Cut="8.9426554687500000e+04" cType="1" res="5.1375728845596313e-01" rms="4.9999585747718811e-01" purity="5.1418828964233398e-01" nType="0">
        <Node pos="l" depth="1" NCoef="0" IVar="3" Cut="8.8493062500000000e+04" cType="1" res="6.1061733961105347e-01" rms="4.8774966597557068e-01" purity="6.1075329780578613e-01" nType="0">
          <Node pos="l" depth="2" NCoef="0" IVar="-1" Cut="0.0000000000000000e+00" cType="1" res="4.2364644468761981e-04" rms="3.5780096054077148e-01" purity="3.9336237311363220e-01" nType="-99"/>
          <Node pos="r" depth="2" NCoef="0" IVar="-1" Cut="0.0000000000000000e+00" cType="1" res="2.0736439182655886e-05" rms="4.0537038445472717e-01" purity="8.3051568269729614e-01" nType="-99"/>
        </Node>
        <Node pos="r" depth="1" NCoef="0" IVar="0" Cut="3.0000000000000000e+00" cType="1" res="2.7379257517168298e-05" rms="3.5428076982498169e-01" purity="3.7780359387397766e-01" nType="0">
          <Node pos="l" depth="2" NCoef="0" IVar="-1" Cut="0.0000000000000000e+00" cType="1" res="-3.6678093601949513e-04" rms="3.6141484975814819e-01" purity="3.0292910337448120e-01" nType="-99"/>
          <Node pos="r" depth="2" NCoef="0" IVar="-1" Cut="0.0000000000000000e+00" cType="1" res="2.1658656187355518e-03" rms="2.9214859008789062e-01" purity="9.0466803312301636e-01" nType="-99"/>
        </Node>
      </Node>
    </BinaryTree>
    <BinaryTree type="DecisionTree" boostWeight="1.0000000000000000e+00" itree="649">
      <Node pos="s" depth="0" NCoef="0" IVar="5" Cut="1.6763029687500000e+05" cType="1" res="4.8180243372917175e-01" rms="4.9966874718666077e-01" purity="4.8180243372917175e-01" nType="0">
        <Node pos="l" depth="1" NCoef="0" IVar="4" Cut="1.8472380859375000e+04" cType="1" res="6.9066202640533447e-01" rms="4.6222072839736938e-01" purity="6.9066196680068970e-01" nType="0">
          <Node pos="l" depth="2" NCoef="0" IVar="-1" Cut="0.0000000000000000e+00" cType="1" res="-4.1324840858578682e-03" rms="1.4597161114215851e-01" purity="2.1774796769022942e-02" nType="-99"/>
          <Node pos="r" depth="2" NCoef="0" IVar="-1" Cut="0.0000000000000000e+00" cType="1" res="1.3283143744047265e-05" rms="3.2937592267990112e-01" purity="8.6848700046539307e-01" nType="-99"/>
        </Node>
        <Node pos="r" depth="1" NCoef="0" IVar="0" Cut="4.0000000000000000e+00" cType="1" res="8.8314972817897797e-03" rms="3.6437156796455383e-01" purity="4.1614642739295959e-01" nType="0">
          <Node pos="l" depth="2" NCoef="0" IVar="-1" Cut="0.0000000000000000e+00" cType="1" res="1.1072279448853806e-04" rms="3.7084496021270752e-01" purity="3.8000649213790894e-01" nType="-99"/>
          <Node pos="r" depth="2" NCoef="0" IVar="-1" Cut="0.0000000000000000e+00" cType="1" res="5.2952277474105358e-04" rms="2.3491297662258148e-01" purity="9.4228106737136841e-01" nType="-99"/>
        </Node>
      </Node>
    </BinaryTree>
    <BinaryTree type="DecisionTree" boostWeight="1.0000000000000000e+00" itree="650">
      <Node pos="s" depth="0" NCoef="0" IVar="3" Cut="9.5950968750000000e+04" cType="1" res="6.4309185743331909e-01" rms="4.7908738255500793e-01" purity="6.4309185743331909e-01" nType="0">
        <Node pos="l" depth="1" NCoef="0" IVar="2" Cut="9.1836718750000000e+04" cType="1" res="4.7630658745765686e-01" rms="4.9943831562995911e-01" purity="4.7630658745765686e-01" nType="0">
          <Node pos="l" depth="2" NCoef="0" IVar="-1" Cut="0.0000000000000000e+00" cType="1" res="3.8652982766507193e-05" rms="3.4977462887763977e-01" purity="3.7784108519554138e-01" nType="-99"/>
          <Node pos="r" depth="2" NCoef="0" IVar="-1" Cut="0.0000000000000000e+00" cType="1" res="1.9745597455766983e-05" rms="4.9166715145111084e-01" purity="6.2127375602722168e-01" nType="-99"/>
        </Node>
        <Node pos="r" depth="1" NCoef="0" IVar="3" Cut="9.6695718750000000e+04" cType="1" res="8.9599537849426270e-01" rms="3.0526652932167053e-01" purity="8.9610975980758667e-01" nType="0">
          <Node pos="l" depth="2" NCoef="0" IVar="-1" Cut="0.0000000000000000e+00" cType="1" res="1.3266886526253074e-05" rms="1.9063597917556763e-01" purity="9.6980643272399902e-01" nType="-99"/>
          <Node pos="r" depth="2" NCoef="0" IVar="-1" Cut="0.0000000000000000e+00" cType="1" res="4.8508480540476739e-04" rms="3.7725248932838440e-01" purity="4.2338073253631592e-01" nType="-99"/>
        </Node>
      </Node>
    </BinaryTree>
    <BinaryTree type="DecisionTree" boostWeight="1.0000000000000000e+00" itree="651">
      <Node pos="s" depth="0" NCoef="0" IVar="3" Cut="9.5950960937500000e+04" cType="1" res="5.9922128915786743e-01" rms="4.9005624651908875e-01" purity="5.9922128915786743e-01" nType="0">
        <Node pos="l" depth="1" NCoef="0" IVar="2" Cut="9.1766445312500000e+04" cType="1" res="4.7711890935897827e-01" rms="4.9947619438171387e-01" purity="4.7711890935897827e-01" nType="0">
          <Node pos="l" depth="2" NCoef="0" IVar="-1" Cut="0.0000000000000000e+00" cType="1" res="9.8757656814996153e-05" rms="3.4242779016494751e-01" purity="3.8385719060897827e-01" nType="-99"/>
          <Node pos="r" depth="2" NCoef="0" IVar="-1" Cut="0.0000000000000000e+00" cType="1" res="1.9783794414252043e-05" rms="4.9343240261077881e-01" purity="6.0871297121047974e-01" nType="-99"/>
        </Node>
        <Node pos="r" depth="1" NCoef="0" IVar="2" Cut="8.9372828125000000e+04" cType="1" res="8.5622256994247437e-01" rms="3.5086390376091003e-01" purity="8.5653710365295410e-01" nType="0">
          <Node pos="l" depth="2" NCoef="0" IVar="-1" Cut="0.0000000000000000e+00" cType="1" res="1.3412840417004190e-05" rms="2.4196234345436096e-01" purity="9.4952130317687988e-01" nType="-99"/>
          <Node pos="r" depth="2" NCoef="0" IVar="-1" Cut="0.0000000000000000e+00" cType="1" res="-9.0042449301108718e-05" rms="3.7248432636260986e-01" purity="3.9731666445732117e-01" nType="-99"/>
        </Node>
      </Node>
    </BinaryTree>
    <BinaryTree type="DecisionTree" boostWeight="1.0000000000000000e+00" itree="652">
      <Node pos="s" depth="0" NCoef="0" IVar="2" Cut="9.1836718750000000e+04" cType="1" res="0.0000000000000000e+00" rms="6.8915057182312012e-01" purity="4.7498643398284912e-01" nType="0">
        <Node pos="l" depth="1" NCoef="0" IVar="5" Cut="3.7245843750000000e+05" cType="1" res="3.9061692357063293e-01" rms="4.8808676004409790e-01" purity="3.9121824502944946e-01" nType="0">
          <Node pos="l" depth="2" NCoef="0" IVar="-1" Cut="0.0000000000000000e+00" cType="1" res="-5.2955769933760166e-04" rms="3.5041290521621704e-01" purity="2.3752944171428680e-01" nType="-99"/>
          <Node pos="r" depth="2" NCoef="0" IVar="-1" Cut="0.0000000000000000e+00" cType="1" res="4.2677560122683644e-04" rms="3.4653383493423462e-01" purity="7.8570520877838135e-01" nType="-99"/>
        </Node>
        <Node pos="r" depth="1" NCoef="0" IVar="2" Cut="9.2028312500000000e+04" cType="1" res="6.0255295038223267e-01" rms="4.8963510990142822e-01" purity="6.0281258821487427e-01" nType="0">
          <Node pos="l" depth="2" NCoef="0" IVar="-1" Cut="0.0000000000000000e+00" cType="1" res="1.9474584405543283e-05" rms="3.6075070500373840e-01" purity="8.8298124074935913e-01" nType="-99"/>
          <Node pos="r" depth="2" NCoef="0" IVar="-1" Cut="0.0000000000000000e+00" cType="1" res="5.1535776583477855e-04" rms="3.6415147781372070e-01" purity="3.9597469568252563e-01" nType="-99"/>
        </Node>
      </Node>
    </BinaryTree>
    <BinaryTree type="DecisionTree" boostWeight="1.0000000000000000e+00" itree="653">
      <Node pos="s" depth="0" NCoef="0" IVar="0" Cut="1.0000000000000000e+00" cType="1" res="2.1330340206623077e-01" rms="4.6892496943473816e-01" purity="5.4108893871307373e-01" nType="0">
        <Node pos="l" depth="1" NCoef="0" IVar="4" Cut="2.1010888671875000e+04" cType="1" res="5.1169395446777344e-01" rms="4.9986323714256287e-01" purity="5.1169401407241821e-01" nType="0">
          <Node pos="l" depth="2" NCoef="0" IVar="-1" Cut="0.0000000000000000e+00" cType="1" res="4.2133199167437851e-04" rms="2.0560668408870697e-01" purity="4.4069640338420868e-02" nType="-99"/>
          <Node pos="r" depth="2" NCoef="0" IVar="-1" Cut="0.0000000000000000e+00" cType="1" res="1.5209241610136814e-05" rms="4.7031635046005249e-01" purity="7.4801594018936157e-01" nType="-99"/>
        </Node>
        <Node pos="r" depth="1" NCoef="0" IVar="5" Cut="7.3343193750000000e+05" cType="1" res="5.8633017539978027e-01" rms="4.9249070882797241e-01" purity="5.8633017539978027e-01" nType="0">
          <Node pos="l" depth="2" NCoef="0" IVar="-1" Cut="0.0000000000000000e+00" cType="1" res="2.6365593657828867e-04" rms="4.1234600543975830e-01" purity="5.3713297843933105e-01" nType="-99"/>
          <Node pos="r" depth="2" NCoef="0" IVar="-1" Cut="0.0000000000000000e+00" cType="1" res="3.1826032791286707e-03" rms="2.8097790479660034e-01" purity="9.0625208616256714e-01" nType="-99"/>
        </Node>
      </Node>
    </BinaryTree>
    <BinaryTree type="DecisionTree" boostWeight="1.0000000000000000e+00" itree="654">
      <Node pos="s" depth="0" NCoef="0" IVar="4" Cut="8.3394539062500000e+04" cType="1" res="3.8219451904296875e-01" rms="4.8592373728752136e-01" purity="3.8219451904296875e-01" nType="0">
        <Node pos="l" depth="1" NCoef="0" IVar="3" Cut="9.8787703125000000e+04" cType="1" res="3.4272101521492004e-01" rms="4.7461912035942078e-01" purity="3.4272101521492004e-01" nType="0">
          <Node pos="l" depth="2" NCoef="0" IVar="-1" Cut="0.0000000000000000e+00" cType="1" res="-4.2771160951815546e-04" rms="3.5309147834777832e-01" purity="3.3750063180923462e-01" nType="-99"/>
          <Node pos="r" depth="2" NCoef="0" IVar="-1" Cut="0.0000000000000000e+00" cType="1" res="2.3339756298810244e-03" rms="4.4312286376953125e-01" purity="4.6718254685401917e-01" nType="-99"/>
        </Node>
        <Node pos="r" depth="1" NCoef="0" IVar="-1" Cut="0.0000000000000000e+00" cType="1" res="1.2977689038962126e-03" rms="2.8023558855056763e-01" purity="9.1399192810058594e-01" nType="-99"/>
      </Node>
    </BinaryTree>
    <BinaryTree type="DecisionTree" boostWeight="1.0000000000000000e+00" itree="655">
      <Node pos="s" depth="0" NCoef="0" IVar="2" Cut="9.1879203125000000e+04" cType="1" res="4.7163981199264526e-01" rms="4.9956381320953369e-01" purity="4.7207504510879517e-01" nType="0">
        <Node pos="l" depth="1" NCoef="0" IVar="0" Cut="2.0000000000000000e+00" cType="1" res="9.1493027284741402e-03" rms="3.5766065120697021e-01" purity="3.8629981875419617e-01" nType="0">
          <Node pos="l" depth="2" NCoef="0" IVar="-1" Cut="0.0000000000000000e+00" cType="1" res="-1.6805180348455906e-04" rms="3.5614874958992004e-01" purity="2.2566729784011841e-01" nType="-99"/>
          <Node pos="r" depth="2" NCoef="0" IVar="-1" Cut="0.0000000000000000e+00" cType="1" res="5.2675872575491667e-04" rms="3.5956999659538269e-01" purity="8.3375126123428345e-01" nType="-99"/>
        </Node>
        <Node pos="r" depth="1" NCoef="0" IVar="2" Cut="9.2075976562500000e+04" cType="1" res="6.0608190298080444e-01" rms="4.8911315202713013e-01" purity="6.0656696557998657e-01" nType="0">
          <Node pos="l" depth="2" NCoef="0" IVar="-1" Cut="0.0000000000000000e+00" cType="1" res="1.9271376004326157e-05" rms="3.6787369847297668e-01" purity="8.7532305717468262e-01" nType="-99"/>
          <Node pos="r" depth="2" NCoef="0" IVar="-1" Cut="0.0000000000000000e+00" cType="1" res="2.6336978771723807e-04" rms="3.5394346714019775e-01" purity="3.9904746413230896e-01" nType="-99"/>
        </Node>
      </Node>
    </BinaryTree>
    <BinaryTree type="DecisionTree" boostWeight="1.0000000000000000e+00" itree="656">
      <Node pos="s" depth="0" NCoef="0" IVar="3" Cut="9.5950960937500000e+04" cType="1" res="6.4446377754211426e-01" rms="4.7898638248443604e-01" purity="6.4488804340362549e-01" nType="0">
        <Node pos="l" depth="1" NCoef="0" IVar="2" Cut="9.1842039062500000e+04" cType="1" res="4.7706314921379089e-01" rms="4.9982312321662903e-01" purity="4.7779342532157898e-01" nType="0">
          <Node pos="l" depth="2" NCoef="0" IVar="-1" Cut="0.0000000000000000e+00" cType="1" res="2.8452961123548448e-04" rms="3.5083711147308350e-01" purity="3.7727996706962585e-01" nType="-99"/>
          <Node pos="r" depth="2" NCoef="0" IVar="-1" Cut="0.0000000000000000e+00" cType="1" res="1.9779019567067735e-05" rms="4.8955452442169189e-01" purity="6.2342607975006104e-01" nType="-99"/>
        </Node>
        <Node pos="r" depth="1" NCoef="0" IVar="3" Cut="9.6732937500000000e+04" cType="1" res="8.9686435461044312e-01" rms="3.0413600802421570e-01" purity="8.9697712659835815e-01" nType="0">
          <Node pos="l" depth="2" NCoef="0" IVar="-1" Cut="0.0000000000000000e+00" cType="1" res="1.3324630344868638e-05" rms="1.9622579216957092e-01" purity="9.6890741586685181e-01" nType="-99"/>
          <Node pos="r" depth="2" NCoef="0" IVar="-1" Cut="0.0000000000000000e+00" cType="1" res="1.2076162965968251e-03" rms="3.9682739973068237e-01" purity="4.5849964022636414e-01" nType="-99"/>
        </Node>
      </Node>
    </BinaryTree>
    <BinaryTree type="DecisionTree" boostWeight="1.0000000000000000e+00" itree="657">
      <Node pos="s" depth="0" NCoef="0" IVar="2" Cut="9.1813062500000000e+04" cType="1" res="4.7258335351943970e-01" rms="4.9941688776016235e-01" purity="4.7275227308273315e-01" nType="0">
        <Node pos="l" depth="1" NCoef="0" IVar="4" Cut="6.9530882812500000e+04" cType="1" res="3.8731709122657776e-01" rms="4.8731830716133118e-01" purity="3.8749361038208008e-01" nType="0">
          <Node pos="l" depth="2" NCoef="0" IVar="-1" Cut="0.0000000000000000e+00" cType="1" res="-3.4270144055881246e-07" rms="3.5620939731597900e-01" purity="3.3185327053070068e-01" nType="-99"/>
          <Node pos="r" depth="2" NCoef="0" IVar="-1" Cut="0.0000000000000000e+00" cType="1" res="1.0824939236044884e-03" rms="3.0830380320549011e-01" purity="8.8680750131607056e-01" nType="-99"/>
        </Node>
        <Node pos="r" depth="1" NCoef="0" IVar="2" Cut="9.2007023437500000e+04" cType="1" res="6.0053092241287231e-01" rms="4.9022614955902100e-01" purity="6.0095906257629395e-01" nType="0">
          <Node pos="l" depth="2" NCoef="0" IVar="-1" Cut="0.0000000000000000e+00" cType="1" res="1.9271716155344620e-05" rms="3.6835584044456482e-01" purity="8.7854874134063721e-01" nType="-99"/>
          <Node pos="r" depth="2" NCoef="0" IVar="-1" Cut="0.0000000000000000e+00" cType="1" res="5.4270570399239659e-04" rms="3.6345928907394409e-01" purity="3.9939242601394653e-01" nType="-99"/>
        </Node>
      </Node>
    </BinaryTree>
    <BinaryTree type="DecisionTree" boostWeight="1.0000000000000000e+00" itree="658">
      <Node pos="s" depth="0" NCoef="0" IVar="1" Cut="1.9097787500000000e+05" cType="1" res="4.4409540295600891e-01" rms="4.9686485528945923e-01" purity="4.4409543275833130e-01" nType="0">
        <Node pos="l" depth="1" NCoef="0" IVar="4" Cut="2.1023498046875000e+04" cType="1" res="3.1405616551637650e-02" rms="2.1963749825954437e-01" purity="7.0724225044250488e-01" nType="0">
          <Node pos="l" depth="2" NCoef="0" IVar="-1" Cut="0.0000000000000000e+00" cType="1" res="3.2464282121509314e-03" rms="2.6198306679725647e-01" purity="1.2077060341835022e-01" nType="-99"/>
          <Node pos="r" depth="2" NCoef="0" IVar="-1" Cut="0.0000000000000000e+00" cType="1" res="2.2684758732793853e-05" rms="3.8020828366279602e-01" purity="8.6537188291549683e-01" nType="-99"/>
        </Node>
        <Node pos="r" depth="1" NCoef="0" IVar="0" Cut="4.0000000000000000e+00" cType="1" res="4.8328214325010777e-03" rms="3.5652610659599304e-01" purity="3.9505526423454285e-01" nType="0">
          <Node pos="l" depth="2" NCoef="0" IVar="-1" Cut="0.0000000000000000e+00" cType="1" res="-8.2553822721820325e-05" rms="3.6287274956703186e-01" purity="3.5591074824333191e-01" nType="-99"/>
          <Node pos="r" depth="2" NCoef="0" IVar="-1" Cut="0.0000000000000000e+00" cType="1" res="5.9158611111342907e-04" rms="2.3055018484592438e-01" purity="9.4488894939422607e-01" nType="-99"/>
        </Node>
      </Node>
    </BinaryTree>
    <BinaryTree type="DecisionTree" boostWeight="1.0000000000000000e+00" itree="659">
      <Node pos="s" depth="0" NCoef="0" IVar="3" Cut="8.9426296875000000e+04" cType="1" res="5.1418226957321167e-01" rms="4.9985244870185852e-01" purity="5.1423585414886475e-01" nType="0">
        <Node pos="l" depth="1" NCoef="0" IVar="3" Cut="8.8492664062500000e+04" cType="1" res="6.0759001970291138e-01" rms="4.8828721046447754e-01" purity="6.0759001970291138e-01" nType="0">
          <Node pos="l" depth="2" NCoef="0" IVar="-1" Cut="0.0000000000000000e+00" cType="1" res="1.0245003795716912e-04" rms="3.5041108727455139e-01" purity="3.8236612081527710e-01" nType="-99"/>
          <Node pos="r" depth="2" NCoef="0" IVar="-1" Cut="0.0000000000000000e+00" cType="1" res="2.0784060325240716e-05" rms="4.0495046973228455e-01" purity="8.3266550302505493e-01" nType="-99"/>
        </Node>
        <Node pos="r" depth="1" NCoef="0" IVar="3" Cut="9.8860500000000000e+04" cType="1" res="3.8328823447227478e-01" rms="4.8618757724761963e-01" purity="3.8341695070266724e-01" nType="0">
          <Node pos="l" depth="2" NCoef="0" IVar="-1" Cut="0.0000000000000000e+00" cType="1" res="1.9550001889001578e-04" rms="3.6247515678405762e-01" purity="3.7641319632530212e-01" nType="-99"/>
          <Node pos="r" depth="2" NCoef="0" IVar="-1" Cut="0.0000000000000000e+00" cType="1" res="2.2152189631015062e-03" rms="4.2763361334800720e-01" purity="4.7421771287918091e-01" nType="-99"/>
        </Node>
      </Node>
    </BinaryTree>
    <BinaryTree type="DecisionTree" boostWeight="1.0000000000000000e+00" itree="660">
      <Node pos="s" depth="0" NCoef="0" IVar="3" Cut="8.9426250000000000e+04" cType="1" res="5.7636618614196777e-01" rms="4.9414506554603577e-01" purity="5.7637739181518555e-01" nType="0">
        <Node pos="l" depth="1" NCoef="0" IVar="3" Cut="8.8492617187500000e+04" cType="1" res="6.7689079046249390e-01" rms="4.6768307685852051e-01" purity="6.7690861225128174e-01" nType="0">
          <Node pos="l" depth="2" NCoef="0" IVar="-1" Cut="0.0000000000000000e+00" cType="1" res="8.3496830484364182e-05" rms="3.4913393855094910e-01" purity="3.7346404790878296e-01" nType="-99"/>
          <Node pos="r" depth="2" NCoef="0" IVar="-1" Cut="0.0000000000000000e+00" cType="1" res="2.0228082576068118e-05" rms="3.5435906052589417e-01" purity="8.8476550579071045e-01" nType="-99"/>
        </Node>
        <Node pos="r" depth="1" NCoef="0" IVar="0" Cut="1.0000000000000000e+00" cType="1" res="1.2726395390927792e-02" rms="3.5884535312652588e-01" purity="4.0828150510787964e-01" nType="0">
          <Node pos="l" depth="2" NCoef="0" IVar="-1" Cut="0.0000000000000000e+00" cType="1" res="-9.9739595316350460e-04" rms="3.0175495147705078e-01" purity="1.4452743530273438e-01" nType="-99"/>
          <Node pos="r" depth="2" NCoef="0" IVar="-1" Cut="0.0000000000000000e+00" cType="1" res="9.1835629427805543e-04" rms="3.9668154716491699e-01" purity="6.1452049016952515e-01" nType="-99"/>
        </Node>
      </Node>
    </BinaryTree>
    <BinaryTree type="DecisionTree" boostWeight="1.0000000000000000e+00" itree="661">
      <Node pos="s" depth="0" NCoef="0" IVar="5" Cut="1.7758600000000000e+05" cType="1" res="5.2347004413604736e-01" rms="4.9944886565208435e-01" purity="5.2347004413604736e-01" nType="0">
        <Node pos="l" depth="1" NCoef="0" IVar="2" Cut="8.9651632812500000e+04" cType="1" res="6.9043987989425659e-01" rms="4.6231228113174438e-01" purity="6.9043987989425659e-01" nType="0">
          <Node pos="l" depth="2" NCoef="0" IVar="-1" Cut="0.0000000000000000e+00" cType="1" res="1.5807356248842552e-05" rms="2.7153095602989197e-01" purity="8.9692741632461548e-01" nType="-99"/>
          <Node pos="r" depth="2" NCoef="0" IVar="-1" Cut="0.0000000000000000e+00" cType="1" res="-2.5010902900248766e-03" rms="2.5288450717926025e-01" purity="8.4670491516590118e-02" nType="-99"/>
        </Node>
        <Node pos="r" depth="1" NCoef="0" IVar="4" Cut="8.2745929687500000e+04" cType="1" res="4.3495550751686096e-01" rms="4.9575117230415344e-01" purity="4.3495550751686096e-01" nType="0">
          <Node pos="l" depth="2" NCoef="0" IVar="-1" Cut="0.0000000000000000e+00" cType="1" res="-9.7362026281189173e-05" rms="3.7427970767021179e-01" purity="3.9344036579132080e-01" nType="-99"/>
          <Node pos="r" depth="2" NCoef="0" IVar="-1" Cut="0.0000000000000000e+00" cType="1" res="1.2125162174925208e-03" rms="2.8113758563995361e-01" purity="9.1284430027008057e-01" nType="-99"/>
        </Node>
      </Node>
    </BinaryTree>
    <BinaryTree type="DecisionTree" boostWeight="1.0000000000000000e+00" itree="662">
      <Node pos="s" depth="0" NCoef="0" IVar="1" Cut="1.9815731250000000e+05" cType="1" res="5.4398870468139648e-01" rms="4.9815404415130615e-01" purity="5.4435759782791138e-01" nType="0">
        <Node pos="l" depth="1" NCoef="0" IVar="2" Cut="8.9636281250000000e+04" cType="1" res="7.6088672876358032e-01" rms="4.3563792109489441e-01" purity="7.9175293445587158e-01" nType="0">
          <Node pos="l" depth="2" NCoef="0" IVar="-1" Cut="0.0000000000000000e+00" cType="1" res="2.3019656509859487e-05" rms="2.4652379751205444e-01" purity="9.3530821800231934e-01" nType="-99"/>
          <Node pos="r" depth="2" NCoef="0" IVar="-1" Cut="0.0000000000000000e+00" cType="1" res="4.2369411676190794e-04" rms="3.2484608888626099e-01" purity="2.3101386427879333e-01" nType="-99"/>
        </Node>
        <Node pos="r" depth="1" NCoef="0" IVar="0" Cut="3.0000000000000000e+00" cType="1" res="1.3555527664721012e-02" rms="3.5935798287391663e-01" purity="4.1737729310989380e-01" nType="0">
          <Node pos="l" depth="2" NCoef="0" IVar="-1" Cut="0.0000000000000000e+00" cType="1" res="1.1571898357942700e-04" rms="3.7079092860221863e-01" purity="3.3257377147674561e-01" nType="-99"/>
          <Node pos="r" depth="2" NCoef="0" IVar="-1" Cut="0.0000000000000000e+00" cType="1" res="4.6603067312389612e-04" rms="2.7412873506546021e-01" purity="9.1810464859008789e-01" nType="-99"/>
        </Node>
      </Node>
    </BinaryTree>
    <BinaryTree type="DecisionTree" boostWeight="1.0000000000000000e+00" itree="663">
      <Node pos="s" depth="0" NCoef="0" IVar="5" Cut="1.5960065625000000e+05" cType="1" res="4.8912167549133301e-01" rms="5.0001782178878784e-01" purity="4.8934549093246460e-01" nType="0">
        <Node pos="l" depth="1" NCoef="0" IVar="-1" Cut="0.0000000000000000e+00" cType="1" res="1.3269376722746529e-05" rms="3.6649155616760254e-01" purity="7.7270656824111938e-01" nType="-99"/>
        <Node pos="r" depth="1" NCoef="0" IVar="4" Cut="4.4957492187500000e+04" cType="1" res="4.1513702273368835e-01" rms="4.9291980266571045e-01" purity="4.1541922092437744e-01" nType="0">
          <Node pos="l" depth="2" NCoef="0" IVar="-1" Cut="0.0000000000000000e+00" cType="1" res="-1.4163776359055191e-04" rms="3.5271802544593811e-01" purity="3.0949819087982178e-01" nType="-99"/>
          <Node pos="r" depth="2" NCoef="0" IVar="-1" Cut="0.0000000000000000e+00" cType="1" res="5.6671304628252983e-04" rms="3.7348574399948120e-01" purity="7.8679853677749634e-01" nType="-99"/>
        </Node>
      </Node>
    </BinaryTree>
    <BinaryTree type="DecisionTree" boostWeight="1.0000000000000000e+00" itree="664">
      <Node pos="s" depth="0" NCoef="0" IVar="4" Cut="7.4108828125000000e+04" cType="1" res="3.8164749741554260e-01" rms="4.8586633801460266e-01" purity="3.8203561305999756e-01" nType="0">
        <Node pos="l" depth="1" NCoef="0" IVar="0" Cut="3.0000000000000000e+00" cType="1" res="-2.7805343270301819e-03" rms="3.5744753479957581e-01" purity="3.3091256022453308e-01" nType="0">
          <Node pos="l" depth="2" NCoef="0" IVar="-1" Cut="0.0000000000000000e+00" cType="1" res="-6.3738046446815133e-04" rms="3.6268064379692078e-01" purity="2.6085191965103149e-01" nType="-99"/>
          <Node pos="r" depth="2" NCoef="0" IVar="-1" Cut="0.0000000000000000e+00" cType="1" res="2.1716372575610876e-03" rms="3.0636429786682129e-01" purity="8.9288020133972168e-01" nType="-99"/>
        </Node>
        <Node pos="r" depth="1" NCoef="0" IVar="-1" Cut="0.0000000000000000e+00" cType="1" res="1.2069130316376686e-03" rms="2.9633286595344543e-01" purity="9.0191870927810669e-01" nType="-99"/>
      </Node>
    </BinaryTree>
    <BinaryTree type="DecisionTree" boostWeight="1.0000000000000000e+00" itree="665">
      <Node pos="s" depth="0" NCoef="0" IVar="2" Cut="9.1802585937500000e+04" cType="1" res="0.0000000000000000e+00" rms="7.3374891281127930e-01" purity="5.3869789838790894e-01" nType="0">
        <Node pos="l" depth="1" NCoef="0" IVar="0" Cut="1.0000000000000000e+00" cType="1" res="1.2215454131364822e-02" rms="3.5417044162750244e-01" purity="3.9372390508651733e-01" nType="0">
          <Node pos="l" depth="2" NCoef="0" IVar="-1" Cut="0.0000000000000000e+00" cType="1" res="-1.1179273715242743e-03" rms="2.9456219077110291e-01" purity="1.3691315054893494e-01" nType="-99"/>
          <Node pos="r" depth="2" NCoef="0" IVar="-1" Cut="0.0000000000000000e+00" cType="1" res="5.7210470549762249e-04" rms="3.9567726850509644e-01" purity="6.0724103450775146e-01" nType="-99"/>
        </Node>
        <Node pos="r" depth="1" NCoef="0" IVar="2" Cut="9.1993601562500000e+04" cType="1" res="6.9983190298080444e-01" rms="4.5851737260818481e-01" purity="7.0040696859359741e-01" nType="0">
          <Node pos="l" depth="2" NCoef="0" IVar="-1" Cut="0.0000000000000000e+00" cType="1" res="1.9222385162720457e-05" rms="2.8174620866775513e-01" purity="9.3453592061996460e-01" nType="-99"/>
          <Node pos="r" depth="2" NCoef="0" IVar="-1" Cut="0.0000000000000000e+00" cType="1" res="7.8620389103889465e-04" rms="3.7034884095191956e-01" purity="3.9932811260223389e-01" nType="-99"/>
        </Node>
      </Node>
    </BinaryTree>
    <BinaryTree type="DecisionTree" boostWeight="1.0000000000000000e+00" itree="666">
      <Node pos="s" depth="0" NCoef="0" IVar="5" Cut="1.6358775000000000e+05" cType="1" res="4.8208925127983093e-01" rms="4.9967908859252930e-01" purity="4.8208925127983093e-01" nType="0">
        <Node pos="l" depth="1" NCoef="0" IVar="3" Cut="8.9145296875000000e+04" cType="1" res="7.3353332281112671e-01" rms="4.4211104512214661e-01" purity="7.3353332281112671e-01" nType="0">
          <Node pos="l" depth="2" NCoef="0" IVar="-1" Cut="0.0000000000000000e+00" cType="1" res="-6.8060606718063354e-03" rms="2.0753644406795502e-01" purity="5.6752055883407593e-02" nType="-99"/>
          <Node pos="r" depth="2" NCoef="0" IVar="-1" Cut="0.0000000000000000e+00" cType="1" res="1.3432858395390213e-05" rms="3.1085598468780518e-01" purity="8.5498815774917603e-01" nType="-99"/>
        </Node>
        <Node pos="r" depth="1" NCoef="0" IVar="4" Cut="7.4199789062500000e+04" cType="1" res="4.0981912612915039e-01" rms="4.9180015921592712e-01" purity="4.0981912612915039e-01" nType="0">
          <Node pos="l" depth="2" NCoef="0" IVar="-1" Cut="0.0000000000000000e+00" cType="1" res="-4.4234599045012146e-05" rms="3.7054100632667542e-01" purity="3.5641732811927795e-01" nType="-99"/>
          <Node pos="r" depth="2" NCoef="0" IVar="-1" Cut="0.0000000000000000e+00" cType="1" res="1.0518053313717246e-03" rms="2.9841572046279907e-01" purity="8.9795076847076416e-01" nType="-99"/>
        </Node>
      </Node>
    </BinaryTree>
    <BinaryTree type="DecisionTree" boostWeight="1.0000000000000000e+00" itree="667">
      <Node pos="s" depth="0" NCoef="0" IVar="4" Cut="5.5592992187500000e+04" cType="1" res="3.8737207651138306e-01" rms="4.8784145712852478e-01" purity="3.8825201988220215e-01" nType="0">
        <Node pos="l" depth="1" NCoef="0" IVar="0" Cut="1.0000000000000000e+00" cType="1" res="-2.4116619024425745e-03" rms="3.5726538300514221e-01" purity="3.0792954564094543e-01" nType="0">
          <Node pos="l" depth="2" NCoef="0" IVar="-1" Cut="0.0000000000000000e+00" cType="1" res="-1.5123254852369428e-03" rms="2.8479215502738953e-01" purity="9.4956621527671814e-02" nType="-99"/>
          <Node pos="r" depth="2" NCoef="0" IVar="-1" Cut="0.0000000000000000e+00" cType="1" res="5.9779651928693056e-04" rms="4.1697061061859131e-01" purity="5.2204096317291260e-01" nType="-99"/>
        </Node>
        <Node pos="r" depth="1" NCoef="0" IVar="4" Cut="8.1005921875000000e+04" cType="1" res="8.3473420143127441e-01" rms="3.7625113129615784e-01" purity="8.3885824680328369e-01" nType="0">
          <Node pos="l" depth="2" NCoef="0" IVar="-1" Cut="0.0000000000000000e+00" cType="1" res="5.9332652017474174e-04" rms="4.0255701541900635e-01" purity="7.7122378349304199e-01" nType="-99"/>
          <Node pos="r" depth="2" NCoef="0" IVar="-1" Cut="0.0000000000000000e+00" cType="1" res="1.2091646203771234e-03" rms="2.8903418779373169e-01" purity="9.0670090913772583e-01" nType="-99"/>
        </Node>
      </Node>
    </BinaryTree>
    <BinaryTree type="DecisionTree" boostWeight="1.0000000000000000e+00" itree="668">
      <Node pos="s" depth="0" NCoef="0" IVar="3" Cut="8.9426703125000000e+04" cType="1" res="5.1344943046569824e-01" rms="4.9987331032752991e-01" purity="5.1358592510223389e-01" nType="0">
        <Node pos="l" depth="1" NCoef="0" IVar="3" Cut="8.8493171875000000e+04" cType="1" res="6.0451561212539673e-01" rms="4.8895448446273804e-01" purity="6.0465723276138306e-01" nType="0">
          <Node pos="l" depth="2" NCoef="0" IVar="-1" Cut="0.0000000000000000e+00" cType="1" res="3.9241029298864305e-04" rms="3.5663723945617676e-01" purity="3.7418287992477417e-01" nType="-99"/>
          <Node pos="r" depth="2" NCoef="0" IVar="-1" Cut="0.0000000000000000e+00" cType="1" res="2.0867792045464739e-05" rms="4.0522974729537964e-01" purity="8.3338415622711182e-01" nType="-99"/>
        </Node>
        <Node pos="r" depth="1" NCoef="0" IVar="5" Cut="4.3609450000000000e+05" cType="1" res="3.8733923435211182e-01" rms="4.8714223504066467e-01" purity="3.8733923435211182e-01" nType="0">
          <Node pos="l" depth="2" NCoef="0" IVar="-1" Cut="0.0000000000000000e+00" cType="1" res="-5.6649517500773072e-04" rms="3.5902157425880432e-01" purity="2.7010029554367065e-01" nType="-99"/>
          <Node pos="r" depth="2" NCoef="0" IVar="-1" Cut="0.0000000000000000e+00" cType="1" res="1.3738875277340412e-03" rms="3.3527263998985291e-01" purity="8.0873221158981323e-01" nType="-99"/>
        </Node>
      </Node>
    </BinaryTree>
    <BinaryTree type="DecisionTree" boostWeight="1.0000000000000000e+00" itree="669">
      <Node pos="s" depth="0" NCoef="0" IVar="4" Cut="3.6733953125000000e+04" cType="1" res="3.8682222366333008e-01" rms="4.8743543028831482e-01" purity="3.8729566335678101e-01" nType="0">
        <Node pos="l" depth="1" NCoef="0" IVar="4" Cut="2.3214660156250000e+04" cType="1" res="2.5809967517852783e-01" rms="4.3758910894393921e-01" purity="2.5812175869941711e-01" nType="0">
          <Node pos="l" depth="2" NCoef="0" IVar="-1" Cut="0.0000000000000000e+00" cType="1" res="3.1762057915329933e-04" rms="2.9996678233146667e-01" purity="2.0660121738910675e-01" nType="-99"/>
          <Node pos="r" depth="2" NCoef="0" IVar="-1" Cut="0.0000000000000000e+00" cType="1" res="-1.7912724288180470e-03" rms="3.9465242624282837e-01" purity="3.8519909977912903e-01" nType="-99"/>
        </Node>
        <Node pos="r" depth="1" NCoef="0" IVar="5" Cut="2.0776709375000000e+05" cType="1" res="7.1269881725311279e-01" rms="4.5407128334045410e-01" purity="7.1431481838226318e-01" nType="0">
          <Node pos="l" depth="2" NCoef="0" IVar="-1" Cut="0.0000000000000000e+00" cType="1" res="-6.8954931339249015e-04" rms="4.5419311523437500e-01" purity="3.6677840352058411e-01" nType="-99"/>
          <Node pos="r" depth="2" NCoef="0" IVar="-1" Cut="0.0000000000000000e+00" cType="1" res="6.8759801797568798e-04" rms="3.8345581293106079e-01" purity="7.7524960041046143e-01" nType="-99"/>
        </Node>
      </Node>
    </BinaryTree>
    <BinaryTree type="DecisionTree" boostWeight="1.0000000000000000e+00" itree="670">
      <Node pos="s" depth="0" NCoef="0" IVar="2" Cut="9.1836718750000000e+04" cType="1" res="4.6666374802589417e-01" rms="4.9888744950294495e-01" purity="4.6666374802589417e-01" nType="0">
        <Node pos="l" depth="1" NCoef="0" IVar="5" Cut="6.3681112500000000e+05" cType="1" res="3.8333064317703247e-01" rms="4.8619776964187622e-01" purity="3.8333064317703247e-01" nType="0">
          <Node pos="l" depth="2" NCoef="0" IVar="-1" Cut="0.0000000000000000e+00" cType="1" res="8.3427083154674619e-05" rms="3.6230298876762390e-01" purity="3.2674726843833923e-01" nType="-99"/>
          <Node pos="r" depth="2" NCoef="0" IVar="-1" Cut="0.0000000000000000e+00" cType="1" res="3.0903504230082035e-03" rms="2.8167736530303955e-01" purity="8.8832962512969971e-01" nType="-99"/>
        </Node>
        <Node pos="r" depth="1" NCoef="0" IVar="2" Cut="9.2028312500000000e+04" cType="1" res="5.9354209899902344e-01" rms="4.9133613705635071e-01" purity="5.9370344877243042e-01" nType="0">
          <Node pos="l" depth="2" NCoef="0" IVar="-1" Cut="0.0000000000000000e+00" cType="1" res="1.9482293282635510e-05" rms="3.5682654380798340e-01" purity="8.8973528146743774e-01" nType="-99"/>
          <Node pos="r" depth="2" NCoef="0" IVar="-1" Cut="0.0000000000000000e+00" cType="1" res="-5.4384866962209344e-04" rms="3.5663187503814697e-01" purity="3.6583805084228516e-01" nType="-99"/>
        </Node>
      </Node>
    </BinaryTree>
    <BinaryTree type="DecisionTree" boostWeight="1.0000000000000000e+00" itree="671">
      <Node pos="s" depth="0" NCoef="0" IVar="5" Cut="1.6914089062500000e+05" cType="1" res="4.4223922491073608e-01" rms="4.9706840515136719e-01" purity="4.4265252351760864e-01" nType="0">
        <Node pos="l" depth="1" NCoef="0" IVar="5" Cut="1.6134379687500000e+05" cType="1" res="inf" rms="0.0000000000000000e+00" purity="5.5711716413497925e-01" nType="0">
          <Node pos="l" depth="2" NCoef="0" IVar="-1" Cut="0.0000000000000000e+00" cType="1" res="-3.7125679664313793e-03" rms="2.4146239459514618e-01" purity="6.2616512179374695e-02" nType="-99"/>
          <Node pos="r" depth="2" NCoef="0" IVar="-1" Cut="0.0000000000000000e+00" cType="1" res="2.3206332116387784e-05" rms="3.7480485439300537e-01" purity="7.7784973382949829e-01" nType="-99"/>
        </Node>
        <Node pos="r" depth="1" NCoef="0" IVar="4" Cut="7.8737789062500000e+04" cType="1" res="0.0000000000000000e+00" rms="0.0000000000000000e+00" purity="4.1501709818840027e-01" nType="0">
          <Node pos="l" depth="2" NCoef="0" IVar="-1" Cut="0.0000000000000000e+00" cType="1" res="-2.1872545767109841e-04" rms="3.6756134033203125e-01" purity="3.6824747920036316e-01" nType="-99"/>
          <Node pos="r" depth="2" NCoef="0" IVar="-1" Cut="0.0000000000000000e+00" cType="1" res="1.2256178306415677e-03" rms="2.8254428505897522e-01" purity="9.1152143478393555e-01" nType="-99"/>
        </Node>
      </Node>
    </BinaryTree>
    <BinaryTree type="DecisionTree" boostWeight="1.0000000000000000e+00" itree="672">
      <Node pos="s" depth="0" NCoef="0" IVar="0" Cut="1.0000000000000000e+00" cType="1" res="2.1532797813415527e-01" rms="4.6623477339744568e-01" purity="5.4935723543167114e-01" nType="0">
        <Node pos="l" depth="1" NCoef="0" IVar="4" Cut="1.9682429687500000e+04" cType="1" res="5.1493078470230103e-01" rms="4.9977701902389526e-01" purity="5.1493078470230103e-01" nType="0">
          <Node pos="l" depth="2" NCoef="0" IVar="-1" Cut="0.0000000000000000e+00" cType="1" res="3.7840181030333042e-03" rms="2.1472996473312378e-01" purity="4.9607574939727783e-02" nType="-99"/>
          <Node pos="r" depth="2" NCoef="0" IVar="-1" Cut="0.0000000000000000e+00" cType="1" res="1.5473826351808384e-05" rms="4.6884086728096008e-01" purity="7.3514688014984131e-01" nType="-99"/>
        </Node>
        <Node pos="r" depth="1" NCoef="0" IVar="0" Cut="4.0000000000000000e+00" cType="1" res="2.4401983246207237e-02" rms="3.9685246348381042e-01" purity="6.0076141357421875e-01" nType="0">
          <Node pos="l" depth="2" NCoef="0" IVar="-1" Cut="0.0000000000000000e+00" cType="1" res="4.5749347191303968e-04" rms="4.1197443008422852e-01" purity="5.5786025524139404e-01" nType="-99"/>
          <Node pos="r" depth="2" NCoef="0" IVar="-1" Cut="0.0000000000000000e+00" cType="1" res="5.6757556740194559e-04" rms="2.3127056658267975e-01" purity="9.4454354047775269e-01" nType="-99"/>
        </Node>
      </Node>
    </BinaryTree>
    <BinaryTree type="DecisionTree" boostWeight="1.0000000000000000e+00" itree="673">
      <Node pos="s" depth="0" NCoef="0" IVar="0" Cut="1.0000000000000000e+00" cType="1" res="2.1437515318393707e-01" rms="4.6916273236274719e-01" purity="5.4319059848785400e-01" nType="0">
        <Node pos="l" depth="1" NCoef="0" IVar="4" Cut="1.9683986328125000e+04" cType="1" res="5.1273167133331299e-01" rms="4.9983787536621094e-01" purity="5.1273167133331299e-01" nType="0">
          <Node pos="l" depth="2" NCoef="0" IVar="-1" Cut="0.0000000000000000e+00" cType="1" res="1.4329854166135192e-03" rms="2.0069187879562378e-01" purity="4.2132757604122162e-02" nType="-99"/>
          <Node pos="r" depth="2" NCoef="0" IVar="-1" Cut="0.0000000000000000e+00" cType="1" res="1.5363208149210550e-05" rms="4.7165665030479431e-01" purity="7.3360782861709595e-01" nType="-99"/>
        </Node>
        <Node pos="r" depth="1" NCoef="0" IVar="0" Cut="4.0000000000000000e+00" cType="1" res="2.1831832826137543e-02" rms="4.0014508366584778e-01" purity="5.8853441476821899e-01" nType="0">
          <Node pos="l" depth="2" NCoef="0" IVar="-1" Cut="0.0000000000000000e+00" cType="1" res="3.8476343615911901e-04" rms="4.1565304994583130e-01" purity="5.4494607448577881e-01" nType="-99"/>
          <Node pos="r" depth="2" NCoef="0" IVar="-1" Cut="0.0000000000000000e+00" cType="1" res="3.6842562258243561e-03" rms="2.2407977283000946e-01" purity="9.4712221622467041e-01" nType="-99"/>
        </Node>
      </Node>
    </BinaryTree>
    <BinaryTree type="DecisionTree" boostWeight="1.0000000000000000e+00" itree="674">
      <Node pos="s" depth="0" NCoef="0" IVar="1" Cut="1.9815731250000000e+05" cType="1" res="4.4815057516098022e-01" rms="4.9757319688796997e-01" purity="4.4855281710624695e-01" nType="0">
        <Node pos="l" depth="1" NCoef="0" IVar="2" Cut="8.9596562500000000e+04" cType="1" res="5.2806168794631958e-01" rms="5.1616096496582031e-01" purity="5.9954416751861572e-01" nType="0">
          <Node pos="l" depth="2" NCoef="0" IVar="-1" Cut="0.0000000000000000e+00" cType="1" res="2.3619762941962108e-05" rms="3.6863502860069275e-01" purity="8.3443093299865723e-01" nType="-99"/>
          <Node pos="r" depth="2" NCoef="0" IVar="-1" Cut="0.0000000000000000e+00" cType="1" res="1.7522285634186119e-04" rms="3.2961967587471008e-01" purity="2.3911151289939880e-01" nType="-99"/>
        </Node>
        <Node pos="r" depth="1" NCoef="0" IVar="4" Cut="3.7077156250000000e+04" cType="1" res="4.0719100832939148e-01" rms="4.9165666103363037e-01" purity="4.0770208835601807e-01" nType="0">
          <Node pos="l" depth="2" NCoef="0" IVar="-1" Cut="0.0000000000000000e+00" cType="1" res="-3.2504595583304763e-04" rms="3.4183433651924133e-01" purity="2.8186893463134766e-01" nType="-99"/>
          <Node pos="r" depth="2" NCoef="0" IVar="-1" Cut="0.0000000000000000e+00" cType="1" res="8.0924527719616890e-04" rms="3.9515510201454163e-01" purity="7.2204864025115967e-01" nType="-99"/>
        </Node>
      </Node>
    </BinaryTree>
    <BinaryTree type="DecisionTree" boostWeight="1.0000000000000000e+00" itree="675">
      <Node pos="s" depth="0" NCoef="0" IVar="1" Cut="2.0175423437500000e+05" cType="1" res="4.9412107467651367e-01" rms="5.0036096572875977e-01" purity="4.9466606974601746e-01" nType="0">
        <Node pos="l" depth="1" NCoef="0" IVar="2" Cut="8.9723593750000000e+04" cType="1" res="6.4286601543426514e-01" rms="4.9158126115798950e-01" purity="6.8524515628814697e-01" nType="0">
          <Node pos="l" depth="2" NCoef="0" IVar="-1" Cut="0.0000000000000000e+00" cType="1" res="2.3179887648439035e-05" rms="3.1740424036979675e-01" purity="8.8469529151916504e-01" nType="-99"/>
          <Node pos="r" depth="2" NCoef="0" IVar="-1" Cut="0.0000000000000000e+00" cType="1" res="7.3460309067741036e-04" rms="3.4066426753997803e-01" purity="2.3988756537437439e-01" nType="-99"/>
        </Node>
        <Node pos="r" depth="1" NCoef="0" IVar="0" Cut="4.0000000000000000e+00" cType="1" res="6.4063025638461113e-03" rms="3.5888379812240601e-01" purity="4.0923404693603516e-01" nType="0">
          <Node pos="l" depth="2" NCoef="0" IVar="-1" Cut="0.0000000000000000e+00" cType="1" res="-2.6829779926629271e-06" rms="3.6563462018966675e-01" purity="3.7128311395645142e-01" nType="-99"/>
          <Node pos="r" depth="2" NCoef="0" IVar="-1" Cut="0.0000000000000000e+00" cType="1" res="5.3168629528954625e-04" rms="2.2432604432106018e-01" purity="9.4802266359329224e-01" nType="-99"/>
        </Node>
      </Node>
    </BinaryTree>
    <BinaryTree type="DecisionTree" boostWeight="1.0000000000000000e+00" itree="676">
      <Node pos="s" depth="0" NCoef="0" IVar="4" Cut="8.2526921875000000e+04" cType="1" res="3.8262936472892761e-01" rms="4.8626285791397095e-01" purity="3.8303235173225403e-01" nType="0">
        <Node pos="l" depth="1" NCoef="0" IVar="0" Cut="1.0000000000000000e+00" cType="1" res="-2.1429238840937614e-03" rms="3.5672751069068909e-01" purity="3.4215000271797180e-01" nType="0">
          <Node pos="l" depth="2" NCoef="0" IVar="-1" Cut="0.0000000000000000e+00" cType="1" res="-2.9257214628160000e-03" rms="2.8562128543853760e-01" purity="1.0222534090280533e-01" nType="-99"/>
          <Node pos="r" depth="2" NCoef="0" IVar="-1" Cut="0.0000000000000000e+00" cType="1" res="6.7111430689692497e-04" rms="4.0944388508796692e-01" purity="5.5900067090988159e-01" nType="-99"/>
        </Node>
        <Node pos="r" depth="1" NCoef="0" IVar="-1" Cut="0.0000000000000000e+00" cType="1" res="1.1161240981891751e-03" rms="2.8468659520149231e-01" purity="9.0962427854537964e-01" nType="-99"/>
      </Node>
    </BinaryTree>
    <BinaryTree type="DecisionTree" boostWeight="1.0000000000000000e+00" itree="677">
      <Node pos="s" depth="0" NCoef="0" IVar="1" Cut="1.8991192187500000e+05" cType="1" res="4.5133471488952637e-01" rms="4.9762606620788574e-01" purity="4.5133474469184875e-01" nType="0">
        <Node pos="l" depth="1" NCoef="0" IVar="-1" Cut="0.0000000000000000e+00" cType="1" res="2.3392856746795587e-05" rms="4.2608895897865295e-01" purity="7.3648005723953247e-01" nType="-99"/>
        <Node pos="r" depth="1" NCoef="0" IVar="4" Cut="7.6838750000000000e+04" cType="1" res="3.9998009800910950e-01" rms="4.8989388346672058e-01" purity="3.9998009800910950e-01" nType="0">
          <Node pos="l" depth="2" NCoef="0" IVar="-1" Cut="0.0000000000000000e+00" cType="1" res="4.1581349796615541e-04" rms="3.6899250745773315e-01" purity="3.5513463616371155e-01" nType="-99"/>
          <Node pos="r" depth="2" NCoef="0" IVar="-1" Cut="0.0000000000000000e+00" cType="1" res="1.1285963701084256e-03" rms="2.9165697097778320e-01" purity="9.0357434749603271e-01" nType="-99"/>
        </Node>
      </Node>
    </BinaryTree>
    <BinaryTree type="DecisionTree" boostWeight="1.0000000000000000e+00" itree="678">
      <Node pos="s" depth="0" NCoef="0" IVar="4" Cut="7.6838750000000000e+04" cType="1" res="3.9223891496658325e-01" rms="4.8858696222305298e-01" purity="3.9256858825683594e-01" nType="0">
        <Node pos="l" depth="1" NCoef="0" IVar="0" Cut="4.0000000000000000e+00" cType="1" res="6.6575817763805389e-03" rms="3.6539453268051147e-01" purity="3.4534338116645813e-01" nType="0">
          <Node pos="l" depth="2" NCoef="0" IVar="-1" Cut="0.0000000000000000e+00" cType="1" res="1.2657715706154704e-04" rms="3.7019702792167664e-01" purity="3.1484118103981018e-01" nType="-99"/>
          <Node pos="r" depth="2" NCoef="0" IVar="-1" Cut="0.0000000000000000e+00" cType="1" res="3.7575927563011646e-03" rms="2.3939397931098938e-01" purity="9.3945562839508057e-01" nType="-99"/>
        </Node>
        <Node pos="r" depth="1" NCoef="0" IVar="-1" Cut="0.0000000000000000e+00" cType="1" res="1.0121632367372513e-03" rms="2.9342928528785706e-01" purity="9.0304350852966309e-01" nType="-99"/>
      </Node>
    </BinaryTree>
    <BinaryTree type="DecisionTree" boostWeight="1.0000000000000000e+00" itree="679">
      <Node pos="s" depth="0" NCoef="0" IVar="4" Cut="7.6838750000000000e+04" cType="1" res="3.8268071413040161e-01" rms="4.8604133725166321e-01" purity="3.8268071413040161e-01" nType="0">
        <Node pos="l" depth="1" NCoef="0" IVar="3" Cut="9.8787085937500000e+04" cType="1" res="3.3751094341278076e-01" rms="4.7313821315765381e-01" purity="3.3777344226837158e-01" nType="0">
          <Node pos="l" depth="2" NCoef="0" IVar="-1" Cut="0.0000000000000000e+00" cType="1" res="-1.4220571028999984e-04" rms="3.5798397660255432e-01" purity="3.3251702785491943e-01" nType="-99"/>
          <Node pos="r" depth="2" NCoef="0" IVar="-1" Cut="0.0000000000000000e+00" cType="1" res="1.6393872210755944e-03" rms="4.1918459534645081e-01" purity="4.5706352591514587e-01" nType="-99"/>
        </Node>
        <Node pos="r" depth="1" NCoef="0" IVar="-1" Cut="0.0000000000000000e+00" cType="1" res="1.0772952809929848e-03" rms="2.9273796081542969e-01" purity="9.0003097057342529e-01" nType="-99"/>
      </Node>
    </BinaryTree>
    <BinaryTree type="DecisionTree" boostWeight="1.0000000000000000e+00" itree="680">
      <Node pos="s" depth="0" NCoef="0" IVar="2" Cut="8.9635492187500000e+04" cType="1" res="5.2535402774810791e-01" rms="4.9935674667358398e-01" purity="5.2535402774810791e-01" nType="0">
        <Node pos="l" depth="1" NCoef="0" IVar="2" Cut="8.9236281250000000e+04" cType="1" res="7.4971681833267212e-01" rms="4.3317607045173645e-01" purity="7.4971675872802734e-01" nType="0">
          <Node pos="l" depth="2" NCoef="0" IVar="-1" Cut="0.0000000000000000e+00" cType="1" res="5.6359398877248168e-04" rms="3.5366931557655334e-01" purity="4.0004575252532959e-01" nType="-99"/>
          <Node pos="r" depth="2" NCoef="0" IVar="-1" Cut="0.0000000000000000e+00" cType="1" res="1.6143432731041685e-05" rms="3.0733197927474976e-01" purity="9.1160374879837036e-01" nType="-99"/>
        </Node>
        <Node pos="r" depth="1" NCoef="0" IVar="4" Cut="6.4850910156250000e+04" cType="1" res="3.7907028198242188e-01" rms="4.8557665944099426e-01" purity="3.7961247563362122e-01" nType="0">
          <Node pos="l" depth="2" NCoef="0" IVar="-1" Cut="0.0000000000000000e+00" cType="1" res="-3.6216131411492825e-04" rms="3.5573124885559082e-01" purity="3.1939351558685303e-01" nType="-99"/>
          <Node pos="r" depth="2" NCoef="0" IVar="-1" Cut="0.0000000000000000e+00" cType="1" res="1.0410505346953869e-03" rms="3.3108860254287720e-01" purity="8.6959797143936157e-01" nType="-99"/>
        </Node>
      </Node>
    </BinaryTree>
    <BinaryTree type="DecisionTree" boostWeight="1.0000000000000000e+00" itree="681">
      <Node pos="s" depth="0" NCoef="0" IVar="4" Cut="7.6855453125000000e+04" cType="1" res="3.8133504986763000e-01" rms="4.8589038848876953e-01" purity="3.8150590658187866e-01" nType="0">
        <Node pos="l" depth="1" NCoef="0" IVar="0" Cut="1.0000000000000000e+00" cType="1" res="-7.0180660113692284e-03" rms="3.5413402318954468e-01" purity="3.3406418561935425e-01" nType="0">
          <Node pos="l" depth="2" NCoef="0" IVar="-1" Cut="0.0000000000000000e+00" cType="1" res="-3.7149798590689898e-03" rms="2.7347666025161743e-01" purity="9.6688784658908844e-02" nType="-99"/>
          <Node pos="r" depth="2" NCoef="0" IVar="-1" Cut="0.0000000000000000e+00" cType="1" res="5.6759599829092622e-04" rms="4.1286537051200867e-01" purity="5.5007749795913696e-01" nType="-99"/>
        </Node>
        <Node pos="r" depth="1" NCoef="0" IVar="-1" Cut="0.0000000000000000e+00" cType="1" res="1.0445857187733054e-03" rms="2.9617094993591309e-01" purity="9.0022242069244385e-01" nType="-99"/>
      </Node>
    </BinaryTree>
    <BinaryTree type="DecisionTree" boostWeight="1.0000000000000000e+00" itree="682">
      <Node pos="s" depth="0" NCoef="0" IVar="0" Cut="1.0000000000000000e+00" cType="1" res="3.1843444705009460e-01" rms="4.8696732521057129e-01" purity="6.1813670396804810e-01" nType="0">
        <Node pos="l" depth="1" NCoef="0" IVar="4" Cut="1.9682429687500000e+04" cType="1" res="6.3226276636123657e-01" rms="4.8218935728073120e-01" purity="6.3226276636123657e-01" nType="0">
          <Node pos="l" depth="2" NCoef="0" IVar="-1" Cut="0.0000000000000000e+00" cType="1" res="2.7964289765805006e-03" rms="2.1047313511371613e-01" purity="4.6562138944864273e-02" nType="-99"/>
          <Node pos="r" depth="2" NCoef="0" IVar="-1" Cut="0.0000000000000000e+00" cType="1" res="1.7437861970392987e-05" rms="4.2013266682624817e-01" purity="8.1604832410812378e-01" nType="-99"/>
        </Node>
        <Node pos="r" depth="1" NCoef="0" IVar="4" Cut="4.2143160156250000e+04" cType="1" res="5.8947950601577759e-01" rms="4.9228587746620178e-01" purity="5.8983153104782104e-01" nType="0">
          <Node pos="l" depth="2" NCoef="0" IVar="-1" Cut="0.0000000000000000e+00" cType="1" res="4.8018337110988796e-04" rms="4.1429153084754944e-01" purity="4.9162518978118896e-01" nType="-99"/>
          <Node pos="r" depth="2" NCoef="0" IVar="-1" Cut="0.0000000000000000e+00" cType="1" res="1.1760058114305139e-03" rms="3.6863228678703308e-01" purity="8.1357777118682861e-01" nType="-99"/>
        </Node>
      </Node>
    </BinaryTree>
    <BinaryTree type="DecisionTree" boostWeight="1.0000000000000000e+00" itree="683">
      <Node pos="s" depth="0" NCoef="0" IVar="1" Cut="2.0203215625000000e+05" cType="1" res="1.7814794709124451e+32" rms="0.0000000000000000e+00" purity="4.4945818185806274e-01" nType="0">
        <Node pos="l" depth="1" NCoef="0" IVar="2" Cut="8.9708898437500000e+04" cType="1" res="4.8068991303443909e-01" rms="5.2690422534942627e-01" purity="5.5140990018844604e-01" nType="0">
          <Node pos="l" depth="2" NCoef="0" IVar="-1" Cut="0.0000000000000000e+00" cType="1" res="2.3482225515181199e-05" rms="3.9874783158302307e-01" purity="7.9461562633514404e-01" nType="-99"/>
          <Node pos="r" depth="2" NCoef="0" IVar="-1" Cut="0.0000000000000000e+00" cType="1" res="-4.6737874072277918e-05" rms="3.2874894142150879e-01" purity="2.3829147219657898e-01" nType="-99"/>
        </Node>
        <Node pos="r" depth="1" NCoef="0" IVar="4" Cut="5.3242925781250000e+04" cType="1" res="4.1613698005676270e-01" rms="4.9313914775848389e-01" purity="4.1657242178916931e-01" nType="0">
          <Node pos="l" depth="2" NCoef="0" IVar="-1" Cut="0.0000000000000000e+00" cType="1" res="-2.5536946486681700e-04" rms="3.6013180017471313e-01" purity="3.2790547609329224e-01" nType="-99"/>
          <Node pos="r" depth="2" NCoef="0" IVar="-1" Cut="0.0000000000000000e+00" cType="1" res="9.3753112014383078e-04" rms="3.4959709644317627e-01" purity="8.3985847234725952e-01" nType="-99"/>
        </Node>
      </Node>
    </BinaryTree>
    <BinaryTree type="DecisionTree" boostWeight="1.0000000000000000e+00" itree="684">
      <Node pos="s" depth="0" NCoef="0" IVar="1" Cut="2.0309048437500000e+05" cType="1" res="4.4265207648277283e-01" rms="4.9676603078842163e-01" purity="4.4281288981437683e-01" nType="0">
        <Node pos="l" depth="1" NCoef="0" IVar="2" Cut="8.9620320312500000e+04" cType="1" res="4.7478467226028442e-01" rms="5.2250611782073975e-01" purity="5.4411673545837402e-01" nType="0">
          <Node pos="l" depth="2" NCoef="0" IVar="-1" Cut="0.0000000000000000e+00" cType="1" res="2.3023976609692909e-05" rms="4.0064534544944763e-01" purity="7.9574984312057495e-01" nType="-99"/>
          <Node pos="r" depth="2" NCoef="0" IVar="-1" Cut="0.0000000000000000e+00" cType="1" res="1.1802605586126447e-03" rms="3.3948817849159241e-01" purity="2.4142469465732574e-01" nType="-99"/>
        </Node>
        <Node pos="r" depth="1" NCoef="0" IVar="4" Cut="3.7077156250000000e+04" cType="1" res="4.0881511569023132e-01" rms="4.9170351028442383e-01" purity="4.0902963280677795e-01" nType="0">
          <Node pos="l" depth="2" NCoef="0" IVar="-1" Cut="0.0000000000000000e+00" cType="1" res="-9.0378534514456987e-04" rms="3.3918973803520203e-01" purity="2.8030836582183838e-01" nType="-99"/>
          <Node pos="r" depth="2" NCoef="0" IVar="-1" Cut="0.0000000000000000e+00" cType="1" res="4.7976360656321049e-04" rms="3.9630344510078430e-01" purity="7.2237932682037354e-01" nType="-99"/>
        </Node>
      </Node>
    </BinaryTree>
    <BinaryTree type="DecisionTree" boostWeight="1.0000000000000000e+00" itree="685">
      <Node pos="s" depth="0" NCoef="0" IVar="5" Cut="1.6601217187500000e+05" cType="1" res="4.7939896583557129e-01" rms="4.9994748830795288e-01" purity="4.7977086901664734e-01" nType="0">
        <Node pos="l" depth="1" NCoef="0" IVar="2" Cut="9.0498851562500000e+04" cType="1" res="7.0559895038604736e-01" rms="4.5577305555343628e-01" purity="7.0559895038604736e-01" nType="0">
          <Node pos="l" depth="2" NCoef="0" IVar="-1" Cut="0.0000000000000000e+00" cType="1" res="1.3647391824633814e-05" rms="3.1675100326538086e-01" purity="8.5133880376815796e-01" nType="-99"/>
          <Node pos="r" depth="2" NCoef="0" IVar="-1" Cut="0.0000000000000000e+00" cType="1" res="-4.2294240556657314e-03" rms="2.1109013259410858e-01" purity="6.2507368624210358e-02" nType="-99"/>
        </Node>
        <Node pos="r" depth="1" NCoef="0" IVar="4" Cut="7.6838750000000000e+04" cType="1" res="4.1139256954193115e-01" rms="4.9257734417915344e-01" purity="4.1187623143196106e-01" nType="0">
          <Node pos="l" depth="2" NCoef="0" IVar="-1" Cut="0.0000000000000000e+00" cType="1" res="-1.6121928638312966e-04" rms="3.6797970533370972e-01" purity="3.5986733436584473e-01" nType="-99"/>
          <Node pos="r" depth="2" NCoef="0" IVar="-1" Cut="0.0000000000000000e+00" cType="1" res="1.1086240410804749e-03" rms="2.9697513580322266e-01" purity="8.9973771572113037e-01" nType="-99"/>
        </Node>
      </Node>
    </BinaryTree>
    <BinaryTree type="DecisionTree" boostWeight="1.0000000000000000e+00" itree="686">
      <Node pos="s" depth="0" NCoef="0" IVar="1" Cut="2.0203215625000000e+05" cType="1" res="5.2447849512100220e-01" rms="4.9951761960983276e-01" purity="5.2459555864334106e-01" nType="0">
        <Node pos="l" depth="1" NCoef="0" IVar="2" Cut="8.9670617187500000e+04" cType="1" res="2.8190645575523376e-01" rms="4.6471136808395386e-01" purity="7.3726654052734375e-01" nType="0">
          <Node pos="l" depth="2" NCoef="0" IVar="-1" Cut="0.0000000000000000e+00" cType="1" res="1.6124340618262067e-05" rms="2.8312510251998901e-01" purity="9.1127198934555054e-01" nType="-99"/>
          <Node pos="r" depth="2" NCoef="0" IVar="-1" Cut="0.0000000000000000e+00" cType="1" res="4.2894127545878291e-04" rms="3.2894104719161987e-01" purity="2.3596660792827606e-01" nType="-99"/>
        </Node>
        <Node pos="r" depth="1" NCoef="0" IVar="4" Cut="7.6838750000000000e+04" cType="1" res="4.1099315881729126e-01" rms="4.9219635128974915e-01" purity="4.1117259860038757e-01" nType="0">
          <Node pos="l" depth="2" NCoef="0" IVar="-1" Cut="0.0000000000000000e+00" cType="1" res="-1.2874495587311685e-04" rms="3.6447355151176453e-01" purity="3.5858210921287537e-01" nType="-99"/>
          <Node pos="r" depth="2" NCoef="0" IVar="-1" Cut="0.0000000000000000e+00" cType="1" res="1.1151203652843833e-03" rms="2.8914806246757507e-01" purity="9.0757197141647339e-01" nType="-99"/>
        </Node>
      </Node>
    </BinaryTree>
    <BinaryTree type="DecisionTree" boostWeight="1.0000000000000000e+00" itree="687">
      <Node pos="s" depth="0" NCoef="0" IVar="1" Cut="2.0203215625000000e+05" cType="1" res="4.4009384512901306e-01" rms="4.9651423096656799e-01" purity="4.4028007984161377e-01" nType="0">
        <Node pos="l" depth="1" NCoef="0" IVar="2" Cut="8.9600773437500000e+04" cType="1" res="4.9021652340888977e-01" rms="5.1818102598190308e-01" purity="5.5125612020492554e-01" nType="0">
          <Node pos="l" depth="2" NCoef="0" IVar="-1" Cut="0.0000000000000000e+00" cType="1" res="2.3457190764020197e-05" rms="3.9380821585655212e-01" purity="7.9932200908660889e-01" nType="-99"/>
          <Node pos="r" depth="2" NCoef="0" IVar="-1" Cut="0.0000000000000000e+00" cType="1" res="-5.4608077334705740e-05" rms="3.3046978712081909e-01" purity="2.2960031032562256e-01" nType="-99"/>
        </Node>
        <Node pos="r" depth="1" NCoef="0" IVar="4" Cut="3.7077156250000000e+04" cType="1" res="4.0439468622207642e-01" rms="4.9092945456504822e-01" purity="4.0464073419570923e-01" nType="0">
          <Node pos="l" depth="2" NCoef="0" IVar="-1" Cut="0.0000000000000000e+00" cType="1" res="-8.3550490671768785e-04" rms="3.3969244360923767e-01" purity="2.7565765380859375e-01" nType="-99"/>
          <Node pos="r" depth="2" NCoef="0" IVar="-1" Cut="0.0000000000000000e+00" cType="1" res="8.2983321044594049e-04" rms="3.9988645911216736e-01" purity="7.2015637159347534e-01" nType="-99"/>
        </Node>
      </Node>
    </BinaryTree>
    <BinaryTree type="DecisionTree" boostWeight="1.0000000000000000e+00" itree="688">
      <Node pos="s" depth="0" NCoef="0" IVar="5" Cut="1.6914089062500000e+05" cType="1" res="4.8571377992630005e-01" rms="5.0014871358871460e-01" purity="4.8630049824714661e-01" nType="0">
        <Node pos="l" depth="1" NCoef="0" IVar="3" Cut="9.0561210937500000e+04" cType="1" res="6.7196857929229736e-01" rms="4.6949633955955505e-01" purity="6.7196857929229736e-01" nType="0">
          <Node pos="l" depth="2" NCoef="0" IVar="-1" Cut="0.0000000000000000e+00" cType="1" res="-1.1778915300965309e-02" rms="1.9380292296409607e-01" purity="4.6316411346197128e-02" nType="-99"/>
          <Node pos="r" depth="2" NCoef="0" IVar="-1" Cut="0.0000000000000000e+00" cType="1" res="1.3618084267363884e-05" rms="3.1644096970558167e-01" purity="8.5151141881942749e-01" nType="-99"/>
        </Node>
        <Node pos="r" depth="1" NCoef="0" IVar="4" Cut="4.1395703125000000e+04" cType="1" res="4.2630892992019653e-01" rms="4.9501007795333862e-01" purity="4.2708277702331543e-01" nType="0">
          <Node pos="l" depth="2" NCoef="0" IVar="-1" Cut="0.0000000000000000e+00" cType="1" res="-3.3135860576294363e-05" rms="3.6121246218681335e-01" purity="3.1307211518287659e-01" nType="-99"/>
          <Node pos="r" depth="2" NCoef="0" IVar="-1" Cut="0.0000000000000000e+00" cType="1" res="5.5573164718225598e-04" rms="3.8717302680015564e-01" purity="7.6018315553665161e-01" nType="-99"/>
        </Node>
      </Node>
    </BinaryTree>
    <BinaryTree type="DecisionTree" boostWeight="1.0000000000000000e+00" itree="689">
      <Node pos="s" depth="0" NCoef="0" IVar="3" Cut="8.9426226562500000e+04" cType="1" res="0.0000000000000000e+00" rms="0.0000000000000000e+00" purity="5.9652751684188843e-01" nType="0">
        <Node pos="l" depth="1" NCoef="0" IVar="3" Cut="8.8492664062500000e+04" cType="1" res="7.1232843399047852e-01" rms="4.5278760790824890e-01" purity="7.1253222227096558e-01" nType="0">
          <Node pos="l" depth="2" NCoef="0" IVar="-1" Cut="0.0000000000000000e+00" cType="1" res="3.0987925129011273e-04" rms="3.4876459836959839e-01" purity="3.8367497920989990e-01" nType="-99"/>
          <Node pos="r" depth="2" NCoef="0" IVar="-1" Cut="0.0000000000000000e+00" cType="1" res="2.1251809812383726e-05" rms="3.3001884818077087e-01" purity="9.0032947063446045e-01" nType="-99"/>
        </Node>
        <Node pos="r" depth="1" NCoef="0" IVar="5" Cut="5.6641762500000000e+05" cType="1" res="0.0000000000000000e+00" rms="0.0000000000000000e+00" purity="3.7546202540397644e-01" nType="0">
          <Node pos="l" depth="2" NCoef="0" IVar="-1" Cut="0.0000000000000000e+00" cType="1" res="-6.0579297132790089e-04" rms="3.5963237285614014e-01" purity="3.0097302794456482e-01" nType="-99"/>
          <Node pos="r" depth="2" NCoef="0" IVar="-1" Cut="0.0000000000000000e+00" cType="1" res="2.2057956084609032e-03" rms="3.1049159169197083e-01" purity="8.5553735494613647e-01" nType="-99"/>
        </Node>
      </Node>
    </BinaryTree>
    <BinaryTree type="DecisionTree" boostWeight="1.0000000000000000e+00" itree="690">
      <Node pos="s" depth="0" NCoef="0" IVar="3" Cut="9.5950898437500000e+04" cType="1" res="4.9088621139526367e-01" rms="5.0023370981216431e-01" purity="4.9149423837661743e-01" nType="0">
        <Node pos="l" depth="1" NCoef="0" IVar="4" Cut="5.3561335937500000e+04" cType="1" res="3.9514490962028503e-01" rms="4.8925307393074036e-01" purity="3.9572647213935852e-01" nType="0">
          <Node pos="l" depth="2" NCoef="0" IVar="-1" Cut="0.0000000000000000e+00" cType="1" res="-7.5040356023237109e-05" rms="3.5146063566207886e-01" purity="3.0026593804359436e-01" nType="-99"/>
          <Node pos="r" depth="2" NCoef="0" IVar="-1" Cut="0.0000000000000000e+00" cType="1" res="3.2848122646100819e-04" rms="3.3568289875984192e-01" purity="8.5119926929473877e-01" nType="-99"/>
        </Node>
        <Node pos="r" depth="1" NCoef="0" IVar="3" Cut="9.6695296875000000e+04" cType="1" res="7.6542854309082031e-01" rms="4.2373067140579224e-01" purity="7.6592826843261719e-01" nType="0">
          <Node pos="l" depth="2" NCoef="0" IVar="-1" Cut="0.0000000000000000e+00" cType="1" res="1.3670357475348283e-05" rms="3.0831590294837952e-01" purity="9.1580116748809814e-01" nType="-99"/>
          <Node pos="r" depth="2" NCoef="0" IVar="-1" Cut="0.0000000000000000e+00" cType="1" res="3.6688198451884091e-04" rms="3.7972834706306458e-01" purity="4.2309886217117310e-01" nType="-99"/>
        </Node>
      </Node>
    </BinaryTree>
    <BinaryTree type="DecisionTree" boostWeight="1.0000000000000000e+00" itree="691">
      <Node pos="s" depth="0" NCoef="0" IVar="2" Cut="9.1808140625000000e+04" cType="1" res="4.7169610857963562e-01" rms="4.9919825792312622e-01" purity="4.7169610857963562e-01" nType="0">
        <Node pos="l" depth="1" NCoef="0" IVar="0" Cut="2.0000000000000000e+00" cType="1" res="8.8853873312473297e-03" rms="3.5433396697044373e-01" purity="3.8321217894554138e-01" nType="0">
          <Node pos="l" depth="2" NCoef="0" IVar="-1" Cut="0.0000000000000000e+00" cType="1" res="-1.6070653509814292e-04" rms="3.5217329859733582e-01" purity="2.2267420589923859e-01" nType="-99"/>
          <Node pos="r" depth="2" NCoef="0" IVar="-1" Cut="0.0000000000000000e+00" cType="1" res="5.4010143503546715e-04" rms="3.5823184251785278e-01" purity="8.3582121133804321e-01" nType="-99"/>
        </Node>
        <Node pos="r" depth="1" NCoef="0" IVar="2" Cut="9.2002234375000000e+04" cType="1" res="5.9985399246215820e-01" rms="4.9005773663520813e-01" purity="6.0020220279693604e-01" nType="0">
          <Node pos="l" depth="2" NCoef="0" IVar="-1" Cut="0.0000000000000000e+00" cType="1" res="1.9761968360398896e-05" rms="3.6662662029266357e-01" purity="8.7937349081039429e-01" nType="-99"/>
          <Node pos="r" depth="2" NCoef="0" IVar="-1" Cut="0.0000000000000000e+00" cType="1" res="7.2760146576911211e-04" rms="3.6880484223365784e-01" purity="3.9804425835609436e-01" nType="-99"/>
        </Node>
      </Node>
    </BinaryTree>
    <BinaryTree type="DecisionTree" boostWeight="1.0000000000000000e+00" itree="692">
      <Node pos="s" depth="0" NCoef="0" IVar="4" Cut="3.7131000000000000e+04" cType="1" res="3.7835338711738586e-01" rms="4.8545578122138977e-01" purity="3.7902888655662537e-01" nType="0">
        <Node pos="l" depth="1" NCoef="0" IVar="4" Cut="2.3212289062500000e+04" cType="1" res="2.5543481111526489e-01" rms="4.3675193190574646e-01" purity="2.5613838434219360e-01" nType="0">
          <Node pos="l" depth="2" NCoef="0" IVar="-1" Cut="0.0000000000000000e+00" cType="1" res="6.0160877183079720e-04" rms="3.0761319398880005e-01" purity="2.0675167441368103e-01" nType="-99"/>
          <Node pos="r" depth="2" NCoef="0" IVar="-1" Cut="0.0000000000000000e+00" cType="1" res="-1.9116483163088560e-03" rms="3.9575019478797913e-01" purity="3.7664872407913208e-01" nType="-99"/>
        </Node>
        <Node pos="r" depth="1" NCoef="0" IVar="4" Cut="7.6424617187500000e+04" cType="1" res="7.0464742183685303e-01" rms="4.5766139030456543e-01" purity="7.0675289630889893e-01" nType="0">
          <Node pos="l" depth="2" NCoef="0" IVar="-1" Cut="0.0000000000000000e+00" cType="1" res="5.5622280342504382e-04" rms="4.2680838704109192e-01" purity="6.3476836681365967e-01" nType="-99"/>
          <Node pos="r" depth="2" NCoef="0" IVar="-1" Cut="0.0000000000000000e+00" cType="1" res="1.0140639496967196e-03" rms="3.0991706252098083e-01" purity="8.8976305723190308e-01" nType="-99"/>
        </Node>
      </Node>
    </BinaryTree>
    <BinaryTree type="DecisionTree" boostWeight="1.0000000000000000e+00" itree="693">
      <Node pos="s" depth="0" NCoef="0" IVar="5" Cut="1.6215667187500000e+05" cType="1" res="4.7673168778419495e-01" rms="4.9986433982849121e-01" purity="4.7713744640350342e-01" nType="0">
        <Node pos="l" depth="1" NCoef="0" IVar="-1" Cut="0.0000000000000000e+00" cType="1" res="1.3676683010999113e-05" rms="3.8113501667976379e-01" purity="7.5255244970321655e-01" nType="-99"/>
        <Node pos="r" depth="1" NCoef="0" IVar="4" Cut="8.2556148437500000e+04" cType="1" res="3.9980778098106384e-01" rms="4.9038806557655334e-01" purity="4.0032675862312317e-01" nType="0">
          <Node pos="l" depth="2" NCoef="0" IVar="-1" Cut="0.0000000000000000e+00" cType="1" res="-1.3808891526423395e-04" rms="3.6524450778961182e-01" purity="3.6072418093681335e-01" nType="-99"/>
          <Node pos="r" depth="2" NCoef="0" IVar="-1" Cut="0.0000000000000000e+00" cType="1" res="1.0562299285084009e-03" rms="2.9344549775123596e-01" purity="9.0290164947509766e-01" nType="-99"/>
        </Node>
      </Node>
    </BinaryTree>
    <BinaryTree type="DecisionTree" boostWeight="1.0000000000000000e+00" itree="694">
      <Node pos="s" depth="0" NCoef="0" IVar="2" Cut="9.1778476562500000e+04" cType="1" res="4.6978318691253662e-01" rms="4.9908611178398132e-01" purity="4.6978318691253662e-01" nType="0">
        <Node pos="l" depth="1" NCoef="0" IVar="4" Cut="7.0948406250000000e+04" cType="1" res="3.8739529252052307e-01" rms="4.8715519905090332e-01" purity="3.8739529252052307e-01" nType="0">
          <Node pos="l" depth="2" NCoef="0" IVar="-1" Cut="0.0000000000000000e+00" cType="1" res="9.9816992587875575e-05" rms="3.6222323775291443e-01" purity="3.3454099297523499e-01" nType="-99"/>
          <Node pos="r" depth="2" NCoef="0" IVar="-1" Cut="0.0000000000000000e+00" cType="1" res="1.0076385224238038e-03" rms="3.0588340759277344e-01" purity="8.8872122764587402e-01" nType="-99"/>
        </Node>
        <Node pos="r" depth="1" NCoef="0" IVar="2" Cut="9.1970023437500000e+04" cType="1" res="5.8858311176300049e-01" rms="4.9237820506095886e-01" purity="5.8886635303497314e-01" nType="0">
          <Node pos="l" depth="2" NCoef="0" IVar="-1" Cut="0.0000000000000000e+00" cType="1" res="1.9784471078310162e-05" rms="3.6332553625106812e-01" purity="8.7725055217742920e-01" nType="-99"/>
          <Node pos="r" depth="2" NCoef="0" IVar="-1" Cut="0.0000000000000000e+00" cType="1" res="1.0978242789860815e-04" rms="3.5954895615577698e-01" purity="3.8150137662887573e-01" nType="-99"/>
        </Node>
      </Node>
    </BinaryTree>
    <BinaryTree type="DecisionTree" boostWeight="1.0000000000000000e+00" itree="695">
      <Node pos="s" depth="0" NCoef="0" IVar="5" Cut="5.1486931250000000e+05" cType="1" res="3.8386237621307373e-01" rms="4.8632505536079407e-01" purity="3.8386237621307373e-01" nType="0">
        <Node pos="l" depth="1" NCoef="0" IVar="3" Cut="9.8503437500000000e+04" cType="1" res="3.0195736885070801e-01" rms="4.5910686254501343e-01" purity="3.0195736885070801e-01" nType="0">
          <Node pos="l" depth="2" NCoef="0" IVar="-1" Cut="0.0000000000000000e+00" cType="1" res="-5.1136926049366593e-04" rms="3.5602411627769470e-01" purity="2.9557794332504272e-01" nType="-99"/>
          <Node pos="r" depth="2" NCoef="0" IVar="-1" Cut="0.0000000000000000e+00" cType="1" res="1.4559021219611168e-03" rms="4.0702977776527405e-01" purity="4.3386691808700562e-01" nType="-99"/>
        </Node>
        <Node pos="r" depth="1" NCoef="0" IVar="4" Cut="5.3210050781250000e+04" cType="1" res="8.3729720115661621e-01" rms="3.6909431219100952e-01" purity="8.3729720115661621e-01" nType="0">
          <Node pos="l" depth="2" NCoef="0" IVar="-1" Cut="0.0000000000000000e+00" cType="1" res="1.8487541237846017e-03" rms="3.6321189999580383e-01" purity="7.7945899963378906e-01" nType="-99"/>
          <Node pos="r" depth="2" NCoef="0" IVar="-1" Cut="0.0000000000000000e+00" cType="1" res="1.3534231111407280e-03" rms="2.4597790837287903e-01" purity="9.3303155899047852e-01" nType="-99"/>
        </Node>
      </Node>
    </BinaryTree>
    <BinaryTree type="DecisionTree" boostWeight="1.0000000000000000e+00" itree="696">
      <Node pos="s" depth="0" NCoef="0" IVar="4" Cut="8.2774625000000000e+04" cType="1" res="3.8384401798248291e-01" rms="4.8632067441940308e-01" purity="3.8384398818016052e-01" nType="0">
        <Node pos="l" depth="1" NCoef="0" IVar="0" Cut="4.0000000000000000e+00" cType="1" res="-1.8131370889022946e-03" rms="3.5759001970291138e-01" purity="3.4446585178375244e-01" nType="0">
          <Node pos="l" depth="2" NCoef="0" IVar="-1" Cut="0.0000000000000000e+00" cType="1" res="-4.1994499042630196e-04" rms="3.6286947131156921e-01" purity="3.0895283818244934e-01" nType="-99"/>
          <Node pos="r" depth="2" NCoef="0" IVar="-1" Cut="0.0000000000000000e+00" cType="1" res="5.0376524450257421e-04" rms="2.3093523085117340e-01" purity="9.4461739063262939e-01" nType="-99"/>
        </Node>
        <Node pos="r" depth="1" NCoef="0" IVar="-1" Cut="0.0000000000000000e+00" cType="1" res="1.2619843473657966e-03" rms="2.8229936957359314e-01" purity="9.1440403461456299e-01" nType="-99"/>
      </Node>
    </BinaryTree>
    <BinaryTree type="DecisionTree" boostWeight="1.0000000000000000e+00" itree="697">
      <Node pos="s" depth="0" NCoef="0" IVar="4" Cut="7.8737789062500000e+04" cType="1" res="3.8102090358734131e-01" rms="4.8589015007019043e-01" purity="3.8134399056434631e-01" nType="0">
        <Node pos="l" depth="1" NCoef="0" IVar="0" Cut="3.0000000000000000e+00" cType="1" res="-4.2240442708134651e-03" rms="3.5790148377418518e-01" purity="3.3600264787673950e-01" nType="0">
          <Node pos="l" depth="2" NCoef="0" IVar="-1" Cut="0.0000000000000000e+00" cType="1" res="-6.1644922243431211e-04" rms="3.6352533102035522e-01" purity="2.6466330885887146e-01" nType="-99"/>
          <Node pos="r" depth="2" NCoef="0" IVar="-1" Cut="0.0000000000000000e+00" cType="1" res="2.1632930729538202e-03" rms="3.0400970578193665e-01" purity="8.9525020122528076e-01" nType="-99"/>
        </Node>
        <Node pos="r" depth="1" NCoef="0" IVar="-1" Cut="0.0000000000000000e+00" cType="1" res="1.0263352887704968e-03" rms="2.9870337247848511e-01" purity="8.9893490076065063e-01" nType="-99"/>
      </Node>
    </BinaryTree>
    <BinaryTree type="DecisionTree" boostWeight="1.0000000000000000e+00" itree="698">
      <Node pos="s" depth="0" NCoef="0" IVar="2" Cut="8.9600773437500000e+04" cType="1" res="5.3123539686203003e-01" rms="4.9902340769767761e-01" purity="5.3123539686203003e-01" nType="0">
        <Node pos="l" depth="1" NCoef="0" IVar="2" Cut="8.9247875000000000e+04" cType="1" res="7.5414055585861206e-01" rms="4.3059560656547546e-01" purity="7.5414049625396729e-01" nType="0">
          <Node pos="l" depth="2" NCoef="0" IVar="-1" Cut="0.0000000000000000e+00" cType="1" res="4.3602395453490317e-04" rms="3.5392746329307556e-01" purity="3.9023095369338989e-01" nType="-99"/>
          <Node pos="r" depth="2" NCoef="0" IVar="-1" Cut="0.0000000000000000e+00" cType="1" res="1.6511896319570951e-05" rms="2.9519376158714294e-01" purity="9.2292296886444092e-01" nType="-99"/>
        </Node>
        <Node pos="r" depth="1" NCoef="0" IVar="4" Cut="3.7077156250000000e+04" cType="1" res="3.9026373624801636e-01" rms="4.8820772767066956e-01" purity="3.9082911610603333e-01" nType="0">
          <Node pos="l" depth="2" NCoef="0" IVar="-1" Cut="0.0000000000000000e+00" cType="1" res="-6.3673855038359761e-04" rms="3.3223256468772888e-01" purity="2.6621943712234497e-01" nType="-99"/>
          <Node pos="r" depth="2" NCoef="0" IVar="-1" Cut="0.0000000000000000e+00" cType="1" res="4.7931636800058186e-04" rms="3.9611586928367615e-01" purity="7.1049064397811890e-01" nType="-99"/>
        </Node>
      </Node>
    </BinaryTree>
    <BinaryTree type="DecisionTree" boostWeight="1.0000000000000000e+00" itree="699">
      <Node pos="s" depth="0" NCoef="0" IVar="2" Cut="8.9655289062500000e+04" cType="1" res="5.8879613876342773e-01" rms="4.9205207824707031e-01" purity="5.8879613876342773e-01" nType="0">
        <Node pos="l" depth="1" NCoef="0" IVar="2" Cut="8.9245539062500000e+04" cType="1" res="8.1545478105545044e-01" rms="3.8792821764945984e-01" purity="8.1545478105545044e-01" nType="0">
          <Node pos="l" depth="2" NCoef="0" IVar="-1" Cut="0.0000000000000000e+00" cType="1" res="7.1284113801084459e-05" rms="3.5344189405441284e-01" purity="3.6700981855392456e-01" nType="-99"/>
          <Node pos="r" depth="2" NCoef="0" IVar="-1" Cut="0.0000000000000000e+00" cType="1" res="1.5277595593943261e-05" rms="2.5716289877891541e-01" purity="9.4126576185226440e-01" nType="-99"/>
        </Node>
        <Node pos="r" depth="1" NCoef="0" IVar="0" Cut="2.0000000000000000e+00" cType="1" res="9.0030794963240623e-03" rms="3.5481312870979309e-01" purity="3.9088606834411621e-01" nType="0">
          <Node pos="l" depth="2" NCoef="0" IVar="-1" Cut="0.0000000000000000e+00" cType="1" res="-1.0581715469015762e-04" rms="3.5217657685279846e-01" purity="2.3249323666095734e-01" nType="-99"/>
          <Node pos="r" depth="2" NCoef="0" IVar="-1" Cut="0.0000000000000000e+00" cType="1" res="1.2893402017652988e-03" rms="3.6032730340957642e-01" purity="8.3421331644058228e-01" nType="-99"/>
        </Node>
      </Node>
    </BinaryTree>
    <BinaryTree type="DecisionTree" boostWeight="1.0000000000000000e+00" itree="700">
      <Node pos="s" depth="0" NCoef="0" IVar="3" Cut="8.9426531250000000e+04" cType="1" res="5.5576843023300171e-01" rms="4.9735128879547119e-01" purity="5.5640655755996704e-01" nType="0">
        <Node pos="l" depth="1" NCoef="0" IVar="3" Cut="8.8492898437500000e+04" cType="1" res="6.6231948137283325e-01" rms="4.7291901707649231e-01" purity="6.6273546218872070e-01" nType="0">
          <Node pos="l" depth="2" NCoef="0" IVar="-1" Cut="0.0000000000000000e+00" cType="1" res="1.4971774362493306e-04" rms="3.4667453169822693e-01" purity="3.9471301436424255e-01" nType="-99"/>
          <Node pos="r" depth="2" NCoef="0" IVar="-1" Cut="0.0000000000000000e+00" cType="1" res="2.2021089534973726e-05" rms="3.7083989381790161e-01" purity="8.6821025609970093e-01" nType="-99"/>
        </Node>
        <Node pos="r" depth="1" NCoef="0" IVar="3" Cut="9.8944546875000000e+04" cType="1" res="3.8460987806320190e-01" rms="4.8704418540000916e-01" purity="3.8513681292533875e-01" nType="0">
          <Node pos="l" depth="2" NCoef="0" IVar="-1" Cut="0.0000000000000000e+00" cType="1" res="5.6665063311811537e-05" rms="3.5717532038688660e-01" purity="3.7496018409729004e-01" nType="-99"/>
          <Node pos="r" depth="2" NCoef="0" IVar="-1" Cut="0.0000000000000000e+00" cType="1" res="1.5787244774401188e-03" rms="4.0626341104507446e-01" purity="5.1879739761352539e-01" nType="-99"/>
        </Node>
      </Node>
    </BinaryTree>
    <BinaryTree type="DecisionTree" boostWeight="1.0000000000000000e+00" itree="701">
      <Node pos="s" depth="0" NCoef="0" IVar="5" Cut="1.6799046875000000e+05" cType="1" res="4.8178318142890930e-01" rms="4.9966803193092346e-01" purity="4.8178315162658691e-01" nType="0">
        <Node pos="l" depth="1" NCoef="0" IVar="3" Cut="9.0282765625000000e+04" cType="1" res="0.0000000000000000e+00" rms="4.7791282218598400e+15" purity="6.8599510192871094e-01" nType="0">
          <Node pos="l" depth="2" NCoef="0" IVar="-1" Cut="0.0000000000000000e+00" cType="1" res="-1.2599272886291146e-03" rms="2.3423719406127930e-01" purity="7.8561402857303619e-02" nType="-99"/>
          <Node pos="r" depth="2" NCoef="0" IVar="-1" Cut="0.0000000000000000e+00" cType="1" res="1.3661717275681440e-05" rms="3.1597819924354553e-01" purity="8.5236167907714844e-01" nType="-99"/>
        </Node>
        <Node pos="r" depth="1" NCoef="0" IVar="4" Cut="3.7077156250000000e+04" cType="1" res="9.2278575897216797e+00" rms="0.0000000000000000e+00" purity="4.1740116477012634e-01" nType="0">
          <Node pos="l" depth="2" NCoef="0" IVar="-1" Cut="0.0000000000000000e+00" cType="1" res="-5.8388826437294483e-04" rms="3.4718468785285950e-01" purity="2.8706824779510498e-01" nType="-99"/>
          <Node pos="r" depth="2" NCoef="0" IVar="-1" Cut="0.0000000000000000e+00" cType="1" res="5.4017704678699374e-04" rms="3.9900857210159302e-01" purity="7.2336554527282715e-01" nType="-99"/>
        </Node>
      </Node>
    </BinaryTree>
    <BinaryTree type="DecisionTree" boostWeight="1.0000000000000000e+00" itree="702">
      <Node pos="s" depth="0" NCoef="0" IVar="3" Cut="8.9426281250000000e+04" cType="1" res="5.1516979932785034e-01" rms="4.9976983666419983e-01" purity="5.1516979932785034e-01" nType="0">
        <Node pos="l" depth="1" NCoef="0" IVar="3" Cut="8.8492546875000000e+04" cType="1" res="6.0949152708053589e-01" rms="4.8786434531211853e-01" purity="6.0949152708053589e-01" nType="0">
          <Node pos="l" depth="2" NCoef="0" IVar="-1" Cut="0.0000000000000000e+00" cType="1" res="8.1608588516246527e-05" rms="3.4552842378616333e-01" purity="3.8489270210266113e-01" nType="-99"/>
          <Node pos="r" depth="2" NCoef="0" IVar="-1" Cut="0.0000000000000000e+00" cType="1" res="2.1496032786672004e-05" rms="4.0798729658126831e-01" purity="8.3077841997146606e-01" nType="-99"/>
        </Node>
        <Node pos="r" depth="1" NCoef="0" IVar="5" Cut="5.8886825000000000e+05" cType="1" res="3.8268300890922546e-01" rms="4.8643589019775391e-01" purity="3.8306617736816406e-01" nType="0">
          <Node pos="l" depth="2" NCoef="0" IVar="-1" Cut="0.0000000000000000e+00" cType="1" res="-1.0271604696754366e-04" rms="3.6581650376319885e-01" purity="3.1473299860954285e-01" nType="-99"/>
          <Node pos="r" depth="2" NCoef="0" IVar="-1" Cut="0.0000000000000000e+00" cType="1" res="1.8941191956400871e-03" rms="3.0826035141944885e-01" purity="8.6381781101226807e-01" nType="-99"/>
        </Node>
      </Node>
    </BinaryTree>
    <BinaryTree type="DecisionTree" boostWeight="1.0000000000000000e+00" itree="703">
      <Node pos="s" depth="0" NCoef="0" IVar="0" Cut="1.0000000000000000e+00" cType="1" res="2.1766023337841034e-01" rms="4.7155413031578064e-01" purity="5.4133534431457520e-01" nType="0">
        <Node pos="l" depth="1" NCoef="0" IVar="4" Cut="1.9498763671875000e+04" cType="1" res="5.1017236709594727e-01" rms="4.9989795684814453e-01" purity="5.1017379760742188e-01" nType="0">
          <Node pos="l" depth="2" NCoef="0" IVar="-1" Cut="0.0000000000000000e+00" cType="1" res="3.3400177489966154e-03" rms="2.1248315274715424e-01" purity="4.7325327992439270e-02" nType="-99"/>
          <Node pos="r" depth="2" NCoef="0" IVar="-1" Cut="0.0000000000000000e+00" cType="1" res="1.5649588021915406e-05" rms="4.7410807013511658e-01" purity="7.2747224569320679e-01" nType="-99"/>
        </Node>
        <Node pos="r" depth="1" NCoef="0" IVar="5" Cut="6.6596887500000000e+05" cType="1" res="5.8850979804992676e-01" rms="4.9210366606712341e-01" purity="5.8850985765457153e-01" nType="0">
          <Node pos="l" depth="2" NCoef="0" IVar="-1" Cut="0.0000000000000000e+00" cType="1" res="4.1639892151579261e-04" rms="4.1772419214248657e-01" purity="5.2942705154418945e-01" nType="-99"/>
          <Node pos="r" depth="2" NCoef="0" IVar="-1" Cut="0.0000000000000000e+00" cType="1" res="2.6166834868490696e-03" rms="2.8740125894546509e-01" purity="8.9585685729980469e-01" nType="-99"/>
        </Node>
      </Node>
    </BinaryTree>
    <BinaryTree type="DecisionTree" boostWeight="1.0000000000000000e+00" itree="704">
      <Node pos="s" depth="0" NCoef="0" IVar="5" Cut="1.5990256250000000e+05" cType="1" res="5.3785443305969238e-01" rms="4.9874004721641541e-01" purity="5.3807061910629272e-01" nType="0">
        <Node pos="l" depth="1" NCoef="0" IVar="-1" Cut="0.0000000000000000e+00" cType="1" res="1.3632285117637366e-05" rms="3.6935639381408691e-01" purity="7.7108460664749146e-01" nType="-99"/>
        <Node pos="r" depth="1" NCoef="0" IVar="2" Cut="9.1836718750000000e+04" cType="1" res="4.8486354947090149e-01" rms="4.9998512864112854e-01" purity="4.8512887954711914e-01" nType="0">
          <Node pos="l" depth="2" NCoef="0" IVar="-1" Cut="0.0000000000000000e+00" cType="1" res="1.1951994383707643e-04" rms="3.6103418469429016e-01" purity="4.0058150887489319e-01" nType="-99"/>
          <Node pos="r" depth="2" NCoef="0" IVar="-1" Cut="0.0000000000000000e+00" cType="1" res="1.9503186194924638e-05" rms="4.9699437618255615e-01" purity="6.0765576362609863e-01" nType="-99"/>
        </Node>
      </Node>
    </BinaryTree>
    <BinaryTree type="DecisionTree" boostWeight="1.0000000000000000e+00" itree="705">
      <Node pos="s" depth="0" NCoef="0" IVar="0" Cut="4.0000000000000000e+00" cType="1" res="2.9146820306777954e-03" rms="3.5250791907310486e-01" purity="3.8052326440811157e-01" nType="0">
        <Node pos="l" depth="1" NCoef="0" IVar="4" Cut="7.8767250000000000e+04" cType="1" res="3.4585547447204590e-01" rms="4.7564637660980225e-01" purity="3.4585547447204590e-01" nType="0">
          <Node pos="l" depth="2" NCoef="0" IVar="-1" Cut="0.0000000000000000e+00" cType="1" res="-4.2196156573481858e-04" rms="3.6018508672714233e-01" purity="3.0636137723922729e-01" nType="-99"/>
          <Node pos="r" depth="2" NCoef="0" IVar="-1" Cut="0.0000000000000000e+00" cType="1" res="1.0532067390158772e-03" rms="3.1384107470512390e-01" purity="8.8757634162902832e-01" nType="-99"/>
        </Node>
        <Node pos="r" depth="1" NCoef="0" IVar="-1" Cut="0.0000000000000000e+00" cType="1" res="5.0719839055091143e-04" rms="2.3405438661575317e-01" purity="9.4278323650360107e-01" nType="-99"/>
      </Node>
    </BinaryTree>
    <BinaryTree type="DecisionTree" boostWeight="1.0000000000000000e+00" itree="706">
      <Node pos="s" depth="0" NCoef="0" IVar="3" Cut="8.9426531250000000e+04" cType="1" res="5.6780970096588135e-01" rms="4.9546208977699280e-01" purity="5.6789052486419678e-01" nType="0">
        <Node pos="l" depth="1" NCoef="0" IVar="3" Cut="8.8492914062500000e+04" cType="1" res="6.7863988876342773e-01" rms="4.6706420183181763e-01" purity="6.7870110273361206e-01" nType="0">
          <Node pos="l" depth="2" NCoef="0" IVar="-1" Cut="0.0000000000000000e+00" cType="1" res="3.4151211730204523e-04" rms="3.5168933868408203e-01" purity="3.9982834458351135e-01" nType="-99"/>
          <Node pos="r" depth="2" NCoef="0" IVar="-1" Cut="0.0000000000000000e+00" cType="1" res="2.0740118998219259e-05" rms="3.5592135787010193e-01" purity="8.7966424226760864e-01" nType="-99"/>
        </Node>
        <Node pos="r" depth="1" NCoef="0" IVar="0" Cut="3.0000000000000000e+00" cType="1" res="-4.9209217540919781e-03" rms="3.5411775112152100e-01" purity="3.7720367312431335e-01" nType="0">
          <Node pos="l" depth="2" NCoef="0" IVar="-1" Cut="0.0000000000000000e+00" cType="1" res="-5.7188770733773708e-04" rms="3.6135789752006531e-01" purity="2.9953977465629578e-01" nType="-99"/>
          <Node pos="r" depth="2" NCoef="0" IVar="-1" Cut="0.0000000000000000e+00" cType="1" res="2.1109229419380426e-03" rms="2.9585272073745728e-01" purity="9.0040272474288940e-01" nType="-99"/>
        </Node>
      </Node>
    </BinaryTree>
    <BinaryTree type="DecisionTree" boostWeight="1.0000000000000000e+00" itree="707">
      <Node pos="s" depth="0" NCoef="0" IVar="4" Cut="3.7077156250000000e+04" cType="1" res="3.9301398396492004e-01" rms="4.8866483569145203e-01" purity="3.9340758323669434e-01" nType="0">
        <Node pos="l" depth="1" NCoef="0" IVar="0" Cut="1.0000000000000000e+00" cType="1" res="-8.3911791443824768e-04" rms="3.3341747522354126e-01" purity="2.7030059695243835e-01" nType="0">
          <Node pos="l" depth="2" NCoef="0" IVar="-1" Cut="0.0000000000000000e+00" cType="1" res="-2.8297507669776678e-03" rms="2.4722233414649963e-01" purity="6.9630511105060577e-02" nType="-99"/>
          <Node pos="r" depth="2" NCoef="0" IVar="-1" Cut="0.0000000000000000e+00" cType="1" res="8.8747922563925385e-04" rms="4.0731739997863770e-01" purity="4.9304398894309998e-01" nType="-99"/>
        </Node>
        <Node pos="r" depth="1" NCoef="0" IVar="2" Cut="8.9801703125000000e+04" cType="1" res="7.1295934915542603e-01" rms="4.5333382487297058e-01" purity="7.1437913179397583e-01" nType="0">
          <Node pos="l" depth="2" NCoef="0" IVar="-1" Cut="0.0000000000000000e+00" cType="1" res="1.3235526857897639e-03" rms="4.0412899851799011e-01" purity="7.3913139104843140e-01" nType="-99"/>
          <Node pos="r" depth="2" NCoef="0" IVar="-1" Cut="0.0000000000000000e+00" cType="1" res="8.2572421524673700e-04" rms="4.0114456415176392e-01" purity="7.0687711238861084e-01" nType="-99"/>
        </Node>
      </Node>
    </BinaryTree>
    <BinaryTree type="DecisionTree" boostWeight="1.0000000000000000e+00" itree="708">
      <Node pos="s" depth="0" NCoef="0" IVar="1" Cut="2.0102762500000000e+05" cType="1" res="4.4127061963081360e-01" rms="4.9677398800849915e-01" purity="4.4166970252990723e-01" nType="0">
        <Node pos="l" depth="1" NCoef="0" IVar="2" Cut="8.9636281250000000e+04" cType="1" res="4.9202966690063477e-01" rms="5.1825982332229614e-01" purity="5.6184691190719604e-01" nType="0">
          <Node pos="l" depth="2" NCoef="0" IVar="-1" Cut="0.0000000000000000e+00" cType="1" res="2.3969161702552810e-05" rms="3.9149722456932068e-01" purity="8.0855381488800049e-01" nType="-99"/>
          <Node pos="r" depth="2" NCoef="0" IVar="-1" Cut="0.0000000000000000e+00" cType="1" res="9.4314041780307889e-04" rms="3.4359484910964966e-01" purity="2.3840686678886414e-01" nType="-99"/>
        </Node>
        <Node pos="r" depth="1" NCoef="0" IVar="4" Cut="5.3227273437500000e+04" cType="1" res="4.0464934706687927e-01" rms="4.9113410711288452e-01" purity="4.0516963601112366e-01" nType="0">
          <Node pos="l" depth="2" NCoef="0" IVar="-1" Cut="0.0000000000000000e+00" cType="1" res="-7.2246172931045294e-04" rms="3.5355272889137268e-01" purity="3.1258401274681091e-01" nType="-99"/>
          <Node pos="r" depth="2" NCoef="0" IVar="-1" Cut="0.0000000000000000e+00" cType="1" res="4.5876775402575731e-04" rms="3.4593737125396729e-01" purity="8.3896368741989136e-01" nType="-99"/>
        </Node>
      </Node>
    </BinaryTree>
    <BinaryTree type="DecisionTree" boostWeight="1.0000000000000000e+00" itree="709">
      <Node pos="s" depth="0" NCoef="0" IVar="4" Cut="8.2762492187500000e+04" cType="1" res="3.8680788874626160e-01" rms="4.8701903223991394e-01" purity="3.8680788874626160e-01" nType="0">
        <Node pos="l" depth="1" NCoef="0" IVar="0" Cut="3.0000000000000000e+00" cType="1" res="4.0463541517965496e-04" rms="3.5669371485710144e-01" purity="3.4635528922080994e-01" nType="0">
          <Node pos="l" depth="2" NCoef="0" IVar="-1" Cut="0.0000000000000000e+00" cType="1" res="-4.7313349205069244e-04" rms="3.6312085390090942e-01" purity="2.7080056071281433e-01" nType="-99"/>
          <Node pos="r" depth="2" NCoef="0" IVar="-1" Cut="0.0000000000000000e+00" cType="1" res="5.8537634322419763e-04" rms="2.9886594414710999e-01" purity="9.0033203363418579e-01" nType="-99"/>
        </Node>
        <Node pos="r" depth="1" NCoef="0" IVar="-1" Cut="0.0000000000000000e+00" cType="1" res="1.0824712226167321e-03" rms="2.8167471289634705e-01" purity="9.1333150863647461e-01" nType="-99"/>
      </Node>
    </BinaryTree>
    <BinaryTree type="DecisionTree" boostWeight="1.0000000000000000e+00" itree="710">
      <Node pos="s" depth="0" NCoef="0" IVar="2" Cut="8.9603554687500000e+04" cType="1" res="4.5879212021827698e-01" rms="4.9861186742782593e-01" purity="4.5910397171974182e-01" nType="0">
        <Node pos="l" depth="1" NCoef="0" IVar="2" Cut="8.9317851562500000e+04" cType="1" res="6.1542850732803345e-01" rms="4.8699280619621277e-01" purity="6.1591422557830811e-01" nType="0">
          <Node pos="l" depth="2" NCoef="0" IVar="-1" Cut="0.0000000000000000e+00" cType="1" res="1.3951460132375360e-03" rms="3.8088276982307434e-01" purity="4.2028316855430603e-01" nType="-99"/>
          <Node pos="r" depth="2" NCoef="0" IVar="-1" Cut="0.0000000000000000e+00" cType="1" res="2.4323468096554279e-05" rms="3.8471734523773193e-01" purity="8.5050445795059204e-01" nType="-99"/>
        </Node>
        <Node pos="r" depth="1" NCoef="0" IVar="4" Cut="5.0964031250000000e+04" cType="1" res="3.9636650681495667e-01" rms="4.8936977982521057e-01" purity="3.9658921957015991e-01" nType="0">
          <Node pos="l" depth="2" NCoef="0" IVar="-1" Cut="0.0000000000000000e+00" cType="1" res="-7.8254772233776748e-05" rms="3.5120537877082825e-01" purity="3.0405196547508240e-01" nType="-99"/>
          <Node pos="r" depth="2" NCoef="0" IVar="-1" Cut="0.0000000000000000e+00" cType="1" res="8.6421269224956632e-04" rms="3.5849767923355103e-01" purity="8.2239514589309692e-01" nType="-99"/>
        </Node>
      </Node>
    </BinaryTree>
    <BinaryTree type="DecisionTree" boostWeight="1.0000000000000000e+00" itree="711">
      <Node pos="s" depth="0" NCoef="0" IVar="2" Cut="8.9637539062500000e+04" cType="1" res="6.2120217084884644e-01" rms="4.8542064428329468e-01" purity="6.2166112661361694e-01" nType="0">
        <Node pos="l" depth="1" NCoef="0" IVar="2" Cut="8.9227101562500000e+04" cType="1" res="8.4493494033813477e-01" rms="3.6196666955947876e-01" purity="8.4528475999832153e-01" nType="0">
          <Node pos="l" depth="2" NCoef="0" IVar="-1" Cut="0.0000000000000000e+00" cType="1" res="5.9602223336696625e-04" rms="3.6085885763168335e-01" purity="3.9406865835189819e-01" nType="-99"/>
          <Node pos="r" depth="2" NCoef="0" IVar="-1" Cut="0.0000000000000000e+00" cType="1" res="1.6504245650139637e-05" rms="2.3051619529724121e-01" purity="9.5400375127792358e-01" nType="-99"/>
        </Node>
        <Node pos="r" depth="1" NCoef="0" IVar="4" Cut="5.0450804687500000e+04" cType="1" res="4.0205615758895874e-01" rms="4.9071329832077026e-01" purity="4.0262201428413391e-01" nType="0">
          <Node pos="l" depth="2" NCoef="0" IVar="-1" Cut="0.0000000000000000e+00" cType="1" res="1.2172851711511612e-04" rms="3.4837016463279724e-01" purity="3.0957996845245361e-01" nType="-99"/>
          <Node pos="r" depth="2" NCoef="0" IVar="-1" Cut="0.0000000000000000e+00" cType="1" res="4.5337766641750932e-04" rms="3.5384193062782288e-01" purity="8.2322496175765991e-01" nType="-99"/>
        </Node>
      </Node>
    </BinaryTree>
    <BinaryTree type="DecisionTree" boostWeight="1.0000000000000000e+00" itree="712">
      <Node pos="s" depth="0" NCoef="0" IVar="3" Cut="9.5950390625000000e+04" cType="1" res="4.8041075468063354e-01" rms="4.9988541007041931e-01" purity="4.8074564337730408e-01" nType="0">
        <Node pos="l" depth="1" NCoef="0" IVar="4" Cut="7.8767250000000000e+04" cType="1" res="5.0607048933393184e-12" rms="0.0000000000000000e+00" purity="3.7700539827346802e-01" nType="0">
          <Node pos="l" depth="2" NCoef="0" IVar="-1" Cut="0.0000000000000000e+00" cType="1" res="-3.0964144389145076e-04" rms="3.5202029347419739e-01" purity="3.3224695920944214e-01" nType="-99"/>
          <Node pos="r" depth="2" NCoef="0" IVar="-1" Cut="0.0000000000000000e+00" cType="1" res="1.0085678659379482e-03" rms="2.9360428452491760e-01" purity="9.0303486585617065e-01" nType="-99"/>
        </Node>
        <Node pos="r" depth="1" NCoef="0" IVar="3" Cut="9.6731968750000000e+04" cType="1" res="7.6974219083786011e-01" rms="4.2099779844284058e-01" purity="7.6999115943908691e-01" nType="0">
          <Node pos="l" depth="2" NCoef="0" IVar="-1" Cut="0.0000000000000000e+00" cType="1" res="1.3793461221212056e-05" rms="3.1302243471145630e-01" purity="9.1472285985946655e-01" nType="-99"/>
          <Node pos="r" depth="2" NCoef="0" IVar="-1" Cut="0.0000000000000000e+00" cType="1" res="2.7962980675511062e-04" rms="3.5287633538246155e-01" purity="4.4115528464317322e-01" nType="-99"/>
        </Node>
      </Node>
    </BinaryTree>
    <BinaryTree type="DecisionTree" boostWeight="1.0000000000000000e+00" itree="713">
      <Node pos="s" depth="0" NCoef="0" IVar="1" Cut="2.0203215625000000e+05" cType="1" res="5.6947284936904907e-01" rms="4.9572277069091797e-01" purity="5.7004040479660034e-01" nType="0">
        <Node pos="l" depth="1" NCoef="0" IVar="2" Cut="8.9690085937500000e+04" cType="1" res="4.2125302553176880e-01" rms="5.0215804576873779e-01" purity="7.8750479221343994e-01" nType="0">
          <Node pos="l" depth="2" NCoef="0" IVar="-1" Cut="0.0000000000000000e+00" cType="1" res="1.8066022676066495e-05" rms="2.4982604384422302e-01" purity="9.3391948938369751e-01" nType="-99"/>
          <Node pos="r" depth="2" NCoef="0" IVar="-1" Cut="0.0000000000000000e+00" cType="1" res="7.0082157617434859e-04" rms="3.3633869886398315e-01" purity="2.4495710432529449e-01" nType="-99"/>
        </Node>
        <Node pos="r" depth="1" NCoef="0" IVar="4" Cut="7.7503929687500000e+04" cType="1" res="4.2436170578002930e-01" rms="4.9520111083984375e-01" purity="4.2530697584152222e-01" nType="0">
          <Node pos="l" depth="2" NCoef="0" IVar="-1" Cut="0.0000000000000000e+00" cType="1" res="4.7328553046099842e-04" rms="3.6941227316856384e-01" purity="3.7733778357505798e-01" nType="-99"/>
          <Node pos="r" depth="2" NCoef="0" IVar="-1" Cut="0.0000000000000000e+00" cType="1" res="1.0542159434407949e-03" rms="2.8556933999061584e-01" purity="9.0832734107971191e-01" nType="-99"/>
        </Node>
      </Node>
    </BinaryTree>
    <BinaryTree type="DecisionTree" boostWeight="1.0000000000000000e+00" itree="714">
      <Node pos="s" depth="0" NCoef="0" IVar="4" Cut="5.3210050781250000e+04" cType="1" res="3.9482790231704712e-01" rms="4.8923277854919434e-01" purity="3.9544343948364258e-01" nType="0">
        <Node pos="l" depth="1" NCoef="0" IVar="0" Cut="1.0000000000000000e+00" cType="1" res="3.7674496416002512e-03" rms="3.5964488983154297e-01" purity="3.0975568294525146e-01" nType="0">
          <Node pos="l" depth="2" NCoef="0" IVar="-1" Cut="0.0000000000000000e+00" cType="1" res="-1.2728744186460972e-03" rms="2.8673523664474487e-01" purity="9.8621547222137451e-02" nType="-99"/>
          <Node pos="r" depth="2" NCoef="0" IVar="-1" Cut="0.0000000000000000e+00" cType="1" res="8.0172345042228699e-04" rms="4.1910326480865479e-01" purity="5.1955705881118774e-01" nType="-99"/>
        </Node>
        <Node pos="r" depth="1" NCoef="0" IVar="3" Cut="8.7729648437500000e+04" cType="1" res="8.3095091581344604e-01" rms="3.7525418400764465e-01" purity="8.3293652534484863e-01" nType="0">
          <Node pos="l" depth="2" NCoef="0" IVar="-1" Cut="0.0000000000000000e+00" cType="1" res="2.9700525919906795e-04" rms="3.2560175657272339e-01" purity="8.6882036924362183e-01" nType="-99"/>
          <Node pos="r" depth="2" NCoef="0" IVar="-1" Cut="0.0000000000000000e+00" cType="1" res="5.9067097026854753e-04" rms="3.6402943730354309e-01" purity="8.1171476840972900e-01" nType="-99"/>
        </Node>
      </Node>
    </BinaryTree>
    <BinaryTree type="DecisionTree" boostWeight="1.0000000000000000e+00" itree="715">
      <Node pos="s" depth="0" NCoef="0" IVar="3" Cut="8.9426554687500000e+04" cType="1" res="5.1790082454681396e-01" rms="4.9981299042701721e-01" purity="5.1824665069580078e-01" nType="0">
        <Node pos="l" depth="1" NCoef="0" IVar="3" Cut="8.8492945312500000e+04" cType="1" res="6.1056005954742432e-01" rms="4.8762330412864685e-01" purity="6.1077135801315308e-01" nType="0">
          <Node pos="l" depth="2" NCoef="0" IVar="-1" Cut="0.0000000000000000e+00" cType="1" res="1.8015359819401056e-04" rms="3.4795099496841431e-01" purity="3.9040288329124451e-01" nType="-99"/>
          <Node pos="r" depth="2" NCoef="0" IVar="-1" Cut="0.0000000000000000e+00" cType="1" res="2.1518320863833651e-05" rms="4.1212406754493713e-01" purity="8.2992172241210938e-01" nType="-99"/>
        </Node>
        <Node pos="r" depth="1" NCoef="0" IVar="4" Cut="4.4933265625000000e+04" cType="1" res="3.8913050293922424e-01" rms="4.8768588900566101e-01" purity="3.8966333866119385e-01" nType="0">
          <Node pos="l" depth="2" NCoef="0" IVar="-1" Cut="0.0000000000000000e+00" cType="1" res="-1.4630980149377137e-04" rms="3.5143381357192993e-01" purity="2.9371055960655212e-01" nType="-99"/>
          <Node pos="r" depth="2" NCoef="0" IVar="-1" Cut="0.0000000000000000e+00" cType="1" res="7.3788437293842435e-04" rms="3.8174805045127869e-01" purity="7.7521795034408569e-01" nType="-99"/>
        </Node>
      </Node>
    </BinaryTree>
    <BinaryTree type="DecisionTree" boostWeight="1.0000000000000000e+00" itree="716">
      <Node pos="s" depth="0" NCoef="0" IVar="4" Cut="3.5741550781250000e+04" cType="1" res="3.7692773342132568e-01" rms="4.8461657762527466e-01" purity="3.7692776322364807e-01" nType="0">
        <Node pos="l" depth="1" NCoef="0" IVar="4" Cut="2.3853371093750000e+04" cType="1" res="2.4680110812187195e-01" rms="4.3163368105888367e-01" purity="2.4746707081794739e-01" nType="0">
          <Node pos="l" depth="2" NCoef="0" IVar="-1" Cut="0.0000000000000000e+00" cType="1" res="5.0064490642398596e-04" rms="3.0707266926765442e-01" purity="2.0958983898162842e-01" nType="-99"/>
          <Node pos="r" depth="2" NCoef="0" IVar="-1" Cut="0.0000000000000000e+00" cType="1" res="-3.0552458483725786e-03" rms="3.9094856381416321e-01" purity="3.6470729112625122e-01" nType="-99"/>
        </Node>
        <Node pos="r" depth="1" NCoef="0" IVar="5" Cut="2.0725898437500000e+05" cType="1" res="6.9483220577239990e-01" rms="4.6047845482826233e-01" purity="6.9483220577239990e-01" nType="0">
          <Node pos="l" depth="2" NCoef="0" IVar="-1" Cut="0.0000000000000000e+00" cType="1" res="-7.2479725349694490e-04" rms="4.4033795595169067e-01" purity="3.5748192667961121e-01" nType="-99"/>
          <Node pos="r" depth="2" NCoef="0" IVar="-1" Cut="0.0000000000000000e+00" cType="1" res="9.4229483511298895e-04" rms="3.9128416776657104e-01" purity="7.6022601127624512e-01" nType="-99"/>
        </Node>
      </Node>
    </BinaryTree>
    <BinaryTree type="DecisionTree" boostWeight="1.0000000000000000e+00" itree="717">
      <Node pos="s" depth="0" NCoef="0" IVar="2" Cut="9.1753601562500000e+04" cType="1" res="5.3550577163696289e-01" rms="4.9889126420021057e-01" purity="5.3573822975158691e-01" nType="0">
        <Node pos="l" depth="1" NCoef="0" IVar="5" Cut="3.7136265625000000e+05" cType="1" res="3.8755148649215698e-01" rms="4.8727482557296753e-01" purity="3.8763287663459778e-01" nType="0">
          <Node pos="l" depth="2" NCoef="0" IVar="-1" Cut="0.0000000000000000e+00" cType="1" res="-5.6751893134787679e-04" rms="3.4815946221351624e-01" purity="2.3758426308631897e-01" nType="-99"/>
          <Node pos="r" depth="2" NCoef="0" IVar="-1" Cut="0.0000000000000000e+00" cType="1" res="5.5613386211916804e-04" rms="3.4643539786338806e-01" purity="7.8057569265365601e-01" nType="-99"/>
        </Node>
        <Node pos="r" depth="1" NCoef="0" IVar="2" Cut="9.1953015625000000e+04" cType="1" res="6.9363737106323242e-01" rms="4.6123135089874268e-01" purity="6.9403129816055298e-01" nType="0">
          <Node pos="l" depth="2" NCoef="0" IVar="-1" Cut="0.0000000000000000e+00" cType="1" res="1.9801489543169737e-05" rms="2.9600256681442261e-01" purity="9.2600637674331665e-01" nType="-99"/>
          <Node pos="r" depth="2" NCoef="0" IVar="-1" Cut="0.0000000000000000e+00" cType="1" res="6.2060845084488392e-04" rms="3.7356218695640564e-01" purity="3.9677253365516663e-01" nType="-99"/>
        </Node>
      </Node>
    </BinaryTree>
    <BinaryTree type="DecisionTree" boostWeight="1.0000000000000000e+00" itree="718">
      <Node pos="s" depth="0" NCoef="0" IVar="3" Cut="9.5950968750000000e+04" cType="1" res="4.7992637753486633e-01" rms="5.0006365776062012e-01" purity="4.8045915365219116e-01" nType="0">
        <Node pos="l" depth="1" NCoef="0" IVar="0" Cut="2.0000000000000000e+00" cType="1" res="1.0105206165462732e-03" rms="3.4870555996894836e-01" purity="3.7853133678436279e-01" nType="0">
          <Node pos="l" depth="2" NCoef="0" IVar="-1" Cut="0.0000000000000000e+00" cType="1" res="-6.9149112096056342e-04" rms="3.4282240271568298e-01" purity="2.1494163572788239e-01" nType="-99"/>
          <Node pos="r" depth="2" NCoef="0" IVar="-1" Cut="0.0000000000000000e+00" cType="1" res="1.0103111853823066e-03" rms="3.6236023902893066e-01" purity="8.3125275373458862e-01" nType="-99"/>
        </Node>
        <Node pos="r" depth="1" NCoef="0" IVar="3" Cut="9.6732937500000000e+04" cType="1" res="7.6836585998535156e-01" rms="4.2217624187469482e-01" purity="7.6861888170242310e-01" nType="0">
          <Node pos="l" depth="2" NCoef="0" IVar="-1" Cut="0.0000000000000000e+00" cType="1" res="1.3834121091349516e-05" rms="3.1192940473556519e-01" purity="9.1177636384963989e-01" nType="-99"/>
          <Node pos="r" depth="2" NCoef="0" IVar="-1" Cut="0.0000000000000000e+00" cType="1" res="8.3277031080797315e-04" rms="3.7917330861091614e-01" purity="4.3605223298072815e-01" nType="-99"/>
        </Node>
      </Node>
    </BinaryTree>
    <BinaryTree type="DecisionTree" boostWeight="1.0000000000000000e+00" itree="719">
      <Node pos="s" depth="0" NCoef="0" IVar="1" Cut="1.8991192187500000e+05" cType="1" res="4.4803133606910706e-01" rms="4.9729192256927490e-01" purity="4.4803136587142944e-01" nType="0">
        <Node pos="l" depth="1" NCoef="0" IVar="-1" Cut="0.0000000000000000e+00" cType="1" res="2.4291830413858406e-05" rms="4.3304550647735596e-01" purity="7.3204380273818970e-01" nType="-99"/>
        <Node pos="r" depth="1" NCoef="0" IVar="4" Cut="7.6838750000000000e+04" cType="1" res="3.9690807461738586e-01" rms="4.8925662040710449e-01" purity="3.9690807461738586e-01" nType="0">
          <Node pos="l" depth="2" NCoef="0" IVar="-1" Cut="0.0000000000000000e+00" cType="1" res="1.5170489496085793e-04" rms="3.6495864391326904e-01" purity="3.5005676746368408e-01" nType="-99"/>
          <Node pos="r" depth="2" NCoef="0" IVar="-1" Cut="0.0000000000000000e+00" cType="1" res="9.7758602350950241e-04" rms="2.9152470827102661e-01" purity="9.0338480472564697e-01" nType="-99"/>
        </Node>
      </Node>
    </BinaryTree>
    <BinaryTree type="DecisionTree" boostWeight="1.0000000000000000e+00" itree="720">
      <Node pos="s" depth="0" NCoef="0" IVar="2" Cut="9.1836718750000000e+04" cType="1" res="4.7447368502616882e-01" rms="4.9941509962081909e-01" purity="4.7454074025154114e-01" nType="0">
        <Node pos="l" depth="1" NCoef="0" IVar="0" Cut="2.0000000000000000e+00" cType="1" res="5.6636664085090160e-03" rms="3.5045287013053894e-01" purity="3.8769629597663879e-01" nType="0">
          <Node pos="l" depth="2" NCoef="0" IVar="-1" Cut="0.0000000000000000e+00" cType="1" res="-3.8915802724659443e-04" rms="3.4810191392898560e-01" purity="2.2240394353866577e-01" nType="-99"/>
          <Node pos="r" depth="2" NCoef="0" IVar="-1" Cut="0.0000000000000000e+00" cType="1" res="1.0560414521023631e-03" rms="3.5468059778213501e-01" purity="8.3844196796417236e-01" nType="-99"/>
        </Node>
        <Node pos="r" depth="1" NCoef="0" IVar="2" Cut="9.2028312500000000e+04" cType="1" res="6.0639679431915283e-01" rms="4.8884025216102600e-01" purity="6.0668194293975830e-01" nType="0">
          <Node pos="l" depth="2" NCoef="0" IVar="-1" Cut="0.0000000000000000e+00" cType="1" res="1.9983379388577305e-05" rms="3.6031225323677063e-01" purity="8.8384717702865601e-01" nType="-99"/>
          <Node pos="r" depth="2" NCoef="0" IVar="-1" Cut="0.0000000000000000e+00" cType="1" res="2.6967335725203156e-04" rms="3.6134380102157593e-01" purity="4.0021347999572754e-01" nType="-99"/>
        </Node>
      </Node>
    </BinaryTree>
    <BinaryTree type="DecisionTree" boostWeight="1.0000000000000000e+00" itree="721">
      <Node pos="s" depth="0" NCoef="0" IVar="3" Cut="9.5950960937500000e+04" cType="1" res="5.4712992906570435e-01" rms="4.9777382612228394e-01" purity="5.4712992906570435e-01" nType="0">
        <Node pos="l" depth="1" NCoef="0" IVar="5" Cut="4.6232203125000000e+05" cType="1" res="3.6763247847557068e-01" rms="4.8216059803962708e-01" purity="3.6763247847557068e-01" nType="0">
          <Node pos="l" depth="2" NCoef="0" IVar="-1" Cut="0.0000000000000000e+00" cType="1" res="-8.5747154662385583e-04" rms="3.5179099440574646e-01" purity="2.7034577727317810e-01" nType="-99"/>
          <Node pos="r" depth="2" NCoef="0" IVar="-1" Cut="0.0000000000000000e+00" cType="1" res="1.5773129416629672e-03" rms="3.4260556101799011e-01" purity="8.1202626228332520e-01" nType="-99"/>
        </Node>
        <Node pos="r" depth="1" NCoef="0" IVar="3" Cut="9.6732984375000000e+04" cType="1" res="8.6009901762008667e-01" rms="3.4688428044319153e-01" purity="8.6057329177856445e-01" nType="0">
          <Node pos="l" depth="2" NCoef="0" IVar="-1" Cut="0.0000000000000000e+00" cType="1" res="1.3935572496848181e-05" rms="2.3429429531097412e-01" purity="9.5412427186965942e-01" nType="-99"/>
          <Node pos="r" depth="2" NCoef="0" IVar="-1" Cut="0.0000000000000000e+00" cType="1" res="8.0597901251167059e-04" rms="3.8296887278556824e-01" purity="4.3492957949638367e-01" nType="-99"/>
        </Node>
      </Node>
    </BinaryTree>
    <BinaryTree type="DecisionTree" boostWeight="1.0000000000000000e+00" itree="722">
      <Node pos="s" depth="0" NCoef="0" IVar="1" Cut="1.9097787500000000e+05" cType="1" res="4.4788518548011780e-01" rms="4.9727663397789001e-01" purity="4.4788518548011780e-01" nType="0">
        <Node pos="l" depth="1" NCoef="0" IVar="-1" Cut="0.0000000000000000e+00" cType="1" res="2.4427485186606646e-05" rms="4.4096514582633972e-01" purity="7.1403872966766357e-01" nType="-99"/>
        <Node pos="r" depth="1" NCoef="0" IVar="4" Cut="7.9674312500000000e+04" cType="1" res="3.9825937151908875e-01" rms="4.8953941464424133e-01" purity="3.9825937151908875e-01" nType="0">
          <Node pos="l" depth="2" NCoef="0" IVar="-1" Cut="0.0000000000000000e+00" cType="1" res="5.0966551498277113e-05" rms="3.6044797301292419e-01" purity="3.5517409443855286e-01" nType="-99"/>
          <Node pos="r" depth="2" NCoef="0" IVar="-1" Cut="0.0000000000000000e+00" cType="1" res="1.0419792961329222e-03" rms="2.9675424098968506e-01" purity="9.0110707283020020e-01" nType="-99"/>
        </Node>
      </Node>
    </BinaryTree>
    <BinaryTree type="DecisionTree" boostWeight="1.0000000000000000e+00" itree="723">
      <Node pos="s" depth="0" NCoef="0" IVar="5" Cut="1.6159846875000000e+05" cType="1" res="4.8893192410469055e-01" rms="5.0012212991714478e-01" purity="4.8923775553703308e-01" nType="0">
        <Node pos="l" depth="1" NCoef="0" IVar="-1" Cut="0.0000000000000000e+00" cType="1" res="1.3911382666265126e-05" rms="3.7765064835548401e-01" purity="7.5729370117187500e-01" nType="-99"/>
        <Node pos="r" depth="1" NCoef="0" IVar="0" Cut="4.0000000000000000e+00" cType="1" res="9.7840679809451103e-03" rms="3.6161923408508301e-01" purity="4.1734933853149414e-01" nType="0">
          <Node pos="l" depth="2" NCoef="0" IVar="-1" Cut="0.0000000000000000e+00" cType="1" res="1.2854639498982579e-04" rms="3.6877399682998657e-01" purity="3.7842416763305664e-01" nType="-99"/>
          <Node pos="r" depth="2" NCoef="0" IVar="-1" Cut="0.0000000000000000e+00" cType="1" res="3.3281955984421074e-04" rms="2.2648470103740692e-01" purity="9.4735008478164673e-01" nType="-99"/>
        </Node>
      </Node>
    </BinaryTree>
    <BinaryTree type="DecisionTree" boostWeight="1.0000000000000000e+00" itree="724">
      <Node pos="s" depth="0" NCoef="0" IVar="2" Cut="9.1879203125000000e+04" cType="1" res="4.7414532303810120e-01" rms="4.9939003586769104e-01" purity="4.7429460287094116e-01" nType="0">
        <Node pos="l" depth="1" NCoef="0" IVar="4" Cut="4.9057230468750000e+04" cType="1" res="3.9180567860603333e-01" rms="4.8825249075889587e-01" purity="3.9190217852592468e-01" nType="0">
          <Node pos="l" depth="2" NCoef="0" IVar="-1" Cut="0.0000000000000000e+00" cType="1" res="2.0903726181131788e-05" rms="3.5163661837577820e-01" purity="2.9429417848587036e-01" nType="-99"/>
          <Node pos="r" depth="2" NCoef="0" IVar="-1" Cut="0.0000000000000000e+00" cType="1" res="4.2007901356555521e-04" rms="3.6442258954048157e-01" purity="8.0888879299163818e-01" nType="-99"/>
        </Node>
        <Node pos="r" depth="1" NCoef="0" IVar="2" Cut="9.2076085937500000e+04" cType="1" res="6.0276347398757935e-01" rms="4.8947429656982422e-01" purity="6.0314071178436279e-01" nType="0">
          <Node pos="l" depth="2" NCoef="0" IVar="-1" Cut="0.0000000000000000e+00" cType="1" res="1.9824086848529987e-05" rms="3.6449551582336426e-01" purity="8.7697923183441162e-01" nType="-99"/>
          <Node pos="r" depth="2" NCoef="0" IVar="-1" Cut="0.0000000000000000e+00" cType="1" res="4.0820098365657032e-04" rms="3.6508083343505859e-01" purity="3.9607831835746765e-01" nType="-99"/>
        </Node>
      </Node>
    </BinaryTree>
    <BinaryTree type="DecisionTree" boostWeight="1.0000000000000000e+00" itree="725">
      <Node pos="s" depth="0" NCoef="0" IVar="0" Cut="1.0000000000000000e+00" cType="1" res="3.0136692523956299e-01" rms="4.8327696323394775e-01" purity="6.0976046323776245e-01" nType="0">
        <Node pos="l" depth="1" NCoef="0" IVar="4" Cut="1.9639441406250000e+04" cType="1" res="6.1780506372451782e-01" rms="4.8592382669448853e-01" purity="6.1780500411987305e-01" nType="0">
          <Node pos="l" depth="2" NCoef="0" IVar="-1" Cut="0.0000000000000000e+00" cType="1" res="3.2562538981437683e-03" rms="2.0883895456790924e-01" purity="4.5713689178228378e-02" nType="-99"/>
          <Node pos="r" depth="2" NCoef="0" IVar="-1" Cut="0.0000000000000000e+00" cType="1" res="1.8402517525828443e-05" rms="4.2504137754440308e-01" purity="8.0610680580139160e-01" nType="-99"/>
        </Node>
        <Node pos="r" depth="1" NCoef="0" IVar="5" Cut="3.9718928125000000e+05" cType="1" res="5.9438163042068481e-01" rms="4.9101132154464722e-01" purity="5.9438157081604004e-01" nType="0">
          <Node pos="l" depth="2" NCoef="0" IVar="-1" Cut="0.0000000000000000e+00" cType="1" res="7.9487617767881602e-05" rms="4.2818260192871094e-01" purity="4.3451419472694397e-01" nType="-99"/>
          <Node pos="r" depth="2" NCoef="0" IVar="-1" Cut="0.0000000000000000e+00" cType="1" res="1.6592656029388309e-03" rms="3.5055696964263916e-01" purity="8.2335680723190308e-01" nType="-99"/>
        </Node>
      </Node>
    </BinaryTree>
    <BinaryTree type="DecisionTree" boostWeight="1.0000000000000000e+00" itree="726">
      <Node pos="s" depth="0" NCoef="0" IVar="5" Cut="1.6601217187500000e+05" cType="1" res="4.9104219675064087e-01" rms="4.9991974234580994e-01" purity="4.9104219675064087e-01" nType="0">
        <Node pos="l" depth="1" NCoef="0" IVar="3" Cut="8.9711296875000000e+04" cType="1" res="7.1170890331268311e-01" rms="4.5296725630760193e-01" purity="7.1170890331268311e-01" nType="0">
          <Node pos="l" depth="2" NCoef="0" IVar="-1" Cut="0.0000000000000000e+00" cType="1" res="-1.0112026706337929e-02" rms="2.0407278835773468e-01" purity="4.3975528329610825e-02" nType="-99"/>
          <Node pos="r" depth="2" NCoef="0" IVar="-1" Cut="0.0000000000000000e+00" cType="1" res="1.3979247341922019e-05" rms="3.1248930096626282e-01" purity="8.5718876123428345e-01" nType="-99"/>
        </Node>
        <Node pos="r" depth="1" NCoef="0" IVar="4" Cut="5.0980992187500000e+04" cType="1" res="4.2650476098060608e-01" rms="4.9456894397735596e-01" purity="4.2650476098060608e-01" nType="0">
          <Node pos="l" depth="2" NCoef="0" IVar="-1" Cut="0.0000000000000000e+00" cType="1" res="2.5540066417306662e-04" rms="3.6282131075859070e-01" purity="3.3615157008171082e-01" nType="-99"/>
          <Node pos="r" depth="2" NCoef="0" IVar="-1" Cut="0.0000000000000000e+00" cType="1" res="5.4096535313874483e-04" rms="3.6100369691848755e-01" purity="8.2230907678604126e-01" nType="-99"/>
        </Node>
      </Node>
    </BinaryTree>
    <BinaryTree type="DecisionTree" boostWeight="1.0000000000000000e+00" itree="727">
      <Node pos="s" depth="0" NCoef="0" IVar="4" Cut="5.3242925781250000e+04" cType="1" res="3.9393520355224609e-01" rms="4.8873203992843628e-01" purity="3.9404395222663879e-01" nType="0">
        <Node pos="l" depth="1" NCoef="0" IVar="0" Cut="1.0000000000000000e+00" cType="1" res="2.9580225236713886e-03" rms="3.5455995798110962e-01" purity="3.0924069881439209e-01" nType="0">
          <Node pos="l" depth="2" NCoef="0" IVar="-1" Cut="0.0000000000000000e+00" cType="1" res="-1.9637984223663807e-03" rms="2.7750834822654724e-01" purity="9.1109842061996460e-02" nType="-99"/>
          <Node pos="r" depth="2" NCoef="0" IVar="-1" Cut="0.0000000000000000e+00" cType="1" res="7.6818576781079173e-04" rms="4.1651728749275208e-01" purity="5.2586418390274048e-01" nType="-99"/>
        </Node>
        <Node pos="r" depth="1" NCoef="0" IVar="3" Cut="8.7861414062500000e+04" cType="1" res="8.3155965805053711e-01" rms="3.7479230761528015e-01" purity="8.3243650197982788e-01" nType="0">
          <Node pos="l" depth="2" NCoef="0" IVar="-1" Cut="0.0000000000000000e+00" cType="1" res="4.1810169932432473e-04" rms="3.3870956301689148e-01" purity="8.5846859216690063e-01" nType="-99"/>
          <Node pos="r" depth="2" NCoef="0" IVar="-1" Cut="0.0000000000000000e+00" cType="1" res="8.5129111539572477e-04" rms="3.6684292554855347e-01" purity="8.1786561012268066e-01" nType="-99"/>
        </Node>
      </Node>
    </BinaryTree>
    <BinaryTree type="DecisionTree" boostWeight="1.0000000000000000e+00" itree="728">
      <Node pos="s" depth="0" NCoef="0" IVar="3" Cut="8.9426703125000000e+04" cType="1" res="5.0911712646484375e-01" rms="5.0018292665481567e-01" purity="5.0946611166000366e-01" nType="0">
        <Node pos="l" depth="1" NCoef="0" IVar="3" Cut="8.8493132812500000e+04" cType="1" res="6.0526257753372192e-01" rms="4.8897325992584229e-01" purity="6.0560023784637451e-01" nType="0">
          <Node pos="l" depth="2" NCoef="0" IVar="-1" Cut="0.0000000000000000e+00" cType="1" res="1.5122449258342385e-04" rms="3.4871792793273926e-01" purity="3.8023108243942261e-01" nType="-99"/>
          <Node pos="r" depth="2" NCoef="0" IVar="-1" Cut="0.0000000000000000e+00" cType="1" res="2.1799800379085355e-05" rms="4.0867644548416138e-01" purity="8.3068585395812988e-01" nType="-99"/>
        </Node>
        <Node pos="r" depth="1" NCoef="0" IVar="0" Cut="3.0000000000000000e+00" cType="1" res="-6.5709906630218029e-03" rms="3.4855970740318298e-01" purity="3.7205758690834045e-01" nType="0">
          <Node pos="l" depth="2" NCoef="0" IVar="-1" Cut="0.0000000000000000e+00" cType="1" res="-7.5883878162130713e-04" rms="3.5580053925514221e-01" purity="2.9467546939849854e-01" nType="-99"/>
          <Node pos="r" depth="2" NCoef="0" IVar="-1" Cut="0.0000000000000000e+00" cType="1" res="2.5508047547191381e-03" rms="2.8684943914413452e-01" purity="9.0775078535079956e-01" nType="-99"/>
        </Node>
      </Node>
    </BinaryTree>
    <BinaryTree type="DecisionTree" boostWeight="1.0000000000000000e+00" itree="729">
      <Node pos="s" depth="0" NCoef="0" IVar="2" Cut="9.1838187500000000e+04" cType="1" res="5.3509551286697388e-01" rms="4.9911448359489441e-01" purity="5.3550183773040771e-01" nType="0">
        <Node pos="l" depth="1" NCoef="0" IVar="3" Cut="9.8077890625000000e+04" cType="1" res="3.8473150134086609e-01" rms="4.8660519719123840e-01" purity="3.8539317250251770e-01" nType="0">
          <Node pos="l" depth="2" NCoef="0" IVar="-1" Cut="0.0000000000000000e+00" cType="1" res="5.6578810472274199e-05" rms="3.4826391935348511e-01" purity="3.8076782226562500e-01" nType="-99"/>
          <Node pos="r" depth="2" NCoef="0" IVar="-1" Cut="0.0000000000000000e+00" cType="1" res="1.6956921899691224e-03" rms="4.1927120089530945e-01" purity="4.6669554710388184e-01" nType="-99"/>
        </Node>
        <Node pos="r" depth="1" NCoef="0" IVar="2" Cut="9.2029750000000000e+04" cType="1" res="7.0614314079284668e-01" rms="4.5574340224266052e-01" purity="7.0634019374847412e-01" nType="0">
          <Node pos="l" depth="2" NCoef="0" IVar="-1" Cut="0.0000000000000000e+00" cType="1" res="1.9973831513198093e-05" rms="2.7826932072639465e-01" purity="9.3559694290161133e-01" nType="-99"/>
          <Node pos="r" depth="2" NCoef="0" IVar="-1" Cut="0.0000000000000000e+00" cType="1" res="6.2386837089434266e-04" rms="3.7237307429313660e-01" purity="3.9376807212829590e-01" nType="-99"/>
        </Node>
      </Node>
    </BinaryTree>
    <BinaryTree type="DecisionTree" boostWeight="1.0000000000000000e+00" itree="730">
      <Node pos="s" depth="0" NCoef="0" IVar="2" Cut="9.1779687500000000e+04" cType="1" res="4.7242435812950134e-01" rms="4.9933224916458130e-01" purity="4.7260746359825134e-01" nType="0">
        <Node pos="l" depth="1" NCoef="0" IVar="0" Cut="2.0000000000000000e+00" cType="1" res="8.6628580465912819e-03" rms="3.5603708028793335e-01" purity="3.8248750567436218e-01" nType="0">
          <Node pos="l" depth="2" NCoef="0" IVar="-1" Cut="0.0000000000000000e+00" cType="1" res="-9.9493510788306594e-05" rms="3.5221445560455322e-01" purity="2.2865515947341919e-01" nType="-99"/>
          <Node pos="r" depth="2" NCoef="0" IVar="-1" Cut="0.0000000000000000e+00" cType="1" res="1.1921713594347239e-03" rms="3.6524158716201782e-01" purity="8.3176380395889282e-01" nType="-99"/>
        </Node>
        <Node pos="r" depth="1" NCoef="0" IVar="2" Cut="9.1978601562500000e+04" cType="1" res="5.9999722242355347e-01" rms="4.9002659320831299e-01" purity="6.0034024715423584e-01" nType="0">
          <Node pos="l" depth="2" NCoef="0" IVar="-1" Cut="0.0000000000000000e+00" cType="1" res="2.0004283214802854e-05" rms="3.7328806519508362e-01" purity="8.7083137035369873e-01" nType="-99"/>
          <Node pos="r" depth="2" NCoef="0" IVar="-1" Cut="0.0000000000000000e+00" cType="1" res="7.1273249341174960e-04" rms="3.6686617136001587e-01" purity="4.0978547930717468e-01" nType="-99"/>
        </Node>
      </Node>
    </BinaryTree>
    <BinaryTree type="DecisionTree" boostWeight="1.0000000000000000e+00" itree="731">
      <Node pos="s" depth="0" NCoef="0" IVar="1" Cut="1.9874823437500000e+05" cType="1" res="4.4605463743209839e-01" rms="4.9747255444526672e-01" purity="4.4673180580139160e-01" nType="0">
        <Node pos="l" depth="1" NCoef="0" IVar="2" Cut="8.9690085937500000e+04" cType="1" res="5.2342098951339722e-01" rms="5.2013051509857178e-01" purity="5.9027892351150513e-01" nType="0">
          <Node pos="l" depth="2" NCoef="0" IVar="-1" Cut="0.0000000000000000e+00" cType="1" res="2.4659995688125491e-05" rms="3.7550351023674011e-01" purity="8.2862287759780884e-01" nType="-99"/>
          <Node pos="r" depth="2" NCoef="0" IVar="-1" Cut="0.0000000000000000e+00" cType="1" res="-1.7467538418713957e-04" rms="3.3185607194900513e-01" purity="2.2422800958156586e-01" nType="-99"/>
        </Node>
        <Node pos="r" depth="1" NCoef="0" IVar="4" Cut="4.5899628906250000e+04" cType="1" res="4.0645262598991394e-01" rms="4.9167546629905701e-01" purity="4.0731570124626160e-01" nType="0">
          <Node pos="l" depth="2" NCoef="0" IVar="-1" Cut="0.0000000000000000e+00" cType="1" res="-3.6052346695214510e-04" rms="3.5271424055099487e-01" purity="3.0036094784736633e-01" nType="-99"/>
          <Node pos="r" depth="2" NCoef="0" IVar="-1" Cut="0.0000000000000000e+00" cType="1" res="7.5074931373819709e-04" rms="3.7831932306289673e-01" purity="7.8803777694702148e-01" nType="-99"/>
        </Node>
      </Node>
    </BinaryTree>
    <BinaryTree type="DecisionTree" boostWeight="1.0000000000000000e+00" itree="732">
      <Node pos="s" depth="0" NCoef="0" IVar="1" Cut="2.0208595312500000e+05" cType="1" res="4.4307097792625427e-01" rms="4.9698197841644287e-01" purity="4.4346761703491211e-01" nType="0">
        <Node pos="l" depth="1" NCoef="0" IVar="2" Cut="8.9596562500000000e+04" cType="1" res="4.9303179979324341e-01" rms="5.1769375801086426e-01" purity="5.5308115482330322e-01" nType="0">
          <Node pos="l" depth="2" NCoef="0" IVar="-1" Cut="0.0000000000000000e+00" cType="1" res="2.4449025659123436e-05" rms="3.8772740960121155e-01" purity="8.0994558334350586e-01" nType="-99"/>
          <Node pos="r" depth="2" NCoef="0" IVar="-1" Cut="0.0000000000000000e+00" cType="1" res="1.1873230105265975e-03" rms="3.3499917387962341e-01" purity="2.4856188893318176e-01" nType="-99"/>
        </Node>
        <Node pos="r" depth="1" NCoef="0" IVar="4" Cut="7.8753968750000000e+04" cType="1" res="4.0736860036849976e-01" rms="4.9158385396003723e-01" purity="4.0782198309898376e-01" nType="0">
          <Node pos="l" depth="2" NCoef="0" IVar="-1" Cut="0.0000000000000000e+00" cType="1" res="-2.9447494307532907e-04" rms="3.5848706960678101e-01" purity="3.6060887575149536e-01" nType="-99"/>
          <Node pos="r" depth="2" NCoef="0" IVar="-1" Cut="0.0000000000000000e+00" cType="1" res="1.0798553703352809e-03" rms="2.8486272692680359e-01" purity="9.0882855653762817e-01" nType="-99"/>
        </Node>
      </Node>
    </BinaryTree>
    <BinaryTree type="DecisionTree" boostWeight="1.0000000000000000e+00" itree="733">
      <Node pos="s" depth="0" NCoef="0" IVar="3" Cut="8.9426554687500000e+04" cType="1" res="5.1519131660461426e-01" rms="4.9981263279914856e-01" purity="5.1531672477722168e-01" nType="0">
        <Node pos="l" depth="1" NCoef="0" IVar="3" Cut="8.8493062500000000e+04" cType="1" res="6.0551673173904419e-01" rms="4.8881569504737854e-01" purity="6.0573208332061768e-01" nType="0">
          <Node pos="l" depth="2" NCoef="0" IVar="-1" Cut="0.0000000000000000e+00" cType="1" res="1.2908014468848705e-04" rms="3.4365269541740417e-01" purity="3.8792881369590759e-01" nType="-99"/>
          <Node pos="r" depth="2" NCoef="0" IVar="-1" Cut="0.0000000000000000e+00" cType="1" res="2.1682237274944782e-05" rms="4.1200995445251465e-01" purity="8.2614034414291382e-01" nType="-99"/>
        </Node>
        <Node pos="r" depth="1" NCoef="0" IVar="4" Cut="6.2512332031250000e+04" cType="1" res="3.8927838206291199e-01" rms="4.8758664727210999e-01" purity="3.8927838206291199e-01" nType="0">
          <Node pos="l" depth="2" NCoef="0" IVar="-1" Cut="0.0000000000000000e+00" cType="1" res="-7.2539638495072722e-04" rms="3.5692644119262695e-01" purity="3.1617498397827148e-01" nType="-99"/>
          <Node pos="r" depth="2" NCoef="0" IVar="-1" Cut="0.0000000000000000e+00" cType="1" res="6.9326953962445259e-04" rms="3.2548540830612183e-01" purity="8.6915540695190430e-01" nType="-99"/>
        </Node>
      </Node>
    </BinaryTree>
    <BinaryTree type="DecisionTree" boostWeight="1.0000000000000000e+00" itree="734">
      <Node pos="s" depth="0" NCoef="0" IVar="4" Cut="5.3227273437500000e+04" cType="1" res="3.8911202549934387e-01" rms="4.8773765563964844e-01" purity="3.8937410712242126e-01" nType="0">
        <Node pos="l" depth="1" NCoef="0" IVar="0" Cut="3.0000000000000000e+00" cType="1" res="2.7909397613257170e-03" rms="3.5548102855682373e-01" purity="3.0601215362548828e-01" nType="0">
          <Node pos="l" depth="2" NCoef="0" IVar="-1" Cut="0.0000000000000000e+00" cType="1" res="-1.9975962641183287e-04" rms="3.6012828350067139e-01" purity="2.3931866884231567e-01" nType="-99"/>
          <Node pos="r" depth="2" NCoef="0" IVar="-1" Cut="0.0000000000000000e+00" cType="1" res="2.1715792827308178e-03" rms="3.0751013755798340e-01" purity="8.9287590980529785e-01" nType="-99"/>
        </Node>
        <Node pos="r" depth="1" NCoef="0" IVar="5" Cut="3.4987615625000000e+05" cType="1" res="8.2523685693740845e-01" rms="3.8082048296928406e-01" purity="8.2652652263641357e-01" nType="0">
          <Node pos="l" depth="2" NCoef="0" IVar="-1" Cut="0.0000000000000000e+00" cType="1" res="3.4412869717925787e-04" rms="4.3513286113739014e-01" purity="7.1999007463455200e-01" nType="-99"/>
          <Node pos="r" depth="2" NCoef="0" IVar="-1" Cut="0.0000000000000000e+00" cType="1" res="5.0660700071603060e-04" rms="2.8379938006401062e-01" purity="9.0834045410156250e-01" nType="-99"/>
        </Node>
      </Node>
    </BinaryTree>
    <BinaryTree type="DecisionTree" boostWeight="1.0000000000000000e+00" itree="735">
      <Node pos="s" depth="0" NCoef="0" IVar="0" Cut="1.0000000000000000e+00" cType="1" res="2.1706423163414001e-01" rms="4.7094115614891052e-01" purity="5.4627293348312378e-01" nType="0">
        <Node pos="l" depth="1" NCoef="0" IVar="4" Cut="2.1040955078125000e+04" cType="1" res="5.1319843530654907e-01" rms="4.9982577562332153e-01" purity="5.1319837570190430e-01" nType="0">
          <Node pos="l" depth="2" NCoef="0" IVar="-1" Cut="0.0000000000000000e+00" cType="1" res="3.0101095326244831e-03" rms="2.1819199621677399e-01" purity="5.0096694380044937e-02" nType="-99"/>
          <Node pos="r" depth="2" NCoef="0" IVar="-1" Cut="0.0000000000000000e+00" cType="1" res="1.5841524145798758e-05" rms="4.6852758526802063e-01" purity="7.4893176555633545e-01" nType="-99"/>
        </Node>
        <Node pos="r" depth="1" NCoef="0" IVar="5" Cut="5.3545100000000000e+05" cType="1" res="5.9512239694595337e-01" rms="4.9135324358940125e-01" purity="5.9559863805770874e-01" nType="0">
          <Node pos="l" depth="2" NCoef="0" IVar="-1" Cut="0.0000000000000000e+00" cType="1" res="1.3560724619310349e-04" rms="4.2208257317543030e-01" purity="5.0515061616897583e-01" nType="-99"/>
          <Node pos="r" depth="2" NCoef="0" IVar="-1" Cut="0.0000000000000000e+00" cType="1" res="2.1000592969357967e-03" rms="3.1399667263031006e-01" purity="8.7283921241760254e-01" nType="-99"/>
        </Node>
      </Node>
    </BinaryTree>
    <BinaryTree type="DecisionTree" boostWeight="1.0000000000000000e+00" itree="736">
      <Node pos="s" depth="0" NCoef="0" IVar="0" Cut="1.0000000000000000e+00" cType="1" res="2.8347137570381165e-01" rms="4.8441368341445923e-01" purity="5.9325939416885376e-01" nType="0">
        <Node pos="l" depth="1" NCoef="0" IVar="4" Cut="2.1007773437500000e+04" cType="1" res="5.9008044004440308e-01" rms="4.9181857705116272e-01" purity="5.9008044004440308e-01" nType="0">
          <Node pos="l" depth="2" NCoef="0" IVar="-1" Cut="0.0000000000000000e+00" cType="1" res="3.4537957981228828e-04" rms="2.0337150990962982e-01" purity="4.3454043567180634e-02" nType="-99"/>
          <Node pos="r" depth="2" NCoef="0" IVar="-1" Cut="0.0000000000000000e+00" cType="1" res="1.7077460142900236e-05" rms="4.3456724286079407e-01" purity="8.0467432737350464e-01" nType="-99"/>
        </Node>
        <Node pos="r" depth="1" NCoef="0" IVar="5" Cut="7.1949306250000000e+05" cType="1" res="5.9763342142105103e-01" rms="4.9128136038780212e-01" purity="5.9890717267990112e-01" nType="0">
          <Node pos="l" depth="2" NCoef="0" IVar="-1" Cut="0.0000000000000000e+00" cType="1" res="5.2594830049201846e-04" rms="4.1615960001945496e-01" purity="5.4873657226562500e-01" nType="-99"/>
          <Node pos="r" depth="2" NCoef="0" IVar="-1" Cut="0.0000000000000000e+00" cType="1" res="2.6714610867202282e-03" rms="2.7366250753402710e-01" purity="9.0940451622009277e-01" nType="-99"/>
        </Node>
      </Node>
    </BinaryTree>
    <BinaryTree type="DecisionTree" boostWeight="1.0000000000000000e+00" itree="737">
      <Node pos="s" depth="0" NCoef="0" IVar="2" Cut="9.1849609375000000e+04" cType="1" res="4.6886461973190308e-01" rms="4.9902963638305664e-01" purity="4.6902191638946533e-01" nType="0">
        <Node pos="l" depth="1" NCoef="0" IVar="3" Cut="9.8219718750000000e+04" cType="1" res="3.8641980290412903e-01" rms="4.8709595203399658e-01" purity="3.8669320940971375e-01" nType="0">
          <Node pos="l" depth="2" NCoef="0" IVar="-1" Cut="0.0000000000000000e+00" cType="1" res="-8.1782469351310283e-05" rms="3.4818974137306213e-01" purity="3.7590819597244263e-01" nType="-99"/>
          <Node pos="r" depth="2" NCoef="0" IVar="-1" Cut="0.0000000000000000e+00" cType="1" res="1.3554359320551157e-03" rms="3.7711971998214722e-01" purity="5.5801010131835938e-01" nType="-99"/>
        </Node>
        <Node pos="r" depth="1" NCoef="0" IVar="2" Cut="9.2047015625000000e+04" cType="1" res="5.9605038166046143e-01" rms="4.9068760871887207e-01" purity="5.9628003835678101e-01" nType="0">
          <Node pos="l" depth="2" NCoef="0" IVar="-1" Cut="0.0000000000000000e+00" cType="1" res="2.0009973013657145e-05" rms="3.6883759498596191e-01" purity="8.7520474195480347e-01" nType="-99"/>
          <Node pos="r" depth="2" NCoef="0" IVar="-1" Cut="0.0000000000000000e+00" cType="1" res="-7.4182848038617522e-05" rms="3.5402217507362366e-01" purity="3.8394603133201599e-01" nType="-99"/>
        </Node>
      </Node>
    </BinaryTree>
    <BinaryTree type="DecisionTree" boostWeight="1.0000000000000000e+00" itree="738">
      <Node pos="s" depth="0" NCoef="0" IVar="3" Cut="8.9426585937500000e+04" cType="1" res="5.1062959432601929e-01" rms="5.0016683340072632e-01" purity="5.1107430458068848e-01" nType="0">
        <Node pos="l" depth="1" NCoef="0" IVar="3" Cut="8.8493046875000000e+04" cType="1" res="6.0523188114166260e-01" rms="4.8889428377151489e-01" purity="6.0564953088760376e-01" nType="0">
          <Node pos="l" depth="2" NCoef="0" IVar="-1" Cut="0.0000000000000000e+00" cType="1" res="4.1976888314820826e-04" rms="3.5494455695152283e-01" purity="3.8286733627319336e-01" nType="-99"/>
          <Node pos="r" depth="2" NCoef="0" IVar="-1" Cut="0.0000000000000000e+00" cType="1" res="2.1698142518289387e-05" rms="4.0895378589630127e-01" purity="8.2971256971359253e-01" nType="-99"/>
        </Node>
        <Node pos="r" depth="1" NCoef="0" IVar="4" Cut="5.7210277343750000e+04" cType="1" res="3.7891060113906860e-01" rms="4.8537558317184448e-01" purity="3.7916269898414612e-01" nType="0">
          <Node pos="l" depth="2" NCoef="0" IVar="-1" Cut="0.0000000000000000e+00" cType="1" res="-4.5369387953542173e-04" rms="3.5769274830818176e-01" purity="3.0636188387870789e-01" nType="-99"/>
          <Node pos="r" depth="2" NCoef="0" IVar="-1" Cut="0.0000000000000000e+00" cType="1" res="7.5020181247964501e-04" rms="3.5173514485359192e-01" purity="8.4123593568801880e-01" nType="-99"/>
        </Node>
      </Node>
    </BinaryTree>
    <BinaryTree type="DecisionTree" boostWeight="1.0000000000000000e+00" itree="739">
      <Node pos="s" depth="0" NCoef="0" IVar="2" Cut="9.1849609375000000e+04" cType="1" res="5.3752243518829346e-01" rms="4.9874380230903625e-01" purity="5.3767573833465576e-01" nType="0">
        <Node pos="l" depth="1" NCoef="0" IVar="0" Cut="2.0000000000000000e+00" cType="1" res="8.9226206764578819e-03" rms="3.5311704874038696e-01" purity="3.8670578598976135e-01" nType="0">
          <Node pos="l" depth="2" NCoef="0" IVar="-1" Cut="0.0000000000000000e+00" cType="1" res="-9.3236812972463667e-05" rms="3.5057795047760010e-01" purity="2.2611193358898163e-01" nType="-99"/>
          <Node pos="r" depth="2" NCoef="0" IVar="-1" Cut="0.0000000000000000e+00" cType="1" res="1.0148279834538698e-03" rms="3.5847601294517517e-01" purity="8.3487135171890259e-01" nType="-99"/>
        </Node>
        <Node pos="r" depth="1" NCoef="0" IVar="2" Cut="9.2047015625000000e+04" cType="1" res="7.0770204067230225e-01" rms="4.5505213737487793e-01" purity="7.0791471004486084e-01" nType="0">
          <Node pos="l" depth="2" NCoef="0" IVar="-1" Cut="0.0000000000000000e+00" cType="1" res="2.0022829630761407e-05" rms="2.8658154606819153e-01" purity="9.3269056081771851e-01" nType="-99"/>
          <Node pos="r" depth="2" NCoef="0" IVar="-1" Cut="0.0000000000000000e+00" cType="1" res="9.2965536168776453e-05" rms="3.4937787055969238e-01" purity="3.9934876561164856e-01" nType="-99"/>
        </Node>
      </Node>
    </BinaryTree>
    <BinaryTree type="DecisionTree" boostWeight="1.0000000000000000e+00" itree="740">
      <Node pos="s" depth="0" NCoef="0" IVar="3" Cut="9.8928820312500000e+04" cType="1" res="3.9097267389297485e-01" rms="4.8821616172790527e-01" purity="3.9139536023139954e-01" nType="0">
        <Node pos="l" depth="1" NCoef="0" IVar="5" Cut="3.6231815625000000e+05" cType="1" res="3.8442394137382507e-01" rms="4.8694339394569397e-01" purity="3.8513115048408508e-01" nType="0">
          <Node pos="l" depth="2" NCoef="0" IVar="-1" Cut="0.0000000000000000e+00" cType="1" res="-7.9075153917074203e-04" rms="3.4460598230361938e-01" purity="2.3034979403018951e-01" nType="-99"/>
          <Node pos="r" depth="2" NCoef="0" IVar="-1" Cut="0.0000000000000000e+00" cType="1" res="3.8471320294775069e-04" rms="3.5688164830207825e-01" purity="7.6665645837783813e-01" nType="-99"/>
        </Node>
        <Node pos="r" depth="1" NCoef="0" IVar="-1" Cut="0.0000000000000000e+00" cType="1" res="2.0001777447760105e-03" rms="4.3148964643478394e-01" purity="5.3953796625137329e-01" nType="-99"/>
      </Node>
    </BinaryTree>
    <BinaryTree type="DecisionTree" boostWeight="1.0000000000000000e+00" itree="741">
      <Node pos="s" depth="0" NCoef="0" IVar="5" Cut="1.6770807812500000e+05" cType="1" res="4.8553904891014099e-01" rms="4.9979084730148315e-01" purity="4.8553907871246338e-01" nType="0">
        <Node pos="l" depth="1" NCoef="0" IVar="3" Cut="8.9991531250000000e+04" cType="1" res="6.8528848886489868e-01" rms="4.6440085768699646e-01" purity="6.8528854846954346e-01" nType="0">
          <Node pos="l" depth="2" NCoef="0" IVar="-1" Cut="0.0000000000000000e+00" cType="1" res="-1.6005685320124030e-03" rms="2.2661368548870087e-01" purity="6.4415194094181061e-02" nType="-99"/>
          <Node pos="r" depth="2" NCoef="0" IVar="-1" Cut="0.0000000000000000e+00" cType="1" res="1.4023898984305561e-05" rms="3.2278952002525330e-01" purity="8.4559875726699829e-01" nType="-99"/>
        </Node>
        <Node pos="r" depth="1" NCoef="0" IVar="4" Cut="4.1723335937500000e+04" cType="1" res="4.2388087511062622e-01" rms="4.9417191743850708e-01" purity="4.2388084530830383e-01" nType="0">
          <Node pos="l" depth="2" NCoef="0" IVar="-1" Cut="0.0000000000000000e+00" cType="1" res="-4.1502527892589569e-04" rms="3.4921458363533020e-01" purity="3.0693435668945312e-01" nType="-99"/>
          <Node pos="r" depth="2" NCoef="0" IVar="-1" Cut="0.0000000000000000e+00" cType="1" res="5.3521594963967800e-04" rms="3.8531348109245300e-01" purity="7.6485884189605713e-01" nType="-99"/>
        </Node>
      </Node>
    </BinaryTree>
    <BinaryTree type="DecisionTree" boostWeight="1.0000000000000000e+00" itree="742">
      <Node pos="s" depth="0" NCoef="0" IVar="3" Cut="9.5951000000000000e+04" cType="1" res="4.8571026325225830e-01" rms="4.9984940886497498e-01" purity="4.8582887649536133e-01" nType="0">
        <Node pos="l" depth="1" NCoef="0" IVar="0" Cut="4.0000000000000000e+00" cType="1" res="1.1180115863680840e-02" rms="3.5484716296195984e-01" purity="3.8801759481430054e-01" nType="0">
          <Node pos="l" depth="2" NCoef="0" IVar="-1" Cut="0.0000000000000000e+00" cType="1" res="2.7732920716516674e-04" rms="3.6084613204002380e-01" purity="3.5191535949707031e-01" nType="-99"/>
          <Node pos="r" depth="2" NCoef="0" IVar="-1" Cut="0.0000000000000000e+00" cType="1" res="4.7659085248596966e-04" rms="2.3162297904491425e-01" purity="9.4405865669250488e-01" nType="-99"/>
        </Node>
        <Node pos="r" depth="1" NCoef="0" IVar="3" Cut="9.6732921875000000e+04" cType="1" res="7.7087312936782837e-01" rms="4.2027103900909424e-01" purity="7.7112764120101929e-01" nType="0">
          <Node pos="l" depth="2" NCoef="0" IVar="-1" Cut="0.0000000000000000e+00" cType="1" res="1.4046992873772979e-05" rms="3.1574794650077820e-01" purity="9.1292810440063477e-01" nType="-99"/>
          <Node pos="r" depth="2" NCoef="0" IVar="-1" Cut="0.0000000000000000e+00" cType="1" res="9.7704898507799953e-05" rms="3.6184126138687134e-01" purity="4.2117348313331604e-01" nType="-99"/>
        </Node>
      </Node>
    </BinaryTree>
    <BinaryTree type="DecisionTree" boostWeight="1.0000000000000000e+00" itree="743">
      <Node pos="s" depth="0" NCoef="0" IVar="1" Cut="2.0102773437500000e+05" cType="1" res="4.4626954197883606e-01" rms="4.9743205308914185e-01" purity="4.4676020741462708e-01" nType="0">
        <Node pos="l" depth="1" NCoef="0" IVar="2" Cut="8.9670617187500000e+04" cType="1" res="5.0250947475433350e-01" rms="5.2074652910232544e-01" purity="5.5937862396240234e-01" nType="0">
          <Node pos="l" depth="2" NCoef="0" IVar="-1" Cut="0.0000000000000000e+00" cType="1" res="2.4251603463198990e-05" rms="3.9421683549880981e-01" purity="8.0470544099807739e-01" nType="-99"/>
          <Node pos="r" depth="2" NCoef="0" IVar="-1" Cut="0.0000000000000000e+00" cType="1" res="4.2122974991798401e-04" rms="3.3528628945350647e-01" purity="2.2957657277584076e-01" nType="-99"/>
        </Node>
        <Node pos="r" depth="1" NCoef="0" IVar="5" Cut="4.6304196875000000e+05" cType="1" res="4.1216394305229187e-01" rms="4.9265465140342712e-01" purity="4.1280254721641541e-01" nType="0">
          <Node pos="l" depth="2" NCoef="0" IVar="-1" Cut="0.0000000000000000e+00" cType="1" res="-2.4479688727296889e-04" rms="3.6298400163650513e-01" purity="3.0276876688003540e-01" nType="-99"/>
          <Node pos="r" depth="2" NCoef="0" IVar="-1" Cut="0.0000000000000000e+00" cType="1" res="1.6466425731778145e-03" rms="3.3171218633651733e-01" purity="8.2278251647949219e-01" nType="-99"/>
        </Node>
      </Node>
    </BinaryTree>
    <BinaryTree type="DecisionTree" boostWeight="1.0000000000000000e+00" itree="744">
      <Node pos="s" depth="0" NCoef="0" IVar="4" Cut="8.1405906250000000e+04" cType="1" res="3.8517361879348755e-01" rms="4.8663631081581116e-01" purity="3.8517361879348755e-01" nType="0">
        <Node pos="l" depth="1" NCoef="0" IVar="0" Cut="4.0000000000000000e+00" cType="1" res="4.5906030572950840e-03" rms="3.6438068747520447e-01" purity="3.4766855835914612e-01" nType="0">
          <Node pos="l" depth="2" NCoef="0" IVar="-1" Cut="0.0000000000000000e+00" cType="1" res="5.6402524933218956e-05" rms="3.6901512742042542e-01" purity="3.1710675358772278e-01" nType="-99"/>
          <Node pos="r" depth="2" NCoef="0" IVar="-1" Cut="0.0000000000000000e+00" cType="1" res="3.7439265288412571e-03" rms="2.5133669376373291e-01" purity="9.3187278509140015e-01" nType="-99"/>
        </Node>
        <Node pos="r" depth="1" NCoef="0" IVar="-1" Cut="0.0000000000000000e+00" cType="1" res="9.8051025997847319e-04" rms="2.9770770668983459e-01" purity="9.0104317665100098e-01" nType="-99"/>
      </Node>
    </BinaryTree>
    <BinaryTree type="DecisionTree" boostWeight="1.0000000000000000e+00" itree="745">
      <Node pos="s" depth="0" NCoef="0" IVar="0" Cut="1.0000000000000000e+00" cType="1" res="2.2075961530208588e-01" rms="4.7405889630317688e-01" purity="5.4263019561767578e-01" nType="0">
        <Node pos="l" depth="1" NCoef="0" IVar="4" Cut="1.9683986328125000e+04" cType="1" res="5.1763355731964111e-01" rms="4.9968895316123962e-01" purity="5.1763355731964111e-01" nType="0">
          <Node pos="l" depth="2" NCoef="0" IVar="-1" Cut="0.0000000000000000e+00" cType="1" res="6.1655850149691105e-03" rms="2.2742308676242828e-01" purity="5.5423423647880554e-02" nType="-99"/>
          <Node pos="r" depth="2" NCoef="0" IVar="-1" Cut="0.0000000000000000e+00" cType="1" res="1.6198922821786255e-05" rms="4.7000744938850403e-01" purity="7.3542475700378418e-01" nType="-99"/>
        </Node>
        <Node pos="r" depth="1" NCoef="0" IVar="5" Cut="7.4074562500000000e+05" cType="1" res="5.8139985799789429e-01" rms="4.9332958459854126e-01" purity="5.8139985799789429e-01" nType="0">
          <Node pos="l" depth="2" NCoef="0" IVar="-1" Cut="0.0000000000000000e+00" cType="1" res="2.7032307116314769e-04" rms="4.1626712679862976e-01" purity="5.3730159997940063e-01" nType="-99"/>
          <Node pos="r" depth="2" NCoef="0" IVar="-1" Cut="0.0000000000000000e+00" cType="1" res="3.3749593421816826e-03" rms="2.7824762463569641e-01" purity="9.0841430425643921e-01" nType="-99"/>
        </Node>
      </Node>
    </BinaryTree>
    <BinaryTree type="DecisionTree" boostWeight="1.0000000000000000e+00" itree="746">
      <Node pos="s" depth="0" NCoef="0" IVar="4" Cut="7.6867679687500000e+04" cType="1" res="3.7816208600997925e-01" rms="4.8512691259384155e-01" purity="3.7835469841957092e-01" nType="0">
        <Node pos="l" depth="1" NCoef="0" IVar="0" Cut="3.0000000000000000e+00" cType="1" res="-1.1115224100649357e-02" rms="3.5212913155555725e-01" purity="3.2990068197250366e-01" nType="0">
          <Node pos="l" depth="2" NCoef="0" IVar="-1" Cut="0.0000000000000000e+00" cType="1" res="-1.1728658573701978e-03" rms="3.5800012946128845e-01" purity="2.5263759493827820e-01" nType="-99"/>
          <Node pos="r" depth="2" NCoef="0" IVar="-1" Cut="0.0000000000000000e+00" cType="1" res="5.2052026148885489e-04" rms="2.9750454425811768e-01" purity="9.0022891759872437e-01" nType="-99"/>
        </Node>
        <Node pos="r" depth="1" NCoef="0" IVar="-1" Cut="0.0000000000000000e+00" cType="1" res="9.7663805354386568e-04" rms="2.9458662867546082e-01" purity="9.0110099315643311e-01" nType="-99"/>
      </Node>
    </BinaryTree>
    <BinaryTree type="DecisionTree" boostWeight="1.0000000000000000e+00" itree="747">
      <Node pos="s" depth="0" NCoef="0" IVar="4" Cut="3.7107207031250000e+04" cType="1" res="3.8847678899765015e-01" rms="4.8740389943122864e-01" purity="3.8847678899765015e-01" nType="0">
        <Node pos="l" depth="1" NCoef="0" IVar="0" Cut="1.0000000000000000e+00" cType="1" res="-2.0043978001922369e-03" rms="3.3789372444152832e-01" purity="2.6781418919563293e-01" nType="0">
          <Node pos="l" depth="2" NCoef="0" IVar="-1" Cut="0.0000000000000000e+00" cType="1" res="-1.7912490293383598e-03" rms="2.5518679618835449e-01" purity="7.1926392614841461e-02" nType="-99"/>
          <Node pos="r" depth="2" NCoef="0" IVar="-1" Cut="0.0000000000000000e+00" cType="1" res="6.8244250724092126e-04" rms="4.1085031628608704e-01" purity="4.8831233382225037e-01" nType="-99"/>
        </Node>
        <Node pos="r" depth="1" NCoef="0" IVar="5" Cut="2.1291787500000000e+05" cType="1" res="7.0861804485321045e-01" rms="4.5439904928207397e-01" purity="7.0861810445785522e-01" nType="0">
          <Node pos="l" depth="2" NCoef="0" IVar="-1" Cut="0.0000000000000000e+00" cType="1" res="-3.2186970929615200e-04" rms="4.6320250630378723e-01" purity="4.0049350261688232e-01" nType="-99"/>
          <Node pos="r" depth="2" NCoef="0" IVar="-1" Cut="0.0000000000000000e+00" cType="1" res="9.1747590340673923e-04" rms="3.8745754957199097e-01" purity="7.7266442775726318e-01" nType="-99"/>
        </Node>
      </Node>
    </BinaryTree>
    <BinaryTree type="DecisionTree" boostWeight="1.0000000000000000e+00" itree="748">
      <Node pos="s" depth="0" NCoef="0" IVar="0" Cut="4.0000000000000000e+00" cType="1" res="6.0484949499368668e-03" rms="3.5798248648643494e-01" purity="3.8014805316925049e-01" nType="0">
        <Node pos="l" depth="1" NCoef="0" IVar="4" Cut="7.6838750000000000e+04" cType="1" res="3.4418731927871704e-01" rms="4.7510251402854919e-01" purity="3.4441113471984863e-01" nType="0">
          <Node pos="l" depth="2" NCoef="0" IVar="-1" Cut="0.0000000000000000e+00" cType="1" res="-1.2785042054019868e-04" rms="3.6601734161376953e-01" purity="3.0542495846748352e-01" nType="-99"/>
          <Node pos="r" depth="2" NCoef="0" IVar="-1" Cut="0.0000000000000000e+00" cType="1" res="7.0209504337981343e-04" rms="3.3050832152366638e-01" purity="8.7034648656845093e-01" nType="-99"/>
        </Node>
        <Node pos="r" depth="1" NCoef="0" IVar="-1" Cut="0.0000000000000000e+00" cType="1" res="4.9123942153528333e-04" rms="2.3358890414237976e-01" purity="9.4277852773666382e-01" nType="-99"/>
      </Node>
    </BinaryTree>
    <BinaryTree type="DecisionTree" boostWeight="1.0000000000000000e+00" itree="749">
      <Node pos="s" depth="0" NCoef="0" IVar="2" Cut="8.9600773437500000e+04" cType="1" res="5.2886408567428589e-01" rms="4.9936366081237793e-01" purity="5.2912139892578125e-01" nType="0">
        <Node pos="l" depth="1" NCoef="0" IVar="2" Cut="8.9247859375000000e+04" cType="1" res="7.5550115108489990e-01" rms="4.2978966236114502e-01" purity="7.5565767288208008e-01" nType="0">
          <Node pos="l" depth="2" NCoef="0" IVar="-1" Cut="0.0000000000000000e+00" cType="1" res="9.4856019131839275e-04" rms="3.8043570518493652e-01" purity="3.8445204496383667e-01" nType="-99"/>
          <Node pos="r" depth="2" NCoef="0" IVar="-1" Cut="0.0000000000000000e+00" cType="1" res="1.6946687537711114e-05" rms="2.8853628039360046e-01" purity="9.2578351497650146e-01" nType="-99"/>
        </Node>
        <Node pos="r" depth="1" NCoef="0" IVar="4" Cut="4.4910007812500000e+04" cType="1" res="3.8750788569450378e-01" rms="4.8750969767570496e-01" purity="3.8782805204391479e-01" nType="0">
          <Node pos="l" depth="2" NCoef="0" IVar="-1" Cut="0.0000000000000000e+00" cType="1" res="-5.5206939578056335e-04" rms="3.4124186635017395e-01" purity="2.8482574224472046e-01" nType="-99"/>
          <Node pos="r" depth="2" NCoef="0" IVar="-1" Cut="0.0000000000000000e+00" cType="1" res="8.9700880926102400e-04" rms="3.7306192517280579e-01" purity="7.8032445907592773e-01" nType="-99"/>
        </Node>
      </Node>
    </BinaryTree>
    <BinaryTree type="DecisionTree" boostWeight="1.0000000000000000e+00" itree="750">
      <Node pos="s" depth="0" NCoef="0" IVar="2" Cut="9.1773078125000000e+04" cType="1" res="4.6936267614364624e-01" rms="4.9928799271583557e-01" purity="4.6967041492462158e-01" nType="0">
        <Node pos="l" depth="1" NCoef="0" IVar="0" Cut="3.0000000000000000e+00" cType="1" res="4.8443186096847057e-03" rms="3.5315907001495361e-01" purity="3.8045918941497803e-01" nType="0">
          <Node pos="l" depth="2" NCoef="0" IVar="-1" Cut="0.0000000000000000e+00" cType="1" res="-8.6345884483307600e-05" rms="3.6080425977706909e-01" purity="3.0616077780723572e-01" nType="-99"/>
          <Node pos="r" depth="2" NCoef="0" IVar="-1" Cut="0.0000000000000000e+00" cType="1" res="2.1840468980371952e-03" rms="2.8898248076438904e-01" purity="9.0659070014953613e-01" nType="-99"/>
        </Node>
        <Node pos="r" depth="1" NCoef="0" IVar="2" Cut="9.1967843750000000e+04" cType="1" res="5.9695786237716675e-01" rms="4.9093511700630188e-01" purity="5.9737598896026611e-01" nType="0">
          <Node pos="l" depth="2" NCoef="0" IVar="-1" Cut="0.0000000000000000e+00" cType="1" res="2.0231071175658144e-05" rms="3.7047913670539856e-01" purity="8.7347769737243652e-01" nType="-99"/>
          <Node pos="r" depth="2" NCoef="0" IVar="-1" Cut="0.0000000000000000e+00" cType="1" res="4.1913692257367074e-04" rms="3.5910901427268982e-01" purity="4.0019345283508301e-01" nType="-99"/>
        </Node>
      </Node>
    </BinaryTree>
    <BinaryTree type="DecisionTree" boostWeight="1.0000000000000000e+00" itree="751">
      <Node pos="s" depth="0" NCoef="0" IVar="4" Cut="7.7974078125000000e+04" cType="1" res="3.8848417997360229e-01" rms="4.8765864968299866e-01" purity="3.8873091340065002e-01" nType="0">
        <Node pos="l" depth="1" NCoef="0" IVar="0" Cut="4.0000000000000000e+00" cType="1" res="3.8050871808081865e-03" rms="3.6285293102264404e-01" purity="3.4356167912483215e-01" nType="0">
          <Node pos="l" depth="2" NCoef="0" IVar="-1" Cut="0.0000000000000000e+00" cType="1" res="-2.7902749934582971e-05" rms="3.6776110529899597e-01" purity="3.1094577908515930e-01" nType="-99"/>
          <Node pos="r" depth="2" NCoef="0" IVar="-1" Cut="0.0000000000000000e+00" cType="1" res="4.1809160029515624e-04" rms="2.4490548670291901e-01" purity="9.3687087297439575e-01" nType="-99"/>
        </Node>
        <Node pos="r" depth="1" NCoef="0" IVar="-1" Cut="0.0000000000000000e+00" cType="1" res="1.0306970216333866e-03" rms="2.8867745399475098e-01" purity="9.0483278036117554e-01" nType="-99"/>
      </Node>
    </BinaryTree>
    <BinaryTree type="DecisionTree" boostWeight="1.0000000000000000e+00" itree="752">
      <Node pos="s" depth="0" NCoef="0" IVar="4" Cut="7.8737789062500000e+04" cType="1" res="3.8908070325851440e-01" rms="4.8762789368629456e-01" purity="3.8916474580764771e-01" nType="0">
        <Node pos="l" depth="1" NCoef="0" IVar="0" Cut="4.0000000000000000e+00" cType="1" res="-1.4542881399393082e-03" rms="3.5553464293479919e-01" purity="3.4083774685859680e-01" nType="0">
          <Node pos="l" depth="2" NCoef="0" IVar="-1" Cut="0.0000000000000000e+00" cType="1" res="-2.7882019639946520e-04" rms="3.5964968800544739e-01" purity="3.0996516346931458e-01" nType="-99"/>
          <Node pos="r" depth="2" NCoef="0" IVar="-1" Cut="0.0000000000000000e+00" cType="1" res="3.0983246397227049e-03" rms="2.5568515062332153e-01" purity="9.2914503812789917e-01" nType="-99"/>
        </Node>
        <Node pos="r" depth="1" NCoef="0" IVar="-1" Cut="0.0000000000000000e+00" cType="1" res="1.0907603427767754e-03" rms="2.8292164206504822e-01" purity="9.0983498096466064e-01" nType="-99"/>
      </Node>
    </BinaryTree>
    <BinaryTree type="DecisionTree" boostWeight="1.0000000000000000e+00" itree="753">
      <Node pos="s" depth="0" NCoef="0" IVar="5" Cut="1.6215667187500000e+05" cType="1" res="5.4409372806549072e-01" rms="4.9810081720352173e-01" purity="5.4440122842788696e-01" nType="0">
        <Node pos="l" depth="1" NCoef="0" IVar="-1" Cut="0.0000000000000000e+00" cType="1" res="1.4072534213482868e-05" rms="3.8333836197853088e-01" purity="7.4807250499725342e-01" nType="-99"/>
        <Node pos="r" depth="1" NCoef="0" IVar="2" Cut="9.1774695312500000e+04" cType="1" res="4.9648198485374451e-01" rms="5.0004768371582031e-01" purity="4.9686127901077271e-01" nType="0">
          <Node pos="l" depth="2" NCoef="0" IVar="-1" Cut="0.0000000000000000e+00" cType="1" res="2.1003020810894668e-04" rms="3.6347129940986633e-01" purity="4.0820339322090149e-01" nType="-99"/>
          <Node pos="r" depth="2" NCoef="0" IVar="-1" Cut="0.0000000000000000e+00" cType="1" res="2.0721252440125681e-05" rms="4.9866288900375366e-01" purity="6.1946284770965576e-01" nType="-99"/>
        </Node>
      </Node>
    </BinaryTree>
    <BinaryTree type="DecisionTree" boostWeight="1.0000000000000000e+00" itree="754">
      <Node pos="s" depth="0" NCoef="0" IVar="4" Cut="7.7944625000000000e+04" cType="1" res="3.8002762198448181e-01" rms="4.8539328575134277e-01" purity="3.8002759218215942e-01" nType="0">
        <Node pos="l" depth="1" NCoef="0" IVar="0" Cut="3.0000000000000000e+00" cType="1" res="-3.6704996600747108e-03" rms="3.5656782984733582e-01" purity="3.3507284522056580e-01" nType="0">
          <Node pos="l" depth="2" NCoef="0" IVar="-1" Cut="0.0000000000000000e+00" cType="1" res="-6.7366310395300388e-04" rms="3.6233302950859070e-01" purity="2.6209926605224609e-01" nType="-99"/>
          <Node pos="r" depth="2" NCoef="0" IVar="-1" Cut="0.0000000000000000e+00" cType="1" res="2.0918746013194323e-03" rms="3.0382546782493591e-01" purity="8.9562553167343140e-01" nType="-99"/>
        </Node>
        <Node pos="r" depth="1" NCoef="0" IVar="-1" Cut="0.0000000000000000e+00" cType="1" res="9.2163658700883389e-04" rms="3.0166170001029968e-01" purity="8.9670979976654053e-01" nType="-99"/>
      </Node>
    </BinaryTree>
    <BinaryTree type="DecisionTree" boostWeight="1.0000000000000000e+00" itree="755">
      <Node pos="s" depth="0" NCoef="0" IVar="2" Cut="8.9674031250000000e+04" cType="1" res="5.6195539236068726e-01" rms="4.9614667892456055e-01" purity="5.6195539236068726e-01" nType="0">
        <Node pos="l" depth="1" NCoef="0" IVar="2" Cut="8.9263273437500000e+04" cType="1" res="7.9330301284790039e-01" rms="4.0493622422218323e-01" purity="7.9330301284790039e-01" nType="0">
          <Node pos="l" depth="2" NCoef="0" IVar="-1" Cut="0.0000000000000000e+00" cType="1" res="4.1911422158591449e-04" rms="3.5321038961410522e-01" purity="3.8791713118553162e-01" nType="-99"/>
          <Node pos="r" depth="2" NCoef="0" IVar="-1" Cut="0.0000000000000000e+00" cType="1" res="1.8494461983209476e-05" rms="2.7642160654067993e-01" purity="9.3268561363220215e-01" nType="-99"/>
        </Node>
        <Node pos="r" depth="1" NCoef="0" IVar="0" Cut="3.0000000000000000e+00" cType="1" res="-1.9431136315688491e-03" rms="3.5262903571128845e-01" purity="3.7947997450828552e-01" nType="0">
          <Node pos="l" depth="2" NCoef="0" IVar="-1" Cut="0.0000000000000000e+00" cType="1" res="-4.3859984725713730e-04" rms="3.6008447408676147e-01" purity="3.0274647474288940e-01" nType="-99"/>
          <Node pos="r" depth="2" NCoef="0" IVar="-1" Cut="0.0000000000000000e+00" cType="1" res="2.0916184876114130e-03" rms="2.9249489307403564e-01" purity="9.0322083234786987e-01" nType="-99"/>
        </Node>
      </Node>
    </BinaryTree>
    <BinaryTree type="DecisionTree" boostWeight="1.0000000000000000e+00" itree="756">
      <Node pos="s" depth="0" NCoef="0" IVar="3" Cut="8.9426250000000000e+04" cType="1" res="5.1465284824371338e-01" rms="4.9978524446487427e-01" purity="5.1465284824371338e-01" nType="0">
        <Node pos="l" depth="1" NCoef="0" IVar="3" Cut="8.8492710937500000e+04" cType="1" res="6.0892999172210693e-01" rms="4.8799002170562744e-01" purity="6.0892999172210693e-01" nType="0">
          <Node pos="l" depth="2" NCoef="0" IVar="-1" Cut="0.0000000000000000e+00" cType="1" res="1.3142170791979879e-04" rms="3.4681752324104309e-01" purity="3.8085231184959412e-01" nType="-99"/>
          <Node pos="r" depth="2" NCoef="0" IVar="-1" Cut="0.0000000000000000e+00" cType="1" res="2.1938340069027618e-05" rms="4.1189214587211609e-01" purity="8.3141636848449707e-01" nType="-99"/>
        </Node>
        <Node pos="r" depth="1" NCoef="0" IVar="3" Cut="9.8860406250000000e+04" cType="1" res="3.8583999872207642e-01" rms="4.8690924048423767e-01" purity="3.8595312833786011e-01" nType="0">
          <Node pos="l" depth="2" NCoef="0" IVar="-1" Cut="0.0000000000000000e+00" cType="1" res="-2.7915023383684456e-04" rms="3.5077643394470215e-01" purity="3.7615469098091125e-01" nType="-99"/>
          <Node pos="r" depth="2" NCoef="0" IVar="-1" Cut="0.0000000000000000e+00" cType="1" res="1.3296789256855845e-03" rms="3.9210298657417297e-01" purity="5.1116830110549927e-01" nType="-99"/>
        </Node>
      </Node>
    </BinaryTree>
    <BinaryTree type="DecisionTree" boostWeight="1.0000000000000000e+00" itree="757">
      <Node pos="s" depth="0" NCoef="0" IVar="1" Cut="2.0309048437500000e+05" cType="1" res="6.0566902160644531e-01" rms="4.8876500129699707e-01" purity="6.0579311847686768e-01" nType="0">
        <Node pos="l" depth="1" NCoef="0" IVar="2" Cut="8.9620320312500000e+04" cType="1" res="4.1788613796234131e-01" rms="5.0360262393951416e-01" purity="7.7965468168258667e-01" nType="0">
          <Node pos="l" depth="2" NCoef="0" IVar="-1" Cut="0.0000000000000000e+00" cType="1" res="1.8469139831722714e-05" rms="2.5197479128837585e-01" purity="9.3430775403976440e-01" nType="-99"/>
          <Node pos="r" depth="2" NCoef="0" IVar="-1" Cut="0.0000000000000000e+00" cType="1" res="-4.8581400187686086e-04" rms="3.2990804314613342e-01" purity="2.2859109938144684e-01" nType="-99"/>
        </Node>
        <Node pos="r" depth="1" NCoef="0" IVar="2" Cut="9.1787367187500000e+04" cType="1" res="5.0451469421386719e-01" rms="5.0006997585296631e-01" purity="5.0471103191375732e-01" nType="0">
          <Node pos="l" depth="2" NCoef="0" IVar="-1" Cut="0.0000000000000000e+00" cType="1" res="6.1001959693385288e-05" rms="3.5685932636260986e-01" purity="4.0666455030441284e-01" nType="-99"/>
          <Node pos="r" depth="2" NCoef="0" IVar="-1" Cut="0.0000000000000000e+00" cType="1" res="2.0293789930292405e-05" rms="4.9970361590385437e-01" purity="6.3481426239013672e-01" nType="-99"/>
        </Node>
      </Node>
    </BinaryTree>
    <BinaryTree type="DecisionTree" boostWeight="1.0000000000000000e+00" itree="758">
      <Node pos="s" depth="0" NCoef="0" IVar="0" Cut="4.0000000000000000e+00" cType="1" res="7.0343213155865669e-03" rms="3.5267230868339539e-01" purity="3.9216464757919312e-01" nType="0">
        <Node pos="l" depth="1" NCoef="0" IVar="4" Cut="7.4042304687500000e+04" cType="1" res="3.5396024584770203e-01" rms="4.7819703817367554e-01" purity="3.5396027565002441e-01" nType="0">
          <Node pos="l" depth="2" NCoef="0" IVar="-1" Cut="0.0000000000000000e+00" cType="1" res="-2.7624578797258437e-04" rms="3.6275473237037659e-01" purity="3.0562087893486023e-01" nType="-99"/>
          <Node pos="r" depth="2" NCoef="0" IVar="-1" Cut="0.0000000000000000e+00" cType="1" res="9.5656752819195390e-04" rms="3.0913907289505005e-01" purity="8.8782477378845215e-01" nType="-99"/>
        </Node>
        <Node pos="r" depth="1" NCoef="0" IVar="-1" Cut="0.0000000000000000e+00" cType="1" res="3.2410732819698751e-04" rms="2.2123654186725616e-01" purity="9.4973778724670410e-01" nType="-99"/>
      </Node>
    </BinaryTree>
    <BinaryTree type="DecisionTree" boostWeight="1.0000000000000000e+00" itree="759">
      <Node pos="s" depth="0" NCoef="0" IVar="1" Cut="1.8991192187500000e+05" cType="1" res="4.5150479674339294e-01" rms="4.9764266610145569e-01" purity="4.5150479674339294e-01" nType="0">
        <Node pos="l" depth="1" NCoef="0" IVar="-1" Cut="0.0000000000000000e+00" cType="1" res="2.4470748030580580e-05" rms="4.3153342604637146e-01" purity="7.2855013608932495e-01" nType="-99"/>
        <Node pos="r" depth="1" NCoef="0" IVar="4" Cut="8.2557554687500000e+04" cType="1" res="4.0397089719772339e-01" rms="4.9069178104400635e-01" purity="4.0397089719772339e-01" nType="0">
          <Node pos="l" depth="2" NCoef="0" IVar="-1" Cut="0.0000000000000000e+00" cType="1" res="1.6436484293080866e-04" rms="3.5926672816276550e-01" purity="3.6076658964157104e-01" nType="-99"/>
          <Node pos="r" depth="2" NCoef="0" IVar="-1" Cut="0.0000000000000000e+00" cType="1" res="1.0987932328134775e-03" rms="2.6957386732101440e-01" purity="9.2034041881561279e-01" nType="-99"/>
        </Node>
      </Node>
    </BinaryTree>
    <BinaryTree type="DecisionTree" boostWeight="1.0000000000000000e+00" itree="760">
      <Node pos="s" depth="0" NCoef="0" IVar="1" Cut="1.8991192187500000e+05" cType="1" res="4.5846545696258545e-01" rms="4.9827188253402710e-01" purity="4.5846545696258545e-01" nType="0">
        <Node pos="l" depth="1" NCoef="0" IVar="-1" Cut="0.0000000000000000e+00" cType="1" res="2.4658847905811854e-05" rms="4.3026405572891235e-01" purity="7.3879522085189819e-01" nType="-99"/>
        <Node pos="r" depth="1" NCoef="0" IVar="0" Cut="4.0000000000000000e+00" cType="1" res="1.4423757791519165e-02" rms="3.5892403125762939e-01" purity="4.1047161817550659e-01" nType="0">
          <Node pos="l" depth="2" NCoef="0" IVar="-1" Cut="0.0000000000000000e+00" cType="1" res="2.8648425359278917e-04" rms="3.6736842989921570e-01" purity="3.6584323644638062e-01" nType="-99"/>
          <Node pos="r" depth="2" NCoef="0" IVar="-1" Cut="0.0000000000000000e+00" cType="1" res="2.1587887022178620e-04" rms="2.1280543506145477e-01" purity="9.5477586984634399e-01" nType="-99"/>
        </Node>
      </Node>
    </BinaryTree>
    <BinaryTree type="DecisionTree" boostWeight="1.0000000000000000e+00" itree="761">
      <Node pos="s" depth="0" NCoef="0" IVar="3" Cut="9.5951023437500000e+04" cType="1" res="4.8657867312431335e-01" rms="4.9992182850837708e-01" purity="4.8674640059471130e-01" nType="0">
        <Node pos="l" depth="1" NCoef="0" IVar="4" Cut="3.5519035156250000e+04" cType="1" res="3.8052615523338318e-01" rms="4.8605248332023621e-01" purity="3.8104718923568726e-01" nType="0">
          <Node pos="l" depth="2" NCoef="0" IVar="-1" Cut="0.0000000000000000e+00" cType="1" res="-4.0123387589119375e-04" rms="3.3383110165596008e-01" purity="2.5292557477951050e-01" nType="-99"/>
          <Node pos="r" depth="2" NCoef="0" IVar="-1" Cut="0.0000000000000000e+00" cType="1" res="7.8096054494380951e-04" rms="4.0551897883415222e-01" purity="6.9109547138214111e-01" nType="-99"/>
        </Node>
        <Node pos="r" depth="1" NCoef="0" IVar="2" Cut="8.9294859375000000e+04" cType="1" res="7.7636325359344482e-01" rms="4.1697654128074646e-01" purity="7.7660930156707764e-01" nType="0">
          <Node pos="l" depth="2" NCoef="0" IVar="-1" Cut="0.0000000000000000e+00" cType="1" res="1.4326198652270250e-05" rms="3.2341012358665466e-01" purity="9.0975350141525269e-01" nType="-99"/>
          <Node pos="r" depth="2" NCoef="0" IVar="-1" Cut="0.0000000000000000e+00" cType="1" res="5.7894375640898943e-04" rms="3.6884099245071411e-01" purity="4.5481592416763306e-01" nType="-99"/>
        </Node>
      </Node>
    </BinaryTree>
    <BinaryTree type="DecisionTree" boostWeight="1.0000000000000000e+00" itree="762">
      <Node pos="s" depth="0" NCoef="0" IVar="3" Cut="8.9425890625000000e+04" cType="1" res="5.7397788763046265e-01" rms="4.9464797973632812e-01" purity="5.7425493001937866e-01" nType="0">
        <Node pos="l" depth="1" NCoef="0" IVar="3" Cut="8.8492484375000000e+04" cType="1" res="6.8111199140548706e-01" rms="4.6612298488616943e-01" purity="6.8139535188674927e-01" nType="0">
          <Node pos="l" depth="2" NCoef="0" IVar="-1" Cut="0.0000000000000000e+00" cType="1" res="3.4360581776127219e-04" rms="3.5666495561599731e-01" purity="4.0416330099105835e-01" nType="-99"/>
          <Node pos="r" depth="2" NCoef="0" IVar="-1" Cut="0.0000000000000000e+00" cType="1" res="2.1252464648569003e-05" rms="3.6457273364067078e-01" purity="8.7807834148406982e-01" nType="-99"/>
        </Node>
        <Node pos="r" depth="1" NCoef="0" IVar="0" Cut="3.0000000000000000e+00" cType="1" res="2.4167714582290500e-04" rms="3.5495752096176147e-01" purity="3.8680663704872131e-01" nType="0">
          <Node pos="l" depth="2" NCoef="0" IVar="-1" Cut="0.0000000000000000e+00" cType="1" res="-3.2538553932681680e-04" rms="3.6333015561103821e-01" purity="3.0859887599945068e-01" nType="-99"/>
          <Node pos="r" depth="2" NCoef="0" IVar="-1" Cut="0.0000000000000000e+00" cType="1" res="1.9468460232019424e-03" rms="2.8889906406402588e-01" purity="9.0633469820022583e-01" nType="-99"/>
        </Node>
      </Node>
    </BinaryTree>
    <BinaryTree type="DecisionTree" boostWeight="1.0000000000000000e+00" itree="763">
      <Node pos="s" depth="0" NCoef="0" IVar="2" Cut="8.9692742187500000e+04" cType="1" res="5.3139281272888184e-01" rms="4.9901351332664490e-01" purity="5.3139281272888184e-01" nType="0">
        <Node pos="l" depth="1" NCoef="0" IVar="5" Cut="1.7627865625000000e+05" cType="1" res="7.4251157045364380e-01" rms="4.3725067377090454e-01" purity="7.4251151084899902e-01" nType="0">
          <Node pos="l" depth="2" NCoef="0" IVar="-1" Cut="0.0000000000000000e+00" cType="1" res="1.6744268577895127e-05" rms="2.7160495519638062e-01" purity="8.9922243356704712e-01" nType="-99"/>
          <Node pos="r" depth="2" NCoef="0" IVar="-1" Cut="0.0000000000000000e+00" cType="1" res="5.9405807405710220e-05" rms="3.6645555496215820e-01" purity="4.4866880774497986e-01" nType="-99"/>
        </Node>
        <Node pos="r" depth="1" NCoef="0" IVar="4" Cut="4.0201113281250000e+04" cType="1" res="3.9489939808845520e-01" rms="4.8914358019828796e-01" purity="3.9553183317184448e-01" nType="0">
          <Node pos="l" depth="2" NCoef="0" IVar="-1" Cut="0.0000000000000000e+00" cType="1" res="-2.0594845409505069e-04" rms="3.3847713470458984e-01" purity="2.7985113859176636e-01" nType="-99"/>
          <Node pos="r" depth="2" NCoef="0" IVar="-1" Cut="0.0000000000000000e+00" cType="1" res="7.7382696326822042e-04" rms="3.9301025867462158e-01" purity="7.3972117900848389e-01" nType="-99"/>
        </Node>
      </Node>
    </BinaryTree>
    <BinaryTree type="DecisionTree" boostWeight="1.0000000000000000e+00" itree="764">
      <Node pos="s" depth="0" NCoef="0" IVar="1" Cut="2.0240409375000000e+05" cType="1" res="0.0000000000000000e+00" rms="0.0000000000000000e+00" purity="4.4456103444099426e-01" nType="0">
        <Node pos="l" depth="1" NCoef="0" IVar="2" Cut="8.9600773437500000e+04" cType="1" res="4.9349677562713623e-01" rms="5.1981699466705322e-01" purity="5.4529637098312378e-01" nType="0">
          <Node pos="l" depth="2" NCoef="0" IVar="-1" Cut="0.0000000000000000e+00" cType="1" res="2.4740898879827000e-05" rms="3.9962401986122131e-01" purity="7.9787123203277588e-01" nType="-99"/>
          <Node pos="r" depth="2" NCoef="0" IVar="-1" Cut="0.0000000000000000e+00" cType="1" res="3.9449581527151167e-04" rms="3.4217166900634766e-01" purity="2.2887785732746124e-01" nType="-99"/>
        </Node>
        <Node pos="r" depth="1" NCoef="0" IVar="4" Cut="7.7944625000000000e+04" cType="1" res="0.0000000000000000e+00" rms="7.6582445026040087e+21" purity="4.1202560067176819e-01" nType="0">
          <Node pos="l" depth="2" NCoef="0" IVar="-1" Cut="0.0000000000000000e+00" cType="1" res="-1.4908405137248337e-04" rms="3.6447581648826599e-01" purity="3.6003249883651733e-01" nType="-99"/>
          <Node pos="r" depth="2" NCoef="0" IVar="-1" Cut="0.0000000000000000e+00" cType="1" res="1.0132326278835535e-03" rms="2.7653768658638000e-01" purity="9.1431081295013428e-01" nType="-99"/>
        </Node>
      </Node>
    </BinaryTree>
    <BinaryTree type="DecisionTree" boostWeight="1.0000000000000000e+00" itree="765">
      <Node pos="s" depth="0" NCoef="0" IVar="0" Cut="1.0000000000000000e+00" cType="1" res="2.6215997338294983e-01" rms="4.8138615489006042e-01" purity="5.7602006196975708e-01" nType="0">
        <Node pos="l" depth="1" NCoef="0" IVar="4" Cut="1.9435326171875000e+04" cType="1" res="5.6992000341415405e-01" rms="4.9508705735206604e-01" purity="5.6992000341415405e-01" nType="0">
          <Node pos="l" depth="2" NCoef="0" IVar="-1" Cut="0.0000000000000000e+00" cType="1" res="-5.7630980154499412e-04" rms="1.8928320705890656e-01" purity="3.7965983152389526e-02" nType="-99"/>
          <Node pos="r" depth="2" NCoef="0" IVar="-1" Cut="0.0000000000000000e+00" cType="1" res="1.7577249309397303e-05" rms="4.4763940572738647e-01" purity="7.7341568470001221e-01" nType="-99"/>
        </Node>
        <Node pos="r" depth="1" NCoef="0" IVar="5" Cut="7.0393787500000000e+05" cType="1" res="5.8536577224731445e-01" rms="4.9320623278617859e-01" purity="5.8654212951660156e-01" nType="0">
          <Node pos="l" depth="2" NCoef="0" IVar="-1" Cut="0.0000000000000000e+00" cType="1" res="2.5429922970943153e-04" rms="4.1642734408378601e-01" purity="5.3322589397430420e-01" nType="-99"/>
          <Node pos="r" depth="2" NCoef="0" IVar="-1" Cut="0.0000000000000000e+00" cType="1" res="2.7336901985108852e-03" rms="2.8278431296348572e-01" purity="9.0418928861618042e-01" nType="-99"/>
        </Node>
      </Node>
    </BinaryTree>
    <BinaryTree type="DecisionTree" boostWeight="1.0000000000000000e+00" itree="766">
      <Node pos="s" depth="0" NCoef="0" IVar="2" Cut="9.1882625000000000e+04" cType="1" res="5.3592157363891602e-01" rms="4.9870797991752625e-01" purity="5.3592157363891602e-01" nType="0">
        <Node pos="l" depth="1" NCoef="0" IVar="5" Cut="3.4112962500000000e+05" cType="1" res="3.8693973422050476e-01" rms="4.8704966902732849e-01" purity="3.8693973422050476e-01" nType="0">
          <Node pos="l" depth="2" NCoef="0" IVar="-1" Cut="0.0000000000000000e+00" cType="1" res="-3.2011905568651855e-04" rms="3.4844827651977539e-01" purity="2.2340640425682068e-01" nType="-99"/>
          <Node pos="r" depth="2" NCoef="0" IVar="-1" Cut="0.0000000000000000e+00" cType="1" res="7.8468141146004200e-04" rms="3.5794916749000549e-01" purity="7.4964886903762817e-01" nType="-99"/>
        </Node>
        <Node pos="r" depth="1" NCoef="0" IVar="2" Cut="9.2075046875000000e+04" cType="1" res="7.1053880453109741e-01" rms="4.5364585518836975e-01" purity="7.1065992116928101e-01" nType="0">
          <Node pos="l" depth="2" NCoef="0" IVar="-1" Cut="0.0000000000000000e+00" cType="1" res="2.0222902094246820e-05" rms="2.8083136677742004e-01" purity="9.3438649177551270e-01" nType="-99"/>
          <Node pos="r" depth="2" NCoef="0" IVar="-1" Cut="0.0000000000000000e+00" cType="1" res="6.3468876760452986e-05" rms="3.5814961791038513e-01" purity="3.9357572793960571e-01" nType="-99"/>
        </Node>
      </Node>
    </BinaryTree>
    <BinaryTree type="DecisionTree" boostWeight="1.0000000000000000e+00" itree="767">
      <Node pos="s" depth="0" NCoef="0" IVar="4" Cut="3.5488527343750000e+04" cType="1" res="3.9185175299644470e-01" rms="4.8816385865211487e-01" purity="3.9185172319412231e-01" nType="0">
        <Node pos="l" depth="1" NCoef="0" IVar="4" Cut="2.3673638671875000e+04" cType="1" res="2.6249834895133972e-01" rms="4.4010230898857117e-01" purity="2.6259544491767883e-01" nType="0">
          <Node pos="l" depth="2" NCoef="0" IVar="-1" Cut="0.0000000000000000e+00" cType="1" res="1.0733726667240262e-03" rms="3.1056371331214905e-01" purity="2.2264795005321503e-01" nType="-99"/>
          <Node pos="r" depth="2" NCoef="0" IVar="-1" Cut="0.0000000000000000e+00" cType="1" res="-1.6720552230253816e-03" rms="3.9625775814056396e-01" purity="3.7877207994461060e-01" nType="-99"/>
        </Node>
        <Node pos="r" depth="1" NCoef="0" IVar="1" Cut="2.8373837500000000e+05" cType="1" res="6.9791918992996216e-01" rms="4.5916008949279785e-01" purity="6.9791918992996216e-01" nType="0">
          <Node pos="l" depth="2" NCoef="0" IVar="-1" Cut="0.0000000000000000e+00" cType="1" res="1.1045951396226883e-03" rms="4.3211975693702698e-01" purity="6.5041536092758179e-01" nType="-99"/>
          <Node pos="r" depth="2" NCoef="0" IVar="-1" Cut="0.0000000000000000e+00" cType="1" res="3.9985889452509582e-04" rms="3.7210309505462646e-01" purity="7.5386601686477661e-01" nType="-99"/>
        </Node>
      </Node>
    </BinaryTree>
    <BinaryTree type="DecisionTree" boostWeight="1.0000000000000000e+00" itree="768">
      <Node pos="s" depth="0" NCoef="0" IVar="5" Cut="1.6699128125000000e+05" cType="1" res="6.8037819862365723e-01" rms="4.6633890271186829e-01" purity="6.8038648366928101e-01" nType="0">
        <Node pos="l" depth="1" NCoef="0" IVar="3" Cut="8.9991796875000000e+04" cType="1" res="9.1611683368682861e-01" rms="2.7721250057220459e-01" purity="9.1611683368682861e-01" nType="0">
          <Node pos="l" depth="2" NCoef="0" IVar="-1" Cut="0.0000000000000000e+00" cType="1" res="-1.6230368055403233e-04" rms="2.4140162765979767e-01" purity="8.0779425799846649e-02" nType="-99"/>
          <Node pos="r" depth="2" NCoef="0" IVar="-1" Cut="0.0000000000000000e+00" cType="1" res="1.4213677786756307e-05" rms="1.6195350885391235e-01" purity="9.6602815389633179e-01" nType="-99"/>
        </Node>
        <Node pos="r" depth="1" NCoef="0" IVar="0" Cut="4.0000000000000000e+00" cType="1" res="4.9361237324774265e-03" rms="3.6445042490959167e-01" purity="4.1202053427696228e-01" nType="0">
          <Node pos="l" depth="2" NCoef="0" IVar="-1" Cut="0.0000000000000000e+00" cType="1" res="1.6598922229604796e-05" rms="3.7059471011161804e-01" purity="3.7750491499900818e-01" nType="-99"/>
          <Node pos="r" depth="2" NCoef="0" IVar="-1" Cut="0.0000000000000000e+00" cType="1" res="4.3425156036391854e-04" rms="2.4267083406448364e-01" purity="9.3802177906036377e-01" nType="-99"/>
        </Node>
      </Node>
    </BinaryTree>
    <BinaryTree type="DecisionTree" boostWeight="1.0000000000000000e+00" itree="769">
      <Node pos="s" depth="0" NCoef="0" IVar="2" Cut="9.1879203125000000e+04" cType="1" res="4.7058588266372681e-01" rms="4.9976095557212830e-01" purity="4.7130203247070312e-01" nType="0">
        <Node pos="l" depth="1" NCoef="0" IVar="4" Cut="3.7094507812500000e+04" cType="1" res="3.8718891143798828e-01" rms="4.8806270956993103e-01" purity="3.8812041282653809e-01" nType="0">
          <Node pos="l" depth="2" NCoef="0" IVar="-1" Cut="0.0000000000000000e+00" cType="1" res="-7.7138078631833196e-04" rms="3.3243265748023987e-01" purity="2.5963956117630005e-01" nType="-99"/>
          <Node pos="r" depth="2" NCoef="0" IVar="-1" Cut="0.0000000000000000e+00" cType="1" res="4.4272109516896307e-04" rms="3.9704734086990356e-01" purity="7.1651446819305420e-01" nType="-99"/>
        </Node>
        <Node pos="r" depth="1" NCoef="0" IVar="2" Cut="9.2075976562500000e+04" cType="1" res="6.0195171833038330e-01" rms="4.8964387178421021e-01" purity="6.0232859849929810e-01" nType="0">
          <Node pos="l" depth="2" NCoef="0" IVar="-1" Cut="0.0000000000000000e+00" cType="1" res="2.0069654055987485e-05" rms="3.6074906587600708e-01" purity="8.7984222173690796e-01" nType="-99"/>
          <Node pos="r" depth="2" NCoef="0" IVar="-1" Cut="0.0000000000000000e+00" cType="1" res="2.9644390451721847e-04" rms="3.5955724120140076e-01" purity="3.9532864093780518e-01" nType="-99"/>
        </Node>
      </Node>
    </BinaryTree>
    <BinaryTree type="DecisionTree" boostWeight="1.0000000000000000e+00" itree="770">
      <Node pos="s" depth="0" NCoef="0" IVar="4" Cut="5.9146828125000000e+04" cType="1" res="3.8710555434226990e-01" rms="4.8739567399024963e-01" purity="3.8753420114517212e-01" nType="0">
        <Node pos="l" depth="1" NCoef="0" IVar="4" Cut="2.3118265625000000e+04" cType="1" res="3.1141477823257446e-01" rms="4.6324494481086731e-01" purity="3.1191197037696838e-01" nType="0">
          <Node pos="l" depth="2" NCoef="0" IVar="-1" Cut="0.0000000000000000e+00" cType="1" res="8.4440835053101182e-04" rms="3.0569347739219666e-01" purity="2.1838964521884918e-01" nType="-99"/>
          <Node pos="r" depth="2" NCoef="0" IVar="-1" Cut="0.0000000000000000e+00" cType="1" res="-8.9802517322823405e-04" rms="4.1632467508316040e-01" purity="4.5082119107246399e-01" nType="-99"/>
        </Node>
        <Node pos="r" depth="1" NCoef="0" IVar="1" Cut="2.5519317187500000e+05" cType="1" res="8.6059302091598511e-01" rms="3.4637069702148438e-01" purity="8.6059302091598511e-01" nType="0">
          <Node pos="l" depth="2" NCoef="0" IVar="-1" Cut="0.0000000000000000e+00" cType="1" res="-7.4728071922436357e-05" rms="4.1472366452217102e-01" purity="7.5648796558380127e-01" nType="-99"/>
          <Node pos="r" depth="2" NCoef="0" IVar="-1" Cut="0.0000000000000000e+00" cType="1" res="1.0720081627368927e-03" rms="2.9394555091857910e-01" purity="9.0119963884353638e-01" nType="-99"/>
        </Node>
      </Node>
    </BinaryTree>
    <BinaryTree type="DecisionTree" boostWeight="1.0000000000000000e+00" itree="771">
      <Node pos="s" depth="0" NCoef="0" IVar="1" Cut="1.9950276562500000e+05" cType="1" res="4.9495208263397217e-01" rms="5.0018477439880371e-01" purity="4.9539050459861755e-01" nType="0">
        <Node pos="l" depth="1" NCoef="0" IVar="2" Cut="8.9609210937500000e+04" cType="1" res="6.6712069511413574e-01" rms="4.8409876227378845e-01" purity="7.0856964588165283e-01" nType="0">
          <Node pos="l" depth="2" NCoef="0" IVar="-1" Cut="0.0000000000000000e+00" cType="1" res="2.4872333597159013e-05" rms="3.0570185184478760e-01" purity="8.9605396986007690e-01" nType="-99"/>
          <Node pos="r" depth="2" NCoef="0" IVar="-1" Cut="0.0000000000000000e+00" cType="1" res="6.8870367249473929e-04" rms="3.4374377131462097e-01" purity="2.3073253035545349e-01" nType="-99"/>
        </Node>
        <Node pos="r" depth="1" NCoef="0" IVar="4" Cut="5.5033109375000000e+04" cType="1" res="4.0573978424072266e-01" rms="4.9133813381195068e-01" purity="4.0636128187179565e-01" nType="0">
          <Node pos="l" depth="2" NCoef="0" IVar="-1" Cut="0.0000000000000000e+00" cType="1" res="-4.0199127397499979e-04" rms="3.5507103800773621e-01" purity="3.2097008824348450e-01" nType="-99"/>
          <Node pos="r" depth="2" NCoef="0" IVar="-1" Cut="0.0000000000000000e+00" cType="1" res="8.2346348790451884e-04" rms="3.4947678446769714e-01" purity="8.4231638908386230e-01" nType="-99"/>
        </Node>
      </Node>
    </BinaryTree>
    <BinaryTree type="DecisionTree" boostWeight="1.0000000000000000e+00" itree="772">
      <Node pos="s" depth="0" NCoef="0" IVar="2" Cut="9.1836718750000000e+04" cType="1" res="4.6837228536605835e-01" rms="4.9899867177009583e-01" purity="4.6837228536605835e-01" nType="0">
        <Node pos="l" depth="1" NCoef="0" IVar="4" Cut="3.6674894531250000e+04" cType="1" res="3.8218697905540466e-01" rms="4.8592188954353333e-01" purity="3.8218697905540466e-01" nType="0">
          <Node pos="l" depth="2" NCoef="0" IVar="-1" Cut="0.0000000000000000e+00" cType="1" res="-8.8916945969685912e-04" rms="3.3191874623298645e-01" purity="2.5344976782798767e-01" nType="-99"/>
          <Node pos="r" depth="2" NCoef="0" IVar="-1" Cut="0.0000000000000000e+00" cType="1" res="4.5498867984861135e-04" rms="3.9836809039115906e-01" purity="7.1404772996902466e-01" nType="-99"/>
        </Node>
        <Node pos="r" depth="1" NCoef="0" IVar="2" Cut="9.2028320312500000e+04" cType="1" res="5.9990912675857544e-01" rms="4.9024331569671631e-01" purity="6.0022944211959839e-01" nType="0">
          <Node pos="l" depth="2" NCoef="0" IVar="-1" Cut="0.0000000000000000e+00" cType="1" res="2.0187335394439287e-05" rms="3.6732301115989685e-01" purity="8.7562543153762817e-01" nType="-99"/>
          <Node pos="r" depth="2" NCoef="0" IVar="-1" Cut="0.0000000000000000e+00" cType="1" res="1.7127764294855297e-04" rms="3.6065962910652161e-01" purity="3.9144313335418701e-01" nType="-99"/>
        </Node>
      </Node>
    </BinaryTree>
    <BinaryTree type="DecisionTree" boostWeight="1.0000000000000000e+00" itree="773">
      <Node pos="s" depth="0" NCoef="0" IVar="5" Cut="1.8177712500000000e+05" cType="1" res="6.2939763069152832e-01" rms="4.8332366347312927e-01" purity="6.2993258237838745e-01" nType="0">
        <Node pos="l" depth="1" NCoef="0" IVar="2" Cut="8.9708992187500000e+04" cType="1" res="8.0586725473403931e-01" rms="3.9553159475326538e-01" purity="8.0586725473403931e-01" nType="0">
          <Node pos="l" depth="2" NCoef="0" IVar="-1" Cut="0.0000000000000000e+00" cType="1" res="1.5340585377998650e-05" rms="2.1107612550258636e-01" purity="9.4257640838623047e-01" nType="-99"/>
          <Node pos="r" depth="2" NCoef="0" IVar="-1" Cut="0.0000000000000000e+00" cType="1" res="-2.9669289942830801e-03" rms="2.4724116921424866e-01" purity="7.7525272965431213e-02" nType="-99"/>
        </Node>
        <Node pos="r" depth="1" NCoef="0" IVar="0" Cut="4.0000000000000000e+00" cType="1" res="4.3231090530753136e-03" rms="3.7058693170547485e-01" purity="4.4458910822868347e-01" nType="0">
          <Node pos="l" depth="2" NCoef="0" IVar="-1" Cut="0.0000000000000000e+00" cType="1" res="-9.5926014182623476e-05" rms="3.7869611382484436e-01" purity="4.0405234694480896e-01" nType="-99"/>
          <Node pos="r" depth="2" NCoef="0" IVar="-1" Cut="0.0000000000000000e+00" cType="1" res="2.8039494645781815e-04" rms="2.3652382194995880e-01" purity="9.4221872091293335e-01" nType="-99"/>
        </Node>
      </Node>
    </BinaryTree>
    <BinaryTree type="DecisionTree" boostWeight="1.0000000000000000e+00" itree="774">
      <Node pos="s" depth="0" NCoef="0" IVar="5" Cut="1.6914089062500000e+05" cType="1" res="5.8160662651062012e-01" rms="4.9329540133476257e-01" purity="5.8160656690597534e-01" nType="0">
        <Node pos="l" depth="1" NCoef="0" IVar="2" Cut="9.0237335937500000e+04" cType="1" res="7.6427483558654785e-01" rms="4.2445120215415955e-01" purity="7.6427477598190308e-01" nType="0">
          <Node pos="l" depth="2" NCoef="0" IVar="-1" Cut="0.0000000000000000e+00" cType="1" res="1.6931036952883005e-05" rms="2.6908072829246521e-01" purity="9.0052068233489990e-01" nType="-99"/>
          <Node pos="r" depth="2" NCoef="0" IVar="-1" Cut="0.0000000000000000e+00" cType="1" res="-6.4532123506069183e-03" rms="2.1365793049335480e-01" purity="5.4323881864547729e-02" nType="-99"/>
        </Node>
        <Node pos="r" depth="1" NCoef="0" IVar="2" Cut="9.1863054687500000e+04" cType="1" res="5.1287800073623657e-01" rms="4.9983412027359009e-01" purity="5.1287800073623657e-01" nType="0">
          <Node pos="l" depth="2" NCoef="0" IVar="-1" Cut="0.0000000000000000e+00" cType="1" res="2.1675560856238008e-04" rms="3.6193862557411194e-01" purity="4.3345421552658081e-01" nType="-99"/>
          <Node pos="r" depth="2" NCoef="0" IVar="-1" Cut="0.0000000000000000e+00" cType="1" res="2.0139939806540497e-05" rms="5.0215178728103638e-01" purity="6.3399970531463623e-01" nType="-99"/>
        </Node>
      </Node>
    </BinaryTree>
    <BinaryTree type="DecisionTree" boostWeight="1.0000000000000000e+00" itree="775">
      <Node pos="s" depth="0" NCoef="0" IVar="2" Cut="9.1773078125000000e+04" cType="1" res="4.6875602006912231e-01" rms="4.9902287125587463e-01" purity="4.6875602006912231e-01" nType="0">
        <Node pos="l" depth="1" NCoef="0" IVar="0" Cut="1.0000000000000000e+00" cType="1" res="7.1572675369679928e-03" rms="3.5525512695312500e-01" purity="3.8170817494392395e-01" nType="0">
          <Node pos="l" depth="2" NCoef="0" IVar="-1" Cut="0.0000000000000000e+00" cType="1" res="-1.0965174296870828e-03" rms="2.8840991854667664e-01" purity="1.3458666205406189e-01" nType="-99"/>
          <Node pos="r" depth="2" NCoef="0" IVar="-1" Cut="0.0000000000000000e+00" cType="1" res="4.9442594172433019e-04" rms="4.0255677700042725e-01" purity="5.9131276607513428e-01" nType="-99"/>
        </Node>
        <Node pos="r" depth="1" NCoef="0" IVar="2" Cut="9.1967843750000000e+04" cType="1" res="5.9513342380523682e-01" rms="4.9099633097648621e-01" purity="5.9526121616363525e-01" nType="0">
          <Node pos="l" depth="2" NCoef="0" IVar="-1" Cut="0.0000000000000000e+00" cType="1" res="2.0117153326282278e-05" rms="3.7092345952987671e-01" purity="8.7258356809616089e-01" nType="-99"/>
          <Node pos="r" depth="2" NCoef="0" IVar="-1" Cut="0.0000000000000000e+00" cType="1" res="4.6491288230754435e-04" rms="3.6661231517791748e-01" purity="3.9728069305419922e-01" nType="-99"/>
        </Node>
      </Node>
    </BinaryTree>
    <BinaryTree type="DecisionTree" boostWeight="1.0000000000000000e+00" itree="776">
      <Node pos="s" depth="0" NCoef="0" IVar="3" Cut="8.9426585937500000e+04" cType="1" res="5.1708143949508667e-01" rms="5.0006538629531860e-01" purity="5.1752072572708130e-01" nType="0">
        <Node pos="l" depth="1" NCoef="0" IVar="3" Cut="8.8493015625000000e+04" cType="1" res="6.0574793815612793e-01" rms="4.8886922001838684e-01" purity="6.0614031553268433e-01" nType="0">
          <Node pos="l" depth="2" NCoef="0" IVar="-1" Cut="0.0000000000000000e+00" cType="1" res="2.0296173170208931e-04" rms="3.5453099012374878e-01" purity="3.8584655523300171e-01" nType="-99"/>
          <Node pos="r" depth="2" NCoef="0" IVar="-1" Cut="0.0000000000000000e+00" cType="1" res="2.2014786736690439e-05" rms="4.0909653902053833e-01" purity="8.2942450046539307e-01" nType="-99"/>
        </Node>
        <Node pos="r" depth="1" NCoef="0" IVar="3" Cut="9.5605039062500000e+04" cType="1" res="3.9465448260307312e-01" rms="4.8929169774055481e-01" purity="3.9515852928161621e-01" nType="0">
          <Node pos="l" depth="2" NCoef="0" IVar="-1" Cut="0.0000000000000000e+00" cType="1" res="-2.9009787249378860e-04" rms="3.4469836950302124e-01" purity="3.7684798240661621e-01" nType="-99"/>
          <Node pos="r" depth="2" NCoef="0" IVar="-1" Cut="0.0000000000000000e+00" cType="1" res="1.0371989337727427e-03" rms="3.9259251952171326e-01" purity="4.4318524003028870e-01" nType="-99"/>
        </Node>
      </Node>
    </BinaryTree>
    <BinaryTree type="DecisionTree" boostWeight="1.0000000000000000e+00" itree="777">
      <Node pos="s" depth="0" NCoef="0" IVar="4" Cut="3.5741550781250000e+04" cType="1" res="3.8229101896286011e-01" rms="4.8639625310897827e-01" purity="3.8295170664787292e-01" nType="0">
        <Node pos="l" depth="1" NCoef="0" IVar="5" Cut="4.6944440625000000e+05" cType="1" res="2.5299784541130066e-01" rms="4.3484979867935181e-01" purity="2.5310227274894714e-01" nType="0">
          <Node pos="l" depth="2" NCoef="0" IVar="-1" Cut="0.0000000000000000e+00" cType="1" res="-1.9958766642957926e-03" rms="3.2024237513542175e-01" purity="1.8530561029911041e-01" nType="-99"/>
          <Node pos="r" depth="2" NCoef="0" IVar="-1" Cut="0.0000000000000000e+00" cType="1" res="1.4800308272242546e-03" rms="3.6066591739654541e-01" purity="7.5665426254272461e-01" nType="-99"/>
        </Node>
        <Node pos="r" depth="1" NCoef="0" IVar="5" Cut="2.0725898437500000e+05" cType="1" res="6.9271594285964966e-01" rms="4.6297496557235718e-01" purity="6.9471210241317749e-01" nType="0">
          <Node pos="l" depth="2" NCoef="0" IVar="-1" Cut="0.0000000000000000e+00" cType="1" res="-6.8428862141445279e-04" rms="4.3951657414436340e-01" purity="3.6933159828186035e-01" nType="-99"/>
          <Node pos="r" depth="2" NCoef="0" IVar="-1" Cut="0.0000000000000000e+00" cType="1" res="5.0971313612535596e-04" rms="3.9260649681091309e-01" purity="7.5958830118179321e-01" nType="-99"/>
        </Node>
      </Node>
    </BinaryTree>
    <BinaryTree type="DecisionTree" boostWeight="1.0000000000000000e+00" itree="778">
      <Node pos="s" depth="0" NCoef="0" IVar="2" Cut="8.9692742187500000e+04" cType="1" res="5.2478653192520142e-01" rms="4.9938523769378662e-01" purity="5.2478653192520142e-01" nType="0">
        <Node pos="l" depth="1" NCoef="0" IVar="2" Cut="8.9279601562500000e+04" cType="1" res="7.3961746692657471e-01" rms="4.3884330987930298e-01" purity="7.3961752653121948e-01" nType="0">
          <Node pos="l" depth="2" NCoef="0" IVar="-1" Cut="0.0000000000000000e+00" cType="1" res="-4.6303862472996116e-04" rms="3.4359353780746460e-01" purity="3.7037190794944763e-01" nType="-99"/>
          <Node pos="r" depth="2" NCoef="0" IVar="-1" Cut="0.0000000000000000e+00" cType="1" res="1.7085629224311560e-05" rms="3.2324525713920593e-01" purity="9.0517085790634155e-01" nType="-99"/>
        </Node>
        <Node pos="r" depth="1" NCoef="0" IVar="5" Cut="6.3743331250000000e+05" cType="1" res="3.8532638549804688e-01" rms="4.8706987500190735e-01" purity="3.8578408956527710e-01" nType="0">
          <Node pos="l" depth="2" NCoef="0" IVar="-1" Cut="0.0000000000000000e+00" cType="1" res="-7.5713433034252375e-05" rms="3.5990554094314575e-01" purity="3.2886484265327454e-01" nType="-99"/>
          <Node pos="r" depth="2" NCoef="0" IVar="-1" Cut="0.0000000000000000e+00" cType="1" res="1.8621679628267884e-03" rms="2.9616737365722656e-01" purity="8.7202340364456177e-01" nType="-99"/>
        </Node>
      </Node>
    </BinaryTree>
    <BinaryTree type="DecisionTree" boostWeight="1.0000000000000000e+00" itree="779">
      <Node pos="s" depth="0" NCoef="0" IVar="0" Cut="4.0000000000000000e+00" cType="1" res="4.5992755331099033e-03" rms="3.5297188162803650e-01" purity="3.8815259933471680e-01" nType="0">
        <Node pos="l" depth="1" NCoef="0" IVar="4" Cut="7.4139960937500000e+04" cType="1" res="3.5065054893493652e-01" rms="4.7717371582984924e-01" purity="3.5065054893493652e-01" nType="0">
          <Node pos="l" depth="2" NCoef="0" IVar="-1" Cut="0.0000000000000000e+00" cType="1" res="-2.9511775937862694e-04" rms="3.6204987764358521e-01" purity="3.0630350112915039e-01" nType="-99"/>
          <Node pos="r" depth="2" NCoef="0" IVar="-1" Cut="0.0000000000000000e+00" cType="1" res="8.4227370098233223e-04" rms="3.2119521498680115e-01" purity="8.7732940912246704e-01" nType="-99"/>
        </Node>
        <Node pos="r" depth="1" NCoef="0" IVar="-1" Cut="0.0000000000000000e+00" cType="1" res="5.1355327013880014e-04" rms="2.2320963442325592e-01" purity="9.4813710451126099e-01" nType="-99"/>
      </Node>
    </BinaryTree>
    <BinaryTree type="DecisionTree" boostWeight="1.0000000000000000e+00" itree="780">
      <Node pos="s" depth="0" NCoef="0" IVar="5" Cut="1.6313576562500000e+05" cType="1" res="5.5103451013565063e-01" rms="4.9753668904304504e-01" purity="5.5119335651397705e-01" nType="0">
        <Node pos="l" depth="1" NCoef="0" IVar="4" Cut="1.4925939453125000e+04" cType="1" res="8.4862565994262695e-01" rms="3.5841336846351624e-01" purity="8.4862565994262695e-01" nType="0">
          <Node pos="l" depth="2" NCoef="0" IVar="-1" Cut="0.0000000000000000e+00" cType="1" res="4.0590856224298477e-03" rms="1.6265907883644104e-01" purity="2.7158152312040329e-02" nType="-99"/>
          <Node pos="r" depth="2" NCoef="0" IVar="-1" Cut="0.0000000000000000e+00" cType="1" res="1.4254782399802934e-05" rms="2.4924048781394958e-01" purity="9.2463368177413940e-01" nType="-99"/>
        </Node>
        <Node pos="r" depth="1" NCoef="0" IVar="3" Cut="9.8929515625000000e+04" cType="1" res="4.0894493460655212e-01" rms="4.9186030030250549e-01" purity="4.0917965769767761e-01" nType="0">
          <Node pos="l" depth="2" NCoef="0" IVar="-1" Cut="0.0000000000000000e+00" cType="1" res="3.2090756576508284e-04" rms="3.6446368694305420e-01" purity="4.0256378054618835e-01" nType="-99"/>
          <Node pos="r" depth="2" NCoef="0" IVar="-1" Cut="0.0000000000000000e+00" cType="1" res="1.4309114776551723e-03" rms="3.9270401000976562e-01" purity="5.4983669519424438e-01" nType="-99"/>
        </Node>
      </Node>
    </BinaryTree>
    <BinaryTree type="DecisionTree" boostWeight="1.0000000000000000e+00" itree="781">
      <Node pos="s" depth="0" NCoef="0" IVar="1" Cut="2.0053121875000000e+05" cType="1" res="4.5307371020317078e-01" rms="4.9802768230438232e-01" purity="4.5335698127746582e-01" nType="0">
        <Node pos="l" depth="1" NCoef="0" IVar="2" Cut="8.9708898437500000e+04" cType="1" res="5.0967174768447876e-01" rms="5.1743590831756592e-01" purity="5.6898802518844604e-01" nType="0">
          <Node pos="l" depth="2" NCoef="0" IVar="-1" Cut="0.0000000000000000e+00" cType="1" res="2.5200444724760018e-05" rms="3.8914728164672852e-01" purity="8.1316286325454712e-01" nType="-99"/>
          <Node pos="r" depth="2" NCoef="0" IVar="-1" Cut="0.0000000000000000e+00" cType="1" res="9.3479116912931204e-04" rms="3.4386295080184937e-01" purity="2.2355718910694122e-01" nType="-99"/>
        </Node>
        <Node pos="r" depth="1" NCoef="0" IVar="4" Cut="7.6855453125000000e+04" cType="1" res="4.1908723115921021e-01" rms="4.9371579289436340e-01" purity="4.1945356130599976e-01" nType="0">
          <Node pos="l" depth="2" NCoef="0" IVar="-1" Cut="0.0000000000000000e+00" cType="1" res="-5.6059225244098343e-06" rms="3.6296746134757996e-01" purity="3.6533641815185547e-01" nType="-99"/>
          <Node pos="r" depth="2" NCoef="0" IVar="-1" Cut="0.0000000000000000e+00" cType="1" res="1.0323872556909919e-03" rms="2.7710080146789551e-01" purity="9.1638177633285522e-01" nType="-99"/>
        </Node>
      </Node>
    </BinaryTree>
    <BinaryTree type="DecisionTree" boostWeight="1.0000000000000000e+00" itree="782">
      <Node pos="s" depth="0" NCoef="0" IVar="5" Cut="1.6863592187500000e+05" cType="1" res="4.8577407002449036e-01" rms="5.0011610984802246e-01" purity="4.8609253764152527e-01" nType="0">
        <Node pos="l" depth="1" NCoef="0" IVar="3" Cut="9.0277656250000000e+04" cType="1" res="6.8423378467559814e-01" rms="4.6482029557228088e-01" purity="6.8423378467559814e-01" nType="0">
          <Node pos="l" depth="2" NCoef="0" IVar="-1" Cut="0.0000000000000000e+00" cType="1" res="-7.4912491254508495e-04" rms="2.3418459296226501e-01" purity="7.9111576080322266e-02" nType="-99"/>
          <Node pos="r" depth="2" NCoef="0" IVar="-1" Cut="0.0000000000000000e+00" cType="1" res="1.4393388482858427e-05" rms="3.1683862209320068e-01" purity="8.5338854789733887e-01" nType="-99"/>
        </Node>
        <Node pos="r" depth="1" NCoef="0" IVar="4" Cut="7.9690359375000000e+04" cType="1" res="4.2292353510856628e-01" rms="4.9444773793220520e-01" purity="4.2334288358688354e-01" nType="0">
          <Node pos="l" depth="2" NCoef="0" IVar="-1" Cut="0.0000000000000000e+00" cType="1" res="9.8543969215825200e-05" rms="3.7039276957511902e-01" purity="3.7978878617286682e-01" nType="-99"/>
          <Node pos="r" depth="2" NCoef="0" IVar="-1" Cut="0.0000000000000000e+00" cType="1" res="1.1580816935747862e-03" rms="2.9259300231933594e-01" purity="9.0531492233276367e-01" nType="-99"/>
        </Node>
      </Node>
    </BinaryTree>
    <BinaryTree type="DecisionTree" boostWeight="1.0000000000000000e+00" itree="783">
      <Node pos="s" depth="0" NCoef="0" IVar="4" Cut="8.2745929687500000e+04" cType="1" res="3.8523694872856140e-01" rms="4.8665124177932739e-01" purity="3.8523694872856140e-01" nType="0">
        <Node pos="l" depth="1" NCoef="0" IVar="0" Cut="4.0000000000000000e+00" cType="1" res="1.5382592100650072e-03" rms="3.5942453145980835e-01" purity="3.4608486294746399e-01" nType="0">
          <Node pos="l" depth="2" NCoef="0" IVar="-1" Cut="0.0000000000000000e+00" cType="1" res="-1.0749673674581572e-04" rms="3.6426094174385071e-01" purity="3.1494504213333130e-01" nType="-99"/>
          <Node pos="r" depth="2" NCoef="0" IVar="-1" Cut="0.0000000000000000e+00" cType="1" res="3.4353509545326233e-03" rms="2.3889482021331787e-01" purity="9.3931132555007935e-01" nType="-99"/>
        </Node>
        <Node pos="r" depth="1" NCoef="0" IVar="-1" Cut="0.0000000000000000e+00" cType="1" res="1.0577032808214426e-03" rms="2.7872166037559509e-01" purity="9.1412854194641113e-01" nType="-99"/>
      </Node>
    </BinaryTree>
    <BinaryTree type="DecisionTree" boostWeight="1.0000000000000000e+00" itree="784">
      <Node pos="s" depth="0" NCoef="0" IVar="5" Cut="1.6763029687500000e+05" cType="1" res="5.4339218139648438e-01" rms="4.9811357259750366e-01" purity="5.4339218139648438e-01" nType="0">
        <Node pos="l" depth="1" NCoef="0" IVar="5" Cut="1.5871023437500000e+05" cType="1" res="6.9223219156265259e-01" rms="4.6156990528106689e-01" purity="6.9223219156265259e-01" nType="0">
          <Node pos="l" depth="2" NCoef="0" IVar="-1" Cut="0.0000000000000000e+00" cType="1" res="-1.2140940874814987e-02" rms="1.7666676640510559e-01" purity="3.3821392804384232e-02" nType="-99"/>
          <Node pos="r" depth="2" NCoef="0" IVar="-1" Cut="0.0000000000000000e+00" cType="1" res="1.4394431673281360e-05" rms="3.1875416636466980e-01" purity="8.5270535945892334e-01" nType="-99"/>
        </Node>
        <Node pos="r" depth="1" NCoef="0" IVar="2" Cut="9.1753601562500000e+04" cType="1" res="5.0462645292282104e-01" rms="4.9997860193252563e-01" purity="5.0462651252746582e-01" nType="0">
          <Node pos="l" depth="2" NCoef="0" IVar="-1" Cut="0.0000000000000000e+00" cType="1" res="2.7351296739652753e-04" rms="3.5978767275810242e-01" purity="4.1991740465164185e-01" nType="-99"/>
          <Node pos="r" depth="2" NCoef="0" IVar="-1" Cut="0.0000000000000000e+00" cType="1" res="2.0419438442331739e-05" rms="4.9728292226791382e-01" purity="6.1994808912277222e-01" nType="-99"/>
        </Node>
      </Node>
    </BinaryTree>
    <BinaryTree type="DecisionTree" boostWeight="1.0000000000000000e+00" itree="785">
      <Node pos="s" depth="0" NCoef="0" IVar="0" Cut="1.0000000000000000e+00" cType="1" res="3.7082362174987793e-01" rms="4.8680579662322998e-01" purity="6.5689957141876221e-01" nType="0">
        <Node pos="l" depth="1" NCoef="0" IVar="4" Cut="1.9639441406250000e+04" cType="1" res="6.8729835748672485e-01" rms="4.6359393000602722e-01" purity="6.8729835748672485e-01" nType="0">
          <Node pos="l" depth="2" NCoef="0" IVar="-1" Cut="0.0000000000000000e+00" cType="1" res="2.4307230487465858e-03" rms="2.0531512796878815e-01" purity="4.3844714760780334e-02" nType="-99"/>
          <Node pos="r" depth="2" NCoef="0" IVar="-1" Cut="0.0000000000000000e+00" cType="1" res="1.7301874322583899e-05" rms="3.8270998001098633e-01" purity="8.5367476940155029e-01" nType="-99"/>
        </Node>
        <Node pos="r" depth="1" NCoef="0" IVar="5" Cut="7.3343193750000000e+05" cType="1" res="0.0000000000000000e+00" rms="7.6492345333099365e-01" purity="5.8510792255401611e-01" nType="0">
          <Node pos="l" depth="2" NCoef="0" IVar="-1" Cut="0.0000000000000000e+00" cType="1" res="2.8864186606369913e-04" rms="4.1444435715675354e-01" purity="5.3694117069244385e-01" nType="-99"/>
          <Node pos="r" depth="2" NCoef="0" IVar="-1" Cut="0.0000000000000000e+00" cType="1" res="2.5490880943834782e-03" rms="2.7323588728904724e-01" purity="9.0891528129577637e-01" nType="-99"/>
        </Node>
      </Node>
    </BinaryTree>
    <BinaryTree type="DecisionTree" boostWeight="1.0000000000000000e+00" itree="786">
      <Node pos="s" depth="0" NCoef="0" IVar="5" Cut="1.6781917187500000e+05" cType="1" res="4.7817772626876831e-01" rms="4.9952355027198792e-01" purity="4.7817772626876831e-01" nType="0">
        <Node pos="l" depth="1" NCoef="0" IVar="3" Cut="9.0133320312500000e+04" cType="1" res="6.8815761804580688e-01" rms="4.6324583888053894e-01" purity="6.8815767765045166e-01" nType="0">
          <Node pos="l" depth="2" NCoef="0" IVar="-1" Cut="0.0000000000000000e+00" cType="1" res="-1.8030569190159440e-03" rms="2.2294995188713074e-01" purity="6.1459753662347794e-02" nType="-99"/>
          <Node pos="r" depth="2" NCoef="0" IVar="-1" Cut="0.0000000000000000e+00" cType="1" res="1.4428918802877888e-05" rms="3.1566309928894043e-01" purity="8.5321217775344849e-01" nType="-99"/>
        </Node>
        <Node pos="r" depth="1" NCoef="0" IVar="4" Cut="7.6855453125000000e+04" cType="1" res="4.1201391816139221e-01" rms="4.9219757318496704e-01" purity="4.1201388835906982e-01" nType="0">
          <Node pos="l" depth="2" NCoef="0" IVar="-1" Cut="0.0000000000000000e+00" cType="1" res="-3.9819773519411683e-04" rms="3.6258047819137573e-01" purity="3.6508020758628845e-01" nType="-99"/>
          <Node pos="r" depth="2" NCoef="0" IVar="-1" Cut="0.0000000000000000e+00" cType="1" res="9.2574732843786478e-04" rms="2.9593440890312195e-01" purity="8.9996933937072754e-01" nType="-99"/>
        </Node>
      </Node>
    </BinaryTree>
    <BinaryTree type="DecisionTree" boostWeight="1.0000000000000000e+00" itree="787">
      <Node pos="s" depth="0" NCoef="0" IVar="5" Cut="1.5990256250000000e+05" cType="1" res="5.9710258245468140e-01" rms="4.9048045277595520e-01" purity="5.9710258245468140e-01" nType="0">
        <Node pos="l" depth="1" NCoef="0" IVar="-1" Cut="0.0000000000000000e+00" cType="1" res="1.4270246538217179e-05" rms="3.0038461089134216e-01" purity="8.6762160062789917e-01" nType="-99"/>
        <Node pos="r" depth="1" NCoef="0" IVar="2" Cut="9.1849609375000000e+04" cType="1" res="4.9040737748146057e-01" rms="4.9990797042846680e-01" purity="4.9040734767913818e-01" nType="0">
          <Node pos="l" depth="2" NCoef="0" IVar="-1" Cut="0.0000000000000000e+00" cType="1" res="4.5169261284172535e-04" rms="3.6085098981857300e-01" purity="4.1036915779113770e-01" nType="-99"/>
          <Node pos="r" depth="2" NCoef="0" IVar="-1" Cut="0.0000000000000000e+00" cType="1" res="2.0139925254625268e-05" rms="5.0184470415115356e-01" purity="6.1043459177017212e-01" nType="-99"/>
        </Node>
      </Node>
    </BinaryTree>
    <BinaryTree type="DecisionTree" boostWeight="1.0000000000000000e+00" itree="788">
      <Node pos="s" depth="0" NCoef="0" IVar="2" Cut="9.1779687500000000e+04" cType="1" res="4.6935549378395081e-01" rms="4.9906003475189209e-01" purity="4.6935546398162842e-01" nType="0">
        <Node pos="l" depth="1" NCoef="0" IVar="0" Cut="2.0000000000000000e+00" cType="1" res="2.5693241041153669e-03" rms="3.4907999634742737e-01" purity="3.8177227973937988e-01" nType="0">
          <Node pos="l" depth="2" NCoef="0" IVar="-1" Cut="0.0000000000000000e+00" cType="1" res="-4.4105720007792115e-04" rms="3.4617751836776733e-01" purity="2.1879135072231293e-01" nType="-99"/>
          <Node pos="r" depth="2" NCoef="0" IVar="-1" Cut="0.0000000000000000e+00" cType="1" res="1.0663570137694478e-03" rms="3.5519781708717346e-01" purity="8.3661717176437378e-01" nType="-99"/>
        </Node>
        <Node pos="r" depth="1" NCoef="0" IVar="2" Cut="9.1978570312500000e+04" cType="1" res="5.9463721513748169e-01" rms="4.9163824319839478e-01" purity="5.9530150890350342e-01" nType="0">
          <Node pos="l" depth="2" NCoef="0" IVar="-1" Cut="0.0000000000000000e+00" cType="1" res="2.0308543753344566e-05" rms="3.6758771538734436e-01" purity="8.7374258041381836e-01" nType="-99"/>
          <Node pos="r" depth="2" NCoef="0" IVar="-1" Cut="0.0000000000000000e+00" cType="1" res="5.8902741875499487e-04" rms="3.6679616570472717e-01" purity="3.9716279506683350e-01" nType="-99"/>
        </Node>
      </Node>
    </BinaryTree>
    <BinaryTree type="DecisionTree" boostWeight="1.0000000000000000e+00" itree="789">
      <Node pos="s" depth="0" NCoef="0" IVar="5" Cut="1.6088167187500000e+05" cType="1" res="5.4671221971511841e-01" rms="4.9791267514228821e-01" purity="5.4681128263473511e-01" nType="0">
        <Node pos="l" depth="1" NCoef="0" IVar="-1" Cut="0.0000000000000000e+00" cType="1" res="1.4311845006886870e-05" rms="3.7489077448844910e-01" purity="7.6707118749618530e-01" nType="-99"/>
        <Node pos="r" depth="1" NCoef="0" IVar="2" Cut="9.1845796875000000e+04" cType="1" res="4.9673834443092346e-01" rms="5.0011086463928223e-01" purity="4.9685987830162048e-01" nType="0">
          <Node pos="l" depth="2" NCoef="0" IVar="-1" Cut="0.0000000000000000e+00" cType="1" res="4.8174679977819324e-04" rms="3.6272865533828735e-01" purity="4.1352292895317078e-01" nType="-99"/>
          <Node pos="r" depth="2" NCoef="0" IVar="-1" Cut="0.0000000000000000e+00" cType="1" res="2.0267603758838959e-05" rms="4.9937319755554199e-01" purity="6.2286520004272461e-01" nType="-99"/>
        </Node>
      </Node>
    </BinaryTree>
    <BinaryTree type="DecisionTree" boostWeight="1.0000000000000000e+00" itree="790">
      <Node pos="s" depth="0" NCoef="0" IVar="1" Cut="2.0340862500000000e+05" cType="1" res="4.5083862543106079e-01" rms="4.9778902530670166e-01" purity="4.5114225149154663e-01" nType="0">
        <Node pos="l" depth="1" NCoef="0" IVar="2" Cut="8.9600773437500000e+04" cType="1" res="4.6490526199340820e-01" rms="5.2244240045547485e-01" purity="5.3519612550735474e-01" nType="0">
          <Node pos="l" depth="2" NCoef="0" IVar="-1" Cut="0.0000000000000000e+00" cType="1" res="2.4977331122499891e-05" rms="4.0097931027412415e-01" purity="7.9614555835723877e-01" nType="-99"/>
          <Node pos="r" depth="2" NCoef="0" IVar="-1" Cut="0.0000000000000000e+00" cType="1" res="-1.6667012823745608e-04" rms="3.3554610610008240e-01" purity="2.2666251659393311e-01" nType="-99"/>
        </Node>
        <Node pos="r" depth="1" NCoef="0" IVar="0" Cut="2.0000000000000000e+00" cType="1" res="9.6473004668951035e-03" rms="3.5943108797073364e-01" purity="4.2326554656028748e-01" nType="0">
          <Node pos="l" depth="2" NCoef="0" IVar="-1" Cut="0.0000000000000000e+00" cType="1" res="-1.6903465439099818e-04" rms="3.6373022198677063e-01" purity="2.4543297290802002e-01" nType="-99"/>
          <Node pos="r" depth="2" NCoef="0" IVar="-1" Cut="0.0000000000000000e+00" cType="1" res="6.0800329083576798e-04" rms="3.4675922989845276e-01" purity="8.4992021322250366e-01" nType="-99"/>
        </Node>
      </Node>
    </BinaryTree>
    <BinaryTree type="DecisionTree" boostWeight="1.0000000000000000e+00" itree="791">
      <Node pos="s" depth="0" NCoef="0" IVar="4" Cut="8.2526921875000000e+04" cType="1" res="3.8195377588272095e-01" rms="4.8602661490440369e-01" purity="3.8211059570312500e-01" nType="0">
        <Node pos="l" depth="1" NCoef="0" IVar="0" Cut="2.0000000000000000e+00" cType="1" res="-5.9792390093207359e-03" rms="3.5375726222991943e-01" purity="3.3920261263847351e-01" nType="0">
          <Node pos="l" depth="2" NCoef="0" IVar="-1" Cut="0.0000000000000000e+00" cType="1" res="-9.3884911620989442e-04" rms="3.4551811218261719e-01" purity="1.8618129193782806e-01" nType="-99"/>
          <Node pos="r" depth="2" NCoef="0" IVar="-1" Cut="0.0000000000000000e+00" cType="1" res="8.9069490786641836e-04" rms="3.7660595774650574e-01" purity="8.1546878814697266e-01" nType="-99"/>
        </Node>
        <Node pos="r" depth="1" NCoef="0" IVar="-1" Cut="0.0000000000000000e+00" cType="1" res="9.8925328347831964e-04" rms="2.7595540881156921e-01" purity="9.1571086645126343e-01" nType="-99"/>
      </Node>
    </BinaryTree>
    <BinaryTree type="DecisionTree" boostWeight="1.0000000000000000e+00" itree="792">
      <Node pos="s" depth="0" NCoef="0" IVar="5" Cut="1.6313576562500000e+05" cType="1" res="4.7849285602569580e-01" rms="4.9991947412490845e-01" purity="4.7887489199638367e-01" nType="0">
        <Node pos="l" depth="1" NCoef="0" IVar="5" Cut="1.5306859375000000e+05" cType="1" res="7.3412352800369263e-01" rms="4.4179880619049072e-01" purity="7.3412346839904785e-01" nType="0">
          <Node pos="l" depth="2" NCoef="0" IVar="-1" Cut="0.0000000000000000e+00" cType="1" res="-2.1473667584359646e-03" rms="2.2141234576702118e-01" purity="5.7232968509197235e-02" nType="-99"/>
          <Node pos="r" depth="2" NCoef="0" IVar="-1" Cut="0.0000000000000000e+00" cType="1" res="1.4335415471578017e-05" rms="3.1228753924369812e-01" purity="8.5650449991226196e-01" nType="-99"/>
        </Node>
        <Node pos="r" depth="1" NCoef="0" IVar="4" Cut="3.6935207031250000e+04" cType="1" res="4.0606307983398438e-01" rms="4.9159547686576843e-01" purity="4.0655332803726196e-01" nType="0">
          <Node pos="l" depth="2" NCoef="0" IVar="-1" Cut="0.0000000000000000e+00" cType="1" res="-5.8545864885672927e-04" rms="3.4299483895301819e-01" purity="2.7700862288475037e-01" nType="-99"/>
          <Node pos="r" depth="2" NCoef="0" IVar="-1" Cut="0.0000000000000000e+00" cType="1" res="4.5059120748192072e-04" rms="4.0051680803298950e-01" purity="7.1781176328659058e-01" nType="-99"/>
        </Node>
      </Node>
    </BinaryTree>
    <BinaryTree type="DecisionTree" boostWeight="1.0000000000000000e+00" itree="793">
      <Node pos="s" depth="0" NCoef="0" IVar="0" Cut="1.0000000000000000e+00" cType="1" res="2.6253005862236023e-01" rms="4.8118707537651062e-01" purity="5.7899260520935059e-01" nType="0">
        <Node pos="l" depth="1" NCoef="0" IVar="4" Cut="1.9618507812500000e+04" cType="1" res="5.7124948501586914e-01" rms="4.9489748477935791e-01" purity="5.7124954462051392e-01" nType="0">
          <Node pos="l" depth="2" NCoef="0" IVar="-1" Cut="0.0000000000000000e+00" cType="1" res="1.1964950244873762e-03" rms="1.9896210730075836e-01" purity="4.1468758136034012e-02" nType="-99"/>
          <Node pos="r" depth="2" NCoef="0" IVar="-1" Cut="0.0000000000000000e+00" cType="1" res="1.7940492398338392e-05" rms="4.4562861323356628e-01" purity="7.7758198976516724e-01" nType="-99"/>
        </Node>
        <Node pos="r" depth="1" NCoef="0" IVar="3" Cut="9.6376375000000000e+04" cType="1" res="5.9223258495330811e-01" rms="4.9141952395439148e-01" purity="5.9223258495330811e-01" nType="0">
          <Node pos="l" depth="2" NCoef="0" IVar="-1" Cut="0.0000000000000000e+00" cType="1" res="4.7963866381905973e-04" rms="4.0124976634979248e-01" purity="5.8432483673095703e-01" nType="-99"/>
          <Node pos="r" depth="2" NCoef="0" IVar="-1" Cut="0.0000000000000000e+00" cType="1" res="1.0033489670604467e-03" rms="4.1189315915107727e-01" purity="6.5291959047317505e-01" nType="-99"/>
        </Node>
      </Node>
    </BinaryTree>
    <BinaryTree type="DecisionTree" boostWeight="1.0000000000000000e+00" itree="794">
      <Node pos="s" depth="0" NCoef="0" IVar="3" Cut="9.5950960937500000e+04" cType="1" res="4.8067620396614075e-01" rms="4.9962645769119263e-01" purity="4.8067620396614075e-01" nType="0">
        <Node pos="l" depth="1" NCoef="0" IVar="4" Cut="7.7960796875000000e+04" cType="1" res="3.8228219747543335e-01" rms="4.8594498634338379e-01" purity="3.8228219747543335e-01" nType="0">
          <Node pos="l" depth="2" NCoef="0" IVar="-1" Cut="0.0000000000000000e+00" cType="1" res="6.0157490224810317e-05" rms="3.5613265633583069e-01" purity="3.3798953890800476e-01" nType="-99"/>
          <Node pos="r" depth="2" NCoef="0" IVar="-1" Cut="0.0000000000000000e+00" cType="1" res="9.8204694222658873e-04" rms="2.9356548190116882e-01" purity="9.0194606781005859e-01" nType="-99"/>
        </Node>
        <Node pos="r" depth="1" NCoef="0" IVar="2" Cut="8.9372828125000000e+04" cType="1" res="7.6289921998977661e-01" rms="4.2530459165573120e-01" purity="7.6340663433074951e-01" nType="0">
          <Node pos="l" depth="2" NCoef="0" IVar="-1" Cut="0.0000000000000000e+00" cType="1" res="1.4483330232906155e-05" rms="3.2630553841590881e-01" purity="9.0536475181579590e-01" nType="-99"/>
          <Node pos="r" depth="2" NCoef="0" IVar="-1" Cut="0.0000000000000000e+00" cType="1" res="-1.0762159217847511e-04" rms="3.7313497066497803e-01" purity="3.9297145605087280e-01" nType="-99"/>
        </Node>
      </Node>
    </BinaryTree>
    <BinaryTree type="DecisionTree" boostWeight="1.0000000000000000e+00" itree="795">
      <Node pos="s" depth="0" NCoef="0" IVar="3" Cut="9.8929429687500000e+04" cType="1" res="3.8325816392898560e-01" rms="4.8637682199478149e-01" purity="3.8344922661781311e-01" nType="0">
        <Node pos="l" depth="1" NCoef="0" IVar="4" Cut="7.6838750000000000e+04" cType="1" res="3.7527781724929810e-01" rms="4.8440125584602356e-01" purity="3.7547799944877625e-01" nType="0">
          <Node pos="l" depth="2" NCoef="0" IVar="-1" Cut="0.0000000000000000e+00" cType="1" res="-1.9632691692095250e-04" rms="3.5765397548675537e-01" purity="3.3409574627876282e-01" nType="-99"/>
          <Node pos="r" depth="2" NCoef="0" IVar="-1" Cut="0.0000000000000000e+00" cType="1" res="8.8883104035630822e-04" rms="3.0775946378707886e-01" purity="8.8780069351196289e-01" nType="-99"/>
        </Node>
        <Node pos="r" depth="1" NCoef="0" IVar="-1" Cut="0.0000000000000000e+00" cType="1" res="1.2206275714561343e-03" rms="3.9559978246688843e-01" purity="5.5025601387023926e-01" nType="-99"/>
      </Node>
    </BinaryTree>
    <BinaryTree type="DecisionTree" boostWeight="1.0000000000000000e+00" itree="796">
      <Node pos="s" depth="0" NCoef="0" IVar="1" Cut="1.9130335937500000e+05" cType="1" res="4.3873888254165649e-01" rms="4.9623289704322815e-01" purity="4.3873888254165649e-01" nType="0">
        <Node pos="l" depth="1" NCoef="0" IVar="4" Cut="2.1555320312500000e+04" cType="1" res="4.2978957295417786e-02" rms="2.3104180395603180e-01" purity="7.0546412467956543e-01" nType="0">
          <Node pos="l" depth="2" NCoef="0" IVar="-1" Cut="0.0000000000000000e+00" cType="1" res="3.1915118452161551e-03" rms="2.7286493778228760e-01" purity="1.3395401835441589e-01" nType="-99"/>
          <Node pos="r" depth="2" NCoef="0" IVar="-1" Cut="0.0000000000000000e+00" cType="1" res="2.4875140297808684e-05" rms="3.7536340951919556e-01" purity="8.7661683559417725e-01" nType="-99"/>
        </Node>
        <Node pos="r" depth="1" NCoef="0" IVar="4" Cut="7.4125140625000000e+04" cType="1" res="3.8760861754417419e-01" rms="4.8720446228981018e-01" purity="3.8760861754417419e-01" nType="0">
          <Node pos="l" depth="2" NCoef="0" IVar="-1" Cut="0.0000000000000000e+00" cType="1" res="-3.3905782038345933e-04" rms="3.6159759759902954e-01" purity="3.3536177873611450e-01" nType="-99"/>
          <Node pos="r" depth="2" NCoef="0" IVar="-1" Cut="0.0000000000000000e+00" cType="1" res="8.7365991203114390e-04" rms="3.0162012577056885e-01" purity="8.9664041996002197e-01" nType="-99"/>
        </Node>
      </Node>
    </BinaryTree>
    <BinaryTree type="DecisionTree" boostWeight="1.0000000000000000e+00" itree="797">
      <Node pos="s" depth="0" NCoef="0" IVar="3" Cut="8.9426570312500000e+04" cType="1" res="5.8530187606811523e-01" rms="4.9270775914192200e-01" purity="5.8533918857574463e-01" nType="0">
        <Node pos="l" depth="1" NCoef="0" IVar="3" Cut="8.8493054687500000e+04" cType="1" res="6.9877541065216064e-01" rms="4.5885366201400757e-01" purity="6.9883382320404053e-01" nType="0">
          <Node pos="l" depth="2" NCoef="0" IVar="-1" Cut="0.0000000000000000e+00" cType="1" res="2.5348147028125823e-04" rms="3.5125598311424255e-01" purity="3.8054078817367554e-01" nType="-99"/>
          <Node pos="r" depth="2" NCoef="0" IVar="-1" Cut="0.0000000000000000e+00" cType="1" res="2.3361406420008279e-05" rms="3.3958581089973450e-01" purity="8.9451724290847778e-01" nType="-99"/>
        </Node>
        <Node pos="r" depth="1" NCoef="0" IVar="3" Cut="9.8944578125000000e+04" cType="1" res="3.8335821032524109e-01" rms="4.8620438575744629e-01" purity="3.8335821032524109e-01" nType="0">
          <Node pos="l" depth="2" NCoef="0" IVar="-1" Cut="0.0000000000000000e+00" cType="1" res="-1.3307039625942707e-04" rms="3.5453626513481140e-01" purity="3.7663254141807556e-01" nType="-99"/>
          <Node pos="r" depth="2" NCoef="0" IVar="-1" Cut="0.0000000000000000e+00" cType="1" res="1.7575549427419901e-03" rms="4.3526104092597961e-01" purity="4.6931466460227966e-01" nType="-99"/>
        </Node>
      </Node>
    </BinaryTree>
    <BinaryTree type="DecisionTree" boostWeight="1.0000000000000000e+00" itree="798">
      <Node pos="s" depth="0" NCoef="0" IVar="0" Cut="1.0000000000000000e+00" cType="1" res="1.0193885304033756e-02" rms="3.5381755232810974e-01" purity="3.9686769247055054e-01" nType="0">
        <Node pos="l" depth="1" NCoef="0" IVar="5" Cut="2.6260428125000000e+05" cType="1" res="1.4709571003913879e-01" rms="3.5420131683349609e-01" purity="1.4709571003913879e-01" nType="0">
          <Node pos="l" depth="2" NCoef="0" IVar="-1" Cut="0.0000000000000000e+00" cType="1" res="3.0609327950514853e-05" rms="2.8128749132156372e-01" purity="1.2906892597675323e-01" nType="-99"/>
          <Node pos="r" depth="2" NCoef="0" IVar="-1" Cut="0.0000000000000000e+00" cType="1" res="-2.6414119638502598e-03" rms="3.2586976885795593e-01" purity="2.5497770309448242e-01" nType="-99"/>
        </Node>
        <Node pos="r" depth="1" NCoef="0" IVar="1" Cut="3.6112503125000000e+05" cType="1" res="6.0397654771804810e-01" rms="4.8929235339164734e-01" purity="6.0419470071792603e-01" nType="0">
          <Node pos="l" depth="2" NCoef="0" IVar="-1" Cut="0.0000000000000000e+00" cType="1" res="2.9915414052084088e-04" rms="4.0916195511817932e-01" purity="5.4756826162338257e-01" nType="-99"/>
          <Node pos="r" depth="2" NCoef="0" IVar="-1" Cut="0.0000000000000000e+00" cType="1" res="1.4354828745126724e-03" rms="3.6804196238517761e-01" purity="7.5556105375289917e-01" nType="-99"/>
        </Node>
      </Node>
    </BinaryTree>
    <BinaryTree type="DecisionTree" boostWeight="1.0000000000000000e+00" itree="799">
      <Node pos="s" depth="0" NCoef="0" IVar="4" Cut="7.8737789062500000e+04" cType="1" res="3.8956803083419800e-01" rms="4.8765230178833008e-01" purity="3.8956803083419800e-01" nType="0">
        <Node pos="l" depth="1" NCoef="0" IVar="0" Cut="2.0000000000000000e+00" cType="1" res="5.7889829622581601e-04" rms="3.5948500037193298e-01" purity="3.4368097782135010e-01" nType="0">
          <Node pos="l" depth="2" NCoef="0" IVar="-1" Cut="0.0000000000000000e+00" cType="1" res="-5.6826724903658032e-04" rms="3.5347956418991089e-01" purity="1.9020412862300873e-01" nType="-99"/>
          <Node pos="r" depth="2" NCoef="0" IVar="-1" Cut="0.0000000000000000e+00" cType="1" res="9.7459205426275730e-04" rms="3.7611615657806396e-01" purity="8.1688731908798218e-01" nType="-99"/>
        </Node>
        <Node pos="r" depth="1" NCoef="0" IVar="-1" Cut="0.0000000000000000e+00" cType="1" res="9.5657870406284928e-04" rms="2.8627005219459534e-01" purity="9.0739470720291138e-01" nType="-99"/>
      </Node>
    </BinaryTree>
    <BinaryTree type="DecisionTree" boostWeight="1.0000000000000000e+00" itree="800">
      <Node pos="s" depth="0" NCoef="0" IVar="2" Cut="9.1753601562500000e+04" cType="1" res="4.6217915415763855e-01" rms="4.9873843789100647e-01" purity="4.6234959363937378e-01" nType="0">
        <Node pos="l" depth="1" NCoef="0" IVar="4" Cut="6.9218023437500000e+04" cType="1" res="3.7640640139579773e-01" rms="4.8478192090988159e-01" purity="3.7669530510902405e-01" nType="0">
          <Node pos="l" depth="2" NCoef="0" IVar="-1" Cut="0.0000000000000000e+00" cType="1" res="-1.9691503257490695e-04" rms="3.5371869802474976e-01" purity="3.2289814949035645e-01" nType="-99"/>
          <Node pos="r" depth="2" NCoef="0" IVar="-1" Cut="0.0000000000000000e+00" cType="1" res="6.9417408667504787e-04" rms="3.2327938079833984e-01" purity="8.7372201681137085e-01" nType="-99"/>
        </Node>
        <Node pos="r" depth="1" NCoef="0" IVar="2" Cut="9.1953046875000000e+04" cType="1" res="5.8548933267593384e-01" rms="4.9263736605644226e-01" purity="5.8561807870864868e-01" nType="0">
          <Node pos="l" depth="2" NCoef="0" IVar="-1" Cut="0.0000000000000000e+00" cType="1" res="2.0286335711716674e-05" rms="3.7521505355834961e-01" purity="8.6813831329345703e-01" nType="-99"/>
          <Node pos="r" depth="2" NCoef="0" IVar="-1" Cut="0.0000000000000000e+00" cType="1" res="2.2915260342415422e-04" rms="3.5996222496032715e-01" purity="3.8136255741119385e-01" nType="-99"/>
        </Node>
      </Node>
    </BinaryTree>
    <BinaryTree type="DecisionTree" boostWeight="1.0000000000000000e+00" itree="801">
      <Node pos="s" depth="0" NCoef="0" IVar="3" Cut="8.9426375000000000e+04" cType="1" res="5.1281213760375977e-01" rms="4.9999603629112244e-01" purity="5.1297229528427124e-01" nType="0">
        <Node pos="l" depth="1" NCoef="0" IVar="3" Cut="8.8492921875000000e+04" cType="1" res="6.0524898767471313e-01" rms="4.8879715800285339e-01" purity="6.0524898767471313e-01" nType="0">
          <Node pos="l" depth="2" NCoef="0" IVar="-1" Cut="0.0000000000000000e+00" cType="1" res="-7.2839429776649922e-05" rms="3.5410025715827942e-01" purity="3.7368932366371155e-01" nType="-99"/>
          <Node pos="r" depth="2" NCoef="0" IVar="-1" Cut="0.0000000000000000e+00" cType="1" res="2.2253261704463512e-05" rms="4.0795898437500000e-01" purity="8.3291339874267578e-01" nType="-99"/>
        </Node>
        <Node pos="r" depth="1" NCoef="0" IVar="0" Cut="2.0000000000000000e+00" cType="1" res="5.1091169007122517e-04" rms="3.5034567117691040e-01" purity="3.8688102364540100e-01" nType="0">
          <Node pos="l" depth="2" NCoef="0" IVar="-1" Cut="0.0000000000000000e+00" cType="1" res="-5.2298349328339100e-04" rms="3.4712651371955872e-01" purity="2.2506514191627502e-01" nType="-99"/>
          <Node pos="r" depth="2" NCoef="0" IVar="-1" Cut="0.0000000000000000e+00" cType="1" res="9.9506159313023090e-04" rms="3.5734000802040100e-01" purity="8.3680695295333862e-01" nType="-99"/>
        </Node>
      </Node>
    </BinaryTree>
    <BinaryTree type="DecisionTree" boostWeight="1.0000000000000000e+00" itree="802">
      <Node pos="s" depth="0" NCoef="0" IVar="5" Cut="1.6215667187500000e+05" cType="1" res="4.8109701275825500e-01" rms="4.9989718198776245e-01" purity="4.8144027590751648e-01" nType="0">
        <Node pos="l" depth="1" NCoef="0" IVar="-1" Cut="0.0000000000000000e+00" cType="1" res="1.4350463970913552e-05" rms="3.8718932867050171e-01" purity="7.4389886856079102e-01" nType="-99"/>
        <Node pos="r" depth="1" NCoef="0" IVar="4" Cut="3.7107207031250000e+04" cType="1" res="4.0766325592994690e-01" rms="4.9173119664192200e-01" purity="4.0810242295265198e-01" nType="0">
          <Node pos="l" depth="2" NCoef="0" IVar="-1" Cut="0.0000000000000000e+00" cType="1" res="-8.0940680345520377e-04" rms="3.3976691961288452e-01" purity="2.8394773602485657e-01" nType="-99"/>
          <Node pos="r" depth="2" NCoef="0" IVar="-1" Cut="0.0000000000000000e+00" cType="1" res="6.1102071776986122e-04" rms="3.9865273237228394e-01" purity="7.1759170293807983e-01" nType="-99"/>
        </Node>
      </Node>
    </BinaryTree>
    <BinaryTree type="DecisionTree" boostWeight="1.0000000000000000e+00" itree="803">
      <Node pos="s" depth="0" NCoef="0" IVar="1" Cut="2.0040878125000000e+05" cType="1" res="4.9424064159393311e-01" rms="5.0022268295288086e-01" purity="4.9458253383636475e-01" nType="0">
        <Node pos="l" depth="1" NCoef="0" IVar="2" Cut="8.9670617187500000e+04" cType="1" res="6.5014839172363281e-01" rms="4.9298366904258728e-01" purity="7.0197284221649170e-01" nType="0">
          <Node pos="l" depth="2" NCoef="0" IVar="-1" Cut="0.0000000000000000e+00" cType="1" res="2.5343790184706450e-05" rms="3.0814415216445923e-01" purity="8.9704954624176025e-01" nType="-99"/>
          <Node pos="r" depth="2" NCoef="0" IVar="-1" Cut="0.0000000000000000e+00" cType="1" res="2.5230439496226609e-04" rms="3.2779482007026672e-01" purity="2.3045139014720917e-01" nType="-99"/>
        </Node>
        <Node pos="r" depth="1" NCoef="0" IVar="5" Cut="6.9294300000000000e+05" cType="1" res="4.0495088696479797e-01" rms="4.9125507473945618e-01" purity="4.0543973445892334e-01" nType="0">
          <Node pos="l" depth="2" NCoef="0" IVar="-1" Cut="0.0000000000000000e+00" cType="1" res="-1.0639892570907250e-04" rms="3.6582091450691223e-01" purity="3.5332816839218140e-01" nType="-99"/>
          <Node pos="r" depth="2" NCoef="0" IVar="-1" Cut="0.0000000000000000e+00" cType="1" res="2.0313095301389694e-03" rms="2.8424352407455444e-01" purity="8.8438624143600464e-01" nType="-99"/>
        </Node>
      </Node>
    </BinaryTree>
    <BinaryTree type="DecisionTree" boostWeight="1.0000000000000000e+00" itree="804">
      <Node pos="s" depth="0" NCoef="0" IVar="3" Cut="8.9426515625000000e+04" cType="1" res="5.1412826776504517e-01" rms="4.9980035424232483e-01" purity="5.1412826776504517e-01" nType="0">
        <Node pos="l" depth="1" NCoef="0" IVar="3" Cut="8.8493062500000000e+04" cType="1" res="6.1066466569900513e-01" rms="4.8759955167770386e-01" purity="6.1066466569900513e-01" nType="0">
          <Node pos="l" depth="2" NCoef="0" IVar="-1" Cut="0.0000000000000000e+00" cType="1" res="1.9115935720037669e-04" rms="3.4621697664260864e-01" purity="3.8927379250526428e-01" nType="-99"/>
          <Node pos="r" depth="2" NCoef="0" IVar="-1" Cut="0.0000000000000000e+00" cType="1" res="2.2392143364413641e-05" rms="4.0817672014236450e-01" purity="8.3106350898742676e-01" nType="-99"/>
        </Node>
        <Node pos="r" depth="1" NCoef="0" IVar="0" Cut="3.0000000000000000e+00" cType="1" res="-5.0780568271875381e-03" rms="3.5419297218322754e-01" purity="3.7894475460052490e-01" nType="0">
          <Node pos="l" depth="2" NCoef="0" IVar="-1" Cut="0.0000000000000000e+00" cType="1" res="-4.3883043690584600e-04" rms="3.6143696308135986e-01" purity="3.0679404735565186e-01" nType="-99"/>
          <Node pos="r" depth="2" NCoef="0" IVar="-1" Cut="0.0000000000000000e+00" cType="1" res="2.1702353842556477e-03" rms="2.9201436042785645e-01" purity="9.0373694896697998e-01" nType="-99"/>
        </Node>
      </Node>
    </BinaryTree>
    <BinaryTree type="DecisionTree" boostWeight="1.0000000000000000e+00" itree="805">
      <Node pos="s" depth="0" NCoef="0" IVar="0" Cut="1.0000000000000000e+00" cType="1" res="2.8478485345840454e-01" rms="4.8654934763908386e-01" purity="5.9212964773178101e-01" nType="0">
        <Node pos="l" depth="1" NCoef="0" IVar="4" Cut="1.9433769531250000e+04" cType="1" res="5.9168636798858643e-01" rms="4.9152171611785889e-01" purity="5.9168636798858643e-01" nType="0">
          <Node pos="l" depth="2" NCoef="0" IVar="-1" Cut="0.0000000000000000e+00" cType="1" res="1.9361202139407396e-03" rms="2.0011800527572632e-01" purity="4.2896892875432968e-02" nType="-99"/>
          <Node pos="r" depth="2" NCoef="0" IVar="-1" Cut="0.0000000000000000e+00" cType="1" res="1.7504646166344173e-05" rms="4.4343584775924683e-01" purity="7.8673774003982544e-01" nType="-99"/>
        </Node>
        <Node pos="r" depth="1" NCoef="0" IVar="5" Cut="2.2992303125000000e+05" cType="1" res="5.9292268753051758e-01" rms="4.9128949642181396e-01" purity="5.9292268753051758e-01" nType="0">
          <Node pos="l" depth="2" NCoef="0" IVar="-1" Cut="0.0000000000000000e+00" cType="1" res="-1.1141380527988076e-03" rms="3.7700602412223816e-01" purity="2.0401062071323395e-01" nType="-99"/>
          <Node pos="r" depth="2" NCoef="0" IVar="-1" Cut="0.0000000000000000e+00" cType="1" res="6.1489449581131339e-04" rms="4.0590906143188477e-01" purity="6.6066044569015503e-01" nType="-99"/>
        </Node>
      </Node>
    </BinaryTree>
    <BinaryTree type="DecisionTree" boostWeight="1.0000000000000000e+00" itree="806">
      <Node pos="s" depth="0" NCoef="0" IVar="1" Cut="1.9153364062500000e+05" cType="1" res="4.9914997816085815e-01" rms="4.9999928474426270e-01" purity="4.9914994835853577e-01" nType="0">
        <Node pos="l" depth="1" NCoef="0" IVar="3" Cut="8.8423281250000000e+04" cType="1" res="2.5023037567734718e-02" rms="1.7537997663021088e-01" purity="8.1316268444061279e-01" nType="0">
          <Node pos="l" depth="2" NCoef="0" IVar="-1" Cut="0.0000000000000000e+00" cType="1" res="-2.5987264234572649e-03" rms="2.9283094406127930e-01" purity="2.0013694465160370e-01" nType="-99"/>
          <Node pos="r" depth="2" NCoef="0" IVar="-1" Cut="0.0000000000000000e+00" cType="1" res="2.5172737878165208e-05" rms="2.8625833988189697e-01" purity="9.1026669740676880e-01" nType="-99"/>
        </Node>
        <Node pos="r" depth="1" NCoef="0" IVar="0" Cut="4.0000000000000000e+00" cType="1" res="1.1839557439088821e-02" rms="3.6020708084106445e-01" purity="4.0101662278175354e-01" nType="0">
          <Node pos="l" depth="2" NCoef="0" IVar="-1" Cut="0.0000000000000000e+00" cType="1" res="3.2506079878658056e-04" rms="3.6654245853424072e-01" purity="3.6598828434944153e-01" nType="-99"/>
          <Node pos="r" depth="2" NCoef="0" IVar="-1" Cut="0.0000000000000000e+00" cType="1" res="4.5211429824121296e-04" rms="2.3302800953388214e-01" purity="9.4314748048782349e-01" nType="-99"/>
        </Node>
      </Node>
    </BinaryTree>
    <BinaryTree type="DecisionTree" boostWeight="1.0000000000000000e+00" itree="807">
      <Node pos="s" depth="0" NCoef="0" IVar="4" Cut="7.6838750000000000e+04" cType="1" res="3.6884585332968934e-32" rms="1.8565805308798566e+17" purity="3.8643014430999756e-01" nType="0">
        <Node pos="l" depth="1" NCoef="0" IVar="0" Cut="2.0000000000000000e+00" cType="1" res="-2.0686604548245668e-03" rms="3.5465672612190247e-01" purity="3.3825266361236572e-01" nType="0">
          <Node pos="l" depth="2" NCoef="0" IVar="-1" Cut="0.0000000000000000e+00" cType="1" res="-7.5407244730740786e-04" rms="3.4645947813987732e-01" purity="1.8549315631389618e-01" nType="-99"/>
          <Node pos="r" depth="2" NCoef="0" IVar="-1" Cut="0.0000000000000000e+00" cType="1" res="8.3216669736430049e-04" rms="3.7779989838600159e-01" purity="8.1439757347106934e-01" nType="-99"/>
        </Node>
        <Node pos="r" depth="1" NCoef="0" IVar="-1" Cut="0.0000000000000000e+00" cType="1" res="8.2255521556362510e-04" rms="2.9608368873596191e-01" purity="8.9993965625762939e-01" nType="-99"/>
      </Node>
    </BinaryTree>
    <BinaryTree type="DecisionTree" boostWeight="1.0000000000000000e+00" itree="808">
      <Node pos="s" depth="0" NCoef="0" IVar="1" Cut="1.8991192187500000e+05" cType="1" res="4.4362837076187134e-01" rms="4.9681207537651062e-01" purity="4.4362837076187134e-01" nType="0">
        <Node pos="l" depth="1" NCoef="0" IVar="-1" Cut="0.0000000000000000e+00" cType="1" res="2.4998453227453865e-05" rms="4.2933022975921631e-01" purity="7.4160695075988770e-01" nType="-99"/>
        <Node pos="r" depth="1" NCoef="0" IVar="4" Cut="7.6867679687500000e+04" cType="1" res="3.9176309108734131e-01" rms="4.8814421892166138e-01" purity="3.9176309108734131e-01" nType="0">
          <Node pos="l" depth="2" NCoef="0" IVar="-1" Cut="0.0000000000000000e+00" cType="1" res="-8.5875413788016886e-05" rms="3.5831761360168457e-01" purity="3.4285289049148560e-01" nType="-99"/>
          <Node pos="r" depth="2" NCoef="0" IVar="-1" Cut="0.0000000000000000e+00" cType="1" res="1.0195176582783461e-03" rms="2.9005944728851318e-01" purity="9.0349429845809937e-01" nType="-99"/>
        </Node>
      </Node>
    </BinaryTree>
    <BinaryTree type="DecisionTree" boostWeight="1.0000000000000000e+00" itree="809">
      <Node pos="s" depth="0" NCoef="0" IVar="0" Cut="4.0000000000000000e+00" cType="1" res="7.2027612477540970e-03" rms="3.5231345891952515e-01" purity="3.8770857453346252e-01" nType="0">
        <Node pos="l" depth="1" NCoef="0" IVar="4" Cut="3.7107207031250000e+04" cType="1" res="3.5050851106643677e-01" rms="4.7712922096252441e-01" purity="3.5050854086875916e-01" nType="0">
          <Node pos="l" depth="2" NCoef="0" IVar="-1" Cut="0.0000000000000000e+00" cType="1" res="-3.5479193320497870e-04" rms="3.3591860532760620e-01" purity="2.4366538226604462e-01" nType="-99"/>
          <Node pos="r" depth="2" NCoef="0" IVar="-1" Cut="0.0000000000000000e+00" cType="1" res="4.7318713041022420e-04" rms="4.1964027285575867e-01" purity="6.7052716016769409e-01" nType="-99"/>
        </Node>
        <Node pos="r" depth="1" NCoef="0" IVar="-1" Cut="0.0000000000000000e+00" cType="1" res="5.1066809101030231e-04" rms="2.1841996908187866e-01" purity="9.5023095607757568e-01" nType="-99"/>
      </Node>
    </BinaryTree>
    <BinaryTree type="DecisionTree" boostWeight="1.0000000000000000e+00" itree="810">
      <Node pos="s" depth="0" NCoef="0" IVar="4" Cut="8.2745929687500000e+04" cType="1" res="3.8759329915046692e-01" rms="4.8720091581344604e-01" purity="3.8759329915046692e-01" nType="0">
        <Node pos="l" depth="1" NCoef="0" IVar="0" Cut="1.0000000000000000e+00" cType="1" res="4.9912431277334690e-03" rms="3.6324718594551086e-01" purity="3.4559354186058044e-01" nType="0">
          <Node pos="l" depth="2" NCoef="0" IVar="-1" Cut="0.0000000000000000e+00" cType="1" res="-1.3407834339886904e-03" rms="2.9523026943206787e-01" purity="1.1328329145908356e-01" nType="-99"/>
          <Node pos="r" depth="2" NCoef="0" IVar="-1" Cut="0.0000000000000000e+00" cType="1" res="8.2239171024411917e-04" rms="4.1499519348144531e-01" purity="5.5750173330307007e-01" nType="-99"/>
        </Node>
        <Node pos="r" depth="1" NCoef="0" IVar="-1" Cut="0.0000000000000000e+00" cType="1" res="9.3209167243912816e-04" rms="2.8684452176094055e-01" purity="9.0984940528869629e-01" nType="-99"/>
      </Node>
    </BinaryTree>
    <BinaryTree type="DecisionTree" boostWeight="1.0000000000000000e+00" itree="811">
      <Node pos="s" depth="0" NCoef="0" IVar="5" Cut="1.6601217187500000e+05" cType="1" res="4.7869309782981873e-01" rms="4.9954581260681152e-01" purity="4.7869309782981873e-01" nType="0">
        <Node pos="l" depth="1" NCoef="0" IVar="2" Cut="9.0606671875000000e+04" cType="1" res="7.0170038938522339e-01" rms="4.5751169323921204e-01" purity="7.0170038938522339e-01" nType="0">
          <Node pos="l" depth="2" NCoef="0" IVar="-1" Cut="0.0000000000000000e+00" cType="1" res="1.4467176697507966e-05" rms="3.2050007581710815e-01" purity="8.4625762701034546e-01" nType="-99"/>
          <Node pos="r" depth="2" NCoef="0" IVar="-1" Cut="0.0000000000000000e+00" cType="1" res="-7.0149204693734646e-03" rms="2.0845624804496765e-01" purity="4.7649297863245010e-02" nType="-99"/>
        </Node>
        <Node pos="r" depth="1" NCoef="0" IVar="4" Cut="7.5872773437500000e+04" cType="1" res="4.1160920262336731e-01" rms="4.9212506413459778e-01" purity="4.1160920262336731e-01" nType="0">
          <Node pos="l" depth="2" NCoef="0" IVar="-1" Cut="0.0000000000000000e+00" cType="1" res="-1.7876389028970152e-04" rms="3.6731502413749695e-01" purity="3.6164215207099915e-01" nType="-99"/>
          <Node pos="r" depth="2" NCoef="0" IVar="-1" Cut="0.0000000000000000e+00" cType="1" res="9.2162308283150196e-04" rms="2.8850311040878296e-01" purity="9.0612363815307617e-01" nType="-99"/>
        </Node>
      </Node>
    </BinaryTree>
    <BinaryTree type="DecisionTree" boostWeight="1.0000000000000000e+00" itree="812">
      <Node pos="s" depth="0" NCoef="0" IVar="4" Cut="7.8395062500000000e+04" cType="1" res="3.7906125187873840e-01" rms="4.8540768027305603e-01" purity="3.7938195466995239e-01" nType="0">
        <Node pos="l" depth="1" NCoef="0" IVar="5" Cut="7.5658668750000000e+05" cType="1" res="3.3469423651695251e-01" rms="4.7195968031883240e-01" purity="3.3484646677970886e-01" nType="0">
          <Node pos="l" depth="2" NCoef="0" IVar="-1" Cut="0.0000000000000000e+00" cType="1" res="-5.0792755791917443e-04" rms="3.5953569412231445e-01" purity="3.0318051576614380e-01" nType="-99"/>
          <Node pos="r" depth="2" NCoef="0" IVar="-1" Cut="0.0000000000000000e+00" cType="1" res="3.3178005833178759e-03" rms="2.9584717750549316e-01" purity="8.7757897377014160e-01" nType="-99"/>
        </Node>
        <Node pos="r" depth="1" NCoef="0" IVar="-1" Cut="0.0000000000000000e+00" cType="1" res="8.1796996528282762e-04" rms="3.0544325709342957e-01" purity="8.9470988512039185e-01" nType="-99"/>
      </Node>
    </BinaryTree>
    <BinaryTree type="DecisionTree" boostWeight="1.0000000000000000e+00" itree="813">
      <Node pos="s" depth="0" NCoef="0" IVar="5" Cut="1.8177712500000000e+05" cType="1" res="6.6501122713088989e-01" rms="4.7198656201362610e-01" purity="6.6501122713088989e-01" nType="0">
        <Node pos="l" depth="1" NCoef="0" IVar="2" Cut="8.9642570312500000e+04" cType="1" res="8.0510711669921875e-01" rms="3.9611822366714478e-01" purity="8.0510711669921875e-01" nType="0">
          <Node pos="l" depth="2" NCoef="0" IVar="-1" Cut="0.0000000000000000e+00" cType="1" res="1.5586336303385906e-05" rms="2.1006336808204651e-01" purity="9.4405287504196167e-01" nType="-99"/>
          <Node pos="r" depth="2" NCoef="0" IVar="-1" Cut="0.0000000000000000e+00" cType="1" res="-3.8368516834452748e-04" rms="2.6091048121452332e-01" purity="9.0970493853092194e-02" nType="-99"/>
        </Node>
        <Node pos="r" depth="1" NCoef="0" IVar="2" Cut="9.1857468750000000e+04" cType="1" res="5.4152023792266846e-01" rms="4.9827307462692261e-01" purity="5.4152023792266846e-01" nType="0">
          <Node pos="l" depth="2" NCoef="0" IVar="-1" Cut="0.0000000000000000e+00" cType="1" res="2.4282000958919525e-04" rms="3.6925795674324036e-01" purity="4.5055308938026428e-01" nType="-99"/>
          <Node pos="r" depth="2" NCoef="0" IVar="-1" Cut="0.0000000000000000e+00" cType="1" res="2.0818108168896288e-05" rms="5.0301963090896606e-01" purity="6.6535818576812744e-01" nType="-99"/>
        </Node>
      </Node>
    </BinaryTree>
    <BinaryTree type="DecisionTree" boostWeight="1.0000000000000000e+00" itree="814">
      <Node pos="s" depth="0" NCoef="0" IVar="0" Cut="3.0000000000000000e+00" cType="1" res="4.1653253138065338e-03" rms="3.5200494527816772e-01" purity="3.8580876588821411e-01" nType="0">
        <Node pos="l" depth="1" NCoef="0" IVar="4" Cut="7.4125140625000000e+04" cType="1" res="3.0868500471115112e-01" rms="4.6208006143569946e-01" purity="3.0880439281463623e-01" nType="0">
          <Node pos="l" depth="2" NCoef="0" IVar="-1" Cut="0.0000000000000000e+00" cType="1" res="-4.2634349665604532e-04" rms="3.6207160353660583e-01" purity="2.6289555430412292e-01" nType="-99"/>
          <Node pos="r" depth="2" NCoef="0" IVar="-1" Cut="0.0000000000000000e+00" cType="1" res="7.2993314824998379e-04" rms="3.3052605390548706e-01" purity="8.6984622478485107e-01" nType="-99"/>
        </Node>
        <Node pos="r" depth="1" NCoef="0" IVar="0" Cut="4.0000000000000000e+00" cType="1" res="5.0548493862152100e-02" rms="2.8665599226951599e-01" purity="9.0878129005432129e-01" nType="0">
          <Node pos="l" depth="2" NCoef="0" IVar="-1" Cut="0.0000000000000000e+00" cType="1" res="1.1783693917095661e-03" rms="3.2530230283737183e-01" purity="8.7884712219238281e-01" nType="-99"/>
          <Node pos="r" depth="2" NCoef="0" IVar="-1" Cut="0.0000000000000000e+00" cType="1" res="4.5608798973262310e-04" rms="2.2956609725952148e-01" purity="9.4478029012680054e-01" nType="-99"/>
        </Node>
      </Node>
    </BinaryTree>
    <BinaryTree type="DecisionTree" boostWeight="1.0000000000000000e+00" itree="815">
      <Node pos="s" depth="0" NCoef="0" IVar="5" Cut="1.6914089062500000e+05" cType="1" res="5.6537604331970215e-01" rms="4.9619641900062561e-01" purity="5.6593507528305054e-01" nType="0">
        <Node pos="l" depth="1" NCoef="0" IVar="4" Cut="1.9721269531250000e+04" cType="1" res="8.1827008724212646e-01" rms="3.8562175631523132e-01" purity="8.1827014684677124e-01" nType="0">
          <Node pos="l" depth="2" NCoef="0" IVar="-1" Cut="0.0000000000000000e+00" cType="1" res="4.3528140522539616e-03" rms="1.7515571415424347e-01" purity="3.2029420137405396e-02" nType="-99"/>
          <Node pos="r" depth="2" NCoef="0" IVar="-1" Cut="0.0000000000000000e+00" cType="1" res="1.8838083633454517e-05" rms="2.4609065055847168e-01" purity="9.3341040611267090e-01" nType="-99"/>
        </Node>
        <Node pos="r" depth="1" NCoef="0" IVar="4" Cut="3.5532703125000000e+04" cType="1" res="4.2300620675086975e-01" rms="4.9480283260345459e-01" purity="4.2388001084327698e-01" nType="0">
          <Node pos="l" depth="2" NCoef="0" IVar="-1" Cut="0.0000000000000000e+00" cType="1" res="-4.5307219261303544e-04" rms="3.4673181176185608e-01" purity="2.8442919254302979e-01" nType="-99"/>
          <Node pos="r" depth="2" NCoef="0" IVar="-1" Cut="0.0000000000000000e+00" cType="1" res="7.9681165516376495e-04" rms="4.0014204382896423e-01" purity="7.1582794189453125e-01" nType="-99"/>
        </Node>
      </Node>
    </BinaryTree>
    <BinaryTree type="DecisionTree" boostWeight="1.0000000000000000e+00" itree="816">
      <Node pos="s" depth="0" NCoef="0" IVar="3" Cut="9.5951210937500000e+04" cType="1" res="5.4909455776214600e-01" rms="4.9758389592170715e-01" purity="5.4909455776214600e-01" nType="0">
        <Node pos="l" depth="1" NCoef="0" IVar="0" Cut="3.0000000000000000e+00" cType="1" res="4.7830101102590561e-03" rms="3.5755735635757446e-01" purity="3.7507775425910950e-01" nType="0">
          <Node pos="l" depth="2" NCoef="0" IVar="-1" Cut="0.0000000000000000e+00" cType="1" res="-8.2255219240323640e-06" rms="3.6488145589828491e-01" purity="3.0372405052185059e-01" nType="-99"/>
          <Node pos="r" depth="2" NCoef="0" IVar="-1" Cut="0.0000000000000000e+00" cType="1" res="1.9096418982371688e-03" rms="2.9545539617538452e-01" purity="9.0150052309036255e-01" nType="-99"/>
        </Node>
        <Node pos="r" depth="1" NCoef="0" IVar="3" Cut="9.6732937500000000e+04" cType="1" res="8.5660785436630249e-01" rms="3.5047230124473572e-01" purity="8.5676473379135132e-01" nType="0">
          <Node pos="l" depth="2" NCoef="0" IVar="-1" Cut="0.0000000000000000e+00" cType="1" res="1.4535931768477894e-05" rms="2.3982506990432739e-01" purity="9.5330500602722168e-01" nType="-99"/>
          <Node pos="r" depth="2" NCoef="0" IVar="-1" Cut="0.0000000000000000e+00" cType="1" res="6.9044710835441947e-04" rms="3.7301856279373169e-01" purity="4.2518910765647888e-01" nType="-99"/>
        </Node>
      </Node>
    </BinaryTree>
    <BinaryTree type="DecisionTree" boostWeight="1.0000000000000000e+00" itree="817">
      <Node pos="s" depth="0" NCoef="0" IVar="2" Cut="9.1836718750000000e+04" cType="1" res="0.0000000000000000e+00" rms="3.3278717041015625e+02" purity="4.7246783971786499e-01" nType="0">
        <Node pos="l" depth="1" NCoef="0" IVar="4" Cut="3.2621250000000000e+04" cType="1" res="3.8705307245254517e-01" rms="4.8707595467567444e-01" purity="3.8705307245254517e-01" nType="0">
          <Node pos="l" depth="2" NCoef="0" IVar="-1" Cut="0.0000000000000000e+00" cType="1" res="2.2170421289047226e-05" rms="3.2589918375015259e-01" purity="2.5759926438331604e-01" nType="-99"/>
          <Node pos="r" depth="2" NCoef="0" IVar="-1" Cut="0.0000000000000000e+00" cType="1" res="7.6193868881091475e-04" rms="4.1060540080070496e-01" purity="6.6703993082046509e-01" nType="-99"/>
        </Node>
        <Node pos="r" depth="1" NCoef="0" IVar="2" Cut="9.2028312500000000e+04" cType="1" res="5.9885525703430176e-01" rms="4.9056309461593628e-01" purity="5.9950536489486694e-01" nType="0">
          <Node pos="l" depth="2" NCoef="0" IVar="-1" Cut="0.0000000000000000e+00" cType="1" res="2.0577283066813834e-05" rms="3.7137934565544128e-01" purity="8.7453949451446533e-01" nType="-99"/>
          <Node pos="r" depth="2" NCoef="0" IVar="-1" Cut="0.0000000000000000e+00" cType="1" res="1.2504054757300764e-04" rms="3.5375100374221802e-01" purity="3.9344155788421631e-01" nType="-99"/>
        </Node>
      </Node>
    </BinaryTree>
    <BinaryTree type="DecisionTree" boostWeight="1.0000000000000000e+00" itree="818">
      <Node pos="s" depth="0" NCoef="0" IVar="2" Cut="9.1879929687500000e+04" cType="1" res="4.7508841753005981e-01" rms="4.9937903881072998e-01" purity="4.7508841753005981e-01" nType="0">
        <Node pos="l" depth="1" NCoef="0" IVar="4" Cut="5.3242925781250000e+04" cType="1" res="3.9356023073196411e-01" rms="4.8853921890258789e-01" purity="3.9356020092964172e-01" nType="0">
          <Node pos="l" depth="2" NCoef="0" IVar="-1" Cut="0.0000000000000000e+00" cType="1" res="1.0874524014070630e-04" rms="3.5233059525489807e-01" purity="3.0353939533233643e-01" nType="-99"/>
          <Node pos="r" depth="2" NCoef="0" IVar="-1" Cut="0.0000000000000000e+00" cType="1" res="3.5889854189008474e-04" rms="3.5300049185752869e-01" purity="8.2915717363357544e-01" nType="-99"/>
        </Node>
        <Node pos="r" depth="1" NCoef="0" IVar="2" Cut="9.2070640625000000e+04" cType="1" res="6.0339570045471191e-01" rms="4.8934161663055420e-01" purity="6.0370439291000366e-01" nType="0">
          <Node pos="l" depth="2" NCoef="0" IVar="-1" Cut="0.0000000000000000e+00" cType="1" res="2.0603583834599704e-05" rms="3.6225137114524841e-01" purity="8.7838965654373169e-01" nType="-99"/>
          <Node pos="r" depth="2" NCoef="0" IVar="-1" Cut="0.0000000000000000e+00" cType="1" res="1.9924346997868270e-04" rms="3.6069393157958984e-01" purity="3.9326694607734680e-01" nType="-99"/>
        </Node>
      </Node>
    </BinaryTree>
    <BinaryTree type="DecisionTree" boostWeight="1.0000000000000000e+00" itree="819">
      <Node pos="s" depth="0" NCoef="0" IVar="2" Cut="8.9655289062500000e+04" cType="1" res="5.3324979543685913e-01" rms="4.9889323115348816e-01" purity="5.3324985504150391e-01" nType="0">
        <Node pos="l" depth="1" NCoef="0" IVar="2" Cut="8.9245515625000000e+04" cType="1" res="7.4585217237472534e-01" rms="4.3538111448287964e-01" purity="7.4585211277008057e-01" nType="0">
          <Node pos="l" depth="2" NCoef="0" IVar="-1" Cut="0.0000000000000000e+00" cType="1" res="1.2675407560891472e-05" rms="3.5393261909484863e-01" purity="3.8287743926048279e-01" nType="-99"/>
          <Node pos="r" depth="2" NCoef="0" IVar="-1" Cut="0.0000000000000000e+00" cType="1" res="1.7242738977074623e-05" rms="3.2204064726829529e-01" purity="9.0666329860687256e-01" nType="-99"/>
        </Node>
        <Node pos="r" depth="1" NCoef="0" IVar="4" Cut="5.3583003906250000e+04" cType="1" res="4.0075108408927917e-01" rms="4.9036204814910889e-01" purity="4.0105637907981873e-01" nType="0">
          <Node pos="l" depth="2" NCoef="0" IVar="-1" Cut="0.0000000000000000e+00" cType="1" res="3.7220382364466786e-04" rms="3.5949167609214783e-01" purity="3.1098765134811401e-01" nType="-99"/>
          <Node pos="r" depth="2" NCoef="0" IVar="-1" Cut="0.0000000000000000e+00" cType="1" res="4.5068815234117210e-04" rms="3.4686630964279175e-01" purity="8.4010183811187744e-01" nType="-99"/>
        </Node>
      </Node>
    </BinaryTree>
    <BinaryTree type="DecisionTree" boostWeight="1.0000000000000000e+00" itree="820">
      <Node pos="s" depth="0" NCoef="0" IVar="5" Cut="1.6863592187500000e+05" cType="1" res="6.5203529596328735e-01" rms="4.7632476687431335e-01" purity="6.5203529596328735e-01" nType="0">
        <Node pos="l" depth="1" NCoef="0" IVar="4" Cut="2.0035613281250000e+04" cType="1" res="8.9647495746612549e-01" rms="3.0464342236518860e-01" purity="8.9647495746612549e-01" nType="0">
          <Node pos="l" depth="2" NCoef="0" IVar="-1" Cut="0.0000000000000000e+00" cType="1" res="-6.9521279074251652e-03" rms="1.3898332417011261e-01" purity="1.9720107316970825e-02" nType="-99"/>
          <Node pos="r" depth="2" NCoef="0" IVar="-1" Cut="0.0000000000000000e+00" cType="1" res="1.6467934983666055e-05" rms="1.7621430754661560e-01" purity="9.6673798561096191e-01" nType="-99"/>
        </Node>
        <Node pos="r" depth="1" NCoef="0" IVar="5" Cut="7.3214981250000000e+05" cType="1" res="4.1055354475975037e-01" rms="4.9193426966667175e-01" purity="4.1055354475975037e-01" nType="0">
          <Node pos="l" depth="2" NCoef="0" IVar="-1" Cut="0.0000000000000000e+00" cType="1" res="-6.2109007558319718e-05" rms="3.7228298187255859e-01" purity="3.6782756447792053e-01" nType="-99"/>
          <Node pos="r" depth="2" NCoef="0" IVar="-1" Cut="0.0000000000000000e+00" cType="1" res="2.7442520949989557e-03" rms="2.7905541658401489e-01" purity="8.9507859945297241e-01" nType="-99"/>
        </Node>
      </Node>
    </BinaryTree>
    <BinaryTree type="DecisionTree" boostWeight="1.0000000000000000e+00" itree="821">
      <Node pos="s" depth="0" NCoef="0" IVar="4" Cut="8.2542968750000000e+04" cType="1" res="3.8789740204811096e-01" rms="4.8753696680068970e-01" purity="3.8815668225288391e-01" nType="0">
        <Node pos="l" depth="1" NCoef="0" IVar="0" Cut="1.0000000000000000e+00" cType="1" res="-1.1130974598927423e-05" rms="3.5837697982788086e-01" purity="3.4606879949569702e-01" nType="0">
          <Node pos="l" depth="2" NCoef="0" IVar="-1" Cut="0.0000000000000000e+00" cType="1" res="-2.1044900640845299e-03" rms="2.8648138046264648e-01" purity="1.0582637041807175e-01" nType="-99"/>
          <Node pos="r" depth="2" NCoef="0" IVar="-1" Cut="0.0000000000000000e+00" cType="1" res="4.3807795736938715e-04" rms="4.1171959042549133e-01" purity="5.6237101554870605e-01" nType="-99"/>
        </Node>
        <Node pos="r" depth="1" NCoef="0" IVar="-1" Cut="0.0000000000000000e+00" cType="1" res="9.1450504260137677e-04" rms="2.8194779157638550e-01" purity="9.1302543878555298e-01" nType="-99"/>
      </Node>
    </BinaryTree>
    <BinaryTree type="DecisionTree" boostWeight="1.0000000000000000e+00" itree="822">
      <Node pos="s" depth="0" NCoef="0" IVar="3" Cut="8.9426570312500000e+04" cType="1" res="0.0000000000000000e+00" rms="0.0000000000000000e+00" purity="5.7088142633438110e-01" nType="0">
        <Node pos="l" depth="1" NCoef="0" IVar="3" Cut="8.8493039062500000e+04" cType="1" res="6.7870026826858521e-01" rms="4.6706050634384155e-01" purity="6.7889577150344849e-01" nType="0">
          <Node pos="l" depth="2" NCoef="0" IVar="-1" Cut="0.0000000000000000e+00" cType="1" res="1.8603197531774640e-04" rms="3.4745532274246216e-01" purity="3.9360475540161133e-01" nType="-99"/>
          <Node pos="r" depth="2" NCoef="0" IVar="-1" Cut="0.0000000000000000e+00" cType="1" res="2.1717301933676936e-05" rms="3.6219912767410278e-01" purity="8.7940669059753418e-01" nType="-99"/>
        </Node>
        <Node pos="r" depth="1" NCoef="0" IVar="3" Cut="9.8944593750000000e+04" cType="1" res="3.8649535179138184e-01" rms="4.8705723881721497e-01" purity="3.8759952783584595e-01" nType="0">
          <Node pos="l" depth="2" NCoef="0" IVar="-1" Cut="0.0000000000000000e+00" cType="1" res="-2.1937383280601352e-04" rms="3.4976801276206970e-01" purity="3.7720814347267151e-01" nType="-99"/>
          <Node pos="r" depth="2" NCoef="0" IVar="-1" Cut="0.0000000000000000e+00" cType="1" res="9.5196609618142247e-04" rms="3.7158781290054321e-01" purity="5.1796674728393555e-01" nType="-99"/>
        </Node>
      </Node>
    </BinaryTree>
    <BinaryTree type="DecisionTree" boostWeight="1.0000000000000000e+00" itree="823">
      <Node pos="s" depth="0" NCoef="0" IVar="4" Cut="3.5506140625000000e+04" cType="1" res="3.9104333519935608e-01" rms="4.8818406462669373e-01" purity="3.9134237170219421e-01" nType="0">
        <Node pos="l" depth="1" NCoef="0" IVar="4" Cut="2.4445742187500000e+04" cType="1" res="2.5874972343444824e-01" rms="4.3806594610214233e-01" purity="2.5885322690010071e-01" nType="0">
          <Node pos="l" depth="2" NCoef="0" IVar="-1" Cut="0.0000000000000000e+00" cType="1" res="8.7527732830494642e-04" rms="3.1367436051368713e-01" purity="2.2218357026576996e-01" nType="-99"/>
          <Node pos="r" depth="2" NCoef="0" IVar="-1" Cut="0.0000000000000000e+00" cType="1" res="-1.6868415987119079e-03" rms="3.9787831902503967e-01" purity="3.8203245401382446e-01" nType="-99"/>
        </Node>
        <Node pos="r" depth="1" NCoef="0" IVar="3" Cut="8.5313507812500000e+04" cType="1" res="7.0278316736221313e-01" rms="4.5770272612571716e-01" purity="7.0374459028244019e-01" nType="0">
          <Node pos="l" depth="2" NCoef="0" IVar="-1" Cut="0.0000000000000000e+00" cType="1" res="4.0932552656158805e-04" rms="3.7430411577224731e-01" purity="7.7110636234283447e-01" nType="-99"/>
          <Node pos="r" depth="2" NCoef="0" IVar="-1" Cut="0.0000000000000000e+00" cType="1" res="5.3735211258754134e-04" rms="3.9927825331687927e-01" purity="6.9128137826919556e-01" nType="-99"/>
        </Node>
      </Node>
    </BinaryTree>
    <BinaryTree type="DecisionTree" boostWeight="1.0000000000000000e+00" itree="824">
      <Node pos="s" depth="0" NCoef="0" IVar="4" Cut="7.6838750000000000e+04" cType="1" res="3.8901627063751221e-01" rms="4.8795855045318604e-01" purity="3.8943719863891602e-01" nType="0">
        <Node pos="l" depth="1" NCoef="0" IVar="0" Cut="4.0000000000000000e+00" cType="1" res="3.9917663671076298e-03" rms="3.6241939663887024e-01" purity="3.4443563222885132e-01" nType="0">
          <Node pos="l" depth="2" NCoef="0" IVar="-1" Cut="0.0000000000000000e+00" cType="1" res="1.4026901226316113e-05" rms="3.6749002337455750e-01" purity="3.1164875626564026e-01" nType="-99"/>
          <Node pos="r" depth="2" NCoef="0" IVar="-1" Cut="0.0000000000000000e+00" cType="1" res="3.7991724093444645e-04" rms="2.4438343942165375e-01" purity="9.3675291538238525e-01" nType="-99"/>
        </Node>
        <Node pos="r" depth="1" NCoef="0" IVar="-1" Cut="0.0000000000000000e+00" cType="1" res="8.8639231398701668e-04" rms="2.9767340421676636e-01" purity="8.9898473024368286e-01" nType="-99"/>
      </Node>
    </BinaryTree>
    <BinaryTree type="DecisionTree" boostWeight="1.0000000000000000e+00" itree="825">
      <Node pos="s" depth="0" NCoef="0" IVar="2" Cut="8.9637539062500000e+04" cType="1" res="6.3161772489547729e-01" rms="4.8236581683158875e-01" purity="6.3161772489547729e-01" nType="0">
        <Node pos="l" depth="1" NCoef="0" IVar="2" Cut="8.9227132812500000e+04" cType="1" res="8.5409891605377197e-01" rms="3.5300701856613159e-01" purity="8.5409891605377197e-01" nType="0">
          <Node pos="l" depth="2" NCoef="0" IVar="-1" Cut="0.0000000000000000e+00" cType="1" res="9.8754433565773070e-05" rms="3.7128755450248718e-01" purity="3.4825816750526428e-01" nType="-99"/>
          <Node pos="r" depth="2" NCoef="0" IVar="-1" Cut="0.0000000000000000e+00" cType="1" res="1.5773004633956589e-05" rms="2.2989214956760406e-01" purity="9.5754629373550415e-01" nType="-99"/>
        </Node>
        <Node pos="r" depth="1" NCoef="0" IVar="4" Cut="6.2009191406250000e+04" cType="1" res="3.8499385118484497e-01" rms="4.8691600561141968e-01" purity="3.8555577397346497e-01" nType="0">
          <Node pos="l" depth="2" NCoef="0" IVar="-1" Cut="0.0000000000000000e+00" cType="1" res="-6.3702359329909086e-04" rms="3.5016620159149170e-01" purity="3.1341472268104553e-01" nType="-99"/>
          <Node pos="r" depth="2" NCoef="0" IVar="-1" Cut="0.0000000000000000e+00" cType="1" res="8.0955110024660826e-04" rms="3.3079442381858826e-01" purity="8.6520320177078247e-01" nType="-99"/>
        </Node>
      </Node>
    </BinaryTree>
    <BinaryTree type="DecisionTree" boostWeight="1.0000000000000000e+00" itree="826">
      <Node pos="s" depth="0" NCoef="0" IVar="5" Cut="1.6014787500000000e+05" cType="1" res="4.8508885502815247e-01" rms="4.9983933568000793e-01" purity="4.8515057563781738e-01" nType="0">
        <Node pos="l" depth="1" NCoef="0" IVar="-1" Cut="0.0000000000000000e+00" cType="1" res="1.4504923456115648e-05" rms="3.7631240487098694e-01" purity="7.6567512750625610e-01" nType="-99"/>
        <Node pos="r" depth="1" NCoef="0" IVar="0" Cut="3.0000000000000000e+00" cType="1" res="7.8740855678915977e-03" rms="3.6108744144439697e-01" purity="4.1072258353233337e-01" nType="0">
          <Node pos="l" depth="2" NCoef="0" IVar="-1" Cut="0.0000000000000000e+00" cType="1" res="5.2512972615659237e-05" rms="3.7105715274810791e-01" purity="3.3192738890647888e-01" nType="-99"/>
          <Node pos="r" depth="2" NCoef="0" IVar="-1" Cut="0.0000000000000000e+00" cType="1" res="5.7285925140604377e-04" rms="2.8663593530654907e-01" purity="9.0881979465484619e-01" nType="-99"/>
        </Node>
      </Node>
    </BinaryTree>
    <BinaryTree type="DecisionTree" boostWeight="1.0000000000000000e+00" itree="827">
      <Node pos="s" depth="0" NCoef="0" IVar="2" Cut="8.9699539062500000e+04" cType="1" res="5.2645230293273926e-01" rms="4.9929979443550110e-01" purity="5.2645230293273926e-01" nType="0">
        <Node pos="l" depth="1" NCoef="0" IVar="5" Cut="1.8303181250000000e+05" cType="1" res="7.4208605289459229e-01" rms="4.3748638033866882e-01" purity="7.4208605289459229e-01" nType="0">
          <Node pos="l" depth="2" NCoef="0" IVar="-1" Cut="0.0000000000000000e+00" cType="1" res="1.7231492165592499e-05" rms="3.0272027850151062e-01" purity="8.7378519773483276e-01" nType="-99"/>
          <Node pos="r" depth="2" NCoef="0" IVar="-1" Cut="0.0000000000000000e+00" cType="1" res="5.2920251619070768e-04" rms="3.8550546765327454e-01" purity="4.6927052736282349e-01" nType="-99"/>
        </Node>
        <Node pos="r" depth="1" NCoef="0" IVar="4" Cut="7.4108828125000000e+04" cType="1" res="3.8696512579917908e-01" rms="4.8705556988716125e-01" purity="3.8718405365943909e-01" nType="0">
          <Node pos="l" depth="2" NCoef="0" IVar="-1" Cut="0.0000000000000000e+00" cType="1" res="-1.7957729869522154e-04" rms="3.5440027713775635e-01" purity="3.3512309193611145e-01" nType="-99"/>
          <Node pos="r" depth="2" NCoef="0" IVar="-1" Cut="0.0000000000000000e+00" cType="1" res="7.9596950672566891e-04" rms="2.9267528653144836e-01" purity="8.9977616071701050e-01" nType="-99"/>
        </Node>
      </Node>
    </BinaryTree>
    <BinaryTree type="DecisionTree" boostWeight="1.0000000000000000e+00" itree="828">
      <Node pos="s" depth="0" NCoef="0" IVar="2" Cut="8.9699531250000000e+04" cType="1" res="5.6361055374145508e-01" rms="4.9599730968475342e-01" purity="5.6379961967468262e-01" nType="0">
        <Node pos="l" depth="1" NCoef="0" IVar="2" Cut="8.9231140625000000e+04" cType="1" res="7.8927648067474365e-01" rms="4.0785396099090576e-01" purity="7.8942757844924927e-01" nType="0">
          <Node pos="l" depth="2" NCoef="0" IVar="-1" Cut="0.0000000000000000e+00" cType="1" res="4.1503802640363574e-04" rms="3.6520487070083618e-01" purity="3.8314375281333923e-01" nType="-99"/>
          <Node pos="r" depth="2" NCoef="0" IVar="-1" Cut="0.0000000000000000e+00" cType="1" res="1.9018087186850607e-05" rms="2.9990938305854797e-01" purity="9.2207741737365723e-01" nType="-99"/>
        </Node>
        <Node pos="r" depth="1" NCoef="0" IVar="5" Cut="5.3267306250000000e+05" cType="1" res="3.8601729273796082e-01" rms="4.8692324757575989e-01" purity="3.8623622059822083e-01" nType="0">
          <Node pos="l" depth="2" NCoef="0" IVar="-1" Cut="0.0000000000000000e+00" cType="1" res="-1.8641998758539557e-04" rms="3.6077961325645447e-01" purity="3.0413171648979187e-01" nType="-99"/>
          <Node pos="r" depth="2" NCoef="0" IVar="-1" Cut="0.0000000000000000e+00" cType="1" res="1.5297905774787068e-03" rms="3.1459403038024902e-01" purity="8.5459792613983154e-01" nType="-99"/>
        </Node>
      </Node>
    </BinaryTree>
    <BinaryTree type="DecisionTree" boostWeight="1.0000000000000000e+00" itree="829">
      <Node pos="s" depth="0" NCoef="0" IVar="4" Cut="7.5835773437500000e+04" cType="1" res="3.8130277395248413e-01" rms="4.8628294467926025e-01" purity="3.8218006491661072e-01" nType="0">
        <Node pos="l" depth="1" NCoef="0" IVar="0" Cut="3.0000000000000000e+00" cType="1" res="-5.1603951760625932e-06" rms="3.5887649655342102e-01" purity="3.3593487739562988e-01" nType="0">
          <Node pos="l" depth="2" NCoef="0" IVar="-1" Cut="0.0000000000000000e+00" cType="1" res="-2.7372493059374392e-04" rms="3.6404329538345337e-01" purity="2.6889023184776306e-01" nType="-99"/>
          <Node pos="r" depth="2" NCoef="0" IVar="-1" Cut="0.0000000000000000e+00" cType="1" res="1.7619378631934524e-03" rms="3.1024914979934692e-01" purity="8.9078718423843384e-01" nType="-99"/>
        </Node>
        <Node pos="r" depth="1" NCoef="0" IVar="-1" Cut="0.0000000000000000e+00" cType="1" res="8.4385497029870749e-04" rms="3.0033403635025024e-01" purity="8.9528214931488037e-01" nType="-99"/>
      </Node>
    </BinaryTree>
    <BinaryTree type="DecisionTree" boostWeight="1.0000000000000000e+00" itree="830">
      <Node pos="s" depth="0" NCoef="0" IVar="5" Cut="2.2444151562500000e+05" cType="1" res="3.8859623670578003e-01" rms="4.8758012056350708e-01" purity="3.8881886005401611e-01" nType="0">
        <Node pos="l" depth="1" NCoef="0" IVar="4" Cut="2.1863503906250000e+04" cType="1" res="1.2489818036556244e-01" rms="3.3060342073440552e-01" purity="1.2489818036556244e-01" nType="0">
          <Node pos="l" depth="2" NCoef="0" IVar="-1" Cut="0.0000000000000000e+00" cType="1" res="3.4275972284376621e-03" rms="2.2689314186573029e-01" purity="5.5289804935455322e-02" nType="-99"/>
          <Node pos="r" depth="2" NCoef="0" IVar="-1" Cut="0.0000000000000000e+00" cType="1" res="-1.6617792425677180e-03" rms="3.7716299295425415e-01" purity="2.4189439415931702e-01" nType="-99"/>
        </Node>
        <Node pos="r" depth="1" NCoef="0" IVar="5" Cut="2.5747979687500000e+05" cType="1" res="5.7067734003067017e-01" rms="4.9522736668586731e-01" purity="5.7105374336242676e-01" nType="0">
          <Node pos="l" depth="2" NCoef="0" IVar="-1" Cut="0.0000000000000000e+00" cType="1" res="1.9970498979091644e-03" rms="4.1724643111228943e-01" purity="3.2932248711585999e-01" nType="-99"/>
          <Node pos="r" depth="2" NCoef="0" IVar="-1" Cut="0.0000000000000000e+00" cType="1" res="3.3704613451845944e-04" rms="3.9018112421035767e-01" purity="6.3330644369125366e-01" nType="-99"/>
        </Node>
      </Node>
    </BinaryTree>
    <BinaryTree type="DecisionTree" boostWeight="1.0000000000000000e+00" itree="831">
      <Node pos="s" depth="0" NCoef="0" IVar="5" Cut="7.0084131250000000e+05" cType="1" res="3.8810664415359497e-01" rms="4.8745003342628479e-01" purity="3.8856622576713562e-01" nType="0">
        <Node pos="l" depth="1" NCoef="0" IVar="3" Cut="9.8645820312500000e+04" cType="1" res="3.4203436970710754e-01" rms="4.7439104318618774e-01" purity="3.4210896492004395e-01" nType="0">
          <Node pos="l" depth="2" NCoef="0" IVar="-1" Cut="0.0000000000000000e+00" cType="1" res="7.0012814830988646e-05" rms="3.5852405428886414e-01" purity="3.3870011568069458e-01" nType="-99"/>
          <Node pos="r" depth="2" NCoef="0" IVar="-1" Cut="0.0000000000000000e+00" cType="1" res="1.7858586506918073e-03" rms="4.2236846685409546e-01" purity="4.2137128114700317e-01" nType="-99"/>
        </Node>
        <Node pos="r" depth="1" NCoef="0" IVar="3" Cut="9.0402968750000000e+04" cType="1" res="8.8572597503662109e-01" rms="3.2050621509552002e-01" purity="8.9115762710571289e-01" nType="0">
          <Node pos="l" depth="2" NCoef="0" IVar="-1" Cut="0.0000000000000000e+00" cType="1" res="1.7107889289036393e-03" rms="2.7690374851226807e-01" purity="8.9699125289916992e-01" nType="-99"/>
          <Node pos="r" depth="2" NCoef="0" IVar="-1" Cut="0.0000000000000000e+00" cType="1" res="1.9252606434747577e-03" rms="2.8084287047386169e-01" purity="8.8448864221572876e-01" nType="-99"/>
        </Node>
      </Node>
    </BinaryTree>
    <BinaryTree type="DecisionTree" boostWeight="1.0000000000000000e+00" itree="832">
      <Node pos="s" depth="0" NCoef="0" IVar="1" Cut="1.9904829687500000e+05" cType="1" res="4.4861361384391785e-01" rms="4.9779030680656433e-01" purity="4.4923654198646545e-01" nType="0">
        <Node pos="l" depth="1" NCoef="0" IVar="2" Cut="8.9670367187500000e+04" cType="1" res="5.1894146203994751e-01" rms="5.1627218723297119e-01" purity="5.8197337388992310e-01" nType="0">
          <Node pos="l" depth="2" NCoef="0" IVar="-1" Cut="0.0000000000000000e+00" cType="1" res="2.5511903004371561e-05" rms="3.8242167234420776e-01" purity="8.2684886455535889e-01" nType="-99"/>
          <Node pos="r" depth="2" NCoef="0" IVar="-1" Cut="0.0000000000000000e+00" cType="1" res="7.6065794564783573e-04" rms="3.2894542813301086e-01" purity="2.3929414153099060e-01" nType="-99"/>
        </Node>
        <Node pos="r" depth="1" NCoef="0" IVar="4" Cut="5.5609820312500000e+04" cType="1" res="4.1161516308784485e-01" rms="4.9252706766128540e-01" purity="4.1224929690361023e-01" nType="0">
          <Node pos="l" depth="2" NCoef="0" IVar="-1" Cut="0.0000000000000000e+00" cType="1" res="-1.9062851788476110e-04" rms="3.5593658685684204e-01" purity="3.2967114448547363e-01" nType="-99"/>
          <Node pos="r" depth="2" NCoef="0" IVar="-1" Cut="0.0000000000000000e+00" cType="1" res="7.4750394560396671e-04" rms="3.3802315592765808e-01" purity="8.5198771953582764e-01" nType="-99"/>
        </Node>
      </Node>
    </BinaryTree>
    <BinaryTree type="DecisionTree" boostWeight="1.0000000000000000e+00" itree="833">
      <Node pos="s" depth="0" NCoef="0" IVar="1" Cut="2.0146712500000000e+05" cType="1" res="4.4316035509109497e-01" rms="4.9687308073043823e-01" purity="4.4338268041610718e-01" nType="0">
        <Node pos="l" depth="1" NCoef="0" IVar="2" Cut="8.9723593750000000e+04" cType="1" res="4.8758789896965027e-01" rms="5.2272325754165649e-01" purity="5.5134457349777222e-01" nType="0">
          <Node pos="l" depth="2" NCoef="0" IVar="-1" Cut="0.0000000000000000e+00" cType="1" res="2.5271159756812267e-05" rms="4.0103033185005188e-01" purity="7.9773765802383423e-01" nType="-99"/>
          <Node pos="r" depth="2" NCoef="0" IVar="-1" Cut="0.0000000000000000e+00" cType="1" res="-2.0752110867761075e-04" rms="3.2609745860099792e-01" purity="2.3097565770149231e-01" nType="-99"/>
        </Node>
        <Node pos="r" depth="1" NCoef="0" IVar="4" Cut="3.5547832031250000e+04" cType="1" res="4.0934914350509644e-01" rms="4.9188455939292908e-01" purity="4.0964096784591675e-01" nType="0">
          <Node pos="l" depth="2" NCoef="0" IVar="-1" Cut="0.0000000000000000e+00" cType="1" res="-7.2080764221027493e-04" rms="3.3825626969337463e-01" purity="2.7600115537643433e-01" nType="-99"/>
          <Node pos="r" depth="2" NCoef="0" IVar="-1" Cut="0.0000000000000000e+00" cType="1" res="5.9948849957436323e-04" rms="4.0195617079734802e-01" purity="7.0866870880126953e-01" nType="-99"/>
        </Node>
      </Node>
    </BinaryTree>
    <BinaryTree type="DecisionTree" boostWeight="1.0000000000000000e+00" itree="834">
      <Node pos="s" depth="0" NCoef="0" IVar="2" Cut="8.9725601562500000e+04" cType="1" res="5.2631312608718872e-01" rms="4.9969413876533508e-01" purity="5.2671200037002563e-01" nType="0">
        <Node pos="l" depth="1" NCoef="0" IVar="1" Cut="2.1276242187500000e+05" cType="1" res="7.3615038394927979e-01" rms="4.4071874022483826e-01" purity="7.3656594753265381e-01" nType="0">
          <Node pos="l" depth="2" NCoef="0" IVar="-1" Cut="0.0000000000000000e+00" cType="1" res="1.7458840375184081e-05" rms="3.3969315886497498e-01" purity="8.7240087985992432e-01" nType="-99"/>
          <Node pos="r" depth="2" NCoef="0" IVar="-1" Cut="0.0000000000000000e+00" cType="1" res="9.9297081760596484e-05" rms="3.6338612437248230e-01" purity="4.3646988272666931e-01" nType="-99"/>
        </Node>
        <Node pos="r" depth="1" NCoef="0" IVar="0" Cut="2.0000000000000000e+00" cType="1" res="1.0078558698296547e-03" rms="3.4563875198364258e-01" purity="3.8564404845237732e-01" nType="0">
          <Node pos="l" depth="2" NCoef="0" IVar="-1" Cut="0.0000000000000000e+00" cType="1" res="-6.0307176318019629e-04" rms="3.4110820293426514e-01" purity="2.1877805888652802e-01" nType="-99"/>
          <Node pos="r" depth="2" NCoef="0" IVar="-1" Cut="0.0000000000000000e+00" cType="1" res="8.9659867808222771e-04" rms="3.5600841045379639e-01" purity="8.3804446458816528e-01" nType="-99"/>
        </Node>
      </Node>
    </BinaryTree>
    <BinaryTree type="DecisionTree" boostWeight="1.0000000000000000e+00" itree="835">
      <Node pos="s" depth="0" NCoef="0" IVar="1" Cut="2.0053121875000000e+05" cType="1" res="4.5221659541130066e-01" rms="4.9792748689651489e-01" purity="4.5249527692794800e-01" nType="0">
        <Node pos="l" depth="1" NCoef="0" IVar="2" Cut="8.9620320312500000e+04" cType="1" res="4.9550437927246094e-01" rms="5.2644860744476318e-01" purity="5.7367056608200073e-01" nType="0">
          <Node pos="l" depth="2" NCoef="0" IVar="-1" Cut="0.0000000000000000e+00" cType="1" res="2.5811208615778014e-05" rms="3.9128595590591431e-01" purity="8.1746393442153931e-01" nType="-99"/>
          <Node pos="r" depth="2" NCoef="0" IVar="-1" Cut="0.0000000000000000e+00" cType="1" res="1.8454712117090821e-03" rms="3.5395681858062744e-01" purity="2.4979074299335480e-01" nType="-99"/>
        </Node>
        <Node pos="r" depth="1" NCoef="0" IVar="0" Cut="4.0000000000000000e+00" cType="1" res="4.3334867805242538e-03" rms="3.5599038004875183e-01" purity="4.1606763005256653e-01" nType="0">
          <Node pos="l" depth="2" NCoef="0" IVar="-1" Cut="0.0000000000000000e+00" cType="1" res="-4.8717975005274639e-05" rms="3.6327219009399414e-01" purity="3.7473157048225403e-01" nType="-99"/>
          <Node pos="r" depth="2" NCoef="0" IVar="-1" Cut="0.0000000000000000e+00" cType="1" res="2.6546765002422035e-04" rms="2.3358915746212006e-01" purity="9.4331467151641846e-01" nType="-99"/>
        </Node>
      </Node>
    </BinaryTree>
    <BinaryTree type="DecisionTree" boostWeight="1.0000000000000000e+00" itree="836">
      <Node pos="s" depth="0" NCoef="0" IVar="2" Cut="8.9646226562500000e+04" cType="1" res="0.0000000000000000e+00" rms="0.0000000000000000e+00" purity="5.8703541755676270e-01" nType="0">
        <Node pos="l" depth="1" NCoef="0" IVar="2" Cut="8.9247960937500000e+04" cType="1" res="8.1601047515869141e-01" rms="3.8750550150871277e-01" purity="8.1603354215621948e-01" nType="0">
          <Node pos="l" depth="2" NCoef="0" IVar="-1" Cut="0.0000000000000000e+00" cType="1" res="2.0201331062708050e-04" rms="3.4829008579254150e-01" purity="3.8280543684959412e-01" nType="-99"/>
          <Node pos="r" depth="2" NCoef="0" IVar="-1" Cut="0.0000000000000000e+00" cType="1" res="1.6280966519843787e-05" rms="2.5878643989562988e-01" purity="9.4185131788253784e-01" nType="-99"/>
        </Node>
        <Node pos="r" depth="1" NCoef="0" IVar="4" Cut="7.4125140625000000e+04" cType="1" res="3.8798031210899353e-01" rms="4.8729005455970764e-01" purity="3.8829579949378967e-01" nType="0">
          <Node pos="l" depth="2" NCoef="0" IVar="-1" Cut="0.0000000000000000e+00" cType="1" res="-1.6433757991762832e-05" rms="3.5846990346908569e-01" purity="3.3657273650169373e-01" nType="-99"/>
          <Node pos="r" depth="2" NCoef="0" IVar="-1" Cut="0.0000000000000000e+00" cType="1" res="8.7319390149787068e-04" rms="2.9662981629371643e-01" purity="9.0005999803543091e-01" nType="-99"/>
        </Node>
      </Node>
    </BinaryTree>
    <BinaryTree type="DecisionTree" boostWeight="1.0000000000000000e+00" itree="837">
      <Node pos="s" depth="0" NCoef="0" IVar="2" Cut="9.1844453125000000e+04" cType="1" res="5.8516114950180054e-01" rms="4.9269419908523560e-01" purity="5.8516114950180054e-01" nType="0">
        <Node pos="l" depth="1" NCoef="0" IVar="4" Cut="3.2465677734375000e+04" cType="1" res="3.8533961772918701e-01" rms="4.8667544126510620e-01" purity="3.8533958792686462e-01" nType="0">
          <Node pos="l" depth="2" NCoef="0" IVar="-1" Cut="0.0000000000000000e+00" cType="1" res="-3.7787217297591269e-04" rms="3.2460099458694458e-01" purity="2.4670793116092682e-01" nType="-99"/>
          <Node pos="r" depth="2" NCoef="0" IVar="-1" Cut="0.0000000000000000e+00" cType="1" res="7.4623571708798409e-04" rms="4.0715843439102173e-01" purity="6.7171519994735718e-01" nType="-99"/>
        </Node>
        <Node pos="r" depth="1" NCoef="0" IVar="2" Cut="9.2031031250000000e+04" cType="1" res="7.6470041275024414e-01" rms="4.2429679632186890e-01" purity="7.6492881774902344e-01" nType="0">
          <Node pos="l" depth="2" NCoef="0" IVar="-1" Cut="0.0000000000000000e+00" cType="1" res="2.0731471522594802e-05" rms="2.4129006266593933e-01" purity="9.5434105396270752e-01" nType="-99"/>
          <Node pos="r" depth="2" NCoef="0" IVar="-1" Cut="0.0000000000000000e+00" cType="1" res="7.0326532295439392e-05" rms="3.6224022507667542e-01" purity="3.9166522026062012e-01" nType="-99"/>
        </Node>
      </Node>
    </BinaryTree>
    <BinaryTree type="DecisionTree" boostWeight="1.0000000000000000e+00" itree="838">
      <Node pos="s" depth="0" NCoef="0" IVar="1" Cut="2.0208595312500000e+05" cType="1" res="4.4643700122833252e-01" rms="4.9734371900558472e-01" purity="4.4679626822471619e-01" nType="0">
        <Node pos="l" depth="1" NCoef="0" IVar="2" Cut="8.9719843750000000e+04" cType="1" res="4.9752587080001831e-01" rms="5.1600265502929688e-01" purity="5.4404920339584351e-01" nType="0">
          <Node pos="l" depth="2" NCoef="0" IVar="-1" Cut="0.0000000000000000e+00" cType="1" res="2.5390821974724531e-05" rms="4.0331164002418518e-01" purity="7.9448091983795166e-01" nType="-99"/>
          <Node pos="r" depth="2" NCoef="0" IVar="-1" Cut="0.0000000000000000e+00" cType="1" res="-5.8280071243643761e-04" rms="3.2481437921524048e-01" purity="2.1706731617450714e-01" nType="-99"/>
        </Node>
        <Node pos="r" depth="1" NCoef="0" IVar="4" Cut="7.7944625000000000e+04" cType="1" res="4.1615533828735352e-01" rms="4.9321195483207703e-01" purity="4.1662609577178955e-01" nType="0">
          <Node pos="l" depth="2" NCoef="0" IVar="-1" Cut="0.0000000000000000e+00" cType="1" res="1.4765163359697908e-04" rms="3.6496621370315552e-01" purity="3.7115478515625000e-01" nType="-99"/>
          <Node pos="r" depth="2" NCoef="0" IVar="-1" Cut="0.0000000000000000e+00" cType="1" res="8.1641989527270198e-04" rms="2.9301518201828003e-01" purity="9.0285921096801758e-01" nType="-99"/>
        </Node>
      </Node>
    </BinaryTree>
    <BinaryTree type="DecisionTree" boostWeight="1.0000000000000000e+00" itree="839">
      <Node pos="s" depth="0" NCoef="0" IVar="3" Cut="8.9426570312500000e+04" cType="1" res="5.7044512033462524e-01" rms="4.9516561627388000e-01" purity="5.7066965103149414e-01" nType="0">
        <Node pos="l" depth="1" NCoef="0" IVar="3" Cut="8.8493054687500000e+04" cType="1" res="6.8040764331817627e-01" rms="4.6639490127563477e-01" purity="6.8062990903854370e-01" nType="0">
          <Node pos="l" depth="2" NCoef="0" IVar="-1" Cut="0.0000000000000000e+00" cType="1" res="4.7278450801968575e-04" rms="3.4849852323532104e-01" purity="3.9362227916717529e-01" nType="-99"/>
          <Node pos="r" depth="2" NCoef="0" IVar="-1" Cut="0.0000000000000000e+00" cType="1" res="2.1894436940783635e-05" rms="3.5946655273437500e-01" purity="8.8301223516464233e-01" nType="-99"/>
        </Node>
        <Node pos="r" depth="1" NCoef="0" IVar="0" Cut="1.0000000000000000e+00" cType="1" res="-3.7346163298934698e-03" rms="3.5268187522888184e-01" purity="3.8271236419677734e-01" nType="0">
          <Node pos="l" depth="2" NCoef="0" IVar="-1" Cut="0.0000000000000000e+00" cType="1" res="-2.3922841064631939e-03" rms="2.8490266203880310e-01" purity="1.2228558957576752e-01" nType="-99"/>
          <Node pos="r" depth="2" NCoef="0" IVar="-1" Cut="0.0000000000000000e+00" cType="1" res="3.4474697895348072e-04" rms="3.9832413196563721e-01" purity="5.9193885326385498e-01" nType="-99"/>
        </Node>
      </Node>
    </BinaryTree>
    <BinaryTree type="DecisionTree" boostWeight="1.0000000000000000e+00" itree="840">
      <Node pos="s" depth="0" NCoef="0" IVar="5" Cut="1.6601217187500000e+05" cType="1" res="4.8530676960945129e-01" rms="5.0000393390655518e-01" purity="4.8552659153938293e-01" nType="0">
        <Node pos="l" depth="1" NCoef="0" IVar="3" Cut="8.9710250000000000e+04" cType="1" res="7.0851689577102661e-01" rms="4.5444551110267639e-01" purity="7.0851689577102661e-01" nType="0">
          <Node pos="l" depth="2" NCoef="0" IVar="-1" Cut="0.0000000000000000e+00" cType="1" res="-1.1007554130628705e-03" rms="2.2231078147888184e-01" purity="6.5968848764896393e-02" nType="-99"/>
          <Node pos="r" depth="2" NCoef="0" IVar="-1" Cut="0.0000000000000000e+00" cType="1" res="1.4730479051650036e-05" rms="3.1548097729682922e-01" purity="8.5527586936950684e-01" nType="-99"/>
        </Node>
        <Node pos="r" depth="1" NCoef="0" IVar="4" Cut="8.2567171875000000e+04" cType="1" res="4.1878533363342285e-01" rms="4.9364915490150452e-01" purity="4.1907063126564026e-01" nType="0">
          <Node pos="l" depth="2" NCoef="0" IVar="-1" Cut="0.0000000000000000e+00" cType="1" res="1.4362749061547220e-04" rms="3.6930957436561584e-01" purity="3.7323737144470215e-01" nType="-99"/>
          <Node pos="r" depth="2" NCoef="0" IVar="-1" Cut="0.0000000000000000e+00" cType="1" res="1.0951653821393847e-03" rms="2.6712366938591003e-01" purity="9.2265540361404419e-01" nType="-99"/>
        </Node>
      </Node>
    </BinaryTree>
    <BinaryTree type="DecisionTree" boostWeight="1.0000000000000000e+00" itree="841">
      <Node pos="s" depth="0" NCoef="0" IVar="3" Cut="8.9426570312500000e+04" cType="1" res="5.1815795898437500e-01" rms="4.9967017769813538e-01" purity="5.1815795898437500e-01" nType="0">
        <Node pos="l" depth="1" NCoef="0" IVar="3" Cut="8.8493054687500000e+04" cType="1" res="6.1123281717300415e-01" rms="4.8747026920318604e-01" purity="6.1123275756835938e-01" nType="0">
          <Node pos="l" depth="2" NCoef="0" IVar="-1" Cut="0.0000000000000000e+00" cType="1" res="3.0188381788320839e-04" rms="3.5475778579711914e-01" purity="3.8347500562667847e-01" nType="-99"/>
          <Node pos="r" depth="2" NCoef="0" IVar="-1" Cut="0.0000000000000000e+00" cType="1" res="2.2705196897732094e-05" rms="4.1109925508499146e-01" purity="8.3322846889495850e-01" nType="-99"/>
        </Node>
        <Node pos="r" depth="1" NCoef="0" IVar="0" Cut="3.0000000000000000e+00" cType="1" res="1.1675045825541019e-03" rms="3.5612049698829651e-01" purity="3.8837155699729919e-01" nType="0">
          <Node pos="l" depth="2" NCoef="0" IVar="-1" Cut="0.0000000000000000e+00" cType="1" res="-2.7049164054915309e-04" rms="3.6603212356567383e-01" purity="3.0914729833602905e-01" nType="-99"/>
          <Node pos="r" depth="2" NCoef="0" IVar="-1" Cut="0.0000000000000000e+00" cType="1" res="2.0015353802591562e-03" rms="2.7829143404960632e-01" purity="9.1280609369277954e-01" nType="-99"/>
        </Node>
      </Node>
    </BinaryTree>
    <BinaryTree type="DecisionTree" boostWeight="1.0000000000000000e+00" itree="842">
      <Node pos="s" depth="0" NCoef="0" IVar="3" Cut="9.5951023437500000e+04" cType="1" res="5.5564510822296143e-01" rms="4.9694967269897461e-01" purity="5.5575686693191528e-01" nType="0">
        <Node pos="l" depth="1" NCoef="0" IVar="0" Cut="1.0000000000000000e+00" cType="1" res="6.6027459688484669e-03" rms="3.5425251722335815e-01" purity="3.8272958993911743e-01" nType="0">
          <Node pos="l" depth="2" NCoef="0" IVar="-1" Cut="0.0000000000000000e+00" cType="1" res="-7.6841231202706695e-04" rms="2.8475052118301392e-01" purity="1.4309841394424438e-01" nType="-99"/>
          <Node pos="r" depth="2" NCoef="0" IVar="-1" Cut="0.0000000000000000e+00" cType="1" res="8.0427003558725119e-04" rms="4.0403679013252258e-01" purity="5.8911097049713135e-01" nType="-99"/>
        </Node>
        <Node pos="r" depth="1" NCoef="0" IVar="2" Cut="8.9326687500000000e+04" cType="1" res="8.5918366909027100e-01" rms="3.4783199429512024e-01" purity="8.5933911800384521e-01" nType="0">
          <Node pos="l" depth="2" NCoef="0" IVar="-1" Cut="0.0000000000000000e+00" cType="1" res="1.4870271115796641e-05" rms="2.4572601914405823e-01" purity="9.5274734497070312e-01" nType="-99"/>
          <Node pos="r" depth="2" NCoef="0" IVar="-1" Cut="0.0000000000000000e+00" cType="1" res="3.5070197554887272e-06" rms="3.5500863194465637e-01" purity="4.2981445789337158e-01" nType="-99"/>
        </Node>
      </Node>
    </BinaryTree>
    <BinaryTree type="DecisionTree" boostWeight="1.0000000000000000e+00" itree="843">
      <Node pos="s" depth="0" NCoef="0" IVar="0" Cut="1.0000000000000000e+00" cType="1" res="4.0264827013015747e-01" rms="4.8468944430351257e-01" purity="6.8154907226562500e-01" nType="0">
        <Node pos="l" depth="1" NCoef="0" IVar="4" Cut="1.9143939453125000e+04" cType="1" res="7.1361368894577026e-01" rms="4.5207211375236511e-01" purity="7.1361362934112549e-01" nType="0">
          <Node pos="l" depth="2" NCoef="0" IVar="-1" Cut="0.0000000000000000e+00" cType="1" res="2.6035462506115437e-03" rms="1.9899936020374298e-01" purity="4.1370674967765808e-02" nType="-99"/>
          <Node pos="r" depth="2" NCoef="0" IVar="-1" Cut="0.0000000000000000e+00" cType="1" res="1.8447248294251040e-05" rms="3.6942812800407410e-01" purity="8.6280459165573120e-01" nType="-99"/>
        </Node>
        <Node pos="r" depth="1" NCoef="0" IVar="4" Cut="9.0034638671875000e+03" cType="1" res="5.9908783435821533e-01" rms="4.9086314439773560e-01" purity="6.0038208961486816e-01" nType="0">
          <Node pos="l" depth="2" NCoef="0" IVar="-1" Cut="0.0000000000000000e+00" cType="1" res="-1.7183732707053423e-03" rms="3.7135490775108337e-01" purity="3.3814826607704163e-01" nType="-99"/>
          <Node pos="r" depth="2" NCoef="0" IVar="-1" Cut="0.0000000000000000e+00" cType="1" res="5.5678171338513494e-04" rms="4.0482091903686523e-01" purity="6.2770646810531616e-01" nType="-99"/>
        </Node>
      </Node>
    </BinaryTree>
    <BinaryTree type="DecisionTree" boostWeight="1.0000000000000000e+00" itree="844">
      <Node pos="s" depth="0" NCoef="0" IVar="2" Cut="9.1808140625000000e+04" cType="1" res="4.6240764856338501e-01" rms="4.9858480691909790e-01" purity="4.6240764856338501e-01" nType="0">
        <Node pos="l" depth="1" NCoef="0" IVar="4" Cut="5.2391386718750000e+04" cType="1" res="3.7710261344909668e-01" rms="4.8466095328330994e-01" purity="3.7710264325141907e-01" nType="0">
          <Node pos="l" depth="2" NCoef="0" IVar="-1" Cut="0.0000000000000000e+00" cType="1" res="-1.9776972476392984e-04" rms="3.4839460253715515e-01" purity="2.9522147774696350e-01" nType="-99"/>
          <Node pos="r" depth="2" NCoef="0" IVar="-1" Cut="0.0000000000000000e+00" cType="1" res="6.5628805896267295e-04" rms="3.6596107482910156e-01" purity="8.1414538621902466e-01" nType="-99"/>
        </Node>
        <Node pos="r" depth="1" NCoef="0" IVar="2" Cut="9.2002164062500000e+04" cType="1" res="5.8834654092788696e-01" rms="4.9258130788803101e-01" purity="5.8917385339736938e-01" nType="0">
          <Node pos="l" depth="2" NCoef="0" IVar="-1" Cut="0.0000000000000000e+00" cType="1" res="2.0673694962169975e-05" rms="3.7764745950698853e-01" purity="8.7154084444046021e-01" nType="-99"/>
          <Node pos="r" depth="2" NCoef="0" IVar="-1" Cut="0.0000000000000000e+00" cType="1" res="-4.0775153320282698e-04" rms="3.5110893845558167e-01" purity="3.7561285495758057e-01" nType="-99"/>
        </Node>
      </Node>
    </BinaryTree>
    <BinaryTree type="DecisionTree" boostWeight="1.0000000000000000e+00" itree="845">
      <Node pos="s" depth="0" NCoef="0" IVar="1" Cut="2.0203215625000000e+05" cType="1" res="4.4960302114486694e-01" rms="4.9750348925590515e-01" purity="4.4965258240699768e-01" nType="0">
        <Node pos="l" depth="1" NCoef="0" IVar="2" Cut="8.9665414062500000e+04" cType="1" res="4.8013404011726379e-01" rms="5.1944756507873535e-01" purity="5.4422068595886230e-01" nType="0">
          <Node pos="l" depth="2" NCoef="0" IVar="-1" Cut="0.0000000000000000e+00" cType="1" res="2.5592100428184494e-05" rms="4.0214675664901733e-01" purity="8.0047541856765747e-01" nType="-99"/>
          <Node pos="r" depth="2" NCoef="0" IVar="-1" Cut="0.0000000000000000e+00" cType="1" res="-3.9212760748341680e-04" rms="3.4283506870269775e-01" purity="2.1288849413394928e-01" nType="-99"/>
        </Node>
        <Node pos="r" depth="1" NCoef="0" IVar="3" Cut="9.8787656250000000e+04" cType="1" res="4.1994875669479370e-01" rms="4.9361616373062134e-01" purity="4.2001387476921082e-01" nType="0">
          <Node pos="l" depth="2" NCoef="0" IVar="-1" Cut="0.0000000000000000e+00" cType="1" res="5.0280072173336521e-05" rms="3.5493728518486023e-01" purity="4.1367435455322266e-01" nType="-99"/>
          <Node pos="r" depth="2" NCoef="0" IVar="-1" Cut="0.0000000000000000e+00" cType="1" res="1.2881485745310783e-03" rms="3.9532542228698730e-01" purity="5.4412627220153809e-01" nType="-99"/>
        </Node>
      </Node>
    </BinaryTree>
    <BinaryTree type="DecisionTree" boostWeight="1.0000000000000000e+00" itree="846">
      <Node pos="s" depth="0" NCoef="0" IVar="3" Cut="8.9426281250000000e+04" cType="1" res="5.1668494939804077e-01" rms="4.9972152709960938e-01" purity="5.1668494939804077e-01" nType="0">
        <Node pos="l" depth="1" NCoef="0" IVar="3" Cut="8.8492664062500000e+04" cType="1" res="6.0795193910598755e-01" rms="4.8820731043815613e-01" purity="6.0795193910598755e-01" nType="0">
          <Node pos="l" depth="2" NCoef="0" IVar="-1" Cut="0.0000000000000000e+00" cType="1" res="1.5292721218429506e-04" rms="3.5149055719375610e-01" purity="3.8377684354782104e-01" nType="-99"/>
          <Node pos="r" depth="2" NCoef="0" IVar="-1" Cut="0.0000000000000000e+00" cType="1" res="2.2560778234037571e-05" rms="4.1319110989570618e-01" purity="8.3080917596817017e-01" nType="-99"/>
        </Node>
        <Node pos="r" depth="1" NCoef="0" IVar="3" Cut="9.8943984375000000e+04" cType="1" res="3.8957658410072327e-01" rms="4.8801955580711365e-01" purity="3.9047390222549438e-01" nType="0">
          <Node pos="l" depth="2" NCoef="0" IVar="-1" Cut="0.0000000000000000e+00" cType="1" res="-1.4973187353461981e-04" rms="3.5416278243064880e-01" purity="3.8125544786453247e-01" nType="-99"/>
          <Node pos="r" depth="2" NCoef="0" IVar="-1" Cut="0.0000000000000000e+00" cType="1" res="1.7328161047771573e-03" rms="4.0172493457794189e-01" purity="5.1101016998291016e-01" nType="-99"/>
        </Node>
      </Node>
    </BinaryTree>
    <BinaryTree type="DecisionTree" boostWeight="1.0000000000000000e+00" itree="847">
      <Node pos="s" depth="0" NCoef="0" IVar="5" Cut="1.6037771875000000e+05" cType="1" res="5.5558484792709351e-01" rms="4.9690070748329163e-01" purity="5.5558484792709351e-01" nType="0">
        <Node pos="l" depth="1" NCoef="0" IVar="-1" Cut="0.0000000000000000e+00" cType="1" res="1.4681574612041004e-05" rms="3.0181205272674561e-01" purity="8.6707788705825806e-01" nType="-99"/>
        <Node pos="r" depth="1" NCoef="0" IVar="4" Cut="3.6721250000000000e+04" cType="1" res="4.1223427653312683e-01" rms="4.9223691225051880e-01" purity="4.1223427653312683e-01" nType="0">
          <Node pos="l" depth="2" NCoef="0" IVar="-1" Cut="0.0000000000000000e+00" cType="1" res="-4.9494946142658591e-04" rms="3.3974161744117737e-01" purity="2.8416624665260315e-01" nType="-99"/>
          <Node pos="r" depth="2" NCoef="0" IVar="-1" Cut="0.0000000000000000e+00" cType="1" res="4.4220726704224944e-04" rms="3.9880216121673584e-01" purity="7.1905457973480225e-01" nType="-99"/>
        </Node>
      </Node>
    </BinaryTree>
    <BinaryTree type="DecisionTree" boostWeight="1.0000000000000000e+00" itree="848">
      <Node pos="s" depth="0" NCoef="0" IVar="3" Cut="9.5951000000000000e+04" cType="1" res="4.7513341903686523e-01" rms="4.9938127398490906e-01" purity="4.7513341903686523e-01" nType="0">
        <Node pos="l" depth="1" NCoef="0" IVar="5" Cut="7.1148987500000000e+05" cType="1" res="3.7170222401618958e-01" rms="4.8325943946838379e-01" purity="3.7170222401618958e-01" nType="0">
          <Node pos="l" depth="2" NCoef="0" IVar="-1" Cut="0.0000000000000000e+00" cType="1" res="-1.3657197996508330e-04" rms="3.6267909407615662e-01" purity="3.2644891738891602e-01" nType="-99"/>
          <Node pos="r" depth="2" NCoef="0" IVar="-1" Cut="0.0000000000000000e+00" cType="1" res="2.1302695386111736e-03" rms="2.8108873963356018e-01" purity="8.9294272661209106e-01" nType="-99"/>
        </Node>
        <Node pos="r" depth="1" NCoef="0" IVar="2" Cut="8.9295234375000000e+04" cType="1" res="7.7019751071929932e-01" rms="4.2070570588111877e-01" purity="7.7045416831970215e-01" nType="0">
          <Node pos="l" depth="2" NCoef="0" IVar="-1" Cut="0.0000000000000000e+00" cType="1" res="1.4926806215953548e-05" rms="3.2246837019920349e-01" purity="9.1442459821701050e-01" nType="-99"/>
          <Node pos="r" depth="2" NCoef="0" IVar="-1" Cut="0.0000000000000000e+00" cType="1" res="-1.7222686437889934e-03" rms="3.6155983805656433e-01" purity="3.6721709370613098e-01" nType="-99"/>
        </Node>
      </Node>
    </BinaryTree>
    <BinaryTree type="DecisionTree" boostWeight="1.0000000000000000e+00" itree="849">
      <Node pos="s" depth="0" NCoef="0" IVar="2" Cut="9.1879203125000000e+04" cType="1" res="4.6849825978279114e-01" rms="4.9944710731506348e-01" purity="4.6918478608131409e-01" nType="0">
        <Node pos="l" depth="1" NCoef="0" IVar="4" Cut="7.3553906250000000e+04" cType="1" res="3.8585969805717468e-01" rms="4.8733216524124146e-01" purity="3.8648906350135803e-01" nType="0">
          <Node pos="l" depth="2" NCoef="0" IVar="-1" Cut="0.0000000000000000e+00" cType="1" res="-1.7159631170216016e-05" rms="3.5362854599952698e-01" purity="3.3158567547798157e-01" nType="-99"/>
          <Node pos="r" depth="2" NCoef="0" IVar="-1" Cut="0.0000000000000000e+00" cType="1" res="8.8126299669966102e-04" rms="2.8995937108993530e-01" purity="9.0338224172592163e-01" nType="-99"/>
        </Node>
        <Node pos="r" depth="1" NCoef="0" IVar="2" Cut="9.2076085937500000e+04" cType="1" res="6.0071837902069092e-01" rms="4.8990046977996826e-01" purity="6.0149639844894409e-01" nType="0">
          <Node pos="l" depth="2" NCoef="0" IVar="-1" Cut="0.0000000000000000e+00" cType="1" res="2.0777606550836936e-05" rms="3.6438518762588501e-01" purity="8.7767684459686279e-01" nType="-99"/>
          <Node pos="r" depth="2" NCoef="0" IVar="-1" Cut="0.0000000000000000e+00" cType="1" res="-1.7926635337062180e-04" rms="3.4705647826194763e-01" purity="3.8654336333274841e-01" nType="-99"/>
        </Node>
      </Node>
    </BinaryTree>
    <BinaryTree type="DecisionTree" boostWeight="1.0000000000000000e+00" itree="850">
      <Node pos="s" depth="0" NCoef="0" IVar="4" Cut="8.4114054687500000e+04" cType="1" res="3.8776367902755737e-01" rms="4.8724019527435303e-01" purity="3.8776367902755737e-01" nType="0">
        <Node pos="l" depth="1" NCoef="0" IVar="3" Cut="9.8787570312500000e+04" cType="1" res="3.4093245863914490e-01" rms="4.7402268648147583e-01" purity="3.4093245863914490e-01" nType="0">
          <Node pos="l" depth="2" NCoef="0" IVar="-1" Cut="0.0000000000000000e+00" cType="1" res="-3.8554557249881327e-04" rms="3.5606759786605835e-01" purity="3.3589339256286621e-01" nType="-99"/>
          <Node pos="r" depth="2" NCoef="0" IVar="-1" Cut="0.0000000000000000e+00" cType="1" res="1.1008367873728275e-03" rms="3.8822481036186218e-01" purity="4.6154040098190308e-01" nType="-99"/>
        </Node>
        <Node pos="r" depth="1" NCoef="0" IVar="-1" Cut="0.0000000000000000e+00" cType="1" res="9.7980583086609840e-04" rms="2.6145011186599731e-01" purity="9.2623430490493774e-01" nType="-99"/>
      </Node>
    </BinaryTree>
    <BinaryTree type="DecisionTree" boostWeight="1.0000000000000000e+00" itree="851">
      <Node pos="s" depth="0" NCoef="0" IVar="4" Cut="5.3561335937500000e+04" cType="1" res="3.9722231030464172e-01" rms="4.8932275176048279e-01" purity="3.9722234010696411e-01" nType="0">
        <Node pos="l" depth="1" NCoef="0" IVar="4" Cut="2.2827789062500000e+04" cType="1" res="3.0147722363471985e-01" rms="4.5933312177658081e-01" purity="3.0187544226646423e-01" nType="0">
          <Node pos="l" depth="2" NCoef="0" IVar="-1" Cut="0.0000000000000000e+00" cType="1" res="1.1767145479097962e-03" rms="3.0715548992156982e-01" purity="2.1346895396709442e-01" nType="-99"/>
          <Node pos="r" depth="2" NCoef="0" IVar="-1" Cut="0.0000000000000000e+00" cType="1" res="-9.4014126807451248e-04" rms="4.1016077995300293e-01" purity="4.3843236565589905e-01" nType="-99"/>
        </Node>
        <Node pos="r" depth="1" NCoef="0" IVar="2" Cut="9.0809445312500000e+04" cType="1" res="8.4046882390975952e-01" rms="3.6617067456245422e-01" purity="8.4046888351440430e-01" nType="0">
          <Node pos="l" depth="2" NCoef="0" IVar="-1" Cut="0.0000000000000000e+00" cType="1" res="2.8949606348760426e-04" rms="3.3061233162879944e-01" purity="8.5960197448730469e-01" nType="-99"/>
          <Node pos="r" depth="2" NCoef="0" IVar="-1" Cut="0.0000000000000000e+00" cType="1" res="5.1854329649358988e-04" rms="3.5591614246368408e-01" purity="8.2266116142272949e-01" nType="-99"/>
        </Node>
      </Node>
    </BinaryTree>
    <BinaryTree type="DecisionTree" boostWeight="1.0000000000000000e+00" itree="852">
      <Node pos="s" depth="0" NCoef="0" IVar="1" Cut="2.0010664062500000e+05" cType="1" res="4.9560496211051941e-01" rms="5.0024157762527466e-01" purity="4.9586588144302368e-01" nType="0">
        <Node pos="l" depth="1" NCoef="0" IVar="2" Cut="8.9620320312500000e+04" cType="1" res="6.5683764219284058e-01" rms="4.8629850149154663e-01" purity="7.0147401094436646e-01" nType="0">
          <Node pos="l" depth="2" NCoef="0" IVar="-1" Cut="0.0000000000000000e+00" cType="1" res="2.5687091692816466e-05" rms="3.0991947650909424e-01" purity="8.9355081319808960e-01" nType="-99"/>
          <Node pos="r" depth="2" NCoef="0" IVar="-1" Cut="0.0000000000000000e+00" cType="1" res="1.5145540237426758e-03" rms="3.4396815299987793e-01" purity="2.4173164367675781e-01" nType="-99"/>
        </Node>
        <Node pos="r" depth="1" NCoef="0" IVar="4" Cut="7.8765812500000000e+04" cType="1" res="4.0899816155433655e-01" rms="4.9202579259872437e-01" purity="4.0936890244483948e-01" nType="0">
          <Node pos="l" depth="2" NCoef="0" IVar="-1" Cut="0.0000000000000000e+00" cType="1" res="9.9469849374145269e-05" rms="3.6815807223320007e-01" purity="3.6415141820907593e-01" nType="-99"/>
          <Node pos="r" depth="2" NCoef="0" IVar="-1" Cut="0.0000000000000000e+00" cType="1" res="9.7126554464921355e-04" rms="2.7916821837425232e-01" purity="9.1321659088134766e-01" nType="-99"/>
        </Node>
      </Node>
    </BinaryTree>
    <BinaryTree type="DecisionTree" boostWeight="1.0000000000000000e+00" itree="853">
      <Node pos="s" depth="0" NCoef="0" IVar="3" Cut="8.9426765625000000e+04" cType="1" res="0.0000000000000000e+00" rms="0.0000000000000000e+00" purity="5.7054734230041504e-01" nType="0">
        <Node pos="l" depth="1" NCoef="0" IVar="3" Cut="8.8493164062500000e+04" cType="1" res="6.8096929788589478e-01" rms="4.6610096096992493e-01" purity="6.8104875087738037e-01" nType="0">
          <Node pos="l" depth="2" NCoef="0" IVar="-1" Cut="0.0000000000000000e+00" cType="1" res="4.5465407310985029e-05" rms="3.4080207347869873e-01" purity="3.9379844069480896e-01" nType="-99"/>
          <Node pos="r" depth="2" NCoef="0" IVar="-1" Cut="0.0000000000000000e+00" cType="1" res="2.1916413970757276e-05" rms="3.5833266377449036e-01" purity="8.8328409194946289e-01" nType="-99"/>
        </Node>
        <Node pos="r" depth="1" NCoef="0" IVar="2" Cut="9.2047859375000000e+04" cType="1" res="3.8015162944793701e-01" rms="4.8556834459304810e-01" purity="3.8029187917709351e-01" nType="0">
          <Node pos="l" depth="2" NCoef="0" IVar="-1" Cut="0.0000000000000000e+00" cType="1" res="3.8690838846378028e-04" rms="3.6169981956481934e-01" purity="3.8657850027084351e-01" nType="-99"/>
          <Node pos="r" depth="2" NCoef="0" IVar="-1" Cut="0.0000000000000000e+00" cType="1" res="-1.9324450986459851e-03" rms="3.4382042288780212e-01" purity="3.5726690292358398e-01" nType="-99"/>
        </Node>
      </Node>
    </BinaryTree>
    <BinaryTree type="DecisionTree" boostWeight="1.0000000000000000e+00" itree="854">
      <Node pos="s" depth="0" NCoef="0" IVar="4" Cut="8.3366750000000000e+04" cType="1" res="3.8014301657676697e-01" rms="4.8570466041564941e-01" purity="3.8060232996940613e-01" nType="0">
        <Node pos="l" depth="1" NCoef="0" IVar="5" Cut="8.1047856250000000e+05" cType="1" res="3.3902651071548462e-01" rms="4.7353273630142212e-01" purity="3.3917221426963806e-01" nType="0">
          <Node pos="l" depth="2" NCoef="0" IVar="-1" Cut="0.0000000000000000e+00" cType="1" res="-6.4632366411387920e-04" rms="3.5664278268814087e-01" purity="3.0794796347618103e-01" nType="-99"/>
          <Node pos="r" depth="2" NCoef="0" IVar="-1" Cut="0.0000000000000000e+00" cType="1" res="2.4972925893962383e-03" rms="2.7596372365951538e-01" purity="9.0106606483459473e-01" nType="-99"/>
        </Node>
        <Node pos="r" depth="1" NCoef="0" IVar="-1" Cut="0.0000000000000000e+00" cType="1" res="9.7017444204539061e-04" rms="2.8240990638732910e-01" purity="9.1329735517501831e-01" nType="-99"/>
      </Node>
    </BinaryTree>
    <BinaryTree type="DecisionTree" boostWeight="1.0000000000000000e+00" itree="855">
      <Node pos="s" depth="0" NCoef="0" IVar="2" Cut="9.1818820312500000e+04" cType="1" res="4.7122836112976074e-01" rms="4.9970650672912598e-01" purity="4.7176277637481689e-01" nType="0">
        <Node pos="l" depth="1" NCoef="0" IVar="0" Cut="3.0000000000000000e+00" cType="1" res="5.0357319414615631e-03" rms="3.4917095303535461e-01" purity="3.8521084189414978e-01" nType="0">
          <Node pos="l" depth="2" NCoef="0" IVar="-1" Cut="0.0000000000000000e+00" cType="1" res="-2.4289649445563555e-05" rms="3.5699695348739624e-01" purity="3.1153646111488342e-01" nType="-99"/>
          <Node pos="r" depth="2" NCoef="0" IVar="-1" Cut="0.0000000000000000e+00" cType="1" res="1.8593184649944305e-03" rms="2.8426951169967651e-01" purity="9.0964919328689575e-01" nType="-99"/>
        </Node>
        <Node pos="r" depth="1" NCoef="0" IVar="2" Cut="9.2010179687500000e+04" cType="1" res="6.0223716497421265e-01" rms="4.9006241559982300e-01" purity="6.0285085439682007e-01" nType="0">
          <Node pos="l" depth="2" NCoef="0" IVar="-1" Cut="0.0000000000000000e+00" cType="1" res="2.0699819287983701e-05" rms="3.6811450123786926e-01" purity="8.8240152597427368e-01" nType="-99"/>
          <Node pos="r" depth="2" NCoef="0" IVar="-1" Cut="0.0000000000000000e+00" cType="1" res="1.1964799341512844e-04" rms="3.6342674493789673e-01" purity="3.9114743471145630e-01" nType="-99"/>
        </Node>
      </Node>
    </BinaryTree>
    <BinaryTree type="DecisionTree" boostWeight="1.0000000000000000e+00" itree="856">
      <Node pos="s" depth="0" NCoef="0" IVar="3" Cut="8.9426531250000000e+04" cType="1" res="5.1324295997619629e-01" rms="5.0001078844070435e-01" purity="5.1351147890090942e-01" nType="0">
        <Node pos="l" depth="1" NCoef="0" IVar="3" Cut="8.8492914062500000e+04" cType="1" res="6.0876435041427612e-01" rms="4.8810312151908875e-01" purity="6.0897892713546753e-01" nType="0">
          <Node pos="l" depth="2" NCoef="0" IVar="-1" Cut="0.0000000000000000e+00" cType="1" res="3.3277182956226170e-04" rms="3.5113805532455444e-01" purity="3.8734915852546692e-01" nType="-99"/>
          <Node pos="r" depth="2" NCoef="0" IVar="-1" Cut="0.0000000000000000e+00" cType="1" res="2.2729089323547669e-05" rms="4.1471233963966370e-01" purity="8.3065259456634521e-01" nType="-99"/>
        </Node>
        <Node pos="r" depth="1" NCoef="0" IVar="4" Cut="6.1184324218750000e+04" cType="1" res="3.7760058045387268e-01" rms="4.8490566015243530e-01" purity="3.7771570682525635e-01" nType="0">
          <Node pos="l" depth="2" NCoef="0" IVar="-1" Cut="0.0000000000000000e+00" cType="1" res="-1.0063975350931287e-03" rms="3.5365203022956848e-01" purity="3.0323725938796997e-01" nType="-99"/>
          <Node pos="r" depth="2" NCoef="0" IVar="-1" Cut="0.0000000000000000e+00" cType="1" res="6.2753714155405760e-04" rms="3.2708671689033508e-01" purity="8.6691915988922119e-01" nType="-99"/>
        </Node>
      </Node>
    </BinaryTree>
    <BinaryTree type="DecisionTree" boostWeight="1.0000000000000000e+00" itree="857">
      <Node pos="s" depth="0" NCoef="0" IVar="2" Cut="9.1882625000000000e+04" cType="1" res="5.2764719724655151e-01" rms="4.9923503398895264e-01" purity="5.2764713764190674e-01" nType="0">
        <Node pos="l" depth="1" NCoef="0" IVar="4" Cut="6.0252363281250000e+04" cType="1" res="3.7746652960777283e-01" rms="4.8475307226181030e-01" purity="3.7746652960777283e-01" nType="0">
          <Node pos="l" depth="2" NCoef="0" IVar="-1" Cut="0.0000000000000000e+00" cType="1" res="-7.7860121382400393e-04" rms="3.4878924489021301e-01" purity="2.9947406053543091e-01" nType="-99"/>
          <Node pos="r" depth="2" NCoef="0" IVar="-1" Cut="0.0000000000000000e+00" cType="1" res="7.2505249409005046e-04" rms="3.3558285236358643e-01" purity="8.5970664024353027e-01" nType="-99"/>
        </Node>
        <Node pos="r" depth="1" NCoef="0" IVar="2" Cut="9.2075046875000000e+04" cType="1" res="7.0408284664154053e-01" rms="4.5657941699028015e-01" purity="7.0437127351760864e-01" nType="0">
          <Node pos="l" depth="2" NCoef="0" IVar="-1" Cut="0.0000000000000000e+00" cType="1" res="2.0770827177329920e-05" rms="2.8651586174964905e-01" purity="9.3154382705688477e-01" nType="-99"/>
          <Node pos="r" depth="2" NCoef="0" IVar="-1" Cut="0.0000000000000000e+00" cType="1" res="-5.8567803353071213e-04" rms="3.4872457385063171e-01" purity="3.7346732616424561e-01" nType="-99"/>
        </Node>
      </Node>
    </BinaryTree>
    <BinaryTree type="DecisionTree" boostWeight="1.0000000000000000e+00" itree="858">
      <Node pos="s" depth="0" NCoef="0" IVar="4" Cut="3.4867515625000000e+04" cType="1" res="3.9276322722434998e-01" rms="4.8836490511894226e-01" purity="3.9276319742202759e-01" nType="0">
        <Node pos="l" depth="1" NCoef="0" IVar="4" Cut="2.3012298828125000e+04" cType="1" res="2.5595238804817200e-01" rms="4.3661975860595703e-01" purity="2.5614842772483826e-01" nType="0">
          <Node pos="l" depth="2" NCoef="0" IVar="-1" Cut="0.0000000000000000e+00" cType="1" res="1.0197637602686882e-03" rms="3.0881586670875549e-01" purity="2.1505904197692871e-01" nType="-99"/>
          <Node pos="r" depth="2" NCoef="0" IVar="-1" Cut="0.0000000000000000e+00" cType="1" res="-1.4564614975824952e-03" rms="3.9508599042892456e-01" purity="3.6934059858322144e-01" nType="-99"/>
        </Node>
        <Node pos="r" depth="1" NCoef="0" IVar="2" Cut="8.9774757812500000e+04" cType="1" res="7.0086675882339478e-01" rms="4.5787832140922546e-01" purity="7.0086681842803955e-01" nType="0">
          <Node pos="l" depth="2" NCoef="0" IVar="-1" Cut="0.0000000000000000e+00" cType="1" res="4.6582077629864216e-04" rms="3.9004251360893250e-01" purity="7.4161547422409058e-01" nType="-99"/>
          <Node pos="r" depth="2" NCoef="0" IVar="-1" Cut="0.0000000000000000e+00" cType="1" res="4.3718639062717557e-04" rms="4.0011790394783020e-01" purity="6.8731421232223511e-01" nType="-99"/>
        </Node>
      </Node>
    </BinaryTree>
    <BinaryTree type="DecisionTree" boostWeight="1.0000000000000000e+00" itree="859">
      <Node pos="s" depth="0" NCoef="0" IVar="2" Cut="9.1857468750000000e+04" cType="1" res="4.7047457098960876e-01" rms="4.9912747740745544e-01" purity="4.7047457098960876e-01" nType="0">
        <Node pos="l" depth="1" NCoef="0" IVar="3" Cut="9.8077890625000000e+04" cType="1" res="3.8742446899414062e-01" rms="4.8716193437576294e-01" purity="3.8742443919181824e-01" nType="0">
          <Node pos="l" depth="2" NCoef="0" IVar="-1" Cut="0.0000000000000000e+00" cType="1" res="2.5287779862992465e-04" rms="3.5499107837677002e-01" purity="3.8102811574935913e-01" nType="-99"/>
          <Node pos="r" depth="2" NCoef="0" IVar="-1" Cut="0.0000000000000000e+00" cType="1" res="1.3672080822288990e-03" rms="3.9260658621788025e-01" purity="4.9772310256958008e-01" nType="-99"/>
        </Node>
        <Node pos="r" depth="1" NCoef="0" IVar="2" Cut="9.2050492187500000e+04" cType="1" res="5.9749794006347656e-01" rms="4.9054697155952454e-01" purity="5.9786683320999146e-01" nType="0">
          <Node pos="l" depth="2" NCoef="0" IVar="-1" Cut="0.0000000000000000e+00" cType="1" res="2.0994526494177990e-05" rms="3.6400559544563293e-01" purity="8.7735652923583984e-01" nType="-99"/>
          <Node pos="r" depth="2" NCoef="0" IVar="-1" Cut="0.0000000000000000e+00" cType="1" res="2.8526273672468960e-04" rms="3.6784017086029053e-01" purity="3.8716354966163635e-01" nType="-99"/>
        </Node>
      </Node>
    </BinaryTree>
    <BinaryTree type="DecisionTree" boostWeight="1.0000000000000000e+00" itree="860">
      <Node pos="s" depth="0" NCoef="0" IVar="1" Cut="1.8991192187500000e+05" cType="1" res="4.5013734698295593e-01" rms="4.9750751256942749e-01" purity="4.5013734698295593e-01" nType="0">
        <Node pos="l" depth="1" NCoef="0" IVar="-1" Cut="0.0000000000000000e+00" cType="1" res="2.5787972845137119e-05" rms="4.3075072765350342e-01" purity="7.4067503213882446e-01" nType="-99"/>
        <Node pos="r" depth="1" NCoef="0" IVar="0" Cut="4.0000000000000000e+00" cType="1" res="6.5112537704408169e-03" rms="3.5753220319747925e-01" purity="3.9913827180862427e-01" nType="0">
          <Node pos="l" depth="2" NCoef="0" IVar="-1" Cut="0.0000000000000000e+00" cType="1" res="7.0739471993874758e-05" rms="3.6411526799201965e-01" purity="3.6159819364547729e-01" nType="-99"/>
          <Node pos="r" depth="2" NCoef="0" IVar="-1" Cut="0.0000000000000000e+00" cType="1" res="2.7564854826778173e-04" rms="2.3068919777870178e-01" purity="9.4507712125778198e-01" nType="-99"/>
        </Node>
      </Node>
    </BinaryTree>
    <BinaryTree type="DecisionTree" boostWeight="1.0000000000000000e+00" itree="861">
      <Node pos="s" depth="0" NCoef="0" IVar="5" Cut="6.3619393750000000e+05" cType="1" res="inf" rms="0.0000000000000000e+00" purity="3.7359151244163513e-01" nType="0">
        <Node pos="l" depth="1" NCoef="0" IVar="1" Cut="2.7901581250000000e+05" cType="1" res="3.1791326403617859e-01" rms="4.6566557884216309e-01" purity="3.1791326403617859e-01" nType="0">
          <Node pos="l" depth="2" NCoef="0" IVar="-1" Cut="0.0000000000000000e+00" cType="1" res="2.6372232241556048e-04" rms="3.5489848256111145e-01" purity="2.7746742963790894e-01" nType="-99"/>
          <Node pos="r" depth="2" NCoef="0" IVar="-1" Cut="0.0000000000000000e+00" cType="1" res="-8.8104390306398273e-04" rms="3.7980690598487854e-01" purity="3.9687865972518921e-01" nType="-99"/>
        </Node>
        <Node pos="r" depth="1" NCoef="0" IVar="3" Cut="9.2259062500000000e+04" cType="1" res="8.7513953447341919e-01" rms="3.3056062459945679e-01" purity="8.7513953447341919e-01" nType="0">
          <Node pos="l" depth="2" NCoef="0" IVar="-1" Cut="0.0000000000000000e+00" cType="1" res="2.5814620312303305e-03" rms="2.9355913400650024e-01" purity="8.8415497541427612e-01" nType="-99"/>
          <Node pos="r" depth="2" NCoef="0" IVar="-1" Cut="0.0000000000000000e+00" cType="1" res="1.6233981586992741e-03" rms="3.0773580074310303e-01" purity="8.6131721735000610e-01" nType="-99"/>
        </Node>
      </Node>
    </BinaryTree>
    <BinaryTree type="DecisionTree" boostWeight="1.0000000000000000e+00" itree="862">
      <Node pos="s" depth="0" NCoef="0" IVar="1" Cut="2.0203215625000000e+05" cType="1" res="4.4353738427162170e-01" rms="4.9699872732162476e-01" purity="4.4382861256599426e-01" nType="0">
        <Node pos="l" depth="1" NCoef="0" IVar="2" Cut="8.9621960937500000e+04" cType="1" res="4.6821698546409607e-01" rms="5.1956617832183838e-01" purity="5.4647207260131836e-01" nType="0">
          <Node pos="l" depth="2" NCoef="0" IVar="-1" Cut="0.0000000000000000e+00" cType="1" res="2.5489256586297415e-05" rms="4.0036705136299133e-01" purity="8.0139935016632080e-01" nType="-99"/>
          <Node pos="r" depth="2" NCoef="0" IVar="-1" Cut="0.0000000000000000e+00" cType="1" res="6.9926789728924632e-04" rms="3.3407917618751526e-01" purity="2.3449397087097168e-01" nType="-99"/>
        </Node>
        <Node pos="r" depth="1" NCoef="0" IVar="5" Cut="5.3364731250000000e+05" cType="1" res="4.0984356403350830e-01" rms="4.9206876754760742e-01" purity="4.1023015975952148e-01" nType="0">
          <Node pos="l" depth="2" NCoef="0" IVar="-1" Cut="0.0000000000000000e+00" cType="1" res="4.6028329961700365e-05" rms="3.6530542373657227e-01" purity="3.2820972800254822e-01" nType="-99"/>
          <Node pos="r" depth="2" NCoef="0" IVar="-1" Cut="0.0000000000000000e+00" cType="1" res="1.8555249553173780e-03" rms="3.2056236267089844e-01" purity="8.4164708852767944e-01" nType="-99"/>
        </Node>
      </Node>
    </BinaryTree>
    <BinaryTree type="DecisionTree" boostWeight="1.0000000000000000e+00" itree="863">
      <Node pos="s" depth="0" NCoef="0" IVar="0" Cut="1.0000000000000000e+00" cType="1" res="3.4394675493240356e-01" rms="4.8865196108818054e-01" purity="6.3758754730224609e-01" nType="0">
        <Node pos="l" depth="1" NCoef="0" IVar="4" Cut="2.1010888671875000e+04" cType="1" res="6.5873646736145020e-01" rms="4.7413367033004761e-01" purity="6.5873646736145020e-01" nType="0">
          <Node pos="l" depth="2" NCoef="0" IVar="-1" Cut="0.0000000000000000e+00" cType="1" res="-4.8767848056741059e-04" rms="1.9781911373138428e-01" purity="4.0979720652103424e-02" nType="-99"/>
          <Node pos="r" depth="2" NCoef="0" IVar="-1" Cut="0.0000000000000000e+00" cType="1" res="1.7062777260434814e-05" rms="3.8960307836532593e-01" purity="8.5216319561004639e-01" nType="-99"/>
        </Node>
        <Node pos="r" depth="1" NCoef="0" IVar="5" Cut="7.8627156250000000e+05" cType="1" res="5.9235954284667969e-01" rms="4.9186298251152039e-01" purity="5.9281897544860840e-01" nType="0">
          <Node pos="l" depth="2" NCoef="0" IVar="-1" Cut="0.0000000000000000e+00" cType="1" res="1.9374683324713260e-04" rms="4.0708056092262268e-01" purity="5.5287945270538330e-01" nType="-99"/>
          <Node pos="r" depth="2" NCoef="0" IVar="-1" Cut="0.0000000000000000e+00" cType="1" res="2.9548467136919498e-03" rms="2.6064005494117737e-01" purity="9.2173647880554199e-01" nType="-99"/>
        </Node>
      </Node>
    </BinaryTree>
    <BinaryTree type="DecisionTree" boostWeight="1.0000000000000000e+00" itree="864">
      <Node pos="s" depth="0" NCoef="0" IVar="5" Cut="1.5944639062500000e+05" cType="1" res="6.3236743211746216e-01" rms="4.8243802785873413e-01" purity="6.3276529312133789e-01" nType="0">
        <Node pos="l" depth="1" NCoef="0" IVar="-1" Cut="0.0000000000000000e+00" cType="1" res="1.4811820619797800e-05" rms="2.5133726000785828e-01" purity="9.1245484352111816e-01" nType="-99"/>
        <Node pos="r" depth="1" NCoef="0" IVar="1" Cut="2.0009368750000000e+05" cType="1" res="4.6776545047760010e-01" rms="4.9938538670539856e-01" purity="4.6839717030525208e-01" nType="0">
          <Node pos="l" depth="2" NCoef="0" IVar="-1" Cut="0.0000000000000000e+00" cType="1" res="2.6130064725293778e-05" rms="4.7788468003273010e-01" purity="6.2903022766113281e-01" nType="-99"/>
          <Node pos="r" depth="2" NCoef="0" IVar="-1" Cut="0.0000000000000000e+00" cType="1" res="8.0056168371811509e-05" rms="3.6086326837539673e-01" purity="4.2455977201461792e-01" nType="-99"/>
        </Node>
      </Node>
    </BinaryTree>
    <BinaryTree type="DecisionTree" boostWeight="1.0000000000000000e+00" itree="865">
      <Node pos="s" depth="0" NCoef="0" IVar="5" Cut="1.6215667187500000e+05" cType="1" res="6.2539356946945190e-01" rms="4.8424378037452698e-01" purity="6.2576335668563843e-01" nType="0">
        <Node pos="l" depth="1" NCoef="0" IVar="-1" Cut="0.0000000000000000e+00" cType="1" res="1.4790809473197442e-05" rms="3.1122943758964539e-01" purity="8.5736501216888428e-01" nType="-99"/>
        <Node pos="r" depth="1" NCoef="0" IVar="3" Cut="8.9426554687500000e+04" cType="1" res="5.3982114791870117e-01" rms="4.9870771169662476e-01" purity="5.4032737016677856e-01" nType="0">
          <Node pos="l" depth="2" NCoef="0" IVar="-1" Cut="0.0000000000000000e+00" cType="1" res="2.2598416762775742e-05" rms="4.9460077285766602e-01" purity="6.3535076379776001e-01" nType="-99"/>
          <Node pos="r" depth="2" NCoef="0" IVar="-1" Cut="0.0000000000000000e+00" cType="1" res="2.2764319510315545e-05" rms="3.5765042901039124e-01" purity="4.0688237547874451e-01" nType="-99"/>
        </Node>
      </Node>
    </BinaryTree>
    <BinaryTree type="DecisionTree" boostWeight="1.0000000000000000e+00" itree="866">
      <Node pos="s" depth="0" NCoef="0" IVar="0" Cut="1.0000000000000000e+00" cType="1" res="2.6506373286247253e-01" rms="4.8221981525421143e-01" purity="5.7993578910827637e-01" nType="0">
        <Node pos="l" depth="1" NCoef="0" IVar="4" Cut="1.9683986328125000e+04" cType="1" res="5.7119524478912354e-01" rms="4.9490526318550110e-01" purity="5.7119524478912354e-01" nType="0">
          <Node pos="l" depth="2" NCoef="0" IVar="-1" Cut="0.0000000000000000e+00" cType="1" res="-1.6169357113540173e-03" rms="1.8496081233024597e-01" purity="3.5969495773315430e-02" nType="-99"/>
          <Node pos="r" depth="2" NCoef="0" IVar="-1" Cut="0.0000000000000000e+00" cType="1" res="1.8455462850397453e-05" rms="4.4526445865631104e-01" purity="7.7785855531692505e-01" nType="-99"/>
        </Node>
        <Node pos="r" depth="1" NCoef="0" IVar="5" Cut="3.9611650000000000e+05" cType="1" res="5.9398019313812256e-01" rms="4.9162656068801880e-01" purity="5.9484899044036865e-01" nType="0">
          <Node pos="l" depth="2" NCoef="0" IVar="-1" Cut="0.0000000000000000e+00" cType="1" res="3.2673381156200776e-06" rms="4.3156829476356506e-01" purity="4.2833623290061951e-01" nType="-99"/>
          <Node pos="r" depth="2" NCoef="0" IVar="-1" Cut="0.0000000000000000e+00" cType="1" res="1.3245826121419668e-03" rms="3.4310850501060486e-01" purity="8.2602727413177490e-01" nType="-99"/>
        </Node>
      </Node>
    </BinaryTree>
    <BinaryTree type="DecisionTree" boostWeight="1.0000000000000000e+00" itree="867">
      <Node pos="s" depth="0" NCoef="0" IVar="5" Cut="7.7114206250000000e+05" cType="1" res="3.7590530514717102e-01" rms="4.8435577750205994e-01" purity="3.7590530514717102e-01" nType="0">
        <Node pos="l" depth="1" NCoef="0" IVar="4" Cut="7.6651812500000000e+04" cType="1" res="3.3868542313575745e-01" rms="4.7326272726058960e-01" purity="3.3868545293807983e-01" nType="0">
          <Node pos="l" depth="2" NCoef="0" IVar="-1" Cut="0.0000000000000000e+00" cType="1" res="-4.2324492824263871e-04" rms="3.5943233966827393e-01" purity="3.0089756846427917e-01" nType="-99"/>
          <Node pos="r" depth="2" NCoef="0" IVar="-1" Cut="0.0000000000000000e+00" cType="1" res="5.6111137382686138e-04" rms="3.2941547036170959e-01" purity="8.7058991193771362e-01" nType="-99"/>
        </Node>
        <Node pos="r" depth="1" NCoef="0" IVar="-1" Cut="0.0000000000000000e+00" cType="1" res="2.2143782116472721e-03" rms="2.7311024069786072e-01" purity="9.0049117803573608e-01" nType="-99"/>
      </Node>
    </BinaryTree>
    <BinaryTree type="DecisionTree" boostWeight="1.0000000000000000e+00" itree="868">
      <Node pos="s" depth="0" NCoef="0" IVar="4" Cut="3.6733953125000000e+04" cType="1" res="3.7746435403823853e-01" rms="4.8475253582000732e-01" purity="3.7746435403823853e-01" nType="0">
        <Node pos="l" depth="1" NCoef="0" IVar="4" Cut="2.3734312500000000e+04" cType="1" res="2.5833183526992798e-01" rms="4.3783217668533325e-01" purity="2.5843232870101929e-01" nType="0">
          <Node pos="l" depth="2" NCoef="0" IVar="-1" Cut="0.0000000000000000e+00" cType="1" res="3.3575980341993272e-04" rms="3.0413180589675903e-01" purity="2.0783305168151855e-01" nType="-99"/>
          <Node pos="r" depth="2" NCoef="0" IVar="-1" Cut="0.0000000000000000e+00" cType="1" res="-9.4034371431916952e-04" rms="3.9986023306846619e-01" purity="3.9392685890197754e-01" nType="-99"/>
        </Node>
        <Node pos="r" depth="1" NCoef="0" IVar="2" Cut="9.1806078125000000e+04" cType="1" res="6.9717204570770264e-01" rms="4.5948141813278198e-01" purity="6.9717210531234741e-01" nType="0">
          <Node pos="l" depth="2" NCoef="0" IVar="-1" Cut="0.0000000000000000e+00" cType="1" res="3.2196560641750693e-04" rms="3.9632850885391235e-01" purity="6.9512623548507690e-01" nType="-99"/>
          <Node pos="r" depth="2" NCoef="0" IVar="-1" Cut="0.0000000000000000e+00" cType="1" res="1.0844127973541617e-03" rms="4.2547062039375305e-01" purity="7.0158946514129639e-01" nType="-99"/>
        </Node>
      </Node>
    </BinaryTree>
    <BinaryTree type="DecisionTree" boostWeight="1.0000000000000000e+00" itree="869">
      <Node pos="s" depth="0" NCoef="0" IVar="0" Cut="1.0000000000000000e+00" cType="1" res="2.8346413373947144e-01" rms="4.8815226554870605e-01" purity="5.9088760614395142e-01" nType="0">
        <Node pos="l" depth="1" NCoef="0" IVar="4" Cut="1.9616960937500000e+04" cType="1" res="5.9201425313949585e-01" rms="4.9146044254302979e-01" purity="5.9201419353485107e-01" nType="0">
          <Node pos="l" depth="2" NCoef="0" IVar="-1" Cut="0.0000000000000000e+00" cType="1" res="-3.1201690435409546e-03" rms="1.8197454512119293e-01" purity="3.4032508730888367e-02" nType="-99"/>
          <Node pos="r" depth="2" NCoef="0" IVar="-1" Cut="0.0000000000000000e+00" cType="1" res="1.8013843146036379e-05" rms="4.4043537974357605e-01" purity="7.8833830356597900e-01" nType="-99"/>
        </Node>
        <Node pos="r" depth="1" NCoef="0" IVar="3" Cut="8.4178203125000000e+04" cType="1" res="5.8886075019836426e-01" rms="4.9204039573669434e-01" purity="5.8886075019836426e-01" nType="0">
          <Node pos="l" depth="2" NCoef="0" IVar="-1" Cut="0.0000000000000000e+00" cType="1" res="3.6499561974778771e-04" rms="3.6573839187622070e-01" purity="6.8100363016128540e-01" nType="-99"/>
          <Node pos="r" depth="2" NCoef="0" IVar="-1" Cut="0.0000000000000000e+00" cType="1" res="2.2695264487992972e-04" rms="3.9888325333595276e-01" purity="5.7938635349273682e-01" nType="-99"/>
        </Node>
      </Node>
    </BinaryTree>
    <BinaryTree type="DecisionTree" boostWeight="1.0000000000000000e+00" itree="870">
      <Node pos="s" depth="0" NCoef="0" IVar="5" Cut="5.8737268750000000e+05" cType="1" res="3.8193151354789734e-01" rms="4.8621395230293274e-01" purity="3.8227570056915283e-01" nType="0">
        <Node pos="l" depth="1" NCoef="0" IVar="1" Cut="2.6711768750000000e+05" cType="1" res="3.1816375255584717e-01" rms="4.6576341986656189e-01" purity="3.1816372275352478e-01" nType="0">
          <Node pos="l" depth="2" NCoef="0" IVar="-1" Cut="0.0000000000000000e+00" cType="1" res="3.2270661904476583e-04" rms="3.4805327653884888e-01" purity="2.7977773547172546e-01" nType="-99"/>
          <Node pos="r" depth="2" NCoef="0" IVar="-1" Cut="0.0000000000000000e+00" cType="1" res="-6.5602164249867201e-04" rms="3.7557634711265564e-01" purity="3.8124307990074158e-01" nType="-99"/>
        </Node>
        <Node pos="r" depth="1" NCoef="0" IVar="5" Cut="8.3646200000000000e+05" cType="1" res="8.6331886053085327e-01" rms="3.4776675701141357e-01" purity="8.6626118421554565e-01" nType="0">
          <Node pos="l" depth="2" NCoef="0" IVar="-1" Cut="0.0000000000000000e+00" cType="1" res="9.8261958919465542e-04" rms="3.3351144194602966e-01" purity="8.2968246936798096e-01" nType="-99"/>
          <Node pos="r" depth="2" NCoef="0" IVar="-1" Cut="0.0000000000000000e+00" cType="1" res="2.4773990735411644e-03" rms="2.6709067821502686e-01" purity="9.1239541769027710e-01" nType="-99"/>
        </Node>
      </Node>
    </BinaryTree>
    <BinaryTree type="DecisionTree" boostWeight="1.0000000000000000e+00" itree="871">
      <Node pos="s" depth="0" NCoef="0" IVar="1" Cut="1.9097787500000000e+05" cType="1" res="4.4251531362533569e-01" rms="4.9668452143669128e-01" purity="4.4251528382301331e-01" nType="0">
        <Node pos="l" depth="1" NCoef="0" IVar="4" Cut="2.1087853515625000e+04" cType="1" res="2.8997413814067841e-02" rms="1.8808035552501678e-01" purity="6.9759839773178101e-01" nType="0">
          <Node pos="l" depth="2" NCoef="0" IVar="-1" Cut="0.0000000000000000e+00" cType="1" res="-3.9536231197416782e-03" rms="2.2214131057262421e-01" purity="7.8178882598876953e-02" nType="-99"/>
          <Node pos="r" depth="2" NCoef="0" IVar="-1" Cut="0.0000000000000000e+00" cType="1" res="2.5256234948756173e-05" rms="3.8571202754974365e-01" purity="8.6620604991912842e-01" nType="-99"/>
        </Node>
        <Node pos="r" depth="1" NCoef="0" IVar="4" Cut="7.7944625000000000e+04" cType="1" res="3.9505377411842346e-01" rms="4.8886224627494812e-01" purity="3.9505377411842346e-01" nType="0">
          <Node pos="l" depth="2" NCoef="0" IVar="-1" Cut="0.0000000000000000e+00" cType="1" res="-1.0456200834596530e-04" rms="3.5868725180625916e-01" purity="3.4830918908119202e-01" nType="-99"/>
          <Node pos="r" depth="2" NCoef="0" IVar="-1" Cut="0.0000000000000000e+00" cType="1" res="8.2761113299056888e-04" rms="2.9866650700569153e-01" purity="9.0010052919387817e-01" nType="-99"/>
        </Node>
      </Node>
    </BinaryTree>
    <BinaryTree type="DecisionTree" boostWeight="1.0000000000000000e+00" itree="872">
      <Node pos="s" depth="0" NCoef="0" IVar="3" Cut="9.8929492187500000e+04" cType="1" res="0.0000000000000000e+00" rms="0.0000000000000000e+00" purity="3.8687810301780701e-01" nType="0">
        <Node pos="l" depth="1" NCoef="0" IVar="0" Cut="4.0000000000000000e+00" cType="1" res="1.5755454078316689e-03" rms="3.4911382198333740e-01" purity="3.8049095869064331e-01" nType="0">
          <Node pos="l" depth="2" NCoef="0" IVar="-1" Cut="0.0000000000000000e+00" cType="1" res="-1.2254988541826606e-04" rms="3.5451456904411316e-01" purity="3.4486016631126404e-01" nType="-99"/>
          <Node pos="r" depth="2" NCoef="0" IVar="-1" Cut="0.0000000000000000e+00" cType="1" res="4.1895941831171513e-04" rms="2.4056403338909149e-01" purity="9.3917477130889893e-01" nType="-99"/>
        </Node>
        <Node pos="r" depth="1" NCoef="0" IVar="-1" Cut="0.0000000000000000e+00" cType="1" res="1.6297021647915244e-03" rms="4.0777483582496643e-01" purity="5.4154753684997559e-01" nType="-99"/>
      </Node>
    </BinaryTree>
    <BinaryTree type="DecisionTree" boostWeight="1.0000000000000000e+00" itree="873">
      <Node pos="s" depth="0" NCoef="0" IVar="1" Cut="1.8991192187500000e+05" cType="1" res="5.5162501335144043e-01" rms="4.9732771515846252e-01" purity="5.5162501335144043e-01" nType="0">
        <Node pos="l" depth="1" NCoef="0" IVar="-1" Cut="0.0000000000000000e+00" cType="1" res="2.5713356080814265e-05" rms="3.6356291174888611e-01" purity="8.4112042188644409e-01" nType="-99"/>
        <Node pos="r" depth="1" NCoef="0" IVar="2" Cut="9.1882625000000000e+04" cType="1" res="4.7839593887329102e-01" rms="4.9953305721282959e-01" purity="4.7839596867561340e-01" nType="0">
          <Node pos="l" depth="2" NCoef="0" IVar="-1" Cut="0.0000000000000000e+00" cType="1" res="1.8191500566899776e-04" rms="3.5405164957046509e-01" purity="3.9097848534584045e-01" nType="-99"/>
          <Node pos="r" depth="2" NCoef="0" IVar="-1" Cut="0.0000000000000000e+00" cType="1" res="2.0578932890202850e-05" rms="4.9755063652992249e-01" purity="6.0941177606582642e-01" nType="-99"/>
        </Node>
      </Node>
    </BinaryTree>
    <BinaryTree type="DecisionTree" boostWeight="1.0000000000000000e+00" itree="874">
      <Node pos="s" depth="0" NCoef="0" IVar="2" Cut="9.1787367187500000e+04" cType="1" res="4.7030547261238098e-01" rms="4.9954661726951599e-01" purity="4.7092008590698242e-01" nType="0">
        <Node pos="l" depth="1" NCoef="0" IVar="4" Cut="7.0948406250000000e+04" cType="1" res="3.8365900516510010e-01" rms="4.8627644777297974e-01" purity="3.8382142782211304e-01" nType="0">
          <Node pos="l" depth="2" NCoef="0" IVar="-1" Cut="0.0000000000000000e+00" cType="1" res="-4.3844655010616407e-05" rms="3.5639631748199463e-01" purity="3.2583594322204590e-01" nType="-99"/>
          <Node pos="r" depth="2" NCoef="0" IVar="-1" Cut="0.0000000000000000e+00" cType="1" res="8.3139765774831176e-04" rms="2.9754289984703064e-01" purity="8.9818787574768066e-01" nType="-99"/>
        </Node>
        <Node pos="r" depth="1" NCoef="0" IVar="2" Cut="9.1981835937500000e+04" cType="1" res="5.9468519687652588e-01" rms="4.9201479554176331e-01" purity="5.9594887495040894e-01" nType="0">
          <Node pos="l" depth="2" NCoef="0" IVar="-1" Cut="0.0000000000000000e+00" cType="1" res="2.1024479792686179e-05" rms="3.7017431855201721e-01" purity="8.7441551685333252e-01" nType="-99"/>
          <Node pos="r" depth="2" NCoef="0" IVar="-1" Cut="0.0000000000000000e+00" cType="1" res="2.8161688533145934e-05" rms="3.5650381445884705e-01" purity="3.9351573586463928e-01" nType="-99"/>
        </Node>
      </Node>
    </BinaryTree>
    <BinaryTree type="DecisionTree" boostWeight="1.0000000000000000e+00" itree="875">
      <Node pos="s" depth="0" NCoef="0" IVar="1" Cut="1.9126706250000000e+05" cType="1" res="4.5237135887145996e-01" rms="4.9772635102272034e-01" purity="4.5237138867378235e-01" nType="0">
        <Node pos="l" depth="1" NCoef="0" IVar="3" Cut="8.8249140625000000e+04" cType="1" res="2.9127249494194984e-02" rms="2.3197990655899048e-01" purity="7.0286560058593750e-01" nType="0">
          <Node pos="l" depth="2" NCoef="0" IVar="-1" Cut="0.0000000000000000e+00" cType="1" res="7.2654154791962355e-05" rms="3.2044255733489990e-01" purity="2.3801247775554657e-01" nType="-99"/>
          <Node pos="r" depth="2" NCoef="0" IVar="-1" Cut="0.0000000000000000e+00" cType="1" res="2.5785588150029071e-05" rms="3.6778151988983154e-01" purity="8.3420246839523315e-01" nType="-99"/>
        </Node>
        <Node pos="r" depth="1" NCoef="0" IVar="0" Cut="4.0000000000000000e+00" cType="1" res="9.4955619424581528e-03" rms="3.5512036085128784e-01" purity="4.0494564175605774e-01" nType="0">
          <Node pos="l" depth="2" NCoef="0" IVar="-1" Cut="0.0000000000000000e+00" cType="1" res="2.3885647533461452e-04" rms="3.6146420240402222e-01" purity="3.6950841546058655e-01" nType="-99"/>
          <Node pos="r" depth="2" NCoef="0" IVar="-1" Cut="0.0000000000000000e+00" cType="1" res="4.5949139166623354e-04" rms="2.2934299707412720e-01" purity="9.4544339179992676e-01" nType="-99"/>
        </Node>
      </Node>
    </BinaryTree>
    <BinaryTree type="DecisionTree" boostWeight="1.0000000000000000e+00" itree="876">
      <Node pos="s" depth="0" NCoef="0" IVar="3" Cut="8.9426492187500000e+04" cType="1" res="5.1587927341461182e-01" rms="5.0028920173645020e-01" purity="5.1655530929565430e-01" nType="0">
        <Node pos="l" depth="1" NCoef="0" IVar="3" Cut="8.8493015625000000e+04" cType="1" res="6.0630726814270020e-01" rms="4.8884454369544983e-01" purity="6.0659885406494141e-01" nType="0">
          <Node pos="l" depth="2" NCoef="0" IVar="-1" Cut="0.0000000000000000e+00" cType="1" res="8.0828984209802002e-05" rms="3.4507954120635986e-01" purity="3.8494604825973511e-01" nType="-99"/>
          <Node pos="r" depth="2" NCoef="0" IVar="-1" Cut="0.0000000000000000e+00" cType="1" res="2.2634067136095837e-05" rms="4.1608190536499023e-01" purity="8.2904338836669922e-01" nType="-99"/>
        </Node>
        <Node pos="r" depth="1" NCoef="0" IVar="3" Cut="9.8943929687500000e+04" cType="1" res="3.8841146230697632e-01" rms="4.8822486400604248e-01" purity="3.8952144980430603e-01" nType="0">
          <Node pos="l" depth="2" NCoef="0" IVar="-1" Cut="0.0000000000000000e+00" cType="1" res="6.3904793933033943e-05" rms="3.5632163286209106e-01" purity="3.8045865297317505e-01" nType="-99"/>
          <Node pos="r" depth="2" NCoef="0" IVar="-1" Cut="0.0000000000000000e+00" cType="1" res="1.3248302275314927e-03" rms="4.0749290585517883e-01" purity="5.0456386804580688e-01" nType="-99"/>
        </Node>
      </Node>
    </BinaryTree>
    <BinaryTree type="DecisionTree" boostWeight="1.0000000000000000e+00" itree="877">
      <Node pos="s" depth="0" NCoef="0" IVar="5" Cut="1.5990256250000000e+05" cType="1" res="4.8073756694793701e-01" rms="4.9962881207466125e-01" purity="4.8073753714561462e-01" nType="0">
        <Node pos="l" depth="1" NCoef="0" IVar="-1" Cut="0.0000000000000000e+00" cType="1" res="1.4731995179317892e-05" rms="3.7616369128227234e-01" purity="7.6547908782958984e-01" nType="-99"/>
        <Node pos="r" depth="1" NCoef="0" IVar="4" Cut="6.5024402343750000e+04" cType="1" res="4.0490034222602844e-01" rms="4.9087274074554443e-01" purity="4.0490037202835083e-01" nType="0">
          <Node pos="l" depth="2" NCoef="0" IVar="-1" Cut="0.0000000000000000e+00" cType="1" res="6.1405808082781732e-05" rms="3.6339634656906128e-01" purity="3.4243622422218323e-01" nType="-99"/>
          <Node pos="r" depth="2" NCoef="0" IVar="-1" Cut="0.0000000000000000e+00" cType="1" res="7.3777016950771213e-04" rms="3.2240039110183716e-01" purity="8.7460803985595703e-01" nType="-99"/>
        </Node>
      </Node>
    </BinaryTree>
    <BinaryTree type="DecisionTree" boostWeight="1.0000000000000000e+00" itree="878">
      <Node pos="s" depth="0" NCoef="0" IVar="5" Cut="1.5962442187500000e+05" cType="1" res="4.7947695851325989e-01" rms="4.9970498681068420e-01" purity="4.7969147562980652e-01" nType="0">
        <Node pos="l" depth="1" NCoef="0" IVar="-1" Cut="0.0000000000000000e+00" cType="1" res="1.4828258827037644e-05" rms="3.7275466322898865e-01" purity="7.7154266834259033e-01" nType="-99"/>
        <Node pos="r" depth="1" NCoef="0" IVar="4" Cut="8.2745929687500000e+04" cType="1" res="4.0229812264442444e-01" rms="4.9052417278289795e-01" purity="4.0256932377815247e-01" nType="0">
          <Node pos="l" depth="2" NCoef="0" IVar="-1" Cut="0.0000000000000000e+00" cType="1" res="-1.8605402146931738e-04" rms="3.6651340126991272e-01" purity="3.5898548364639282e-01" nType="-99"/>
          <Node pos="r" depth="2" NCoef="0" IVar="-1" Cut="0.0000000000000000e+00" cType="1" res="8.5352140013128519e-04" rms="2.8244829177856445e-01" purity="9.1116672754287720e-01" nType="-99"/>
        </Node>
      </Node>
    </BinaryTree>
    <BinaryTree type="DecisionTree" boostWeight="1.0000000000000000e+00" itree="879">
      <Node pos="s" depth="0" NCoef="0" IVar="2" Cut="8.9600773437500000e+04" cType="1" res="5.2500581741333008e-01" rms="4.9965831637382507e-01" purity="5.2539241313934326e-01" nType="0">
        <Node pos="l" depth="1" NCoef="0" IVar="2" Cut="8.9247882812500000e+04" cType="1" res="7.5518661737442017e-01" rms="4.2997649312019348e-01" purity="7.5534474849700928e-01" nType="0">
          <Node pos="l" depth="2" NCoef="0" IVar="-1" Cut="0.0000000000000000e+00" cType="1" res="-2.1351600298658013e-04" rms="3.5286605358123779e-01" purity="3.6838904023170471e-01" nType="-99"/>
          <Node pos="r" depth="2" NCoef="0" IVar="-1" Cut="0.0000000000000000e+00" cType="1" res="1.7748689060681500e-05" rms="2.9764473438262939e-01" purity="9.2509722709655762e-01" nType="-99"/>
        </Node>
        <Node pos="r" depth="1" NCoef="0" IVar="0" Cut="4.0000000000000000e+00" cType="1" res="5.8291698805987835e-03" rms="3.5537379980087280e-01" purity="3.8465458154678345e-01" nType="0">
          <Node pos="l" depth="2" NCoef="0" IVar="-1" Cut="0.0000000000000000e+00" cType="1" res="9.3292379460763186e-05" rms="3.6111631989479065e-01" purity="3.4938171505928040e-01" nType="-99"/>
          <Node pos="r" depth="2" NCoef="0" IVar="-1" Cut="0.0000000000000000e+00" cType="1" res="3.4519258770160377e-04" rms="2.4060145020484924e-01" purity="9.3932414054870605e-01" nType="-99"/>
        </Node>
      </Node>
    </BinaryTree>
    <BinaryTree type="DecisionTree" boostWeight="1.0000000000000000e+00" itree="880">
      <Node pos="s" depth="0" NCoef="0" IVar="5" Cut="1.6699128125000000e+05" cType="1" res="0.0000000000000000e+00" rms="8.5015848744663384e+19" purity="6.4517498016357422e-01" nType="0">
        <Node pos="l" depth="1" NCoef="0" IVar="3" Cut="8.9851593750000000e+04" cType="1" res="8.7209451198577881e-01" rms="3.3398452401161194e-01" purity="8.7209457159042358e-01" nType="0">
          <Node pos="l" depth="2" NCoef="0" IVar="-1" Cut="0.0000000000000000e+00" cType="1" res="-2.4028848856687546e-03" rms="2.1576957404613495e-01" purity="6.0537956655025482e-02" nType="-99"/>
          <Node pos="r" depth="2" NCoef="0" IVar="-1" Cut="0.0000000000000000e+00" cType="1" res="1.4850354091322515e-05" rms="2.0539188385009766e-01" purity="9.4430804252624512e-01" nType="-99"/>
        </Node>
        <Node pos="r" depth="1" NCoef="0" IVar="2" Cut="9.1859210937500000e+04" cType="1" res="5.0831496715545654e-01" rms="4.9993085861206055e-01" purity="5.0831502676010132e-01" nType="0">
          <Node pos="l" depth="2" NCoef="0" IVar="-1" Cut="0.0000000000000000e+00" cType="1" res="4.2741149081848562e-04" rms="3.6055713891983032e-01" purity="4.2532843351364136e-01" nType="-99"/>
          <Node pos="r" depth="2" NCoef="0" IVar="-1" Cut="0.0000000000000000e+00" cType="1" res="2.1067857232992537e-05" rms="5.0266033411026001e-01" purity="6.3207423686981201e-01" nType="-99"/>
        </Node>
      </Node>
    </BinaryTree>
    <BinaryTree type="DecisionTree" boostWeight="1.0000000000000000e+00" itree="881">
      <Node pos="s" depth="0" NCoef="0" IVar="4" Cut="8.2776101562500000e+04" cType="1" res="3.8071423768997192e-01" rms="4.8570442199707031e-01" purity="3.8095736503601074e-01" nType="0">
        <Node pos="l" depth="1" NCoef="0" IVar="0" Cut="3.0000000000000000e+00" cType="1" res="-8.3381420699879527e-04" rms="3.5828128457069397e-01" purity="3.4199583530426025e-01" nType="0">
          <Node pos="l" depth="2" NCoef="0" IVar="-1" Cut="0.0000000000000000e+00" cType="1" res="-3.7551467539742589e-04" rms="3.6508792638778687e-01" purity="2.6771616935729980e-01" nType="-99"/>
          <Node pos="r" depth="2" NCoef="0" IVar="-1" Cut="0.0000000000000000e+00" cType="1" res="1.8798803212121129e-03" rms="2.9892063140869141e-01" purity="8.9980608224868774e-01" nType="-99"/>
        </Node>
        <Node pos="r" depth="1" NCoef="0" IVar="-1" Cut="0.0000000000000000e+00" cType="1" res="9.2265772400423884e-04" rms="2.8560549020767212e-01" purity="9.0819567441940308e-01" nType="-99"/>
      </Node>
    </BinaryTree>
    <BinaryTree type="DecisionTree" boostWeight="1.0000000000000000e+00" itree="882">
      <Node pos="s" depth="0" NCoef="0" IVar="0" Cut="4.0000000000000000e+00" cType="1" res="2.2895827423781157e-03" rms="3.5443884134292603e-01" purity="3.8037291169166565e-01" nType="0">
        <Node pos="l" depth="1" NCoef="0" IVar="4" Cut="7.4137078125000000e+04" cType="1" res="3.5019785165786743e-01" rms="4.7714740037918091e-01" purity="3.5030815005302429e-01" nType="0">
          <Node pos="l" depth="2" NCoef="0" IVar="-1" Cut="0.0000000000000000e+00" cType="1" res="-2.0606757607311010e-04" rms="3.6100682616233826e-01" purity="3.0814659595489502e-01" nType="-99"/>
          <Node pos="r" depth="2" NCoef="0" IVar="-1" Cut="0.0000000000000000e+00" cType="1" res="5.8747298317030072e-04" rms="3.3349886536598206e-01" purity="8.6710786819458008e-01" nType="-99"/>
        </Node>
        <Node pos="r" depth="1" NCoef="0" IVar="-1" Cut="0.0000000000000000e+00" cType="1" res="3.1253341585397720e-03" rms="2.4477408826351166e-01" purity="9.3566435575485229e-01" nType="-99"/>
      </Node>
    </BinaryTree>
    <BinaryTree type="DecisionTree" boostWeight="1.0000000000000000e+00" itree="883">
      <Node pos="s" depth="0" NCoef="0" IVar="4" Cut="3.5741550781250000e+04" cType="1" res="3.9211922883987427e-01" rms="4.8835355043411255e-01" purity="3.9224669337272644e-01" nType="0">
        <Node pos="l" depth="1" NCoef="0" IVar="4" Cut="2.2841628906250000e+04" cType="1" res="2.6505744457244873e-01" rms="4.4147983193397522e-01" purity="2.6515987515449524e-01" nType="0">
          <Node pos="l" depth="2" NCoef="0" IVar="-1" Cut="0.0000000000000000e+00" cType="1" res="1.3434838037937880e-03" rms="3.1179746985435486e-01" purity="2.1850733458995819e-01" nType="-99"/>
          <Node pos="r" depth="2" NCoef="0" IVar="-1" Cut="0.0000000000000000e+00" cType="1" res="-1.1934072244912386e-03" rms="3.9713367819786072e-01" purity="3.8144591450691223e-01" nType="-99"/>
        </Node>
        <Node pos="r" depth="1" NCoef="0" IVar="5" Cut="2.6389796875000000e+05" cType="1" res="6.9923597574234009e-01" rms="4.5969402790069580e-01" purity="7.0043760538101196e-01" nType="0">
          <Node pos="l" depth="2" NCoef="0" IVar="-1" Cut="0.0000000000000000e+00" cType="1" res="7.9958513379096985e-04" rms="4.5542013645172119e-01" purity="5.3911805152893066e-01" nType="-99"/>
          <Node pos="r" depth="2" NCoef="0" IVar="-1" Cut="0.0000000000000000e+00" cType="1" res="5.0842278869822621e-04" rms="3.6526289582252502e-01" purity="8.0035656690597534e-01" nType="-99"/>
        </Node>
      </Node>
    </BinaryTree>
    <BinaryTree type="DecisionTree" boostWeight="1.0000000000000000e+00" itree="884">
      <Node pos="s" depth="0" NCoef="0" IVar="2" Cut="9.1879929687500000e+04" cType="1" res="4.6991017460823059e-01" rms="4.9909377098083496e-01" purity="4.6991017460823059e-01" nType="0">
        <Node pos="l" depth="1" NCoef="0" IVar="0" Cut="1.0000000000000000e+00" cType="1" res="4.0074242278933525e-03" rms="3.4588453173637390e-01" purity="3.8677078485488892e-01" nType="0">
          <Node pos="l" depth="2" NCoef="0" IVar="-1" Cut="0.0000000000000000e+00" cType="1" res="-1.1783353984355927e-03" rms="2.7588748931884766e-01" purity="1.3386884331703186e-01" nType="-99"/>
          <Node pos="r" depth="2" NCoef="0" IVar="-1" Cut="0.0000000000000000e+00" cType="1" res="7.3345436248928308e-04" rms="3.9399078488349915e-01" purity="5.9756916761398315e-01" nType="-99"/>
        </Node>
        <Node pos="r" depth="1" NCoef="0" IVar="2" Cut="9.2070617187500000e+04" cType="1" res="5.9962415695190430e-01" rms="4.9013987183570862e-01" purity="6.0024929046630859e-01" nType="0">
          <Node pos="l" depth="2" NCoef="0" IVar="-1" Cut="0.0000000000000000e+00" cType="1" res="2.0840107026742771e-05" rms="3.6345705389976501e-01" purity="8.8202196359634399e-01" nType="-99"/>
          <Node pos="r" depth="2" NCoef="0" IVar="-1" Cut="0.0000000000000000e+00" cType="1" res="-1.9239794346503913e-04" rms="3.5166293382644653e-01" purity="3.8328981399536133e-01" nType="-99"/>
        </Node>
      </Node>
    </BinaryTree>
    <BinaryTree type="DecisionTree" boostWeight="1.0000000000000000e+00" itree="885">
      <Node pos="s" depth="0" NCoef="0" IVar="2" Cut="9.1849609375000000e+04" cType="1" res="4.6806767582893372e-01" rms="4.9917560815811157e-01" purity="4.6826365590095520e-01" nType="0">
        <Node pos="l" depth="1" NCoef="0" IVar="3" Cut="9.6517859375000000e+04" cType="1" res="3.8344657421112061e-01" rms="4.8622557520866394e-01" purity="3.8358935713768005e-01" nType="0">
          <Node pos="l" depth="2" NCoef="0" IVar="-1" Cut="0.0000000000000000e+00" cType="1" res="-3.0787054129177704e-05" rms="3.5066682100296021e-01" purity="3.7574759125709534e-01" nType="-99"/>
          <Node pos="r" depth="2" NCoef="0" IVar="-1" Cut="0.0000000000000000e+00" cType="1" res="1.6953820595517755e-03" rms="4.0964123606681824e-01" purity="4.5874756574630737e-01" nType="-99"/>
        </Node>
        <Node pos="r" depth="1" NCoef="0" IVar="2" Cut="9.2047015625000000e+04" cType="1" res="5.9895104169845581e-01" rms="4.9039462208747864e-01" purity="5.9922927618026733e-01" nType="0">
          <Node pos="l" depth="2" NCoef="0" IVar="-1" Cut="0.0000000000000000e+00" cType="1" res="2.0796092940145172e-05" rms="3.7305372953414917e-01" purity="8.7606477737426758e-01" nType="-99"/>
          <Node pos="r" depth="2" NCoef="0" IVar="-1" Cut="0.0000000000000000e+00" cType="1" res="-3.2612454378977418e-04" rms="3.5429412126541138e-01" purity="3.8076066970825195e-01" nType="-99"/>
        </Node>
      </Node>
    </BinaryTree>
    <BinaryTree type="DecisionTree" boostWeight="1.0000000000000000e+00" itree="886">
      <Node pos="s" depth="0" NCoef="0" IVar="4" Cut="8.0321812500000000e+04" cType="1" res="3.7869042158126831e-01" rms="4.8506081104278564e-01" purity="3.7869039177894592e-01" nType="0">
        <Node pos="l" depth="1" NCoef="0" IVar="5" Cut="4.8592028125000000e+05" cType="1" res="3.3728855848312378e-01" rms="4.7278428077697754e-01" purity="3.3728858828544617e-01" nType="0">
          <Node pos="l" depth="2" NCoef="0" IVar="-1" Cut="0.0000000000000000e+00" cType="1" res="-8.1182591384276748e-04" rms="3.5549142956733704e-01" purity="2.5589773058891296e-01" nType="-99"/>
          <Node pos="r" depth="2" NCoef="0" IVar="-1" Cut="0.0000000000000000e+00" cType="1" res="1.3915906893089414e-03" rms="3.4862419962882996e-01" purity="8.0341112613677979e-01" nType="-99"/>
        </Node>
        <Node pos="r" depth="1" NCoef="0" IVar="-1" Cut="0.0000000000000000e+00" cType="1" res="9.3363987980410457e-04" rms="2.9703664779663086e-01" purity="9.0319204330444336e-01" nType="-99"/>
      </Node>
    </BinaryTree>
    <BinaryTree type="DecisionTree" boostWeight="1.0000000000000000e+00" itree="887">
      <Node pos="s" depth="0" NCoef="0" IVar="3" Cut="9.5950500000000000e+04" cType="1" res="4.8301360011100769e-01" rms="4.9981528520584106e-01" purity="4.8335874080657959e-01" nType="0">
        <Node pos="l" depth="1" NCoef="0" IVar="0" Cut="1.0000000000000000e+00" cType="1" res="4.9161771312355995e-03" rms="3.5236319899559021e-01" purity="3.8291275501251221e-01" nType="0">
          <Node pos="l" depth="2" NCoef="0" IVar="-1" Cut="0.0000000000000000e+00" cType="1" res="-7.5724540511146188e-04" rms="2.8359064459800720e-01" purity="1.3732627034187317e-01" nType="-99"/>
          <Node pos="r" depth="2" NCoef="0" IVar="-1" Cut="0.0000000000000000e+00" cType="1" res="3.7822860758751631e-04" rms="4.0065762400627136e-01" purity="5.8907002210617065e-01" nType="-99"/>
        </Node>
        <Node pos="r" depth="1" NCoef="0" IVar="2" Cut="8.9290359375000000e+04" cType="1" res="7.7016979455947876e-01" rms="4.2072352766990662e-01" purity="7.7042216062545776e-01" nType="0">
          <Node pos="l" depth="2" NCoef="0" IVar="-1" Cut="0.0000000000000000e+00" cType="1" res="1.5154567336139735e-05" rms="3.1985914707183838e-01" purity="9.1280895471572876e-01" nType="-99"/>
          <Node pos="r" depth="2" NCoef="0" IVar="-1" Cut="0.0000000000000000e+00" cType="1" res="-1.1503518180688843e-04" rms="3.6415299773216248e-01" purity="4.0417167544364929e-01" nType="-99"/>
        </Node>
      </Node>
    </BinaryTree>
    <BinaryTree type="DecisionTree" boostWeight="1.0000000000000000e+00" itree="888">
      <Node pos="s" depth="0" NCoef="0" IVar="3" Cut="9.8787703125000000e+04" cType="1" res="3.7939161062240601e-01" rms="4.8523563146591187e-01" purity="3.7939161062240601e-01" nType="0">
        <Node pos="l" depth="1" NCoef="0" IVar="0" Cut="4.0000000000000000e+00" cType="1" res="1.2901207664981484e-03" rms="3.5357764363288879e-01" purity="3.7429615855216980e-01" nType="0">
          <Node pos="l" depth="2" NCoef="0" IVar="-1" Cut="0.0000000000000000e+00" cType="1" res="-7.6736912888009101e-05" rms="3.5848343372344971e-01" purity="3.4236276149749756e-01" nType="-99"/>
          <Node pos="r" depth="2" NCoef="0" IVar="-1" Cut="0.0000000000000000e+00" cType="1" res="3.1310964841395617e-03" rms="2.4678936600685120e-01" purity="9.3423736095428467e-01" nType="-99"/>
        </Node>
        <Node pos="r" depth="1" NCoef="0" IVar="-1" Cut="0.0000000000000000e+00" cType="1" res="1.6654246719554067e-03" rms="4.2537796497344971e-01" purity="4.9641665816307068e-01" nType="-99"/>
      </Node>
    </BinaryTree>
    <BinaryTree type="DecisionTree" boostWeight="1.0000000000000000e+00" itree="889">
      <Node pos="s" depth="0" NCoef="0" IVar="3" Cut="8.9424406250000000e+04" cType="1" res="5.7035255432128906e-01" rms="4.9502578377723694e-01" purity="5.7035255432128906e-01" nType="0">
        <Node pos="l" depth="1" NCoef="0" IVar="3" Cut="8.8491140625000000e+04" cType="1" res="6.7851305007934570e-01" rms="4.6704721450805664e-01" purity="6.7851305007934570e-01" nType="0">
          <Node pos="l" depth="2" NCoef="0" IVar="-1" Cut="0.0000000000000000e+00" cType="1" res="1.6854699060786515e-04" rms="3.4460207819938660e-01" purity="3.9435622096061707e-01" nType="-99"/>
          <Node pos="r" depth="2" NCoef="0" IVar="-1" Cut="0.0000000000000000e+00" cType="1" res="2.1968844521325082e-05" rms="3.6054483056068420e-01" purity="8.8088274002075195e-01" nType="-99"/>
        </Node>
        <Node pos="r" depth="1" NCoef="0" IVar="4" Cut="6.6949203125000000e+04" cType="1" res="3.8320350646972656e-01" rms="4.8616722226142883e-01" purity="3.8348266482353210e-01" nType="0">
          <Node pos="l" depth="2" NCoef="0" IVar="-1" Cut="0.0000000000000000e+00" cType="1" res="-3.6576401907950640e-04" rms="3.5672971606254578e-01" purity="3.2870149612426758e-01" nType="-99"/>
          <Node pos="r" depth="2" NCoef="0" IVar="-1" Cut="0.0000000000000000e+00" cType="1" res="5.9028906980529428e-04" rms="3.2380348443984985e-01" purity="8.7352252006530762e-01" nType="-99"/>
        </Node>
      </Node>
    </BinaryTree>
    <BinaryTree type="DecisionTree" boostWeight="1.0000000000000000e+00" itree="890">
      <Node pos="s" depth="0" NCoef="0" IVar="0" Cut="1.0000000000000000e+00" cType="1" res="3.2416826486587524e-01" rms="4.9041041731834412e-01" purity="6.2146747112274170e-01" nType="0">
        <Node pos="l" depth="1" NCoef="0" IVar="4" Cut="2.1010888671875000e+04" cType="1" res="6.3533914089202881e-01" rms="4.8133492469787598e-01" purity="6.3533908128738403e-01" nType="0">
          <Node pos="l" depth="2" NCoef="0" IVar="-1" Cut="0.0000000000000000e+00" cType="1" res="1.3623571721836925e-03" rms="2.0782788097858429e-01" purity="4.5661654323339462e-02" nType="-99"/>
          <Node pos="r" depth="2" NCoef="0" IVar="-1" Cut="0.0000000000000000e+00" cType="1" res="1.9212488041375764e-05" rms="4.1141143441200256e-01" purity="8.3358258008956909e-01" nType="-99"/>
        </Node>
        <Node pos="r" depth="1" NCoef="0" IVar="0" Cut="4.0000000000000000e+00" cType="1" res="2.1100630983710289e-02" rms="4.0208074450492859e-01" purity="5.9334522485733032e-01" nType="0">
          <Node pos="l" depth="2" NCoef="0" IVar="-1" Cut="0.0000000000000000e+00" cType="1" res="5.0141679821535945e-04" rms="4.1813948750495911e-01" purity="5.4994094371795654e-01" nType="-99"/>
          <Node pos="r" depth="2" NCoef="0" IVar="-1" Cut="0.0000000000000000e+00" cType="1" res="4.3395094689913094e-04" rms="2.2923149168491364e-01" purity="9.4492477178573608e-01" nType="-99"/>
        </Node>
      </Node>
    </BinaryTree>
    <BinaryTree type="DecisionTree" boostWeight="1.0000000000000000e+00" itree="891">
      <Node pos="s" depth="0" NCoef="0" IVar="0" Cut="1.0000000000000000e+00" cType="1" res="2.6561170816421509e-01" rms="4.8291283845901489e-01" purity="5.8003604412078857e-01" nType="0">
        <Node pos="l" depth="1" NCoef="0" IVar="4" Cut="2.1007773437500000e+04" cType="1" res="5.7280802726745605e-01" rms="4.9467059969902039e-01" purity="5.7280802726745605e-01" nType="0">
          <Node pos="l" depth="2" NCoef="0" IVar="-1" Cut="0.0000000000000000e+00" cType="1" res="2.5305089075118303e-03" rms="2.1265643835067749e-01" purity="4.8026703298091888e-02" nType="-99"/>
          <Node pos="r" depth="2" NCoef="0" IVar="-1" Cut="0.0000000000000000e+00" cType="1" res="1.8652901417226531e-05" rms="4.3899270892143250e-01" purity="7.9600864648818970e-01" nType="-99"/>
        </Node>
        <Node pos="r" depth="1" NCoef="0" IVar="2" Cut="9.0302296875000000e+04" cType="1" res="5.9237843751907349e-01" rms="4.9139213562011719e-01" purity="5.9237843751907349e-01" nType="0">
          <Node pos="l" depth="2" NCoef="0" IVar="-1" Cut="0.0000000000000000e+00" cType="1" res="9.5448055071756244e-04" rms="3.9787665009498596e-01" purity="6.1939501762390137e-01" nType="-99"/>
          <Node pos="r" depth="2" NCoef="0" IVar="-1" Cut="0.0000000000000000e+00" cType="1" res="2.3834261810407043e-04" rms="4.0085774660110474e-01" purity="5.7907289266586304e-01" nType="-99"/>
        </Node>
      </Node>
    </BinaryTree>
    <BinaryTree type="DecisionTree" boostWeight="1.0000000000000000e+00" itree="892">
      <Node pos="s" depth="0" NCoef="0" IVar="1" Cut="1.9133937500000000e+05" cType="1" res="4.4576099514961243e-01" rms="4.9704942107200623e-01" purity="4.4576099514961243e-01" nType="0">
        <Node pos="l" depth="1" NCoef="0" IVar="3" Cut="8.8422882812500000e+04" cType="1" res="3.5567227751016617e-02" rms="2.0978166162967682e-01" purity="6.9610404968261719e-01" nType="0">
          <Node pos="l" depth="2" NCoef="0" IVar="-1" Cut="0.0000000000000000e+00" cType="1" res="-4.5816312194801867e-04" rms="3.2521682977676392e-01" purity="2.0480351150035858e-01" nType="-99"/>
          <Node pos="r" depth="2" NCoef="0" IVar="-1" Cut="0.0000000000000000e+00" cType="1" res="2.5734025257406756e-05" rms="3.6937874555587769e-01" purity="8.3656978607177734e-01" nType="-99"/>
        </Node>
        <Node pos="r" depth="1" NCoef="0" IVar="4" Cut="6.5056777343750000e+04" cType="1" res="3.9747005701065063e-01" rms="4.8937469720840454e-01" purity="3.9747002720832825e-01" nType="0">
          <Node pos="l" depth="2" NCoef="0" IVar="-1" Cut="0.0000000000000000e+00" cType="1" res="-2.4483553715981543e-04" rms="3.6024907231330872e-01" purity="3.3228364586830139e-01" nType="-99"/>
          <Node pos="r" depth="2" NCoef="0" IVar="-1" Cut="0.0000000000000000e+00" cType="1" res="7.8940193634480238e-04" rms="3.1971779465675354e-01" purity="8.7868875265121460e-01" nType="-99"/>
        </Node>
      </Node>
    </BinaryTree>
    <BinaryTree type="DecisionTree" boostWeight="1.0000000000000000e+00" itree="893">
      <Node pos="s" depth="0" NCoef="0" IVar="0" Cut="1.0000000000000000e+00" cType="1" res="2.6404559612274170e-01" rms="4.8379772901535034e-01" purity="5.7644683122634888e-01" nType="0">
        <Node pos="l" depth="1" NCoef="0" IVar="4" Cut="1.9433769531250000e+04" cType="1" res="5.6973135471343994e-01" rms="4.9511367082595825e-01" purity="5.6973141431808472e-01" nType="0">
          <Node pos="l" depth="2" NCoef="0" IVar="-1" Cut="0.0000000000000000e+00" cType="1" res="3.4638128709048033e-03" rms="2.0792680978775024e-01" purity="4.5538544654846191e-02" nType="-99"/>
          <Node pos="r" depth="2" NCoef="0" IVar="-1" Cut="0.0000000000000000e+00" cType="1" res="1.8510392692405730e-05" rms="4.4964799284934998e-01" purity="7.7066063880920410e-01" nType="-99"/>
        </Node>
        <Node pos="r" depth="1" NCoef="0" IVar="5" Cut="2.2745876562500000e+05" cType="1" res="5.8814191818237305e-01" rms="4.9216967821121216e-01" purity="5.8814191818237305e-01" nType="0">
          <Node pos="l" depth="2" NCoef="0" IVar="-1" Cut="0.0000000000000000e+00" cType="1" res="-3.2566138543188572e-03" rms="3.6717450618743896e-01" purity="1.8217660486698151e-01" nType="-99"/>
          <Node pos="r" depth="2" NCoef="0" IVar="-1" Cut="0.0000000000000000e+00" cType="1" res="6.7898491397500038e-04" rms="4.0152323246002197e-01" purity="6.5141040086746216e-01" nType="-99"/>
        </Node>
      </Node>
    </BinaryTree>
    <BinaryTree type="DecisionTree" boostWeight="1.0000000000000000e+00" itree="894">
      <Node pos="s" depth="0" NCoef="0" IVar="2" Cut="9.1820531250000000e+04" cType="1" res="4.8009246587753296e-01" rms="4.9960353970527649e-01" purity="4.8009246587753296e-01" nType="0">
        <Node pos="l" depth="1" NCoef="0" IVar="0" Cut="3.0000000000000000e+00" cType="1" res="5.2000810392200947e-03" rms="3.4925729036331177e-01" purity="3.9535158872604370e-01" nType="0">
          <Node pos="l" depth="2" NCoef="0" IVar="-1" Cut="0.0000000000000000e+00" cType="1" res="-6.3797357142902911e-05" rms="3.5760587453842163e-01" purity="3.1709778308868408e-01" nType="-99"/>
          <Node pos="r" depth="2" NCoef="0" IVar="-1" Cut="0.0000000000000000e+00" cType="1" res="2.4878312251530588e-04" rms="2.8460672497749329e-01" purity="9.1021662950515747e-01" nType="-99"/>
        </Node>
        <Node pos="r" depth="1" NCoef="0" IVar="2" Cut="9.2011859375000000e+04" cType="1" res="6.0666292905807495e-01" rms="4.8895430564880371e-01" purity="6.0711616277694702e-01" nType="0">
          <Node pos="l" depth="2" NCoef="0" IVar="-1" Cut="0.0000000000000000e+00" cType="1" res="2.1064241082058288e-05" rms="3.6549082398414612e-01" purity="8.8203054666519165e-01" nType="-99"/>
          <Node pos="r" depth="2" NCoef="0" IVar="-1" Cut="0.0000000000000000e+00" cType="1" res="2.4868996115401387e-04" rms="3.6290860176086426e-01" purity="4.0225201845169067e-01" nType="-99"/>
        </Node>
      </Node>
    </BinaryTree>
    <BinaryTree type="DecisionTree" boostWeight="1.0000000000000000e+00" itree="895">
      <Node pos="s" depth="0" NCoef="0" IVar="3" Cut="8.9426328125000000e+04" cType="1" res="0.0000000000000000e+00" rms="inf" purity="5.1315832138061523e-01" nType="0">
        <Node pos="l" depth="1" NCoef="0" IVar="3" Cut="8.8492835937500000e+04" cType="1" res="6.0491389036178589e-01" rms="4.8904791474342346e-01" purity="6.0508859157562256e-01" nType="0">
          <Node pos="l" depth="2" NCoef="0" IVar="-1" Cut="0.0000000000000000e+00" cType="1" res="-1.3147338177077472e-04" rms="3.4941413998603821e-01" purity="3.6977025866508484e-01" nType="-99"/>
          <Node pos="r" depth="2" NCoef="0" IVar="-1" Cut="0.0000000000000000e+00" cType="1" res="2.2681620976072736e-05" rms="4.1288301348686218e-01" purity="8.3371329307556152e-01" nType="-99"/>
        </Node>
        <Node pos="r" depth="1" NCoef="0" IVar="3" Cut="9.5437523437500000e+04" cType="1" res="3.8846683502197266e-01" rms="4.8740163445472717e-01" purity="3.8846683502197266e-01" nType="0">
          <Node pos="l" depth="2" NCoef="0" IVar="-1" Cut="0.0000000000000000e+00" cType="1" res="-4.6048811054788530e-04" rms="3.5034778714179993e-01" purity="3.6257275938987732e-01" nType="-99"/>
          <Node pos="r" depth="2" NCoef="0" IVar="-1" Cut="0.0000000000000000e+00" cType="1" res="1.1299845064058900e-03" rms="3.9798364043235779e-01" purity="4.5203575491905212e-01" nType="-99"/>
        </Node>
      </Node>
    </BinaryTree>
    <BinaryTree type="DecisionTree" boostWeight="1.0000000000000000e+00" itree="896">
      <Node pos="s" depth="0" NCoef="0" IVar="5" Cut="1.9380862500000000e+05" cType="1" res="3.7164703011512756e-01" rms="4.8324477672576904e-01" purity="3.7164703011512756e-01" nType="0">
        <Node pos="l" depth="1" NCoef="0" IVar="4" Cut="2.2668166015625000e+04" cType="1" res="7.4256762862205505e-02" rms="2.6218828558921814e-01" purity="7.4256755411624908e-02" nType="0">
          <Node pos="l" depth="2" NCoef="0" IVar="-1" Cut="0.0000000000000000e+00" cType="1" res="-5.4862895049154758e-03" rms="1.6825303435325623e-01" purity="2.9716093093156815e-02" nType="-99"/>
          <Node pos="r" depth="2" NCoef="0" IVar="-1" Cut="0.0000000000000000e+00" cType="1" res="-3.9524817839264870e-03" rms="3.4131452441215515e-01" purity="1.7373330891132355e-01" nType="-99"/>
        </Node>
        <Node pos="r" depth="1" NCoef="0" IVar="5" Cut="7.7883025000000000e+05" cType="1" res="4.7611078619956970e-01" rms="4.9942898750305176e-01" purity="4.7611078619956970e-01" nType="0">
          <Node pos="l" depth="2" NCoef="0" IVar="-1" Cut="0.0000000000000000e+00" cType="1" res="1.9913889991585165e-04" rms="3.9724013209342957e-01" purity="4.4010809063911438e-01" nType="-99"/>
          <Node pos="r" depth="2" NCoef="0" IVar="-1" Cut="0.0000000000000000e+00" cType="1" res="3.3031802158802748e-03" rms="2.8564411401748657e-01" purity="8.9732778072357178e-01" nType="-99"/>
        </Node>
      </Node>
    </BinaryTree>
    <BinaryTree type="DecisionTree" boostWeight="1.0000000000000000e+00" itree="897">
      <Node pos="s" depth="0" NCoef="0" IVar="5" Cut="1.6601217187500000e+05" cType="1" res="5.4374659061431885e-01" rms="4.9880200624465942e-01" purity="5.4446381330490112e-01" nType="0">
        <Node pos="l" depth="1" NCoef="0" IVar="5" Cut="1.5709578125000000e+05" cType="1" res="7.0700883865356445e-01" rms="4.5513442158699036e-01" purity="7.0700883865356445e-01" nType="0">
          <Node pos="l" depth="2" NCoef="0" IVar="-1" Cut="0.0000000000000000e+00" cType="1" res="-4.4573275372385979e-03" rms="2.1984665095806122e-01" purity="5.0872921943664551e-02" nType="-99"/>
          <Node pos="r" depth="2" NCoef="0" IVar="-1" Cut="0.0000000000000000e+00" cType="1" res="1.5061460544529837e-05" rms="3.1909286975860596e-01" purity="8.5609138011932373e-01" nType="-99"/>
        </Node>
        <Node pos="r" depth="1" NCoef="0" IVar="2" Cut="9.1859210937500000e+04" cType="1" res="5.0209718942642212e-01" rms="5.0089496374130249e-01" purity="5.0299739837646484e-01" nType="0">
          <Node pos="l" depth="2" NCoef="0" IVar="-1" Cut="0.0000000000000000e+00" cType="1" res="6.0675385611830279e-05" rms="3.5838693380355835e-01" purity="4.1430872678756714e-01" nType="-99"/>
          <Node pos="r" depth="2" NCoef="0" IVar="-1" Cut="0.0000000000000000e+00" cType="1" res="2.0895975467283279e-05" rms="5.0099432468414307e-01" purity="6.3340079784393311e-01" nType="-99"/>
        </Node>
      </Node>
    </BinaryTree>
    <BinaryTree type="DecisionTree" boostWeight="1.0000000000000000e+00" itree="898">
      <Node pos="s" depth="0" NCoef="0" IVar="1" Cut="2.0203215625000000e+05" cType="1" res="4.6148949861526489e-01" rms="4.9880594015121460e-01" purity="4.6177992224693298e-01" nType="0">
        <Node pos="l" depth="1" NCoef="0" IVar="2" Cut="8.9596296875000000e+04" cType="1" res="5.0088357925415039e-01" rms="5.1757633686065674e-01" purity="5.5206030607223511e-01" nType="0">
          <Node pos="l" depth="2" NCoef="0" IVar="-1" Cut="0.0000000000000000e+00" cType="1" res="2.6150337362196296e-05" rms="3.8976928591728210e-01" purity="8.1248670816421509e-01" nType="-99"/>
          <Node pos="r" depth="2" NCoef="0" IVar="-1" Cut="0.0000000000000000e+00" cType="1" res="9.2293741181492805e-04" rms="3.4266003966331482e-01" purity="2.3645719885826111e-01" nType="-99"/>
        </Node>
        <Node pos="r" depth="1" NCoef="0" IVar="4" Cut="7.6838750000000000e+04" cType="1" res="4.3379309773445129e-01" rms="4.9597972631454468e-01" purity="4.3417233228683472e-01" nType="0">
          <Node pos="l" depth="2" NCoef="0" IVar="-1" Cut="0.0000000000000000e+00" cType="1" res="2.2586167324334383e-04" rms="3.6387076973915100e-01" purity="3.7865936756134033e-01" nType="-99"/>
          <Node pos="r" depth="2" NCoef="0" IVar="-1" Cut="0.0000000000000000e+00" cType="1" res="9.3446625396609306e-04" rms="2.6635617017745972e-01" purity="9.2275410890579224e-01" nType="-99"/>
        </Node>
      </Node>
    </BinaryTree>
    <BinaryTree type="DecisionTree" boostWeight="1.0000000000000000e+00" itree="899">
      <Node pos="s" depth="0" NCoef="0" IVar="2" Cut="9.1774695312500000e+04" cType="1" res="4.7173681855201721e-01" rms="4.9920055270195007e-01" purity="4.7173684835433960e-01" nType="0">
        <Node pos="l" depth="1" NCoef="0" IVar="4" Cut="4.7342566406250000e+04" cType="1" res="3.9153397083282471e-01" rms="4.8809334635734558e-01" purity="3.9153394103050232e-01" nType="0">
          <Node pos="l" depth="2" NCoef="0" IVar="-1" Cut="0.0000000000000000e+00" cType="1" res="-1.2053624959662557e-04" rms="3.4401026368141174e-01" purity="2.9138660430908203e-01" nType="-99"/>
          <Node pos="r" depth="2" NCoef="0" IVar="-1" Cut="0.0000000000000000e+00" cType="1" res="3.7466560024768114e-04" rms="3.7099653482437134e-01" purity="7.9980427026748657e-01" nType="-99"/>
        </Node>
        <Node pos="r" depth="1" NCoef="0" IVar="2" Cut="9.1973671875000000e+04" cType="1" res="5.8886373043060303e-01" rms="4.9215647578239441e-01" purity="5.8937686681747437e-01" nType="0">
          <Node pos="l" depth="2" NCoef="0" IVar="-1" Cut="0.0000000000000000e+00" cType="1" res="2.0705776478280313e-05" rms="3.8365882635116577e-01" purity="8.6394071578979492e-01" nType="-99"/>
          <Node pos="r" depth="2" NCoef="0" IVar="-1" Cut="0.0000000000000000e+00" cType="1" res="-1.2279457587283105e-04" rms="3.5165390372276306e-01" purity="3.8344001770019531e-01" nType="-99"/>
        </Node>
      </Node>
    </BinaryTree>
    <BinaryTree type="DecisionTree" boostWeight="1.0000000000000000e+00" itree="900">
      <Node pos="s" depth="0" NCoef="0" IVar="2" Cut="9.1831726562500000e+04" cType="1" res="4.6781468391418457e-01" rms="4.9909320473670959e-01" purity="4.6803393959999084e-01" nType="0">
        <Node pos="l" depth="1" NCoef="0" IVar="4" Cut="5.0980992187500000e+04" cType="1" res="3.7806168198585510e-01" rms="4.8512718081474304e-01" purity="3.7827900052070618e-01" nType="0">
          <Node pos="l" depth="2" NCoef="0" IVar="-1" Cut="0.0000000000000000e+00" cType="1" res="-1.1958526738453656e-04" rms="3.4858691692352295e-01" purity="2.9116222262382507e-01" nType="-99"/>
          <Node pos="r" depth="2" NCoef="0" IVar="-1" Cut="0.0000000000000000e+00" cType="1" res="5.6922761723399162e-04" rms="3.7536182999610901e-01" purity="8.0377614498138428e-01" nType="-99"/>
        </Node>
        <Node pos="r" depth="1" NCoef="0" IVar="2" Cut="9.2022078125000000e+04" cType="1" res="6.0110205411911011e-01" rms="4.8980259895324707e-01" purity="6.0145246982574463e-01" nType="0">
          <Node pos="l" depth="2" NCoef="0" IVar="-1" Cut="0.0000000000000000e+00" cType="1" res="2.0720519387396052e-05" rms="3.6459916830062866e-01" purity="8.7850219011306763e-01" nType="-99"/>
          <Node pos="r" depth="2" NCoef="0" IVar="-1" Cut="0.0000000000000000e+00" cType="1" res="4.9591367132961750e-04" rms="3.5515302419662476e-01" purity="4.0526100993156433e-01" nType="-99"/>
        </Node>
      </Node>
    </BinaryTree>
    <BinaryTree type="DecisionTree" boostWeight="1.0000000000000000e+00" itree="901">
      <Node pos="s" depth="0" NCoef="0" IVar="1" Cut="2.0309048437500000e+05" cType="1" res="4.4537371397018433e-01" rms="4.9723947048187256e-01" purity="4.4576981663703918e-01" nType="0">
        <Node pos="l" depth="1" NCoef="0" IVar="2" Cut="8.9690085937500000e+04" cType="1" res="4.7244942188262939e-01" rms="5.2143335342407227e-01" purity="5.3314030170440674e-01" nType="0">
          <Node pos="l" depth="2" NCoef="0" IVar="-1" Cut="0.0000000000000000e+00" cType="1" res="2.5982844817917794e-05" rms="4.1114401817321777e-01" purity="7.8936421871185303e-01" nType="-99"/>
          <Node pos="r" depth="2" NCoef="0" IVar="-1" Cut="0.0000000000000000e+00" cType="1" res="-1.9788418430835009e-03" rms="3.0941230058670044e-01" purity="2.1192793548107147e-01" nType="-99"/>
        </Node>
        <Node pos="r" depth="1" NCoef="0" IVar="4" Cut="7.7944625000000000e+04" cType="1" res="4.1662982106208801e-01" rms="4.9331149458885193e-01" purity="4.1715565323829651e-01" nType="0">
          <Node pos="l" depth="2" NCoef="0" IVar="-1" Cut="0.0000000000000000e+00" cType="1" res="-2.7839190443046391e-04" rms="3.6087208986282349e-01" purity="3.6479756236076355e-01" nType="-99"/>
          <Node pos="r" depth="2" NCoef="0" IVar="-1" Cut="0.0000000000000000e+00" cType="1" res="9.0761360479518771e-04" rms="2.8053897619247437e-01" purity="9.1233438253402710e-01" nType="-99"/>
        </Node>
      </Node>
    </BinaryTree>
    <BinaryTree type="DecisionTree" boostWeight="1.0000000000000000e+00" itree="902">
      <Node pos="s" depth="0" NCoef="0" IVar="2" Cut="9.1849609375000000e+04" cType="1" res="4.6654227375984192e-01" rms="4.9919852614402771e-01" purity="4.6686083078384399e-01" nType="0">
        <Node pos="l" depth="1" NCoef="0" IVar="0" Cut="1.0000000000000000e+00" cType="1" res="1.9763789605349302e-03" rms="3.4706649184226990e-01" purity="3.8010373711585999e-01" nType="0">
          <Node pos="l" depth="2" NCoef="0" IVar="-1" Cut="0.0000000000000000e+00" cType="1" res="-1.8098677974194288e-03" rms="2.7156937122344971e-01" purity="1.2856587767601013e-01" nType="-99"/>
          <Node pos="r" depth="2" NCoef="0" IVar="-1" Cut="0.0000000000000000e+00" cType="1" res="6.6735944710671902e-04" rms="3.9955917000770569e-01" purity="5.9538668394088745e-01" nType="-99"/>
        </Node>
        <Node pos="r" depth="1" NCoef="0" IVar="2" Cut="9.2047007812500000e+04" cType="1" res="5.9915661811828613e-01" rms="4.9021568894386292e-01" purity="5.9946018457412720e-01" nType="0">
          <Node pos="l" depth="2" NCoef="0" IVar="-1" Cut="0.0000000000000000e+00" cType="1" res="2.1032592485425994e-05" rms="3.6467555165290833e-01" purity="8.8305521011352539e-01" nType="-99"/>
          <Node pos="r" depth="2" NCoef="0" IVar="-1" Cut="0.0000000000000000e+00" cType="1" res="1.5803474525455385e-05" rms="3.5885342955589294e-01" purity="3.8181698322296143e-01" nType="-99"/>
        </Node>
      </Node>
    </BinaryTree>
    <BinaryTree type="DecisionTree" boostWeight="1.0000000000000000e+00" itree="903">
      <Node pos="s" depth="0" NCoef="0" IVar="2" Cut="9.1750835937500000e+04" cType="1" res="5.3421270847320557e-01" rms="4.9900048971176147e-01" purity="5.3438466787338257e-01" nType="0">
        <Node pos="l" depth="1" NCoef="0" IVar="4" Cut="4.4645093750000000e+04" cType="1" res="3.9546608924865723e-01" rms="4.8928704857826233e-01" purity="3.9579522609710693e-01" nType="0">
          <Node pos="l" depth="2" NCoef="0" IVar="-1" Cut="0.0000000000000000e+00" cType="1" res="-3.5112436307827011e-05" rms="3.4536215662956238e-01" purity="2.8271511197090149e-01" nType="-99"/>
          <Node pos="r" depth="2" NCoef="0" IVar="-1" Cut="0.0000000000000000e+00" cType="1" res="3.6069031921215355e-04" rms="3.6891347169876099e-01" purity="7.8496026992797852e-01" nType="-99"/>
        </Node>
        <Node pos="r" depth="1" NCoef="0" IVar="2" Cut="9.1939156250000000e+04" cType="1" res="6.8574595451354980e-01" rms="4.6453627943992615e-01" purity="6.8604153394699097e-01" nType="0">
          <Node pos="l" depth="2" NCoef="0" IVar="-1" Cut="0.0000000000000000e+00" cType="1" res="2.0704310372821055e-05" rms="2.9040497541427612e-01" purity="9.3010604381561279e-01" nType="-99"/>
          <Node pos="r" depth="2" NCoef="0" IVar="-1" Cut="0.0000000000000000e+00" cType="1" res="-3.0918643460609019e-04" rms="3.5966816544532776e-01" purity="3.6979439854621887e-01" nType="-99"/>
        </Node>
      </Node>
    </BinaryTree>
    <BinaryTree type="DecisionTree" boostWeight="1.0000000000000000e+00" itree="904">
      <Node pos="s" depth="0" NCoef="0" IVar="2" Cut="9.1787367187500000e+04" cType="1" res="4.7249540686607361e-01" rms="4.9924293160438538e-01" purity="4.7249543666839600e-01" nType="0">
        <Node pos="l" depth="1" NCoef="0" IVar="0" Cut="2.0000000000000000e+00" cType="1" res="8.4740895545110106e-04" rms="3.4597915410995483e-01" purity="3.8939130306243896e-01" nType="0">
          <Node pos="l" depth="2" NCoef="0" IVar="-1" Cut="0.0000000000000000e+00" cType="1" res="-5.3672882495447993e-04" rms="3.4311613440513611e-01" purity="2.1844378113746643e-01" nType="-99"/>
          <Node pos="r" depth="2" NCoef="0" IVar="-1" Cut="0.0000000000000000e+00" cType="1" res="4.0862304740585387e-04" rms="3.5171228647232056e-01" purity="8.4212386608123779e-01" nType="-99"/>
        </Node>
        <Node pos="r" depth="1" NCoef="0" IVar="2" Cut="9.1981835937500000e+04" cType="1" res="5.9662729501724243e-01" rms="4.9083808064460754e-01" purity="5.9688609838485718e-01" nType="0">
          <Node pos="l" depth="2" NCoef="0" IVar="-1" Cut="0.0000000000000000e+00" cType="1" res="2.0873443645541556e-05" rms="3.7769845128059387e-01" purity="8.7016391754150391e-01" nType="-99"/>
          <Node pos="r" depth="2" NCoef="0" IVar="-1" Cut="0.0000000000000000e+00" cType="1" res="2.1738003852078691e-05" rms="3.5328572988510132e-01" purity="3.9140927791595459e-01" nType="-99"/>
        </Node>
      </Node>
    </BinaryTree>
    <BinaryTree type="DecisionTree" boostWeight="1.0000000000000000e+00" itree="905">
      <Node pos="s" depth="0" NCoef="0" IVar="4" Cut="7.8767250000000000e+04" cType="1" res="3.7740767002105713e-01" rms="4.8473820090293884e-01" purity="3.7740767002105713e-01" nType="0">
        <Node pos="l" depth="1" NCoef="0" IVar="0" Cut="4.0000000000000000e+00" cType="1" res="-5.6927776895463467e-03" rms="3.5433897376060486e-01" purity="3.3302360773086548e-01" nType="0">
          <Node pos="l" depth="2" NCoef="0" IVar="-1" Cut="0.0000000000000000e+00" cType="1" res="-5.0554907647892833e-04" rms="3.5852387547492981e-01" purity="3.0300357937812805e-01" nType="-99"/>
          <Node pos="r" depth="2" NCoef="0" IVar="-1" Cut="0.0000000000000000e+00" cType="1" res="3.2249880023300648e-03" rms="2.4837346374988556e-01" purity="9.3382638692855835e-01" nType="-99"/>
        </Node>
        <Node pos="r" depth="1" NCoef="0" IVar="-1" Cut="0.0000000000000000e+00" cType="1" res="7.7559205237776041e-04" rms="2.9557973146438599e-01" purity="9.0134137868881226e-01" nType="-99"/>
      </Node>
    </BinaryTree>
    <BinaryTree type="DecisionTree" boostWeight="1.0000000000000000e+00" itree="906">
      <Node pos="s" depth="0" NCoef="0" IVar="3" Cut="9.5950601562500000e+04" cType="1" res="4.7915878891944885e-01" rms="4.9956545233726501e-01" purity="4.7915878891944885e-01" nType="0">
        <Node pos="l" depth="1" NCoef="0" IVar="5" Cut="2.0820960937500000e+05" cType="1" res="3.6795601248741150e-01" rms="4.8224928975105286e-01" purity="3.6795601248741150e-01" nType="0">
          <Node pos="l" depth="2" NCoef="0" IVar="-1" Cut="0.0000000000000000e+00" cType="1" res="-2.8719496913254261e-03" rms="2.6395928859710693e-01" purity="9.0594954788684845e-02" nType="-99"/>
          <Node pos="r" depth="2" NCoef="0" IVar="-1" Cut="0.0000000000000000e+00" cType="1" res="3.2609203481115401e-04" rms="3.9170175790786743e-01" purity="5.1400947570800781e-01" nType="-99"/>
        </Node>
        <Node pos="r" depth="1" NCoef="0" IVar="2" Cut="8.9290359375000000e+04" cType="1" res="7.7787029743194580e-01" rms="4.1567787528038025e-01" purity="7.7811634540557861e-01" nType="0">
          <Node pos="l" depth="2" NCoef="0" IVar="-1" Cut="0.0000000000000000e+00" cType="1" res="1.5425643141497858e-05" rms="3.2170423865318298e-01" purity="9.1667860746383667e-01" nType="-99"/>
          <Node pos="r" depth="2" NCoef="0" IVar="-1" Cut="0.0000000000000000e+00" cType="1" res="4.1372625855728984e-04" rms="3.6434656381607056e-01" purity="4.4172143936157227e-01" nType="-99"/>
        </Node>
      </Node>
    </BinaryTree>
    <BinaryTree type="DecisionTree" boostWeight="1.0000000000000000e+00" itree="907">
      <Node pos="s" depth="0" NCoef="0" IVar="2" Cut="9.1833187500000000e+04" cType="1" res="4.7216790914535522e-01" rms="4.9941772222518921e-01" purity="4.7245001792907715e-01" nType="0">
        <Node pos="l" depth="1" NCoef="0" IVar="4" Cut="4.4988378906250000e+04" cType="1" res="3.9129221439361572e-01" rms="4.8825779557228088e-01" purity="3.9150527119636536e-01" nType="0">
          <Node pos="l" depth="2" NCoef="0" IVar="-1" Cut="0.0000000000000000e+00" cType="1" res="-3.8923040847294033e-04" rms="3.3680444955825806e-01" purity="2.7904844284057617e-01" nType="-99"/>
          <Node pos="r" depth="2" NCoef="0" IVar="-1" Cut="0.0000000000000000e+00" cType="1" res="2.6934879133477807e-04" rms="3.6938828229904175e-01" purity="7.8722912073135376e-01" nType="-99"/>
        </Node>
        <Node pos="r" depth="1" NCoef="0" IVar="2" Cut="9.2024906250000000e+04" cType="1" res="5.9879779815673828e-01" rms="4.9045261740684509e-01" purity="5.9933221340179443e-01" nType="0">
          <Node pos="l" depth="2" NCoef="0" IVar="-1" Cut="0.0000000000000000e+00" cType="1" res="2.0835797840845771e-05" rms="3.6735481023788452e-01" purity="8.7869006395339966e-01" nType="-99"/>
          <Node pos="r" depth="2" NCoef="0" IVar="-1" Cut="0.0000000000000000e+00" cType="1" res="-6.1195045418571681e-05" rms="3.5660415887832642e-01" purity="3.8585108518600464e-01" nType="-99"/>
        </Node>
      </Node>
    </BinaryTree>
    <BinaryTree type="DecisionTree" boostWeight="1.0000000000000000e+00" itree="908">
      <Node pos="s" depth="0" NCoef="0" IVar="3" Cut="9.5950960937500000e+04" cType="1" res="inf" rms="0.0000000000000000e+00" purity="6.4445215463638306e-01" nType="0">
        <Node pos="l" depth="1" NCoef="0" IVar="2" Cut="9.1779687500000000e+04" cType="1" res="4.7408232092857361e-01" rms="4.9972760677337646e-01" purity="4.7470167279243469e-01" nType="0">
          <Node pos="l" depth="2" NCoef="0" IVar="-1" Cut="0.0000000000000000e+00" cType="1" res="3.5753060365095735e-04" rms="3.5129350423812866e-01" purity="3.8262036442756653e-01" nType="-99"/>
          <Node pos="r" depth="2" NCoef="0" IVar="-1" Cut="0.0000000000000000e+00" cType="1" res="2.0823561499128118e-05" rms="5.0014412403106689e-01" purity="6.0703396797180176e-01" nType="-99"/>
        </Node>
        <Node pos="r" depth="1" NCoef="0" IVar="2" Cut="8.9315734375000000e+04" cType="1" res="8.9862406253814697e-01" rms="3.0182588100433350e-01" purity="8.9862406253814697e-01" nType="0">
          <Node pos="l" depth="2" NCoef="0" IVar="-1" Cut="0.0000000000000000e+00" cType="1" res="1.5192294085863978e-05" rms="2.0307147502899170e-01" purity="9.6848374605178833e-01" nType="-99"/>
          <Node pos="r" depth="2" NCoef="0" IVar="-1" Cut="0.0000000000000000e+00" cType="1" res="2.0882698299828917e-04" rms="3.7297776341438293e-01" purity="4.2490005493164062e-01" nType="-99"/>
        </Node>
      </Node>
    </BinaryTree>
    <BinaryTree type="DecisionTree" boostWeight="1.0000000000000000e+00" itree="909">
      <Node pos="s" depth="0" NCoef="0" IVar="3" Cut="8.9426570312500000e+04" cType="1" res="5.1850807666778564e-01" rms="4.9965733289718628e-01" purity="5.1850807666778564e-01" nType="0">
        <Node pos="l" depth="1" NCoef="0" IVar="3" Cut="8.8493054687500000e+04" cType="1" res="6.1113870143890381e-01" rms="4.8749172687530518e-01" purity="6.1113870143890381e-01" nType="0">
          <Node pos="l" depth="2" NCoef="0" IVar="-1" Cut="0.0000000000000000e+00" cType="1" res="3.5411620046943426e-04" rms="3.5201126337051392e-01" purity="3.8976594805717468e-01" nType="-99"/>
          <Node pos="r" depth="2" NCoef="0" IVar="-1" Cut="0.0000000000000000e+00" cType="1" res="2.2835667550680228e-05" rms="4.1360822319984436e-01" purity="8.3241856098175049e-01" nType="-99"/>
        </Node>
        <Node pos="r" depth="1" NCoef="0" IVar="5" Cut="5.5067893750000000e+05" cType="1" res="3.8801023364067078e-01" rms="4.8789963126182556e-01" purity="3.8859799504280090e-01" nType="0">
          <Node pos="l" depth="2" NCoef="0" IVar="-1" Cut="0.0000000000000000e+00" cType="1" res="2.2803639876656234e-04" rms="3.7183666229248047e-01" purity="3.1533068418502808e-01" nType="-99"/>
          <Node pos="r" depth="2" NCoef="0" IVar="-1" Cut="0.0000000000000000e+00" cType="1" res="1.7580549465492368e-03" rms="3.1759491562843323e-01" purity="8.5164296627044678e-01" nType="-99"/>
        </Node>
      </Node>
    </BinaryTree>
    <BinaryTree type="DecisionTree" boostWeight="1.0000000000000000e+00" itree="910">
      <Node pos="s" depth="0" NCoef="0" IVar="1" Cut="2.0340862500000000e+05" cType="1" res="4.4473063945770264e-01" rms="4.9713742733001709e-01" purity="4.4502663612365723e-01" nType="0">
        <Node pos="l" depth="1" NCoef="0" IVar="2" Cut="8.9600773437500000e+04" cType="1" res="4.7158312797546387e-01" rms="5.2335810661315918e-01" purity="5.4372715950012207e-01" nType="0">
          <Node pos="l" depth="2" NCoef="0" IVar="-1" Cut="0.0000000000000000e+00" cType="1" res="2.6632196750142612e-05" rms="4.0129348635673523e-01" purity="8.0156314373016357e-01" nType="-99"/>
          <Node pos="r" depth="2" NCoef="0" IVar="-1" Cut="0.0000000000000000e+00" cType="1" res="8.4484001854434609e-04" rms="3.4448719024658203e-01" purity="2.3477268218994141e-01" nType="-99"/>
        </Node>
        <Node pos="r" depth="1" NCoef="0" IVar="3" Cut="9.5099960937500000e+04" cType="1" res="4.1074281930923462e-01" rms="4.9224209785461426e-01" purity="4.1114041209220886e-01" nType="0">
          <Node pos="l" depth="2" NCoef="0" IVar="-1" Cut="0.0000000000000000e+00" cType="1" res="-2.8435082640498877e-04" rms="3.5112941265106201e-01" purity="4.0086877346038818e-01" nType="-99"/>
          <Node pos="r" depth="2" NCoef="0" IVar="-1" Cut="0.0000000000000000e+00" cType="1" res="7.1478006429970264e-04" rms="3.7961727380752563e-01" purity="4.5558288693428040e-01" nType="-99"/>
        </Node>
      </Node>
    </BinaryTree>
    <BinaryTree type="DecisionTree" boostWeight="1.0000000000000000e+00" itree="911">
      <Node pos="s" depth="0" NCoef="0" IVar="1" Cut="2.0102762500000000e+05" cType="1" res="4.3925246596336365e-01" rms="4.9673780798912048e-01" purity="4.3978679180145264e-01" nType="0">
        <Node pos="l" depth="1" NCoef="0" IVar="2" Cut="8.9665156250000000e+04" cType="1" res="5.0199139118194580e-01" rms="5.1701444387435913e-01" purity="5.5753874778747559e-01" nType="0">
          <Node pos="l" depth="2" NCoef="0" IVar="-1" Cut="0.0000000000000000e+00" cType="1" res="2.6370078558102250e-05" rms="3.9152657985687256e-01" purity="8.0960941314697266e-01" nType="-99"/>
          <Node pos="r" depth="2" NCoef="0" IVar="-1" Cut="0.0000000000000000e+00" cType="1" res="3.5552380722947419e-04" rms="3.3775258064270020e-01" purity="2.1911233663558960e-01" nType="-99"/>
        </Node>
        <Node pos="r" depth="1" NCoef="0" IVar="4" Cut="7.7960796875000000e+04" cType="1" res="4.0331643819808960e-01" rms="4.9114587903022766e-01" purity="4.0401309728622437e-01" nType="0">
          <Node pos="l" depth="2" NCoef="0" IVar="-1" Cut="0.0000000000000000e+00" cType="1" res="-3.9236445445567369e-04" rms="3.6127394437789917e-01" purity="3.5535746812820435e-01" nType="-99"/>
          <Node pos="r" depth="2" NCoef="0" IVar="-1" Cut="0.0000000000000000e+00" cType="1" res="7.8028265852481127e-04" rms="2.8554165363311768e-01" purity="9.0766751766204834e-01" nType="-99"/>
        </Node>
      </Node>
    </BinaryTree>
    <BinaryTree type="DecisionTree" boostWeight="1.0000000000000000e+00" itree="912">
      <Node pos="s" depth="0" NCoef="0" IVar="4" Cut="8.3366750000000000e+04" cType="1" res="3.9211058616638184e-01" rms="4.8822113871574402e-01" purity="3.9211058616638184e-01" nType="0">
        <Node pos="l" depth="1" NCoef="0" IVar="0" Cut="4.0000000000000000e+00" cType="1" res="3.2003324013203382e-03" rms="3.5882011055946350e-01" purity="3.5041832923889160e-01" nType="0">
          <Node pos="l" depth="2" NCoef="0" IVar="-1" Cut="0.0000000000000000e+00" cType="1" res="-1.6147329006344080e-05" rms="3.6405083537101746e-01" purity="3.1642809510231018e-01" nType="-99"/>
          <Node pos="r" depth="2" NCoef="0" IVar="-1" Cut="0.0000000000000000e+00" cType="1" res="3.6640762118622661e-04" rms="2.4426309764385223e-01" purity="9.3698996305465698e-01" nType="-99"/>
        </Node>
        <Node pos="r" depth="1" NCoef="0" IVar="-1" Cut="0.0000000000000000e+00" cType="1" res="9.3411299167200923e-04" rms="2.6982209086418152e-01" purity="9.1951256990432739e-01" nType="-99"/>
      </Node>
    </BinaryTree>
    <BinaryTree type="DecisionTree" boostWeight="1.0000000000000000e+00" itree="913">
      <Node pos="s" depth="0" NCoef="0" IVar="1" Cut="2.0237307812500000e+05" cType="1" res="5.6314104795455933e-01" rms="4.9642068147659302e-01" purity="5.6363582611083984e-01" nType="0">
        <Node pos="l" depth="1" NCoef="0" IVar="2" Cut="8.9670617187500000e+04" cType="1" res="4.2582222819328308e-01" rms="5.0510096549987793e-01" purity="7.8509038686752319e-01" nType="0">
          <Node pos="l" depth="2" NCoef="0" IVar="-1" Cut="0.0000000000000000e+00" cType="1" res="1.9693534341058694e-05" rms="2.5587481260299683e-01" purity="9.3177717924118042e-01" nType="-99"/>
          <Node pos="r" depth="2" NCoef="0" IVar="-1" Cut="0.0000000000000000e+00" cType="1" res="1.2935731792822480e-03" rms="3.3869546651840210e-01" purity="2.3470832407474518e-01" nType="-99"/>
        </Node>
        <Node pos="r" depth="1" NCoef="0" IVar="4" Cut="7.9674312500000000e+04" cType="1" res="4.1296246647834778e-01" rms="4.9308127164840698e-01" purity="4.1379213333129883e-01" nType="0">
          <Node pos="l" depth="2" NCoef="0" IVar="-1" Cut="0.0000000000000000e+00" cType="1" res="4.4180924305692315e-05" rms="3.6695867776870728e-01" purity="3.6697247624397278e-01" nType="-99"/>
          <Node pos="r" depth="2" NCoef="0" IVar="-1" Cut="0.0000000000000000e+00" cType="1" res="8.6053245468065143e-04" rms="2.7763262391090393e-01" purity="9.1444009542465210e-01" nType="-99"/>
        </Node>
      </Node>
    </BinaryTree>
    <BinaryTree type="DecisionTree" boostWeight="1.0000000000000000e+00" itree="914">
      <Node pos="s" depth="0" NCoef="0" IVar="0" Cut="1.0000000000000000e+00" cType="1" res="2.6320651173591614e-01" rms="4.8489382863044739e-01" purity="5.7769781351089478e-01" nType="0">
        <Node pos="l" depth="1" NCoef="0" IVar="4" Cut="1.9615392578125000e+04" cType="1" res="5.7256960868835449e-01" rms="4.9470561742782593e-01" purity="5.7256960868835449e-01" nType="0">
          <Node pos="l" depth="2" NCoef="0" IVar="-1" Cut="0.0000000000000000e+00" cType="1" res="7.2404189268127084e-04" rms="1.9568361341953278e-01" purity="4.0001370012760162e-02" nType="-99"/>
          <Node pos="r" depth="2" NCoef="0" IVar="-1" Cut="0.0000000000000000e+00" cType="1" res="1.8748760339803994e-05" rms="4.4901579618453979e-01" purity="7.7668666839599609e-01" nType="-99"/>
        </Node>
        <Node pos="r" depth="1" NCoef="0" IVar="0" Cut="4.0000000000000000e+00" cType="1" res="7.5761829502880573e-03" rms="3.9792662858963013e-01" purity="5.8664554357528687e-01" nType="0">
          <Node pos="l" depth="2" NCoef="0" IVar="-1" Cut="0.0000000000000000e+00" cType="1" res="3.6942656151950359e-05" rms="4.1263520717620850e-01" purity="5.4431420564651489e-01" nType="-99"/>
          <Node pos="r" depth="2" NCoef="0" IVar="-1" Cut="0.0000000000000000e+00" cType="1" res="3.9511686190962791e-04" rms="2.3348787426948547e-01" purity="9.4298797845840454e-01" nType="-99"/>
        </Node>
      </Node>
    </BinaryTree>
    <BinaryTree type="DecisionTree" boostWeight="1.0000000000000000e+00" itree="915">
      <Node pos="s" depth="0" NCoef="0" IVar="4" Cut="3.5506140625000000e+04" cType="1" res="3.9043477177619934e-01" rms="4.8805618286132812e-01" purity="3.9074164628982544e-01" nType="0">
        <Node pos="l" depth="1" NCoef="0" IVar="4" Cut="2.2937658203125000e+04" cType="1" res="2.5727266073226929e-01" rms="4.3724206089973450e-01" purity="2.5736987590789795e-01" nType="0">
          <Node pos="l" depth="2" NCoef="0" IVar="-1" Cut="0.0000000000000000e+00" cType="1" res="6.5220607211813331e-04" rms="3.0081477761268616e-01" purity="2.1440410614013672e-01" nType="-99"/>
          <Node pos="r" depth="2" NCoef="0" IVar="-1" Cut="0.0000000000000000e+00" cType="1" res="-2.0702963229268789e-03" rms="3.8953948020935059e-01" purity="3.7189581990242004e-01" nType="-99"/>
        </Node>
        <Node pos="r" depth="1" NCoef="0" IVar="3" Cut="8.5170375000000000e+04" cType="1" res="7.0353120565414429e-01" rms="4.5719593763351440e-01" purity="7.0433115959167480e-01" nType="0">
          <Node pos="l" depth="2" NCoef="0" IVar="-1" Cut="0.0000000000000000e+00" cType="1" res="4.3025598279200494e-04" rms="3.4914854168891907e-01" purity="7.9576581716537476e-01" nType="-99"/>
          <Node pos="r" depth="2" NCoef="0" IVar="-1" Cut="0.0000000000000000e+00" cType="1" res="3.6310919676907361e-04" rms="4.0394547581672668e-01" purity="6.8620860576629639e-01" nType="-99"/>
        </Node>
      </Node>
    </BinaryTree>
    <BinaryTree type="DecisionTree" boostWeight="1.0000000000000000e+00" itree="916">
      <Node pos="s" depth="0" NCoef="0" IVar="5" Cut="1.8803356250000000e+05" cType="1" res="3.8565188646316528e-01" rms="4.8736891150474548e-01" purity="3.8639077544212341e-01" nType="0">
        <Node pos="l" depth="1" NCoef="0" IVar="4" Cut="2.4504121093750000e+04" cType="1" res="7.4342913925647736e-02" rms="2.6232811808586121e-01" purity="7.4342913925647736e-02" nType="0">
          <Node pos="l" depth="2" NCoef="0" IVar="-1" Cut="0.0000000000000000e+00" cType="1" res="-1.8201054772362113e-03" rms="1.8066589534282684e-01" purity="3.5560823976993561e-02" nType="-99"/>
          <Node pos="r" depth="2" NCoef="0" IVar="-1" Cut="0.0000000000000000e+00" cType="1" res="-3.8937104400247335e-03" rms="3.5707572102546692e-01" purity="1.8620973825454712e-01" nType="-99"/>
        </Node>
        <Node pos="r" depth="1" NCoef="0" IVar="4" Cut="5.3123312500000000e+04" cType="1" res="4.7266873717308044e-01" rms="5.0002574920654297e-01" purity="4.7361412644386292e-01" nType="0">
          <Node pos="l" depth="2" NCoef="0" IVar="-1" Cut="0.0000000000000000e+00" cType="1" res="5.1147467456758022e-04" rms="3.8825353980064392e-01" purity="3.8976973295211792e-01" nType="-99"/>
          <Node pos="r" depth="2" NCoef="0" IVar="-1" Cut="0.0000000000000000e+00" cType="1" res="7.0350500755012035e-04" rms="3.5377335548400879e-01" purity="8.3785086870193481e-01" nType="-99"/>
        </Node>
      </Node>
    </BinaryTree>
    <BinaryTree type="DecisionTree" boostWeight="1.0000000000000000e+00" itree="917">
      <Node pos="s" depth="0" NCoef="0" IVar="3" Cut="8.9427125000000000e+04" cType="1" res="5.1675486564636230e-01" rms="5.0002032518386841e-01" purity="5.1705586910247803e-01" nType="0">
        <Node pos="l" depth="1" NCoef="0" IVar="3" Cut="8.8493531250000000e+04" cType="1" res="6.0499989986419678e-01" rms="4.8903426527976990e-01" purity="6.0525494813919067e-01" nType="0">
          <Node pos="l" depth="2" NCoef="0" IVar="-1" Cut="0.0000000000000000e+00" cType="1" res="-7.0429696279461496e-06" rms="3.4630930423736572e-01" purity="3.7745329737663269e-01" nType="-99"/>
          <Node pos="r" depth="2" NCoef="0" IVar="-1" Cut="0.0000000000000000e+00" cType="1" res="2.3043301553116180e-05" rms="4.1222360730171204e-01" purity="8.2963931560516357e-01" nType="-99"/>
        </Node>
        <Node pos="r" depth="1" NCoef="0" IVar="3" Cut="9.8777726562500000e+04" cType="1" res="3.9619609713554382e-01" rms="4.8924559354782104e-01" purity="3.9633259177207947e-01" nType="0">
          <Node pos="l" depth="2" NCoef="0" IVar="-1" Cut="0.0000000000000000e+00" cType="1" res="3.3514195820316672e-04" rms="3.5611239075660706e-01" purity="3.8938930630683899e-01" nType="-99"/>
          <Node pos="r" depth="2" NCoef="0" IVar="-1" Cut="0.0000000000000000e+00" cType="1" res="1.5930824447423220e-03" rms="4.1639289259910583e-01" purity="4.8051291704177856e-01" nType="-99"/>
        </Node>
      </Node>
    </BinaryTree>
    <BinaryTree type="DecisionTree" boostWeight="1.0000000000000000e+00" itree="918">
      <Node pos="s" depth="0" NCoef="0" IVar="1" Cut="2.0309048437500000e+05" cType="1" res="5.2231281995773315e-01" rms="4.9955478310585022e-01" purity="5.2236562967300415e-01" nType="0">
        <Node pos="l" depth="1" NCoef="0" IVar="2" Cut="8.9600773437500000e+04" cType="1" res="2.8192320466041565e-01" rms="4.6160337328910828e-01" purity="7.1983319520950317e-01" nType="0">
          <Node pos="l" depth="2" NCoef="0" IVar="-1" Cut="0.0000000000000000e+00" cType="1" res="1.8073867977363989e-05" rms="2.9079622030258179e-01" purity="9.0982800722122192e-01" nType="-99"/>
          <Node pos="r" depth="2" NCoef="0" IVar="-1" Cut="0.0000000000000000e+00" cType="1" res="-1.0965378023684025e-03" rms="3.2800811529159546e-01" purity="2.1285268664360046e-01" nType="-99"/>
        </Node>
        <Node pos="r" depth="1" NCoef="0" IVar="4" Cut="3.5488527343750000e+04" cType="1" res="4.1233074665069580e-01" rms="4.9233764410018921e-01" purity="4.1241300106048584e-01" nType="0">
          <Node pos="l" depth="2" NCoef="0" IVar="-1" Cut="0.0000000000000000e+00" cType="1" res="-5.4303609067574143e-04" rms="3.3732971549034119e-01" purity="2.7970969676971436e-01" nType="-99"/>
          <Node pos="r" depth="2" NCoef="0" IVar="-1" Cut="0.0000000000000000e+00" cType="1" res="3.4334283554926515e-04" rms="3.9907288551330566e-01" purity="7.1144676208496094e-01" nType="-99"/>
        </Node>
      </Node>
    </BinaryTree>
    <BinaryTree type="DecisionTree" boostWeight="1.0000000000000000e+00" itree="919">
      <Node pos="s" depth="0" NCoef="0" IVar="4" Cut="3.5488527343750000e+04" cType="1" res="3.9691570401191711e-01" rms="4.8925825953483582e-01" purity="3.9691573381423950e-01" nType="0">
        <Node pos="l" depth="1" NCoef="0" IVar="4" Cut="2.3924916015625000e+04" cType="1" res="2.6149424910545349e-01" rms="4.3956649303436279e-01" purity="2.6159793138504028e-01" nType="0">
          <Node pos="l" depth="2" NCoef="0" IVar="-1" Cut="0.0000000000000000e+00" cType="1" res="8.2470383495092392e-04" rms="3.1058111786842346e-01" purity="2.2019785642623901e-01" nType="-99"/>
          <Node pos="r" depth="2" NCoef="0" IVar="-1" Cut="0.0000000000000000e+00" cType="1" res="-1.7960520926862955e-03" rms="3.9322328567504883e-01" purity="3.8940900564193726e-01" nType="-99"/>
        </Node>
        <Node pos="r" depth="1" NCoef="0" IVar="3" Cut="8.5313218750000000e+04" cType="1" res="7.0685243606567383e-01" rms="4.5520552992820740e-01" purity="7.0685243606567383e-01" nType="0">
          <Node pos="l" depth="2" NCoef="0" IVar="-1" Cut="0.0000000000000000e+00" cType="1" res="4.2258069152012467e-04" rms="3.3552613854408264e-01" purity="8.0109035968780518e-01" nType="-99"/>
          <Node pos="r" depth="2" NCoef="0" IVar="-1" Cut="0.0000000000000000e+00" cType="1" res="4.0083791827782989e-04" rms="4.0173420310020447e-01" purity="6.8714439868927002e-01" nType="-99"/>
        </Node>
      </Node>
    </BinaryTree>
    <BinaryTree type="DecisionTree" boostWeight="1.0000000000000000e+00" itree="920">
      <Node pos="s" depth="0" NCoef="0" IVar="3" Cut="8.9427171875000000e+04" cType="1" res="6.2013149261474609e-01" rms="4.8543444275856018e-01" purity="6.2032854557037354e-01" nType="0">
        <Node pos="l" depth="1" NCoef="0" IVar="3" Cut="8.8493679687500000e+04" cType="1" res="7.3204857110977173e-01" rms="4.4289216399192810e-01" purity="7.3222607374191284e-01" nType="0">
          <Node pos="l" depth="2" NCoef="0" IVar="-1" Cut="0.0000000000000000e+00" cType="1" res="2.1981897589284927e-04" rms="3.4456345438957214e-01" purity="4.1653612256050110e-01" nType="-99"/>
          <Node pos="r" depth="2" NCoef="0" IVar="-1" Cut="0.0000000000000000e+00" cType="1" res="2.1742900571553037e-05" rms="3.2516151666641235e-01" purity="9.1050601005554199e-01" nType="-99"/>
        </Node>
        <Node pos="r" depth="1" NCoef="0" IVar="3" Cut="9.9028179687500000e+04" cType="1" res="3.9347907900810242e-01" rms="4.8852154612541199e-01" purity="3.9347907900810242e-01" nType="0">
          <Node pos="l" depth="2" NCoef="0" IVar="-1" Cut="0.0000000000000000e+00" cType="1" res="-3.6509052733890712e-05" rms="3.4929490089416504e-01" purity="3.8428884744644165e-01" nType="-99"/>
          <Node pos="r" depth="2" NCoef="0" IVar="-1" Cut="0.0000000000000000e+00" cType="1" res="1.2439636047929525e-03" rms="3.8954973220825195e-01" purity="5.1578480005264282e-01" nType="-99"/>
        </Node>
      </Node>
    </BinaryTree>
    <BinaryTree type="DecisionTree" boostWeight="1.0000000000000000e+00" itree="921">
      <Node pos="s" depth="0" NCoef="0" IVar="5" Cut="1.5917245312500000e+05" cType="1" res="4.8041862249374390e-01" rms="4.9980264902114868e-01" purity="4.8078048229217529e-01" nType="0">
        <Node pos="l" depth="1" NCoef="0" IVar="-1" Cut="0.0000000000000000e+00" cType="1" res="1.5185637494141702e-05" rms="3.7628462910652161e-01" purity="7.7035588026046753e-01" nType="-99"/>
        <Node pos="r" depth="1" NCoef="0" IVar="4" Cut="7.8737789062500000e+04" cType="1" res="4.0467339754104614e-01" rms="4.9106779694557190e-01" purity="4.0512979030609131e-01" nType="0">
          <Node pos="l" depth="2" NCoef="0" IVar="-1" Cut="0.0000000000000000e+00" cType="1" res="1.0018857210525312e-05" rms="3.6553034186363220e-01" purity="3.6073854565620422e-01" nType="-99"/>
          <Node pos="r" depth="2" NCoef="0" IVar="-1" Cut="0.0000000000000000e+00" cType="1" res="7.4519694317132235e-04" rms="2.9287922382354736e-01" purity="9.0306293964385986e-01" nType="-99"/>
        </Node>
      </Node>
    </BinaryTree>
    <BinaryTree type="DecisionTree" boostWeight="1.0000000000000000e+00" itree="922">
      <Node pos="s" depth="0" NCoef="0" IVar="2" Cut="9.1774695312500000e+04" cType="1" res="5.3048104047775269e-01" rms="4.9919378757476807e-01" purity="5.3068441152572632e-01" nType="0">
        <Node pos="l" depth="1" NCoef="0" IVar="0" Cut="1.0000000000000000e+00" cType="1" res="2.6203580200672150e-03" rms="3.4813359379768372e-01" purity="3.8271889090538025e-01" nType="0">
          <Node pos="l" depth="2" NCoef="0" IVar="-1" Cut="0.0000000000000000e+00" cType="1" res="-9.9877268075942993e-04" rms="2.8012475371360779e-01" purity="1.4057257771492004e-01" nType="-99"/>
          <Node pos="r" depth="2" NCoef="0" IVar="-1" Cut="0.0000000000000000e+00" cType="1" res="3.3041584538295865e-04" rms="3.9692124724388123e-01" purity="5.9106689691543579e-01" nType="-99"/>
        </Node>
        <Node pos="r" depth="1" NCoef="0" IVar="2" Cut="9.1973804687500000e+04" cType="1" res="6.9017231464385986e-01" rms="4.6264761686325073e-01" purity="6.9054675102233887e-01" nType="0">
          <Node pos="l" depth="2" NCoef="0" IVar="-1" Cut="0.0000000000000000e+00" cType="1" res="2.0662506358348764e-05" rms="3.0253458023071289e-01" purity="9.2248553037643433e-01" nType="-99"/>
          <Node pos="r" depth="2" NCoef="0" IVar="-1" Cut="0.0000000000000000e+00" cType="1" res="1.5900043945293874e-04" rms="3.6318263411521912e-01" purity="3.8242712616920471e-01" nType="-99"/>
        </Node>
      </Node>
    </BinaryTree>
    <BinaryTree type="DecisionTree" boostWeight="1.0000000000000000e+00" itree="923">
      <Node pos="s" depth="0" NCoef="0" IVar="5" Cut="1.6770807812500000e+05" cType="1" res="4.8085528612136841e-01" rms="4.9963334202766418e-01" purity="4.8085528612136841e-01" nType="0">
        <Node pos="l" depth="1" NCoef="0" IVar="3" Cut="8.9992273437500000e+04" cType="1" res="6.9355756044387817e-01" rms="4.6101570129394531e-01" purity="6.9355756044387817e-01" nType="0">
          <Node pos="l" depth="2" NCoef="0" IVar="-1" Cut="0.0000000000000000e+00" cType="1" res="-2.2585135884582996e-03" rms="2.2153060138225555e-01" purity="6.5538622438907623e-02" nType="-99"/>
          <Node pos="r" depth="2" NCoef="0" IVar="-1" Cut="0.0000000000000000e+00" cType="1" res="1.5361145415226929e-05" rms="3.1866085529327393e-01" purity="8.5682743787765503e-01" nType="-99"/>
        </Node>
        <Node pos="r" depth="1" NCoef="0" IVar="4" Cut="8.0324656250000000e+04" cType="1" res="4.1452112793922424e-01" rms="4.9263918399810791e-01" purity="4.1452112793922424e-01" nType="0">
          <Node pos="l" depth="2" NCoef="0" IVar="-1" Cut="0.0000000000000000e+00" cType="1" res="-3.9823957195039839e-05" rms="3.7398993968963623e-01" purity="3.6735376715660095e-01" nType="-99"/>
          <Node pos="r" depth="2" NCoef="0" IVar="-1" Cut="0.0000000000000000e+00" cType="1" res="8.0024800263345242e-04" rms="2.8359121084213257e-01" purity="9.0804004669189453e-01" nType="-99"/>
        </Node>
      </Node>
    </BinaryTree>
    <BinaryTree type="DecisionTree" boostWeight="1.0000000000000000e+00" itree="924">
      <Node pos="s" depth="0" NCoef="0" IVar="0" Cut="1.0000000000000000e+00" cType="1" res="2.6384934782981873e-01" rms="4.8560890555381775e-01" purity="5.7607281208038330e-01" nType="0">
        <Node pos="l" depth="1" NCoef="0" IVar="4" Cut="2.1009341796875000e+04" cType="1" res="5.7129567861557007e-01" rms="4.9489083886146545e-01" purity="5.7129567861557007e-01" nType="0">
          <Node pos="l" depth="2" NCoef="0" IVar="-1" Cut="0.0000000000000000e+00" cType="1" res="-2.1973629482090473e-03" rms="1.8900544941425323e-01" purity="3.7047803401947021e-02" nType="-99"/>
          <Node pos="r" depth="2" NCoef="0" IVar="-1" Cut="0.0000000000000000e+00" cType="1" res="1.8926964912679978e-05" rms="4.4285437464714050e-01" purity="7.9292184114456177e-01" nType="-99"/>
        </Node>
        <Node pos="r" depth="1" NCoef="0" IVar="5" Cut="3.6188793750000000e+05" cType="1" res="5.8439296483993530e-01" rms="4.9282637238502502e-01" purity="5.8439296483993530e-01" nType="0">
          <Node pos="l" depth="2" NCoef="0" IVar="-1" Cut="0.0000000000000000e+00" cType="1" res="-3.3907062606886029e-04" rms="4.2980206012725830e-01" purity="3.9378872513771057e-01" nType="-99"/>
          <Node pos="r" depth="2" NCoef="0" IVar="-1" Cut="0.0000000000000000e+00" cType="1" res="1.0071432916447520e-03" rms="3.6217468976974487e-01" purity="7.9829019308090210e-01" nType="-99"/>
        </Node>
      </Node>
    </BinaryTree>
    <BinaryTree type="DecisionTree" boostWeight="1.0000000000000000e+00" itree="925">
      <Node pos="s" depth="0" NCoef="0" IVar="1" Cut="1.9914971875000000e+05" cType="1" res="4.5374873280525208e-01" rms="4.9802637100219727e-01" purity="4.5407155156135559e-01" nType="0">
        <Node pos="l" depth="1" NCoef="0" IVar="2" Cut="8.9723593750000000e+04" cType="1" res="5.1845639944076538e-01" rms="5.1794594526290894e-01" purity="5.8503103256225586e-01" nType="0">
          <Node pos="l" depth="2" NCoef="0" IVar="-1" Cut="0.0000000000000000e+00" cType="1" res="2.6768704628921114e-05" rms="3.9165845513343811e-01" purity="8.1808942556381226e-01" nType="-99"/>
          <Node pos="r" depth="2" NCoef="0" IVar="-1" Cut="0.0000000000000000e+00" cType="1" res="5.7195505360141397e-04" rms="3.3532178401947021e-01" purity="2.3628540337085724e-01" nType="-99"/>
        </Node>
        <Node pos="r" depth="1" NCoef="0" IVar="0" Cut="4.0000000000000000e+00" cType="1" res="7.4536311440169811e-03" rms="3.5715836286544800e-01" purity="4.1763600707054138e-01" nType="0">
          <Node pos="l" depth="2" NCoef="0" IVar="-1" Cut="0.0000000000000000e+00" cType="1" res="1.0428138921270147e-04" rms="3.6527866125106812e-01" purity="3.7650865316390991e-01" nType="-99"/>
          <Node pos="r" depth="2" NCoef="0" IVar="-1" Cut="0.0000000000000000e+00" cType="1" res="2.6930173044092953e-04" rms="2.1592542529106140e-01" purity="9.5204633474349976e-01" nType="-99"/>
        </Node>
      </Node>
    </BinaryTree>
    <BinaryTree type="DecisionTree" boostWeight="1.0000000000000000e+00" itree="926">
      <Node pos="s" depth="0" NCoef="0" IVar="0" Cut="1.0000000000000000e+00" cType="1" res="3.3934995532035828e-01" rms="4.8965153098106384e-01" purity="6.3644391298294067e-01" nType="0">
        <Node pos="l" depth="1" NCoef="0" IVar="4" Cut="1.9615392578125000e+04" cType="1" res="6.5754306316375732e-01" rms="4.7453153133392334e-01" purity="6.5754306316375732e-01" nType="0">
          <Node pos="l" depth="2" NCoef="0" IVar="-1" Cut="0.0000000000000000e+00" cType="1" res="5.9287385083734989e-03" rms="2.2920198738574982e-01" purity="5.5872607976198196e-02" nType="-99"/>
          <Node pos="r" depth="2" NCoef="0" IVar="-1" Cut="0.0000000000000000e+00" cType="1" res="2.0931696781190112e-05" rms="4.0391844511032104e-01" purity="8.3321106433868408e-01" nType="-99"/>
        </Node>
        <Node pos="r" depth="1" NCoef="0" IVar="5" Cut="3.6762212500000000e+05" cType="1" res="5.9175688028335571e-01" rms="4.9150857329368591e-01" purity="5.9175688028335571e-01" nType="0">
          <Node pos="l" depth="2" NCoef="0" IVar="-1" Cut="0.0000000000000000e+00" cType="1" res="-2.0676264830399305e-04" rms="4.2505130171775818e-01" purity="4.0681102871894836e-01" nType="-99"/>
          <Node pos="r" depth="2" NCoef="0" IVar="-1" Cut="0.0000000000000000e+00" cType="1" res="1.0025778319686651e-03" rms="3.5403388738632202e-01" purity="8.0727225542068481e-01" nType="-99"/>
        </Node>
      </Node>
    </BinaryTree>
    <BinaryTree type="DecisionTree" boostWeight="1.0000000000000000e+00" itree="927">
      <Node pos="s" depth="0" NCoef="0" IVar="1" Cut="2.0203215625000000e+05" cType="1" res="4.3789386749267578e-01" rms="4.9619090557098389e-01" purity="4.3805259466171265e-01" nType="0">
        <Node pos="l" depth="1" NCoef="0" IVar="2" Cut="8.9600773437500000e+04" cType="1" res="4.7668179869651794e-01" rms="5.2306038141250610e-01" purity="5.4397737979888916e-01" nType="0">
          <Node pos="l" depth="2" NCoef="0" IVar="-1" Cut="0.0000000000000000e+00" cType="1" res="2.6704768970375881e-05" rms="3.9385294914245605e-01" purity="8.0732703208923340e-01" nType="-99"/>
          <Node pos="r" depth="2" NCoef="0" IVar="-1" Cut="0.0000000000000000e+00" cType="1" res="-7.3473923839628696e-04" rms="3.2141315937042236e-01" purity="2.1469251811504364e-01" nType="-99"/>
        </Node>
        <Node pos="r" depth="1" NCoef="0" IVar="0" Cut="4.0000000000000000e+00" cType="1" res="5.9020874323323369e-04" rms="3.5973954200744629e-01" purity="4.0417727828025818e-01" nType="0">
          <Node pos="l" depth="2" NCoef="0" IVar="-1" Cut="0.0000000000000000e+00" cType="1" res="-1.8741970416158438e-04" rms="3.6688694357872009e-01" purity="3.6580675840377808e-01" nType="-99"/>
          <Node pos="r" depth="2" NCoef="0" IVar="-1" Cut="0.0000000000000000e+00" cType="1" res="4.0016774437390268e-04" rms="2.2733643651008606e-01" purity="9.4595748186111450e-01" nType="-99"/>
        </Node>
      </Node>
    </BinaryTree>
    <BinaryTree type="DecisionTree" boostWeight="1.0000000000000000e+00" itree="928">
      <Node pos="s" depth="0" NCoef="0" IVar="0" Cut="1.0000000000000000e+00" cType="1" res="2.1981997787952423e-01" rms="4.7254210710525513e-01" purity="5.4809671640396118e-01" nType="0">
        <Node pos="l" depth="1" NCoef="0" IVar="4" Cut="2.1010888671875000e+04" cType="1" res="5.1431113481521606e-01" rms="4.9979513883590698e-01" purity="5.1431113481521606e-01" nType="0">
          <Node pos="l" depth="2" NCoef="0" IVar="-1" Cut="0.0000000000000000e+00" cType="1" res="1.0269294725731015e-03" rms="2.0390406250953674e-01" purity="4.4240057468414307e-02" nType="-99"/>
          <Node pos="r" depth="2" NCoef="0" IVar="-1" Cut="0.0000000000000000e+00" cType="1" res="1.7312773707089946e-05" rms="4.6594035625457764e-01" purity="7.5385522842407227e-01" nType="-99"/>
        </Node>
        <Node pos="r" depth="1" NCoef="0" IVar="0" Cut="4.0000000000000000e+00" cType="1" res="1.8521457910537720e-02" rms="3.9809298515319824e-01" purity="5.9830510616302490e-01" nType="0">
          <Node pos="l" depth="2" NCoef="0" IVar="-1" Cut="0.0000000000000000e+00" cType="1" res="3.9438979001715779e-04" rms="4.1413870453834534e-01" purity="5.5480331182479858e-01" nType="-99"/>
          <Node pos="r" depth="2" NCoef="0" IVar="-1" Cut="0.0000000000000000e+00" cType="1" res="4.5234113349579275e-04" rms="2.2674940526485443e-01" purity="9.4650280475616455e-01" nType="-99"/>
        </Node>
      </Node>
    </BinaryTree>
    <BinaryTree type="DecisionTree" boostWeight="1.0000000000000000e+00" itree="929">
      <Node pos="s" depth="0" NCoef="0" IVar="5" Cut="1.6215667187500000e+05" cType="1" res="6.3124454021453857e-01" rms="4.8285698890686035e-01" purity="6.3180619478225708e-01" nType="0">
        <Node pos="l" depth="1" NCoef="0" IVar="-1" Cut="0.0000000000000000e+00" cType="1" res="1.5310200979001820e-05" rms="2.6899984478950500e-01" purity="8.9892351627349854e-01" nType="-99"/>
        <Node pos="r" depth="1" NCoef="0" IVar="1" Cut="1.9996429687500000e+05" cType="1" res="0.0000000000000000e+00" rms="0.0000000000000000e+00" purity="4.7237631678581238e-01" nType="0">
          <Node pos="l" depth="2" NCoef="0" IVar="-1" Cut="0.0000000000000000e+00" cType="1" res="2.7258749469183385e-05" rms="4.8094564676284790e-01" purity="6.4032721519470215e-01" nType="-99"/>
          <Node pos="r" depth="2" NCoef="0" IVar="-1" Cut="0.0000000000000000e+00" cType="1" res="9.5789684564806521e-05" rms="3.6053794622421265e-01" purity="4.2779970169067383e-01" nType="-99"/>
        </Node>
      </Node>
    </BinaryTree>
    <BinaryTree type="DecisionTree" boostWeight="1.0000000000000000e+00" itree="930">
      <Node pos="s" depth="0" NCoef="0" IVar="3" Cut="9.8787679687500000e+04" cType="1" res="3.9145779609680176e-01" rms="4.8846772313117981e-01" purity="3.9200678467750549e-01" nType="0">
        <Node pos="l" depth="1" NCoef="0" IVar="5" Cut="5.8553987500000000e+05" cType="1" res="3.8633427023887634e-01" rms="4.8731791973114014e-01" purity="3.8682588934898376e-01" nType="0">
          <Node pos="l" depth="2" NCoef="0" IVar="-1" Cut="0.0000000000000000e+00" cType="1" res="-2.1314476725819986e-06" rms="3.6086046695709229e-01" purity="3.1871581077575684e-01" nType="-99"/>
          <Node pos="r" depth="2" NCoef="0" IVar="-1" Cut="0.0000000000000000e+00" cType="1" res="1.5736594796180725e-03" rms="2.9516327381134033e-01" purity="8.6958956718444824e-01" nType="-99"/>
        </Node>
        <Node pos="r" depth="1" NCoef="0" IVar="-1" Cut="0.0000000000000000e+00" cType="1" res="1.6736049437895417e-03" rms="4.0698269009590149e-01" purity="5.1169234514236450e-01" nType="-99"/>
      </Node>
    </BinaryTree>
    <BinaryTree type="DecisionTree" boostWeight="1.0000000000000000e+00" itree="931">
      <Node pos="s" depth="0" NCoef="0" IVar="5" Cut="1.6699128125000000e+05" cType="1" res="1.6251221273804015e+34" rms="0.0000000000000000e+00" purity="5.4973983764648438e-01" nType="0">
        <Node pos="l" depth="1" NCoef="0" IVar="3" Cut="9.0141054687500000e+04" cType="1" res="6.9989591836929321e-01" rms="4.5830297470092773e-01" purity="6.9989597797393799e-01" nType="0">
          <Node pos="l" depth="2" NCoef="0" IVar="-1" Cut="0.0000000000000000e+00" cType="1" res="-2.4738730862736702e-03" rms="2.1436434984207153e-01" purity="6.3451163470745087e-02" nType="-99"/>
          <Node pos="r" depth="2" NCoef="0" IVar="-1" Cut="0.0000000000000000e+00" cType="1" res="1.5404744772240520e-05" rms="3.1550180912017822e-01" purity="8.5725456476211548e-01" nType="-99"/>
        </Node>
        <Node pos="r" depth="1" NCoef="0" IVar="2" Cut="9.1787367187500000e+04" cType="1" res="7.8562367412635678e+33" rms="0.0000000000000000e+00" purity="5.1110684871673584e-01" nType="0">
          <Node pos="l" depth="2" NCoef="0" IVar="-1" Cut="0.0000000000000000e+00" cType="1" res="3.3081698347814381e-04" rms="3.6413580179214478e-01" purity="4.3454349040985107e-01" nType="-99"/>
          <Node pos="r" depth="2" NCoef="0" IVar="-1" Cut="0.0000000000000000e+00" cType="1" res="2.0699626475106925e-05" rms="5.0047487020492554e-01" purity="6.2212264537811279e-01" nType="-99"/>
        </Node>
      </Node>
    </BinaryTree>
    <BinaryTree type="DecisionTree" boostWeight="1.0000000000000000e+00" itree="932">
      <Node pos="s" depth="0" NCoef="0" IVar="1" Cut="2.0237307812500000e+05" cType="1" res="5.3070175647735596e-01" rms="4.9947342276573181e-01" purity="5.3119832277297974e-01" nType="0">
        <Node pos="l" depth="1" NCoef="0" IVar="2" Cut="8.9600773437500000e+04" cType="1" res="9.9493982270359993e-04" rms="0.0000000000000000e+00" purity="7.3311901092529297e-01" nType="0">
          <Node pos="l" depth="2" NCoef="0" IVar="-1" Cut="0.0000000000000000e+00" cType="1" res="1.8194623407907784e-05" rms="2.8344061970710754e-01" purity="9.1424578428268433e-01" nType="-99"/>
          <Node pos="r" depth="2" NCoef="0" IVar="-1" Cut="0.0000000000000000e+00" cType="1" res="-8.1818684702739120e-04" rms="3.1991294026374817e-01" purity="2.2498646378517151e-01" nType="-99"/>
        </Node>
        <Node pos="r" depth="1" NCoef="0" IVar="4" Cut="7.7972640625000000e+04" cType="1" res="4.2287924885749817e-01" rms="4.9466195702552795e-01" purity="4.2364025115966797e-01" nType="0">
          <Node pos="l" depth="2" NCoef="0" IVar="-1" Cut="0.0000000000000000e+00" cType="1" res="2.3630495707038790e-04" rms="3.6955836415290833e-01" purity="3.7452217936515808e-01" nType="-99"/>
          <Node pos="r" depth="2" NCoef="0" IVar="-1" Cut="0.0000000000000000e+00" cType="1" res="8.8569417130202055e-04" rms="2.7816697955131531e-01" purity="9.1679149866104126e-01" nType="-99"/>
        </Node>
      </Node>
    </BinaryTree>
    <BinaryTree type="DecisionTree" boostWeight="1.0000000000000000e+00" itree="933">
      <Node pos="s" depth="0" NCoef="0" IVar="2" Cut="9.1849609375000000e+04" cType="1" res="4.7228935360908508e-01" rms="4.9928659200668335e-01" purity="4.7243383526802063e-01" nType="0">
        <Node pos="l" depth="1" NCoef="0" IVar="4" Cut="7.0948406250000000e+04" cType="1" res="3.8416340947151184e-01" rms="4.8649072647094727e-01" purity="3.8425478339195251e-01" nType="0">
          <Node pos="l" depth="2" NCoef="0" IVar="-1" Cut="0.0000000000000000e+00" cType="1" res="-6.5378066210541874e-05" rms="3.5461542010307312e-01" purity="3.2910412549972534e-01" nType="-99"/>
          <Node pos="r" depth="2" NCoef="0" IVar="-1" Cut="0.0000000000000000e+00" cType="1" res="6.1421061400324106e-04" rms="3.1552180647850037e-01" purity="8.8276201486587524e-01" nType="-99"/>
        </Node>
        <Node pos="r" depth="1" NCoef="0" IVar="2" Cut="9.2047007812500000e+04" cType="1" res="6.0552269220352173e-01" rms="4.8873814940452576e-01" purity="6.0574752092361450e-01" nType="0">
          <Node pos="l" depth="2" NCoef="0" IVar="-1" Cut="0.0000000000000000e+00" cType="1" res="2.0860907170572318e-05" rms="3.7157902121543884e-01" purity="8.7504798173904419e-01" nType="-99"/>
          <Node pos="r" depth="2" NCoef="0" IVar="-1" Cut="0.0000000000000000e+00" cType="1" res="5.2976864390075207e-04" rms="3.6523884534835815e-01" purity="4.0407767891883850e-01" nType="-99"/>
        </Node>
      </Node>
    </BinaryTree>
    <BinaryTree type="DecisionTree" boostWeight="1.0000000000000000e+00" itree="934">
      <Node pos="s" depth="0" NCoef="0" IVar="1" Cut="1.9130335937500000e+05" cType="1" res="5.3456342220306396e-01" rms="4.9880394339561462e-01" purity="5.3456348180770874e-01" nType="0">
        <Node pos="l" depth="1" NCoef="0" IVar="4" Cut="2.1703800781250000e+04" cType="1" res="1.2192888185381889e-02" rms="1.4196026325225830e-01" purity="8.6575520038604736e-01" nType="0">
          <Node pos="l" depth="2" NCoef="0" IVar="-1" Cut="0.0000000000000000e+00" cType="1" res="-1.6610327293165028e-04" rms="2.3640763759613037e-01" purity="1.1089017242193222e-01" nType="-99"/>
          <Node pos="r" depth="2" NCoef="0" IVar="-1" Cut="0.0000000000000000e+00" cType="1" res="2.6715983040048741e-05" rms="2.5325083732604980e-01" purity="9.4939935207366943e-01" nType="-99"/>
        </Node>
        <Node pos="r" depth="1" NCoef="0" IVar="4" Cut="7.6838750000000000e+04" cType="1" res="3.9241385459899902e-01" rms="4.8828804492950439e-01" purity="3.9241382479667664e-01" nType="0">
          <Node pos="l" depth="2" NCoef="0" IVar="-1" Cut="0.0000000000000000e+00" cType="1" res="-4.1279231663793325e-04" rms="3.5493969917297363e-01" purity="3.4696900844573975e-01" nType="-99"/>
          <Node pos="r" depth="2" NCoef="0" IVar="-1" Cut="0.0000000000000000e+00" cType="1" res="8.6320156697183847e-04" rms="2.9803022742271423e-01" purity="9.0035110712051392e-01" nType="-99"/>
        </Node>
      </Node>
    </BinaryTree>
    <BinaryTree type="DecisionTree" boostWeight="1.0000000000000000e+00" itree="935">
      <Node pos="s" depth="0" NCoef="0" IVar="0" Cut="1.0000000000000000e+00" cType="1" res="2.1717123687267303e-01" rms="4.7531491518020630e-01" purity="5.4470658302307129e-01" nType="0">
        <Node pos="l" depth="1" NCoef="0" IVar="4" Cut="1.9615392578125000e+04" cType="1" res="5.1164716482162476e-01" rms="4.9986433982849121e-01" purity="5.1164716482162476e-01" nType="0">
          <Node pos="l" depth="2" NCoef="0" IVar="-1" Cut="0.0000000000000000e+00" cType="1" res="1.3677981041837484e-04" rms="1.9145920872688293e-01" purity="3.9023339748382568e-02" nType="-99"/>
          <Node pos="r" depth="2" NCoef="0" IVar="-1" Cut="0.0000000000000000e+00" cType="1" res="1.7095640941988677e-05" rms="4.7468489408493042e-01" purity="7.3098886013031006e-01" nType="-99"/>
        </Node>
        <Node pos="r" depth="1" NCoef="0" IVar="5" Cut="7.0194675000000000e+05" cType="1" res="5.9390807151794434e-01" rms="4.9110209941864014e-01" purity="5.9390813112258911e-01" nType="0">
          <Node pos="l" depth="2" NCoef="0" IVar="-1" Cut="0.0000000000000000e+00" cType="1" res="2.2714750957675278e-04" rms="4.1742125153541565e-01" purity="5.3976869583129883e-01" nType="-99"/>
          <Node pos="r" depth="2" NCoef="0" IVar="-1" Cut="0.0000000000000000e+00" cType="1" res="2.4734807666391134e-03" rms="2.7377712726593018e-01" purity="9.0851104259490967e-01" nType="-99"/>
        </Node>
      </Node>
    </BinaryTree>
    <BinaryTree type="DecisionTree" boostWeight="1.0000000000000000e+00" itree="936">
      <Node pos="s" depth="0" NCoef="0" IVar="2" Cut="9.1787367187500000e+04" cType="1" res="inf" rms="0.0000000000000000e+00" purity="4.7072726488113403e-01" nType="0">
        <Node pos="l" depth="1" NCoef="0" IVar="4" Cut="3.6935207031250000e+04" cType="1" res="3.8610166311264038e-01" rms="4.8693904280662537e-01" purity="3.8640788197517395e-01" nType="0">
          <Node pos="l" depth="2" NCoef="0" IVar="-1" Cut="0.0000000000000000e+00" cType="1" res="-3.5879857023246586e-04" rms="3.3291819691658020e-01" purity="2.6137533783912659e-01" nType="-99"/>
          <Node pos="r" depth="2" NCoef="0" IVar="-1" Cut="0.0000000000000000e+00" cType="1" res="5.4236088180914521e-04" rms="4.0150713920593262e-01" purity="7.0395851135253906e-01" nType="-99"/>
        </Node>
        <Node pos="r" depth="1" NCoef="0" IVar="2" Cut="9.1981851562500000e+04" cType="1" res="5.9475177526473999e-01" rms="4.9135383963584900e-01" purity="5.9515833854675293e-01" nType="0">
          <Node pos="l" depth="2" NCoef="0" IVar="-1" Cut="0.0000000000000000e+00" cType="1" res="2.0815152311115526e-05" rms="3.7368279695510864e-01" purity="8.7357544898986816e-01" nType="-99"/>
          <Node pos="r" depth="2" NCoef="0" IVar="-1" Cut="0.0000000000000000e+00" cType="1" res="3.9728236151859164e-04" rms="3.6089056730270386e-01" purity="3.9058485627174377e-01" nType="-99"/>
        </Node>
      </Node>
    </BinaryTree>
    <BinaryTree type="DecisionTree" boostWeight="1.0000000000000000e+00" itree="937">
      <Node pos="s" depth="0" NCoef="0" IVar="2" Cut="8.9699531250000000e+04" cType="1" res="6.3244694471359253e-01" rms="4.8217317461967468e-01" purity="6.3257306814193726e-01" nType="0">
        <Node pos="l" depth="1" NCoef="0" IVar="1" Cut="2.1276242187500000e+05" cType="1" res="8.4998148679733276e-01" rms="3.5708957910537720e-01" purity="8.5015600919723511e-01" nType="0">
          <Node pos="l" depth="2" NCoef="0" IVar="-1" Cut="0.0000000000000000e+00" cType="1" res="1.6514335584361106e-05" rms="2.4512691795825958e-01" purity="9.3868970870971680e-01" nType="-99"/>
          <Node pos="r" depth="2" NCoef="0" IVar="-1" Cut="0.0000000000000000e+00" cType="1" res="1.7064901476260275e-04" rms="3.5917809605598450e-01" purity="4.4810333847999573e-01" nType="-99"/>
        </Node>
        <Node pos="r" depth="1" NCoef="0" IVar="5" Cut="3.4934259375000000e+05" cType="1" res="3.8400930166244507e-01" rms="4.8643308877944946e-01" purity="3.8408029079437256e-01" nType="0">
          <Node pos="l" depth="2" NCoef="0" IVar="-1" Cut="0.0000000000000000e+00" cType="1" res="-9.3986885622143745e-04" rms="3.3968299627304077e-01" purity="2.2157421708106995e-01" nType="-99"/>
          <Node pos="r" depth="2" NCoef="0" IVar="-1" Cut="0.0000000000000000e+00" cType="1" res="7.2551856283098459e-04" rms="3.6394533514976501e-01" purity="7.5110477209091187e-01" nType="-99"/>
        </Node>
      </Node>
    </BinaryTree>
    <BinaryTree type="DecisionTree" boostWeight="1.0000000000000000e+00" itree="938">
      <Node pos="s" depth="0" NCoef="0" IVar="5" Cut="1.6699128125000000e+05" cType="1" res="3.9356288640521077e+19" rms="0.0000000000000000e+00" purity="5.5082756280899048e-01" nType="0">
        <Node pos="l" depth="1" NCoef="0" IVar="4" Cut="1.8423304687500000e+04" cType="1" res="8.1868243217468262e-01" rms="3.8528108596801758e-01" purity="8.1868237257003784e-01" nType="0">
          <Node pos="l" depth="2" NCoef="0" IVar="-1" Cut="0.0000000000000000e+00" cType="1" res="2.5153392925858498e-03" rms="1.5709473192691803e-01" purity="2.5310372933745384e-02" nType="-99"/>
          <Node pos="r" depth="2" NCoef="0" IVar="-1" Cut="0.0000000000000000e+00" cType="1" res="1.5318293662858196e-05" rms="2.5154289603233337e-01" purity="9.2735129594802856e-01" nType="-99"/>
        </Node>
        <Node pos="r" depth="1" NCoef="0" IVar="3" Cut="9.8787578125000000e+04" cType="1" res="0.0000000000000000e+00" rms="0.0000000000000000e+00" purity="4.1234219074249268e-01" nType="0">
          <Node pos="l" depth="2" NCoef="0" IVar="-1" Cut="0.0000000000000000e+00" cType="1" res="-7.1968475822359324e-05" rms="3.6237481236457825e-01" purity="4.0381565690040588e-01" nType="-99"/>
          <Node pos="r" depth="2" NCoef="0" IVar="-1" Cut="0.0000000000000000e+00" cType="1" res="1.5759171219542623e-03" rms="3.9235845208168030e-01" purity="5.7773208618164062e-01" nType="-99"/>
        </Node>
      </Node>
    </BinaryTree>
    <BinaryTree type="DecisionTree" boostWeight="1.0000000000000000e+00" itree="939">
      <Node pos="s" depth="0" NCoef="0" IVar="0" Cut="1.0000000000000000e+00" cType="1" res="2.6477789878845215e-01" rms="4.8259621858596802e-01" purity="5.8034211397171021e-01" nType="0">
        <Node pos="l" depth="1" NCoef="0" IVar="4" Cut="1.9696000000000000e+04" cType="1" res="5.7137531042098999e-01" rms="4.9487933516502380e-01" purity="5.7137525081634521e-01" nType="0">
          <Node pos="l" depth="2" NCoef="0" IVar="-1" Cut="0.0000000000000000e+00" cType="1" res="-9.3108892906457186e-04" rms="1.8880896270275116e-01" purity="3.7013918161392212e-02" nType="-99"/>
          <Node pos="r" depth="2" NCoef="0" IVar="-1" Cut="0.0000000000000000e+00" cType="1" res="1.8882577933254652e-05" rms="4.4587770104408264e-01" purity="7.7851206064224243e-01" nType="-99"/>
        </Node>
        <Node pos="r" depth="1" NCoef="0" IVar="0" Cut="4.0000000000000000e+00" cType="1" res="1.3923432677984238e-02" rms="3.9397475123405457e-01" purity="5.9556293487548828e-01" nType="0">
          <Node pos="l" depth="2" NCoef="0" IVar="-1" Cut="0.0000000000000000e+00" cType="1" res="1.9050807168241590e-04" rms="4.1219034790992737e-01" purity="5.4548978805541992e-01" nType="-99"/>
          <Node pos="r" depth="2" NCoef="0" IVar="-1" Cut="0.0000000000000000e+00" cType="1" res="2.9583377181552351e-04" rms="2.1454973518848419e-01" purity="9.5290732383728027e-01" nType="-99"/>
        </Node>
      </Node>
    </BinaryTree>
    <BinaryTree type="DecisionTree" boostWeight="1.0000000000000000e+00" itree="940">
      <Node pos="s" depth="0" NCoef="0" IVar="1" Cut="2.0309048437500000e+05" cType="1" res="5.8508545160293579e-01" rms="4.9285563826560974e-01" purity="5.8523160219192505e-01" nType="0">
        <Node pos="l" depth="1" NCoef="0" IVar="2" Cut="8.9636281250000000e+04" cType="1" res="2.0030947029590607e-01" rms="4.1272446513175964e-01" purity="8.0238211154937744e-01" nType="0">
          <Node pos="l" depth="2" NCoef="0" IVar="-1" Cut="0.0000000000000000e+00" cType="1" res="1.7031074094120413e-05" rms="2.3954302072525024e-01" purity="9.4146388769149780e-01" nType="-99"/>
          <Node pos="r" depth="2" NCoef="0" IVar="-1" Cut="0.0000000000000000e+00" cType="1" res="-2.7756081544794142e-04" rms="3.2778489589691162e-01" purity="2.2400209307670593e-01" nType="-99"/>
        </Node>
        <Node pos="r" depth="1" NCoef="0" IVar="0" Cut="1.0000000000000000e+00" cType="1" res="6.6529405303299427e-03" rms="3.6278766393661499e-01" purity="4.1538405418395996e-01" nType="0">
          <Node pos="l" depth="2" NCoef="0" IVar="-1" Cut="0.0000000000000000e+00" cType="1" res="-6.1671331059187651e-04" rms="3.0299168825149536e-01" purity="1.5369975566864014e-01" nType="-99"/>
          <Node pos="r" depth="2" NCoef="0" IVar="-1" Cut="0.0000000000000000e+00" cType="1" res="5.6661287089809775e-04" rms="4.0177690982818604e-01" purity="6.1332696676254272e-01" nType="-99"/>
        </Node>
      </Node>
    </BinaryTree>
    <BinaryTree type="DecisionTree" boostWeight="1.0000000000000000e+00" itree="941">
      <Node pos="s" depth="0" NCoef="0" IVar="0" Cut="1.0000000000000000e+00" cType="1" res="2.2036823630332947e-01" rms="4.7617742419242859e-01" purity="5.4243767261505127e-01" nType="0">
        <Node pos="l" depth="1" NCoef="0" IVar="4" Cut="2.1009341796875000e+04" cType="1" res="5.1280945539474487e-01" rms="4.9983587861061096e-01" purity="5.1280945539474487e-01" nType="0">
          <Node pos="l" depth="2" NCoef="0" IVar="-1" Cut="0.0000000000000000e+00" cType="1" res="-3.0075880931690335e-04" rms="1.9908194243907928e-01" purity="4.1441015899181366e-02" nType="-99"/>
          <Node pos="r" depth="2" NCoef="0" IVar="-1" Cut="0.0000000000000000e+00" cType="1" res="1.7270898752030917e-05" rms="4.6784168481826782e-01" purity="7.5158768892288208e-01" nType="-99"/>
        </Node>
        <Node pos="r" depth="1" NCoef="0" IVar="1" Cut="3.5226365625000000e+05" cType="1" res="5.8745664358139038e-01" rms="4.9241572618484497e-01" purity="5.8772623538970947e-01" nType="0">
          <Node pos="l" depth="2" NCoef="0" IVar="-1" Cut="0.0000000000000000e+00" cType="1" res="2.2034184075891972e-04" rms="4.1110426187515259e-01" purity="5.3005379438400269e-01" nType="-99"/>
          <Node pos="r" depth="2" NCoef="0" IVar="-1" Cut="0.0000000000000000e+00" cType="1" res="9.0549752349033952e-04" rms="3.8089871406555176e-01" purity="7.3194658756256104e-01" nType="-99"/>
        </Node>
      </Node>
    </BinaryTree>
    <BinaryTree type="DecisionTree" boostWeight="1.0000000000000000e+00" itree="942">
      <Node pos="s" depth="0" NCoef="0" IVar="4" Cut="5.3575156250000000e+04" cType="1" res="3.9333960413932800e-01" rms="4.8849111795425415e-01" purity="3.9333960413932800e-01" nType="0">
        <Node pos="l" depth="1" NCoef="0" IVar="4" Cut="2.0187388671875000e+04" cType="1" res="3.0110305547714233e-01" rms="4.5894125103950500e-01" purity="3.0129012465476990e-01" nType="0">
          <Node pos="l" depth="2" NCoef="0" IVar="-1" Cut="0.0000000000000000e+00" cType="1" res="1.4976690290495753e-03" rms="3.0288085341453552e-01" purity="2.0180258154869080e-01" nType="-99"/>
          <Node pos="r" depth="2" NCoef="0" IVar="-1" Cut="0.0000000000000000e+00" cType="1" res="-8.0023775808513165e-04" rms="4.0220558643341064e-01" purity="4.1615363955497742e-01" nType="-99"/>
        </Node>
        <Node pos="r" depth="1" NCoef="0" IVar="2" Cut="9.0442210937500000e+04" cType="1" res="8.4028583765029907e-01" rms="3.6634075641632080e-01" purity="8.4028583765029907e-01" nType="0">
          <Node pos="l" depth="2" NCoef="0" IVar="-1" Cut="0.0000000000000000e+00" cType="1" res="3.8169373874552548e-04" rms="3.3053302764892578e-01" purity="8.6102116107940674e-01" nType="-99"/>
          <Node pos="r" depth="2" NCoef="0" IVar="-1" Cut="0.0000000000000000e+00" cType="1" res="4.1843700455501676e-04" rms="3.5128951072692871e-01" purity="8.2642745971679688e-01" nType="-99"/>
        </Node>
      </Node>
    </BinaryTree>
    <BinaryTree type="DecisionTree" boostWeight="1.0000000000000000e+00" itree="943">
      <Node pos="s" depth="0" NCoef="0" IVar="0" Cut="1.0000000000000000e+00" cType="1" res="2.6432996988296509e-01" rms="4.8161417245864868e-01" purity="5.8730161190032959e-01" nType="0">
        <Node pos="l" depth="1" NCoef="0" IVar="4" Cut="2.1007773437500000e+04" cType="1" res="5.7775485515594482e-01" rms="4.9391716718673706e-01" purity="5.7775485515594482e-01" nType="0">
          <Node pos="l" depth="2" NCoef="0" IVar="-1" Cut="0.0000000000000000e+00" cType="1" res="8.6490984540432692e-04" rms="2.0528875291347504e-01" purity="4.4194187968969345e-02" nType="-99"/>
          <Node pos="r" depth="2" NCoef="0" IVar="-1" Cut="0.0000000000000000e+00" cType="1" res="1.9024118955712765e-05" rms="4.3735885620117188e-01" purity="8.0060487985610962e-01" nType="-99"/>
        </Node>
        <Node pos="r" depth="1" NCoef="0" IVar="0" Cut="4.0000000000000000e+00" cType="1" res="1.4575987122952938e-02" rms="3.9434656500816345e-01" purity="6.0326385498046875e-01" nType="0">
          <Node pos="l" depth="2" NCoef="0" IVar="-1" Cut="0.0000000000000000e+00" cType="1" res="2.1789058519061655e-04" rms="4.1135251522064209e-01" purity="5.5723553895950317e-01" nType="-99"/>
          <Node pos="r" depth="2" NCoef="0" IVar="-1" Cut="0.0000000000000000e+00" cType="1" res="2.9272126266732812e-04" rms="2.1817930042743683e-01" purity="9.5127403736114502e-01" nType="-99"/>
        </Node>
      </Node>
    </BinaryTree>
    <BinaryTree type="DecisionTree" boostWeight="1.0000000000000000e+00" itree="944">
      <Node pos="s" depth="0" NCoef="0" IVar="2" Cut="9.1847968750000000e+04" cType="1" res="4.6907597780227661e-01" rms="4.9930334091186523e-01" purity="4.6945771574974060e-01" nType="0">
        <Node pos="l" depth="1" NCoef="0" IVar="4" Cut="6.9496304687500000e+04" cType="1" res="0.0000000000000000e+00" rms="0.0000000000000000e+00" purity="3.7765601277351379e-01" nType="0">
          <Node pos="l" depth="2" NCoef="0" IVar="-1" Cut="0.0000000000000000e+00" cType="1" res="-4.4285145122557878e-04" rms="3.5592946410179138e-01" purity="3.2147660851478577e-01" nType="-99"/>
          <Node pos="r" depth="2" NCoef="0" IVar="-1" Cut="0.0000000000000000e+00" cType="1" res="6.9284724304452538e-04" rms="3.0883055925369263e-01" purity="8.8554614782333374e-01" nType="-99"/>
        </Node>
        <Node pos="r" depth="1" NCoef="0" IVar="2" Cut="9.2038664062500000e+04" cType="1" res="6.0759133100509644e-01" rms="4.8828691244125366e-01" purity="6.0774928331375122e-01" nType="0">
          <Node pos="l" depth="2" NCoef="0" IVar="-1" Cut="0.0000000000000000e+00" cType="1" res="2.0952886188752018e-05" rms="3.6835616827011108e-01" purity="8.8260793685913086e-01" nType="-99"/>
          <Node pos="r" depth="2" NCoef="0" IVar="-1" Cut="0.0000000000000000e+00" cType="1" res="6.9789901317562908e-05" rms="3.4919854998588562e-01" purity="4.0211567282676697e-01" nType="-99"/>
        </Node>
      </Node>
    </BinaryTree>
    <BinaryTree type="DecisionTree" boostWeight="1.0000000000000000e+00" itree="945">
      <Node pos="s" depth="0" NCoef="0" IVar="2" Cut="9.1759281250000000e+04" cType="1" res="4.6344423294067383e-01" rms="4.9866187572479248e-01" purity="4.6344426274299622e-01" nType="0">
        <Node pos="l" depth="1" NCoef="0" IVar="5" Cut="7.6843806250000000e+05" cType="1" res="3.7206152081489563e-01" rms="4.8335468769073486e-01" purity="3.7206155061721802e-01" nType="0">
          <Node pos="l" depth="2" NCoef="0" IVar="-1" Cut="0.0000000000000000e+00" cType="1" res="-1.9284638983663172e-04" rms="3.5615938901901245e-01" purity="3.3652955293655396e-01" nType="-99"/>
          <Node pos="r" depth="2" NCoef="0" IVar="-1" Cut="0.0000000000000000e+00" cType="1" res="2.4724721442908049e-03" rms="2.7655407786369324e-01" purity="9.0018916130065918e-01" nType="-99"/>
        </Node>
        <Node pos="r" depth="1" NCoef="0" IVar="2" Cut="9.1944304687500000e+04" cType="1" res="5.9070277214050293e-01" rms="4.9170419573783875e-01" purity="5.9085756540298462e-01" nType="0">
          <Node pos="l" depth="2" NCoef="0" IVar="-1" Cut="0.0000000000000000e+00" cType="1" res="2.0940131435054354e-05" rms="3.6801671981811523e-01" purity="8.7677907943725586e-01" nType="-99"/>
          <Node pos="r" depth="2" NCoef="0" IVar="-1" Cut="0.0000000000000000e+00" cType="1" res="-3.7251878529787064e-04" rms="3.4641522169113159e-01" purity="3.8551887869834900e-01" nType="-99"/>
        </Node>
      </Node>
    </BinaryTree>
    <BinaryTree type="DecisionTree" boostWeight="1.0000000000000000e+00" itree="946">
      <Node pos="s" depth="0" NCoef="0" IVar="4" Cut="3.7110277343750000e+04" cType="1" res="3.8631558418273926e-01" rms="4.8758503794670105e-01" purity="3.8708409667015076e-01" nType="0">
        <Node pos="l" depth="1" NCoef="0" IVar="4" Cut="2.3716402343750000e+04" cType="1" res="1.0393445916805575e+33" rms="0.0000000000000000e+00" purity="2.6674687862396240e-01" nType="0">
          <Node pos="l" depth="2" NCoef="0" IVar="-1" Cut="0.0000000000000000e+00" cType="1" res="8.6098548490554094e-04" rms="3.1194701790809631e-01" purity="2.1506838500499725e-01" nType="-99"/>
          <Node pos="r" depth="2" NCoef="0" IVar="-1" Cut="0.0000000000000000e+00" cType="1" res="-9.4549480127170682e-04" rms="4.0340229868888855e-01" purity="4.0196022391319275e-01" nType="-99"/>
        </Node>
        <Node pos="r" depth="1" NCoef="0" IVar="3" Cut="8.5456429687500000e+04" cType="1" res="7.0793372392654419e-01" rms="4.5698526501655579e-01" purity="7.1039354801177979e-01" nType="0">
          <Node pos="l" depth="2" NCoef="0" IVar="-1" Cut="0.0000000000000000e+00" cType="1" res="9.2986226081848145e-04" rms="3.6922726035118103e-01" purity="7.7481365203857422e-01" nType="-99"/>
          <Node pos="r" depth="2" NCoef="0" IVar="-1" Cut="0.0000000000000000e+00" cType="1" res="5.5273744510486722e-04" rms="4.0544277429580688e-01" purity="6.9775092601776123e-01" nType="-99"/>
        </Node>
      </Node>
    </BinaryTree>
    <BinaryTree type="DecisionTree" boostWeight="1.0000000000000000e+00" itree="947">
      <Node pos="s" depth="0" NCoef="0" IVar="3" Cut="8.9426328125000000e+04" cType="1" res="5.1999354362487793e-01" rms="4.9980646371841431e-01" purity="5.2019977569580078e-01" nType="0">
        <Node pos="l" depth="1" NCoef="0" IVar="3" Cut="8.8492710937500000e+04" cType="1" res="6.1222940683364868e-01" rms="4.8733544349670410e-01" purity="6.1257499456405640e-01" nType="0">
          <Node pos="l" depth="2" NCoef="0" IVar="-1" Cut="0.0000000000000000e+00" cType="1" res="6.5572327002882957e-04" rms="3.5683616995811462e-01" purity="3.9863383769989014e-01" nType="-99"/>
          <Node pos="r" depth="2" NCoef="0" IVar="-1" Cut="0.0000000000000000e+00" cType="1" res="2.2904790967004374e-05" rms="4.1694647073745728e-01" purity="8.2831507921218872e-01" nType="-99"/>
        </Node>
        <Node pos="r" depth="1" NCoef="0" IVar="0" Cut="3.0000000000000000e+00" cType="1" res="-2.3649272043257952e-03" rms="3.5004043579101562e-01" purity="3.9056831598281860e-01" nType="0">
          <Node pos="l" depth="2" NCoef="0" IVar="-1" Cut="0.0000000000000000e+00" cType="1" res="-3.6684499355033040e-04" rms="3.5895365476608276e-01" purity="3.1099179387092590e-01" nType="-99"/>
          <Node pos="r" depth="2" NCoef="0" IVar="-1" Cut="0.0000000000000000e+00" cType="1" res="1.7422650707885623e-03" rms="2.8239780664443970e-01" purity="9.0989202260971069e-01" nType="-99"/>
        </Node>
      </Node>
    </BinaryTree>
    <BinaryTree type="DecisionTree" boostWeight="1.0000000000000000e+00" itree="948">
      <Node pos="s" depth="0" NCoef="0" IVar="4" Cut="6.0238652343750000e+04" cType="1" res="3.8173833489418030e-01" rms="4.8614731431007385e-01" purity="3.8227424025535583e-01" nType="0">
        <Node pos="l" depth="1" NCoef="0" IVar="4" Cut="2.3109496093750000e+04" cType="1" res="3.1046265363693237e-01" rms="4.6300426125526428e-01" purity="3.1076002120971680e-01" nType="0">
          <Node pos="l" depth="2" NCoef="0" IVar="-1" Cut="0.0000000000000000e+00" cType="1" res="6.6923937993124127e-04" rms="3.0766654014587402e-01" purity="2.0880144834518433e-01" nType="-99"/>
          <Node pos="r" depth="2" NCoef="0" IVar="-1" Cut="0.0000000000000000e+00" cType="1" res="-4.2876522638835013e-04" rms="4.1054081916809082e-01" purity="4.5943969488143921e-01" nType="-99"/>
        </Node>
        <Node pos="r" depth="1" NCoef="0" IVar="1" Cut="2.6519528125000000e+05" cType="1" res="8.6057114601135254e-01" rms="3.4799116849899292e-01" purity="8.6382246017456055e-01" nType="0">
          <Node pos="l" depth="2" NCoef="0" IVar="-1" Cut="0.0000000000000000e+00" cType="1" res="3.5215023672208190e-04" rms="3.8071566820144653e-01" purity="8.0491912364959717e-01" nType="-99"/>
          <Node pos="r" depth="2" NCoef="0" IVar="-1" Cut="0.0000000000000000e+00" cType="1" res="1.0145434644073248e-03" rms="2.9396444559097290e-01" purity="9.0007430315017700e-01" nType="-99"/>
        </Node>
      </Node>
    </BinaryTree>
    <BinaryTree type="DecisionTree" boostWeight="1.0000000000000000e+00" itree="949">
      <Node pos="s" depth="0" NCoef="0" IVar="1" Cut="2.0309048437500000e+05" cType="1" res="0.0000000000000000e+00" rms="0.0000000000000000e+00" purity="4.4737574458122253e-01" nType="0">
        <Node pos="l" depth="1" NCoef="0" IVar="2" Cut="8.9670617187500000e+04" cType="1" res="4.7022759914398193e-01" rms="5.2353256940841675e-01" purity="5.4194158315658569e-01" nType="0">
          <Node pos="l" depth="2" NCoef="0" IVar="-1" Cut="0.0000000000000000e+00" cType="1" res="2.7159361707163043e-05" rms="4.1315093636512756e-01" purity="7.9154628515243530e-01" nType="-99"/>
          <Node pos="r" depth="2" NCoef="0" IVar="-1" Cut="0.0000000000000000e+00" cType="1" res="7.5343257049098611e-04" rms="3.3618256449699402e-01" purity="2.3158760368824005e-01" nType="-99"/>
        </Node>
        <Node pos="r" depth="1" NCoef="0" IVar="0" Cut="4.0000000000000000e+00" cType="1" res="3.6475609522312880e-03" rms="3.5943573713302612e-01" purity="4.1548770666122437e-01" nType="0">
          <Node pos="l" depth="2" NCoef="0" IVar="-1" Cut="0.0000000000000000e+00" cType="1" res="-1.2187950233055744e-05" rms="3.6612418293952942e-01" purity="3.7936881184577942e-01" nType="-99"/>
          <Node pos="r" depth="2" NCoef="0" IVar="-1" Cut="0.0000000000000000e+00" cType="1" res="3.5845008096657693e-04" rms="2.3424819111824036e-01" purity="9.4268751144409180e-01" nType="-99"/>
        </Node>
      </Node>
    </BinaryTree>
    <BinaryTree type="DecisionTree" boostWeight="1.0000000000000000e+00" itree="950">
      <Node pos="s" depth="0" NCoef="0" IVar="0" Cut="1.0000000000000000e+00" cType="1" res="2.1882255375385284e-01" rms="4.7568559646606445e-01" purity="5.4392713308334351e-01" nType="0">
        <Node pos="l" depth="1" NCoef="0" IVar="4" Cut="1.9639544921875000e+04" cType="1" res="5.1809638738632202e-01" rms="4.9967241287231445e-01" purity="5.1809638738632202e-01" nType="0">
          <Node pos="l" depth="2" NCoef="0" IVar="-1" Cut="0.0000000000000000e+00" cType="1" res="4.1320137679576874e-03" rms="2.1393607556819916e-01" purity="4.8863090574741364e-02" nType="-99"/>
          <Node pos="r" depth="2" NCoef="0" IVar="-1" Cut="0.0000000000000000e+00" cType="1" res="1.7456544810556807e-05" rms="4.7078096866607666e-01" purity="7.3683428764343262e-01" nType="-99"/>
        </Node>
        <Node pos="r" depth="1" NCoef="0" IVar="5" Cut="5.6477418750000000e+05" cType="1" res="5.8387631177902222e-01" rms="4.9291455745697021e-01" purity="5.8402425050735474e-01" nType="0">
          <Node pos="l" depth="2" NCoef="0" IVar="-1" Cut="0.0000000000000000e+00" cType="1" res="-2.0621840667445213e-04" rms="4.1796007752418518e-01" purity="5.0077581405639648e-01" nType="-99"/>
          <Node pos="r" depth="2" NCoef="0" IVar="-1" Cut="0.0000000000000000e+00" cType="1" res="1.6917234752327204e-03" rms="3.0931296944618225e-01" purity="8.7742334604263306e-01" nType="-99"/>
        </Node>
      </Node>
    </BinaryTree>
    <BinaryTree type="DecisionTree" boostWeight="1.0000000000000000e+00" itree="951">
      <Node pos="s" depth="0" NCoef="0" IVar="1" Cut="1.8991192187500000e+05" cType="1" res="4.4894129037857056e-01" rms="4.9738618731498718e-01" purity="4.4894126057624817e-01" nType="0">
        <Node pos="l" depth="1" NCoef="0" IVar="-1" Cut="0.0000000000000000e+00" cType="1" res="2.6688776415539905e-05" rms="4.3341052532196045e-01" purity="7.3807638883590698e-01" nType="-99"/>
        <Node pos="r" depth="1" NCoef="0" IVar="4" Cut="7.8424281250000000e+04" cType="1" res="3.9884319901466370e-01" rms="4.8966038227081299e-01" purity="3.9884319901466370e-01" nType="0">
          <Node pos="l" depth="2" NCoef="0" IVar="-1" Cut="0.0000000000000000e+00" cType="1" res="-1.9048586545977741e-04" rms="3.5323819518089294e-01" purity="3.5180267691612244e-01" nType="-99"/>
          <Node pos="r" depth="2" NCoef="0" IVar="-1" Cut="0.0000000000000000e+00" cType="1" res="9.1183878248557448e-04" rms="2.8178295493125916e-01" purity="9.1285097599029541e-01" nType="-99"/>
        </Node>
      </Node>
    </BinaryTree>
    <BinaryTree type="DecisionTree" boostWeight="1.0000000000000000e+00" itree="952">
      <Node pos="s" depth="0" NCoef="0" IVar="1" Cut="2.0203215625000000e+05" cType="1" res="4.9364250898361206e-01" rms="5.0007015466690063e-01" purity="4.9375310540199280e-01" nType="0">
        <Node pos="l" depth="1" NCoef="0" IVar="2" Cut="8.9719843750000000e+04" cType="1" res="6.3399702310562134e-01" rms="4.9603092670440674e-01" purity="6.7890578508377075e-01" nType="0">
          <Node pos="l" depth="2" NCoef="0" IVar="-1" Cut="0.0000000000000000e+00" cType="1" res="2.6742249247035943e-05" rms="3.2761621475219727e-01" purity="8.7827712297439575e-01" nType="-99"/>
          <Node pos="r" depth="2" NCoef="0" IVar="-1" Cut="0.0000000000000000e+00" cType="1" res="-3.5172537900507450e-04" rms="3.2352250814437866e-01" purity="2.2698327898979187e-01" nType="-99"/>
        </Node>
        <Node pos="r" depth="1" NCoef="0" IVar="4" Cut="7.7975500000000000e+04" cType="1" res="4.1011881828308105e-01" rms="4.9201810359954834e-01" purity="4.1027924418449402e-01" nType="0">
          <Node pos="l" depth="2" NCoef="0" IVar="-1" Cut="0.0000000000000000e+00" cType="1" res="-1.4124761219136417e-04" rms="3.6249804496765137e-01" purity="3.6218839883804321e-01" nType="-99"/>
          <Node pos="r" depth="2" NCoef="0" IVar="-1" Cut="0.0000000000000000e+00" cType="1" res="8.4569258615374565e-04" rms="2.8673395514488220e-01" purity="9.0834450721740723e-01" nType="-99"/>
        </Node>
      </Node>
    </BinaryTree>
    <BinaryTree type="DecisionTree" boostWeight="1.0000000000000000e+00" itree="953">
      <Node pos="s" depth="0" NCoef="0" IVar="1" Cut="1.9097787500000000e+05" cType="1" res="4.4846782088279724e-01" rms="4.9733734130859375e-01" purity="4.4846779108047485e-01" nType="0">
        <Node pos="l" depth="1" NCoef="0" IVar="-1" Cut="0.0000000000000000e+00" cType="1" res="2.6602247089613229e-05" rms="4.4855302572250366e-01" purity="7.1059966087341309e-01" nType="-99"/>
        <Node pos="r" depth="1" NCoef="0" IVar="4" Cut="3.6737023437500000e+04" cType="1" res="4.0032252669334412e-01" rms="4.8996368050575256e-01" purity="4.0032252669334412e-01" nType="0">
          <Node pos="l" depth="2" NCoef="0" IVar="-1" Cut="0.0000000000000000e+00" cType="1" res="-9.1340880317147821e-05" rms="3.3961507678031921e-01" purity="2.7324730157852173e-01" nType="-99"/>
          <Node pos="r" depth="2" NCoef="0" IVar="-1" Cut="0.0000000000000000e+00" cType="1" res="5.7791447034105659e-04" rms="3.9523553848266602e-01" purity="7.1589320898056030e-01" nType="-99"/>
        </Node>
      </Node>
    </BinaryTree>
    <BinaryTree type="DecisionTree" boostWeight="1.0000000000000000e+00" itree="954">
      <Node pos="s" depth="0" NCoef="0" IVar="3" Cut="9.5950968750000000e+04" cType="1" res="0.0000000000000000e+00" rms="7.4311858415603638e-01" purity="5.5222523212432861e-01" nType="0">
        <Node pos="l" depth="1" NCoef="0" IVar="5" Cut="4.6624825000000000e+05" cType="1" res="3.7681883573532104e-01" rms="4.8458889126777649e-01" purity="3.7681883573532104e-01" nType="0">
          <Node pos="l" depth="2" NCoef="0" IVar="-1" Cut="0.0000000000000000e+00" cType="1" res="-4.6754520735703409e-04" rms="3.5161307454109192e-01" purity="2.7887579798698425e-01" nType="-99"/>
          <Node pos="r" depth="2" NCoef="0" IVar="-1" Cut="0.0000000000000000e+00" cType="1" res="1.0221140692010522e-03" rms="3.3245787024497986e-01" purity="8.2208961248397827e-01" nType="-99"/>
        </Node>
        <Node pos="r" depth="1" NCoef="0" IVar="2" Cut="8.9368554687500000e+04" cType="1" res="8.5719585418701172e-01" rms="3.4987303614616394e-01" purity="8.5750526189804077e-01" nType="0">
          <Node pos="l" depth="2" NCoef="0" IVar="-1" Cut="0.0000000000000000e+00" cType="1" res="1.5550343960057944e-05" rms="2.4909180402755737e-01" purity="9.4958788156509399e-01" nType="-99"/>
          <Node pos="r" depth="2" NCoef="0" IVar="-1" Cut="0.0000000000000000e+00" cType="1" res="2.5207657017745078e-04" rms="3.6344134807586670e-01" purity="4.4790455698966980e-01" nType="-99"/>
        </Node>
      </Node>
    </BinaryTree>
    <BinaryTree type="DecisionTree" boostWeight="1.0000000000000000e+00" itree="955">
      <Node pos="s" depth="0" NCoef="0" IVar="1" Cut="2.0010664062500000e+05" cType="1" res="4.9903428554534912e-01" rms="5.0021326541900635e-01" purity="4.9941289424896240e-01" nType="0">
        <Node pos="l" depth="1" NCoef="0" IVar="2" Cut="8.9708992187500000e+04" cType="1" res="6.5206539630889893e-01" rms="4.9341616034507751e-01" purity="7.0155203342437744e-01" nType="0">
          <Node pos="l" depth="2" NCoef="0" IVar="-1" Cut="0.0000000000000000e+00" cType="1" res="2.7302097805659287e-05" rms="3.0438709259033203e-01" purity="8.9692270755767822e-01" nType="-99"/>
          <Node pos="r" depth="2" NCoef="0" IVar="-1" Cut="0.0000000000000000e+00" cType="1" res="1.7704765195958316e-04" rms="3.3126240968704224e-01" purity="2.2032830119132996e-01" nType="-99"/>
        </Node>
        <Node pos="r" depth="1" NCoef="0" IVar="4" Cut="5.3544507812500000e+04" cType="1" res="4.1446557641029358e-01" rms="4.9277105927467346e-01" purity="4.1483819484710693e-01" nType="0">
          <Node pos="l" depth="2" NCoef="0" IVar="-1" Cut="0.0000000000000000e+00" cType="1" res="-1.8095529230777174e-04" rms="3.5855814814567566e-01" purity="3.2670694589614868e-01" nType="-99"/>
          <Node pos="r" depth="2" NCoef="0" IVar="-1" Cut="0.0000000000000000e+00" cType="1" res="3.5590582410804927e-04" rms="3.4690475463867188e-01" purity="8.4176802635192871e-01" nType="-99"/>
        </Node>
      </Node>
    </BinaryTree>
    <BinaryTree type="DecisionTree" boostWeight="1.0000000000000000e+00" itree="956">
      <Node pos="s" depth="0" NCoef="0" IVar="5" Cut="1.8311439062500000e+05" cType="1" res="5.2522516250610352e-01" rms="4.9944263696670532e-01" purity="5.2530443668365479e-01" nType="0">
        <Node pos="l" depth="1" NCoef="0" IVar="2" Cut="8.9684601562500000e+04" cType="1" res="6.3502168655395508e-01" rms="4.8142406344413757e-01" purity="6.3502168655395508e-01" nType="0">
          <Node pos="l" depth="2" NCoef="0" IVar="-1" Cut="0.0000000000000000e+00" cType="1" res="1.8336686480324715e-05" rms="3.0501210689544678e-01" purity="8.7265598773956299e-01" nType="-99"/>
          <Node pos="r" depth="2" NCoef="0" IVar="-1" Cut="0.0000000000000000e+00" cType="1" res="-2.2058985196053982e-03" rms="2.4627108871936798e-01" purity="7.4905626475811005e-02" nType="-99"/>
        </Node>
        <Node pos="r" depth="1" NCoef="0" IVar="3" Cut="9.8787039062500000e+04" cType="1" res="4.5858711004257202e-01" rms="4.9840980768203735e-01" purity="4.5871451497077942e-01" nType="0">
          <Node pos="l" depth="2" NCoef="0" IVar="-1" Cut="0.0000000000000000e+00" cType="1" res="4.1816747398115695e-05" rms="3.7041079998016357e-01" purity="4.5318514108657837e-01" nType="-99"/>
          <Node pos="r" depth="2" NCoef="0" IVar="-1" Cut="0.0000000000000000e+00" cType="1" res="1.5790089964866638e-03" rms="4.1082370281219482e-01" purity="5.7488745450973511e-01" nType="-99"/>
        </Node>
      </Node>
    </BinaryTree>
    <BinaryTree type="DecisionTree" boostWeight="1.0000000000000000e+00" itree="957">
      <Node pos="s" depth="0" NCoef="0" IVar="4" Cut="5.5592992187500000e+04" cType="1" res="3.8827225565910339e-01" rms="4.8781785368919373e-01" purity="3.8872161507606506e-01" nType="0">
        <Node pos="l" depth="1" NCoef="0" IVar="5" Cut="7.1414443750000000e+05" cType="1" res="3.1058457493782043e-01" rms="4.6294569969177246e-01" purity="3.1078147888183594e-01" nType="0">
          <Node pos="l" depth="2" NCoef="0" IVar="-1" Cut="0.0000000000000000e+00" cType="1" res="-2.4315995688084513e-04" rms="3.5637521743774414e-01" purity="2.7869424223899841e-01" nType="-99"/>
          <Node pos="r" depth="2" NCoef="0" IVar="-1" Cut="0.0000000000000000e+00" cType="1" res="2.0189939532428980e-03" rms="3.1664222478866577e-01" purity="8.5050040483474731e-01" nType="-99"/>
        </Node>
        <Node pos="r" depth="1" NCoef="0" IVar="4" Cut="7.6768140625000000e+04" cType="1" res="8.3864575624465942e-01" rms="3.6896705627441406e-01" purity="8.3946341276168823e-01" nType="0">
          <Node pos="l" depth="2" NCoef="0" IVar="-1" Cut="0.0000000000000000e+00" cType="1" res="4.2785450932569802e-04" rms="3.9963188767433167e-01" purity="7.7059024572372437e-01" nType="-99"/>
          <Node pos="r" depth="2" NCoef="0" IVar="-1" Cut="0.0000000000000000e+00" cType="1" res="8.1855198368430138e-04" rms="2.9594027996063232e-01" purity="9.0119713544845581e-01" nType="-99"/>
        </Node>
      </Node>
    </BinaryTree>
    <BinaryTree type="DecisionTree" boostWeight="1.0000000000000000e+00" itree="958">
      <Node pos="s" depth="0" NCoef="0" IVar="5" Cut="1.6601217187500000e+05" cType="1" res="4.8119613528251648e-01" rms="5.0012427568435669e-01" purity="4.8176297545433044e-01" nType="0">
        <Node pos="l" depth="1" NCoef="0" IVar="5" Cut="1.5709578125000000e+05" cType="1" res="7.0676034688949585e-01" rms="4.5524734258651733e-01" purity="7.0676040649414062e-01" nType="0">
          <Node pos="l" depth="2" NCoef="0" IVar="-1" Cut="0.0000000000000000e+00" cType="1" res="-6.9799115881323814e-03" rms="1.9498269259929657e-01" purity="4.1531138122081757e-02" nType="-99"/>
          <Node pos="r" depth="2" NCoef="0" IVar="-1" Cut="0.0000000000000000e+00" cType="1" res="1.5372177585959435e-05" rms="3.1815344095230103e-01" purity="8.5565274953842163e-01" nType="-99"/>
        </Node>
        <Node pos="r" depth="1" NCoef="0" IVar="4" Cut="3.5711500000000000e+04" cType="1" res="4.1389334201812744e-01" rms="4.9315932393074036e-01" purity="4.1462928056716919e-01" nType="0">
          <Node pos="l" depth="2" NCoef="0" IVar="-1" Cut="0.0000000000000000e+00" cType="1" res="-8.9342647697776556e-04" rms="3.3734068274497986e-01" purity="2.8082025051116943e-01" nType="-99"/>
          <Node pos="r" depth="2" NCoef="0" IVar="-1" Cut="0.0000000000000000e+00" cType="1" res="5.6033674627542496e-04" rms="3.9958265423774719e-01" purity="7.0952188968658447e-01" nType="-99"/>
        </Node>
      </Node>
    </BinaryTree>
    <BinaryTree type="DecisionTree" boostWeight="1.0000000000000000e+00" itree="959">
      <Node pos="s" depth="0" NCoef="0" IVar="2" Cut="9.1808140625000000e+04" cType="1" res="4.6708658337593079e-01" rms="4.9891552329063416e-01" purity="4.6708658337593079e-01" nType="0">
        <Node pos="l" depth="1" NCoef="0" IVar="0" Cut="1.0000000000000000e+00" cType="1" res="5.9928563423454762e-03" rms="3.5403397679328918e-01" purity="3.7720936536788940e-01" nType="0">
          <Node pos="l" depth="2" NCoef="0" IVar="-1" Cut="0.0000000000000000e+00" cType="1" res="-1.3274081284180284e-03" rms="2.8028661012649536e-01" purity="1.2641851603984833e-01" nType="-99"/>
          <Node pos="r" depth="2" NCoef="0" IVar="-1" Cut="0.0000000000000000e+00" cType="1" res="8.0524157965555787e-04" rms="4.0643635392189026e-01" purity="5.9542989730834961e-01" nType="-99"/>
        </Node>
        <Node pos="r" depth="1" NCoef="0" IVar="2" Cut="9.2002218750000000e+04" cType="1" res="5.9710246324539185e-01" rms="4.9063882231712341e-01" purity="5.9747970104217529e-01" nType="0">
          <Node pos="l" depth="2" NCoef="0" IVar="-1" Cut="0.0000000000000000e+00" cType="1" res="2.0807498003705405e-05" rms="3.7900736927986145e-01" purity="8.7134605646133423e-01" nType="-99"/>
          <Node pos="r" depth="2" NCoef="0" IVar="-1" Cut="0.0000000000000000e+00" cType="1" res="-3.8730755477445200e-05" rms="3.5069516301155090e-01" purity="3.9875832200050354e-01" nType="-99"/>
        </Node>
      </Node>
    </BinaryTree>
    <BinaryTree type="DecisionTree" boostWeight="1.0000000000000000e+00" itree="960">
      <Node pos="s" depth="0" NCoef="0" IVar="4" Cut="3.5519035156250000e+04" cType="1" res="3.9057981967926025e-01" rms="4.8830845952033997e-01" purity="3.9122900366783142e-01" nType="0">
        <Node pos="l" depth="1" NCoef="0" IVar="4" Cut="2.3705007812500000e+04" cType="1" res="2.6740682125091553e-01" rms="4.4287350773811340e-01" purity="2.6774543523788452e-01" nType="0">
          <Node pos="l" depth="2" NCoef="0" IVar="-1" Cut="0.0000000000000000e+00" cType="1" res="1.1632338864728808e-03" rms="3.1039947271347046e-01" purity="2.2341632843017578e-01" nType="-99"/>
          <Node pos="r" depth="2" NCoef="0" IVar="-1" Cut="0.0000000000000000e+00" cType="1" res="-8.8617054279893637e-04" rms="3.9768329262733459e-01" purity="3.9361876249313354e-01" nType="-99"/>
        </Node>
        <Node pos="r" depth="1" NCoef="0" IVar="2" Cut="8.9558125000000000e+04" cType="1" res="6.9351971149444580e-01" rms="4.6218091249465942e-01" purity="6.9512999057769775e-01" nType="0">
          <Node pos="l" depth="2" NCoef="0" IVar="-1" Cut="0.0000000000000000e+00" cType="1" res="1.0187946027144790e-03" rms="4.0744149684906006e-01" purity="7.2686225175857544e-01" nType="-99"/>
          <Node pos="r" depth="2" NCoef="0" IVar="-1" Cut="0.0000000000000000e+00" cType="1" res="4.3023773469030857e-04" rms="4.0399444103240967e-01" purity="6.8712139129638672e-01" nType="-99"/>
        </Node>
      </Node>
    </BinaryTree>
    <BinaryTree type="DecisionTree" boostWeight="1.0000000000000000e+00" itree="961">
      <Node pos="s" depth="0" NCoef="0" IVar="0" Cut="1.0000000000000000e+00" cType="1" res="2.2098954021930695e-01" rms="4.7570377588272095e-01" purity="5.4320377111434937e-01" nType="0">
        <Node pos="l" depth="1" NCoef="0" IVar="4" Cut="2.1007773437500000e+04" cType="1" res="5.1454645395278931e-01" rms="4.9978834390640259e-01" purity="5.1454645395278931e-01" nType="0">
          <Node pos="l" depth="2" NCoef="0" IVar="-1" Cut="0.0000000000000000e+00" cType="1" res="3.5724093322642148e-04" rms="2.0187333226203918e-01" purity="4.2921923100948334e-02" nType="-99"/>
          <Node pos="r" depth="2" NCoef="0" IVar="-1" Cut="0.0000000000000000e+00" cType="1" res="1.7551266864757054e-05" rms="4.6688115596771240e-01" purity="7.5460815429687500e-01" nType="-99"/>
        </Node>
        <Node pos="r" depth="1" NCoef="0" IVar="0" Cut="4.0000000000000000e+00" cType="1" res="1.0015782900154591e-02" rms="3.9812240004539490e-01" purity="5.8762520551681519e-01" nType="0">
          <Node pos="l" depth="2" NCoef="0" IVar="-1" Cut="0.0000000000000000e+00" cType="1" res="1.2705815606750548e-04" rms="4.1402050852775574e-01" purity="5.4255658388137817e-01" nType="-99"/>
          <Node pos="r" depth="2" NCoef="0" IVar="-1" Cut="0.0000000000000000e+00" cType="1" res="4.0360580896958709e-04" rms="2.3156648874282837e-01" purity="9.4355177879333496e-01" nType="-99"/>
        </Node>
      </Node>
    </BinaryTree>
    <BinaryTree type="DecisionTree" boostWeight="1.0000000000000000e+00" itree="962">
      <Node pos="s" depth="0" NCoef="0" IVar="5" Cut="5.3043956250000000e+05" cType="1" res="3.8542264699935913e-01" rms="4.8669502139091492e-01" purity="3.8542264699935913e-01" nType="0">
        <Node pos="l" depth="1" NCoef="0" IVar="1" Cut="2.2737815625000000e+05" cType="1" res="3.0170628428459167e-01" rms="4.5899847149848938e-01" purity="3.0170628428459167e-01" nType="0">
          <Node pos="l" depth="2" NCoef="0" IVar="-1" Cut="0.0000000000000000e+00" cType="1" res="2.0592717919498682e-04" rms="3.4470123052597046e-01" purity="2.4388754367828369e-01" nType="-99"/>
          <Node pos="r" depth="2" NCoef="0" IVar="-1" Cut="0.0000000000000000e+00" cType="1" res="-8.7768479716032743e-04" rms="3.6392065882682800e-01" purity="3.3990636467933655e-01" nType="-99"/>
        </Node>
        <Node pos="r" depth="1" NCoef="0" IVar="5" Cut="8.0824837500000000e+05" cType="1" res="8.5507005453109741e-01" rms="3.5203018784523010e-01" purity="8.5507005453109741e-01" nType="0">
          <Node pos="l" depth="2" NCoef="0" IVar="-1" Cut="0.0000000000000000e+00" cType="1" res="7.0163741474971175e-04" rms="3.2950526475906372e-01" purity="8.1855231523513794e-01" nType="-99"/>
          <Node pos="r" depth="2" NCoef="0" IVar="-1" Cut="0.0000000000000000e+00" cType="1" res="2.9177691321820021e-03" rms="2.6243650913238525e-01" purity="9.1198003292083740e-01" nType="-99"/>
        </Node>
      </Node>
    </BinaryTree>
    <BinaryTree type="DecisionTree" boostWeight="1.0000000000000000e+00" itree="963">
      <Node pos="s" depth="0" NCoef="0" IVar="1" Cut="2.0131484375000000e+05" cType="1" res="4.4824627041816711e-01" rms="4.9785184860229492e-01" purity="4.4885125756263733e-01" nType="0">
        <Node pos="l" depth="1" NCoef="0" IVar="2" Cut="8.9653828125000000e+04" cType="1" res="5.0096094608306885e-01" rms="5.2254754304885864e-01" purity="5.5792957544326782e-01" nType="0">
          <Node pos="l" depth="2" NCoef="0" IVar="-1" Cut="0.0000000000000000e+00" cType="1" res="2.6816225727088749e-05" rms="3.9887928962707520e-01" purity="8.0970013141632080e-01" nType="-99"/>
          <Node pos="r" depth="2" NCoef="0" IVar="-1" Cut="0.0000000000000000e+00" cType="1" res="6.1202124925330281e-04" rms="3.3641281723976135e-01" purity="2.3705159127712250e-01" nType="-99"/>
        </Node>
        <Node pos="r" depth="1" NCoef="0" IVar="0" Cut="4.0000000000000000e+00" cType="1" res="5.8342562988400459e-03" rms="3.5479441285133362e-01" purity="4.1527232527732849e-01" nType="0">
          <Node pos="l" depth="2" NCoef="0" IVar="-1" Cut="0.0000000000000000e+00" cType="1" res="6.2103390519041568e-05" rms="3.6233952641487122e-01" purity="3.7596005201339722e-01" nType="-99"/>
          <Node pos="r" depth="2" NCoef="0" IVar="-1" Cut="0.0000000000000000e+00" cType="1" res="4.2752019362524152e-04" rms="2.2019135951995850e-01" purity="9.4937914609909058e-01" nType="-99"/>
        </Node>
      </Node>
    </BinaryTree>
    <BinaryTree type="DecisionTree" boostWeight="1.0000000000000000e+00" itree="964">
      <Node pos="s" depth="0" NCoef="0" IVar="4" Cut="7.9674312500000000e+04" cType="1" res="3.7849044799804688e-01" rms="4.8526293039321899e-01" purity="3.7883970141410828e-01" nType="0">
        <Node pos="l" depth="1" NCoef="0" IVar="2" Cut="8.7417078125000000e+04" cType="1" res="3.3563941717147827e-01" rms="4.7231552004814148e-01" purity="3.3573576807975769e-01" nType="0">
          <Node pos="l" depth="2" NCoef="0" IVar="-1" Cut="0.0000000000000000e+00" cType="1" res="1.5316990902647376e-03" rms="4.1500636935234070e-01" purity="3.5190999507904053e-01" nType="-99"/>
          <Node pos="r" depth="2" NCoef="0" IVar="-1" Cut="0.0000000000000000e+00" cType="1" res="-2.3690513626206666e-04" rms="3.5785815119743347e-01" purity="3.3505013585090637e-01" nType="-99"/>
        </Node>
        <Node pos="r" depth="1" NCoef="0" IVar="-1" Cut="0.0000000000000000e+00" cType="1" res="7.8989984467625618e-04" rms="2.8202381730079651e-01" purity="9.1203248500823975e-01" nType="-99"/>
      </Node>
    </BinaryTree>
    <BinaryTree type="DecisionTree" boostWeight="1.0000000000000000e+00" itree="965">
      <Node pos="s" depth="0" NCoef="0" IVar="2" Cut="9.1849609375000000e+04" cType="1" res="4.7458109259605408e-01" rms="4.9970719218254089e-01" purity="4.7493448853492737e-01" nType="0">
        <Node pos="l" depth="1" NCoef="0" IVar="3" Cut="8.4462578125000000e+04" cType="1" res="3.9095261693000793e-01" rms="4.8845317959785461e-01" purity="3.9143046736717224e-01" nType="0">
          <Node pos="l" depth="2" NCoef="0" IVar="-1" Cut="0.0000000000000000e+00" cType="1" res="3.6750276922248304e-04" rms="3.4607583284378052e-01" purity="4.9697130918502808e-01" nType="-99"/>
          <Node pos="r" depth="2" NCoef="0" IVar="-1" Cut="0.0000000000000000e+00" cType="1" res="1.3409821258392185e-04" rms="3.5448655486106873e-01" purity="3.8087856769561768e-01" nType="-99"/>
        </Node>
        <Node pos="r" depth="1" NCoef="0" IVar="2" Cut="9.2047007812500000e+04" cType="1" res="6.0396778583526611e-01" rms="4.8937997221946716e-01" purity="6.0443025827407837e-01" nType="0">
          <Node pos="l" depth="2" NCoef="0" IVar="-1" Cut="0.0000000000000000e+00" cType="1" res="2.0727988157887012e-05" rms="3.7090849876403809e-01" purity="8.7566488981246948e-01" nType="-99"/>
          <Node pos="r" depth="2" NCoef="0" IVar="-1" Cut="0.0000000000000000e+00" cType="1" res="5.1224237540736794e-04" rms="3.6846768856048584e-01" purity="4.0075972676277161e-01" nType="-99"/>
        </Node>
      </Node>
    </BinaryTree>
    <BinaryTree type="DecisionTree" boostWeight="1.0000000000000000e+00" itree="966">
      <Node pos="s" depth="0" NCoef="0" IVar="0" Cut="4.0000000000000000e+00" cType="1" res="-4.3173572048544884e-03" rms="3.5034647583961487e-01" purity="3.7484899163246155e-01" nType="0">
        <Node pos="l" depth="1" NCoef="0" IVar="5" Cut="7.2800637500000000e+05" cType="1" res="3.4122022986412048e-01" rms="4.7411915659904480e-01" purity="3.4122022986412048e-01" nType="0">
          <Node pos="l" depth="2" NCoef="0" IVar="-1" Cut="0.0000000000000000e+00" cType="1" res="-4.9999944167211652e-04" rms="3.5754150152206421e-01" purity="3.1388142704963684e-01" nType="-99"/>
          <Node pos="r" depth="2" NCoef="0" IVar="-1" Cut="0.0000000000000000e+00" cType="1" res="1.2546422658488154e-03" rms="3.1337168812751770e-01" purity="8.5569566488265991e-01" nType="-99"/>
        </Node>
        <Node pos="r" depth="1" NCoef="0" IVar="-1" Cut="0.0000000000000000e+00" cType="1" res="3.0720976646989584e-03" rms="2.3782779276371002e-01" purity="9.4002419710159302e-01" nType="-99"/>
      </Node>
    </BinaryTree>
    <BinaryTree type="DecisionTree" boostWeight="1.0000000000000000e+00" itree="967">
      <Node pos="s" depth="0" NCoef="0" IVar="5" Cut="1.6763029687500000e+05" cType="1" res="4.8370802402496338e-01" rms="4.9973449110984802e-01" purity="4.8370799422264099e-01" nType="0">
        <Node pos="l" depth="1" NCoef="0" IVar="4" Cut="1.9145109375000000e+04" cType="1" res="6.9149506092071533e-01" rms="4.6187624335289001e-01" purity="6.9149500131607056e-01" nType="0">
          <Node pos="l" depth="2" NCoef="0" IVar="-1" Cut="0.0000000000000000e+00" cType="1" res="6.1345533467829227e-03" rms="1.7456769943237305e-01" purity="3.1353469938039780e-02" nType="-99"/>
          <Node pos="r" depth="2" NCoef="0" IVar="-1" Cut="0.0000000000000000e+00" cType="1" res="1.5493507817154750e-05" rms="3.2709509134292603e-01" purity="8.7202924489974976e-01" nType="-99"/>
        </Node>
        <Node pos="r" depth="1" NCoef="0" IVar="0" Cut="4.0000000000000000e+00" cType="1" res="8.0058915773406625e-04" rms="3.5742509365081787e-01" purity="4.2068958282470703e-01" nType="0">
          <Node pos="l" depth="2" NCoef="0" IVar="-1" Cut="0.0000000000000000e+00" cType="1" res="-1.9867801165673882e-04" rms="3.6551725864410400e-01" purity="3.7914511561393738e-01" nType="-99"/>
          <Node pos="r" depth="2" NCoef="0" IVar="-1" Cut="0.0000000000000000e+00" cType="1" res="2.7613891870714724e-04" rms="2.1945565938949585e-01" purity="9.5020723342895508e-01" nType="-99"/>
        </Node>
      </Node>
    </BinaryTree>
    <BinaryTree type="DecisionTree" boostWeight="1.0000000000000000e+00" itree="968">
      <Node pos="s" depth="0" NCoef="0" IVar="2" Cut="9.1753601562500000e+04" cType="1" res="4.7086587548255920e-01" rms="4.9915048480033875e-01" purity="4.7086584568023682e-01" nType="0">
        <Node pos="l" depth="1" NCoef="0" IVar="4" Cut="3.7108753906250000e+04" cType="1" res="3.8806444406509399e-01" rms="4.8730939626693726e-01" purity="3.8806444406509399e-01" nType="0">
          <Node pos="l" depth="2" NCoef="0" IVar="-1" Cut="0.0000000000000000e+00" cType="1" res="-4.3507828377187252e-04" rms="3.3126547932624817e-01" purity="2.6226872205734253e-01" nType="-99"/>
          <Node pos="r" depth="2" NCoef="0" IVar="-1" Cut="0.0000000000000000e+00" cType="1" res="3.6166518111713231e-04" rms="4.0096095204353333e-01" purity="7.1262121200561523e-01" nType="-99"/>
        </Node>
        <Node pos="r" depth="1" NCoef="0" IVar="2" Cut="9.1953015625000000e+04" cType="1" res="5.8878892660140991e-01" rms="4.9256777763366699e-01" purity="5.8929544687271118e-01" nType="0">
          <Node pos="l" depth="2" NCoef="0" IVar="-1" Cut="0.0000000000000000e+00" cType="1" res="2.0900237359455787e-05" rms="3.7294587492942810e-01" purity="8.6964571475982666e-01" nType="-99"/>
          <Node pos="r" depth="2" NCoef="0" IVar="-1" Cut="0.0000000000000000e+00" cType="1" res="1.0433189891045913e-04" rms="3.6414605379104614e-01" purity="3.8634505867958069e-01" nType="-99"/>
        </Node>
      </Node>
    </BinaryTree>
    <BinaryTree type="DecisionTree" boostWeight="1.0000000000000000e+00" itree="969">
      <Node pos="s" depth="0" NCoef="0" IVar="0" Cut="1.0000000000000000e+00" cType="1" res="3.0365155544131994e-03" rms="3.5362625122070312e-01" purity="3.8242220878601074e-01" nType="0">
        <Node pos="l" depth="1" NCoef="0" IVar="4" Cut="4.5666128906250000e+04" cType="1" res="0.0000000000000000e+00" rms="3.8338333368301392e-01" purity="1.4698277413845062e-01" nType="0">
          <Node pos="l" depth="2" NCoef="0" IVar="-1" Cut="0.0000000000000000e+00" cType="1" res="-3.6529207136482000e-03" rms="2.5534784793853760e-01" purity="7.0820502936840057e-02" nType="-99"/>
          <Node pos="r" depth="2" NCoef="0" IVar="-1" Cut="0.0000000000000000e+00" cType="1" res="7.2941125836223364e-04" rms="4.2383712530136108e-01" purity="6.7658656835556030e-01" nType="-99"/>
        </Node>
        <Node pos="r" depth="1" NCoef="0" IVar="3" Cut="8.4179398437500000e+04" cType="1" res="inf" rms="0.0000000000000000e+00" purity="5.8870398998260498e-01" nType="0">
          <Node pos="l" depth="2" NCoef="0" IVar="-1" Cut="0.0000000000000000e+00" cType="1" res="1.7279806779697537e-03" rms="3.8947018980979919e-01" purity="6.5964543819427490e-01" nType="-99"/>
          <Node pos="r" depth="2" NCoef="0" IVar="-1" Cut="0.0000000000000000e+00" cType="1" res="3.7011160748079419e-04" rms="4.0611630678176880e-01" purity="5.8235061168670654e-01" nType="-99"/>
        </Node>
      </Node>
    </BinaryTree>
    <BinaryTree type="DecisionTree" boostWeight="1.0000000000000000e+00" itree="970">
      <Node pos="s" depth="0" NCoef="0" IVar="4" Cut="4.1413183593750000e+04" cType="1" res="3.8050872087478638e-01" rms="4.8552846908569336e-01" purity="3.8063001632690430e-01" nType="0">
        <Node pos="l" depth="1" NCoef="0" IVar="4" Cut="1.7364726562500000e+04" cType="1" res="2.7068981528282166e-01" rms="4.4441777467727661e-01" purity="2.7080109715461731e-01" nType="0">
          <Node pos="l" depth="2" NCoef="0" IVar="-1" Cut="0.0000000000000000e+00" cType="1" res="1.1096325470134616e-03" rms="2.9291874170303345e-01" purity="1.8712821602821350e-01" nType="-99"/>
          <Node pos="r" depth="2" NCoef="0" IVar="-1" Cut="0.0000000000000000e+00" cType="1" res="-1.2511886889114976e-03" rms="3.7449640035629272e-01" purity="3.5670495033264160e-01" nType="-99"/>
        </Node>
        <Node pos="r" depth="1" NCoef="0" IVar="0" Cut="1.0000000000000000e+00" cType="1" res="2.8911944478750229e-02" rms="3.9459919929504395e-01" purity="7.4314779043197632e-01" nType="0">
          <Node pos="l" depth="2" NCoef="0" IVar="-1" Cut="0.0000000000000000e+00" cType="1" res="8.1446743570268154e-04" rms="4.4297444820404053e-01" purity="6.1252605915069580e-01" nType="-99"/>
          <Node pos="r" depth="2" NCoef="0" IVar="-1" Cut="0.0000000000000000e+00" cType="1" res="3.3836896182037890e-04" rms="3.7120446562767029e-01" purity="7.9902082681655884e-01" nType="-99"/>
        </Node>
      </Node>
    </BinaryTree>
    <BinaryTree type="DecisionTree" boostWeight="1.0000000000000000e+00" itree="971">
      <Node pos="s" depth="0" NCoef="0" IVar="2" Cut="9.1787367187500000e+04" cType="1" res="4.7326067090034485e-01" rms="4.9928450584411621e-01" purity="4.7326067090034485e-01" nType="0">
        <Node pos="l" depth="1" NCoef="0" IVar="3" Cut="9.7085164062500000e+04" cType="1" res="3.8694712519645691e-01" rms="4.8705136775970459e-01" purity="3.8694712519645691e-01" nType="0">
          <Node pos="l" depth="2" NCoef="0" IVar="-1" Cut="0.0000000000000000e+00" cType="1" res="5.6405271607218310e-05" rms="3.5025474429130554e-01" purity="3.7519562244415283e-01" nType="-99"/>
          <Node pos="r" depth="2" NCoef="0" IVar="-1" Cut="0.0000000000000000e+00" cType="1" res="1.6389067750424147e-03" rms="3.8074681162834167e-01" purity="5.1527982950210571e-01" nType="-99"/>
        </Node>
        <Node pos="r" depth="1" NCoef="0" IVar="2" Cut="9.1981835937500000e+04" cType="1" res="5.9811377525329590e-01" rms="4.9105548858642578e-01" purity="5.9909570217132568e-01" nType="0">
          <Node pos="l" depth="2" NCoef="0" IVar="-1" Cut="0.0000000000000000e+00" cType="1" res="2.1081497834529728e-05" rms="3.7914636731147766e-01" purity="8.6857974529266357e-01" nType="-99"/>
          <Node pos="r" depth="2" NCoef="0" IVar="-1" Cut="0.0000000000000000e+00" cType="1" res="5.9594211052171886e-05" rms="3.5376229882240295e-01" purity="4.0183043479919434e-01" nType="-99"/>
        </Node>
      </Node>
    </BinaryTree>
    <BinaryTree type="DecisionTree" boostWeight="1.0000000000000000e+00" itree="972">
      <Node pos="s" depth="0" NCoef="0" IVar="5" Cut="1.6377478125000000e+05" cType="1" res="4.8315799236297607e-01" rms="4.9971625208854675e-01" purity="4.8315799236297607e-01" nType="0">
        <Node pos="l" depth="1" NCoef="0" IVar="4" Cut="1.6762933593750000e+04" cType="1" res="7.2870564460754395e-01" rms="4.4462764263153076e-01" purity="7.2870558500289917e-01" nType="0">
          <Node pos="l" depth="2" NCoef="0" IVar="-1" Cut="0.0000000000000000e+00" cType="1" res="1.2664154171943665e-02" rms="1.8631693720817566e-01" purity="3.6211866885423660e-02" nType="-99"/>
          <Node pos="r" depth="2" NCoef="0" IVar="-1" Cut="0.0000000000000000e+00" cType="1" res="1.5826506569283083e-05" rms="3.2431969046592712e-01" purity="8.6853116750717163e-01" nType="-99"/>
        </Node>
        <Node pos="r" depth="1" NCoef="0" IVar="4" Cut="8.2762492187500000e+04" cType="1" res="4.1183289885520935e-01" rms="4.9216517806053162e-01" purity="4.1183292865753174e-01" nType="0">
          <Node pos="l" depth="2" NCoef="0" IVar="-1" Cut="0.0000000000000000e+00" cType="1" res="-1.4206323248799890e-04" rms="3.6456742882728577e-01" purity="3.6829081177711487e-01" nType="-99"/>
          <Node pos="r" depth="2" NCoef="0" IVar="-1" Cut="0.0000000000000000e+00" cType="1" res="7.9471827484667301e-04" rms="2.8419807553291321e-01" purity="9.1019099950790405e-01" nType="-99"/>
        </Node>
      </Node>
    </BinaryTree>
    <BinaryTree type="DecisionTree" boostWeight="1.0000000000000000e+00" itree="973">
      <Node pos="s" depth="0" NCoef="0" IVar="2" Cut="9.1820531250000000e+04" cType="1" res="4.7288545966148376e-01" rms="4.9926427006721497e-01" purity="4.7288545966148376e-01" nType="0">
        <Node pos="l" depth="1" NCoef="0" IVar="4" Cut="7.4125140625000000e+04" cType="1" res="3.8786822557449341e-01" rms="4.8726427555084229e-01" purity="3.8786822557449341e-01" nType="0">
          <Node pos="l" depth="2" NCoef="0" IVar="-1" Cut="0.0000000000000000e+00" cType="1" res="-5.9301226428942755e-05" rms="3.5780656337738037e-01" purity="3.2987064123153687e-01" nType="-99"/>
          <Node pos="r" depth="2" NCoef="0" IVar="-1" Cut="0.0000000000000000e+00" cType="1" res="8.2041486166417599e-04" rms="2.8466483950614929e-01" purity="9.0832322835922241e-01" nType="-99"/>
        </Node>
        <Node pos="r" depth="1" NCoef="0" IVar="2" Cut="9.2011765625000000e+04" cType="1" res="5.9787398576736450e-01" rms="4.9060058593750000e-01" purity="5.9836494922637939e-01" nType="0">
          <Node pos="l" depth="2" NCoef="0" IVar="-1" Cut="0.0000000000000000e+00" cType="1" res="2.1040801584604196e-05" rms="3.6978209018707275e-01" purity="8.7545776367187500e-01" nType="-99"/>
          <Node pos="r" depth="2" NCoef="0" IVar="-1" Cut="0.0000000000000000e+00" cType="1" res="3.8474504253827035e-04" rms="3.6690142750740051e-01" purity="3.9935439825057983e-01" nType="-99"/>
        </Node>
      </Node>
    </BinaryTree>
    <BinaryTree type="DecisionTree" boostWeight="1.0000000000000000e+00" itree="974">
      <Node pos="s" depth="0" NCoef="0" IVar="1" Cut="2.0208595312500000e+05" cType="1" res="4.5017376542091370e-01" rms="4.9775007367134094e-01" purity="4.5041155815124512e-01" nType="0">
        <Node pos="l" depth="1" NCoef="0" IVar="2" Cut="8.9719843750000000e+04" cType="1" res="4.7469574213027954e-01" rms="5.2650731801986694e-01" purity="5.5142837762832642e-01" nType="0">
          <Node pos="l" depth="2" NCoef="0" IVar="-1" Cut="0.0000000000000000e+00" cType="1" res="2.7070696887676604e-05" rms="4.1057693958282471e-01" purity="7.8690868616104126e-01" nType="-99"/>
          <Node pos="r" depth="2" NCoef="0" IVar="-1" Cut="0.0000000000000000e+00" cType="1" res="5.6962546659633517e-04" rms="3.3095479011535645e-01" purity="2.4907356500625610e-01" nType="-99"/>
        </Node>
        <Node pos="r" depth="1" NCoef="0" IVar="0" Cut="4.0000000000000000e+00" cType="1" res="7.0949872024357319e-03" rms="3.5821968317031860e-01" purity="4.1807946562767029e-01" nType="0">
          <Node pos="l" depth="2" NCoef="0" IVar="-1" Cut="0.0000000000000000e+00" cType="1" res="8.2154510891996324e-05" rms="3.6640483140945435e-01" purity="3.7636581063270569e-01" nType="-99"/>
          <Node pos="r" depth="2" NCoef="0" IVar="-1" Cut="0.0000000000000000e+00" cType="1" res="2.6859005447477102e-04" rms="2.1897494792938232e-01" purity="9.5097309350967407e-01" nType="-99"/>
        </Node>
      </Node>
    </BinaryTree>
    <BinaryTree type="DecisionTree" boostWeight="1.0000000000000000e+00" itree="975">
      <Node pos="s" depth="0" NCoef="0" IVar="1" Cut="2.0309048437500000e+05" cType="1" res="0.0000000000000000e+00" rms="7.6685363536524571e+21" purity="4.5208737254142761e-01" nType="0">
        <Node pos="l" depth="1" NCoef="0" IVar="2" Cut="8.9636281250000000e+04" cType="1" res="4.8684865236282349e-01" rms="5.1925289630889893e-01" purity="5.4424458742141724e-01" nType="0">
          <Node pos="l" depth="2" NCoef="0" IVar="-1" Cut="0.0000000000000000e+00" cType="1" res="2.7602200134424493e-05" rms="4.0393340587615967e-01" purity="7.9985034465789795e-01" nType="-99"/>
          <Node pos="r" depth="2" NCoef="0" IVar="-1" Cut="0.0000000000000000e+00" cType="1" res="6.5385532798245549e-04" rms="3.3724212646484375e-01" purity="2.3828873038291931e-01" nType="-99"/>
        </Node>
        <Node pos="r" depth="1" NCoef="0" IVar="4" Cut="4.1413183593750000e+04" cType="1" res="4.2112430930137634e-01" rms="4.9401015043258667e-01" purity="4.2139172554016113e-01" nType="0">
          <Node pos="l" depth="2" NCoef="0" IVar="-1" Cut="0.0000000000000000e+00" cType="1" res="-8.6101016495376825e-04" rms="3.4294378757476807e-01" purity="2.9058435559272766e-01" nType="-99"/>
          <Node pos="r" depth="2" NCoef="0" IVar="-1" Cut="0.0000000000000000e+00" cType="1" res="2.9966671718284488e-04" rms="3.6760446429252625e-01" purity="7.8029811382293701e-01" nType="-99"/>
        </Node>
      </Node>
    </BinaryTree>
    <BinaryTree type="DecisionTree" boostWeight="1.0000000000000000e+00" itree="976">
      <Node pos="s" depth="0" NCoef="0" IVar="0" Cut="1.0000000000000000e+00" cType="1" res="2.2059766948223114e-01" rms="4.7795134782791138e-01" purity="5.3917700052261353e-01" nType="0">
        <Node pos="l" depth="1" NCoef="0" IVar="4" Cut="2.1007773437500000e+04" cType="1" res="5.1093721389770508e-01" rms="4.9988037347793579e-01" purity="5.1093727350234985e-01" nType="0">
          <Node pos="l" depth="2" NCoef="0" IVar="-1" Cut="0.0000000000000000e+00" cType="1" res="2.3942959960550070e-03" rms="2.1309511363506317e-01" purity="4.7685649245977402e-02" nType="-99"/>
          <Node pos="r" depth="2" NCoef="0" IVar="-1" Cut="0.0000000000000000e+00" cType="1" res="1.7565555026521906e-05" rms="4.7008669376373291e-01" purity="7.4686729907989502e-01" nType="-99"/>
        </Node>
        <Node pos="r" depth="1" NCoef="0" IVar="5" Cut="5.7306975000000000e+05" cType="1" res="5.8265513181686401e-01" rms="4.9312081933021545e-01" purity="5.8265513181686401e-01" nType="0">
          <Node pos="l" depth="2" NCoef="0" IVar="-1" Cut="0.0000000000000000e+00" cType="1" res="1.3520580250769854e-04" rms="4.2564061284065247e-01" purity="5.0132632255554199e-01" nType="-99"/>
          <Node pos="r" depth="2" NCoef="0" IVar="-1" Cut="0.0000000000000000e+00" cType="1" res="1.5418110415339470e-03" rms="3.0258011817932129e-01" purity="8.7960970401763916e-01" nType="-99"/>
        </Node>
      </Node>
    </BinaryTree>
    <BinaryTree type="DecisionTree" boostWeight="1.0000000000000000e+00" itree="977">
      <Node pos="s" depth="0" NCoef="0" IVar="4" Cut="8.1732429687500000e+04" cType="1" res="3.8140028715133667e-01" rms="4.8578786849975586e-01" purity="3.8145598769187927e-01" nType="0">
        <Node pos="l" depth="1" NCoef="0" IVar="0" Cut="1.0000000000000000e+00" cType="1" res="-2.9158801771700382e-03" rms="3.5364800691604614e-01" purity="3.4281009435653687e-01" nType="0">
          <Node pos="l" depth="2" NCoef="0" IVar="-1" Cut="0.0000000000000000e+00" cType="1" res="-2.2151907905936241e-03" rms="2.7822673320770264e-01" purity="1.0424873232841492e-01" nType="-99"/>
          <Node pos="r" depth="2" NCoef="0" IVar="-1" Cut="0.0000000000000000e+00" cType="1" res="4.8516568494960666e-04" rms="4.0975135564804077e-01" purity="5.5971992015838623e-01" nType="-99"/>
        </Node>
        <Node pos="r" depth="1" NCoef="0" IVar="-1" Cut="0.0000000000000000e+00" cType="1" res="8.6914573330432177e-04" rms="2.8150957822799683e-01" purity="9.1209298372268677e-01" nType="-99"/>
      </Node>
    </BinaryTree>
    <BinaryTree type="DecisionTree" boostWeight="1.0000000000000000e+00" itree="978">
      <Node pos="s" depth="0" NCoef="0" IVar="2" Cut="9.1779687500000000e+04" cType="1" res="5.3651213645935059e-01" rms="4.9889054894447327e-01" purity="5.3673702478408813e-01" nType="0">
        <Node pos="l" depth="1" NCoef="0" IVar="3" Cut="8.4320750000000000e+04" cType="1" res="3.9444378018379211e-01" rms="4.8905956745147705e-01" purity="3.9476516842842102e-01" nType="0">
          <Node pos="l" depth="2" NCoef="0" IVar="-1" Cut="0.0000000000000000e+00" cType="1" res="2.3768529354128987e-04" rms="3.2306584715843201e-01" purity="5.4723155498504639e-01" nType="-99"/>
          <Node pos="r" depth="2" NCoef="0" IVar="-1" Cut="0.0000000000000000e+00" cType="1" res="-1.2862413132097572e-04" rms="3.4658494591712952e-01" purity="3.7855744361877441e-01" nType="-99"/>
        </Node>
        <Node pos="r" depth="1" NCoef="0" IVar="2" Cut="9.1978562500000000e+04" cType="1" res="6.9454336166381836e-01" rms="4.6115651726722717e-01" purity="6.9505590200424194e-01" nType="0">
          <Node pos="l" depth="2" NCoef="0" IVar="-1" Cut="0.0000000000000000e+00" cType="1" res="2.1205491066211835e-05" rms="2.8936475515365601e-01" purity="9.3104279041290283e-01" nType="-99"/>
          <Node pos="r" depth="2" NCoef="0" IVar="-1" Cut="0.0000000000000000e+00" cType="1" res="-4.0582614019513130e-04" rms="3.5682770609855652e-01" purity="3.7803274393081665e-01" nType="-99"/>
        </Node>
      </Node>
    </BinaryTree>
    <BinaryTree type="DecisionTree" boostWeight="1.0000000000000000e+00" itree="979">
      <Node pos="s" depth="0" NCoef="0" IVar="2" Cut="9.1879203125000000e+04" cType="1" res="4.8126474022865295e-01" rms="4.9986264109611511e-01" purity="4.8154473304748535e-01" nType="0">
        <Node pos="l" depth="1" NCoef="0" IVar="0" Cut="1.0000000000000000e+00" cType="1" res="9.4235688447952271e-03" rms="3.4886947274208069e-01" purity="4.0114760398864746e-01" nType="0">
          <Node pos="l" depth="2" NCoef="0" IVar="-1" Cut="0.0000000000000000e+00" cType="1" res="-7.8671204391866922e-04" rms="2.8141489624977112e-01" purity="1.4233285188674927e-01" nType="-99"/>
          <Node pos="r" depth="2" NCoef="0" IVar="-1" Cut="0.0000000000000000e+00" cType="1" res="5.2641611546278000e-04" rms="3.9491257071495056e-01" purity="6.1328494548797607e-01" nType="-99"/>
        </Node>
        <Node pos="r" depth="1" NCoef="0" IVar="2" Cut="9.2076046875000000e+04" cType="1" res="6.0749381780624390e-01" rms="4.8845547437667847e-01" purity="6.0763746500015259e-01" nType="0">
          <Node pos="l" depth="2" NCoef="0" IVar="-1" Cut="0.0000000000000000e+00" cType="1" res="2.1363041014410555e-05" rms="3.6912810802459717e-01" purity="8.7765777111053467e-01" nType="-99"/>
          <Node pos="r" depth="2" NCoef="0" IVar="-1" Cut="0.0000000000000000e+00" cType="1" res="2.7408541063778102e-04" rms="3.6090767383575439e-01" purity="3.9886099100112915e-01" nType="-99"/>
        </Node>
      </Node>
    </BinaryTree>
    <BinaryTree type="DecisionTree" boostWeight="1.0000000000000000e+00" itree="980">
      <Node pos="s" depth="0" NCoef="0" IVar="0" Cut="1.0000000000000000e+00" cType="1" res="3.1002736091613770e-01" rms="4.8904561996459961e-01" purity="6.1434656381607056e-01" nType="0">
        <Node pos="l" depth="1" NCoef="0" IVar="4" Cut="2.1007773437500000e+04" cType="1" res="6.2136411666870117e-01" rms="4.8504716157913208e-01" purity="6.2136417627334595e-01" nType="0">
          <Node pos="l" depth="2" NCoef="0" IVar="-1" Cut="0.0000000000000000e+00" cType="1" res="4.0423851460218430e-03" rms="2.2747854888439178e-01" purity="5.5071678012609482e-02" nType="-99"/>
          <Node pos="r" depth="2" NCoef="0" IVar="-1" Cut="0.0000000000000000e+00" cType="1" res="2.0661502276198007e-05" rms="4.1355225443840027e-01" purity="8.2726585865020752e-01" nType="-99"/>
        </Node>
        <Node pos="r" depth="1" NCoef="0" IVar="5" Cut="8.1589181250000000e+05" cType="1" res="6.0116499662399292e-01" rms="4.8965871334075928e-01" purity="6.0116493701934814e-01" nType="0">
          <Node pos="l" depth="2" NCoef="0" IVar="-1" Cut="0.0000000000000000e+00" cType="1" res="5.4736563470214605e-04" rms="4.1181281208992004e-01" purity="5.6561380624771118e-01" nType="-99"/>
          <Node pos="r" depth="2" NCoef="0" IVar="-1" Cut="0.0000000000000000e+00" cType="1" res="2.6279806625097990e-03" rms="2.5959494709968567e-01" purity="9.2243552207946777e-01" nType="-99"/>
        </Node>
      </Node>
    </BinaryTree>
    <BinaryTree type="DecisionTree" boostWeight="1.0000000000000000e+00" itree="981">
      <Node pos="s" depth="0" NCoef="0" IVar="0" Cut="1.0000000000000000e+00" cType="1" res="7.2461944073438644e-03" rms="3.5715693235397339e-01" purity="3.8786774873733521e-01" nType="0">
        <Node pos="l" depth="1" NCoef="0" IVar="1" Cut="2.8620212500000000e+05" cType="1" res="1.4807027578353882e-01" rms="3.5516962409019470e-01" purity="1.4807027578353882e-01" nType="0">
          <Node pos="l" depth="2" NCoef="0" IVar="-1" Cut="0.0000000000000000e+00" cType="1" res="3.8049544673413038e-04" rms="2.8091365098953247e-01" purity="1.2892217934131622e-01" nType="-99"/>
          <Node pos="r" depth="2" NCoef="0" IVar="-1" Cut="0.0000000000000000e+00" cType="1" res="-1.6638928791508079e-03" rms="3.2186302542686462e-01" purity="1.9984811544418335e-01" nType="-99"/>
        </Node>
        <Node pos="r" depth="1" NCoef="0" IVar="2" Cut="8.8444539062500000e+04" cType="1" res="5.9222364425659180e-01" rms="4.9154251813888550e-01" purity="5.9273111820220947e-01" nType="0">
          <Node pos="l" depth="2" NCoef="0" IVar="-1" Cut="0.0000000000000000e+00" cType="1" res="1.3678189134225249e-03" rms="4.2641377449035645e-01" purity="6.3116323947906494e-01" nType="-99"/>
          <Node pos="r" depth="2" NCoef="0" IVar="-1" Cut="0.0000000000000000e+00" cType="1" res="4.7047389671206474e-04" rms="4.0108290314674377e-01" purity="5.8909636735916138e-01" nType="-99"/>
        </Node>
      </Node>
    </BinaryTree>
    <BinaryTree type="DecisionTree" boostWeight="1.0000000000000000e+00" itree="982">
      <Node pos="s" depth="0" NCoef="0" IVar="3" Cut="9.8929414062500000e+04" cType="1" res="3.8239619135856628e-01" rms="4.8605358600616455e-01" purity="3.8258078694343567e-01" nType="0">
        <Node pos="l" depth="1" NCoef="0" IVar="5" Cut="7.7268500000000000e+05" cType="1" res="3.7752324342727661e-01" rms="4.8476740717887878e-01" purity="3.7763342261314392e-01" nType="0">
          <Node pos="l" depth="2" NCoef="0" IVar="-1" Cut="0.0000000000000000e+00" cType="1" res="-2.2548521519638598e-04" rms="3.5615172982215881e-01" purity="3.3876413106918335e-01" nType="-99"/>
          <Node pos="r" depth="2" NCoef="0" IVar="-1" Cut="0.0000000000000000e+00" cType="1" res="2.1745506674051285e-03" rms="2.6615253090858459e-01" purity="9.0983271598815918e-01" nType="-99"/>
        </Node>
        <Node pos="r" depth="1" NCoef="0" IVar="-1" Cut="0.0000000000000000e+00" cType="1" res="1.0432336712256074e-03" rms="3.9418131113052368e-01" purity="5.0315159559249878e-01" nType="-99"/>
      </Node>
    </BinaryTree>
    <BinaryTree type="DecisionTree" boostWeight="1.0000000000000000e+00" itree="983">
      <Node pos="s" depth="0" NCoef="0" IVar="1" Cut="1.9145550000000000e+05" cType="1" res="0.0000000000000000e+00" rms="0.0000000000000000e+00" purity="4.9593868851661682e-01" nType="0">
        <Node pos="l" depth="1" NCoef="0" IVar="1" Cut="1.8738731250000000e+05" cType="1" res="1.7749978229403496e-02" rms="1.6335432231426239e-01" purity="8.1346040964126587e-01" nType="0">
          <Node pos="l" depth="2" NCoef="0" IVar="-1" Cut="0.0000000000000000e+00" cType="1" res="-2.9772701673209667e-03" rms="2.9760825634002686e-01" purity="1.8922524154186249e-01" nType="-99"/>
          <Node pos="r" depth="2" NCoef="0" IVar="-1" Cut="0.0000000000000000e+00" cType="1" res="2.7515214242157526e-05" rms="2.9113358259201050e-01" purity="9.0962976217269897e-01" nType="-99"/>
        </Node>
        <Node pos="r" depth="1" NCoef="0" IVar="0" Cut="4.0000000000000000e+00" cType="1" res="2.2089030244387686e-04" rms="3.5403791069984436e-01" purity="3.9582410454750061e-01" nType="0">
          <Node pos="l" depth="2" NCoef="0" IVar="-1" Cut="0.0000000000000000e+00" cType="1" res="-1.3745884643867612e-04" rms="3.5997915267944336e-01" purity="3.6087024211883545e-01" nType="-99"/>
          <Node pos="r" depth="2" NCoef="0" IVar="-1" Cut="0.0000000000000000e+00" cType="1" res="2.4079272989183664e-03" rms="2.3905828595161438e-01" purity="9.3849641084671021e-01" nType="-99"/>
        </Node>
      </Node>
    </BinaryTree>
    <BinaryTree type="DecisionTree" boostWeight="1.0000000000000000e+00" itree="984">
      <Node pos="s" depth="0" NCoef="0" IVar="2" Cut="8.9699531250000000e+04" cType="1" res="5.8708739280700684e-01" rms="4.9235737323760986e-01" purity="5.8708739280700684e-01" nType="0">
        <Node pos="l" depth="1" NCoef="0" IVar="1" Cut="2.1286604687500000e+05" cType="1" res="8.0711263418197632e-01" rms="3.9456537365913391e-01" purity="8.0711269378662109e-01" nType="0">
          <Node pos="l" depth="2" NCoef="0" IVar="-1" Cut="0.0000000000000000e+00" cType="1" res="1.7463808035245165e-05" rms="2.7919447422027588e-01" purity="9.2017656564712524e-01" nType="-99"/>
          <Node pos="r" depth="2" NCoef="0" IVar="-1" Cut="0.0000000000000000e+00" cType="1" res="-7.0534406404476613e-05" rms="3.5387319326400757e-01" purity="4.1749042272567749e-01" nType="-99"/>
        </Node>
        <Node pos="r" depth="1" NCoef="0" IVar="3" Cut="8.9569320312500000e+04" cType="1" res="3.8892799615859985e-01" rms="4.8805990815162659e-01" purity="3.8972526788711548e-01" nType="0">
          <Node pos="l" depth="2" NCoef="0" IVar="-1" Cut="0.0000000000000000e+00" cType="1" res="8.3555368473753333e-04" rms="3.6177670955657959e-01" purity="3.9726138114929199e-01" nType="-99"/>
          <Node pos="r" depth="2" NCoef="0" IVar="-1" Cut="0.0000000000000000e+00" cType="1" res="-3.1458624289371073e-04" rms="3.4467965364456177e-01" purity="3.8337355852127075e-01" nType="-99"/>
        </Node>
      </Node>
    </BinaryTree>
    <BinaryTree type="DecisionTree" boostWeight="1.0000000000000000e+00" itree="985">
      <Node pos="s" depth="0" NCoef="0" IVar="2" Cut="8.9690960937500000e+04" cType="1" res="5.3186422586441040e-01" rms="4.9898365139961243e-01" purity="5.3186428546905518e-01" nType="0">
        <Node pos="l" depth="1" NCoef="0" IVar="2" Cut="8.9277914062500000e+04" cType="1" res="7.4625706672668457e-01" rms="4.3515220284461975e-01" purity="7.4625706672668457e-01" nType="0">
          <Node pos="l" depth="2" NCoef="0" IVar="-1" Cut="0.0000000000000000e+00" cType="1" res="-5.6804157793521881e-04" rms="3.4293183684349060e-01" purity="3.6382892727851868e-01" nType="-99"/>
          <Node pos="r" depth="2" NCoef="0" IVar="-1" Cut="0.0000000000000000e+00" cType="1" res="1.8852379071176983e-05" rms="3.2936877012252808e-01" purity="9.1004359722137451e-01" nType="-99"/>
        </Node>
        <Node pos="r" depth="1" NCoef="0" IVar="4" Cut="7.6711937500000000e+04" cType="1" res="3.9162892103195190e-01" rms="4.8828455805778503e-01" purity="3.9215627312660217e-01" nType="0">
          <Node pos="l" depth="2" NCoef="0" IVar="-1" Cut="0.0000000000000000e+00" cType="1" res="7.5581054261419922e-05" rms="3.5637864470481873e-01" purity="3.4142932295799255e-01" nType="-99"/>
          <Node pos="r" depth="2" NCoef="0" IVar="-1" Cut="0.0000000000000000e+00" cType="1" res="7.6864985749125481e-04" rms="2.8714480996131897e-01" purity="9.0876758098602295e-01" nType="-99"/>
        </Node>
      </Node>
    </BinaryTree>
    <BinaryTree type="DecisionTree" boostWeight="1.0000000000000000e+00" itree="986">
      <Node pos="s" depth="0" NCoef="0" IVar="1" Cut="2.0340862500000000e+05" cType="1" res="4.4781416654586792e-01" rms="4.9760568141937256e-01" purity="4.4814893603324890e-01" nType="0">
        <Node pos="l" depth="1" NCoef="0" IVar="2" Cut="8.9665156250000000e+04" cType="1" res="4.5957720279693604e-01" rms="5.2565485239028931e-01" purity="5.3171998262405396e-01" nType="0">
          <Node pos="l" depth="2" NCoef="0" IVar="-1" Cut="0.0000000000000000e+00" cType="1" res="2.7435808078735135e-05" rms="4.1347420215606689e-01" purity="7.8453397750854492e-01" nType="-99"/>
          <Node pos="r" depth="2" NCoef="0" IVar="-1" Cut="0.0000000000000000e+00" cType="1" res="2.4492439115419984e-04" rms="3.3505794405937195e-01" purity="2.2814133763313293e-01" nType="-99"/>
        </Node>
        <Node pos="r" depth="1" NCoef="0" IVar="4" Cut="5.3210050781250000e+04" cType="1" res="4.1971576213836670e-01" rms="4.9396491050720215e-01" purity="4.2016261816024780e-01" nType="0">
          <Node pos="l" depth="2" NCoef="0" IVar="-1" Cut="0.0000000000000000e+00" cType="1" res="-4.8679910833016038e-04" rms="3.5639292001724243e-01" purity="3.2448670268058777e-01" nType="-99"/>
          <Node pos="r" depth="2" NCoef="0" IVar="-1" Cut="0.0000000000000000e+00" cType="1" res="2.5073147844523191e-04" rms="3.3733129501342773e-01" purity="8.4717392921447754e-01" nType="-99"/>
        </Node>
      </Node>
    </BinaryTree>
    <BinaryTree type="DecisionTree" boostWeight="1.0000000000000000e+00" itree="987">
      <Node pos="s" depth="0" NCoef="0" IVar="4" Cut="8.2762492187500000e+04" cType="1" res="3.8065803050994873e-01" rms="4.8554864525794983e-01" purity="3.8065803050994873e-01" nType="0">
        <Node pos="l" depth="1" NCoef="0" IVar="0" Cut="4.0000000000000000e+00" cType="1" res="-5.1091508939862251e-03" rms="3.5320007801055908e-01" purity="3.3795213699340820e-01" nType="0">
          <Node pos="l" depth="2" NCoef="0" IVar="-1" Cut="0.0000000000000000e+00" cType="1" res="-4.8253667773678899e-04" rms="3.5785722732543945e-01" purity="3.0543684959411621e-01" nType="-99"/>
          <Node pos="r" depth="2" NCoef="0" IVar="-1" Cut="0.0000000000000000e+00" cType="1" res="2.7623490896075964e-03" rms="2.4581505358219147e-01" purity="9.3526726961135864e-01" nType="-99"/>
        </Node>
        <Node pos="r" depth="1" NCoef="0" IVar="-1" Cut="0.0000000000000000e+00" cType="1" res="8.7401468772441149e-04" rms="2.7673372626304626e-01" purity="9.1618257761001587e-01" nType="-99"/>
      </Node>
    </BinaryTree>
    <BinaryTree type="DecisionTree" boostWeight="1.0000000000000000e+00" itree="988">
      <Node pos="s" depth="0" NCoef="0" IVar="3" Cut="8.9426570312500000e+04" cType="1" res="5.0707638263702393e-01" rms="4.9994993209838867e-01" purity="5.0707638263702393e-01" nType="0">
        <Node pos="l" depth="1" NCoef="0" IVar="3" Cut="8.8493054687500000e+04" cType="1" res="6.0527944564819336e-01" rms="4.8879057168960571e-01" purity="6.0527944564819336e-01" nType="0">
          <Node pos="l" depth="2" NCoef="0" IVar="-1" Cut="0.0000000000000000e+00" cType="1" res="-1.4512691996060312e-04" rms="3.5047286748886108e-01" purity="3.6784824728965759e-01" nType="-99"/>
          <Node pos="r" depth="2" NCoef="0" IVar="-1" Cut="0.0000000000000000e+00" cType="1" res="2.3585393137182109e-05" rms="4.1577655076980591e-01" purity="8.3312034606933594e-01" nType="-99"/>
        </Node>
        <Node pos="r" depth="1" NCoef="0" IVar="4" Cut="1.7911039062500000e+04" cType="1" res="3.7178677320480347e-01" rms="4.8341608047485352e-01" purity="3.7206482887268066e-01" nType="0">
          <Node pos="l" depth="2" NCoef="0" IVar="-1" Cut="0.0000000000000000e+00" cType="1" res="2.3305718787014484e-03" rms="3.0920282006263733e-01" purity="2.1068087220191956e-01" nType="-99"/>
          <Node pos="r" depth="2" NCoef="0" IVar="-1" Cut="0.0000000000000000e+00" cType="1" res="-6.1097496654838324e-04" rms="3.9104846119880676e-01" purity="4.8251461982727051e-01" nType="-99"/>
        </Node>
      </Node>
    </BinaryTree>
    <BinaryTree type="DecisionTree" boostWeight="1.0000000000000000e+00" itree="989">
      <Node pos="s" depth="0" NCoef="0" IVar="4" Cut="8.2774625000000000e+04" cType="1" res="3.8678118586540222e-01" rms="4.8701283335685730e-01" purity="3.8678115606307983e-01" nType="0">
        <Node pos="l" depth="1" NCoef="0" IVar="5" Cut="2.2144264062500000e+05" cType="1" res="3.4603253006935120e-01" rms="4.7570371627807617e-01" purity="3.4603253006935120e-01" nType="0">
          <Node pos="l" depth="2" NCoef="0" IVar="-1" Cut="0.0000000000000000e+00" cType="1" res="-2.5667590089142323e-03" rms="2.6863098144531250e-01" purity="9.5427244901657104e-02" nType="-99"/>
          <Node pos="r" depth="2" NCoef="0" IVar="-1" Cut="0.0000000000000000e+00" cType="1" res="3.6388693843036890e-04" rms="4.0201589465141296e-01" purity="5.2306395769119263e-01" nType="-99"/>
        </Node>
        <Node pos="r" depth="1" NCoef="0" IVar="-1" Cut="0.0000000000000000e+00" cType="1" res="9.0929900761693716e-04" rms="2.7734196186065674e-01" purity="9.1558539867401123e-01" nType="-99"/>
      </Node>
    </BinaryTree>
    <BinaryTree type="DecisionTree" boostWeight="1.0000000000000000e+00" itree="990">
      <Node pos="s" depth="0" NCoef="0" IVar="4" Cut="8.2777554687500000e+04" cType="1" res="3.8375154137611389e-01" rms="4.8655712604522705e-01" purity="3.8409695029258728e-01" nType="0">
        <Node pos="l" depth="1" NCoef="0" IVar="0" Cut="1.0000000000000000e+00" cType="1" res="-4.2375503107905388e-03" rms="3.5143259167671204e-01" purity="3.4444850683212280e-01" nType="0">
          <Node pos="l" depth="2" NCoef="0" IVar="-1" Cut="0.0000000000000000e+00" cType="1" res="-1.9844772759824991e-03" rms="2.7586072683334351e-01" purity="1.0367556661367416e-01" nType="-99"/>
          <Node pos="r" depth="2" NCoef="0" IVar="-1" Cut="0.0000000000000000e+00" cType="1" res="3.5763077903538942e-04" rms="4.0709391236305237e-01" purity="5.6073129177093506e-01" nType="-99"/>
        </Node>
        <Node pos="r" depth="1" NCoef="0" IVar="-1" Cut="0.0000000000000000e+00" cType="1" res="9.5289258752018213e-04" rms="2.7601757645606995e-01" purity="9.1605061292648315e-01" nType="-99"/>
      </Node>
    </BinaryTree>
    <BinaryTree type="DecisionTree" boostWeight="1.0000000000000000e+00" itree="991">
      <Node pos="s" depth="0" NCoef="0" IVar="1" Cut="2.0340862500000000e+05" cType="1" res="5.6253296136856079e-01" rms="4.9621650576591492e-01" purity="5.6274873018264771e-01" nType="0">
        <Node pos="l" depth="1" NCoef="0" IVar="2" Cut="8.9715734375000000e+04" cType="1" res="4.2611604928970337e-01" rms="5.0331747531890869e-01" purity="7.8055679798126221e-01" nType="0">
          <Node pos="l" depth="2" NCoef="0" IVar="-1" Cut="0.0000000000000000e+00" cType="1" res="2.0732726625283249e-05" rms="2.6463729143142700e-01" purity="9.2731863260269165e-01" nType="-99"/>
          <Node pos="r" depth="2" NCoef="0" IVar="-1" Cut="0.0000000000000000e+00" cType="1" res="7.9740176443010569e-04" rms="3.4126666188240051e-01" purity="2.3235020041465759e-01" nType="-99"/>
        </Node>
        <Node pos="r" depth="1" NCoef="0" IVar="4" Cut="7.6838750000000000e+04" cType="1" res="4.1200357675552368e-01" rms="4.9243810772895813e-01" purity="4.1236835718154907e-01" nType="0">
          <Node pos="l" depth="2" NCoef="0" IVar="-1" Cut="0.0000000000000000e+00" cType="1" res="-1.8277016351930797e-04" rms="3.6375528573989868e-01" purity="3.6497053503990173e-01" nType="-99"/>
          <Node pos="r" depth="2" NCoef="0" IVar="-1" Cut="0.0000000000000000e+00" cType="1" res="7.6102116145193577e-04" rms="2.8651362657546997e-01" purity="9.0830099582672119e-01" nType="-99"/>
        </Node>
      </Node>
    </BinaryTree>
    <BinaryTree type="DecisionTree" boostWeight="1.0000000000000000e+00" itree="992">
      <Node pos="s" depth="0" NCoef="0" IVar="3" Cut="9.8786921875000000e+04" cType="1" res="3.7399727106094360e-01" rms="4.8419359326362610e-01" purity="3.7431740760803223e-01" nType="0">
        <Node pos="l" depth="1" NCoef="0" IVar="0" Cut="4.0000000000000000e+00" cType="1" res="-3.0726869590580463e-03" rms="3.5305199027061462e-01" purity="3.7039810419082642e-01" nType="0">
          <Node pos="l" depth="2" NCoef="0" IVar="-1" Cut="0.0000000000000000e+00" cType="1" res="-3.3576018176972866e-04" rms="3.5850718617439270e-01" purity="3.3676093816757202e-01" nType="-99"/>
          <Node pos="r" depth="2" NCoef="0" IVar="-1" Cut="0.0000000000000000e+00" cType="1" res="3.1442434992641211e-03" rms="2.3707357048988342e-01" purity="9.3951368331909180e-01" nType="-99"/>
        </Node>
        <Node pos="r" depth="1" NCoef="0" IVar="-1" Cut="0.0000000000000000e+00" cType="1" res="1.7401216318830848e-03" rms="4.3012568354606628e-01" purity="4.6820810437202454e-01" nType="-99"/>
      </Node>
    </BinaryTree>
    <BinaryTree type="DecisionTree" boostWeight="1.0000000000000000e+00" itree="993">
      <Node pos="s" depth="0" NCoef="0" IVar="3" Cut="9.5950968750000000e+04" cType="1" res="6.0789567232131958e-01" rms="4.8836469650268555e-01" purity="6.0803723335266113e-01" nType="0">
        <Node pos="l" depth="1" NCoef="0" IVar="4" Cut="7.6855453125000000e+04" cType="1" res="3.8555410504341125e-01" rms="4.8706266283988953e-01" purity="3.8591799139976501e-01" nType="0">
          <Node pos="l" depth="2" NCoef="0" IVar="-1" Cut="0.0000000000000000e+00" cType="1" res="2.8039230528520420e-05" rms="3.5331198573112488e-01" purity="3.4069624543190002e-01" nType="-99"/>
          <Node pos="r" depth="2" NCoef="0" IVar="-1" Cut="0.0000000000000000e+00" cType="1" res="7.9686206299811602e-04" rms="2.9444941878318787e-01" purity="9.0210872888565063e-01" nType="-99"/>
        </Node>
        <Node pos="r" depth="1" NCoef="0" IVar="2" Cut="8.9362742187500000e+04" cType="1" res="8.9697313308715820e-01" rms="3.0399397015571594e-01" purity="8.9697313308715820e-01" nType="0">
          <Node pos="l" depth="2" NCoef="0" IVar="-1" Cut="0.0000000000000000e+00" cType="1" res="1.5977648217813112e-05" rms="2.1152715384960175e-01" purity="9.6675175428390503e-01" nType="-99"/>
          <Node pos="r" depth="2" NCoef="0" IVar="-1" Cut="0.0000000000000000e+00" cType="1" res="-7.8276568092405796e-04" rms="3.4855496883392334e-01" purity="3.9611303806304932e-01" nType="-99"/>
        </Node>
      </Node>
    </BinaryTree>
    <BinaryTree type="DecisionTree" boostWeight="1.0000000000000000e+00" itree="994">
      <Node pos="s" depth="0" NCoef="0" IVar="1" Cut="2.0309048437500000e+05" cType="1" res="4.4258964061737061e-01" rms="4.9683025479316711e-01" purity="4.4272589683532715e-01" nType="0">
        <Node pos="l" depth="1" NCoef="0" IVar="2" Cut="8.9653828125000000e+04" cType="1" res="4.6288305521011353e-01" rms="5.2502351999282837e-01" purity="5.3392469882965088e-01" nType="0">
          <Node pos="l" depth="2" NCoef="0" IVar="-1" Cut="0.0000000000000000e+00" cType="1" res="2.8065373044228181e-05" rms="4.1391971707344055e-01" purity="7.8930282592773438e-01" nType="-99"/>
          <Node pos="r" depth="2" NCoef="0" IVar="-1" Cut="0.0000000000000000e+00" cType="1" res="-1.2083507608622313e-03" rms="3.2204443216323853e-01" purity="2.1298457682132721e-01" nType="-99"/>
        </Node>
        <Node pos="r" depth="1" NCoef="0" IVar="4" Cut="7.3297656250000000e+04" cType="1" res="4.1193348169326782e-01" rms="4.9236804246902466e-01" purity="4.1211545467376709e-01" nType="0">
          <Node pos="l" depth="2" NCoef="0" IVar="-1" Cut="0.0000000000000000e+00" cType="1" res="-3.4583458909764886e-04" rms="3.6220246553421021e-01" purity="3.5488367080688477e-01" nType="-99"/>
          <Node pos="r" depth="2" NCoef="0" IVar="-1" Cut="0.0000000000000000e+00" cType="1" res="6.8511255085468292e-04" rms="2.9419800639152527e-01" purity="9.0155273675918579e-01" nType="-99"/>
        </Node>
      </Node>
    </BinaryTree>
    <BinaryTree type="DecisionTree" boostWeight="1.0000000000000000e+00" itree="995">
      <Node pos="s" depth="0" NCoef="0" IVar="2" Cut="9.1833187500000000e+04" cType="1" res="0.0000000000000000e+00" rms="0.0000000000000000e+00" purity="4.6633115410804749e-01" nType="0">
        <Node pos="l" depth="1" NCoef="0" IVar="0" Cut="1.0000000000000000e+00" cType="1" res="1.9382310565561056e-03" rms="3.5233655571937561e-01" purity="3.7573596835136414e-01" nType="0">
          <Node pos="l" depth="2" NCoef="0" IVar="-1" Cut="0.0000000000000000e+00" cType="1" res="-7.0382148260250688e-04" rms="2.8270789980888367e-01" purity="1.3785497844219208e-01" nType="-99"/>
          <Node pos="r" depth="2" NCoef="0" IVar="-1" Cut="0.0000000000000000e+00" cType="1" res="4.6677023055963218e-04" rms="4.0308749675750732e-01" purity="5.8310168981552124e-01" nType="-99"/>
        </Node>
        <Node pos="r" depth="1" NCoef="0" IVar="2" Cut="9.2024851562500000e+04" cType="1" res="0.0000000000000000e+00" rms="0.0000000000000000e+00" purity="6.0213154554367065e-01" nType="0">
          <Node pos="l" depth="2" NCoef="0" IVar="-1" Cut="0.0000000000000000e+00" cType="1" res="2.1502100935322233e-05" rms="3.6977225542068481e-01" purity="8.8204526901245117e-01" nType="-99"/>
          <Node pos="r" depth="2" NCoef="0" IVar="-1" Cut="0.0000000000000000e+00" cType="1" res="-2.5895249564200640e-04" rms="3.5583159327507019e-01" purity="3.8646596670150757e-01" nType="-99"/>
        </Node>
      </Node>
    </BinaryTree>
    <BinaryTree type="DecisionTree" boostWeight="1.0000000000000000e+00" itree="996">
      <Node pos="s" depth="0" NCoef="0" IVar="1" Cut="2.0237307812500000e+05" cType="1" res="4.5767894387245178e-01" rms="4.9850937724113464e-01" purity="4.5805075764656067e-01" nType="0">
        <Node pos="l" depth="1" NCoef="0" IVar="2" Cut="8.9600773437500000e+04" cType="1" res="4.7752186655998230e-01" rms="5.2463543415069580e-01" purity="5.5054819583892822e-01" nType="0">
          <Node pos="l" depth="2" NCoef="0" IVar="-1" Cut="0.0000000000000000e+00" cType="1" res="2.8333162845228799e-05" rms="4.0059497952461243e-01" purity="8.0697745084762573e-01" nType="-99"/>
          <Node pos="r" depth="2" NCoef="0" IVar="-1" Cut="0.0000000000000000e+00" cType="1" res="2.1775800269097090e-04" rms="3.3122822642326355e-01" purity="2.3361922800540924e-01" nType="-99"/>
        </Node>
        <Node pos="r" depth="1" NCoef="0" IVar="4" Cut="4.9675628906250000e+04" cType="1" res="4.2804017663002014e-01" rms="4.9504613876342773e-01" purity="4.2838039994239807e-01" nType="0">
          <Node pos="l" depth="2" NCoef="0" IVar="-1" Cut="0.0000000000000000e+00" cType="1" res="-4.8433244228363037e-04" rms="3.4946617484092712e-01" purity="3.1911051273345947e-01" nType="-99"/>
          <Node pos="r" depth="2" NCoef="0" IVar="-1" Cut="0.0000000000000000e+00" cType="1" res="7.2276068385690451e-04" rms="3.5179701447486877e-01" purity="8.3506429195404053e-01" nType="-99"/>
        </Node>
      </Node>
    </BinaryTree>
    <BinaryTree type="DecisionTree" boostWeight="1.0000000000000000e+00" itree="997">
      <Node pos="s" depth="0" NCoef="0" IVar="2" Cut="9.1808140625000000e+04" cType="1" res="4.7011700272560120e-01" rms="4.9918347597122192e-01" purity="4.7028464078903198e-01" nType="0">
        <Node pos="l" depth="1" NCoef="0" IVar="3" Cut="9.6091234375000000e+04" cType="1" res="3.9069905877113342e-01" rms="4.8793071508407593e-01" purity="3.9072209596633911e-01" nType="0">
          <Node pos="l" depth="2" NCoef="0" IVar="-1" Cut="0.0000000000000000e+00" cType="1" res="1.6957843035925180e-04" rms="3.4947535395622253e-01" purity="3.7937366962432861e-01" nType="-99"/>
          <Node pos="r" depth="2" NCoef="0" IVar="-1" Cut="0.0000000000000000e+00" cType="1" res="1.5637336764484644e-03" rms="3.9053595066070557e-01" purity="4.7576123476028442e-01" nType="-99"/>
        </Node>
        <Node pos="r" depth="1" NCoef="0" IVar="2" Cut="9.2002164062500000e+04" cType="1" res="5.8840119838714600e-01" rms="4.9225533008575439e-01" purity="5.8891445398330688e-01" nType="0">
          <Node pos="l" depth="2" NCoef="0" IVar="-1" Cut="0.0000000000000000e+00" cType="1" res="2.1288349671522155e-05" rms="3.8385051488876343e-01" purity="8.6607080698013306e-01" nType="-99"/>
          <Node pos="r" depth="2" NCoef="0" IVar="-1" Cut="0.0000000000000000e+00" cType="1" res="-1.4808712876401842e-04" rms="3.5208243131637573e-01" purity="3.7782305479049683e-01" nType="-99"/>
        </Node>
      </Node>
    </BinaryTree>
    <BinaryTree type="DecisionTree" boostWeight="1.0000000000000000e+00" itree="998">
      <Node pos="s" depth="0" NCoef="0" IVar="5" Cut="1.5978770312500000e+05" cType="1" res="5.5769401788711548e-01" rms="4.9667182564735413e-01" purity="5.5770552158355713e-01" nType="0">
        <Node pos="l" depth="1" NCoef="0" IVar="-1" Cut="0.0000000000000000e+00" cType="1" res="1.5818008250789717e-05" rms="2.9986131191253662e-01" purity="8.7012296915054321e-01" nType="-99"/>
        <Node pos="r" depth="1" NCoef="0" IVar="4" Cut="3.7077156250000000e+04" cType="1" res="4.1646742820739746e-01" rms="4.9298986792564392e-01" purity="4.1648411750793457e-01" nType="0">
          <Node pos="l" depth="2" NCoef="0" IVar="-1" Cut="0.0000000000000000e+00" cType="1" res="1.1325895320624113e-04" rms="3.4705546498298645e-01" purity="2.8799071907997131e-01" nType="-99"/>
          <Node pos="r" depth="2" NCoef="0" IVar="-1" Cut="0.0000000000000000e+00" cType="1" res="4.5400069211609662e-04" rms="3.9045625925064087e-01" purity="7.3262673616409302e-01" nType="-99"/>
        </Node>
      </Node>
    </BinaryTree>
    <BinaryTree type="DecisionTree" boostWeight="1.0000000000000000e+00" itree="999">
      <Node pos="s" depth="0" NCoef="0" IVar="1" Cut="2.0203215625000000e+05" cType="1" res="4.9475756287574768e-01" rms="5.0020849704742432e-01" purity="4.9507954716682434e-01" nType="0">
        <Node pos="l" depth="1" NCoef="0" IVar="2" Cut="8.9620320312500000e+04" cType="1" res="6.3333696126937866e-01" rms="4.9575120210647583e-01" purity="6.8070459365844727e-01" nType="0">
          <Node pos="l" depth="2" NCoef="0" IVar="-1" Cut="0.0000000000000000e+00" cType="1" res="2.7800864700111561e-05" rms="3.2059568166732788e-01" purity="8.8922989368438721e-01" nType="-99"/>
          <Node pos="r" depth="2" NCoef="0" IVar="-1" Cut="0.0000000000000000e+00" cType="1" res="8.0325320595875382e-05" rms="3.2832908630371094e-01" purity="2.1922139823436737e-01" nType="-99"/>
        </Node>
        <Node pos="r" depth="1" NCoef="0" IVar="4" Cut="7.6838750000000000e+04" cType="1" res="4.1127550601959229e-01" rms="4.9241238832473755e-01" purity="4.1174206137657166e-01" nType="0">
          <Node pos="l" depth="2" NCoef="0" IVar="-1" Cut="0.0000000000000000e+00" cType="1" res="-1.6187914297915995e-05" rms="3.6721685528755188e-01" purity="3.6153134703636169e-01" nType="-99"/>
          <Node pos="r" depth="2" NCoef="0" IVar="-1" Cut="0.0000000000000000e+00" cType="1" res="6.6004105610772967e-04" rms="2.9641503095626831e-01" purity="9.0053015947341919e-01" nType="-99"/>
        </Node>
      </Node>
    </BinaryTree>
    <BinaryTree type="DecisionTree" boostWeight="1.0000000000000000e+00" itree="1000">
      <Node pos="s" depth="0" NCoef="0" IVar="4" Cut="3.5522148437500000e+04" cType="1" res="3.8960701227188110e-01" rms="4.8829561471939087e-01" purity="3.9022621512413025e-01" nType="0">
        <Node pos="l" depth="1" NCoef="0" IVar="4" Cut="2.4461808593750000e+04" cType="1" res="2.5862371921539307e-01" rms="4.3800094723701477e-01" purity="2.5893193483352661e-01" nType="0">
          <Node pos="l" depth="2" NCoef="0" IVar="-1" Cut="0.0000000000000000e+00" cType="1" res="7.6937477570027113e-04" rms="3.1197488307952881e-01" purity="2.2540917992591858e-01" nType="-99"/>
          <Node pos="r" depth="2" NCoef="0" IVar="-1" Cut="0.0000000000000000e+00" cType="1" res="-2.1861896384507418e-03" rms="3.8765609264373779e-01" purity="3.7217071652412415e-01" nType="-99"/>
        </Node>
        <Node pos="r" depth="1" NCoef="0" IVar="3" Cut="8.5313218750000000e+04" cType="1" res="6.9882673025131226e-01" rms="4.6076735854148865e-01" purity="7.0066535472869873e-01" nType="0">
          <Node pos="l" depth="2" NCoef="0" IVar="-1" Cut="0.0000000000000000e+00" cType="1" res="2.2692768834531307e-04" rms="3.5897165536880493e-01" purity="7.7791172266006470e-01" nType="-99"/>
          <Node pos="r" depth="2" NCoef="0" IVar="-1" Cut="0.0000000000000000e+00" cType="1" res="4.5052991481497884e-04" rms="4.0965709090232849e-01" purity="6.8403160572052002e-01" nType="-99"/>
        </Node>
      </Node>
    </BinaryTree>
    <BinaryTree type="DecisionTree" boostWeight="1.0000000000000000e+00" itree="1001">
      <Node pos="s" depth="0" NCoef="0" IVar="0" Cut="1.0000000000000000e+00" cType="1" res="3.1086805462837219e-01" rms="4.8991668224334717e-01" purity="6.1251270771026611e-01" nType="0">
        <Node pos="l" depth="1" NCoef="0" IVar="4" Cut="1.9683986328125000e+04" cType="1" res="6.1841273307800293e-01" rms="4.8723962903022766e-01" purity="6.1983674764633179e-01" nType="0">
          <Node pos="l" depth="2" NCoef="0" IVar="-1" Cut="0.0000000000000000e+00" cType="1" res="4.1394853033125401e-03" rms="2.1664418280124664e-01" purity="4.9629721790552139e-02" nType="-99"/>
          <Node pos="r" depth="2" NCoef="0" IVar="-1" Cut="0.0000000000000000e+00" cType="1" res="2.0941879483871162e-05" rms="4.1988500952720642e-01" purity="8.1175565719604492e-01" nType="-99"/>
        </Node>
        <Node pos="r" depth="1" NCoef="0" IVar="0" Cut="4.0000000000000000e+00" cType="1" res="1.5831572934985161e-02" rms="3.9696756005287170e-01" purity="5.9858804941177368e-01" nType="0">
          <Node pos="l" depth="2" NCoef="0" IVar="-1" Cut="0.0000000000000000e+00" cType="1" res="3.4234716440550983e-04" rms="4.1294822096824646e-01" purity="5.5493509769439697e-01" nType="-99"/>
          <Node pos="r" depth="2" NCoef="0" IVar="-1" Cut="0.0000000000000000e+00" cType="1" res="4.2164532351307571e-04" rms="2.2935438156127930e-01" purity="9.4505310058593750e-01" nType="-99"/>
        </Node>
      </Node>
    </BinaryTree>
    <BinaryTree type="DecisionTree" boostWeight="1.0000000000000000e+00" itree="1002">
      <Node pos="s" depth="0" NCoef="0" IVar="3" Cut="8.9426312500000000e+04" cType="1" res="5.1275879144668579e-01" rms="5.0008881092071533e-01" purity="5.1301044225692749e-01" nType="0">
        <Node pos="l" depth="1" NCoef="0" IVar="3" Cut="8.8492710937500000e+04" cType="1" res="6.0186183452606201e-01" rms="4.8960781097412109e-01" purity="6.0212957859039307e-01" nType="0">
          <Node pos="l" depth="2" NCoef="0" IVar="-1" Cut="0.0000000000000000e+00" cType="1" res="1.7902866238728166e-04" rms="3.5375377535820007e-01" purity="3.7634038925170898e-01" nType="-99"/>
          <Node pos="r" depth="2" NCoef="0" IVar="-1" Cut="0.0000000000000000e+00" cType="1" res="2.3541622795164585e-05" rms="4.2178994417190552e-01" purity="8.2694190740585327e-01" nType="-99"/>
        </Node>
        <Node pos="r" depth="1" NCoef="0" IVar="3" Cut="9.8192625000000000e+04" cType="1" res="3.8857269287109375e-01" rms="4.8779153823852539e-01" purity="3.8892933726310730e-01" nType="0">
          <Node pos="l" depth="2" NCoef="0" IVar="-1" Cut="0.0000000000000000e+00" cType="1" res="-3.4711232729023322e-05" rms="3.5143247246742249e-01" purity="3.8074356317520142e-01" nType="-99"/>
          <Node pos="r" depth="2" NCoef="0" IVar="-1" Cut="0.0000000000000000e+00" cType="1" res="1.1288116220384836e-03" rms="3.9973610639572144e-01" purity="4.6429771184921265e-01" nType="-99"/>
        </Node>
      </Node>
    </BinaryTree>
    <BinaryTree type="DecisionTree" boostWeight="1.0000000000000000e+00" itree="1003">
      <Node pos="s" depth="0" NCoef="0" IVar="3" Cut="8.9426531250000000e+04" cType="1" res="5.0953477621078491e-01" rms="4.9990907311439514e-01" purity="5.0953477621078491e-01" nType="0">
        <Node pos="l" depth="1" NCoef="0" IVar="3" Cut="8.8493015625000000e+04" cType="1" res="6.0657048225402832e-01" rms="4.8851072788238525e-01" purity="6.0657048225402832e-01" nType="0">
          <Node pos="l" depth="2" NCoef="0" IVar="-1" Cut="0.0000000000000000e+00" cType="1" res="-6.0837552155135199e-05" rms="3.4720465540885925e-01" purity="3.7775424122810364e-01" nType="-99"/>
          <Node pos="r" depth="2" NCoef="0" IVar="-1" Cut="0.0000000000000000e+00" cType="1" res="2.3711671019555070e-05" rms="4.1700556874275208e-01" purity="8.2919538021087646e-01" nType="-99"/>
        </Node>
        <Node pos="r" depth="1" NCoef="0" IVar="4" Cut="1.7878488281250000e+04" cType="1" res="3.7463468313217163e-01" rms="4.8402845859527588e-01" purity="3.7478238344192505e-01" nType="0">
          <Node pos="l" depth="2" NCoef="0" IVar="-1" Cut="0.0000000000000000e+00" cType="1" res="2.4153224658221006e-03" rms="3.1150197982788086e-01" purity="1.9751100242137909e-01" nType="-99"/>
          <Node pos="r" depth="2" NCoef="0" IVar="-1" Cut="0.0000000000000000e+00" cType="1" res="-6.1675551114603877e-04" rms="3.8129645586013794e-01" purity="4.9539986252784729e-01" nType="-99"/>
        </Node>
      </Node>
    </BinaryTree>
    <BinaryTree type="DecisionTree" boostWeight="1.0000000000000000e+00" itree="1004">
      <Node pos="s" depth="0" NCoef="0" IVar="4" Cut="8.2774625000000000e+04" cType="1" res="3.8867890834808350e-01" rms="4.8764672875404358e-01" purity="3.8913685083389282e-01" nType="0">
        <Node pos="l" depth="1" NCoef="0" IVar="3" Cut="9.5525468750000000e+04" cType="1" res="3.4686288237571716e-01" rms="4.7611403465270996e-01" purity="3.4715047478675842e-01" nType="0">
          <Node pos="l" depth="2" NCoef="0" IVar="-1" Cut="0.0000000000000000e+00" cType="1" res="-2.7301217778585851e-04" rms="3.5053750872612000e-01" purity="3.3829143643379211e-01" nType="-99"/>
          <Node pos="r" depth="2" NCoef="0" IVar="-1" Cut="0.0000000000000000e+00" cType="1" res="8.8112638331949711e-04" rms="3.9351749420166016e-01" purity="3.9834344387054443e-01" nType="-99"/>
        </Node>
        <Node pos="r" depth="1" NCoef="0" IVar="-1" Cut="0.0000000000000000e+00" cType="1" res="7.6485250610858202e-04" rms="2.7886968851089478e-01" purity="9.1273391246795654e-01" nType="-99"/>
      </Node>
    </BinaryTree>
    <BinaryTree type="DecisionTree" boostWeight="1.0000000000000000e+00" itree="1005">
      <Node pos="s" depth="0" NCoef="0" IVar="2" Cut="9.1787367187500000e+04" cType="1" res="4.7044581174850464e-01" rms="4.9912577867507935e-01" purity="4.7044584155082703e-01" nType="0">
        <Node pos="l" depth="1" NCoef="0" IVar="3" Cut="9.7792109375000000e+04" cType="1" res="3.7848997116088867e-01" rms="4.8501062393188477e-01" purity="3.7848997116088867e-01" nType="0">
          <Node pos="l" depth="2" NCoef="0" IVar="-1" Cut="0.0000000000000000e+00" cType="1" res="-1.8769859161693603e-04" rms="3.4915593266487122e-01" purity="3.7243148684501648e-01" nType="-99"/>
          <Node pos="r" depth="2" NCoef="0" IVar="-1" Cut="0.0000000000000000e+00" cType="1" res="1.3878326863050461e-03" rms="4.1849464178085327e-01" purity="4.7246828675270081e-01" nType="-99"/>
        </Node>
        <Node pos="r" depth="1" NCoef="0" IVar="2" Cut="9.1981835937500000e+04" cType="1" res="6.0162168741226196e-01" rms="4.8969402909278870e-01" purity="6.0174894332885742e-01" nType="0">
          <Node pos="l" depth="2" NCoef="0" IVar="-1" Cut="0.0000000000000000e+00" cType="1" res="2.1535352061619051e-05" rms="3.7096783518791199e-01" purity="8.7757772207260132e-01" nType="-99"/>
          <Node pos="r" depth="2" NCoef="0" IVar="-1" Cut="0.0000000000000000e+00" cType="1" res="4.5081277494318783e-04" rms="3.6009356379508972e-01" purity="4.0117359161376953e-01" nType="-99"/>
        </Node>
      </Node>
    </BinaryTree>
    <BinaryTree type="DecisionTree" boostWeight="1.0000000000000000e+00" itree="1006">
      <Node pos="s" depth="0" NCoef="0" IVar="5" Cut="1.5960065625000000e+05" cType="1" res="4.8131486773490906e-01" rms="4.9965074658393860e-01" purity="4.8140269517898560e-01" nType="0">
        <Node pos="l" depth="1" NCoef="0" IVar="-1" Cut="0.0000000000000000e+00" cType="1" res="1.5924535546218976e-05" rms="3.7471568584442139e-01" purity="7.7675884962081909e-01" nType="-99"/>
        <Node pos="r" depth="1" NCoef="0" IVar="4" Cut="8.2762492187500000e+04" cType="1" res="4.0470135211944580e-01" rms="4.9083414673805237e-01" purity="4.0481197834014893e-01" nType="0">
          <Node pos="l" depth="2" NCoef="0" IVar="-1" Cut="0.0000000000000000e+00" cType="1" res="-8.7217966211028397e-05" rms="3.6459943652153015e-01" purity="3.6296162009239197e-01" nType="-99"/>
          <Node pos="r" depth="2" NCoef="0" IVar="-1" Cut="0.0000000000000000e+00" cType="1" res="9.2417973792180419e-04" rms="2.7344629168510437e-01" purity="9.1815161705017090e-01" nType="-99"/>
        </Node>
      </Node>
    </BinaryTree>
    <BinaryTree type="DecisionTree" boostWeight="1.0000000000000000e+00" itree="1007">
      <Node pos="s" depth="0" NCoef="0" IVar="0" Cut="4.0000000000000000e+00" cType="1" res="8.3109270781278610e-03" rms="3.5086280107498169e-01" purity="3.9535316824913025e-01" nType="0">
        <Node pos="l" depth="1" NCoef="0" IVar="4" Cut="7.6838750000000000e+04" cType="1" res="3.5382047295570374e-01" rms="4.7815430164337158e-01" purity="3.5393232107162476e-01" nType="0">
          <Node pos="l" depth="2" NCoef="0" IVar="-1" Cut="0.0000000000000000e+00" cType="1" res="-1.4072018529986963e-05" rms="3.6278453469276428e-01" purity="3.0711939930915833e-01" nType="-99"/>
          <Node pos="r" depth="2" NCoef="0" IVar="-1" Cut="0.0000000000000000e+00" cType="1" res="7.3876098031178117e-04" rms="2.9645034670829773e-01" purity="8.9996606111526489e-01" nType="-99"/>
        </Node>
        <Node pos="r" depth="1" NCoef="0" IVar="-1" Cut="0.0000000000000000e+00" cType="1" res="2.7905881870537996e-04" rms="2.2156313061714172e-01" purity="9.4940745830535889e-01" nType="-99"/>
      </Node>
    </BinaryTree>
    <BinaryTree type="DecisionTree" boostWeight="1.0000000000000000e+00" itree="1008">
      <Node pos="s" depth="0" NCoef="0" IVar="1" Cut="1.9145550000000000e+05" cType="1" res="4.4822388887405396e-01" rms="4.9731200933456421e-01" purity="4.4822388887405396e-01" nType="0">
        <Node pos="l" depth="1" NCoef="0" IVar="3" Cut="8.8364085937500000e+04" cType="1" res="0.0000000000000000e+00" rms="0.0000000000000000e+00" purity="7.0309352874755859e-01" nType="0">
          <Node pos="l" depth="2" NCoef="0" IVar="-1" Cut="0.0000000000000000e+00" cType="1" res="-3.9648171514272690e-04" rms="3.0249324440956116e-01" purity="2.2590684890747070e-01" nType="-99"/>
          <Node pos="r" depth="2" NCoef="0" IVar="-1" Cut="0.0000000000000000e+00" cType="1" res="2.7697138648363762e-05" rms="3.7355816364288330e-01" purity="8.3825498819351196e-01" nType="-99"/>
        </Node>
        <Node pos="r" depth="1" NCoef="0" IVar="0" Cut="4.0000000000000000e+00" cType="1" res="6.2298807315528393e-03" rms="3.5587590932846069e-01" purity="3.9995315670967102e-01" nType="0">
          <Node pos="l" depth="2" NCoef="0" IVar="-1" Cut="0.0000000000000000e+00" cType="1" res="1.1723995703505352e-04" rms="3.6232188344001770e-01" purity="3.6397042870521545e-01" nType="-99"/>
          <Node pos="r" depth="2" NCoef="0" IVar="-1" Cut="0.0000000000000000e+00" cType="1" res="3.9330846630036831e-04" rms="2.3156429827213287e-01" purity="9.4407421350479126e-01" nType="-99"/>
        </Node>
      </Node>
    </BinaryTree>
    <BinaryTree type="DecisionTree" boostWeight="1.0000000000000000e+00" itree="1009">
      <Node pos="s" depth="0" NCoef="0" IVar="1" Cut="2.0203215625000000e+05" cType="1" res="4.5371964573860168e-01" rms="4.9819305539131165e-01" purity="4.5405784249305725e-01" nType="0">
        <Node pos="l" depth="1" NCoef="0" IVar="2" Cut="8.9636281250000000e+04" cType="1" res="4.8897579312324524e-01" rms="5.1891058683395386e-01" purity="5.5543279647827148e-01" nType="0">
          <Node pos="l" depth="2" NCoef="0" IVar="-1" Cut="0.0000000000000000e+00" cType="1" res="2.7816322472062893e-05" rms="4.0900713205337524e-01" purity="7.9634839296340942e-01" nType="-99"/>
          <Node pos="r" depth="2" NCoef="0" IVar="-1" Cut="0.0000000000000000e+00" cType="1" res="1.1579251149669290e-03" rms="3.3226251602172852e-01" purity="2.4566711485385895e-01" nType="-99"/>
        </Node>
        <Node pos="r" depth="1" NCoef="0" IVar="2" Cut="8.7751625000000000e+04" cType="1" res="4.2163524031639099e-01" rms="4.9427101016044617e-01" purity="4.2208012938499451e-01" nType="0">
          <Node pos="l" depth="2" NCoef="0" IVar="-1" Cut="0.0000000000000000e+00" cType="1" res="1.8222398357465863e-03" rms="4.1215568780899048e-01" purity="4.5279860496520996e-01" nType="-99"/>
          <Node pos="r" depth="2" NCoef="0" IVar="-1" Cut="0.0000000000000000e+00" cType="1" res="5.9211874031461775e-05" rms="3.5266596078872681e-01" purity="4.2035329341888428e-01" nType="-99"/>
        </Node>
      </Node>
    </BinaryTree>
    <BinaryTree type="DecisionTree" boostWeight="1.0000000000000000e+00" itree="1010">
      <Node pos="s" depth="0" NCoef="0" IVar="2" Cut="9.1818820312500000e+04" cType="1" res="5.3230285644531250e-01" rms="4.9895542860031128e-01" purity="5.3230291604995728e-01" nType="0">
        <Node pos="l" depth="1" NCoef="0" IVar="4" Cut="2.3692052734375000e+04" cType="1" res="3.8901975750923157e-01" rms="4.8752781748771667e-01" purity="3.8901975750923157e-01" nType="0">
          <Node pos="l" depth="2" NCoef="0" IVar="-1" Cut="0.0000000000000000e+00" cType="1" res="2.1442051511257887e-03" rms="3.1545233726501465e-01" purity="2.4393592774868011e-01" nType="-99"/>
          <Node pos="r" depth="2" NCoef="0" IVar="-1" Cut="0.0000000000000000e+00" cType="1" res="-3.3256402821280062e-04" rms="3.9338356256484985e-01" purity="5.6244367361068726e-01" nType="-99"/>
        </Node>
        <Node pos="r" depth="1" NCoef="0" IVar="2" Cut="9.2010289062500000e+04" cType="1" res="6.9638270139694214e-01" rms="4.6030163764953613e-01" purity="6.9682639837265015e-01" nType="0">
          <Node pos="l" depth="2" NCoef="0" IVar="-1" Cut="0.0000000000000000e+00" cType="1" res="2.1323632608982734e-05" rms="2.9134723544120789e-01" purity="9.3110716342926025e-01" nType="-99"/>
          <Node pos="r" depth="2" NCoef="0" IVar="-1" Cut="0.0000000000000000e+00" cType="1" res="-7.2527979500591755e-04" rms="3.4854429960250854e-01" purity="3.7017062306404114e-01" nType="-99"/>
        </Node>
      </Node>
    </BinaryTree>
    <BinaryTree type="DecisionTree" boostWeight="1.0000000000000000e+00" itree="1011">
      <Node pos="s" depth="0" NCoef="0" IVar="2" Cut="9.1882625000000000e+04" cType="1" res="4.6734049916267395e-01" rms="4.9899452924728394e-01" purity="4.6740266680717468e-01" nType="0">
        <Node pos="l" depth="1" NCoef="0" IVar="3" Cut="9.8077953125000000e+04" cType="1" res="3.7892174720764160e-01" rms="4.8522281646728516e-01" purity="3.7902289628982544e-01" nType="0">
          <Node pos="l" depth="2" NCoef="0" IVar="-1" Cut="0.0000000000000000e+00" cType="1" res="-9.6173986094072461e-05" rms="3.4398758411407471e-01" purity="3.7146034836769104e-01" nType="-99"/>
          <Node pos="r" depth="2" NCoef="0" IVar="-1" Cut="0.0000000000000000e+00" cType="1" res="9.7481446573510766e-04" rms="3.8417413830757141e-01" purity="5.1099628210067749e-01" nType="-99"/>
        </Node>
        <Node pos="r" depth="1" NCoef="0" IVar="2" Cut="9.2075046875000000e+04" cType="1" res="6.0854834318161011e-01" rms="4.8807504773139954e-01" purity="6.0854834318161011e-01" nType="0">
          <Node pos="l" depth="2" NCoef="0" IVar="-1" Cut="0.0000000000000000e+00" cType="1" res="2.1192539861658588e-05" rms="3.6624008417129517e-01" purity="8.8009303808212280e-01" nType="-99"/>
          <Node pos="r" depth="2" NCoef="0" IVar="-1" Cut="0.0000000000000000e+00" cType="1" res="4.9547463277122006e-05" rms="3.5645690560340881e-01" purity="3.9555048942565918e-01" nType="-99"/>
        </Node>
      </Node>
    </BinaryTree>
    <BinaryTree type="DecisionTree" boostWeight="1.0000000000000000e+00" itree="1012">
      <Node pos="s" depth="0" NCoef="0" IVar="2" Cut="9.1813062500000000e+04" cType="1" res="4.6815714240074158e-01" rms="4.9923017621040344e-01" purity="4.6849244832992554e-01" nType="0">
        <Node pos="l" depth="1" NCoef="0" IVar="4" Cut="4.7334476562500000e+04" cType="1" res="3.8221427798271179e-01" rms="4.8612999916076660e-01" purity="3.8241010904312134e-01" nType="0">
          <Node pos="l" depth="2" NCoef="0" IVar="-1" Cut="0.0000000000000000e+00" cType="1" res="-2.9111289768479764e-04" rms="3.4391632676124573e-01" purity="2.8395950794219971e-01" nType="-99"/>
          <Node pos="r" depth="2" NCoef="0" IVar="-1" Cut="0.0000000000000000e+00" cType="1" res="5.3905678214505315e-04" rms="3.6782208085060120e-01" purity="7.9676502943038940e-01" nType="-99"/>
        </Node>
        <Node pos="r" depth="1" NCoef="0" IVar="2" Cut="9.2007023437500000e+04" cType="1" res="5.9790658950805664e-01" rms="4.9060744047164917e-01" purity="5.9873425960540771e-01" nType="0">
          <Node pos="l" depth="2" NCoef="0" IVar="-1" Cut="0.0000000000000000e+00" cType="1" res="2.1277672203723341e-05" rms="3.7191069126129150e-01" purity="8.7769478559494019e-01" nType="-99"/>
          <Node pos="r" depth="2" NCoef="0" IVar="-1" Cut="0.0000000000000000e+00" cType="1" res="1.5278226783266291e-05" rms="3.5298034548759460e-01" purity="3.8928642868995667e-01" nType="-99"/>
        </Node>
      </Node>
    </BinaryTree>
    <BinaryTree type="DecisionTree" boostWeight="1.0000000000000000e+00" itree="1013">
      <Node pos="s" depth="0" NCoef="0" IVar="1" Cut="2.0208595312500000e+05" cType="1" res="4.5472663640975952e-01" rms="4.9812471866607666e-01" purity="4.5499676465988159e-01" nType="0">
        <Node pos="l" depth="1" NCoef="0" IVar="2" Cut="8.9600773437500000e+04" cType="1" res="4.9865704774856567e-01" rms="5.1750344038009644e-01" purity="5.5050408840179443e-01" nType="0">
          <Node pos="l" depth="2" NCoef="0" IVar="-1" Cut="0.0000000000000000e+00" cType="1" res="2.7865156880579889e-05" rms="4.0516936779022217e-01" purity="8.0299645662307739e-01" nType="-99"/>
          <Node pos="r" depth="2" NCoef="0" IVar="-1" Cut="0.0000000000000000e+00" cType="1" res="1.8887738406192511e-04" rms="3.3960649371147156e-01" purity="2.3046706616878510e-01" nType="-99"/>
        </Node>
        <Node pos="r" depth="1" NCoef="0" IVar="4" Cut="4.1286203125000000e+04" cType="1" res="4.2505005002021790e-01" rms="4.9458625912666321e-01" purity="4.2540395259857178e-01" nType="0">
          <Node pos="l" depth="2" NCoef="0" IVar="-1" Cut="0.0000000000000000e+00" cType="1" res="1.4773481780139264e-06" rms="3.5556933283805847e-01" purity="3.0322244763374329e-01" nType="-99"/>
          <Node pos="r" depth="2" NCoef="0" IVar="-1" Cut="0.0000000000000000e+00" cType="1" res="3.0722844530828297e-04" rms="3.7188011407852173e-01" purity="7.7335089445114136e-01" nType="-99"/>
        </Node>
      </Node>
    </BinaryTree>
    <BinaryTree type="DecisionTree" boostWeight="1.0000000000000000e+00" itree="1014">
      <Node pos="s" depth="0" NCoef="0" IVar="0" Cut="4.0000000000000000e+00" cType="1" res="8.6950063705444336e-03" rms="3.5476592183113098e-01" purity="3.9533078670501709e-01" nType="0">
        <Node pos="l" depth="1" NCoef="0" IVar="4" Cut="5.9149851562500000e+04" cType="1" res="3.5991367697715759e-01" rms="4.7997480630874634e-01" purity="3.5991364717483521e-01" nType="0">
          <Node pos="l" depth="2" NCoef="0" IVar="-1" Cut="0.0000000000000000e+00" cType="1" res="5.0906299293274060e-05" rms="3.6194100975990295e-01" purity="2.9140934348106384e-01" nType="-99"/>
          <Node pos="r" depth="2" NCoef="0" IVar="-1" Cut="0.0000000000000000e+00" cType="1" res="5.4316769819706678e-04" rms="3.5412457585334778e-01" purity="8.4256124496459961e-01" nType="-99"/>
        </Node>
        <Node pos="r" depth="1" NCoef="0" IVar="-1" Cut="0.0000000000000000e+00" cType="1" res="4.1152525227516890e-04" rms="2.2729614377021790e-01" purity="9.4581520557403564e-01" nType="-99"/>
      </Node>
    </BinaryTree>
    <BinaryTree type="DecisionTree" boostWeight="1.0000000000000000e+00" itree="1015">
      <Node pos="s" depth="0" NCoef="0" IVar="5" Cut="1.6159846875000000e+05" cType="1" res="5.5093616247177124e-01" rms="4.9750429391860962e-01" purity="5.5111712217330933e-01" nType="0">
        <Node pos="l" depth="1" NCoef="0" IVar="-1" Cut="0.0000000000000000e+00" cType="1" res="1.5885649190749973e-05" rms="3.1192266941070557e-01" purity="8.5894054174423218e-01" nType="-99"/>
        <Node pos="r" depth="1" NCoef="0" IVar="5" Cut="4.6876118750000000e+05" cType="1" res="4.0712887048721313e-01" rms="4.9145600199699402e-01" purity="4.0739434957504272e-01" nType="0">
          <Node pos="l" depth="2" NCoef="0" IVar="-1" Cut="0.0000000000000000e+00" cType="1" res="2.0908033548039384e-05" rms="3.7298327684402466e-01" purity="3.0880844593048096e-01" nType="-99"/>
          <Node pos="r" depth="2" NCoef="0" IVar="-1" Cut="0.0000000000000000e+00" cType="1" res="9.9153886549174786e-04" rms="3.3655080199241638e-01" purity="8.2348597049713135e-01" nType="-99"/>
        </Node>
      </Node>
    </BinaryTree>
    <BinaryTree type="DecisionTree" boostWeight="1.0000000000000000e+00" itree="1016">
      <Node pos="s" depth="0" NCoef="0" IVar="2" Cut="9.1879203125000000e+04" cType="1" res="5.3199547529220581e-01" rms="4.9921801686286926e-01" purity="5.3239667415618896e-01" nType="0">
        <Node pos="l" depth="1" NCoef="0" IVar="2" Cut="8.8972765625000000e+04" cType="1" res="3.8419887423515320e-01" rms="4.8654681444168091e-01" purity="3.8501349091529846e-01" nType="0">
          <Node pos="l" depth="2" NCoef="0" IVar="-1" Cut="0.0000000000000000e+00" cType="1" res="-9.0130185708403587e-04" rms="3.3233666419982910e-01" purity="3.5794174671173096e-01" nType="-99"/>
          <Node pos="r" depth="2" NCoef="0" IVar="-1" Cut="0.0000000000000000e+00" cType="1" res="4.4659932609647512e-04" rms="3.5395270586013794e-01" purity="3.9078423380851746e-01" nType="-99"/>
        </Node>
        <Node pos="r" depth="1" NCoef="0" IVar="2" Cut="9.2075976562500000e+04" cType="1" res="7.0302176475524902e-01" rms="4.5717617869377136e-01" purity="7.0359319448471069e-01" nType="0">
          <Node pos="l" depth="2" NCoef="0" IVar="-1" Cut="0.0000000000000000e+00" cType="1" res="2.1366424334701151e-05" rms="2.8710043430328369e-01" purity="9.3358349800109863e-01" nType="-99"/>
          <Node pos="r" depth="2" NCoef="0" IVar="-1" Cut="0.0000000000000000e+00" cType="1" res="-1.6398931620642543e-04" rms="3.5688421130180359e-01" purity="3.7562808394432068e-01" nType="-99"/>
        </Node>
      </Node>
    </BinaryTree>
    <BinaryTree type="DecisionTree" boostWeight="1.0000000000000000e+00" itree="1017">
      <Node pos="s" depth="0" NCoef="0" IVar="2" Cut="8.8999289062500000e+04" cType="1" res="3.8240438699722290e-01" rms="4.8624628782272339e-01" purity="3.8282641768455505e-01" nType="0">
        <Node pos="l" depth="1" NCoef="0" IVar="2" Cut="8.7863156250000000e+04" cType="1" res="3.1429278850555420e-01" rms="4.6423360705375671e-01" purity="3.1563618779182434e-01" nType="0">
          <Node pos="l" depth="2" NCoef="0" IVar="-1" Cut="0.0000000000000000e+00" cType="1" res="-2.3565331503050402e-05" rms="3.5359936952590942e-01" purity="3.4699898958206177e-01" nType="-99"/>
          <Node pos="r" depth="2" NCoef="0" IVar="-1" Cut="0.0000000000000000e+00" cType="1" res="-5.0792363472282887e-03" rms="3.4454351663589478e-01" purity="2.9012531042098999e-01" nType="-99"/>
        </Node>
        <Node pos="r" depth="1" NCoef="0" IVar="3" Cut="9.5667507812500000e+04" cType="1" res="3.9147371053695679e-01" rms="4.8838654160499573e-01" purity="3.9177304506301880e-01" nType="0">
          <Node pos="l" depth="2" NCoef="0" IVar="-1" Cut="0.0000000000000000e+00" cType="1" res="2.8546154499053955e-04" rms="3.5565865039825439e-01" purity="3.8261553645133972e-01" nType="-99"/>
          <Node pos="r" depth="2" NCoef="0" IVar="-1" Cut="0.0000000000000000e+00" cType="1" res="1.0397946462035179e-03" rms="3.8573244214057922e-01" purity="4.5419943332672119e-01" nType="-99"/>
        </Node>
      </Node>
    </BinaryTree>
    <BinaryTree type="DecisionTree" boostWeight="1.0000000000000000e+00" itree="1018">
      <Node pos="s" depth="0" NCoef="0" IVar="1" Cut="1.9097787500000000e+05" cType="1" res="4.4613027572631836e-01" rms="4.9708959460258484e-01" purity="4.4613027572631836e-01" nType="0">
        <Node pos="l" depth="1" NCoef="0" IVar="-1" Cut="0.0000000000000000e+00" cType="1" res="2.7739908546209335e-05" rms="4.5102766156196594e-01" purity="7.1129852533340454e-01" nType="-99"/>
        <Node pos="r" depth="1" NCoef="0" IVar="0" Cut="4.0000000000000000e+00" cType="1" res="-3.1999670318327844e-04" rms="3.5175234079360962e-01" purity="3.9629265666007996e-01" nType="0">
          <Node pos="l" depth="2" NCoef="0" IVar="-1" Cut="0.0000000000000000e+00" cType="1" res="-2.2315789829008281e-04" rms="3.5855743288993835e-01" purity="3.5702797770500183e-01" nType="-99"/>
          <Node pos="r" depth="2" NCoef="0" IVar="-1" Cut="0.0000000000000000e+00" cType="1" res="2.4588636006228626e-04" rms="2.2711585462093353e-01" purity="9.4675266742706299e-01" nType="-99"/>
        </Node>
      </Node>
    </BinaryTree>
    <BinaryTree type="DecisionTree" boostWeight="1.0000000000000000e+00" itree="1019">
      <Node pos="s" depth="0" NCoef="0" IVar="0" Cut="4.0000000000000000e+00" cType="1" res="4.5220432803034782e-03" rms="3.5827609896659851e-01" purity="3.8174498081207275e-01" nType="0">
        <Node pos="l" depth="1" NCoef="0" IVar="4" Cut="7.7636687500000000e+04" cType="1" res="3.4905290603637695e-01" rms="4.7678694128990173e-01" purity="3.4916371107101440e-01" nType="0">
          <Node pos="l" depth="2" NCoef="0" IVar="-1" Cut="0.0000000000000000e+00" cType="1" res="-1.1741905473172665e-04" rms="3.6781233549118042e-01" purity="3.0465388298034668e-01" nType="-99"/>
          <Node pos="r" depth="2" NCoef="0" IVar="-1" Cut="0.0000000000000000e+00" cType="1" res="6.9284945493564010e-04" rms="3.0857348442077637e-01" purity="8.9082825183868408e-01" nType="-99"/>
        </Node>
        <Node pos="r" depth="1" NCoef="0" IVar="-1" Cut="0.0000000000000000e+00" cType="1" res="3.7788078770972788e-04" rms="2.3691713809967041e-01" purity="9.4167792797088623e-01" nType="-99"/>
      </Node>
    </BinaryTree>
    <BinaryTree type="DecisionTree" boostWeight="1.0000000000000000e+00" itree="1020">
      <Node pos="s" depth="0" NCoef="0" IVar="1" Cut="2.0203215625000000e+05" cType="1" res="4.4071257114410400e-01" rms="4.9661073088645935e-01" purity="4.4084978103637695e-01" nType="0">
        <Node pos="l" depth="1" NCoef="0" IVar="2" Cut="8.9683960937500000e+04" cType="1" res="4.7785183787345886e-01" rms="5.2754312753677368e-01" purity="5.5357521772384644e-01" nType="0">
          <Node pos="l" depth="2" NCoef="0" IVar="-1" Cut="0.0000000000000000e+00" cType="1" res="2.7818359740194865e-05" rms="4.0660116076469421e-01" purity="8.0093026161193848e-01" nType="-99"/>
          <Node pos="r" depth="2" NCoef="0" IVar="-1" Cut="0.0000000000000000e+00" cType="1" res="-6.6652253735810518e-04" rms="3.1818437576293945e-01" purity="2.2965411841869354e-01" nType="-99"/>
        </Node>
        <Node pos="r" depth="1" NCoef="0" IVar="4" Cut="7.4042304687500000e+04" cType="1" res="4.0499243140220642e-01" rms="4.9107453227043152e-01" purity="4.0517306327819824e-01" nType="0">
          <Node pos="l" depth="2" NCoef="0" IVar="-1" Cut="0.0000000000000000e+00" cType="1" res="-5.2366056479513645e-04" rms="3.5640084743499756e-01" purity="3.5453316569328308e-01" nType="-99"/>
          <Node pos="r" depth="2" NCoef="0" IVar="-1" Cut="0.0000000000000000e+00" cType="1" res="6.4260786166414618e-04" rms="3.0678409337997437e-01" purity="8.9353907108306885e-01" nType="-99"/>
        </Node>
      </Node>
    </BinaryTree>
    <BinaryTree type="DecisionTree" boostWeight="1.0000000000000000e+00" itree="1021">
      <Node pos="s" depth="0" NCoef="0" IVar="0" Cut="1.0000000000000000e+00" cType="1" res="3.4193974733352661e-01" rms="4.9547040462493896e-01" purity="6.3315194845199585e-01" nType="0">
        <Node pos="l" depth="1" NCoef="0" IVar="4" Cut="2.1007773437500000e+04" cType="1" res="6.4994597434997559e-01" rms="4.7698658704757690e-01" purity="6.4994597434997559e-01" nType="0">
          <Node pos="l" depth="2" NCoef="0" IVar="-1" Cut="0.0000000000000000e+00" cType="1" res="3.8239874411374331e-03" rms="2.2074946761131287e-01" purity="5.1290363073348999e-02" nType="-99"/>
          <Node pos="r" depth="2" NCoef="0" IVar="-1" Cut="0.0000000000000000e+00" cType="1" res="1.9358860299689695e-05" rms="4.0448606014251709e-01" purity="8.4125524759292603e-01" nType="-99"/>
        </Node>
        <Node pos="r" depth="1" NCoef="0" IVar="2" Cut="9.0351289062500000e+04" cType="1" res="5.9851086139678955e-01" rms="4.9019956588745117e-01" purity="5.9851086139678955e-01" nType="0">
          <Node pos="l" depth="2" NCoef="0" IVar="-1" Cut="0.0000000000000000e+00" cType="1" res="6.3068378949537873e-04" rms="4.0228992700576782e-01" purity="6.3497328758239746e-01" nType="-99"/>
          <Node pos="r" depth="2" NCoef="0" IVar="-1" Cut="0.0000000000000000e+00" cType="1" res="1.6739498823881149e-04" rms="3.9846280217170715e-01" purity="5.7849699258804321e-01" nType="-99"/>
        </Node>
      </Node>
    </BinaryTree>
    <BinaryTree type="DecisionTree" boostWeight="1.0000000000000000e+00" itree="1022">
      <Node pos="s" depth="0" NCoef="0" IVar="0" Cut="4.0000000000000000e+00" cType="1" res="1.0169141925871372e-02" rms="3.5670438408851624e-01" purity="3.9438474178314209e-01" nType="0">
        <Node pos="l" depth="1" NCoef="0" IVar="3" Cut="8.9001273437500000e+04" cType="1" res="3.5793578624725342e-01" rms="4.7939312458038330e-01" purity="3.5793581604957581e-01" nType="0">
          <Node pos="l" depth="2" NCoef="0" IVar="-1" Cut="0.0000000000000000e+00" cType="1" res="8.6042156908661127e-04" rms="3.6281043291091919e-01" purity="3.7815326452255249e-01" nType="-99"/>
          <Node pos="r" depth="2" NCoef="0" IVar="-1" Cut="0.0000000000000000e+00" cType="1" res="-2.3758936731610447e-04" rms="3.6370220780372620e-01" purity="3.4218019247055054e-01" nType="-99"/>
        </Node>
        <Node pos="r" depth="1" NCoef="0" IVar="-1" Cut="0.0000000000000000e+00" cType="1" res="4.2270059930160642e-04" rms="2.2359338402748108e-01" purity="9.4779813289642334e-01" nType="-99"/>
      </Node>
    </BinaryTree>
    <BinaryTree type="DecisionTree" boostWeight="1.0000000000000000e+00" itree="1023">
      <Node pos="s" depth="0" NCoef="0" IVar="5" Cut="1.6601217187500000e+05" cType="1" res="0.0000000000000000e+00" rms="0.0000000000000000e+00" purity="4.8525822162628174e-01" nType="0">
        <Node pos="l" depth="1" NCoef="0" IVar="2" Cut="9.0579351562500000e+04" cType="1" res="7.0852649211883545e-01" rms="4.5444110035896301e-01" purity="7.0852649211883545e-01" nType="0">
          <Node pos="l" depth="2" NCoef="0" IVar="-1" Cut="0.0000000000000000e+00" cType="1" res="1.5994381101336330e-05" rms="3.1974589824676514e-01" purity="8.5266184806823730e-01" nType="-99"/>
          <Node pos="r" depth="2" NCoef="0" IVar="-1" Cut="0.0000000000000000e+00" cType="1" res="-1.4628719072788954e-03" rms="2.1719688177108765e-01" purity="5.8087449520826340e-02" nType="-99"/>
        </Node>
        <Node pos="r" depth="1" NCoef="0" IVar="4" Cut="3.5711500000000000e+04" cType="1" res="0.0000000000000000e+00" rms="0.0000000000000000e+00" purity="4.1899660229682922e-01" nType="0">
          <Node pos="l" depth="2" NCoef="0" IVar="-1" Cut="0.0000000000000000e+00" cType="1" res="-2.9727448236371856e-06" rms="3.5197621583938599e-01" purity="2.8120589256286621e-01" nType="-99"/>
          <Node pos="r" depth="2" NCoef="0" IVar="-1" Cut="0.0000000000000000e+00" cType="1" res="5.7949550682678819e-04" rms="3.9776608347892761e-01" purity="7.1461039781570435e-01" nType="-99"/>
        </Node>
      </Node>
    </BinaryTree>
    <BinaryTree type="DecisionTree" boostWeight="1.0000000000000000e+00" itree="1024">
      <Node pos="s" depth="0" NCoef="0" IVar="0" Cut="1.0000000000000000e+00" cType="1" res="3.5731410980224609e-01" rms="4.9449527263641357e-01" purity="6.4452987909317017e-01" nType="0">
        <Node pos="l" depth="1" NCoef="0" IVar="4" Cut="1.9457740234375000e+04" cType="1" res="6.6934716701507568e-01" rms="4.7044822573661804e-01" purity="6.6934716701507568e-01" nType="0">
          <Node pos="l" depth="2" NCoef="0" IVar="-1" Cut="0.0000000000000000e+00" cType="1" res="9.9253619555383921e-04" rms="1.9868734478950500e-01" purity="4.1290428489446640e-02" nType="-99"/>
          <Node pos="r" depth="2" NCoef="0" IVar="-1" Cut="0.0000000000000000e+00" cType="1" res="2.1019877749495208e-05" rms="3.9793455600738525e-01" purity="8.4185320138931274e-01" nType="-99"/>
        </Node>
        <Node pos="r" depth="1" NCoef="0" IVar="5" Cut="7.6716350000000000e+05" cType="1" res="5.8844816684722900e-01" rms="4.9211475253105164e-01" purity="5.8844816684722900e-01" nType="0">
          <Node pos="l" depth="2" NCoef="0" IVar="-1" Cut="0.0000000000000000e+00" cType="1" res="1.2278019858058542e-04" rms="4.1493731737136841e-01" purity="5.4404312372207642e-01" nType="-99"/>
          <Node pos="r" depth="2" NCoef="0" IVar="-1" Cut="0.0000000000000000e+00" cType="1" res="2.6841892395168543e-03" rms="2.7832302451133728e-01" purity="9.1280692815780640e-01" nType="-99"/>
        </Node>
      </Node>
    </BinaryTree>
    <BinaryTree type="DecisionTree" boostWeight="1.0000000000000000e+00" itree="1025">
      <Node pos="s" depth="0" NCoef="0" IVar="3" Cut="8.9426570312500000e+04" cType="1" res="5.1521480083465576e-01" rms="4.9976846575737000e-01" purity="5.1521480083465576e-01" nType="0">
        <Node pos="l" depth="1" NCoef="0" IVar="3" Cut="8.8493054687500000e+04" cType="1" res="6.0969799757003784e-01" rms="4.8781794309616089e-01" purity="6.0969799757003784e-01" nType="0">
          <Node pos="l" depth="2" NCoef="0" IVar="-1" Cut="0.0000000000000000e+00" cType="1" res="4.2526223114691675e-04" rms="3.5232338309288025e-01" purity="3.8738614320755005e-01" nType="-99"/>
          <Node pos="r" depth="2" NCoef="0" IVar="-1" Cut="0.0000000000000000e+00" cType="1" res="2.3779686671332456e-05" rms="4.1480433940887451e-01" purity="8.3273911476135254e-01" nType="-99"/>
        </Node>
        <Node pos="r" depth="1" NCoef="0" IVar="4" Cut="5.3596636718750000e+04" cType="1" res="3.7798142433166504e-01" rms="4.8529839515686035e-01" purity="3.7838450074195862e-01" nType="0">
          <Node pos="l" depth="2" NCoef="0" IVar="-1" Cut="0.0000000000000000e+00" cType="1" res="-9.3721848679706454e-04" rms="3.4674897789955139e-01" purity="2.9929977655410767e-01" nType="-99"/>
          <Node pos="r" depth="2" NCoef="0" IVar="-1" Cut="0.0000000000000000e+00" cType="1" res="4.6887568896636367e-04" rms="3.6765974760055542e-01" purity="8.2293111085891724e-01" nType="-99"/>
        </Node>
      </Node>
    </BinaryTree>
    <BinaryTree type="DecisionTree" boostWeight="1.0000000000000000e+00" itree="1026">
      <Node pos="s" depth="0" NCoef="0" IVar="5" Cut="1.5990256250000000e+05" cType="1" res="5.4974561929702759e-01" rms="4.9751922488212585e-01" purity="5.4974555969238281e-01" nType="0">
        <Node pos="l" depth="1" NCoef="0" IVar="-1" Cut="0.0000000000000000e+00" cType="1" res="1.5924530089250766e-05" rms="3.7458446621894836e-01" purity="7.7554434537887573e-01" nType="-99"/>
        <Node pos="r" depth="1" NCoef="0" IVar="2" Cut="9.1879203125000000e+04" cType="1" res="4.9977344274520874e-01" rms="4.9999994039535522e-01" purity="4.9977344274520874e-01" nType="0">
          <Node pos="l" depth="2" NCoef="0" IVar="-1" Cut="0.0000000000000000e+00" cType="1" res="4.6358903637155890e-04" rms="3.6368301510810852e-01" purity="4.1522857546806335e-01" nType="-99"/>
          <Node pos="r" depth="2" NCoef="0" IVar="-1" Cut="0.0000000000000000e+00" cType="1" res="2.1650574126397260e-05" rms="5.0057893991470337e-01" purity="6.2815541028976440e-01" nType="-99"/>
        </Node>
      </Node>
    </BinaryTree>
    <BinaryTree type="DecisionTree" boostWeight="1.0000000000000000e+00" itree="1027">
      <Node pos="s" depth="0" NCoef="0" IVar="5" Cut="1.7710921875000000e+05" cType="1" res="5.5967289209365845e-01" rms="4.9652466177940369e-01" purity="5.5977052450180054e-01" nType="0">
        <Node pos="l" depth="1" NCoef="0" IVar="2" Cut="8.9655093750000000e+04" cType="1" res="-inf" rms="0.0000000000000000e+00" purity="7.5416094064712524e-01" nType="0">
          <Node pos="l" depth="2" NCoef="0" IVar="-1" Cut="0.0000000000000000e+00" cType="1" res="2.0815021343878470e-05" rms="2.4163486063480377e-01" purity="9.2532259225845337e-01" nType="-99"/>
          <Node pos="r" depth="2" NCoef="0" IVar="-1" Cut="0.0000000000000000e+00" cType="1" res="-3.4313602373003960e-03" rms="2.3780737817287445e-01" purity="6.6420473158359528e-02" nType="-99"/>
        </Node>
        <Node pos="r" depth="1" NCoef="0" IVar="5" Cut="8.2325031250000000e+05" cType="1" res="0.0000000000000000e+00" rms="1.6571027000000000e+07" purity="4.2949557304382324e-01" nType="0">
          <Node pos="l" depth="2" NCoef="0" IVar="-1" Cut="0.0000000000000000e+00" cType="1" res="-6.0847442000522278e-06" rms="3.7398919463157654e-01" purity="3.9791160821914673e-01" nType="-99"/>
          <Node pos="r" depth="2" NCoef="0" IVar="-1" Cut="0.0000000000000000e+00" cType="1" res="2.1811048500239849e-03" rms="2.7358591556549072e-01" purity="9.0783977508544922e-01" nType="-99"/>
        </Node>
      </Node>
    </BinaryTree>
    <BinaryTree type="DecisionTree" boostWeight="1.0000000000000000e+00" itree="1028">
      <Node pos="s" depth="0" NCoef="0" IVar="2" Cut="9.1849609375000000e+04" cType="1" res="5.3272897005081177e-01" rms="4.9892765283584595e-01" purity="5.3272897005081177e-01" nType="0">
        <Node pos="l" depth="1" NCoef="0" IVar="4" Cut="2.9613666015625000e+04" cType="1" res="3.8180297613143921e-01" rms="4.8582863807678223e-01" purity="3.8180297613143921e-01" nType="0">
          <Node pos="l" depth="2" NCoef="0" IVar="-1" Cut="0.0000000000000000e+00" cType="1" res="-4.2797249625436962e-04" rms="3.1572297215461731e-01" purity="2.3440180718898773e-01" nType="-99"/>
          <Node pos="r" depth="2" NCoef="0" IVar="-1" Cut="0.0000000000000000e+00" cType="1" res="4.9853313248604536e-04" rms="4.0666702389717102e-01" purity="6.3426142930984497e-01" nType="-99"/>
        </Node>
        <Node pos="r" depth="1" NCoef="0" IVar="2" Cut="9.2047007812500000e+04" cType="1" res="7.0267701148986816e-01" rms="4.5717516541481018e-01" purity="7.0287048816680908e-01" nType="0">
          <Node pos="l" depth="2" NCoef="0" IVar="-1" Cut="0.0000000000000000e+00" cType="1" res="2.1314628611435182e-05" rms="2.9139539599418640e-01" purity="9.2900085449218750e-01" nType="-99"/>
          <Node pos="r" depth="2" NCoef="0" IVar="-1" Cut="0.0000000000000000e+00" cType="1" res="1.2827217688027304e-05" rms="3.5594037175178528e-01" purity="3.9326295256614685e-01" nType="-99"/>
        </Node>
      </Node>
    </BinaryTree>
    <BinaryTree type="DecisionTree" boostWeight="1.0000000000000000e+00" itree="1029">
      <Node pos="s" depth="0" NCoef="0" IVar="0" Cut="1.0000000000000000e+00" cType="1" res="2.1954888105392456e-01" rms="4.7841304540634155e-01" purity="5.4132103919982910e-01" nType="0">
        <Node pos="l" depth="1" NCoef="0" IVar="4" Cut="2.1031820312500000e+04" cType="1" res="5.1093518733978271e-01" rms="4.9988040328025818e-01" purity="5.1093512773513794e-01" nType="0">
          <Node pos="l" depth="2" NCoef="0" IVar="-1" Cut="0.0000000000000000e+00" cType="1" res="7.1422150358557701e-04" rms="2.0516280829906464e-01" purity="4.4188149273395538e-02" nType="-99"/>
          <Node pos="r" depth="2" NCoef="0" IVar="-1" Cut="0.0000000000000000e+00" cType="1" res="1.8012955479207449e-05" rms="4.6953883767127991e-01" purity="7.4972826242446899e-01" nType="-99"/>
        </Node>
        <Node pos="r" depth="1" NCoef="0" IVar="3" Cut="8.3894937500000000e+04" cType="1" res="5.8720499277114868e-01" rms="4.9285763502120972e-01" purity="5.8786463737487793e-01" nType="0">
          <Node pos="l" depth="2" NCoef="0" IVar="-1" Cut="0.0000000000000000e+00" cType="1" res="3.1413402757607400e-04" rms="3.6934015154838562e-01" purity="6.9017690420150757e-01" nType="-99"/>
          <Node pos="r" depth="2" NCoef="0" IVar="-1" Cut="0.0000000000000000e+00" cType="1" res="1.2475279800128192e-04" rms="4.0424203872680664e-01" purity="5.7845789194107056e-01" nType="-99"/>
        </Node>
      </Node>
    </BinaryTree>
    <BinaryTree type="DecisionTree" boostWeight="1.0000000000000000e+00" itree="1030">
      <Node pos="s" depth="0" NCoef="0" IVar="3" Cut="8.9426359375000000e+04" cType="1" res="5.6814962625503540e-01" rms="4.9553215503692627e-01" purity="5.6834614276885986e-01" nType="0">
        <Node pos="l" depth="1" NCoef="0" IVar="3" Cut="8.8492898437500000e+04" cType="1" res="6.7361092567443848e-01" rms="4.6914350986480713e-01" purity="6.7384731769561768e-01" nType="0">
          <Node pos="l" depth="2" NCoef="0" IVar="-1" Cut="0.0000000000000000e+00" cType="1" res="1.6975641483440995e-04" rms="3.5512268543243408e-01" purity="3.7654966115951538e-01" nType="-99"/>
          <Node pos="r" depth="2" NCoef="0" IVar="-1" Cut="0.0000000000000000e+00" cType="1" res="2.2755351892556064e-05" rms="3.6554640531539917e-01" purity="8.7928068637847900e-01" nType="-99"/>
        </Node>
        <Node pos="r" depth="1" NCoef="0" IVar="3" Cut="9.8776890625000000e+04" cType="1" res="3.8952118158340454e-01" rms="4.8764169216156006e-01" purity="3.8965010643005371e-01" nType="0">
          <Node pos="l" depth="2" NCoef="0" IVar="-1" Cut="0.0000000000000000e+00" cType="1" res="-2.9807808459736407e-04" rms="3.5007560253143311e-01" purity="3.7933075428009033e-01" nType="-99"/>
          <Node pos="r" depth="2" NCoef="0" IVar="-1" Cut="0.0000000000000000e+00" cType="1" res="1.2423219159245491e-03" rms="3.7187126278877258e-01" purity="5.1663285493850708e-01" nType="-99"/>
        </Node>
      </Node>
    </BinaryTree>
    <BinaryTree type="DecisionTree" boostWeight="1.0000000000000000e+00" itree="1031">
      <Node pos="s" depth="0" NCoef="0" IVar="5" Cut="1.6313576562500000e+05" cType="1" res="4.8884117603302002e-01" rms="4.9987545609474182e-01" purity="4.8884117603302002e-01" nType="0">
        <Node pos="l" depth="1" NCoef="0" IVar="1" Cut="2.0209590625000000e+05" cType="1" res="7.3092043399810791e-01" rms="4.4348141551017761e-01" purity="7.3092043399810791e-01" nType="0">
          <Node pos="l" depth="2" NCoef="0" IVar="-1" Cut="0.0000000000000000e+00" cType="1" res="1.5913654351606965e-05" rms="3.1711235642433167e-01" purity="8.5254299640655518e-01" nType="-99"/>
          <Node pos="r" depth="2" NCoef="0" IVar="-1" Cut="0.0000000000000000e+00" cType="1" res="-7.3606910882517695e-04" rms="2.1378476917743683e-01" purity="7.5947545468807220e-02" nType="-99"/>
        </Node>
        <Node pos="r" depth="1" NCoef="0" IVar="3" Cut="9.8928929687500000e+04" cType="1" res="4.2151716351509094e-01" rms="4.9380204081535339e-01" purity="4.2151716351509094e-01" nType="0">
          <Node pos="l" depth="2" NCoef="0" IVar="-1" Cut="0.0000000000000000e+00" cType="1" res="2.3479541414417326e-04" rms="3.6069056391716003e-01" purity="4.1665869951248169e-01" nType="-99"/>
          <Node pos="r" depth="2" NCoef="0" IVar="-1" Cut="0.0000000000000000e+00" cType="1" res="1.4871027087792754e-03" rms="4.1633766889572144e-01" purity="5.3775423765182495e-01" nType="-99"/>
        </Node>
      </Node>
    </BinaryTree>
    <BinaryTree type="DecisionTree" boostWeight="1.0000000000000000e+00" itree="1032">
      <Node pos="s" depth="0" NCoef="0" IVar="3" Cut="8.9426585937500000e+04" cType="1" res="5.5542826652526855e-01" rms="4.9710386991500854e-01" purity="5.5561286211013794e-01" nType="0">
        <Node pos="l" depth="1" NCoef="0" IVar="3" Cut="8.8493062500000000e+04" cType="1" res="6.5632671117782593e-01" rms="4.7510188817977905e-01" purity="6.5682661533355713e-01" nType="0">
          <Node pos="l" depth="2" NCoef="0" IVar="-1" Cut="0.0000000000000000e+00" cType="1" res="1.7019189544953406e-04" rms="3.6004164814949036e-01" purity="3.7805056571960449e-01" nType="-99"/>
          <Node pos="r" depth="2" NCoef="0" IVar="-1" Cut="0.0000000000000000e+00" cType="1" res="2.4713770471862517e-05" rms="3.7856066226959229e-01" purity="8.6747145652770996e-01" nType="-99"/>
        </Node>
        <Node pos="r" depth="1" NCoef="0" IVar="4" Cut="3.2652863281250000e+04" cType="1" res="3.9566609263420105e-01" rms="4.8912331461906433e-01" purity="3.9579328894615173e-01" nType="0">
          <Node pos="l" depth="2" NCoef="0" IVar="-1" Cut="0.0000000000000000e+00" cType="1" res="6.8125368670735043e-06" rms="3.3431008458137512e-01" purity="2.5998368859291077e-01" nType="-99"/>
          <Node pos="r" depth="2" NCoef="0" IVar="-1" Cut="0.0000000000000000e+00" cType="1" res="5.5743806296959519e-04" rms="4.0408721566200256e-01" purity="6.7795050144195557e-01" nType="-99"/>
        </Node>
      </Node>
    </BinaryTree>
    <BinaryTree type="DecisionTree" boostWeight="1.0000000000000000e+00" itree="1033">
      <Node pos="s" depth="0" NCoef="0" IVar="5" Cut="1.6152067187500000e+05" cType="1" res="5.5422312021255493e-01" rms="4.9718645215034485e-01" purity="5.5435764789581299e-01" nType="0">
        <Node pos="l" depth="1" NCoef="0" IVar="-1" Cut="0.0000000000000000e+00" cType="1" res="1.5946488929330371e-05" rms="3.1168374419212341e-01" purity="8.5990440845489502e-01" nType="-99"/>
        <Node pos="r" depth="1" NCoef="0" IVar="4" Cut="7.4138531250000000e+04" cType="1" res="4.1121450066566467e-01" rms="4.9225458502769470e-01" purity="4.1141197085380554e-01" nType="0">
          <Node pos="l" depth="2" NCoef="0" IVar="-1" Cut="0.0000000000000000e+00" cType="1" res="1.7504015704616904e-04" rms="3.6614647507667542e-01" purity="3.6064988374710083e-01" nType="-99"/>
          <Node pos="r" depth="2" NCoef="0" IVar="-1" Cut="0.0000000000000000e+00" cType="1" res="6.4931152155622840e-04" rms="2.9837787151336670e-01" purity="8.9695328474044800e-01" nType="-99"/>
        </Node>
      </Node>
    </BinaryTree>
    <BinaryTree type="DecisionTree" boostWeight="1.0000000000000000e+00" itree="1034">
      <Node pos="s" depth="0" NCoef="0" IVar="1" Cut="2.0337760937500000e+05" cType="1" res="5.8470040559768677e-01" rms="4.9281165003776550e-01" purity="5.8487933874130249e-01" nType="0">
        <Node pos="l" depth="1" NCoef="0" IVar="2" Cut="8.9662929687500000e+04" cType="1" res="1.9786790013313293e-01" rms="4.1058260202407837e-01" purity="8.0044800043106079e-01" nType="0">
          <Node pos="l" depth="2" NCoef="0" IVar="-1" Cut="0.0000000000000000e+00" cType="1" res="1.7678132280707359e-05" rms="2.4498115479946136e-01" purity="9.3892788887023926e-01" nType="-99"/>
          <Node pos="r" depth="2" NCoef="0" IVar="-1" Cut="0.0000000000000000e+00" cType="1" res="8.0278061795979738e-04" rms="3.3969822525978088e-01" purity="2.3594273626804352e-01" nType="-99"/>
        </Node>
        <Node pos="r" depth="1" NCoef="0" IVar="3" Cut="9.8787578125000000e+04" cType="1" res="4.1389009356498718e-01" rms="4.9259743094444275e-01" purity="4.1421064734458923e-01" nType="0">
          <Node pos="l" depth="2" NCoef="0" IVar="-1" Cut="0.0000000000000000e+00" cType="1" res="-2.7527816200745292e-05" rms="3.5538697242736816e-01" purity="4.0751788020133972e-01" nType="-99"/>
          <Node pos="r" depth="2" NCoef="0" IVar="-1" Cut="0.0000000000000000e+00" cType="1" res="1.4227407518774271e-03" rms="3.9694902300834656e-01" purity="5.4542541503906250e-01" nType="-99"/>
        </Node>
      </Node>
    </BinaryTree>
    <BinaryTree type="DecisionTree" boostWeight="1.0000000000000000e+00" itree="1035">
      <Node pos="s" depth="0" NCoef="0" IVar="1" Cut="2.0337760937500000e+05" cType="1" res="5.3790110349655151e-01" rms="4.9872529506683350e-01" purity="5.3806447982788086e-01" nType="0">
        <Node pos="l" depth="1" NCoef="0" IVar="2" Cut="8.9655093750000000e+04" cType="1" res="6.9968056678771973e-01" rms="4.7832515835762024e-01" purity="7.4266046285629272e-01" nType="0">
          <Node pos="l" depth="2" NCoef="0" IVar="-1" Cut="0.0000000000000000e+00" cType="1" res="2.7896732717636041e-05" rms="2.8578612208366394e-01" purity="9.1745507717132568e-01" nType="-99"/>
          <Node pos="r" depth="2" NCoef="0" IVar="-1" Cut="0.0000000000000000e+00" cType="1" res="9.6109462901949883e-04" rms="3.4724360704421997e-01" purity="2.4571722745895386e-01" nType="-99"/>
        </Node>
        <Node pos="r" depth="1" NCoef="0" IVar="4" Cut="3.7108753906250000e+04" cType="1" res="4.1197979450225830e-01" rms="4.9245950579643250e-01" purity="4.1224369406700134e-01" nType="0">
          <Node pos="l" depth="2" NCoef="0" IVar="-1" Cut="0.0000000000000000e+00" cType="1" res="-9.2981121269986033e-04" rms="3.3642038702964783e-01" purity="2.8029632568359375e-01" nType="-99"/>
          <Node pos="r" depth="2" NCoef="0" IVar="-1" Cut="0.0000000000000000e+00" cType="1" res="4.7363006160594523e-04" rms="3.9305061101913452e-01" purity="7.2659671306610107e-01" nType="-99"/>
        </Node>
      </Node>
    </BinaryTree>
    <BinaryTree type="DecisionTree" boostWeight="1.0000000000000000e+00" itree="1036">
      <Node pos="s" depth="0" NCoef="0" IVar="0" Cut="4.0000000000000000e+00" cType="1" res="7.4186869896948338e-03" rms="3.5278004407882690e-01" purity="3.9684855937957764e-01" nType="0">
        <Node pos="l" depth="1" NCoef="0" IVar="3" Cut="9.5525570312500000e+04" cType="1" res="3.5865372419357300e-01" rms="4.7960528731346130e-01" purity="3.5865375399589539e-01" nType="0">
          <Node pos="l" depth="2" NCoef="0" IVar="-1" Cut="0.0000000000000000e+00" cType="1" res="-1.3313539966475219e-04" rms="3.5348474979400635e-01" purity="3.4631830453872681e-01" nType="-99"/>
          <Node pos="r" depth="2" NCoef="0" IVar="-1" Cut="0.0000000000000000e+00" cType="1" res="9.9936092738062143e-04" rms="3.8965940475463867e-01" purity="4.2482110857963562e-01" nType="-99"/>
        </Node>
        <Node pos="r" depth="1" NCoef="0" IVar="-1" Cut="0.0000000000000000e+00" cType="1" res="2.6343538775108755e-04" rms="2.2365723550319672e-01" purity="9.4844698905944824e-01" nType="-99"/>
      </Node>
    </BinaryTree>
    <BinaryTree type="DecisionTree" boostWeight="1.0000000000000000e+00" itree="1037">
      <Node pos="s" depth="0" NCoef="0" IVar="3" Cut="8.9426281250000000e+04" cType="1" res="0.0000000000000000e+00" rms="8.8909107446670532e-01" purity="5.1877170801162720e-01" nType="0">
        <Node pos="l" depth="1" NCoef="0" IVar="3" Cut="8.8492710937500000e+04" cType="1" res="6.1025136709213257e-01" rms="4.8792344331741333e-01" purity="6.1075860261917114e-01" nType="0">
          <Node pos="l" depth="2" NCoef="0" IVar="-1" Cut="0.0000000000000000e+00" cType="1" res="2.5791980442591012e-04" rms="3.5446026921272278e-01" purity="3.9230898022651672e-01" nType="-99"/>
          <Node pos="r" depth="2" NCoef="0" IVar="-1" Cut="0.0000000000000000e+00" cType="1" res="2.3632896045455709e-05" rms="4.1453137993812561e-01" purity="8.3331739902496338e-01" nType="-99"/>
        </Node>
        <Node pos="r" depth="1" NCoef="0" IVar="5" Cut="2.7441384375000000e+05" cType="1" res="0.0000000000000000e+00" rms="0.0000000000000000e+00" purity="3.8966131210327148e-01" nType="0">
          <Node pos="l" depth="2" NCoef="0" IVar="-1" Cut="0.0000000000000000e+00" cType="1" res="9.4251893460750580e-04" rms="3.4530138969421387e-01" purity="2.0088505744934082e-01" nType="-99"/>
          <Node pos="r" depth="2" NCoef="0" IVar="-1" Cut="0.0000000000000000e+00" cType="1" res="-2.7055558166466653e-04" rms="3.8828700780868530e-01" purity="6.4245003461837769e-01" nType="-99"/>
        </Node>
      </Node>
    </BinaryTree>
    <BinaryTree type="DecisionTree" boostWeight="1.0000000000000000e+00" itree="1038">
      <Node pos="s" depth="0" NCoef="0" IVar="5" Cut="1.6215667187500000e+05" cType="1" res="4.8632511496543884e-01" rms="4.9988329410552979e-01" purity="4.8639544844627380e-01" nType="0">
        <Node pos="l" depth="1" NCoef="0" IVar="-1" Cut="0.0000000000000000e+00" cType="1" res="1.5719078874099068e-05" rms="3.9132934808731079e-01" purity="7.4615114927291870e-01" nType="-99"/>
        <Node pos="r" depth="1" NCoef="0" IVar="0" Cut="4.0000000000000000e+00" cType="1" res="5.2642957307398319e-03" rms="3.5819455981254578e-01" purity="4.1640356183052063e-01" nType="0">
          <Node pos="l" depth="2" NCoef="0" IVar="-1" Cut="0.0000000000000000e+00" cType="1" res="3.6656583688454702e-05" rms="3.6581802368164062e-01" purity="3.7707909941673279e-01" nType="-99"/>
          <Node pos="r" depth="2" NCoef="0" IVar="-1" Cut="0.0000000000000000e+00" cType="1" res="2.5847705546766520e-04" rms="2.2315859794616699e-01" purity="9.4854086637496948e-01" nType="-99"/>
        </Node>
      </Node>
    </BinaryTree>
    <BinaryTree type="DecisionTree" boostWeight="1.0000000000000000e+00" itree="1039">
      <Node pos="s" depth="0" NCoef="0" IVar="1" Cut="1.9133937500000000e+05" cType="1" res="4.4794347882270813e-01" rms="4.9728274345397949e-01" purity="4.4794344902038574e-01" nType="0">
        <Node pos="l" depth="1" NCoef="0" IVar="3" Cut="8.8344335937500000e+04" cType="1" res="3.6983329802751541e-02" rms="2.3507831990718842e-01" purity="6.9980198144912720e-01" nType="0">
          <Node pos="l" depth="2" NCoef="0" IVar="-1" Cut="0.0000000000000000e+00" cType="1" res="-3.7508382229134440e-04" rms="2.9288432002067566e-01" purity="2.2040075063705444e-01" nType="-99"/>
          <Node pos="r" depth="2" NCoef="0" IVar="-1" Cut="0.0000000000000000e+00" cType="1" res="2.7636229788186029e-05" rms="3.7001639604568481e-01" purity="8.3813005685806274e-01" nType="-99"/>
        </Node>
        <Node pos="r" depth="1" NCoef="0" IVar="3" Cut="8.5171406250000000e+04" cType="1" res="3.9982426166534424e-01" rms="4.8986205458641052e-01" purity="3.9982426166534424e-01" nType="0">
          <Node pos="l" depth="2" NCoef="0" IVar="-1" Cut="0.0000000000000000e+00" cType="1" res="5.4946780437603593e-04" rms="3.5018089413642883e-01" purity="5.1397454738616943e-01" nType="-99"/>
          <Node pos="r" depth="2" NCoef="0" IVar="-1" Cut="0.0000000000000000e+00" cType="1" res="-1.4087800809647888e-04" rms="3.5633465647697449e-01" purity="3.8370400667190552e-01" nType="-99"/>
        </Node>
      </Node>
    </BinaryTree>
    <BinaryTree type="DecisionTree" boostWeight="1.0000000000000000e+00" itree="1040">
      <Node pos="s" depth="0" NCoef="0" IVar="5" Cut="1.8356309375000000e+05" cType="1" res="5.8818006515502930e-01" rms="4.9242228269577026e-01" purity="5.8845728635787964e-01" nType="0">
        <Node pos="l" depth="1" NCoef="0" IVar="2" Cut="8.9651632812500000e+04" cType="1" res="7.4187982082366943e-01" rms="4.3760046362876892e-01" purity="7.4187982082366943e-01" nType="0">
          <Node pos="l" depth="2" NCoef="0" IVar="-1" Cut="0.0000000000000000e+00" cType="1" res="1.7619047866901383e-05" rms="2.4438141286373138e-01" purity="9.2337286472320557e-01" nType="-99"/>
          <Node pos="r" depth="2" NCoef="0" IVar="-1" Cut="0.0000000000000000e+00" cType="1" res="1.2117736332584172e-04" rms="2.6271581649780273e-01" purity="8.7358430027961731e-02" nType="-99"/>
        </Node>
        <Node pos="r" depth="1" NCoef="0" IVar="3" Cut="8.5171062500000000e+04" cType="1" res="4.5817568898200989e-01" rms="4.9872058629989624e-01" purity="4.5868727564811707e-01" nType="0">
          <Node pos="l" depth="2" NCoef="0" IVar="-1" Cut="0.0000000000000000e+00" cType="1" res="4.1988049633800983e-04" rms="3.6902517080307007e-01" purity="5.5702114105224609e-01" nType="-99"/>
          <Node pos="r" depth="2" NCoef="0" IVar="-1" Cut="0.0000000000000000e+00" cType="1" res="8.0968195106834173e-05" rms="3.7522262334823608e-01" purity="4.4496083259582520e-01" nType="-99"/>
        </Node>
      </Node>
    </BinaryTree>
    <BinaryTree type="DecisionTree" boostWeight="1.0000000000000000e+00" itree="1041">
      <Node pos="s" depth="0" NCoef="0" IVar="1" Cut="1.9097787500000000e+05" cType="1" res="4.4530028104782104e-01" rms="4.9699893593788147e-01" purity="4.4530031085014343e-01" nType="0">
        <Node pos="l" depth="1" NCoef="0" IVar="3" Cut="8.8281265625000000e+04" cType="1" res="3.1414929777383804e-02" rms="2.1658611297607422e-01" purity="7.1352952718734741e-01" nType="0">
          <Node pos="l" depth="2" NCoef="0" IVar="-1" Cut="0.0000000000000000e+00" cType="1" res="5.2501802565529943e-04" rms="3.2194149494171143e-01" purity="2.4196872115135193e-01" nType="-99"/>
          <Node pos="r" depth="2" NCoef="0" IVar="-1" Cut="0.0000000000000000e+00" cType="1" res="2.7719364879885688e-05" rms="3.6461943387985229e-01" purity="8.4376269578933716e-01" nType="-99"/>
        </Node>
        <Node pos="r" depth="1" NCoef="0" IVar="4" Cut="8.0294023437500000e+04" cType="1" res="3.9413467049598694e-01" rms="4.8866403102874756e-01" purity="3.9413467049598694e-01" nType="0">
          <Node pos="l" depth="2" NCoef="0" IVar="-1" Cut="0.0000000000000000e+00" cType="1" res="-1.1756126332329586e-04" rms="3.6016720533370972e-01" purity="3.4860301017761230e-01" nType="-99"/>
          <Node pos="r" depth="2" NCoef="0" IVar="-1" Cut="0.0000000000000000e+00" cType="1" res="6.7229295382276177e-04" rms="2.8720888495445251e-01" purity="9.0703547000885010e-01" nType="-99"/>
        </Node>
      </Node>
    </BinaryTree>
    <BinaryTree type="DecisionTree" boostWeight="1.0000000000000000e+00" itree="1042">
      <Node pos="s" depth="0" NCoef="0" IVar="4" Cut="7.7503929687500000e+04" cType="1" res="3.7608659267425537e-01" rms="4.8453846573829651e-01" purity="3.7633079290390015e-01" nType="0">
        <Node pos="l" depth="1" NCoef="0" IVar="4" Cut="2.0382751953125000e+04" cType="1" res="3.3090227842330933e-01" rms="4.7069031000137329e-01" purity="3.3108109235763550e-01" nType="0">
          <Node pos="l" depth="2" NCoef="0" IVar="-1" Cut="0.0000000000000000e+00" cType="1" res="1.6073305159807205e-03" rms="3.0642056465148926e-01" purity="2.0682342350482941e-01" nType="-99"/>
          <Node pos="r" depth="2" NCoef="0" IVar="-1" Cut="0.0000000000000000e+00" cType="1" res="-7.6147360960021615e-04" rms="4.0174376964569092e-01" purity="4.5860818028450012e-01" nType="-99"/>
        </Node>
        <Node pos="r" depth="1" NCoef="0" IVar="-1" Cut="0.0000000000000000e+00" cType="1" res="7.0438766852021217e-04" rms="2.9223987460136414e-01" purity="9.0348494052886963e-01" nType="-99"/>
      </Node>
    </BinaryTree>
    <BinaryTree type="DecisionTree" boostWeight="1.0000000000000000e+00" itree="1043">
      <Node pos="s" depth="0" NCoef="0" IVar="1" Cut="1.8991192187500000e+05" cType="1" res="4.5446324348449707e-01" rms="4.9792209267616272e-01" purity="4.5446327328681946e-01" nType="0">
        <Node pos="l" depth="1" NCoef="0" IVar="-1" Cut="0.0000000000000000e+00" cType="1" res="2.7847307137562893e-05" rms="4.3987172842025757e-01" purity="7.3047459125518799e-01" nType="-99"/>
        <Node pos="r" depth="1" NCoef="0" IVar="0" Cut="4.0000000000000000e+00" cType="1" res="9.1893374919891357e-03" rms="3.5803282260894775e-01" purity="4.0521234273910522e-01" nType="0">
          <Node pos="l" depth="2" NCoef="0" IVar="-1" Cut="0.0000000000000000e+00" cType="1" res="2.2235659707803279e-04" rms="3.6559095978736877e-01" purity="3.6529168486595154e-01" nType="-99"/>
          <Node pos="r" depth="2" NCoef="0" IVar="-1" Cut="0.0000000000000000e+00" cType="1" res="2.5753158843144774e-04" rms="2.2479777038097382e-01" purity="9.4763815402984619e-01" nType="-99"/>
        </Node>
      </Node>
    </BinaryTree>
    <BinaryTree type="DecisionTree" boostWeight="1.0000000000000000e+00" itree="1044">
      <Node pos="s" depth="0" NCoef="0" IVar="3" Cut="9.8929406250000000e+04" cType="1" res="3.9176481962203979e-01" rms="4.8814460635185242e-01" purity="3.9176481962203979e-01" nType="0">
        <Node pos="l" depth="1" NCoef="0" IVar="0" Cut="4.0000000000000000e+00" cType="1" res="7.8063725959509611e-04" rms="3.4878855943679810e-01" purity="3.8520708680152893e-01" nType="0">
          <Node pos="l" depth="2" NCoef="0" IVar="-1" Cut="0.0000000000000000e+00" cType="1" res="-1.8297263886779547e-04" rms="3.5522904992103577e-01" purity="3.4626075625419617e-01" nType="-99"/>
          <Node pos="r" depth="2" NCoef="0" IVar="-1" Cut="0.0000000000000000e+00" cType="1" res="2.4996220599859953e-04" rms="2.2833628952503204e-01" purity="9.4606715440750122e-01" nType="-99"/>
        </Node>
        <Node pos="r" depth="1" NCoef="0" IVar="-1" Cut="0.0000000000000000e+00" cType="1" res="1.5446807956323028e-03" rms="3.9577654004096985e-01" purity="5.5256855487823486e-01" nType="-99"/>
      </Node>
    </BinaryTree>
    <BinaryTree type="DecisionTree" boostWeight="1.0000000000000000e+00" itree="1045">
      <Node pos="s" depth="0" NCoef="0" IVar="1" Cut="1.8991192187500000e+05" cType="1" res="4.5241472125053406e-01" rms="4.9773049354553223e-01" purity="4.5241472125053406e-01" nType="0">
        <Node pos="l" depth="1" NCoef="0" IVar="-1" Cut="0.0000000000000000e+00" cType="1" res="2.8189968361402862e-05" rms="4.3748122453689575e-01" purity="7.3708003759384155e-01" nType="-99"/>
        <Node pos="r" depth="1" NCoef="0" IVar="0" Cut="4.0000000000000000e+00" cType="1" res="2.4574932176619768e-03" rms="3.4969684481620789e-01" purity="4.0068486332893372e-01" nType="0">
          <Node pos="l" depth="2" NCoef="0" IVar="-1" Cut="0.0000000000000000e+00" cType="1" res="-5.6701686844462529e-05" rms="3.5632789134979248e-01" purity="3.6380389332771301e-01" nType="-99"/>
          <Node pos="r" depth="2" NCoef="0" IVar="-1" Cut="0.0000000000000000e+00" cType="1" res="4.0115046431310475e-04" rms="2.2217603027820587e-01" purity="9.4859355688095093e-01" nType="-99"/>
        </Node>
      </Node>
    </BinaryTree>
    <BinaryTree type="DecisionTree" boostWeight="1.0000000000000000e+00" itree="1046">
      <Node pos="s" depth="0" NCoef="0" IVar="0" Cut="1.0000000000000000e+00" cType="1" res="2.6508814096450806e-01" rms="4.8960912227630615e-01" purity="5.7174789905548096e-01" nType="0">
        <Node pos="l" depth="1" NCoef="0" IVar="4" Cut="1.9615392578125000e+04" cType="1" res="5.6807619333267212e-01" rms="4.9534395337104797e-01" purity="5.6807613372802734e-01" nType="0">
          <Node pos="l" depth="2" NCoef="0" IVar="-1" Cut="0.0000000000000000e+00" cType="1" res="5.6475278688594699e-04" rms="1.9681669771671295e-01" purity="4.0794171392917633e-02" nType="-99"/>
          <Node pos="r" depth="2" NCoef="0" IVar="-1" Cut="0.0000000000000000e+00" cType="1" res="1.9530853023752570e-05" rms="4.4981947541236877e-01" purity="7.7398866415023804e-01" nType="-99"/>
        </Node>
        <Node pos="r" depth="1" NCoef="0" IVar="0" Cut="4.0000000000000000e+00" cType="1" res="4.4833126594312489e-04" rms="3.9973402023315430e-01" purity="5.7825797796249390e-01" nType="0">
          <Node pos="l" depth="2" NCoef="0" IVar="-1" Cut="0.0000000000000000e+00" cType="1" res="-2.2094519226811826e-04" rms="4.1380104422569275e-01" purity="5.3552019596099854e-01" nType="-99"/>
          <Node pos="r" depth="2" NCoef="0" IVar="-1" Cut="0.0000000000000000e+00" cType="1" res="3.3096171682700515e-04" rms="2.4774982035160065e-01" purity="9.3529218435287476e-01" nType="-99"/>
        </Node>
      </Node>
    </BinaryTree>
    <BinaryTree type="DecisionTree" boostWeight="1.0000000000000000e+00" itree="1047">
      <Node pos="s" depth="0" NCoef="0" IVar="4" Cut="8.3403453125000000e+04" cType="1" res="3.9645087718963623e-01" rms="4.8935142159461975e-01" purity="3.9665389060974121e-01" nType="0">
        <Node pos="l" depth="1" NCoef="0" IVar="0" Cut="4.0000000000000000e+00" cType="1" res="7.8996224328875542e-04" rms="3.5611200332641602e-01" purity="3.5443601012229919e-01" nType="0">
          <Node pos="l" depth="2" NCoef="0" IVar="-1" Cut="0.0000000000000000e+00" cType="1" res="-1.4562683645635843e-04" rms="3.6191320419311523e-01" purity="3.1839603185653687e-01" nType="-99"/>
          <Node pos="r" depth="2" NCoef="0" IVar="-1" Cut="0.0000000000000000e+00" cType="1" res="3.7272201734595001e-04" rms="2.3570434749126434e-01" purity="9.4111627340316772e-01" nType="-99"/>
        </Node>
        <Node pos="r" depth="1" NCoef="0" IVar="-1" Cut="0.0000000000000000e+00" cType="1" res="8.5353764006868005e-04" rms="2.7163565158843994e-01" purity="9.1868466138839722e-01" nType="-99"/>
      </Node>
    </BinaryTree>
    <BinaryTree type="DecisionTree" boostWeight="1.0000000000000000e+00" itree="1048">
      <Node pos="s" depth="0" NCoef="0" IVar="0" Cut="1.0000000000000000e+00" cType="1" res="3.0622851848602295e-01" rms="4.8879206180572510e-01" purity="6.1416679620742798e-01" nType="0">
        <Node pos="l" depth="1" NCoef="0" IVar="4" Cut="2.1007773437500000e+04" cType="1" res="6.1754053831100464e-01" rms="4.8598790168762207e-01" purity="6.1754047870635986e-01" nType="0">
          <Node pos="l" depth="2" NCoef="0" IVar="-1" Cut="0.0000000000000000e+00" cType="1" res="2.6873997412621975e-03" rms="2.1528865396976471e-01" purity="5.0110943615436554e-02" nType="-99"/>
          <Node pos="r" depth="2" NCoef="0" IVar="-1" Cut="0.0000000000000000e+00" cType="1" res="2.0868828869424760e-05" rms="4.1833177208900452e-01" purity="8.2238084077835083e-01" nType="-99"/>
        </Node>
        <Node pos="r" depth="1" NCoef="0" IVar="4" Cut="7.4108828125000000e+04" cType="1" res="6.0793083906173706e-01" rms="4.8821195960044861e-01" purity="6.0793083906173706e-01" nType="0">
          <Node pos="l" depth="2" NCoef="0" IVar="-1" Cut="0.0000000000000000e+00" cType="1" res="3.9184550405479968e-04" rms="4.0955212712287903e-01" purity="5.5123066902160645e-01" nType="-99"/>
          <Node pos="r" depth="2" NCoef="0" IVar="-1" Cut="0.0000000000000000e+00" cType="1" res="7.4335047975182533e-04" rms="2.5215497612953186e-01" purity="9.3169748783111572e-01" nType="-99"/>
        </Node>
      </Node>
    </BinaryTree>
    <BinaryTree type="DecisionTree" boostWeight="1.0000000000000000e+00" itree="1049">
      <Node pos="s" depth="0" NCoef="0" IVar="3" Cut="8.9426703125000000e+04" cType="1" res="5.1336133480072021e-01" rms="5.0012236833572388e-01" purity="5.1377624273300171e-01" nType="0">
        <Node pos="l" depth="1" NCoef="0" IVar="3" Cut="8.8493117187500000e+04" cType="1" res="6.0833704471588135e-01" rms="4.8849207162857056e-01" purity="6.0879510641098022e-01" nType="0">
          <Node pos="l" depth="2" NCoef="0" IVar="-1" Cut="0.0000000000000000e+00" cType="1" res="4.0437877032672986e-05" rms="3.4668400883674622e-01" purity="3.8601639866828918e-01" nType="-99"/>
          <Node pos="r" depth="2" NCoef="0" IVar="-1" Cut="0.0000000000000000e+00" cType="1" res="2.3759408577461727e-05" rms="4.1942811012268066e-01" purity="8.2795888185501099e-01" nType="-99"/>
        </Node>
        <Node pos="r" depth="1" NCoef="0" IVar="3" Cut="9.6857398437500000e+04" cType="1" res="3.8109180331230164e-01" rms="4.8579734563827515e-01" purity="3.8123002648353577e-01" nType="0">
          <Node pos="l" depth="2" NCoef="0" IVar="-1" Cut="0.0000000000000000e+00" cType="1" res="-4.3958693277090788e-04" rms="3.4435781836509705e-01" purity="3.6936318874359131e-01" nType="-99"/>
          <Node pos="r" depth="2" NCoef="0" IVar="-1" Cut="0.0000000000000000e+00" cType="1" res="9.3930080765858293e-04" rms="3.9628639817237854e-01" purity="4.3839800357818604e-01" nType="-99"/>
        </Node>
      </Node>
    </BinaryTree>
    <BinaryTree type="DecisionTree" boostWeight="1.0000000000000000e+00" itree="1050">
      <Node pos="s" depth="0" NCoef="0" IVar="0" Cut="1.0000000000000000e+00" cType="1" res="4.5680052042007446e-01" rms="4.8106551170349121e-01" purity="7.1941274404525757e-01" nType="0">
        <Node pos="l" depth="1" NCoef="0" IVar="4" Cut="2.1010888671875000e+04" cType="1" res="7.6241493225097656e-01" rms="4.2560356855392456e-01" purity="7.6241499185562134e-01" nType="0">
          <Node pos="l" depth="2" NCoef="0" IVar="-1" Cut="0.0000000000000000e+00" cType="1" res="2.0390613935887814e-03" rms="2.1638862788677216e-01" purity="4.9340583384037018e-02" nType="-99"/>
          <Node pos="r" depth="2" NCoef="0" IVar="-1" Cut="0.0000000000000000e+00" cType="1" res="1.7946002117241733e-05" rms="3.2732298970222473e-01" purity="9.0361827611923218e-01" nType="-99"/>
        </Node>
        <Node pos="r" depth="1" NCoef="0" IVar="5" Cut="2.3450104687500000e+05" cType="1" res="5.8734488487243652e-01" rms="4.9267160892486572e-01" purity="5.8769935369491577e-01" nType="0">
          <Node pos="l" depth="2" NCoef="0" IVar="-1" Cut="0.0000000000000000e+00" cType="1" res="-1.1460913810878992e-03" rms="3.7653577327728271e-01" purity="2.2872214019298553e-01" nType="-99"/>
          <Node pos="r" depth="2" NCoef="0" IVar="-1" Cut="0.0000000000000000e+00" cType="1" res="5.5141496704891324e-04" rms="4.0621918439865112e-01" purity="6.6025632619857788e-01" nType="-99"/>
        </Node>
      </Node>
    </BinaryTree>
    <BinaryTree type="DecisionTree" boostWeight="1.0000000000000000e+00" itree="1051">
      <Node pos="s" depth="0" NCoef="0" IVar="3" Cut="9.8786968750000000e+04" cType="1" res="3.7700739502906799e-01" rms="4.8463678359985352e-01" purity="3.7700742483139038e-01" nType="0">
        <Node pos="l" depth="1" NCoef="0" IVar="0" Cut="4.0000000000000000e+00" cType="1" res="-5.1719895564019680e-03" rms="3.4977027773857117e-01" purity="3.7315329909324646e-01" nType="0">
          <Node pos="l" depth="2" NCoef="0" IVar="-1" Cut="0.0000000000000000e+00" cType="1" res="-3.9705328526906669e-04" rms="3.5501176118850708e-01" purity="3.4036836028099060e-01" nType="-99"/>
          <Node pos="r" depth="2" NCoef="0" IVar="-1" Cut="0.0000000000000000e+00" cType="1" res="2.5504578370600939e-03" rms="2.3631398379802704e-01" purity="9.3970376253128052e-01" nType="-99"/>
        </Node>
        <Node pos="r" depth="1" NCoef="0" IVar="-1" Cut="0.0000000000000000e+00" cType="1" res="1.4160410501062870e-03" rms="4.1821548342704773e-01" purity="4.7134158015251160e-01" nType="-99"/>
      </Node>
    </BinaryTree>
    <BinaryTree type="DecisionTree" boostWeight="1.0000000000000000e+00" itree="1052">
      <Node pos="s" depth="0" NCoef="0" IVar="0" Cut="1.0000000000000000e+00" cType="1" res="2.8599166870117188e-01" rms="4.9060830473899841e-01" purity="5.9392940998077393e-01" nType="0">
        <Node pos="l" depth="1" NCoef="0" IVar="4" Cut="1.9615392578125000e+04" cType="1" res="5.9308266639709473e-01" rms="4.9125921726226807e-01" purity="5.9308266639709473e-01" nType="0">
          <Node pos="l" depth="2" NCoef="0" IVar="-1" Cut="0.0000000000000000e+00" cType="1" res="2.0520250473055057e-05" rms="1.9614341855049133e-01" purity="4.0511351078748703e-02" nType="-99"/>
          <Node pos="r" depth="2" NCoef="0" IVar="-1" Cut="0.0000000000000000e+00" cType="1" res="1.8968199583468959e-05" rms="4.4125306606292725e-01" purity="7.9072195291519165e-01" nType="-99"/>
        </Node>
        <Node pos="r" depth="1" NCoef="0" IVar="5" Cut="2.3608407812500000e+05" cType="1" res="5.9371054172515869e-01" rms="4.9233892560005188e-01" purity="5.9544438123703003e-01" nType="0">
          <Node pos="l" depth="2" NCoef="0" IVar="-1" Cut="0.0000000000000000e+00" cType="1" res="-7.9182349145412445e-04" rms="3.8417828083038330e-01" purity="2.3156769573688507e-01" nType="-99"/>
          <Node pos="r" depth="2" NCoef="0" IVar="-1" Cut="0.0000000000000000e+00" cType="1" res="5.9612299082800746e-04" rms="3.9944607019424438e-01" purity="6.6886734962463379e-01" nType="-99"/>
        </Node>
      </Node>
    </BinaryTree>
    <BinaryTree type="DecisionTree" boostWeight="1.0000000000000000e+00" itree="1053">
      <Node pos="s" depth="0" NCoef="0" IVar="5" Cut="1.6152067187500000e+05" cType="1" res="5.4703432321548462e-01" rms="4.9778285622596741e-01" purity="5.4703432321548462e-01" nType="0">
        <Node pos="l" depth="1" NCoef="0" IVar="-1" Cut="0.0000000000000000e+00" cType="1" res="1.5938570868456736e-05" rms="3.8115152716636658e-01" purity="7.6456552743911743e-01" nType="-99"/>
        <Node pos="r" depth="1" NCoef="0" IVar="2" Cut="9.1865859375000000e+04" cType="1" res="4.9771422147750854e-01" rms="4.9999478459358215e-01" purity="4.9771422147750854e-01" nType="0">
          <Node pos="l" depth="2" NCoef="0" IVar="-1" Cut="0.0000000000000000e+00" cType="1" res="2.4631913402117789e-04" rms="3.6453324556350708e-01" purity="4.0963873267173767e-01" nType="-99"/>
          <Node pos="r" depth="2" NCoef="0" IVar="-1" Cut="0.0000000000000000e+00" cType="1" res="2.1804844436701387e-05" rms="5.0328290462493896e-01" purity="6.2842226028442383e-01" nType="-99"/>
        </Node>
      </Node>
    </BinaryTree>
    <BinaryTree type="DecisionTree" boostWeight="1.0000000000000000e+00" itree="1054">
      <Node pos="s" depth="0" NCoef="0" IVar="5" Cut="1.6601217187500000e+05" cType="1" res="4.8087060451507568e-01" rms="4.9979579448699951e-01" purity="4.8119693994522095e-01" nType="0">
        <Node pos="l" depth="1" NCoef="0" IVar="3" Cut="8.9704046875000000e+04" cType="1" res="7.0572251081466675e-01" rms="4.5571729540824890e-01" purity="7.0572251081466675e-01" nType="0">
          <Node pos="l" depth="2" NCoef="0" IVar="-1" Cut="0.0000000000000000e+00" cType="1" res="-3.8564328569918871e-03" rms="2.1466794610023499e-01" purity="5.5561028420925140e-02" nType="-99"/>
          <Node pos="r" depth="2" NCoef="0" IVar="-1" Cut="0.0000000000000000e+00" cType="1" res="1.5919857105473056e-05" rms="3.2260158658027649e-01" purity="8.5141170024871826e-01" nType="-99"/>
        </Node>
        <Node pos="r" depth="1" NCoef="0" IVar="4" Cut="7.7974078125000000e+04" cType="1" res="4.1423615813255310e-01" rms="4.9280247092247009e-01" purity="4.1465917229652405e-01" nType="0">
          <Node pos="l" depth="2" NCoef="0" IVar="-1" Cut="0.0000000000000000e+00" cType="1" res="-1.9348795467521995e-04" rms="3.6247697472572327e-01" purity="3.6855381727218628e-01" nType="-99"/>
          <Node pos="r" depth="2" NCoef="0" IVar="-1" Cut="0.0000000000000000e+00" cType="1" res="7.0465338649228215e-04" rms="2.9460525512695312e-01" purity="9.0271341800689697e-01" nType="-99"/>
        </Node>
      </Node>
    </BinaryTree>
    <BinaryTree type="DecisionTree" boostWeight="1.0000000000000000e+00" itree="1055">
      <Node pos="s" depth="0" NCoef="0" IVar="4" Cut="3.5711500000000000e+04" cType="1" res="3.9087054133415222e-01" rms="4.8794543743133545e-01" purity="3.9087057113647461e-01" nType="0">
        <Node pos="l" depth="1" NCoef="0" IVar="1" Cut="2.7218084375000000e+05" cType="1" res="2.6240870356559753e-01" rms="4.4017595052719116e-01" purity="2.6261317729949951e-01" nType="0">
          <Node pos="l" depth="2" NCoef="0" IVar="-1" Cut="0.0000000000000000e+00" cType="1" res="4.9409776693210006e-04" rms="3.1388390064239502e-01" purity="2.0562511682510376e-01" nType="-99"/>
          <Node pos="r" depth="2" NCoef="0" IVar="-1" Cut="0.0000000000000000e+00" cType="1" res="-1.4707433292642236e-03" rms="3.5270315408706665e-01" purity="3.5855439305305481e-01" nType="-99"/>
        </Node>
        <Node pos="r" depth="1" NCoef="0" IVar="3" Cut="8.5314843750000000e+04" cType="1" res="6.9890755414962769e-01" rms="4.5873281359672546e-01" purity="6.9890755414962769e-01" nType="0">
          <Node pos="l" depth="2" NCoef="0" IVar="-1" Cut="0.0000000000000000e+00" cType="1" res="1.3259167317301035e-03" rms="3.9952674508094788e-01" purity="7.6117330789566040e-01" nType="-99"/>
          <Node pos="r" depth="2" NCoef="0" IVar="-1" Cut="0.0000000000000000e+00" cType="1" res="2.8755588573403656e-04" rms="4.0212404727935791e-01" purity="6.8729639053344727e-01" nType="-99"/>
        </Node>
      </Node>
    </BinaryTree>
    <BinaryTree type="DecisionTree" boostWeight="1.0000000000000000e+00" itree="1056">
      <Node pos="s" depth="0" NCoef="0" IVar="0" Cut="1.0000000000000000e+00" cType="1" res="3.4576511383056641e-01" rms="4.9403882026672363e-01" purity="6.3882535696029663e-01" nType="0">
        <Node pos="l" depth="1" NCoef="0" IVar="4" Cut="1.9618507812500000e+04" cType="1" res="6.5935701131820679e-01" rms="4.7392547130584717e-01" purity="6.5935695171356201e-01" nType="0">
          <Node pos="l" depth="2" NCoef="0" IVar="-1" Cut="0.0000000000000000e+00" cType="1" res="2.3065637797117233e-03" rms="2.0700545608997345e-01" purity="4.6008508652448654e-02" nType="-99"/>
          <Node pos="r" depth="2" NCoef="0" IVar="-1" Cut="0.0000000000000000e+00" cType="1" res="1.8081802409142256e-05" rms="4.0513181686401367e-01" purity="8.3242219686508179e-01" nType="-99"/>
        </Node>
        <Node pos="r" depth="1" NCoef="0" IVar="0" Cut="4.0000000000000000e+00" cType="1" res="9.7640696913003922e-03" rms="3.9737895131111145e-01" purity="5.9474599361419678e-01" nType="0">
          <Node pos="l" depth="2" NCoef="0" IVar="-1" Cut="0.0000000000000000e+00" cType="1" res="1.2024736497551203e-04" rms="4.1379445791244507e-01" purity="5.4923117160797119e-01" nType="-99"/>
          <Node pos="r" depth="2" NCoef="0" IVar="-1" Cut="0.0000000000000000e+00" cType="1" res="2.3338971368502825e-04" rms="2.2919273376464844e-01" purity="9.4522428512573242e-01" nType="-99"/>
        </Node>
      </Node>
    </BinaryTree>
    <BinaryTree type="DecisionTree" boostWeight="1.0000000000000000e+00" itree="1057">
      <Node pos="s" depth="0" NCoef="0" IVar="0" Cut="1.0000000000000000e+00" cType="1" res="4.2366141080856323e-01" rms="4.9153929948806763e-01" purity="6.9170570373535156e-01" nType="0">
        <Node pos="l" depth="1" NCoef="0" IVar="4" Cut="1.9615392578125000e+04" cType="1" res="7.2737461328506470e-01" rms="4.4530975818634033e-01" purity="7.2737461328506470e-01" nType="0">
          <Node pos="l" depth="2" NCoef="0" IVar="-1" Cut="0.0000000000000000e+00" cType="1" res="3.7088661338202655e-04" rms="1.9690498709678650e-01" purity="4.0801886469125748e-02" nType="-99"/>
          <Node pos="r" depth="2" NCoef="0" IVar="-1" Cut="0.0000000000000000e+00" cType="1" res="2.0009794752695598e-05" rms="3.6329737305641174e-01" purity="8.7514227628707886e-01" nType="-99"/>
        </Node>
        <Node pos="r" depth="1" NCoef="0" IVar="2" Cut="9.1107500000000000e+04" cType="1" res="0.0000000000000000e+00" rms="7.7130246162414551e-01" purity="5.9587454795837402e-01" nType="0">
          <Node pos="l" depth="2" NCoef="0" IVar="-1" Cut="0.0000000000000000e+00" cType="1" res="5.3287850460037589e-04" rms="4.0074956417083740e-01" purity="6.1183738708496094e-01" nType="-99"/>
          <Node pos="r" depth="2" NCoef="0" IVar="-1" Cut="0.0000000000000000e+00" cType="1" res="-2.2813165560364723e-04" rms="3.9459079504013062e-01" purity="5.7786840200424194e-01" nType="-99"/>
        </Node>
      </Node>
    </BinaryTree>
    <BinaryTree type="DecisionTree" boostWeight="1.0000000000000000e+00" itree="1058">
      <Node pos="s" depth="0" NCoef="0" IVar="1" Cut="1.8991192187500000e+05" cType="1" res="4.4579318165779114e-01" rms="4.9705293774604797e-01" purity="4.4579318165779114e-01" nType="0">
        <Node pos="l" depth="1" NCoef="0" IVar="-1" Cut="0.0000000000000000e+00" cType="1" res="2.8024938728776760e-05" rms="4.4131758809089661e-01" purity="7.3034220933914185e-01" nType="-99"/>
        <Node pos="r" depth="1" NCoef="0" IVar="4" Cut="8.2745929687500000e+04" cType="1" res="3.9428794384002686e-01" rms="4.8869720101356506e-01" purity="3.9428794384002686e-01" nType="0">
          <Node pos="l" depth="2" NCoef="0" IVar="-1" Cut="0.0000000000000000e+00" cType="1" res="-1.4663911133538932e-04" rms="3.6084991693496704e-01" purity="3.5244700312614441e-01" nType="-99"/>
          <Node pos="r" depth="2" NCoef="0" IVar="-1" Cut="0.0000000000000000e+00" cType="1" res="7.5362151255831122e-04" rms="2.8107300400733948e-01" purity="9.1165280342102051e-01" nType="-99"/>
        </Node>
      </Node>
    </BinaryTree>
    <BinaryTree type="DecisionTree" boostWeight="1.0000000000000000e+00" itree="1059">
      <Node pos="s" depth="0" NCoef="0" IVar="4" Cut="4.1429074218750000e+04" cType="1" res="3.8962167501449585e-01" rms="4.8820766806602478e-01" purity="3.9015179872512817e-01" nType="0">
        <Node pos="l" depth="1" NCoef="0" IVar="4" Cut="2.2954126953125000e+04" cType="1" res="2.7787572145462036e-01" rms="4.4818499684333801e-01" purity="2.7817967534065247e-01" nType="0">
          <Node pos="l" depth="2" NCoef="0" IVar="-1" Cut="0.0000000000000000e+00" cType="1" res="1.0712380753830075e-03" rms="3.0748078227043152e-01" purity="2.2329646348953247e-01" nType="-99"/>
          <Node pos="r" depth="2" NCoef="0" IVar="-1" Cut="0.0000000000000000e+00" cType="1" res="-1.1742422357201576e-03" rms="4.0188148617744446e-01" purity="3.8968551158905029e-01" nType="-99"/>
        </Node>
        <Node pos="r" depth="1" NCoef="0" IVar="3" Cut="8.6165054687500000e+04" cType="1" res="7.5398361682891846e-01" rms="4.3215712904930115e-01" purity="7.5525104999542236e-01" nType="0">
          <Node pos="l" depth="2" NCoef="0" IVar="-1" Cut="0.0000000000000000e+00" cType="1" res="1.1337453033775091e-03" rms="3.7917491793632507e-01" purity="7.9339838027954102e-01" nType="-99"/>
          <Node pos="r" depth="2" NCoef="0" IVar="-1" Cut="0.0000000000000000e+00" cType="1" res="4.3490834650583565e-04" rms="3.8660046458244324e-01" purity="7.4567770957946777e-01" nType="-99"/>
        </Node>
      </Node>
    </BinaryTree>
    <BinaryTree type="DecisionTree" boostWeight="1.0000000000000000e+00" itree="1060">
      <Node pos="s" depth="0" NCoef="0" IVar="2" Cut="8.9600773437500000e+04" cType="1" res="5.6228888034820557e-01" rms="4.9625569581985474e-01" purity="5.6251257658004761e-01" nType="0">
        <Node pos="l" depth="1" NCoef="0" IVar="2" Cut="8.9247812500000000e+04" cType="1" res="7.9831016063690186e-01" rms="4.0126180648803711e-01" purity="7.9833632707595825e-01" nType="0">
          <Node pos="l" depth="2" NCoef="0" IVar="-1" Cut="0.0000000000000000e+00" cType="1" res="4.6216693590395153e-04" rms="3.5669022798538208e-01" purity="3.9131283760070801e-01" nType="-99"/>
          <Node pos="r" depth="2" NCoef="0" IVar="-1" Cut="0.0000000000000000e+00" cType="1" res="2.0899979062960483e-05" rms="2.6452544331550598e-01" purity="9.4123804569244385e-01" nType="-99"/>
        </Node>
        <Node pos="r" depth="1" NCoef="0" IVar="4" Cut="7.4159437500000000e+04" cType="1" res="3.8270339369773865e-01" rms="4.8629733920097351e-01" purity="3.8307735323905945e-01" nType="0">
          <Node pos="l" depth="2" NCoef="0" IVar="-1" Cut="0.0000000000000000e+00" cType="1" res="-4.9663370009511709e-04" rms="3.5349375009536743e-01" purity="3.2903712987899780e-01" nType="-99"/>
          <Node pos="r" depth="2" NCoef="0" IVar="-1" Cut="0.0000000000000000e+00" cType="1" res="6.3905119895935059e-04" rms="2.9304790496826172e-01" purity="9.0096068382263184e-01" nType="-99"/>
        </Node>
      </Node>
    </BinaryTree>
    <BinaryTree type="DecisionTree" boostWeight="1.0000000000000000e+00" itree="1061">
      <Node pos="s" depth="0" NCoef="0" IVar="2" Cut="9.1849609375000000e+04" cType="1" res="0.0000000000000000e+00" rms="0.0000000000000000e+00" purity="4.6766501665115356e-01" nType="0">
        <Node pos="l" depth="1" NCoef="0" IVar="4" Cut="3.5520601562500000e+04" cType="1" res="3.8100060820579529e-01" rms="4.8604893684387207e-01" purity="3.8140502572059631e-01" nType="0">
          <Node pos="l" depth="2" NCoef="0" IVar="-1" Cut="0.0000000000000000e+00" cType="1" res="-9.3295320402830839e-04" rms="3.2551378011703491e-01" purity="2.5129553675651550e-01" nType="-99"/>
          <Node pos="r" depth="2" NCoef="0" IVar="-1" Cut="0.0000000000000000e+00" cType="1" res="4.3519982136785984e-04" rms="4.0434303879737854e-01" purity="6.9158464670181274e-01" nType="-99"/>
        </Node>
        <Node pos="r" depth="1" NCoef="0" IVar="2" Cut="9.2047007812500000e+04" cType="1" res="5.9764885902404785e-01" rms="4.9050673842430115e-01" purity="5.9801000356674194e-01" nType="0">
          <Node pos="l" depth="2" NCoef="0" IVar="-1" Cut="0.0000000000000000e+00" cType="1" res="2.1609597752103582e-05" rms="3.7987348437309265e-01" purity="8.7171632051467896e-01" nType="-99"/>
          <Node pos="r" depth="2" NCoef="0" IVar="-1" Cut="0.0000000000000000e+00" cType="1" res="-7.9071192885749042e-05" rms="3.5318425297737122e-01" purity="3.8271549344062805e-01" nType="-99"/>
        </Node>
      </Node>
    </BinaryTree>
    <BinaryTree type="DecisionTree" boostWeight="1.0000000000000000e+00" itree="1062">
      <Node pos="s" depth="0" NCoef="0" IVar="0" Cut="4.0000000000000000e+00" cType="1" res="2.0054238848388195e-03" rms="3.5300031304359436e-01" purity="3.8702946901321411e-01" nType="0">
        <Node pos="l" depth="1" NCoef="0" IVar="3" Cut="8.6164179687500000e+04" cType="1" res="3.4467932581901550e-01" rms="4.7526359558105469e-01" purity="3.4467932581901550e-01" nType="0">
          <Node pos="l" depth="2" NCoef="0" IVar="-1" Cut="0.0000000000000000e+00" cType="1" res="6.8863056367263198e-04" rms="3.6625519394874573e-01" purity="3.8038754463195801e-01" nType="-99"/>
          <Node pos="r" depth="2" NCoef="0" IVar="-1" Cut="0.0000000000000000e+00" cType="1" res="-4.6214403118938208e-04" rms="3.5915738344192505e-01" purity="3.3712843060493469e-01" nType="-99"/>
        </Node>
        <Node pos="r" depth="1" NCoef="0" IVar="-1" Cut="0.0000000000000000e+00" cType="1" res="2.8646065038628876e-04" rms="2.1889464557170868e-01" purity="9.5083361864089966e-01" nType="-99"/>
      </Node>
    </BinaryTree>
    <BinaryTree type="DecisionTree" boostWeight="1.0000000000000000e+00" itree="1063">
      <Node pos="s" depth="0" NCoef="0" IVar="5" Cut="1.6377478125000000e+05" cType="1" res="5.4260498285293579e-01" rms="4.9818152189254761e-01" purity="5.4260504245758057e-01" nType="0">
        <Node pos="l" depth="1" NCoef="0" IVar="5" Cut="1.5370890625000000e+05" cType="1" res="7.3674845695495605e-01" rms="4.4039773941040039e-01" purity="7.3674845695495605e-01" nType="0">
          <Node pos="l" depth="2" NCoef="0" IVar="-1" Cut="0.0000000000000000e+00" cType="1" res="2.9626689502038062e-04" rms="2.3166564106941223e-01" purity="8.3391815423965454e-02" nType="-99"/>
          <Node pos="r" depth="2" NCoef="0" IVar="-1" Cut="0.0000000000000000e+00" cType="1" res="1.6060468624345958e-05" rms="3.1711384654045105e-01" purity="8.5614341497421265e-01" nType="-99"/>
        </Node>
        <Node pos="r" depth="1" NCoef="0" IVar="2" Cut="9.1879929687500000e+04" cType="1" res="4.9522104859352112e-01" rms="4.9997717142105103e-01" purity="4.9522104859352112e-01" nType="0">
          <Node pos="l" depth="2" NCoef="0" IVar="-1" Cut="0.0000000000000000e+00" cType="1" res="-1.9991226508864202e-05" rms="3.5797300934791565e-01" purity="3.9965897798538208e-01" nType="-99"/>
          <Node pos="r" depth="2" NCoef="0" IVar="-1" Cut="0.0000000000000000e+00" cType="1" res="2.1739842850365676e-05" rms="5.0073403120040894e-01" purity="6.3376492261886597e-01" nType="-99"/>
        </Node>
      </Node>
    </BinaryTree>
    <BinaryTree type="DecisionTree" boostWeight="1.0000000000000000e+00" itree="1064">
      <Node pos="s" depth="0" NCoef="0" IVar="2" Cut="9.1849609375000000e+04" cType="1" res="4.6157908439636230e-01" rms="4.9852165579795837e-01" purity="4.6157908439636230e-01" nType="0">
        <Node pos="l" depth="1" NCoef="0" IVar="3" Cut="9.8077945312500000e+04" cType="1" res="3.6685600876808167e-01" rms="4.8194676637649536e-01" purity="3.6685603857040405e-01" nType="0">
          <Node pos="l" depth="2" NCoef="0" IVar="-1" Cut="0.0000000000000000e+00" cType="1" res="-2.4530937662348151e-04" rms="3.5010704398155212e-01" purity="3.6008179187774658e-01" nType="-99"/>
          <Node pos="r" depth="2" NCoef="0" IVar="-1" Cut="0.0000000000000000e+00" cType="1" res="1.1251072864979506e-03" rms="3.8816678524017334e-01" purity="4.8025605082511902e-01" nType="-99"/>
        </Node>
        <Node pos="r" depth="1" NCoef="0" IVar="2" Cut="9.2047007812500000e+04" cType="1" res="6.0241824388504028e-01" rms="4.8969075083732605e-01" purity="6.0270482301712036e-01" nType="0">
          <Node pos="l" depth="2" NCoef="0" IVar="-1" Cut="0.0000000000000000e+00" cType="1" res="2.1515785192605108e-05" rms="3.7383201718330383e-01" purity="8.7490284442901611e-01" nType="-99"/>
          <Node pos="r" depth="2" NCoef="0" IVar="-1" Cut="0.0000000000000000e+00" cType="1" res="6.3264735217671841e-05" rms="3.5623449087142944e-01" purity="3.9327797293663025e-01" nType="-99"/>
        </Node>
      </Node>
    </BinaryTree>
    <BinaryTree type="DecisionTree" boostWeight="1.0000000000000000e+00" itree="1065">
      <Node pos="s" depth="0" NCoef="0" IVar="0" Cut="1.0000000000000000e+00" cType="1" res="3.2350495457649231e-01" rms="4.9647352099418640e-01" purity="6.1616820096969604e-01" nType="0">
        <Node pos="l" depth="1" NCoef="0" IVar="4" Cut="1.9433769531250000e+04" cType="1" res="6.3253939151763916e-01" rms="4.8211339116096497e-01" purity="6.3253945112228394e-01" nType="0">
          <Node pos="l" depth="2" NCoef="0" IVar="-1" Cut="0.0000000000000000e+00" cType="1" res="2.7119328733533621e-03" rms="2.0779533684253693e-01" purity="4.5203194022178650e-02" nType="-99"/>
          <Node pos="r" depth="2" NCoef="0" IVar="-1" Cut="0.0000000000000000e+00" cType="1" res="2.0116713130846620e-05" rms="4.1983872652053833e-01" purity="8.1577241420745850e-01" nType="-99"/>
        </Node>
        <Node pos="r" depth="1" NCoef="0" IVar="5" Cut="3.8778456250000000e+05" cType="1" res="5.8240765333175659e-01" rms="4.9343952536582947e-01" purity="5.8268129825592041e-01" nType="0">
          <Node pos="l" depth="2" NCoef="0" IVar="-1" Cut="0.0000000000000000e+00" cType="1" res="-4.4285823241807520e-04" rms="4.2604956030845642e-01" purity="4.1527825593948364e-01" nType="-99"/>
          <Node pos="r" depth="2" NCoef="0" IVar="-1" Cut="0.0000000000000000e+00" cType="1" res="7.9908809857442975e-04" rms="3.5411396622657776e-01" purity="8.1183481216430664e-01" nType="-99"/>
        </Node>
      </Node>
    </BinaryTree>
    <BinaryTree type="DecisionTree" boostWeight="1.0000000000000000e+00" itree="1066">
      <Node pos="s" depth="0" NCoef="0" IVar="1" Cut="2.0237307812500000e+05" cType="1" res="4.4787353277206421e-01" rms="4.9747347831726074e-01" purity="4.4807058572769165e-01" nType="0">
        <Node pos="l" depth="1" NCoef="0" IVar="2" Cut="8.9670617187500000e+04" cType="1" res="4.7436141967773438e-01" rms="5.2104061841964722e-01" purity="5.4454618692398071e-01" nType="0">
          <Node pos="l" depth="2" NCoef="0" IVar="-1" Cut="0.0000000000000000e+00" cType="1" res="2.7965948902419768e-05" rms="4.0752589702606201e-01" purity="7.9773747920989990e-01" nType="-99"/>
          <Node pos="r" depth="2" NCoef="0" IVar="-1" Cut="0.0000000000000000e+00" cType="1" res="1.0405180510133505e-03" rms="3.3681213855743408e-01" purity="2.3538699746131897e-01" nType="-99"/>
        </Node>
        <Node pos="r" depth="1" NCoef="0" IVar="0" Cut="4.0000000000000000e+00" cType="1" res="2.5324833113700151e-03" rms="3.5483485460281372e-01" purity="4.1683399677276611e-01" nType="0">
          <Node pos="l" depth="2" NCoef="0" IVar="-1" Cut="0.0000000000000000e+00" cType="1" res="-6.2690654885955155e-05" rms="3.6189043521881104e-01" purity="3.7887924909591675e-01" nType="-99"/>
          <Node pos="r" depth="2" NCoef="0" IVar="-1" Cut="0.0000000000000000e+00" cType="1" res="3.7964008515700698e-04" rms="2.2856263816356659e-01" purity="9.4549667835235596e-01" nType="-99"/>
        </Node>
      </Node>
    </BinaryTree>
    <BinaryTree type="DecisionTree" boostWeight="1.0000000000000000e+00" itree="1067">
      <Node pos="s" depth="0" NCoef="0" IVar="3" Cut="8.9426375000000000e+04" cType="1" res="5.1877909898757935e-01" rms="4.9991250038146973e-01" purity="5.1904428005218506e-01" nType="0">
        <Node pos="l" depth="1" NCoef="0" IVar="3" Cut="8.8492734375000000e+04" cType="1" res="6.0922402143478394e-01" rms="4.8810678720474243e-01" purity="6.0940212011337280e-01" nType="0">
          <Node pos="l" depth="2" NCoef="0" IVar="-1" Cut="0.0000000000000000e+00" cType="1" res="-1.7149461200460792e-05" rms="3.4714987874031067e-01" purity="3.8231170177459717e-01" nType="-99"/>
          <Node pos="r" depth="2" NCoef="0" IVar="-1" Cut="0.0000000000000000e+00" cType="1" res="2.3812108338461258e-05" rms="4.1134697198867798e-01" purity="8.3492594957351685e-01" nType="-99"/>
        </Node>
        <Node pos="r" depth="1" NCoef="0" IVar="3" Cut="9.9027406250000000e+04" cType="1" res="3.9682814478874207e-01" rms="4.8963057994842529e-01" purity="3.9721068739891052e-01" nType="0">
          <Node pos="l" depth="2" NCoef="0" IVar="-1" Cut="0.0000000000000000e+00" cType="1" res="-3.9551250665681437e-05" rms="3.5313066840171814e-01" purity="3.8445445895195007e-01" nType="-99"/>
          <Node pos="r" depth="2" NCoef="0" IVar="-1" Cut="0.0000000000000000e+00" cType="1" res="1.2712512398138642e-03" rms="4.0155920386314392e-01" purity="5.6099402904510498e-01" nType="-99"/>
        </Node>
      </Node>
    </BinaryTree>
    <BinaryTree type="DecisionTree" boostWeight="1.0000000000000000e+00" itree="1068">
      <Node pos="s" depth="0" NCoef="0" IVar="0" Cut="1.0000000000000000e+00" cType="1" res="1.8791776895523071e-01" rms="4.6667918562889099e-01" purity="5.1885747909545898e-01" nType="0">
        <Node pos="l" depth="1" NCoef="0" IVar="4" Cut="2.1039974609375000e+04" cType="1" res="4.6766611933708191e-01" rms="4.9895343184471130e-01" purity="4.6766608953475952e-01" nType="0">
          <Node pos="l" depth="2" NCoef="0" IVar="-1" Cut="0.0000000000000000e+00" cType="1" res="3.1447554938495159e-03" rms="2.2594410181045532e-01" purity="5.4829619824886322e-02" nType="-99"/>
          <Node pos="r" depth="2" NCoef="0" IVar="-1" Cut="0.0000000000000000e+00" cType="1" res="2.3992324713617563e-05" rms="4.8584741353988647e-01" purity="7.1351152658462524e-01" nType="-99"/>
        </Node>
        <Node pos="r" depth="1" NCoef="0" IVar="5" Cut="8.3462656250000000e+05" cType="1" res="5.8922266960144043e-01" rms="4.9256327748298645e-01" purity="5.9007966518402100e-01" nType="0">
          <Node pos="l" depth="2" NCoef="0" IVar="-1" Cut="0.0000000000000000e+00" cType="1" res="2.5657159858383238e-04" rms="4.0918245911598206e-01" purity="5.5593246221542358e-01" nType="-99"/>
          <Node pos="r" depth="2" NCoef="0" IVar="-1" Cut="0.0000000000000000e+00" cType="1" res="2.9157414101064205e-03" rms="2.6518529653549194e-01" purity="9.2446810007095337e-01" nType="-99"/>
        </Node>
      </Node>
    </BinaryTree>
    <BinaryTree type="DecisionTree" boostWeight="1.0000000000000000e+00" itree="1069">
      <Node pos="s" depth="0" NCoef="0" IVar="4" Cut="8.2745929687500000e+04" cType="1" res="0.0000000000000000e+00" rms="8.5359542350643200e+14" purity="3.8191676139831543e-01" nType="0">
        <Node pos="l" depth="1" NCoef="0" IVar="4" Cut="2.2919771484375000e+04" cType="1" res="0.0000000000000000e+00" rms="0.0000000000000000e+00" purity="3.4299758076667786e-01" nType="0">
          <Node pos="l" depth="2" NCoef="0" IVar="-1" Cut="0.0000000000000000e+00" cType="1" res="1.2822176795452833e-03" rms="3.0776330828666687e-01" purity="2.1917380392551422e-01" nType="-99"/>
          <Node pos="r" depth="2" NCoef="0" IVar="-1" Cut="0.0000000000000000e+00" cType="1" res="-5.3253944497555494e-04" rms="4.1075986623764038e-01" purity="5.0021582841873169e-01" nType="-99"/>
        </Node>
        <Node pos="r" depth="1" NCoef="0" IVar="-1" Cut="0.0000000000000000e+00" cType="1" res="7.9074763925746083e-04" rms="2.8991547226905823e-01" purity="9.0652871131896973e-01" nType="-99"/>
      </Node>
    </BinaryTree>
    <BinaryTree type="DecisionTree" boostWeight="1.0000000000000000e+00" itree="1070">
      <Node pos="s" depth="0" NCoef="0" IVar="3" Cut="8.9425234375000000e+04" cType="1" res="5.1650714874267578e-01" rms="4.9972742795944214e-01" purity="5.1650720834732056e-01" nType="0">
        <Node pos="l" depth="1" NCoef="0" IVar="3" Cut="8.8491851562500000e+04" cType="1" res="6.0874056816101074e-01" rms="4.8803225159645081e-01" purity="6.0874056816101074e-01" nType="0">
          <Node pos="l" depth="2" NCoef="0" IVar="-1" Cut="0.0000000000000000e+00" cType="1" res="-2.0905342535115778e-04" rms="3.4171983599662781e-01" purity="3.8422480225563049e-01" nType="-99"/>
          <Node pos="r" depth="2" NCoef="0" IVar="-1" Cut="0.0000000000000000e+00" cType="1" res="2.3802344003343023e-05" rms="4.1517925262451172e-01" purity="8.3324599266052246e-01" nType="-99"/>
        </Node>
        <Node pos="r" depth="1" NCoef="0" IVar="5" Cut="2.5866604687500000e+05" cType="1" res="3.8896077871322632e-01" rms="4.8751440644264221e-01" purity="3.8896074891090393e-01" nType="0">
          <Node pos="l" depth="2" NCoef="0" IVar="-1" Cut="0.0000000000000000e+00" cType="1" res="1.1279053287580609e-03" rms="3.3485129475593567e-01" purity="1.8060010671615601e-01" nType="-99"/>
          <Node pos="r" depth="2" NCoef="0" IVar="-1" Cut="0.0000000000000000e+00" cType="1" res="-3.8487702840939164e-04" rms="3.8579368591308594e-01" purity="6.1155277490615845e-01" nType="-99"/>
        </Node>
      </Node>
    </BinaryTree>
    <BinaryTree type="DecisionTree" boostWeight="1.0000000000000000e+00" itree="1071">
      <Node pos="s" depth="0" NCoef="0" IVar="5" Cut="1.6863592187500000e+05" cType="1" res="4.4279941916465759e-01" rms="4.9711525440216064e-01" purity="4.4343930482864380e-01" nType="0">
        <Node pos="l" depth="1" NCoef="0" IVar="4" Cut="2.0062888671875000e+04" cType="1" res="5.6221938133239746e-01" rms="4.9611365795135498e-01" purity="5.6221938133239746e-01" nType="0">
          <Node pos="l" depth="2" NCoef="0" IVar="-1" Cut="0.0000000000000000e+00" cType="1" res="1.7030616290867329e-03" rms="1.7068518698215485e-01" purity="3.0242327600717545e-02" nType="-99"/>
          <Node pos="r" depth="2" NCoef="0" IVar="-1" Cut="0.0000000000000000e+00" cType="1" res="2.8149328500148840e-05" rms="3.9770534634590149e-01" purity="8.0107867717742920e-01" nType="-99"/>
        </Node>
        <Node pos="r" depth="1" NCoef="0" IVar="0" Cut="4.0000000000000000e+00" cType="1" res="3.6128338251728565e-05" rms="3.6308470368385315e-01" purity="4.1514950990676880e-01" nType="0">
          <Node pos="l" depth="2" NCoef="0" IVar="-1" Cut="0.0000000000000000e+00" cType="1" res="-1.5624221123289317e-04" rms="3.7003579735755920e-01" purity="3.7845411896705627e-01" nType="-99"/>
          <Node pos="r" depth="2" NCoef="0" IVar="-1" Cut="0.0000000000000000e+00" cType="1" res="3.5938550718128681e-04" rms="2.3611037433147430e-01" purity="9.4130694866180420e-01" nType="-99"/>
        </Node>
      </Node>
    </BinaryTree>
    <BinaryTree type="DecisionTree" boostWeight="1.0000000000000000e+00" itree="1072">
      <Node pos="s" depth="0" NCoef="0" IVar="5" Cut="1.6358775000000000e+05" cType="1" res="4.8417040705680847e-01" rms="4.9974936246871948e-01" purity="4.8417037725448608e-01" nType="0">
        <Node pos="l" depth="1" NCoef="0" IVar="4" Cut="1.5702541992187500e+04" cType="1" res="7.3579668998718262e-01" rms="4.4090804457664490e-01" purity="7.3579668998718262e-01" nType="0">
          <Node pos="l" depth="2" NCoef="0" IVar="-1" Cut="0.0000000000000000e+00" cType="1" res="-3.9213648997247219e-03" rms="1.4029717445373535e-01" purity="2.0022721961140633e-02" nType="-99"/>
          <Node pos="r" depth="2" NCoef="0" IVar="-1" Cut="0.0000000000000000e+00" cType="1" res="1.5941204765113071e-05" rms="3.2473781704902649e-01" purity="8.6472988128662109e-01" nType="-99"/>
        </Node>
        <Node pos="r" depth="1" NCoef="0" IVar="4" Cut="3.2153433593750000e+04" cType="1" res="4.1427794098854065e-01" rms="4.9259692430496216e-01" purity="4.1427791118621826e-01" nType="0">
          <Node pos="l" depth="2" NCoef="0" IVar="-1" Cut="0.0000000000000000e+00" cType="1" res="-5.5076979333534837e-04" rms="3.3351948857307434e-01" purity="2.6954218745231628e-01" nType="-99"/>
          <Node pos="r" depth="2" NCoef="0" IVar="-1" Cut="0.0000000000000000e+00" cType="1" res="5.9561070520430803e-04" rms="3.9843007922172546e-01" purity="6.7857784032821655e-01" nType="-99"/>
        </Node>
      </Node>
    </BinaryTree>
    <BinaryTree type="DecisionTree" boostWeight="1.0000000000000000e+00" itree="1073">
      <Node pos="s" depth="0" NCoef="0" IVar="1" Cut="1.8991192187500000e+05" cType="1" res="4.5382338762283325e-01" rms="4.9786314368247986e-01" purity="4.5382338762283325e-01" nType="0">
        <Node pos="l" depth="1" NCoef="0" IVar="-1" Cut="0.0000000000000000e+00" cType="1" res="2.8001537430100143e-05" rms="4.4049018621444702e-01" purity="7.3398691415786743e-01" nType="-99"/>
        <Node pos="r" depth="1" NCoef="0" IVar="4" Cut="6.2077011718750000e+04" cType="1" res="4.0460970997810364e-01" rms="4.9081635475158691e-01" purity="4.0460973978042603e-01" nType="0">
          <Node pos="l" depth="2" NCoef="0" IVar="-1" Cut="0.0000000000000000e+00" cType="1" res="4.4875974708702415e-05" rms="3.6250004172325134e-01" purity="3.3103016018867493e-01" nType="-99"/>
          <Node pos="r" depth="2" NCoef="0" IVar="-1" Cut="0.0000000000000000e+00" cType="1" res="6.5948622068390250e-04" rms="3.1649035215377808e-01" purity="8.8031971454620361e-01" nType="-99"/>
        </Node>
      </Node>
    </BinaryTree>
    <BinaryTree type="DecisionTree" boostWeight="1.0000000000000000e+00" itree="1074">
      <Node pos="s" depth="0" NCoef="0" IVar="1" Cut="2.0309048437500000e+05" cType="1" res="5.6445944309234619e-01" rms="4.9596446752548218e-01" purity="5.6474345922470093e-01" nType="0">
        <Node pos="l" depth="1" NCoef="0" IVar="2" Cut="8.9670617187500000e+04" cType="1" res="4.1593563556671143e-01" rms="5.0334721803665161e-01" purity="7.7662295103073120e-01" nType="0">
          <Node pos="l" depth="2" NCoef="0" IVar="-1" Cut="0.0000000000000000e+00" cType="1" res="2.0834384486079216e-05" rms="2.6090794801712036e-01" purity="9.3008935451507568e-01" nType="-99"/>
          <Node pos="r" depth="2" NCoef="0" IVar="-1" Cut="0.0000000000000000e+00" cType="1" res="-5.8636843459680676e-04" rms="3.2367137074470520e-01" purity="2.2441628575325012e-01" nType="-99"/>
        </Node>
        <Node pos="r" depth="1" NCoef="0" IVar="4" Cut="5.3210050781250000e+04" cType="1" res="4.1969287395477295e-01" rms="4.9373999238014221e-01" purity="4.2017069458961487e-01" nType="0">
          <Node pos="l" depth="2" NCoef="0" IVar="-1" Cut="0.0000000000000000e+00" cType="1" res="-1.0289910278515890e-04" rms="3.5941320657730103e-01" purity="3.3237278461456299e-01" nType="-99"/>
          <Node pos="r" depth="2" NCoef="0" IVar="-1" Cut="0.0000000000000000e+00" cType="1" res="5.6350562954321504e-04" rms="3.4640002250671387e-01" purity="8.4215867519378662e-01" nType="-99"/>
        </Node>
      </Node>
    </BinaryTree>
    <BinaryTree type="DecisionTree" boostWeight="1.0000000000000000e+00" itree="1075">
      <Node pos="s" depth="0" NCoef="0" IVar="1" Cut="2.0028078125000000e+05" cType="1" res="4.4734773039817810e-01" rms="4.9742540717124939e-01" purity="4.4760191440582275e-01" nType="0">
        <Node pos="l" depth="1" NCoef="0" IVar="2" Cut="8.9697898437500000e+04" cType="1" res="5.0749808549880981e-01" rms="5.2402603626251221e-01" purity="5.7472640275955200e-01" nType="0">
          <Node pos="l" depth="2" NCoef="0" IVar="-1" Cut="0.0000000000000000e+00" cType="1" res="2.7924552341573872e-05" rms="3.9336541295051575e-01" purity="8.1553083658218384e-01" nType="-99"/>
          <Node pos="r" depth="2" NCoef="0" IVar="-1" Cut="0.0000000000000000e+00" cType="1" res="7.8963412670418620e-04" rms="3.3949020504951477e-01" purity="2.3098829388618469e-01" nType="-99"/>
        </Node>
        <Node pos="r" depth="1" NCoef="0" IVar="4" Cut="7.6855453125000000e+04" cType="1" res="4.1076764464378357e-01" rms="4.9224033951759338e-01" purity="4.1109481453895569e-01" nType="0">
          <Node pos="l" depth="2" NCoef="0" IVar="-1" Cut="0.0000000000000000e+00" cType="1" res="-1.8371058104094118e-04" rms="3.6156058311462402e-01" purity="3.6065748333930969e-01" nType="-99"/>
          <Node pos="r" depth="2" NCoef="0" IVar="-1" Cut="0.0000000000000000e+00" cType="1" res="7.4849015800282359e-04" rms="2.8389060497283936e-01" purity="9.1077417135238647e-01" nType="-99"/>
        </Node>
      </Node>
    </BinaryTree>
    <BinaryTree type="DecisionTree" boostWeight="1.0000000000000000e+00" itree="1076">
      <Node pos="s" depth="0" NCoef="0" IVar="2" Cut="9.1879203125000000e+04" cType="1" res="4.6768736839294434e-01" rms="4.9906009435653687e-01" purity="4.6788349747657776e-01" nType="0">
        <Node pos="l" depth="1" NCoef="0" IVar="2" Cut="9.1133929687500000e+04" cType="1" res="3.8146564364433289e-01" rms="4.8592421412467957e-01" purity="3.8163834810256958e-01" nType="0">
          <Node pos="l" depth="2" NCoef="0" IVar="-1" Cut="0.0000000000000000e+00" cType="1" res="4.1222744039259851e-04" rms="3.5080388188362122e-01" purity="3.9510637521743774e-01" nType="-99"/>
          <Node pos="r" depth="2" NCoef="0" IVar="-1" Cut="0.0000000000000000e+00" cType="1" res="-1.8806810257956386e-03" rms="3.3361110091209412e-01" purity="3.3981159329414368e-01" nType="-99"/>
        </Node>
        <Node pos="r" depth="1" NCoef="0" IVar="2" Cut="9.2075976562500000e+04" cType="1" res="6.0157793760299683e-01" rms="4.8957321047782898e-01" purity="6.0181039571762085e-01" nType="0">
          <Node pos="l" depth="2" NCoef="0" IVar="-1" Cut="0.0000000000000000e+00" cType="1" res="2.1339419618016109e-05" rms="3.6973527073860168e-01" purity="8.7629705667495728e-01" nType="-99"/>
          <Node pos="r" depth="2" NCoef="0" IVar="-1" Cut="0.0000000000000000e+00" cType="1" res="-9.4557744887424633e-06" rms="3.6200711131095886e-01" purity="3.9013808965682983e-01" nType="-99"/>
        </Node>
      </Node>
    </BinaryTree>
    <BinaryTree type="DecisionTree" boostWeight="1.0000000000000000e+00" itree="1077">
      <Node pos="s" depth="0" NCoef="0" IVar="4" Cut="3.5755019531250000e+04" cType="1" res="3.8351294398307800e-01" rms="4.8671635985374451e-01" purity="3.8408067822456360e-01" nType="0">
        <Node pos="l" depth="1" NCoef="0" IVar="4" Cut="2.3614222656250000e+04" cType="1" res="2.5302785634994507e-01" rms="4.3474677205085754e-01" purity="2.5302788615226746e-01" nType="0">
          <Node pos="l" depth="2" NCoef="0" IVar="-1" Cut="0.0000000000000000e+00" cType="1" res="7.2583486326038837e-04" rms="3.1086221337318420e-01" purity="2.1454469859600067e-01" nType="-99"/>
          <Node pos="r" depth="2" NCoef="0" IVar="-1" Cut="0.0000000000000000e+00" cType="1" res="-1.9828863441944122e-03" rms="3.8873165845870972e-01" purity="3.6514288187026978e-01" nType="-99"/>
        </Node>
        <Node pos="r" depth="1" NCoef="0" IVar="5" Cut="2.5444818750000000e+05" cType="1" res="7.0039957761764526e-01" rms="4.5827138423919678e-01" purity="7.0251941680908203e-01" nType="0">
          <Node pos="l" depth="2" NCoef="0" IVar="-1" Cut="0.0000000000000000e+00" cType="1" res="9.3679613200947642e-04" rms="4.6491396427154541e-01" purity="5.1535624265670776e-01" nType="-99"/>
          <Node pos="r" depth="2" NCoef="0" IVar="-1" Cut="0.0000000000000000e+00" cType="1" res="2.9912299942225218e-04" rms="3.6544972658157349e-01" purity="7.9477339982986450e-01" nType="-99"/>
        </Node>
      </Node>
    </BinaryTree>
    <BinaryTree type="DecisionTree" boostWeight="1.0000000000000000e+00" itree="1078">
      <Node pos="s" depth="0" NCoef="0" IVar="3" Cut="9.5950960937500000e+04" cType="1" res="4.8430916666984558e-01" rms="4.9975374341011047e-01" purity="4.8430913686752319e-01" nType="0">
        <Node pos="l" depth="1" NCoef="0" IVar="0" Cut="4.0000000000000000e+00" cType="1" res="3.4562395885586739e-03" rms="3.4890526533126831e-01" purity="3.8661932945251465e-01" nType="0">
          <Node pos="l" depth="2" NCoef="0" IVar="-1" Cut="0.0000000000000000e+00" cType="1" res="-4.5632746150658932e-06" rms="3.5525396466255188e-01" purity="3.4990245103836060e-01" nType="-99"/>
          <Node pos="r" depth="2" NCoef="0" IVar="-1" Cut="0.0000000000000000e+00" cType="1" res="3.7613150198012590e-04" rms="2.2439482808113098e-01" purity="9.4713222980499268e-01" nType="-99"/>
        </Node>
        <Node pos="r" depth="1" NCoef="0" IVar="3" Cut="9.6733359375000000e+04" cType="1" res="7.6435285806655884e-01" rms="4.2440262436866760e-01" purity="7.6485210657119751e-01" nType="0">
          <Node pos="l" depth="2" NCoef="0" IVar="-1" Cut="0.0000000000000000e+00" cType="1" res="1.5922920283628628e-05" rms="3.2348743081092834e-01" purity="9.1215455532073975e-01" nType="-99"/>
          <Node pos="r" depth="2" NCoef="0" IVar="-1" Cut="0.0000000000000000e+00" cType="1" res="2.6068341685459018e-04" rms="3.7360000610351562e-01" purity="4.3360134959220886e-01" nType="-99"/>
        </Node>
      </Node>
    </BinaryTree>
    <BinaryTree type="DecisionTree" boostWeight="1.0000000000000000e+00" itree="1079">
      <Node pos="s" depth="0" NCoef="0" IVar="2" Cut="8.9655093750000000e+04" cType="1" res="5.8717870712280273e-01" rms="4.9234122037887573e-01" purity="5.8717864751815796e-01" nType="0">
        <Node pos="l" depth="1" NCoef="0" IVar="2" Cut="8.9240617187500000e+04" cType="1" res="8.1774747371673584e-01" rms="3.8605248928070068e-01" purity="8.1774753332138062e-01" nType="0">
          <Node pos="l" depth="2" NCoef="0" IVar="-1" Cut="0.0000000000000000e+00" cType="1" res="4.1311825043521821e-04" rms="3.6221852898597717e-01" purity="3.8505551218986511e-01" nType="-99"/>
          <Node pos="r" depth="2" NCoef="0" IVar="-1" Cut="0.0000000000000000e+00" cType="1" res="1.7857762941275723e-05" rms="2.6541629433631897e-01" purity="9.4181954860687256e-01" nType="-99"/>
        </Node>
        <Node pos="r" depth="1" NCoef="0" IVar="0" Cut="4.0000000000000000e+00" cType="1" res="2.6287832297384739e-03" rms="3.5568642616271973e-01" purity="3.8620102405548096e-01" nType="0">
          <Node pos="l" depth="2" NCoef="0" IVar="-1" Cut="0.0000000000000000e+00" cType="1" res="-6.7177638811699580e-06" rms="3.6189168691635132e-01" purity="3.5093382000923157e-01" nType="-99"/>
          <Node pos="r" depth="2" NCoef="0" IVar="-1" Cut="0.0000000000000000e+00" cType="1" res="2.2596307098865509e-03" rms="2.3297685384750366e-01" purity="9.4230490922927856e-01" nType="-99"/>
        </Node>
      </Node>
    </BinaryTree>
    <BinaryTree type="DecisionTree" boostWeight="1.0000000000000000e+00" itree="1080">
      <Node pos="s" depth="0" NCoef="0" IVar="5" Cut="1.6215667187500000e+05" cType="1" res="3.2658262705587228e+24" rms="0.0000000000000000e+00" purity="5.4902756214141846e-01" nType="0">
        <Node pos="l" depth="1" NCoef="0" IVar="-1" Cut="0.0000000000000000e+00" cType="1" res="1.5963983969413675e-05" rms="3.8908833265304565e-01" purity="7.5132775306701660e-01" nType="-99"/>
        <Node pos="r" depth="1" NCoef="0" IVar="2" Cut="9.1824765625000000e+04" cType="1" res="5.0263106822967529e-01" rms="4.9999308586120605e-01" purity="5.0263106822967529e-01" nType="0">
          <Node pos="l" depth="2" NCoef="0" IVar="-1" Cut="0.0000000000000000e+00" cType="1" res="3.0739608337171376e-04" rms="3.6104825139045715e-01" purity="4.2214772105216980e-01" nType="-99"/>
          <Node pos="r" depth="2" NCoef="0" IVar="-1" Cut="0.0000000000000000e+00" cType="1" res="2.1724519683630206e-05" rms="5.0160354375839233e-01" purity="6.2058258056640625e-01" nType="-99"/>
        </Node>
      </Node>
    </BinaryTree>
    <BinaryTree type="DecisionTree" boostWeight="1.0000000000000000e+00" itree="1081">
      <Node pos="s" depth="0" NCoef="0" IVar="4" Cut="3.2465677734375000e+04" cType="1" res="3.8291600346565247e-01" rms="4.8625826835632324e-01" purity="3.8307175040245056e-01" nType="0">
        <Node pos="l" depth="1" NCoef="0" IVar="4" Cut="2.3963015625000000e+04" cType="1" res="2.4783080816268921e-01" rms="4.3175306916236877e-01" purity="2.4783083796501160e-01" nType="0">
          <Node pos="l" depth="2" NCoef="0" IVar="-1" Cut="0.0000000000000000e+00" cType="1" res="8.7164534488692880e-04" rms="3.1407180428504944e-01" purity="2.1740201115608215e-01" nType="-99"/>
          <Node pos="r" depth="2" NCoef="0" IVar="-1" Cut="0.0000000000000000e+00" cType="1" res="-8.6638925131410360e-04" rms="3.9838567376136780e-01" purity="3.6314481496810913e-01" nType="-99"/>
        </Node>
        <Node pos="r" depth="1" NCoef="0" IVar="3" Cut="8.9140406250000000e+04" cType="1" res="6.6034042835235596e-01" rms="4.7399058938026428e-01" purity="6.6119265556335449e-01" nType="0">
          <Node pos="l" depth="2" NCoef="0" IVar="-1" Cut="0.0000000000000000e+00" cType="1" res="8.4838707698509097e-04" rms="4.1291028261184692e-01" purity="6.7121493816375732e-01" nType="-99"/>
          <Node pos="r" depth="2" NCoef="0" IVar="-1" Cut="0.0000000000000000e+00" cType="1" res="1.0010723781306297e-04" rms="4.0101256966590881e-01" purity="6.5301531553268433e-01" nType="-99"/>
        </Node>
      </Node>
    </BinaryTree>
    <BinaryTree type="DecisionTree" boostWeight="1.0000000000000000e+00" itree="1082">
      <Node pos="s" depth="0" NCoef="0" IVar="5" Cut="1.5990256250000000e+05" cType="1" res="4.7852462530136108e-01" rms="4.9969381093978882e-01" purity="4.7867974638938904e-01" nType="0">
        <Node pos="l" depth="1" NCoef="0" IVar="-1" Cut="0.0000000000000000e+00" cType="1" res="1.6106603652588092e-05" rms="3.7777045369148254e-01" purity="7.7062743902206421e-01" nType="-99"/>
        <Node pos="r" depth="1" NCoef="0" IVar="3" Cut="8.5171515625000000e+04" cType="1" res="4.0120825171470642e-01" rms="4.9034309387207031e-01" purity="4.0140441060066223e-01" nType="0">
          <Node pos="l" depth="2" NCoef="0" IVar="-1" Cut="0.0000000000000000e+00" cType="1" res="1.2019523419439793e-03" rms="3.7076488137245178e-01" purity="4.8699259757995605e-01" nType="-99"/>
          <Node pos="r" depth="2" NCoef="0" IVar="-1" Cut="0.0000000000000000e+00" cType="1" res="-1.7824675887823105e-04" rms="3.5627955198287964e-01" purity="3.8919883966445923e-01" nType="-99"/>
        </Node>
      </Node>
    </BinaryTree>
    <BinaryTree type="DecisionTree" boostWeight="1.0000000000000000e+00" itree="1083">
      <Node pos="s" depth="0" NCoef="0" IVar="1" Cut="1.9914971875000000e+05" cType="1" res="4.4873142242431641e-01" rms="4.9760475754737854e-01" purity="4.4914376735687256e-01" nType="0">
        <Node pos="l" depth="1" NCoef="0" IVar="2" Cut="8.9666281250000000e+04" cType="1" res="5.0796556472778320e-01" rms="5.2195572853088379e-01" purity="5.8341419696807861e-01" nType="0">
          <Node pos="l" depth="2" NCoef="0" IVar="-1" Cut="0.0000000000000000e+00" cType="1" res="2.7927952032769099e-05" rms="3.9537447690963745e-01" purity="8.1503736972808838e-01" nType="-99"/>
          <Node pos="r" depth="2" NCoef="0" IVar="-1" Cut="0.0000000000000000e+00" cType="1" res="1.5130940591916442e-03" rms="3.4342607855796814e-01" purity="2.4399594962596893e-01" nType="-99"/>
        </Node>
        <Node pos="r" depth="1" NCoef="0" IVar="4" Cut="7.6867679687500000e+04" cType="1" res="4.1084265708923340e-01" rms="4.9229782819747925e-01" purity="4.1137096285820007e-01" nType="0">
          <Node pos="l" depth="2" NCoef="0" IVar="-1" Cut="0.0000000000000000e+00" cType="1" res="4.3526182707864791e-05" rms="3.6556941270828247e-01" purity="3.6214527487754822e-01" nType="-99"/>
          <Node pos="r" depth="2" NCoef="0" IVar="-1" Cut="0.0000000000000000e+00" cType="1" res="7.1134115569293499e-04" rms="2.9133889079093933e-01" purity="9.0411931276321411e-01" nType="-99"/>
        </Node>
      </Node>
    </BinaryTree>
    <BinaryTree type="DecisionTree" boostWeight="1.0000000000000000e+00" itree="1084">
      <Node pos="s" depth="0" NCoef="0" IVar="0" Cut="1.0000000000000000e+00" cType="1" res="2.6858589053153992e-01" rms="4.8803320527076721e-01" purity="5.8055001497268677e-01" nType="0">
        <Node pos="l" depth="1" NCoef="0" IVar="4" Cut="2.1007773437500000e+04" cType="1" res="5.7213807106018066e-01" rms="4.9476873874664307e-01" purity="5.7213807106018066e-01" nType="0">
          <Node pos="l" depth="2" NCoef="0" IVar="-1" Cut="0.0000000000000000e+00" cType="1" res="-9.4015202193986624e-05" rms="2.0482636988162994e-01" purity="4.4128339737653732e-02" nType="-99"/>
          <Node pos="r" depth="2" NCoef="0" IVar="-1" Cut="0.0000000000000000e+00" cType="1" res="1.9784745745710097e-05" rms="4.4202864170074463e-01" purity="7.9447948932647705e-01" nType="-99"/>
        </Node>
        <Node pos="r" depth="1" NCoef="0" IVar="3" Cut="8.4178140625000000e+04" cType="1" res="5.9477341175079346e-01" rms="4.9093583226203918e-01" purity="5.9496802091598511e-01" nType="0">
          <Node pos="l" depth="2" NCoef="0" IVar="-1" Cut="0.0000000000000000e+00" cType="1" res="1.2083272449672222e-03" rms="3.9576098322868347e-01" purity="6.5539962053298950e-01" nType="-99"/>
          <Node pos="r" depth="2" NCoef="0" IVar="-1" Cut="0.0000000000000000e+00" cType="1" res="4.6937441220507026e-04" rms="4.0430498123168945e-01" purity="5.8956372737884521e-01" nType="-99"/>
        </Node>
      </Node>
    </BinaryTree>
    <BinaryTree type="DecisionTree" boostWeight="1.0000000000000000e+00" itree="1085">
      <Node pos="s" depth="0" NCoef="0" IVar="5" Cut="1.6601217187500000e+05" cType="1" res="4.8565086722373962e-01" rms="4.9989748001098633e-01" purity="4.8575425148010254e-01" nType="0">
        <Node pos="l" depth="1" NCoef="0" IVar="4" Cut="1.8638960937500000e+04" cType="1" res="7.0846164226531982e-01" rms="4.5447084307670593e-01" purity="7.0846164226531982e-01" nType="0">
          <Node pos="l" depth="2" NCoef="0" IVar="-1" Cut="0.0000000000000000e+00" cType="1" res="5.9215673245489597e-03" rms="1.7709906399250031e-01" purity="3.2290745526552200e-02" nType="-99"/>
          <Node pos="r" depth="2" NCoef="0" IVar="-1" Cut="0.0000000000000000e+00" cType="1" res="1.6200892787310295e-05" rms="3.2341441512107849e-01" purity="8.7420082092285156e-01" nType="-99"/>
        </Node>
        <Node pos="r" depth="1" NCoef="0" IVar="4" Cut="8.0323242187500000e+04" cType="1" res="4.1891288757324219e-01" rms="4.9351719021797180e-01" purity="4.1904723644256592e-01" nType="0">
          <Node pos="l" depth="2" NCoef="0" IVar="-1" Cut="0.0000000000000000e+00" cType="1" res="2.1010049385949969e-04" rms="3.7085509300231934e-01" purity="3.7570205330848694e-01" nType="-99"/>
          <Node pos="r" depth="2" NCoef="0" IVar="-1" Cut="0.0000000000000000e+00" cType="1" res="7.9972733510658145e-04" rms="2.8853425383567810e-01" purity="9.0725916624069214e-01" nType="-99"/>
        </Node>
      </Node>
    </BinaryTree>
    <BinaryTree type="DecisionTree" boostWeight="1.0000000000000000e+00" itree="1086">
      <Node pos="s" depth="0" NCoef="0" IVar="4" Cut="8.2556148437500000e+04" cType="1" res="3.8106811046600342e-01" rms="4.8577964305877686e-01" purity="3.8140740990638733e-01" nType="0">
        <Node pos="l" depth="1" NCoef="0" IVar="0" Cut="4.0000000000000000e+00" cType="1" res="-3.5458779893815517e-03" rms="3.5804516077041626e-01" purity="3.4093743562698364e-01" nType="0">
          <Node pos="l" depth="2" NCoef="0" IVar="-1" Cut="0.0000000000000000e+00" cType="1" res="-3.6595901474356651e-04" rms="3.6285936832427979e-01" purity="3.0925500392913818e-01" nType="-99"/>
          <Node pos="r" depth="2" NCoef="0" IVar="-1" Cut="0.0000000000000000e+00" cType="1" res="2.5277682580053806e-03" rms="2.4603432416915894e-01" purity="9.3485695123672485e-01" nType="-99"/>
        </Node>
        <Node pos="r" depth="1" NCoef="0" IVar="-1" Cut="0.0000000000000000e+00" cType="1" res="7.1532896254211664e-04" rms="2.9369622468948364e-01" purity="9.0357041358947754e-01" nType="-99"/>
      </Node>
    </BinaryTree>
    <BinaryTree type="DecisionTree" boostWeight="1.0000000000000000e+00" itree="1087">
      <Node pos="s" depth="0" NCoef="0" IVar="1" Cut="1.8991192187500000e+05" cType="1" res="4.4259858131408691e-01" rms="4.9669414758682251e-01" purity="4.4259858131408691e-01" nType="0">
        <Node pos="l" depth="1" NCoef="0" IVar="-1" Cut="0.0000000000000000e+00" cType="1" res="2.7971609597443603e-05" rms="4.3926617503166199e-01" purity="7.2993904352188110e-01" nType="-99"/>
        <Node pos="r" depth="1" NCoef="0" IVar="4" Cut="3.7077156250000000e+04" cType="1" res="3.9100933074951172e-01" rms="4.8797646164894104e-01" purity="3.9100933074951172e-01" nType="0">
          <Node pos="l" depth="2" NCoef="0" IVar="-1" Cut="0.0000000000000000e+00" cType="1" res="-6.5667735179886222e-04" rms="3.3579820394515991e-01" purity="2.6876497268676758e-01" nType="-99"/>
          <Node pos="r" depth="2" NCoef="0" IVar="-1" Cut="0.0000000000000000e+00" cType="1" res="5.0212803762406111e-04" rms="3.9865049719810486e-01" purity="7.1449518203735352e-01" nType="-99"/>
        </Node>
      </Node>
    </BinaryTree>
    <BinaryTree type="DecisionTree" boostWeight="1.0000000000000000e+00" itree="1088">
      <Node pos="s" depth="0" NCoef="0" IVar="3" Cut="9.5950507812500000e+04" cType="1" res="5.4833424091339111e-01" rms="4.9775159358978271e-01" purity="5.4850363731384277e-01" nType="0">
        <Node pos="l" depth="1" NCoef="0" IVar="5" Cut="1.9571135937500000e+05" cType="1" res="3.7294772267341614e-01" rms="4.8373946547508240e-01" purity="3.7321439385414124e-01" nType="0">
          <Node pos="l" depth="2" NCoef="0" IVar="-1" Cut="0.0000000000000000e+00" cType="1" res="-2.1675401367247105e-03" rms="2.4591831862926483e-01" purity="8.6319968104362488e-02" nType="-99"/>
          <Node pos="r" depth="2" NCoef="0" IVar="-1" Cut="0.0000000000000000e+00" cType="1" res="3.1864183256402612e-04" rms="3.8403061032295227e-01" purity="4.8490750789642334e-01" nType="-99"/>
        </Node>
        <Node pos="r" depth="1" NCoef="0" IVar="3" Cut="9.6732203125000000e+04" cType="1" res="8.5379999876022339e-01" rms="3.5330662131309509e-01" purity="8.5379999876022339e-01" nType="0">
          <Node pos="l" depth="2" NCoef="0" IVar="-1" Cut="0.0000000000000000e+00" cType="1" res="1.6026549928938039e-05" rms="2.4657705426216125e-01" purity="9.5165455341339111e-01" nType="-99"/>
          <Node pos="r" depth="2" NCoef="0" IVar="-1" Cut="0.0000000000000000e+00" cType="1" res="4.8787100240588188e-04" rms="3.8149011135101318e-01" purity="4.3824857473373413e-01" nType="-99"/>
        </Node>
      </Node>
    </BinaryTree>
    <BinaryTree type="DecisionTree" boostWeight="1.0000000000000000e+00" itree="1089">
      <Node pos="s" depth="0" NCoef="0" IVar="5" Cut="1.6358775000000000e+05" cType="1" res="4.9080568552017212e-01" rms="4.9991545081138611e-01" purity="4.9080568552017212e-01" nType="0">
        <Node pos="l" depth="1" NCoef="0" IVar="4" Cut="1.5992310546875000e+04" cType="1" res="0.0000000000000000e+00" rms="0.0000000000000000e+00" purity="7.2854685783386230e-01" nType="0">
          <Node pos="l" depth="2" NCoef="0" IVar="-1" Cut="0.0000000000000000e+00" cType="1" res="4.1021751239895821e-03" rms="1.6936133801937103e-01" purity="2.9714364558458328e-02" nType="-99"/>
          <Node pos="r" depth="2" NCoef="0" IVar="-1" Cut="0.0000000000000000e+00" cType="1" res="1.6005109500838444e-05" rms="3.2614284753799438e-01" purity="8.6520278453826904e-01" nType="-99"/>
        </Node>
        <Node pos="r" depth="1" NCoef="0" IVar="4" Cut="7.5835773437500000e+04" cType="1" res="0.0000000000000000e+00" rms="3.9962390136718750e+02" purity="4.2382428050041199e-01" nType="0">
          <Node pos="l" depth="2" NCoef="0" IVar="-1" Cut="0.0000000000000000e+00" cType="1" res="9.8358577815815806e-05" rms="3.6673861742019653e-01" purity="3.7318792939186096e-01" nType="-99"/>
          <Node pos="r" depth="2" NCoef="0" IVar="-1" Cut="0.0000000000000000e+00" cType="1" res="7.2902580723166466e-04" rms="2.9068881273269653e-01" purity="9.0446972846984863e-01" nType="-99"/>
        </Node>
      </Node>
    </BinaryTree>
    <BinaryTree type="DecisionTree" boostWeight="1.0000000000000000e+00" itree="1090">
      <Node pos="s" depth="0" NCoef="0" IVar="2" Cut="9.1882625000000000e+04" cType="1" res="5.3458499908447266e-01" rms="4.9902677536010742e-01" purity="5.3494638204574585e-01" nType="0">
        <Node pos="l" depth="1" NCoef="0" IVar="3" Cut="9.7085085937500000e+04" cType="1" res="3.8650456070899963e-01" rms="4.8694843053817749e-01" purity="3.8692894577980042e-01" nType="0">
          <Node pos="l" depth="2" NCoef="0" IVar="-1" Cut="0.0000000000000000e+00" cType="1" res="-1.3089065032545477e-04" rms="3.4514525532722473e-01" purity="3.7898311018943787e-01" nType="-99"/>
          <Node pos="r" depth="2" NCoef="0" IVar="-1" Cut="0.0000000000000000e+00" cType="1" res="9.0766430366784334e-04" rms="3.7633964419364929e-01" purity="4.8142924904823303e-01" nType="-99"/>
        </Node>
        <Node pos="r" depth="1" NCoef="0" IVar="2" Cut="9.2075085937500000e+04" cType="1" res="7.0537996292114258e-01" rms="4.5600217580795288e-01" purity="7.0566874742507935e-01" nType="0">
          <Node pos="l" depth="2" NCoef="0" IVar="-1" Cut="0.0000000000000000e+00" cType="1" res="2.1348474547266960e-05" rms="2.9120489954948425e-01" purity="9.3105316162109375e-01" nType="-99"/>
          <Node pos="r" depth="2" NCoef="0" IVar="-1" Cut="0.0000000000000000e+00" cType="1" res="8.5718384070787579e-05" rms="3.5752415657043457e-01" purity="3.9671313762664795e-01" nType="-99"/>
        </Node>
      </Node>
    </BinaryTree>
    <BinaryTree type="DecisionTree" boostWeight="1.0000000000000000e+00" itree="1091">
      <Node pos="s" depth="0" NCoef="0" IVar="0" Cut="4.0000000000000000e+00" cType="1" res="2.2467421367764473e-03" rms="3.5294634103775024e-01" purity="3.8388976454734802e-01" nType="0">
        <Node pos="l" depth="1" NCoef="0" IVar="4" Cut="7.7337882812500000e+04" cType="1" res="3.4624806046485901e-01" rms="4.7577342391014099e-01" purity="3.4635943174362183e-01" nType="0">
          <Node pos="l" depth="2" NCoef="0" IVar="-1" Cut="0.0000000000000000e+00" cType="1" res="-2.6837937184609473e-04" rms="3.6274790763854980e-01" purity="3.0358591675758362e-01" nType="-99"/>
          <Node pos="r" depth="2" NCoef="0" IVar="-1" Cut="0.0000000000000000e+00" cType="1" res="6.0398265486583114e-04" rms="3.1424486637115479e-01" purity="8.8618063926696777e-01" nType="-99"/>
        </Node>
        <Node pos="r" depth="1" NCoef="0" IVar="-1" Cut="0.0000000000000000e+00" cType="1" res="4.1563209379091859e-04" rms="2.2428035736083984e-01" purity="9.4717872142791748e-01" nType="-99"/>
      </Node>
    </BinaryTree>
    <BinaryTree type="DecisionTree" boostWeight="1.0000000000000000e+00" itree="1092">
      <Node pos="s" depth="0" NCoef="0" IVar="1" Cut="2.0040878125000000e+05" cType="1" res="4.3980565667152405e-01" rms="4.9653720855712891e-01" purity="4.4031798839569092e-01" nType="0">
        <Node pos="l" depth="1" NCoef="0" IVar="2" Cut="8.9636281250000000e+04" cType="1" res="4.9596461653709412e-01" rms="5.1918262243270874e-01" purity="5.6658738851547241e-01" nType="0">
          <Node pos="l" depth="2" NCoef="0" IVar="-1" Cut="0.0000000000000000e+00" cType="1" res="2.8089747502235696e-05" rms="3.9838096499443054e-01" purity="8.1025522947311401e-01" nType="-99"/>
          <Node pos="r" depth="2" NCoef="0" IVar="-1" Cut="0.0000000000000000e+00" cType="1" res="8.5467548342421651e-04" rms="3.3502620458602905e-01" purity="2.3260697722434998e-01" nType="-99"/>
        </Node>
        <Node pos="r" depth="1" NCoef="0" IVar="0" Cut="4.0000000000000000e+00" cType="1" res="-5.0114118494093418e-03" rms="3.5174775123596191e-01" purity="4.0276265144348145e-01" nType="0">
          <Node pos="l" depth="2" NCoef="0" IVar="-1" Cut="0.0000000000000000e+00" cType="1" res="-4.1960511589422822e-04" rms="3.5819557309150696e-01" purity="3.6614567041397095e-01" nType="-99"/>
          <Node pos="r" depth="2" NCoef="0" IVar="-1" Cut="0.0000000000000000e+00" cType="1" res="3.3896556124091148e-04" rms="2.2908084094524384e-01" purity="9.4492787122726440e-01" nType="-99"/>
        </Node>
      </Node>
    </BinaryTree>
    <BinaryTree type="DecisionTree" boostWeight="1.0000000000000000e+00" itree="1093">
      <Node pos="s" depth="0" NCoef="0" IVar="3" Cut="8.5171554687500000e+04" cType="1" res="3.9713644981384277e-01" rms="4.8930469155311584e-01" purity="3.9713644981384277e-01" nType="0">
        <Node pos="l" depth="1" NCoef="0" IVar="4" Cut="3.5453425781250000e+04" cType="1" res="4.6776086091995239e-01" rms="4.9895954132080078e-01" purity="4.6776086091995239e-01" nType="0">
          <Node pos="l" depth="2" NCoef="0" IVar="-1" Cut="0.0000000000000000e+00" cType="1" res="-2.8095830930396914e-04" rms="3.2623890042304993e-01" purity="2.6735991239547729e-01" nType="-99"/>
          <Node pos="r" depth="2" NCoef="0" IVar="-1" Cut="0.0000000000000000e+00" cType="1" res="5.0248287152498960e-04" rms="3.8049596548080444e-01" purity="7.8328627347946167e-01" nType="-99"/>
        </Node>
        <Node pos="r" depth="1" NCoef="0" IVar="4" Cut="2.3674177734375000e+04" cType="1" res="3.8648706674575806e-01" rms="4.8715388774871826e-01" purity="3.8669115304946899e-01" nType="0">
          <Node pos="l" depth="2" NCoef="0" IVar="-1" Cut="0.0000000000000000e+00" cType="1" res="1.5176119050011039e-03" rms="3.1954887509346008e-01" purity="2.2890372574329376e-01" nType="-99"/>
          <Node pos="r" depth="2" NCoef="0" IVar="-1" Cut="0.0000000000000000e+00" cType="1" res="-1.7407664563506842e-04" rms="3.9981570839881897e-01" purity="5.6505936384201050e-01" nType="-99"/>
        </Node>
      </Node>
    </BinaryTree>
    <BinaryTree type="DecisionTree" boostWeight="1.0000000000000000e+00" itree="1094">
      <Node pos="s" depth="0" NCoef="0" IVar="5" Cut="1.6088167187500000e+05" cType="1" res="4.7905683517456055e-01" rms="4.9991503357887268e-01" purity="4.7941049933433533e-01" nType="0">
        <Node pos="l" depth="1" NCoef="0" IVar="-1" Cut="0.0000000000000000e+00" cType="1" res="1.6046487871790305e-05" rms="3.8579750061035156e-01" purity="7.5678473711013794e-01" nType="-99"/>
        <Node pos="r" depth="1" NCoef="0" IVar="4" Cut="8.2576718750000000e+04" cType="1" res="4.0442383289337158e-01" rms="4.9123710393905640e-01" purity="4.0487256646156311e-01" nType="0">
          <Node pos="l" depth="2" NCoef="0" IVar="-1" Cut="0.0000000000000000e+00" cType="1" res="-2.2169800649862736e-04" rms="3.6131557822227478e-01" purity="3.6289075016975403e-01" nType="-99"/>
          <Node pos="r" depth="2" NCoef="0" IVar="-1" Cut="0.0000000000000000e+00" cType="1" res="7.7246659202501178e-04" rms="2.8318792581558228e-01" purity="9.1083145141601562e-01" nType="-99"/>
        </Node>
      </Node>
    </BinaryTree>
    <BinaryTree type="DecisionTree" boostWeight="1.0000000000000000e+00" itree="1095">
      <Node pos="s" depth="0" NCoef="0" IVar="5" Cut="1.5960065625000000e+05" cType="1" res="4.7821941971778870e-01" rms="4.9969649314880371e-01" purity="4.7839036583900452e-01" nType="0">
        <Node pos="l" depth="1" NCoef="0" IVar="-1" Cut="0.0000000000000000e+00" cType="1" res="1.6035412045312114e-05" rms="3.7624499201774597e-01" purity="7.7646917104721069e-01" nType="-99"/>
        <Node pos="r" depth="1" NCoef="0" IVar="4" Cut="8.2776101562500000e+04" cType="1" res="4.0098232030868530e-01" rms="4.9031698703765869e-01" purity="4.0119755268096924e-01" nType="0">
          <Node pos="l" depth="2" NCoef="0" IVar="-1" Cut="0.0000000000000000e+00" cType="1" res="-1.7861137166619301e-04" rms="3.6132961511611938e-01" purity="3.5872483253479004e-01" nType="-99"/>
          <Node pos="r" depth="2" NCoef="0" IVar="-1" Cut="0.0000000000000000e+00" cType="1" res="6.5342115703970194e-04" rms="2.7619791030883789e-01" purity="9.1417664289474487e-01" nType="-99"/>
        </Node>
      </Node>
    </BinaryTree>
    <BinaryTree type="DecisionTree" boostWeight="1.0000000000000000e+00" itree="1096">
      <Node pos="s" depth="0" NCoef="0" IVar="5" Cut="1.6008540625000000e+05" cType="1" res="5.4240077733993530e-01" rms="4.9819892644882202e-01" purity="5.4240071773529053e-01" nType="0">
        <Node pos="l" depth="1" NCoef="0" IVar="-1" Cut="0.0000000000000000e+00" cType="1" res="1.6205889551201835e-05" rms="3.7578168511390686e-01" purity="7.7150189876556396e-01" nType="-99"/>
        <Node pos="r" depth="1" NCoef="0" IVar="2" Cut="9.1824765625000000e+04" cType="1" res="4.9088191986083984e-01" rms="4.9991685152053833e-01" purity="4.9088191986083984e-01" nType="0">
          <Node pos="l" depth="2" NCoef="0" IVar="-1" Cut="0.0000000000000000e+00" cType="1" res="3.5783130442723632e-05" rms="3.5925373435020447e-01" purity="4.0391781926155090e-01" nType="-99"/>
          <Node pos="r" depth="2" NCoef="0" IVar="-1" Cut="0.0000000000000000e+00" cType="1" res="2.1533058315981179e-05" rms="5.0229948759078979e-01" purity="6.1775082349777222e-01" nType="-99"/>
        </Node>
      </Node>
    </BinaryTree>
    <BinaryTree type="DecisionTree" boostWeight="1.0000000000000000e+00" itree="1097">
      <Node pos="s" depth="0" NCoef="0" IVar="5" Cut="1.6079332812500000e+05" cType="1" res="5.3878802061080933e-01" rms="4.9853476881980896e-01" purity="5.3890758752822876e-01" nType="0">
        <Node pos="l" depth="1" NCoef="0" IVar="-1" Cut="0.0000000000000000e+00" cType="1" res="1.6065725503722206e-05" rms="3.8078054785728455e-01" purity="7.6626253128051758e-01" nType="-99"/>
        <Node pos="r" depth="1" NCoef="0" IVar="2" Cut="9.1773078125000000e+04" cType="1" res="4.8697894811630249e-01" rms="4.9988129734992981e-01" purity="4.8712572455406189e-01" nType="0">
          <Node pos="l" depth="2" NCoef="0" IVar="-1" Cut="0.0000000000000000e+00" cType="1" res="5.2474653784884140e-05" rms="3.5671103000640869e-01" purity="4.0459319949150085e-01" nType="-99"/>
          <Node pos="r" depth="2" NCoef="0" IVar="-1" Cut="0.0000000000000000e+00" cType="1" res="2.1531055608647875e-05" rms="5.0976395606994629e-01" purity="6.0731130838394165e-01" nType="-99"/>
        </Node>
      </Node>
    </BinaryTree>
    <BinaryTree type="DecisionTree" boostWeight="1.0000000000000000e+00" itree="1098">
      <Node pos="s" depth="0" NCoef="0" IVar="3" Cut="8.9426585937500000e+04" cType="1" res="5.0865650177001953e-01" rms="5.0011920928955078e-01" purity="5.0891244411468506e-01" nType="0">
        <Node pos="l" depth="1" NCoef="0" IVar="3" Cut="8.8493062500000000e+04" cType="1" res="6.0369694232940674e-01" rms="4.8931881785392761e-01" purity="6.0413414239883423e-01" nType="0">
          <Node pos="l" depth="2" NCoef="0" IVar="-1" Cut="0.0000000000000000e+00" cType="1" res="-1.6774440882727504e-04" rms="3.4495192766189575e-01" purity="3.7656205892562866e-01" nType="-99"/>
          <Node pos="r" depth="2" NCoef="0" IVar="-1" Cut="0.0000000000000000e+00" cType="1" res="2.3831662474549375e-05" rms="4.1477546095848083e-01" purity="8.3047568798065186e-01" nType="-99"/>
        </Node>
        <Node pos="r" depth="1" NCoef="0" IVar="3" Cut="9.6773812500000000e+04" cType="1" res="3.7611225247383118e-01" rms="4.8452717065811157e-01" purity="3.7637493014335632e-01" nType="0">
          <Node pos="l" depth="2" NCoef="0" IVar="-1" Cut="0.0000000000000000e+00" cType="1" res="-4.3231653398834169e-04" rms="3.5152021050453186e-01" purity="3.6129835247993469e-01" nType="-99"/>
          <Node pos="r" depth="2" NCoef="0" IVar="-1" Cut="0.0000000000000000e+00" cType="1" res="1.0330799268558621e-03" rms="3.9320728182792664e-01" purity="4.4734051823616028e-01" nType="-99"/>
        </Node>
      </Node>
    </BinaryTree>
    <BinaryTree type="DecisionTree" boostWeight="1.0000000000000000e+00" itree="1099">
      <Node pos="s" depth="0" NCoef="0" IVar="4" Cut="3.5506140625000000e+04" cType="1" res="3.8747128844261169e-01" rms="4.8717275261878967e-01" purity="3.8747128844261169e-01" nType="0">
        <Node pos="l" depth="1" NCoef="0" IVar="4" Cut="2.3692033203125000e+04" cType="1" res="2.6118066906929016e-01" rms="4.3927818536758423e-01" purity="2.6118066906929016e-01" nType="0">
          <Node pos="l" depth="2" NCoef="0" IVar="-1" Cut="0.0000000000000000e+00" cType="1" res="9.7067636670544744e-04" rms="3.1360489130020142e-01" purity="2.2399261593818665e-01" nType="-99"/>
          <Node pos="r" depth="2" NCoef="0" IVar="-1" Cut="0.0000000000000000e+00" cType="1" res="-1.0933971498161554e-03" rms="3.9973622560501099e-01" purity="3.6856904625892639e-01" nType="-99"/>
        </Node>
        <Node pos="r" depth="1" NCoef="0" IVar="2" Cut="9.2683218750000000e+04" cType="1" res="6.9650810956954956e-01" rms="4.5976576209068298e-01" purity="6.9650816917419434e-01" nType="0">
          <Node pos="l" depth="2" NCoef="0" IVar="-1" Cut="0.0000000000000000e+00" cType="1" res="4.5183073962107301e-04" rms="4.0161848068237305e-01" purity="7.0413541793823242e-01" nType="-99"/>
          <Node pos="r" depth="2" NCoef="0" IVar="-1" Cut="0.0000000000000000e+00" cType="1" res="-8.3364889724180102e-04" rms="3.9216613769531250e-01" purity="6.5478008985519409e-01" nType="-99"/>
        </Node>
      </Node>
    </BinaryTree>
    <BinaryTree type="DecisionTree" boostWeight="1.0000000000000000e+00" itree="1100">
      <Node pos="s" depth="0" NCoef="0" IVar="5" Cut="1.6744325000000000e+05" cType="1" res="4.8956480622291565e-01" rms="5.0002008676528931e-01" purity="4.8986959457397461e-01" nType="0">
        <Node pos="l" depth="1" NCoef="0" IVar="3" Cut="9.0129835937500000e+04" cType="1" res="0.0000000000000000e+00" rms="0.0000000000000000e+00" purity="6.9522058963775635e-01" nType="0">
          <Node pos="l" depth="2" NCoef="0" IVar="-1" Cut="0.0000000000000000e+00" cType="1" res="-7.6687888940796256e-04" rms="2.2572349011898041e-01" purity="6.4511403441429138e-02" nType="-99"/>
          <Node pos="r" depth="2" NCoef="0" IVar="-1" Cut="0.0000000000000000e+00" cType="1" res="1.6221600162680261e-05" rms="3.2069379091262817e-01" purity="8.5703229904174805e-01" nType="-99"/>
        </Node>
        <Node pos="r" depth="1" NCoef="0" IVar="4" Cut="7.8737789062500000e+04" cType="1" res="4.2642727494239807e-01" rms="4.9472782015800476e-01" purity="4.2682564258575439e-01" nType="0">
          <Node pos="l" depth="2" NCoef="0" IVar="-1" Cut="0.0000000000000000e+00" cType="1" res="-7.3617753514554352e-05" rms="3.6479315161705017e-01" purity="3.7752845883369446e-01" nType="-99"/>
          <Node pos="r" depth="2" NCoef="0" IVar="-1" Cut="0.0000000000000000e+00" cType="1" res="6.6797441104426980e-04" rms="2.9002606868743896e-01" purity="9.0567040443420410e-01" nType="-99"/>
        </Node>
      </Node>
    </BinaryTree>
    <BinaryTree type="DecisionTree" boostWeight="1.0000000000000000e+00" itree="1101">
      <Node pos="s" depth="0" NCoef="0" IVar="5" Cut="1.6601217187500000e+05" cType="1" res="4.8812100291252136e-01" rms="4.9985885620117188e-01" purity="4.8812097311019897e-01" nType="0">
        <Node pos="l" depth="1" NCoef="0" IVar="4" Cut="1.7864539062500000e+04" cType="1" res="7.0656025409698486e-01" rms="4.5533818006515503e-01" purity="7.0656025409698486e-01" nType="0">
          <Node pos="l" depth="2" NCoef="0" IVar="-1" Cut="0.0000000000000000e+00" cType="1" res="-4.1076024062931538e-03" rms="1.4052000641822815e-01" purity="2.0109705626964569e-02" nType="-99"/>
          <Node pos="r" depth="2" NCoef="0" IVar="-1" Cut="0.0000000000000000e+00" cType="1" res="1.6171097740880214e-05" rms="3.2632368803024292e-01" purity="8.7074786424636841e-01" nType="-99"/>
        </Node>
        <Node pos="r" depth="1" NCoef="0" IVar="3" Cut="9.8787570312500000e+04" cType="1" res="4.2282614111900330e-01" rms="4.9400830268859863e-01" purity="4.2282617092132568e-01" nType="0">
          <Node pos="l" depth="2" NCoef="0" IVar="-1" Cut="0.0000000000000000e+00" cType="1" res="2.1731515880674124e-04" rms="3.5990703105926514e-01" purity="4.1945296525955200e-01" nType="-99"/>
          <Node pos="r" depth="2" NCoef="0" IVar="-1" Cut="0.0000000000000000e+00" cType="1" res="1.6104476526379585e-03" rms="4.2699506878852844e-01" purity="5.0066900253295898e-01" nType="-99"/>
        </Node>
      </Node>
    </BinaryTree>
    <BinaryTree type="DecisionTree" boostWeight="1.0000000000000000e+00" itree="1102">
      <Node pos="s" depth="0" NCoef="0" IVar="1" Cut="2.0309048437500000e+05" cType="1" res="1.2167325615882874e-01" rms="0.0000000000000000e+00" purity="5.2699601650238037e-01" nType="0">
        <Node pos="l" depth="1" NCoef="0" IVar="2" Cut="8.9655093750000000e+04" cType="1" res="2.9002925753593445e-01" rms="4.6710035204887390e-01" purity="7.2874844074249268e-01" nType="0">
          <Node pos="l" depth="2" NCoef="0" IVar="-1" Cut="0.0000000000000000e+00" cType="1" res="1.9185863493476063e-05" rms="2.9912844300270081e-01" purity="9.0774238109588623e-01" nType="-99"/>
          <Node pos="r" depth="2" NCoef="0" IVar="-1" Cut="0.0000000000000000e+00" cType="1" res="2.7040279746870510e-05" rms="3.3501932024955750e-01" purity="2.3133920133113861e-01" nType="-99"/>
        </Node>
        <Node pos="r" depth="1" NCoef="0" IVar="0" Cut="4.0000000000000000e+00" cType="1" res="-4.1319860611110926e-04" rms="3.5600382089614868e-01" purity="4.1417250037193298e-01" nType="0">
          <Node pos="l" depth="2" NCoef="0" IVar="-1" Cut="0.0000000000000000e+00" cType="1" res="-1.9666149455588311e-04" rms="3.6303624510765076e-01" purity="3.7598669528961182e-01" nType="-99"/>
          <Node pos="r" depth="2" NCoef="0" IVar="-1" Cut="0.0000000000000000e+00" cType="1" res="3.6413894849829376e-04" rms="2.3100076615810394e-01" purity="9.4416016340255737e-01" nType="-99"/>
        </Node>
      </Node>
    </BinaryTree>
    <BinaryTree type="DecisionTree" boostWeight="1.0000000000000000e+00" itree="1103">
      <Node pos="s" depth="0" NCoef="0" IVar="5" Cut="1.6016320312500000e+05" cType="1" res="5.5248838663101196e-01" rms="4.9723732471466064e-01" purity="5.5248838663101196e-01" nType="0">
        <Node pos="l" depth="1" NCoef="0" IVar="-1" Cut="0.0000000000000000e+00" cType="1" res="1.6187261280720122e-05" rms="3.0482137203216553e-01" purity="8.6696380376815796e-01" nType="-99"/>
        <Node pos="r" depth="1" NCoef="0" IVar="4" Cut="1.3316952148437500e+04" cType="1" res="4.0416979789733887e-01" rms="4.9073064327239990e-01" purity="4.0416979789733887e-01" nType="0">
          <Node pos="l" depth="2" NCoef="0" IVar="-1" Cut="0.0000000000000000e+00" cType="1" res="-3.5254512913525105e-03" rms="2.5796660780906677e-01" purity="1.5946672856807709e-01" nType="-99"/>
          <Node pos="r" depth="2" NCoef="0" IVar="-1" Cut="0.0000000000000000e+00" cType="1" res="3.4348716144450009e-04" rms="3.8653293251991272e-01" purity="4.9005520343780518e-01" nType="-99"/>
        </Node>
      </Node>
    </BinaryTree>
    <BinaryTree type="DecisionTree" boostWeight="1.0000000000000000e+00" itree="1104">
      <Node pos="s" depth="0" NCoef="0" IVar="0" Cut="1.0000000000000000e+00" cType="1" res="2.1907760202884674e-01" rms="4.7817200422286987e-01" purity="5.4384446144104004e-01" nType="0">
        <Node pos="l" depth="1" NCoef="0" IVar="4" Cut="2.1007773437500000e+04" cType="1" res="5.1299577951431274e-01" rms="4.9983108043670654e-01" purity="5.1299577951431274e-01" nType="0">
          <Node pos="l" depth="2" NCoef="0" IVar="-1" Cut="0.0000000000000000e+00" cType="1" res="2.2151225712150335e-03" rms="2.1605023741722107e-01" purity="4.9154378473758698e-02" nType="-99"/>
          <Node pos="r" depth="2" NCoef="0" IVar="-1" Cut="0.0000000000000000e+00" cType="1" res="1.7968864995054901e-05" rms="4.6735745668411255e-01" purity="7.5203359127044678e-01" nType="-99"/>
        </Node>
        <Node pos="r" depth="1" NCoef="0" IVar="3" Cut="8.4179976562500000e+04" cType="1" res="5.8872240781784058e-01" rms="4.9260640144348145e-01" purity="5.8991938829421997e-01" nType="0">
          <Node pos="l" depth="2" NCoef="0" IVar="-1" Cut="0.0000000000000000e+00" cType="1" res="1.9236224761698395e-04" rms="3.5298845171928406e-01" purity="7.0785045623779297e-01" nType="-99"/>
          <Node pos="r" depth="2" NCoef="0" IVar="-1" Cut="0.0000000000000000e+00" cType="1" res="2.6620453354553320e-05" rms="4.0210646390914917e-01" purity="5.7719820737838745e-01" nType="-99"/>
        </Node>
      </Node>
    </BinaryTree>
    <BinaryTree type="DecisionTree" boostWeight="1.0000000000000000e+00" itree="1105">
      <Node pos="s" depth="0" NCoef="0" IVar="4" Cut="8.2556148437500000e+04" cType="1" res="3.7396299839019775e-01" rms="4.8415261507034302e-01" purity="3.7446704506874084e-01" nType="0">
        <Node pos="l" depth="1" NCoef="0" IVar="2" Cut="8.9242242187500000e+04" cType="1" res="3.3629089593887329e-01" rms="4.7249558568000793e-01" purity="3.3634364604949951e-01" nType="0">
          <Node pos="l" depth="2" NCoef="0" IVar="-1" Cut="0.0000000000000000e+00" cType="1" res="-2.0058846566826105e-03" rms="3.4144005179405212e-01" purity="3.0212825536727905e-01" nType="-99"/>
          <Node pos="r" depth="2" NCoef="0" IVar="-1" Cut="0.0000000000000000e+00" cType="1" res="1.9671681002364494e-05" rms="3.6206385493278503e-01" purity="3.4225079417228699e-01" nType="-99"/>
        </Node>
        <Node pos="r" depth="1" NCoef="0" IVar="-1" Cut="0.0000000000000000e+00" cType="1" res="7.5207150075584650e-04" rms="2.9592725634574890e-01" purity="9.0450417995452881e-01" nType="-99"/>
      </Node>
    </BinaryTree>
    <BinaryTree type="DecisionTree" boostWeight="1.0000000000000000e+00" itree="1106">
      <Node pos="s" depth="0" NCoef="0" IVar="3" Cut="8.9426585937500000e+04" cType="1" res="5.1580762863159180e-01" rms="4.9975004792213440e-01" purity="5.1580762863159180e-01" nType="0">
        <Node pos="l" depth="1" NCoef="0" IVar="3" Cut="8.8493062500000000e+04" cType="1" res="6.0484814643859863e-01" rms="4.8888328671455383e-01" purity="6.0484820604324341e-01" nType="0">
          <Node pos="l" depth="2" NCoef="0" IVar="-1" Cut="0.0000000000000000e+00" cType="1" res="-1.1593563976930454e-04" rms="3.5248237848281860e-01" purity="3.7128937244415283e-01" nType="-99"/>
          <Node pos="r" depth="2" NCoef="0" IVar="-1" Cut="0.0000000000000000e+00" cType="1" res="2.3942178813740611e-05" rms="4.1041138768196106e-01" purity="8.3379042148590088e-01" nType="-99"/>
        </Node>
        <Node pos="r" depth="1" NCoef="0" IVar="3" Cut="9.8944585937500000e+04" cType="1" res="3.9178019762039185e-01" rms="4.8828241229057312e-01" purity="3.9205083250999451e-01" nType="0">
          <Node pos="l" depth="2" NCoef="0" IVar="-1" Cut="0.0000000000000000e+00" cType="1" res="-2.5584275135770440e-04" rms="3.4992948174476624e-01" purity="3.8234034180641174e-01" nType="-99"/>
          <Node pos="r" depth="2" NCoef="0" IVar="-1" Cut="0.0000000000000000e+00" cType="1" res="1.5240255743265152e-03" rms="3.9685621857643127e-01" purity="5.1702558994293213e-01" nType="-99"/>
        </Node>
      </Node>
    </BinaryTree>
    <BinaryTree type="DecisionTree" boostWeight="1.0000000000000000e+00" itree="1107">
      <Node pos="s" depth="0" NCoef="0" IVar="4" Cut="3.9250097656250000e+04" cType="1" res="3.8387262821197510e-01" rms="4.8632749915122986e-01" purity="3.8387262821197510e-01" nType="0">
        <Node pos="l" depth="1" NCoef="0" IVar="4" Cut="1.7579927734375000e+04" cType="1" res="2.6695919036865234e-01" rms="4.4268071651458740e-01" purity="2.6723343133926392e-01" nType="0">
          <Node pos="l" depth="2" NCoef="0" IVar="-1" Cut="0.0000000000000000e+00" cType="1" res="1.5125587815418839e-03" rms="2.9788812994956970e-01" purity="1.9519136846065521e-01" nType="-99"/>
          <Node pos="r" depth="2" NCoef="0" IVar="-1" Cut="0.0000000000000000e+00" cType="1" res="-1.1303493520244956e-03" rms="3.8328903913497925e-01" purity="3.4643676877021790e-01" nType="-99"/>
        </Node>
        <Node pos="r" depth="1" NCoef="0" IVar="4" Cut="5.1476132812500000e+04" cType="1" res="7.2565215826034546e-01" rms="4.4618505239486694e-01" purity="7.2565215826034546e-01" nType="0">
          <Node pos="l" depth="2" NCoef="0" IVar="-1" Cut="0.0000000000000000e+00" cType="1" res="1.4064004644751549e-03" rms="4.4692119956016541e-01" purity="6.0020953416824341e-01" nType="-99"/>
          <Node pos="r" depth="2" NCoef="0" IVar="-1" Cut="0.0000000000000000e+00" cType="1" res="1.6096864419523627e-04" rms="3.6755004525184631e-01" purity="8.0000919103622437e-01" nType="-99"/>
        </Node>
      </Node>
    </BinaryTree>
    <BinaryTree type="DecisionTree" boostWeight="1.0000000000000000e+00" itree="1108">
      <Node pos="s" depth="0" NCoef="0" IVar="1" Cut="2.0102762500000000e+05" cType="1" res="4.5012670755386353e-01" rms="4.9762341380119324e-01" purity="4.5033690333366394e-01" nType="0">
        <Node pos="l" depth="1" NCoef="0" IVar="2" Cut="8.9636281250000000e+04" cType="1" res="4.8137468099594116e-01" rms="5.2071893215179443e-01" purity="5.6168919801712036e-01" nType="0">
          <Node pos="l" depth="2" NCoef="0" IVar="-1" Cut="0.0000000000000000e+00" cType="1" res="2.8117658075643703e-05" rms="4.0166091918945312e-01" purity="8.0545365810394287e-01" nType="-99"/>
          <Node pos="r" depth="2" NCoef="0" IVar="-1" Cut="0.0000000000000000e+00" cType="1" res="1.5490883961319923e-03" rms="3.5142776370048523e-01" purity="2.6095378398895264e-01" nType="-99"/>
        </Node>
        <Node pos="r" depth="1" NCoef="0" IVar="0" Cut="4.0000000000000000e+00" cType="1" res="3.4195624757558107e-03" rms="3.5699653625488281e-01" purity="4.1570165753364563e-01" nType="0">
          <Node pos="l" depth="2" NCoef="0" IVar="-1" Cut="0.0000000000000000e+00" cType="1" res="6.6665654685493791e-07" rms="3.6391708254814148e-01" purity="3.7907633185386658e-01" nType="-99"/>
          <Node pos="r" depth="2" NCoef="0" IVar="-1" Cut="0.0000000000000000e+00" cType="1" res="3.4629635047167540e-04" rms="2.2979082167148590e-01" purity="9.4467544555664062e-01" nType="-99"/>
        </Node>
      </Node>
    </BinaryTree>
    <BinaryTree type="DecisionTree" boostWeight="1.0000000000000000e+00" itree="1109">
      <Node pos="s" depth="0" NCoef="0" IVar="2" Cut="9.1831726562500000e+04" cType="1" res="4.6471491456031799e-01" rms="4.9875339865684509e-01" purity="4.6480628848075867e-01" nType="0">
        <Node pos="l" depth="1" NCoef="0" IVar="3" Cut="9.6800867187500000e+04" cType="1" res="3.8066294789314270e-01" rms="4.8554986715316772e-01" purity="3.8066291809082031e-01" nType="0">
          <Node pos="l" depth="2" NCoef="0" IVar="-1" Cut="0.0000000000000000e+00" cType="1" res="4.7349705710075796e-05" rms="3.4912133216857910e-01" purity="3.7326684594154358e-01" nType="-99"/>
          <Node pos="r" depth="2" NCoef="0" IVar="-1" Cut="0.0000000000000000e+00" cType="1" res="9.2789833433926105e-04" rms="3.9148995280265808e-01" purity="4.5846778154373169e-01" nType="-99"/>
        </Node>
        <Node pos="r" depth="1" NCoef="0" IVar="2" Cut="9.2022093750000000e+04" cType="1" res="5.9265732765197754e-01" rms="4.9133962392807007e-01" purity="5.9288781881332397e-01" nType="0">
          <Node pos="l" depth="2" NCoef="0" IVar="-1" Cut="0.0000000000000000e+00" cType="1" res="2.1213498257566243e-05" rms="3.7683311104774475e-01" purity="8.7355786561965942e-01" nType="-99"/>
          <Node pos="r" depth="2" NCoef="0" IVar="-1" Cut="0.0000000000000000e+00" cType="1" res="-2.0379193301778287e-04" rms="3.5850539803504944e-01" purity="3.7834325432777405e-01" nType="-99"/>
        </Node>
      </Node>
    </BinaryTree>
    <BinaryTree type="DecisionTree" boostWeight="1.0000000000000000e+00" itree="1110">
      <Node pos="s" depth="0" NCoef="0" IVar="5" Cut="1.6133364062500000e+05" cType="1" res="4.8509776592254639e-01" rms="4.9983274936676025e-01" purity="4.8515266180038452e-01" nType="0">
        <Node pos="l" depth="1" NCoef="0" IVar="-1" Cut="0.0000000000000000e+00" cType="1" res="1.6137038983288221e-05" rms="3.8465994596481323e-01" purity="7.6094955205917358e-01" nType="-99"/>
        <Node pos="r" depth="1" NCoef="0" IVar="3" Cut="9.8787601562500000e+04" cType="1" res="4.1178402304649353e-01" rms="4.9222695827484131e-01" purity="4.1185346245765686e-01" nType="0">
          <Node pos="l" depth="2" NCoef="0" IVar="-1" Cut="0.0000000000000000e+00" cType="1" res="7.2036615165416151e-05" rms="3.5888937115669250e-01" purity="4.0851727128028870e-01" nType="-99"/>
          <Node pos="r" depth="2" NCoef="0" IVar="-1" Cut="0.0000000000000000e+00" cType="1" res="2.3075588978827000e-03" rms="4.5240578055381775e-01" purity="4.9048662185668945e-01" nType="-99"/>
        </Node>
      </Node>
    </BinaryTree>
    <BinaryTree type="DecisionTree" boostWeight="1.0000000000000000e+00" itree="1111">
      <Node pos="s" depth="0" NCoef="0" IVar="3" Cut="9.5950890625000000e+04" cType="1" res="4.7732532024383545e-01" rms="4.9948558211326599e-01" purity="4.7732535004615784e-01" nType="0">
        <Node pos="l" depth="1" NCoef="0" IVar="4" Cut="3.5519035156250000e+04" cType="1" res="3.7727156281471252e-01" rms="4.8470374941825867e-01" purity="3.7727159261703491e-01" nType="0">
          <Node pos="l" depth="2" NCoef="0" IVar="-1" Cut="0.0000000000000000e+00" cType="1" res="-3.0982651514932513e-04" rms="3.2930251955986023e-01" purity="2.5432270765304565e-01" nType="-99"/>
          <Node pos="r" depth="2" NCoef="0" IVar="-1" Cut="0.0000000000000000e+00" cType="1" res="4.4764464837498963e-04" rms="4.0748488903045654e-01" purity="6.8054419755935669e-01" nType="-99"/>
        </Node>
        <Node pos="r" depth="1" NCoef="0" IVar="3" Cut="9.6733312500000000e+04" cType="1" res="7.6477146148681641e-01" rms="4.2449992895126343e-01" purity="7.6526331901550293e-01" nType="0">
          <Node pos="l" depth="2" NCoef="0" IVar="-1" Cut="0.0000000000000000e+00" cType="1" res="1.6168594811460935e-05" rms="3.2255765795707703e-01" purity="9.1438102722167969e-01" nType="-99"/>
          <Node pos="r" depth="2" NCoef="0" IVar="-1" Cut="0.0000000000000000e+00" cType="1" res="-8.8325381511822343e-04" rms="3.4470218420028687e-01" purity="3.9568403363227844e-01" nType="-99"/>
        </Node>
      </Node>
    </BinaryTree>
    <BinaryTree type="DecisionTree" boostWeight="1.0000000000000000e+00" itree="1112">
      <Node pos="s" depth="0" NCoef="0" IVar="0" Cut="1.0000000000000000e+00" cType="1" res="2.6590326428413391e-01" rms="4.8911187052726746e-01" purity="5.7441985607147217e-01" nType="0">
        <Node pos="l" depth="1" NCoef="0" IVar="4" Cut="2.1010888671875000e+04" cType="1" res="5.7018440961837769e-01" rms="4.9504965543746948e-01" purity="5.7018440961837769e-01" nType="0">
          <Node pos="l" depth="2" NCoef="0" IVar="-1" Cut="0.0000000000000000e+00" cType="1" res="-2.4387980811297894e-03" rms="1.9232909381389618e-01" purity="3.8431290537118912e-02" nType="-99"/>
          <Node pos="r" depth="2" NCoef="0" IVar="-1" Cut="0.0000000000000000e+00" cType="1" res="1.9869768948410638e-05" rms="4.4323778152465820e-01" purity="7.9214996099472046e-01" nType="-99"/>
        </Node>
        <Node pos="r" depth="1" NCoef="0" IVar="4" Cut="9.3693027343750000e+03" cType="1" res="5.8145451545715332e-01" rms="4.9355396628379822e-01" purity="5.8188456296920776e-01" nType="0">
          <Node pos="l" depth="2" NCoef="0" IVar="-1" Cut="0.0000000000000000e+00" cType="1" res="-3.7909711245447397e-03" rms="3.5439303517341614e-01" purity="3.2893550395965576e-01" nType="-99"/>
          <Node pos="r" depth="2" NCoef="0" IVar="-1" Cut="0.0000000000000000e+00" cType="1" res="3.6445655860006809e-04" rms="4.0700903534889221e-01" purity="6.1249285936355591e-01" nType="-99"/>
        </Node>
      </Node>
    </BinaryTree>
    <BinaryTree type="DecisionTree" boostWeight="1.0000000000000000e+00" itree="1113">
      <Node pos="s" depth="0" NCoef="0" IVar="0" Cut="1.0000000000000000e+00" cType="1" res="3.5973691940307617e-01" rms="4.9724379181861877e-01" purity="6.4161425828933716e-01" nType="0">
        <Node pos="l" depth="1" NCoef="0" IVar="4" Cut="2.1007773437500000e+04" cType="1" res="6.6861397027969360e-01" rms="4.7071149945259094e-01" purity="6.6861397027969360e-01" nType="0">
          <Node pos="l" depth="2" NCoef="0" IVar="-1" Cut="0.0000000000000000e+00" cType="1" res="1.6765501350164413e-03" rms="2.1485148370265961e-01" purity="4.8816002905368805e-02" nType="-99"/>
          <Node pos="r" depth="2" NCoef="0" IVar="-1" Cut="0.0000000000000000e+00" cType="1" res="2.1226182070677169e-05" rms="3.8798034191131592e-01" purity="8.5407966375350952e-01" nType="-99"/>
        </Node>
        <Node pos="r" depth="1" NCoef="0" IVar="1" Cut="3.7482256250000000e+05" cType="1" res="5.8051764965057373e-01" rms="4.9347433447837830e-01" purity="5.8051764965057373e-01" nType="0">
          <Node pos="l" depth="2" NCoef="0" IVar="-1" Cut="0.0000000000000000e+00" cType="1" res="-1.2511375825852156e-04" rms="4.0854489803314209e-01" purity="5.2731484174728394e-01" nType="-99"/>
          <Node pos="r" depth="2" NCoef="0" IVar="-1" Cut="0.0000000000000000e+00" cType="1" res="9.2528411187231541e-04" rms="3.8269391655921936e-01" purity="7.4423080682754517e-01" nType="-99"/>
        </Node>
      </Node>
    </BinaryTree>
    <BinaryTree type="DecisionTree" boostWeight="1.0000000000000000e+00" itree="1114">
      <Node pos="s" depth="0" NCoef="0" IVar="2" Cut="8.9629554687500000e+04" cType="1" res="5.2747017145156860e-01" rms="4.9924480915069580e-01" purity="5.2747017145156860e-01" nType="0">
        <Node pos="l" depth="1" NCoef="0" IVar="2" Cut="8.9278125000000000e+04" cType="1" res="7.4854075908660889e-01" rms="4.3385192751884460e-01" purity="7.4854081869125366e-01" nType="0">
          <Node pos="l" depth="2" NCoef="0" IVar="-1" Cut="0.0000000000000000e+00" cType="1" res="1.5069301298353821e-04" rms="3.6194410920143127e-01" purity="3.6978727579116821e-01" nType="-99"/>
          <Node pos="r" depth="2" NCoef="0" IVar="-1" Cut="0.0000000000000000e+00" cType="1" res="1.9359942598384805e-05" rms="3.0142736434936523e-01" purity="9.2267841100692749e-01" nType="-99"/>
        </Node>
        <Node pos="r" depth="1" NCoef="0" IVar="3" Cut="9.4673898437500000e+04" cType="1" res="3.8971582055091858e-01" rms="4.8794150352478027e-01" purity="3.8996532559394836e-01" nType="0">
          <Node pos="l" depth="2" NCoef="0" IVar="-1" Cut="0.0000000000000000e+00" cType="1" res="5.4690154502168298e-04" rms="3.5449740290641785e-01" purity="3.9267060160636902e-01" nType="-99"/>
          <Node pos="r" depth="2" NCoef="0" IVar="-1" Cut="0.0000000000000000e+00" cType="1" res="-9.0416806051507592e-04" rms="3.5389664769172668e-01" purity="3.7566840648651123e-01" nType="-99"/>
        </Node>
      </Node>
    </BinaryTree>
    <BinaryTree type="DecisionTree" boostWeight="1.0000000000000000e+00" itree="1115">
      <Node pos="s" depth="0" NCoef="0" IVar="1" Cut="2.0020804687500000e+05" cType="1" res="4.9623921513557434e-01" rms="5.0012493133544922e-01" purity="4.9673750996589661e-01" nType="0">
        <Node pos="l" depth="1" NCoef="0" IVar="2" Cut="8.9673859375000000e+04" cType="1" res="6.4652937650680542e-01" rms="4.9882408976554871e-01" purity="7.0588505268096924e-01" nType="0">
          <Node pos="l" depth="2" NCoef="0" IVar="-1" Cut="0.0000000000000000e+00" cType="1" res="2.8394593755365349e-05" rms="3.1345671415328979e-01" purity="8.9899361133575439e-01" nType="-99"/>
          <Node pos="r" depth="2" NCoef="0" IVar="-1" Cut="0.0000000000000000e+00" cType="1" res="6.2560872174799442e-04" rms="3.3919459581375122e-01" purity="2.4065218865871429e-01" nType="-99"/>
        </Node>
        <Node pos="r" depth="1" NCoef="0" IVar="0" Cut="3.0000000000000000e+00" cType="1" res="2.3377866018563509e-03" rms="3.5615941882133484e-01" purity="4.0765190124511719e-01" nType="0">
          <Node pos="l" depth="2" NCoef="0" IVar="-1" Cut="0.0000000000000000e+00" cType="1" res="-1.2602066271938384e-04" rms="3.6623549461364746e-01" purity="3.2792565226554871e-01" nType="-99"/>
          <Node pos="r" depth="2" NCoef="0" IVar="-1" Cut="0.0000000000000000e+00" cType="1" res="1.5692766755819321e-03" rms="2.8256729245185852e-01" purity="9.1068732738494873e-01" nType="-99"/>
        </Node>
      </Node>
    </BinaryTree>
    <BinaryTree type="DecisionTree" boostWeight="1.0000000000000000e+00" itree="1116">
      <Node pos="s" depth="0" NCoef="0" IVar="3" Cut="8.9426312500000000e+04" cType="1" res="5.1203781366348267e-01" rms="4.9996310472488403e-01" purity="5.1214575767517090e-01" nType="0">
        <Node pos="l" depth="1" NCoef="0" IVar="3" Cut="8.8492835937500000e+04" cType="1" res="6.0366714000701904e-01" rms="4.8950111865997314e-01" purity="6.0402530431747437e-01" nType="0">
          <Node pos="l" depth="2" NCoef="0" IVar="-1" Cut="0.0000000000000000e+00" cType="1" res="5.0593029300216585e-05" rms="3.4383788704872131e-01" purity="3.8309380412101746e-01" nType="-99"/>
          <Node pos="r" depth="2" NCoef="0" IVar="-1" Cut="0.0000000000000000e+00" cType="1" res="2.3712187612545677e-05" rms="4.1871291399002075e-01" purity="8.2943856716156006e-01" nType="-99"/>
        </Node>
        <Node pos="r" depth="1" NCoef="0" IVar="4" Cut="1.7943279296875000e+04" cType="1" res="3.8362646102905273e-01" rms="4.8641043901443481e-01" purity="3.8376441597938538e-01" nType="0">
          <Node pos="l" depth="2" NCoef="0" IVar="-1" Cut="0.0000000000000000e+00" cType="1" res="1.7535969382151961e-03" rms="3.0263066291809082e-01" purity="2.1242868900299072e-01" nType="-99"/>
          <Node pos="r" depth="2" NCoef="0" IVar="-1" Cut="0.0000000000000000e+00" cType="1" res="-4.2672443669289351e-04" rms="3.7934359908103943e-01" purity="5.0034809112548828e-01" nType="-99"/>
        </Node>
      </Node>
    </BinaryTree>
    <BinaryTree type="DecisionTree" boostWeight="1.0000000000000000e+00" itree="1117">
      <Node pos="s" depth="0" NCoef="0" IVar="2" Cut="9.1862039062500000e+04" cType="1" res="inf" rms="0.0000000000000000e+00" purity="4.7006773948669434e-01" nType="0">
        <Node pos="l" depth="1" NCoef="0" IVar="3" Cut="9.7794570312500000e+04" cType="1" res="3.8404843211174011e-01" rms="4.8636943101882935e-01" purity="3.8404843211174011e-01" nType="0">
          <Node pos="l" depth="2" NCoef="0" IVar="-1" Cut="0.0000000000000000e+00" cType="1" res="-4.0966377127915621e-05" rms="3.4694948792457581e-01" purity="3.7912318110466003e-01" nType="-99"/>
          <Node pos="r" depth="2" NCoef="0" IVar="-1" Cut="0.0000000000000000e+00" cType="1" res="1.4100802363827825e-03" rms="4.1087460517883301e-01" purity="4.6630552411079407e-01" nType="-99"/>
        </Node>
        <Node pos="r" depth="1" NCoef="0" IVar="2" Cut="9.2052515625000000e+04" cType="1" res="6.0344576835632324e-01" rms="4.8918193578720093e-01" purity="6.0344576835632324e-01" nType="0">
          <Node pos="l" depth="2" NCoef="0" IVar="-1" Cut="0.0000000000000000e+00" cType="1" res="2.1428211766760796e-05" rms="3.6684602499008179e-01" purity="8.8074976205825806e-01" nType="-99"/>
          <Node pos="r" depth="2" NCoef="0" IVar="-1" Cut="0.0000000000000000e+00" cType="1" res="-1.1286960216239095e-04" rms="3.5816100239753723e-01" purity="3.9040270447731018e-01" nType="-99"/>
        </Node>
      </Node>
    </BinaryTree>
    <BinaryTree type="DecisionTree" boostWeight="1.0000000000000000e+00" itree="1118">
      <Node pos="s" depth="0" NCoef="0" IVar="5" Cut="1.8311439062500000e+05" cType="1" res="5.2515202760696411e-01" rms="4.9936696887016296e-01" purity="5.2515202760696411e-01" nType="0">
        <Node pos="l" depth="1" NCoef="0" IVar="2" Cut="8.9623117187500000e+04" cType="1" res="6.4043247699737549e-01" rms="4.7987365722656250e-01" purity="6.4043247699737549e-01" nType="0">
          <Node pos="l" depth="2" NCoef="0" IVar="-1" Cut="0.0000000000000000e+00" cType="1" res="1.9279128537164070e-05" rms="3.0272558331489563e-01" purity="8.7804728746414185e-01" nType="-99"/>
          <Node pos="r" depth="2" NCoef="0" IVar="-1" Cut="0.0000000000000000e+00" cType="1" res="3.6500403075478971e-04" rms="2.6481872797012329e-01" purity="9.0883560478687286e-02" nType="-99"/>
        </Node>
        <Node pos="r" depth="1" NCoef="0" IVar="2" Cut="8.8721914062500000e+04" cType="1" res="4.5451790094375610e-01" rms="4.9792706966400146e-01" purity="4.5451790094375610e-01" nType="0">
          <Node pos="l" depth="2" NCoef="0" IVar="-1" Cut="0.0000000000000000e+00" cType="1" res="1.5036548720672727e-03" rms="4.1538256406784058e-01" purity="5.0346159934997559e-01" nType="-99"/>
          <Node pos="r" depth="2" NCoef="0" IVar="-1" Cut="0.0000000000000000e+00" cType="1" res="-1.6941533249337226e-04" rms="3.6786070466041565e-01" purity="4.4867190718650818e-01" nType="-99"/>
        </Node>
      </Node>
    </BinaryTree>
    <BinaryTree type="DecisionTree" boostWeight="1.0000000000000000e+00" itree="1119">
      <Node pos="s" depth="0" NCoef="0" IVar="2" Cut="9.1773078125000000e+04" cType="1" res="3.8794073462486267e-01" rms="4.8728093504905701e-01" purity="3.8794076442718506e-01" nType="0">
        <Node pos="l" depth="1" NCoef="0" IVar="5" Cut="4.2844021875000000e+05" cType="1" res="3.7916570901870728e-01" rms="4.8517942428588867e-01" purity="3.7916567921638489e-01" nType="0">
          <Node pos="l" depth="2" NCoef="0" IVar="-1" Cut="0.0000000000000000e+00" cType="1" res="-6.3287676312029362e-04" rms="3.4594920277595520e-01" purity="2.6371622085571289e-01" nType="-99"/>
          <Node pos="r" depth="2" NCoef="0" IVar="-1" Cut="0.0000000000000000e+00" cType="1" res="7.7848281944170594e-04" rms="3.3867570757865906e-01" purity="8.0993729829788208e-01" nType="-99"/>
        </Node>
        <Node pos="r" depth="1" NCoef="0" IVar="2" Cut="9.4045226562500000e+04" cType="1" res="4.0605801343917847e-01" rms="4.9168875813484192e-01" purity="4.0664097666740417e-01" nType="0">
          <Node pos="l" depth="2" NCoef="0" IVar="-1" Cut="0.0000000000000000e+00" cType="1" res="9.4739563064649701e-04" rms="3.7511631846427917e-01" purity="4.1018381714820862e-01" nType="-99"/>
          <Node pos="r" depth="2" NCoef="0" IVar="-1" Cut="0.0000000000000000e+00" cType="1" res="-1.1814149329438806e-03" rms="3.3599674701690674e-01" purity="3.8673168420791626e-01" nType="-99"/>
        </Node>
      </Node>
    </BinaryTree>
    <BinaryTree type="DecisionTree" boostWeight="1.0000000000000000e+00" itree="1120">
      <Node pos="s" depth="0" NCoef="0" IVar="5" Cut="1.6699128125000000e+05" cType="1" res="5.5559694766998291e-01" rms="4.9689936637878418e-01" purity="5.5559694766998291e-01" nType="0">
        <Node pos="l" depth="1" NCoef="0" IVar="5" Cut="1.5807743750000000e+05" cType="1" res="8.1989133358001709e-01" rms="3.8427796959877014e-01" purity="8.1989127397537231e-01" nType="0">
          <Node pos="l" depth="2" NCoef="0" IVar="-1" Cut="0.0000000000000000e+00" cType="1" res="-6.0150977224111557e-03" rms="2.0580101013183594e-01" purity="4.2420651763677597e-02" nType="-99"/>
          <Node pos="r" depth="2" NCoef="0" IVar="-1" Cut="0.0000000000000000e+00" cType="1" res="1.6299660273944028e-05" rms="2.4832701683044434e-01" purity="9.1942256689071655e-01" nType="-99"/>
        </Node>
        <Node pos="r" depth="1" NCoef="0" IVar="4" Cut="7.9690359375000000e+04" cType="1" res="4.2197734117507935e-01" rms="4.9387493729591370e-01" purity="4.2197734117507935e-01" nType="0">
          <Node pos="l" depth="2" NCoef="0" IVar="-1" Cut="0.0000000000000000e+00" cType="1" res="-1.0147538705496117e-04" rms="3.6592864990234375e-01" purity="3.7345039844512939e-01" nType="-99"/>
          <Node pos="r" depth="2" NCoef="0" IVar="-1" Cut="0.0000000000000000e+00" cType="1" res="8.1402575597167015e-04" rms="2.7900013327598572e-01" purity="9.1391789913177490e-01" nType="-99"/>
        </Node>
      </Node>
    </BinaryTree>
    <BinaryTree type="DecisionTree" boostWeight="1.0000000000000000e+00" itree="1121">
      <Node pos="s" depth="0" NCoef="0" IVar="3" Cut="8.9426554687500000e+04" cType="1" res="5.1345592737197876e-01" rms="4.9981889128684998e-01" purity="5.1345592737197876e-01" nType="0">
        <Node pos="l" depth="1" NCoef="0" IVar="3" Cut="8.8493062500000000e+04" cType="1" res="6.0654520988464355e-01" rms="4.8851624131202698e-01" purity="6.0654520988464355e-01" nType="0">
          <Node pos="l" depth="2" NCoef="0" IVar="-1" Cut="0.0000000000000000e+00" cType="1" res="-3.1326425960287452e-04" rms="3.4246885776519775e-01" purity="3.7584176659584045e-01" nType="-99"/>
          <Node pos="r" depth="2" NCoef="0" IVar="-1" Cut="0.0000000000000000e+00" cType="1" res="2.3916501959320158e-05" rms="4.1422727704048157e-01" purity="8.3356821537017822e-01" nType="-99"/>
        </Node>
        <Node pos="r" depth="1" NCoef="0" IVar="2" Cut="9.1206914062500000e+04" cType="1" res="3.8242837786674500e-01" rms="4.8609924316406250e-01" purity="3.8254392147064209e-01" nType="0">
          <Node pos="l" depth="2" NCoef="0" IVar="-1" Cut="0.0000000000000000e+00" cType="1" res="2.7865494485013187e-04" rms="3.5600268840789795e-01" purity="3.9010274410247803e-01" nType="-99"/>
          <Node pos="r" depth="2" NCoef="0" IVar="-1" Cut="0.0000000000000000e+00" cType="1" res="-1.0510935680940747e-03" rms="3.3627784252166748e-01" purity="3.7355005741119385e-01" nType="-99"/>
        </Node>
      </Node>
    </BinaryTree>
    <BinaryTree type="DecisionTree" boostWeight="1.0000000000000000e+00" itree="1122">
      <Node pos="s" depth="0" NCoef="0" IVar="4" Cut="8.2774625000000000e+04" cType="1" res="3.7955081462860107e-01" rms="4.8534625768661499e-01" purity="3.7961980700492859e-01" nType="0">
        <Node pos="l" depth="1" NCoef="0" IVar="0" Cut="2.0000000000000000e+00" cType="1" res="-5.9419749304652214e-03" rms="3.5386630892753601e-01" purity="3.4090360999107361e-01" nType="0">
          <Node pos="l" depth="2" NCoef="0" IVar="-1" Cut="0.0000000000000000e+00" cType="1" res="-9.9452876020222902e-04" rms="3.4611955285072327e-01" purity="1.8592928349971771e-01" nType="-99"/>
          <Node pos="r" depth="2" NCoef="0" IVar="-1" Cut="0.0000000000000000e+00" cType="1" res="6.0926779406145215e-04" rms="3.7592309713363647e-01" purity="8.1716108322143555e-01" nType="-99"/>
        </Node>
        <Node pos="r" depth="1" NCoef="0" IVar="-1" Cut="0.0000000000000000e+00" cType="1" res="6.7120377207174897e-04" rms="3.0027171969413757e-01" purity="8.9866030216217041e-01" nType="-99"/>
      </Node>
    </BinaryTree>
    <BinaryTree type="DecisionTree" boostWeight="1.0000000000000000e+00" itree="1123">
      <Node pos="s" depth="0" NCoef="0" IVar="0" Cut="1.0000000000000000e+00" cType="1" res="3.0939874053001404e-01" rms="4.9324825406074524e-01" purity="6.0698103904724121e-01" nType="0">
        <Node pos="l" depth="1" NCoef="0" IVar="4" Cut="1.9433769531250000e+04" cType="1" res="6.1683112382888794e-01" rms="4.8615890741348267e-01" purity="6.1683112382888794e-01" nType="0">
          <Node pos="l" depth="2" NCoef="0" IVar="-1" Cut="0.0000000000000000e+00" cType="1" res="3.4482099581509829e-03" rms="2.1897679567337036e-01" purity="5.1130447536706924e-02" nType="-99"/>
          <Node pos="r" depth="2" NCoef="0" IVar="-1" Cut="0.0000000000000000e+00" cType="1" res="2.1197512978687882e-05" rms="4.2945048213005066e-01" purity="8.0204921960830688e-01" nType="-99"/>
        </Node>
        <Node pos="r" depth="1" NCoef="0" IVar="0" Cut="4.0000000000000000e+00" cType="1" res="1.0077349841594696e-02" rms="4.0135478973388672e-01" purity="5.8740395307540894e-01" nType="0">
          <Node pos="l" depth="2" NCoef="0" IVar="-1" Cut="0.0000000000000000e+00" cType="1" res="1.8332799663767219e-04" rms="4.1763040423393250e-01" purity="5.4251700639724731e-01" nType="-99"/>
          <Node pos="r" depth="2" NCoef="0" IVar="-1" Cut="0.0000000000000000e+00" cType="1" res="3.6207563243806362e-04" rms="2.3081111907958984e-01" purity="9.4395524263381958e-01" nType="-99"/>
        </Node>
      </Node>
    </BinaryTree>
    <BinaryTree type="DecisionTree" boostWeight="1.0000000000000000e+00" itree="1124">
      <Node pos="s" depth="0" NCoef="0" IVar="0" Cut="1.0000000000000000e+00" cType="1" res="5.0068725831806660e-03" rms="3.5530665516853333e-01" purity="3.8109126687049866e-01" nType="0">
        <Node pos="l" depth="1" NCoef="0" IVar="5" Cut="2.5167498437500000e+05" cType="1" res="1.4017125964164734e-01" rms="3.4716463088989258e-01" purity="1.4017125964164734e-01" nType="0">
          <Node pos="l" depth="2" NCoef="0" IVar="-1" Cut="0.0000000000000000e+00" cType="1" res="6.6480017267167568e-05" rms="2.7502110600471497e-01" purity="1.2064111232757568e-01" nType="-99"/>
          <Node pos="r" depth="2" NCoef="0" IVar="-1" Cut="0.0000000000000000e+00" cType="1" res="-3.0057085677981377e-03" rms="3.2729810476303101e-01" purity="2.4152319133281708e-01" nType="-99"/>
        </Node>
        <Node pos="r" depth="1" NCoef="0" IVar="5" Cut="2.7404146875000000e+05" cType="1" res="5.9064030647277832e-01" rms="4.9171569943428040e-01" purity="5.9064030647277832e-01" nType="0">
          <Node pos="l" depth="2" NCoef="0" IVar="-1" Cut="0.0000000000000000e+00" cType="1" res="1.0646231239661574e-03" rms="4.3574717640876770e-01" purity="3.4255555272102356e-01" nType="-99"/>
          <Node pos="r" depth="2" NCoef="0" IVar="-1" Cut="0.0000000000000000e+00" cType="1" res="2.5524845113977790e-04" rms="3.9050310850143433e-01" purity="7.1315377950668335e-01" nType="-99"/>
        </Node>
      </Node>
    </BinaryTree>
    <BinaryTree type="DecisionTree" boostWeight="1.0000000000000000e+00" itree="1125">
      <Node pos="s" depth="0" NCoef="0" IVar="5" Cut="1.6088167187500000e+05" cType="1" res="0.0000000000000000e+00" rms="6.0506988000000000e+07" purity="4.8459905385971069e-01" nType="0">
        <Node pos="l" depth="1" NCoef="0" IVar="-1" Cut="0.0000000000000000e+00" cType="1" res="1.6312853404087946e-05" rms="3.8430485129356384e-01" purity="7.5940138101577759e-01" nType="-99"/>
        <Node pos="r" depth="1" NCoef="0" IVar="3" Cut="9.8787656250000000e+04" cType="1" res="0.0000000000000000e+00" rms="1.6235744000000000e+09" purity="4.1105976700782776e-01" nType="0">
          <Node pos="l" depth="2" NCoef="0" IVar="-1" Cut="0.0000000000000000e+00" cType="1" res="3.0725073884241283e-04" rms="3.6179101467132568e-01" purity="4.0530034899711609e-01" nType="-99"/>
          <Node pos="r" depth="2" NCoef="0" IVar="-1" Cut="0.0000000000000000e+00" cType="1" res="1.2661267537623644e-03" rms="4.0303999185562134e-01" purity="5.3627216815948486e-01" nType="-99"/>
        </Node>
      </Node>
    </BinaryTree>
    <BinaryTree type="DecisionTree" boostWeight="1.0000000000000000e+00" itree="1126">
      <Node pos="s" depth="0" NCoef="0" IVar="1" Cut="2.0341365625000000e+05" cType="1" res="4.9907565116882324e-01" rms="5.0030821561813354e-01" purity="4.9947050213813782e-01" nType="0">
        <Node pos="l" depth="1" NCoef="0" IVar="2" Cut="8.9670617187500000e+04" cType="1" res="6.1878430843353271e-01" rms="5.0780451297760010e-01" purity="6.7634540796279907e-01" nType="0">
          <Node pos="l" depth="2" NCoef="0" IVar="-1" Cut="0.0000000000000000e+00" cType="1" res="2.8508886316558346e-05" rms="3.3174356818199158e-01" purity="8.8367134332656860e-01" nType="-99"/>
          <Node pos="r" depth="2" NCoef="0" IVar="-1" Cut="0.0000000000000000e+00" cType="1" res="1.4237744835554622e-05" rms="3.2901176810264587e-01" purity="2.4174249172210693e-01" nType="-99"/>
        </Node>
        <Node pos="r" depth="1" NCoef="0" IVar="2" Cut="8.8413726562500000e+04" cType="1" res="4.1629859805107117e-01" rms="4.9340412020683289e-01" purity="4.1687780618667603e-01" nType="0">
          <Node pos="l" depth="2" NCoef="0" IVar="-1" Cut="0.0000000000000000e+00" cType="1" res="1.0157821234315634e-03" rms="3.8791030645370483e-01" purity="4.6206450462341309e-01" nType="-99"/>
          <Node pos="r" depth="2" NCoef="0" IVar="-1" Cut="0.0000000000000000e+00" cType="1" res="1.6653281636536121e-04" rms="3.6103120446205139e-01" purity="4.1281735897064209e-01" nType="-99"/>
        </Node>
      </Node>
    </BinaryTree>
    <BinaryTree type="DecisionTree" boostWeight="1.0000000000000000e+00" itree="1127">
      <Node pos="s" depth="0" NCoef="0" IVar="0" Cut="1.0000000000000000e+00" cType="1" res="2.1728369593620300e-01" rms="4.7865784168243408e-01" purity="5.4003065824508667e-01" nType="0">
        <Node pos="l" depth="1" NCoef="0" IVar="4" Cut="2.1010888671875000e+04" cType="1" res="5.0993692874908447e-01" rms="4.9990123510360718e-01" purity="5.0993692874908447e-01" nType="0">
          <Node pos="l" depth="2" NCoef="0" IVar="-1" Cut="0.0000000000000000e+00" cType="1" res="-6.6503364359959960e-04" rms="2.0085628330707550e-01" purity="4.2453851550817490e-02" nType="-99"/>
          <Node pos="r" depth="2" NCoef="0" IVar="-1" Cut="0.0000000000000000e+00" cType="1" res="1.8189179172622971e-05" rms="4.7162571549415588e-01" purity="7.4613499641418457e-01" nType="-99"/>
        </Node>
        <Node pos="r" depth="1" NCoef="0" IVar="5" Cut="4.0066153125000000e+05" cType="1" res="5.8502441644668579e-01" rms="4.9329301714897156e-01" purity="5.8621031045913696e-01" nType="0">
          <Node pos="l" depth="2" NCoef="0" IVar="-1" Cut="0.0000000000000000e+00" cType="1" res="-4.2152416426688433e-04" rms="4.2850893735885620e-01" purity="4.2296674847602844e-01" nType="-99"/>
          <Node pos="r" depth="2" NCoef="0" IVar="-1" Cut="0.0000000000000000e+00" cType="1" res="1.1300244368612766e-03" rms="3.4846481680870056e-01" purity="8.2604789733886719e-01" nType="-99"/>
        </Node>
      </Node>
    </BinaryTree>
    <BinaryTree type="DecisionTree" boostWeight="1.0000000000000000e+00" itree="1128">
      <Node pos="s" depth="0" NCoef="0" IVar="1" Cut="2.0344940625000000e+05" cType="1" res="4.9845930933952332e-01" rms="5.0023871660232544e-01" purity="4.9887138605117798e-01" nType="0">
        <Node pos="l" depth="1" NCoef="0" IVar="2" Cut="8.9690085937500000e+04" cType="1" res="6.1909520626068115e-01" rms="5.0369495153427124e-01" purity="6.6836512088775635e-01" nType="0">
          <Node pos="l" depth="2" NCoef="0" IVar="-1" Cut="0.0000000000000000e+00" cType="1" res="2.8394788387231529e-05" rms="3.3490997552871704e-01" purity="8.7748974561691284e-01" nType="-99"/>
          <Node pos="r" depth="2" NCoef="0" IVar="-1" Cut="0.0000000000000000e+00" cType="1" res="6.1528186779469252e-04" rms="3.3555269241333008e-01" purity="2.3544254899024963e-01" nType="-99"/>
        </Node>
        <Node pos="r" depth="1" NCoef="0" IVar="2" Cut="9.3884312500000000e+04" cType="1" res="4.1889479756355286e-01" rms="4.9373677372932434e-01" purity="4.1949984431266785e-01" nType="0">
          <Node pos="l" depth="2" NCoef="0" IVar="-1" Cut="0.0000000000000000e+00" cType="1" res="1.3508385745808482e-04" rms="3.5358193516731262e-01" purity="4.1650310158729553e-01" nType="-99"/>
          <Node pos="r" depth="2" NCoef="0" IVar="-1" Cut="0.0000000000000000e+00" cType="1" res="1.5293912729248405e-03" rms="4.1454049944877625e-01" purity="4.6247404813766479e-01" nType="-99"/>
        </Node>
      </Node>
    </BinaryTree>
    <BinaryTree type="DecisionTree" boostWeight="1.0000000000000000e+00" itree="1129">
      <Node pos="s" depth="0" NCoef="0" IVar="2" Cut="8.9655289062500000e+04" cType="1" res="5.2651101350784302e-01" rms="4.9929666519165039e-01" purity="5.2651095390319824e-01" nType="0">
        <Node pos="l" depth="1" NCoef="0" IVar="2" Cut="8.9245539062500000e+04" cType="1" res="7.4290680885314941e-01" rms="4.3703120946884155e-01" purity="7.4290686845779419e-01" nType="0">
          <Node pos="l" depth="2" NCoef="0" IVar="-1" Cut="0.0000000000000000e+00" cType="1" res="-7.6013163197785616e-04" rms="3.5512414574623108e-01" purity="3.4868827462196350e-01" nType="-99"/>
          <Node pos="r" depth="2" NCoef="0" IVar="-1" Cut="0.0000000000000000e+00" cType="1" res="1.9413435438764282e-05" rms="3.2833951711654663e-01" purity="9.0667599439620972e-01" nType="-99"/>
        </Node>
        <Node pos="r" depth="1" NCoef="0" IVar="5" Cut="3.7713028125000000e+05" cType="1" res="3.9108666777610779e-01" rms="4.8823633790016174e-01" purity="3.9185419678688049e-01" nType="0">
          <Node pos="l" depth="2" NCoef="0" IVar="-1" Cut="0.0000000000000000e+00" cType="1" res="-2.0032501197420061e-04" rms="3.5573247075080872e-01" purity="2.4722357094287872e-01" nType="-99"/>
          <Node pos="r" depth="2" NCoef="0" IVar="-1" Cut="0.0000000000000000e+00" cType="1" res="7.7367940684780478e-04" rms="3.5356670618057251e-01" purity="7.7886563539505005e-01" nType="-99"/>
        </Node>
      </Node>
    </BinaryTree>
    <BinaryTree type="DecisionTree" boostWeight="1.0000000000000000e+00" itree="1130">
      <Node pos="s" depth="0" NCoef="0" IVar="1" Cut="2.0203215625000000e+05" cType="1" res="4.4497475028038025e-01" rms="4.9706274271011353e-01" purity="4.4516834616661072e-01" nType="0">
        <Node pos="l" depth="1" NCoef="0" IVar="2" Cut="8.9620320312500000e+04" cType="1" res="4.7330129146575928e-01" rms="5.1928883790969849e-01" purity="5.4389870166778564e-01" nType="0">
          <Node pos="l" depth="2" NCoef="0" IVar="-1" Cut="0.0000000000000000e+00" cType="1" res="2.8288206522120163e-05" rms="4.0397456288337708e-01" purity="8.0079895257949829e-01" nType="-99"/>
          <Node pos="r" depth="2" NCoef="0" IVar="-1" Cut="0.0000000000000000e+00" cType="1" res="2.5424684281460941e-04" rms="3.3675032854080200e-01" purity="2.2541096806526184e-01" nType="-99"/>
        </Node>
        <Node pos="r" depth="1" NCoef="0" IVar="4" Cut="7.4108828125000000e+04" cType="1" res="4.1338744759559631e-01" rms="4.9257391691207886e-01" purity="4.1364291310310364e-01" nType="0">
          <Node pos="l" depth="2" NCoef="0" IVar="-1" Cut="0.0000000000000000e+00" cType="1" res="-1.6893418796826154e-04" rms="3.5943558812141418e-01" purity="3.5841083526611328e-01" nType="-99"/>
          <Node pos="r" depth="2" NCoef="0" IVar="-1" Cut="0.0000000000000000e+00" cType="1" res="8.0732477363198996e-04" rms="2.9156100749969482e-01" purity="9.0752118825912476e-01" nType="-99"/>
        </Node>
      </Node>
    </BinaryTree>
    <BinaryTree type="DecisionTree" boostWeight="1.0000000000000000e+00" itree="1131">
      <Node pos="s" depth="0" NCoef="0" IVar="1" Cut="2.0203215625000000e+05" cType="1" res="0.0000000000000000e+00" rms="0.0000000000000000e+00" purity="4.5292553305625916e-01" nType="0">
        <Node pos="l" depth="1" NCoef="0" IVar="2" Cut="8.9655093750000000e+04" cType="1" res="4.8080164194107056e-01" rms="5.2297836542129517e-01" purity="5.5175888538360596e-01" nType="0">
          <Node pos="l" depth="2" NCoef="0" IVar="-1" Cut="0.0000000000000000e+00" cType="1" res="2.8250316972844303e-05" rms="4.0389668941497803e-01" purity="8.0705666542053223e-01" nType="-99"/>
          <Node pos="r" depth="2" NCoef="0" IVar="-1" Cut="0.0000000000000000e+00" cType="1" res="2.4124815536197275e-04" rms="3.3132413029670715e-01" purity="2.2357271611690521e-01" nType="-99"/>
        </Node>
        <Node pos="r" depth="1" NCoef="0" IVar="2" Cut="9.3947960937500000e+04" cType="1" res="4.2202368378639221e-01" rms="4.9397286772727966e-01" purity="4.2211323976516724e-01" nType="0">
          <Node pos="l" depth="2" NCoef="0" IVar="-1" Cut="0.0000000000000000e+00" cType="1" res="1.0620530520100147e-04" rms="3.5553696751594543e-01" purity="4.1771703958511353e-01" nType="-99"/>
          <Node pos="r" depth="2" NCoef="0" IVar="-1" Cut="0.0000000000000000e+00" cType="1" res="1.3952688314020634e-03" rms="3.9515906572341919e-01" purity="4.8601543903350830e-01" nType="-99"/>
        </Node>
      </Node>
    </BinaryTree>
    <BinaryTree type="DecisionTree" boostWeight="1.0000000000000000e+00" itree="1132">
      <Node pos="s" depth="0" NCoef="0" IVar="0" Cut="1.0000000000000000e+00" cType="1" res="2.8668045997619629e-01" rms="4.9106508493423462e-01" purity="5.9272956848144531e-01" nType="0">
        <Node pos="l" depth="1" NCoef="0" IVar="4" Cut="2.1010888671875000e+04" cType="1" res="0.0000000000000000e+00" rms="0.0000000000000000e+00" purity="5.9201282262802124e-01" nType="0">
          <Node pos="l" depth="2" NCoef="0" IVar="-1" Cut="0.0000000000000000e+00" cType="1" res="1.5586082590743899e-03" rms="2.1519215404987335e-01" purity="4.8854853957891464e-02" nType="-99"/>
          <Node pos="r" depth="2" NCoef="0" IVar="-1" Cut="0.0000000000000000e+00" cType="1" res="1.9171831809217110e-05" rms="4.3083921074867249e-01" purity="8.0878937244415283e-01" nType="-99"/>
        </Node>
        <Node pos="r" depth="1" NCoef="0" IVar="0" Cut="4.0000000000000000e+00" cType="1" res="1.1670387350022793e-02" rms="3.9813071489334106e-01" purity="5.9401464462280273e-01" nType="0">
          <Node pos="l" depth="2" NCoef="0" IVar="-1" Cut="0.0000000000000000e+00" cType="1" res="1.8105462368112057e-04" rms="4.1551488637924194e-01" purity="5.4672414064407349e-01" nType="-99"/>
          <Node pos="r" depth="2" NCoef="0" IVar="-1" Cut="0.0000000000000000e+00" cType="1" res="4.1592863271944225e-04" rms="2.2568547725677490e-01" purity="9.4652330875396729e-01" nType="-99"/>
        </Node>
      </Node>
    </BinaryTree>
    <BinaryTree type="DecisionTree" boostWeight="1.0000000000000000e+00" itree="1133">
      <Node pos="s" depth="0" NCoef="0" IVar="3" Cut="9.5950960937500000e+04" cType="1" res="4.7832447290420532e-01" rms="4.9965620040893555e-01" purity="4.7862747311592102e-01" nType="0">
        <Node pos="l" depth="1" NCoef="0" IVar="2" Cut="9.3937140625000000e+04" cType="1" res="3.7296360731124878e-01" rms="4.8367708921432495e-01" purity="3.7328487634658813e-01" nType="0">
          <Node pos="l" depth="2" NCoef="0" IVar="-1" Cut="0.0000000000000000e+00" cType="1" res="-6.3062900153454393e-05" rms="3.5037681460380554e-01" purity="3.7009462714195251e-01" nType="-99"/>
          <Node pos="r" depth="2" NCoef="0" IVar="-1" Cut="0.0000000000000000e+00" cType="1" res="1.3843702618032694e-03" rms="3.9423102140426636e-01" purity="4.3199920654296875e-01" nType="-99"/>
        </Node>
        <Node pos="r" depth="1" NCoef="0" IVar="2" Cut="8.9294859375000000e+04" cType="1" res="7.7558916807174683e-01" rms="4.1719374060630798e-01" purity="7.7584046125411987e-01" nType="0">
          <Node pos="l" depth="2" NCoef="0" IVar="-1" Cut="0.0000000000000000e+00" cType="1" res="1.6397149011027068e-05" rms="3.3180364966392517e-01" purity="9.0952438116073608e-01" nType="-99"/>
          <Node pos="r" depth="2" NCoef="0" IVar="-1" Cut="0.0000000000000000e+00" cType="1" res="-2.7343942201696336e-04" rms="3.5003557801246643e-01" purity="4.3937605619430542e-01" nType="-99"/>
        </Node>
      </Node>
    </BinaryTree>
    <BinaryTree type="DecisionTree" boostWeight="1.0000000000000000e+00" itree="1134">
      <Node pos="s" depth="0" NCoef="0" IVar="0" Cut="3.0000000000000000e+00" cType="1" res="-2.4194233119487762e-03" rms="3.5450583696365356e-01" purity="3.7398305535316467e-01" nType="0">
        <Node pos="l" depth="1" NCoef="0" IVar="5" Cut="2.5844550000000000e+05" cType="1" res="2.9984867572784424e-01" rms="4.5819148421287537e-01" purity="2.9984867572784424e-01" nType="0">
          <Node pos="l" depth="2" NCoef="0" IVar="-1" Cut="0.0000000000000000e+00" cType="1" res="4.1248169145546854e-04" rms="3.2470470666885376e-01" purity="1.6568195819854736e-01" nType="-99"/>
          <Node pos="r" depth="2" NCoef="0" IVar="-1" Cut="0.0000000000000000e+00" cType="1" res="-9.7104953601956367e-04" rms="4.1453775763511658e-01" purity="5.1647388935089111e-01" nType="-99"/>
        </Node>
        <Node pos="r" depth="1" NCoef="0" IVar="0" Cut="4.0000000000000000e+00" cType="1" res="2.5115009397268295e-02" rms="2.9402107000350952e-01" purity="9.0194845199584961e-01" nType="0">
          <Node pos="l" depth="2" NCoef="0" IVar="-1" Cut="0.0000000000000000e+00" cType="1" res="5.7122122962027788e-04" rms="3.2710742950439453e-01" purity="8.7614530324935913e-01" nType="-99"/>
          <Node pos="r" depth="2" NCoef="0" IVar="-1" Cut="0.0000000000000000e+00" cType="1" res="2.8292841743677855e-03" rms="2.4146808683872223e-01" purity="9.3687194585800171e-01" nType="-99"/>
        </Node>
      </Node>
    </BinaryTree>
    <BinaryTree type="DecisionTree" boostWeight="1.0000000000000000e+00" itree="1135">
      <Node pos="s" depth="0" NCoef="0" IVar="5" Cut="1.9380862500000000e+05" cType="1" res="0.0000000000000000e+00" rms="0.0000000000000000e+00" purity="3.7997809052467346e-01" nType="0">
        <Node pos="l" depth="1" NCoef="0" IVar="4" Cut="1.8344136718750000e+04" cType="1" res="7.7054224908351898e-02" rms="2.6667746901512146e-01" purity="7.7054224908351898e-02" nType="0">
          <Node pos="l" depth="2" NCoef="0" IVar="-1" Cut="0.0000000000000000e+00" cType="1" res="1.4467311557382345e-03" rms="1.7961227893829346e-01" purity="3.3985793590545654e-02" nType="-99"/>
          <Node pos="r" depth="2" NCoef="0" IVar="-1" Cut="0.0000000000000000e+00" cType="1" res="-3.4205343108624220e-03" rms="3.1745928525924683e-01" purity="1.3821932673454285e-01" nType="-99"/>
        </Node>
        <Node pos="r" depth="1" NCoef="0" IVar="5" Cut="2.7011668750000000e+05" cType="1" res="0.0000000000000000e+00" rms="0.0000000000000000e+00" purity="4.8556563258171082e-01" nType="0">
          <Node pos="l" depth="2" NCoef="0" IVar="-1" Cut="0.0000000000000000e+00" cType="1" res="1.2226207181811333e-03" rms="3.8793885707855225e-01" purity="2.6605394482612610e-01" nType="-99"/>
          <Node pos="r" depth="2" NCoef="0" IVar="-1" Cut="0.0000000000000000e+00" cType="1" res="-4.2664229113142937e-05" rms="3.8639295101165771e-01" purity="6.4558053016662598e-01" nType="-99"/>
        </Node>
      </Node>
    </BinaryTree>
    <BinaryTree type="DecisionTree" boostWeight="1.0000000000000000e+00" itree="1136">
      <Node pos="s" depth="0" NCoef="0" IVar="5" Cut="1.6601217187500000e+05" cType="1" res="4.8284918069839478e-01" rms="4.9970576167106628e-01" purity="4.8284918069839478e-01" nType="0">
        <Node pos="l" depth="1" NCoef="0" IVar="5" Cut="1.5709584375000000e+05" cType="1" res="7.0835423469543457e-01" rms="4.5452007651329041e-01" purity="7.0835423469543457e-01" nType="0">
          <Node pos="l" depth="2" NCoef="0" IVar="-1" Cut="0.0000000000000000e+00" cType="1" res="-6.7476080730557442e-03" rms="1.9205380976200104e-01" purity="3.8857519626617432e-02" nType="-99"/>
          <Node pos="r" depth="2" NCoef="0" IVar="-1" Cut="0.0000000000000000e+00" cType="1" res="1.6439926184830256e-05" rms="3.2187476754188538e-01" purity="8.5563647747039795e-01" nType="-99"/>
        </Node>
        <Node pos="r" depth="1" NCoef="0" IVar="2" Cut="8.9596757812500000e+04" cType="1" res="4.1565340757369995e-01" rms="4.9283429980278015e-01" purity="4.1565340757369995e-01" nType="0">
          <Node pos="l" depth="2" NCoef="0" IVar="-1" Cut="0.0000000000000000e+00" cType="1" res="1.0370422387495637e-03" rms="3.8769158720970154e-01" purity="4.3499910831451416e-01" nType="-99"/>
          <Node pos="r" depth="2" NCoef="0" IVar="-1" Cut="0.0000000000000000e+00" cType="1" res="-8.8531443907413632e-05" rms="3.5773256421089172e-01" purity="4.1101804375648499e-01" nType="-99"/>
        </Node>
      </Node>
    </BinaryTree>
    <BinaryTree type="DecisionTree" boostWeight="1.0000000000000000e+00" itree="1137">
      <Node pos="s" depth="0" NCoef="0" IVar="2" Cut="8.9637539062500000e+04" cType="1" res="5.8248502016067505e-01" rms="4.9314928054809570e-01" purity="5.8248502016067505e-01" nType="0">
        <Node pos="l" depth="1" NCoef="0" IVar="2" Cut="8.9227132812500000e+04" cType="1" res="8.1802886724472046e-01" rms="3.8582071661949158e-01" purity="8.1802886724472046e-01" nType="0">
          <Node pos="l" depth="2" NCoef="0" IVar="-1" Cut="0.0000000000000000e+00" cType="1" res="1.4768358960282058e-04" rms="3.5429412126541138e-01" purity="3.7861669063568115e-01" nType="-99"/>
          <Node pos="r" depth="2" NCoef="0" IVar="-1" Cut="0.0000000000000000e+00" cType="1" res="1.8165743313147686e-05" rms="2.6369097828865051e-01" purity="9.4462043046951294e-01" nType="-99"/>
        </Node>
        <Node pos="r" depth="1" NCoef="0" IVar="0" Cut="4.0000000000000000e+00" cType="1" res="-2.2397020366042852e-03" rms="3.5465976595878601e-01" purity="3.7484017014503479e-01" nType="0">
          <Node pos="l" depth="2" NCoef="0" IVar="-1" Cut="0.0000000000000000e+00" cType="1" res="-2.5776858092285693e-04" rms="3.6039307713508606e-01" purity="3.4100723266601562e-01" nType="-99"/>
          <Node pos="r" depth="2" NCoef="0" IVar="-1" Cut="0.0000000000000000e+00" cType="1" res="2.4796649813652039e-03" rms="2.3469607532024384e-01" purity="9.4124472141265869e-01" nType="-99"/>
        </Node>
      </Node>
    </BinaryTree>
    <BinaryTree type="DecisionTree" boostWeight="1.0000000000000000e+00" itree="1138">
      <Node pos="s" depth="0" NCoef="0" IVar="5" Cut="7.6374068750000000e+05" cType="1" res="3.8275784254074097e-01" rms="4.8641213774681091e-01" purity="3.8320624828338623e-01" nType="0">
        <Node pos="l" depth="1" NCoef="0" IVar="4" Cut="1.7896361328125000e+04" cType="1" res="3.4468352794647217e-01" rms="4.7526496648788452e-01" purity="3.4468352794647217e-01" nType="0">
          <Node pos="l" depth="2" NCoef="0" IVar="-1" Cut="0.0000000000000000e+00" cType="1" res="1.1227899231016636e-03" rms="2.9102736711502075e-01" purity="1.9368040561676025e-01" nType="-99"/>
          <Node pos="r" depth="2" NCoef="0" IVar="-1" Cut="0.0000000000000000e+00" cType="1" res="-3.5412536817602813e-04" rms="4.0115821361541748e-01" purity="4.5768648386001587e-01" nType="-99"/>
        </Node>
        <Node pos="r" depth="1" NCoef="0" IVar="-1" Cut="0.0000000000000000e+00" cType="1" res="1.8436986720189452e-03" rms="2.7627098560333252e-01" purity="9.0351653099060059e-01" nType="-99"/>
      </Node>
    </BinaryTree>
    <BinaryTree type="DecisionTree" boostWeight="1.0000000000000000e+00" itree="1139">
      <Node pos="s" depth="0" NCoef="0" IVar="3" Cut="8.9426554687500000e+04" cType="1" res="5.1357281208038330e-01" rms="4.9981573224067688e-01" purity="5.1357281208038330e-01" nType="0">
        <Node pos="l" depth="1" NCoef="0" IVar="3" Cut="8.8493015625000000e+04" cType="1" res="6.0576719045639038e-01" rms="4.8868528008460999e-01" purity="6.0576719045639038e-01" nType="0">
          <Node pos="l" depth="2" NCoef="0" IVar="-1" Cut="0.0000000000000000e+00" cType="1" res="1.5534968406427652e-04" rms="3.4985235333442688e-01" purity="3.8398715853691101e-01" nType="-99"/>
          <Node pos="r" depth="2" NCoef="0" IVar="-1" Cut="0.0000000000000000e+00" cType="1" res="2.3864338800194673e-05" rms="4.1774004697799683e-01" purity="8.2909005880355835e-01" nType="-99"/>
        </Node>
        <Node pos="r" depth="1" NCoef="0" IVar="4" Cut="1.7456498046875000e+04" cType="1" res="3.8663607835769653e-01" rms="4.8697906732559204e-01" purity="3.8663607835769653e-01" nType="0">
          <Node pos="l" depth="2" NCoef="0" IVar="-1" Cut="0.0000000000000000e+00" cType="1" res="2.7373200282454491e-03" rms="3.1309324502944946e-01" purity="2.2265815734863281e-01" nType="-99"/>
          <Node pos="r" depth="2" NCoef="0" IVar="-1" Cut="0.0000000000000000e+00" cType="1" res="-1.8157367594540119e-04" rms="3.9304542541503906e-01" purity="4.9495336413383484e-01" nType="-99"/>
        </Node>
      </Node>
    </BinaryTree>
    <BinaryTree type="DecisionTree" boostWeight="1.0000000000000000e+00" itree="1140">
      <Node pos="s" depth="0" NCoef="0" IVar="5" Cut="2.2346950000000000e+05" cType="1" res="3.8537684082984924e-01" rms="4.8695227503776550e-01" purity="3.8571533560752869e-01" nType="0">
        <Node pos="l" depth="1" NCoef="0" IVar="4" Cut="2.4567285156250000e+04" cType="1" res="1.1927790939807892e-01" rms="3.2411524653434753e-01" purity="1.1929215490818024e-01" nType="0">
          <Node pos="l" depth="2" NCoef="0" IVar="-1" Cut="0.0000000000000000e+00" cType="1" res="-1.1351060820743442e-03" rms="2.1278871595859528e-01" purity="4.8455417156219482e-02" nType="-99"/>
          <Node pos="r" depth="2" NCoef="0" IVar="-1" Cut="0.0000000000000000e+00" cType="1" res="-1.2433992233127356e-03" rms="3.8704630732536316e-01" purity="2.7659857273101807e-01" nType="-99"/>
        </Node>
        <Node pos="r" depth="1" NCoef="0" IVar="5" Cut="2.5651229687500000e+05" cType="1" res="5.6328684091567993e-01" rms="4.9641743302345276e-01" purity="5.6385165452957153e-01" nType="0">
          <Node pos="l" depth="2" NCoef="0" IVar="-1" Cut="0.0000000000000000e+00" cType="1" res="1.7818156629800797e-03" rms="4.0786296129226685e-01" purity="3.1510081887245178e-01" nType="-99"/>
          <Node pos="r" depth="2" NCoef="0" IVar="-1" Cut="0.0000000000000000e+00" cType="1" res="1.3850907271262258e-04" rms="3.8911426067352295e-01" purity="6.2873989343643188e-01" nType="-99"/>
        </Node>
      </Node>
    </BinaryTree>
    <BinaryTree type="DecisionTree" boostWeight="1.0000000000000000e+00" itree="1141">
      <Node pos="s" depth="0" NCoef="0" IVar="1" Cut="1.9129831250000000e+05" cType="1" res="0.0000000000000000e+00" rms="0.0000000000000000e+00" purity="4.5165842771530151e-01" nType="0">
        <Node pos="l" depth="1" NCoef="0" IVar="4" Cut="2.0696810546875000e+04" cType="1" res="3.8467362523078918e-02" rms="2.1076492965221405e-01" purity="7.0272111892700195e-01" nType="0">
          <Node pos="l" depth="2" NCoef="0" IVar="-1" Cut="0.0000000000000000e+00" cType="1" res="-7.6920422725379467e-04" rms="2.3651894927024841e-01" purity="1.0209110379219055e-01" nType="-99"/>
          <Node pos="r" depth="2" NCoef="0" IVar="-1" Cut="0.0000000000000000e+00" cType="1" res="2.8254669814486988e-05" rms="3.9414188265800476e-01" purity="8.6258769035339355e-01" nType="-99"/>
        </Node>
        <Node pos="r" depth="1" NCoef="0" IVar="4" Cut="3.5728851562500000e+04" cType="1" res="4.0467855334281921e-01" rms="4.9082973599433899e-01" purity="4.0467852354049683e-01" nType="0">
          <Node pos="l" depth="2" NCoef="0" IVar="-1" Cut="0.0000000000000000e+00" cType="1" res="-8.1593194045126438e-04" rms="3.3062106370925903e-01" purity="2.6467490196228027e-01" nType="-99"/>
          <Node pos="r" depth="2" NCoef="0" IVar="-1" Cut="0.0000000000000000e+00" cType="1" res="2.5454370188526809e-04" rms="3.8754573464393616e-01" purity="7.2202521562576294e-01" nType="-99"/>
        </Node>
      </Node>
    </BinaryTree>
    <BinaryTree type="DecisionTree" boostWeight="1.0000000000000000e+00" itree="1142">
      <Node pos="s" depth="0" NCoef="0" IVar="2" Cut="8.9605210937500000e+04" cType="1" res="5.2060115337371826e-01" rms="4.9963849782943726e-01" purity="5.2066421508789062e-01" nType="0">
        <Node pos="l" depth="1" NCoef="0" IVar="2" Cut="8.9268445312500000e+04" cType="1" res="7.4842250347137451e-01" rms="4.3395680189132690e-01" purity="7.4845474958419800e-01" nType="0">
          <Node pos="l" depth="2" NCoef="0" IVar="-1" Cut="0.0000000000000000e+00" cType="1" res="2.6282164617441595e-04" rms="3.6495423316955566e-01" purity="3.6904820799827576e-01" nType="-99"/>
          <Node pos="r" depth="2" NCoef="0" IVar="-1" Cut="0.0000000000000000e+00" cType="1" res="1.9493903891998343e-05" rms="3.0830505490303040e-01" purity="9.1990786790847778e-01" nType="-99"/>
        </Node>
        <Node pos="r" depth="1" NCoef="0" IVar="2" Cut="9.3860765625000000e+04" cType="1" res="3.7940943241119385e-01" rms="4.8532468080520630e-01" purity="3.7949153780937195e-01" nType="0">
          <Node pos="l" depth="2" NCoef="0" IVar="-1" Cut="0.0000000000000000e+00" cType="1" res="-8.2311664300505072e-05" rms="3.5311391949653625e-01" purity="3.7248551845550537e-01" nType="-99"/>
          <Node pos="r" depth="2" NCoef="0" IVar="-1" Cut="0.0000000000000000e+00" cType="1" res="1.0242242133244872e-03" rms="3.6278340220451355e-01" purity="4.5936989784240723e-01" nType="-99"/>
        </Node>
      </Node>
    </BinaryTree>
    <BinaryTree type="DecisionTree" boostWeight="1.0000000000000000e+00" itree="1143">
      <Node pos="s" depth="0" NCoef="0" IVar="5" Cut="1.9317425000000000e+05" cType="1" res="0.0000000000000000e+00" rms="0.0000000000000000e+00" purity="3.8647350668907166e-01" nType="0">
        <Node pos="l" depth="1" NCoef="0" IVar="4" Cut="2.4332570312500000e+04" cType="1" res="7.8951276838779449e-02" rms="2.6966270804405212e-01" purity="7.8951276838779449e-02" nType="0">
          <Node pos="l" depth="2" NCoef="0" IVar="-1" Cut="0.0000000000000000e+00" cType="1" res="-1.6111574368551373e-03" rms="1.8450894951820374e-01" purity="3.6961972713470459e-02" nType="-99"/>
          <Node pos="r" depth="2" NCoef="0" IVar="-1" Cut="0.0000000000000000e+00" cType="1" res="-2.6152210775762796e-03" rms="3.4984230995178223e-01" purity="1.9639253616333008e-01" nType="-99"/>
        </Node>
        <Node pos="r" depth="1" NCoef="0" IVar="1" Cut="2.3642351562500000e+05" cType="1" res="0.0000000000000000e+00" rms="1.0159418197805969e+22" purity="4.9169716238975525e-01" nType="0">
          <Node pos="l" depth="2" NCoef="0" IVar="-1" Cut="0.0000000000000000e+00" cType="1" res="1.2084883637726307e-03" rms="4.0997165441513062e-01" purity="4.4744366407394409e-01" nType="-99"/>
          <Node pos="r" depth="2" NCoef="0" IVar="-1" Cut="0.0000000000000000e+00" cType="1" res="7.8779339673928916e-05" rms="3.6701366305351257e-01" purity="5.1055425405502319e-01" nType="-99"/>
        </Node>
      </Node>
    </BinaryTree>
    <BinaryTree type="DecisionTree" boostWeight="1.0000000000000000e+00" itree="1144">
      <Node pos="s" depth="0" NCoef="0" IVar="1" Cut="1.9160560937500000e+05" cType="1" res="4.4599571824073792e-01" rms="4.9707499146461487e-01" purity="4.4599571824073792e-01" nType="0">
        <Node pos="l" depth="1" NCoef="0" IVar="4" Cut="2.2688529296875000e+04" cType="1" res="3.0413856729865074e-02" rms="2.0651195943355560e-01" purity="6.8976283073425293e-01" nType="0">
          <Node pos="l" depth="2" NCoef="0" IVar="-1" Cut="0.0000000000000000e+00" cType="1" res="3.0219138716347516e-04" rms="2.6028075814247131e-01" purity="1.2966984510421753e-01" nType="-99"/>
          <Node pos="r" depth="2" NCoef="0" IVar="-1" Cut="0.0000000000000000e+00" cType="1" res="2.8174732506158762e-05" rms="3.9026248455047607e-01" purity="8.7098079919815063e-01" nType="-99"/>
        </Node>
        <Node pos="r" depth="1" NCoef="0" IVar="3" Cut="9.8078406250000000e+04" cType="1" res="3.9899888634681702e-01" rms="4.8969253897666931e-01" purity="3.9899891614913940e-01" nType="0">
          <Node pos="l" depth="2" NCoef="0" IVar="-1" Cut="0.0000000000000000e+00" cType="1" res="-2.5027862648130395e-05" rms="3.5468164086341858e-01" purity="3.9066091179847717e-01" nType="-99"/>
          <Node pos="r" depth="2" NCoef="0" IVar="-1" Cut="0.0000000000000000e+00" cType="1" res="9.5198280178010464e-04" rms="3.7815299630165100e-01" purity="5.2085047960281372e-01" nType="-99"/>
        </Node>
      </Node>
    </BinaryTree>
    <BinaryTree type="DecisionTree" boostWeight="1.0000000000000000e+00" itree="1145">
      <Node pos="s" depth="0" NCoef="0" IVar="5" Cut="1.6133364062500000e+05" cType="1" res="5.5326342582702637e-01" rms="4.9748378992080688e-01" purity="5.5366706848144531e-01" nType="0">
        <Node pos="l" depth="1" NCoef="0" IVar="-1" Cut="0.0000000000000000e+00" cType="1" res="1.6438274542451836e-05" rms="3.1138750910758972e-01" purity="8.6201661825180054e-01" nType="-99"/>
        <Node pos="r" depth="1" NCoef="0" IVar="3" Cut="9.8787570312500000e+04" cType="1" res="4.0746989846229553e-01" rms="4.9185338616371155e-01" purity="4.0806412696838379e-01" nType="0">
          <Node pos="l" depth="2" NCoef="0" IVar="-1" Cut="0.0000000000000000e+00" cType="1" res="-7.8052307799225673e-06" rms="3.5591357946395874e-01" purity="4.0298464894294739e-01" nType="-99"/>
          <Node pos="r" depth="2" NCoef="0" IVar="-1" Cut="0.0000000000000000e+00" cType="1" res="1.4978345716372132e-03" rms="4.3313452601432800e-01" purity="5.2033913135528564e-01" nType="-99"/>
        </Node>
      </Node>
    </BinaryTree>
    <BinaryTree type="DecisionTree" boostWeight="1.0000000000000000e+00" itree="1146">
      <Node pos="s" depth="0" NCoef="0" IVar="3" Cut="8.8859101562500000e+04" cType="1" res="3.8455915451049805e-01" rms="4.8649090528488159e-01" purity="3.8455915451049805e-01" nType="0">
        <Node pos="l" depth="1" NCoef="0" IVar="3" Cut="8.8478562500000000e+04" cType="1" res="3.9581531286239624e-01" rms="4.8902511596679688e-01" purity="3.9581531286239624e-01" nType="0">
          <Node pos="l" depth="2" NCoef="0" IVar="-1" Cut="0.0000000000000000e+00" cType="1" res="3.7055989378131926e-04" rms="3.5592734813690186e-01" purity="3.8624539971351624e-01" nType="-99"/>
          <Node pos="r" depth="2" NCoef="0" IVar="-1" Cut="0.0000000000000000e+00" cType="1" res="1.4835824258625507e-03" rms="3.8791322708129883e-01" purity="4.6985229849815369e-01" nType="-99"/>
        </Node>
        <Node pos="r" depth="1" NCoef="0" IVar="2" Cut="8.8563070312500000e+04" cType="1" res="3.7637972831726074e-01" rms="4.8473730683326721e-01" purity="3.7663200497627258e-01" nType="0">
          <Node pos="l" depth="2" NCoef="0" IVar="-1" Cut="0.0000000000000000e+00" cType="1" res="1.5641605714336038e-03" rms="4.0946534276008606e-01" purity="4.1447731852531433e-01" nType="-99"/>
          <Node pos="r" depth="2" NCoef="0" IVar="-1" Cut="0.0000000000000000e+00" cType="1" res="-5.2375718951225281e-04" rms="3.4806001186370850e-01" purity="3.7401804327964783e-01" nType="-99"/>
        </Node>
      </Node>
    </BinaryTree>
    <BinaryTree type="DecisionTree" boostWeight="1.0000000000000000e+00" itree="1147">
      <Node pos="s" depth="0" NCoef="0" IVar="4" Cut="7.9674312500000000e+04" cType="1" res="3.8787543773651123e-01" rms="4.8726591467857361e-01" purity="3.8787543773651123e-01" nType="0">
        <Node pos="l" depth="1" NCoef="0" IVar="3" Cut="9.5099523437500000e+04" cType="1" res="3.4130379557609558e-01" rms="4.7414714097976685e-01" purity="3.4130379557609558e-01" nType="0">
          <Node pos="l" depth="2" NCoef="0" IVar="-1" Cut="0.0000000000000000e+00" cType="1" res="-5.3263717563822865e-04" rms="3.5118317604064941e-01" purity="3.3253178000450134e-01" nType="-99"/>
          <Node pos="r" depth="2" NCoef="0" IVar="-1" Cut="0.0000000000000000e+00" cType="1" res="7.7563070226460695e-04" rms="3.9083275198936462e-01" purity="3.8325566053390503e-01" nType="-99"/>
        </Node>
        <Node pos="r" depth="1" NCoef="0" IVar="-1" Cut="0.0000000000000000e+00" cType="1" res="6.8556767655536532e-04" rms="2.8611379861831665e-01" purity="9.0883028507232666e-01" nType="-99"/>
      </Node>
    </BinaryTree>
    <BinaryTree type="DecisionTree" boostWeight="1.0000000000000000e+00" itree="1148">
      <Node pos="s" depth="0" NCoef="0" IVar="1" Cut="2.0052618750000000e+05" cType="1" res="4.5520070195198059e-01" rms="4.9805071949958801e-01" purity="4.5546323060989380e-01" nType="0">
        <Node pos="l" depth="1" NCoef="0" IVar="2" Cut="8.9697898437500000e+04" cType="1" res="1.6082368233149552e+35" rms="0.0000000000000000e+00" purity="5.7090139389038086e-01" nType="0">
          <Node pos="l" depth="2" NCoef="0" IVar="-1" Cut="0.0000000000000000e+00" cType="1" res="2.8819968065363355e-05" rms="4.0335756540298462e-01" purity="8.1038904190063477e-01" nType="-99"/>
          <Node pos="r" depth="2" NCoef="0" IVar="-1" Cut="0.0000000000000000e+00" cType="1" res="3.0583865009248257e-04" rms="3.3492827415466309e-01" purity="2.3459036648273468e-01" nType="-99"/>
        </Node>
        <Node pos="r" depth="1" NCoef="0" IVar="2" Cut="8.7708492187500000e+04" cType="1" res="1.0954514741897583e+00" rms="0.0000000000000000e+00" purity="4.2135038971900940e-01" nType="0">
          <Node pos="l" depth="2" NCoef="0" IVar="-1" Cut="0.0000000000000000e+00" cType="1" res="1.5545792412012815e-03" rms="3.8877531886100769e-01" purity="4.7986045479774475e-01" nType="-99"/>
          <Node pos="r" depth="2" NCoef="0" IVar="-1" Cut="0.0000000000000000e+00" cType="1" res="3.0336747295223176e-04" rms="3.5959514975547791e-01" purity="4.1819068789482117e-01" nType="-99"/>
        </Node>
      </Node>
    </BinaryTree>
    <BinaryTree type="DecisionTree" boostWeight="1.0000000000000000e+00" itree="1149">
      <Node pos="s" depth="0" NCoef="0" IVar="1" Cut="2.0102762500000000e+05" cType="1" res="4.4319763779640198e-01" rms="4.9689504504203796e-01" purity="4.4342383742332458e-01" nType="0">
        <Node pos="l" depth="1" NCoef="0" IVar="2" Cut="8.9708898437500000e+04" cType="1" res="4.9806159734725952e-01" rms="5.2087134122848511e-01" purity="5.5385792255401611e-01" nType="0">
          <Node pos="l" depth="2" NCoef="0" IVar="-1" Cut="0.0000000000000000e+00" cType="1" res="2.8228927476448007e-05" rms="4.0862089395523071e-01" purity="8.0114412307739258e-01" nType="-99"/>
          <Node pos="r" depth="2" NCoef="0" IVar="-1" Cut="0.0000000000000000e+00" cType="1" res="-1.3663136633113027e-03" rms="3.2631921768188477e-01" purity="2.1541544795036316e-01" nType="-99"/>
        </Node>
        <Node pos="r" depth="1" NCoef="0" IVar="0" Cut="4.0000000000000000e+00" cType="1" res="-1.0629708413034678e-03" rms="3.5384327173233032e-01" purity="4.1031405329704285e-01" nType="0">
          <Node pos="l" depth="2" NCoef="0" IVar="-1" Cut="0.0000000000000000e+00" cType="1" res="-2.2824981715530157e-04" rms="3.6141592264175415e-01" purity="3.7023392319679260e-01" nType="-99"/>
          <Node pos="r" depth="2" NCoef="0" IVar="-1" Cut="0.0000000000000000e+00" cType="1" res="3.9102323353290558e-04" rms="2.2136567533016205e-01" purity="9.4915205240249634e-01" nType="-99"/>
        </Node>
      </Node>
    </BinaryTree>
    <BinaryTree type="DecisionTree" boostWeight="1.0000000000000000e+00" itree="1150">
      <Node pos="s" depth="0" NCoef="0" IVar="1" Cut="2.0341365625000000e+05" cType="1" res="6.2577533721923828e-01" rms="4.8407152295112610e-01" purity="6.2596762180328369e-01" nType="0">
        <Node pos="l" depth="1" NCoef="0" IVar="2" Cut="8.9723593750000000e+04" cType="1" res="1.9803488254547119e-01" rms="4.0970563888549805e-01" purity="8.0179184675216675e-01" nType="0">
          <Node pos="l" depth="2" NCoef="0" IVar="-1" Cut="0.0000000000000000e+00" cType="1" res="1.8190423361374997e-05" rms="2.5231975317001343e-01" purity="9.3593072891235352e-01" nType="-99"/>
          <Node pos="r" depth="2" NCoef="0" IVar="-1" Cut="0.0000000000000000e+00" cType="1" res="-3.1662688707001507e-04" rms="3.2477909326553345e-01" purity="2.2590777277946472e-01" nType="-99"/>
        </Node>
        <Node pos="r" depth="1" NCoef="0" IVar="2" Cut="9.1865859375000000e+04" cType="1" res="5.0943434238433838e-01" rms="5.0015127658843994e-01" purity="5.0975364446640015e-01" nType="0">
          <Node pos="l" depth="2" NCoef="0" IVar="-1" Cut="0.0000000000000000e+00" cType="1" res="7.5138530519325286e-05" rms="3.5311028361320496e-01" purity="4.1779485344886780e-01" nType="-99"/>
          <Node pos="r" depth="2" NCoef="0" IVar="-1" Cut="0.0000000000000000e+00" cType="1" res="2.1599022147711366e-05" rms="5.0331711769104004e-01" purity="6.4059531688690186e-01" nType="-99"/>
        </Node>
      </Node>
    </BinaryTree>
    <BinaryTree type="DecisionTree" boostWeight="1.0000000000000000e+00" itree="1151">
      <Node pos="s" depth="0" NCoef="0" IVar="1" Cut="1.8991192187500000e+05" cType="1" res="4.9317938089370728e-01" rms="4.9995347857475281e-01" purity="4.9317935109138489e-01" nType="0">
        <Node pos="l" depth="1" NCoef="0" IVar="-1" Cut="0.0000000000000000e+00" cType="1" res="2.8614320399356075e-05" rms="3.7423557043075562e-01" purity="8.3685290813446045e-01" nType="-99"/>
        <Node pos="r" depth="1" NCoef="0" IVar="0" Cut="4.0000000000000000e+00" cType="1" res="-2.4560603778809309e-03" rms="3.5324475169181824e-01" purity="3.9058148860931396e-01" nType="0">
          <Node pos="l" depth="2" NCoef="0" IVar="-1" Cut="0.0000000000000000e+00" cType="1" res="-2.4465599562972784e-04" rms="3.5886329412460327e-01" purity="3.5732012987136841e-01" nType="-99"/>
          <Node pos="r" depth="2" NCoef="0" IVar="-1" Cut="0.0000000000000000e+00" cType="1" res="3.2627527252770960e-04" rms="2.3603826761245728e-01" purity="9.4146853685379028e-01" nType="-99"/>
        </Node>
      </Node>
    </BinaryTree>
    <BinaryTree type="DecisionTree" boostWeight="1.0000000000000000e+00" itree="1152">
      <Node pos="s" depth="0" NCoef="0" IVar="1" Cut="1.9129831250000000e+05" cType="1" res="5.5123424530029297e-01" rms="4.9736812710762024e-01" purity="5.5123424530029297e-01" nType="0">
        <Node pos="l" depth="1" NCoef="0" IVar="4" Cut="2.0992658203125000e+04" cType="1" res="1.6743302345275879e-02" rms="1.6210162639617920e-01" purity="8.1971746683120728e-01" nType="0">
          <Node pos="l" depth="2" NCoef="0" IVar="-1" Cut="0.0000000000000000e+00" cType="1" res="4.2859933455474675e-04" rms="2.4265338480472565e-01" purity="1.2025741487741470e-01" nType="-99"/>
          <Node pos="r" depth="2" NCoef="0" IVar="-1" Cut="0.0000000000000000e+00" cType="1" res="2.8531967473099940e-05" rms="2.9484793543815613e-01" purity="9.2788416147232056e-01" nType="-99"/>
        </Node>
        <Node pos="r" depth="1" NCoef="0" IVar="2" Cut="9.1882625000000000e+04" cType="1" res="4.8025777935981750e-01" rms="4.9961009621620178e-01" purity="4.8025780916213989e-01" nType="0">
          <Node pos="l" depth="2" NCoef="0" IVar="-1" Cut="0.0000000000000000e+00" cType="1" res="7.7909142419230193e-05" rms="3.5533419251441956e-01" purity="3.9750093221664429e-01" nType="-99"/>
          <Node pos="r" depth="2" NCoef="0" IVar="-1" Cut="0.0000000000000000e+00" cType="1" res="2.0847937776125036e-05" rms="5.0517201423645020e-01" purity="6.0646325349807739e-01" nType="-99"/>
        </Node>
      </Node>
    </BinaryTree>
    <BinaryTree type="DecisionTree" boostWeight="1.0000000000000000e+00" itree="1153">
      <Node pos="s" depth="0" NCoef="0" IVar="2" Cut="9.1813062500000000e+04" cType="1" res="4.7044488787651062e-01" rms="4.9918898940086365e-01" purity="4.7059825062751770e-01" nType="0">
        <Node pos="l" depth="1" NCoef="0" IVar="4" Cut="5.3227273437500000e+04" cType="1" res="3.8722854852676392e-01" rms="4.8711660504341125e-01" purity="3.8722854852676392e-01" nType="0">
          <Node pos="l" depth="2" NCoef="0" IVar="-1" Cut="0.0000000000000000e+00" cType="1" res="-5.6441890774294734e-04" rms="3.4223297238349915e-01" purity="2.9788661003112793e-01" nType="-99"/>
          <Node pos="r" depth="2" NCoef="0" IVar="-1" Cut="0.0000000000000000e+00" cType="1" res="2.2156612249091268e-04" rms="3.5535931587219238e-01" purity="8.2937216758728027e-01" nType="-99"/>
        </Node>
        <Node pos="r" depth="1" NCoef="0" IVar="2" Cut="9.2007062500000000e+04" cType="1" res="5.9522843360900879e-01" rms="4.9100854992866516e-01" purity="5.9561181068420410e-01" nType="0">
          <Node pos="l" depth="2" NCoef="0" IVar="-1" Cut="0.0000000000000000e+00" cType="1" res="2.1604688299703412e-05" rms="3.7571984529495239e-01" purity="8.7495332956314087e-01" nType="-99"/>
          <Node pos="r" depth="2" NCoef="0" IVar="-1" Cut="0.0000000000000000e+00" cType="1" res="-2.3533038620371372e-04" rms="3.5357400774955750e-01" purity="3.8613834977149963e-01" nType="-99"/>
        </Node>
      </Node>
    </BinaryTree>
    <BinaryTree type="DecisionTree" boostWeight="1.0000000000000000e+00" itree="1154">
      <Node pos="s" depth="0" NCoef="0" IVar="1" Cut="2.0146712500000000e+05" cType="1" res="4.4688943028450012e-01" rms="4.9741414189338684e-01" purity="4.4713097810745239e-01" nType="0">
        <Node pos="l" depth="1" NCoef="0" IVar="2" Cut="8.9633867187500000e+04" cType="1" res="5.0258976221084595e-01" rms="5.2216571569442749e-01" purity="5.5786430835723877e-01" nType="0">
          <Node pos="l" depth="2" NCoef="0" IVar="-1" Cut="0.0000000000000000e+00" cType="1" res="2.9008881028858013e-05" rms="3.9451265335083008e-01" purity="8.1431311368942261e-01" nType="-99"/>
          <Node pos="r" depth="2" NCoef="0" IVar="-1" Cut="0.0000000000000000e+00" cType="1" res="-2.2344633180182427e-04" rms="3.2770383358001709e-01" purity="2.2496716678142548e-01" nType="-99"/>
        </Node>
        <Node pos="r" depth="1" NCoef="0" IVar="4" Cut="7.6880640625000000e+04" cType="1" res="4.1237020492553711e-01" rms="4.9258270859718323e-01" purity="4.1268691420555115e-01" nType="0">
          <Node pos="l" depth="2" NCoef="0" IVar="-1" Cut="0.0000000000000000e+00" cType="1" res="-1.5300056475098245e-05" rms="3.6369165778160095e-01" purity="3.6266189813613892e-01" nType="-99"/>
          <Node pos="r" depth="2" NCoef="0" IVar="-1" Cut="0.0000000000000000e+00" cType="1" res="7.7577290358021855e-04" rms="2.8295651078224182e-01" purity="9.1206353902816772e-01" nType="-99"/>
        </Node>
      </Node>
    </BinaryTree>
    <BinaryTree type="DecisionTree" boostWeight="1.0000000000000000e+00" itree="1155">
      <Node pos="s" depth="0" NCoef="0" IVar="5" Cut="1.7155285937500000e+05" cType="1" res="4.3674886226654053e-01" rms="4.9598315358161926e-01" purity="4.3693882226943970e-01" nType="0">
        <Node pos="l" depth="1" NCoef="0" IVar="4" Cut="2.2283505859375000e+04" cType="1" res="5.2607625722885132e-01" rms="4.9931955337524414e-01" purity="5.2607631683349609e-01" nType="0">
          <Node pos="l" depth="2" NCoef="0" IVar="-1" Cut="0.0000000000000000e+00" cType="1" res="-8.3348393673077226e-04" rms="1.7277479171752930e-01" purity="3.0950507149100304e-02" nType="-99"/>
          <Node pos="r" depth="2" NCoef="0" IVar="-1" Cut="0.0000000000000000e+00" cType="1" res="2.8299193218117580e-05" rms="4.0466517210006714e-01" purity="8.0335253477096558e-01" nType="-99"/>
        </Node>
        <Node pos="r" depth="1" NCoef="0" IVar="0" Cut="3.0000000000000000e+00" cType="1" res="-6.1814943328499794e-03" rms="3.5793352127075195e-01" purity="4.1395029425621033e-01" nType="0">
          <Node pos="l" depth="2" NCoef="0" IVar="-1" Cut="0.0000000000000000e+00" cType="1" res="-6.2762311426922679e-04" rms="3.6765104532241821e-01" purity="3.3050516247749329e-01" nType="-99"/>
          <Node pos="r" depth="2" NCoef="0" IVar="-1" Cut="0.0000000000000000e+00" cType="1" res="3.8305865018628538e-04" rms="2.9182365536689758e-01" purity="9.0442585945129395e-01" nType="-99"/>
        </Node>
      </Node>
    </BinaryTree>
    <BinaryTree type="DecisionTree" boostWeight="1.0000000000000000e+00" itree="1156">
      <Node pos="s" depth="0" NCoef="0" IVar="1" Cut="2.0240409375000000e+05" cType="1" res="4.4433745741844177e-01" rms="4.9689203500747681e-01" purity="4.4447872042655945e-01" nType="0">
        <Node pos="l" depth="1" NCoef="0" IVar="2" Cut="8.9600773437500000e+04" cType="1" res="4.7594183683395386e-01" rms="5.2241814136505127e-01" purity="5.4397523403167725e-01" nType="0">
          <Node pos="l" depth="2" NCoef="0" IVar="-1" Cut="0.0000000000000000e+00" cType="1" res="2.8376936825225130e-05" rms="4.0567722916603088e-01" purity="8.0233699083328247e-01" nType="-99"/>
          <Node pos="r" depth="2" NCoef="0" IVar="-1" Cut="0.0000000000000000e+00" cType="1" res="4.6084815403446555e-04" rms="3.3274877071380615e-01" purity="2.2806702554225922e-01" nType="-99"/>
        </Node>
        <Node pos="r" depth="1" NCoef="0" IVar="4" Cut="4.7302878906250000e+04" cType="1" res="4.1234326362609863e-01" rms="4.9225634336471558e-01" purity="4.1252988576889038e-01" nType="0">
          <Node pos="l" depth="2" NCoef="0" IVar="-1" Cut="0.0000000000000000e+00" cType="1" res="-5.8226677356287837e-04" rms="3.5152503848075867e-01" purity="3.0431854724884033e-01" nType="-99"/>
          <Node pos="r" depth="2" NCoef="0" IVar="-1" Cut="0.0000000000000000e+00" cType="1" res="3.0064530437812209e-04" rms="3.5910844802856445e-01" purity="8.0854415893554688e-01" nType="-99"/>
        </Node>
      </Node>
    </BinaryTree>
    <BinaryTree type="DecisionTree" boostWeight="1.0000000000000000e+00" itree="1157">
      <Node pos="s" depth="0" NCoef="0" IVar="1" Cut="2.0208595312500000e+05" cType="1" res="4.3729609251022339e-01" rms="4.9633273482322693e-01" purity="4.3757402896881104e-01" nType="0">
        <Node pos="l" depth="1" NCoef="0" IVar="2" Cut="8.9665414062500000e+04" cType="1" res="4.9671405553817749e-01" rms="5.1134139299392700e-01" purity="5.4400295019149780e-01" nType="0">
          <Node pos="l" depth="2" NCoef="0" IVar="-1" Cut="0.0000000000000000e+00" cType="1" res="2.8382872187648900e-05" rms="4.1261759400367737e-01" purity="7.9365020990371704e-01" nType="-99"/>
          <Node pos="r" depth="2" NCoef="0" IVar="-1" Cut="0.0000000000000000e+00" cType="1" res="-6.5968849230557680e-04" rms="3.1953528523445129e-01" purity="2.1818360686302185e-01" nType="-99"/>
        </Node>
        <Node pos="r" depth="1" NCoef="0" IVar="3" Cut="9.4532687500000000e+04" cType="1" res="4.0354704856872559e-01" rms="4.9098134040832520e-01" purity="4.0391287207603455e-01" nType="0">
          <Node pos="l" depth="2" NCoef="0" IVar="-1" Cut="0.0000000000000000e+00" cType="1" res="-4.1307575884275138e-04" rms="3.4990039467811584e-01" purity="3.9811581373214722e-01" nType="-99"/>
          <Node pos="r" depth="2" NCoef="0" IVar="-1" Cut="0.0000000000000000e+00" cType="1" res="7.2261842433363199e-04" rms="3.8442823290824890e-01" purity="4.2448168992996216e-01" nType="-99"/>
        </Node>
      </Node>
    </BinaryTree>
    <BinaryTree type="DecisionTree" boostWeight="1.0000000000000000e+00" itree="1158">
      <Node pos="s" depth="0" NCoef="0" IVar="2" Cut="8.9656421875000000e+04" cType="1" res="6.6646784543991089e-01" rms="4.7147476673126221e-01" purity="6.6646784543991089e-01" nType="0">
        <Node pos="l" depth="1" NCoef="0" IVar="2" Cut="8.9241945312500000e+04" cType="1" res="8.5505497455596924e-01" rms="3.5204538702964783e-01" purity="8.5505497455596924e-01" nType="0">
          <Node pos="l" depth="2" NCoef="0" IVar="-1" Cut="0.0000000000000000e+00" cType="1" res="-4.2886674054898322e-04" rms="3.3673170208930969e-01" purity="3.7311512231826782e-01" nType="-99"/>
          <Node pos="r" depth="2" NCoef="0" IVar="-1" Cut="0.0000000000000000e+00" cType="1" res="1.7726732039591298e-05" rms="2.3588928580284119e-01" purity="9.5565462112426758e-01" nType="-99"/>
        </Node>
        <Node pos="r" depth="1" NCoef="0" IVar="1" Cut="2.8355268750000000e+05" cType="1" res="4.9727290868759155e-01" rms="5.0040340423583984e-01" purity="4.9785396456718445e-01" nType="0">
          <Node pos="l" depth="2" NCoef="0" IVar="-1" Cut="0.0000000000000000e+00" cType="1" res="3.5219651181250811e-04" rms="3.4615522623062134e-01" purity="3.1103011965751648e-01" nType="-99"/>
          <Node pos="r" depth="2" NCoef="0" IVar="-1" Cut="0.0000000000000000e+00" cType="1" res="2.1732274035457522e-05" rms="4.9550870060920715e-01" purity="6.9622778892517090e-01" nType="-99"/>
        </Node>
      </Node>
    </BinaryTree>
    <BinaryTree type="DecisionTree" boostWeight="1.0000000000000000e+00" itree="1159">
      <Node pos="s" depth="0" NCoef="0" IVar="3" Cut="9.5950960937500000e+04" cType="1" res="5.5389702320098877e-01" rms="4.9721643328666687e-01" purity="5.5408298969268799e-01" nType="0">
        <Node pos="l" depth="1" NCoef="0" IVar="0" Cut="4.0000000000000000e+00" cType="1" res="3.4989751875400543e-03" rms="3.5202920436859131e-01" purity="3.7918698787689209e-01" nType="0">
          <Node pos="l" depth="2" NCoef="0" IVar="-1" Cut="0.0000000000000000e+00" cType="1" res="4.8144182073883712e-05" rms="3.5741454362869263e-01" purity="3.4655484557151794e-01" nType="-99"/>
          <Node pos="r" depth="2" NCoef="0" IVar="-1" Cut="0.0000000000000000e+00" cType="1" res="2.9182882281020284e-04" rms="2.3666881024837494e-01" purity="9.4085162878036499e-01" nType="-99"/>
        </Node>
        <Node pos="r" depth="1" NCoef="0" IVar="3" Cut="9.6732984375000000e+04" cType="1" res="8.5730516910552979e-01" rms="3.4976136684417725e-01" purity="8.5746079683303833e-01" nType="0">
          <Node pos="l" depth="2" NCoef="0" IVar="-1" Cut="0.0000000000000000e+00" cType="1" res="1.6483365470776334e-05" rms="2.3940685391426086e-01" purity="9.5411813259124756e-01" nType="-99"/>
          <Node pos="r" depth="2" NCoef="0" IVar="-1" Cut="0.0000000000000000e+00" cType="1" res="5.7556276442483068e-04" rms="3.7639993429183960e-01" purity="4.5495906472206116e-01" nType="-99"/>
        </Node>
      </Node>
    </BinaryTree>
    <BinaryTree type="DecisionTree" boostWeight="1.0000000000000000e+00" itree="1160">
      <Node pos="s" depth="0" NCoef="0" IVar="0" Cut="4.0000000000000000e+00" cType="1" res="-1.1646207713056356e-04" rms="3.5016092658042908e-01" purity="3.7978526949882507e-01" nType="0">
        <Node pos="l" depth="1" NCoef="0" IVar="5" Cut="2.6177623437500000e+05" cType="1" res="3.4433177113533020e-01" rms="4.7514986991882324e-01" purity="3.4433180093765259e-01" nType="0">
          <Node pos="l" depth="2" NCoef="0" IVar="-1" Cut="0.0000000000000000e+00" cType="1" res="4.1446893010288477e-04" rms="3.1993097066879272e-01" purity="1.7194774746894836e-01" nType="-99"/>
          <Node pos="r" depth="2" NCoef="0" IVar="-1" Cut="0.0000000000000000e+00" cType="1" res="-6.1437347903847694e-04" rms="4.0010979771614075e-01" purity="5.8216184377670288e-01" nType="-99"/>
        </Node>
        <Node pos="r" depth="1" NCoef="0" IVar="-1" Cut="0.0000000000000000e+00" cType="1" res="3.4381565637886524e-04" rms="2.3375998437404633e-01" purity="9.4233936071395874e-01" nType="-99"/>
      </Node>
    </BinaryTree>
    <BinaryTree type="DecisionTree" boostWeight="1.0000000000000000e+00" itree="1161">
      <Node pos="s" depth="0" NCoef="0" IVar="0" Cut="1.0000000000000000e+00" cType="1" res="2.6939851045608521e-01" rms="4.8653900623321533e-01" purity="5.8144766092300415e-01" nType="0">
        <Node pos="l" depth="1" NCoef="0" IVar="4" Cut="1.9457638671875000e+04" cType="1" res="5.7079720497131348e-01" rms="4.9496236443519592e-01" purity="5.7079720497131348e-01" nType="0">
          <Node pos="l" depth="2" NCoef="0" IVar="-1" Cut="0.0000000000000000e+00" cType="1" res="1.7833509482443333e-03" rms="2.0859931409358978e-01" purity="4.5858018100261688e-02" nType="-99"/>
          <Node pos="r" depth="2" NCoef="0" IVar="-1" Cut="0.0000000000000000e+00" cType="1" res="2.0113326172577217e-05" rms="4.5024615526199341e-01" purity="7.7316373586654663e-01" nType="-99"/>
        </Node>
        <Node pos="r" depth="1" NCoef="0" IVar="3" Cut="9.7652460937500000e+04" cType="1" res="5.9858673810958862e-01" rms="4.9080342054367065e-01" purity="5.9957909584045410e-01" nType="0">
          <Node pos="l" depth="2" NCoef="0" IVar="-1" Cut="0.0000000000000000e+00" cType="1" res="5.1012594485655427e-04" rms="3.9749225974082947e-01" purity="5.9263831377029419e-01" nType="-99"/>
          <Node pos="r" depth="2" NCoef="0" IVar="-1" Cut="0.0000000000000000e+00" cType="1" res="9.4124063616618514e-04" rms="4.1369327902793884e-01" purity="6.8673992156982422e-01" nType="-99"/>
        </Node>
      </Node>
    </BinaryTree>
    <BinaryTree type="DecisionTree" boostWeight="1.0000000000000000e+00" itree="1162">
      <Node pos="s" depth="0" NCoef="0" IVar="0" Cut="1.0000000000000000e+00" cType="1" res="2.2046479582786560e-01" rms="4.7695168852806091e-01" purity="5.4526281356811523e-01" nType="0">
        <Node pos="l" depth="1" NCoef="0" IVar="4" Cut="1.9331630859375000e+04" cType="1" res="5.1153522729873657e-01" rms="4.9986693263053894e-01" purity="5.1153522729873657e-01" nType="0">
          <Node pos="l" depth="2" NCoef="0" IVar="-1" Cut="0.0000000000000000e+00" cType="1" res="2.7158360462635756e-03" rms="2.1180664002895355e-01" purity="4.8136729747056961e-02" nType="-99"/>
          <Node pos="r" depth="2" NCoef="0" IVar="-1" Cut="0.0000000000000000e+00" cType="1" res="1.8400807675789110e-05" rms="4.7553151845932007e-01" purity="7.2246837615966797e-01" nType="-99"/>
        </Node>
        <Node pos="r" depth="1" NCoef="0" IVar="5" Cut="2.2521762500000000e+05" cType="1" res="5.9546101093292236e-01" rms="4.9107620120048523e-01" purity="5.9572964906692505e-01" nType="0">
          <Node pos="l" depth="2" NCoef="0" IVar="-1" Cut="0.0000000000000000e+00" cType="1" res="-1.5221905196085572e-03" rms="3.8142010569572449e-01" purity="2.0186638832092285e-01" nType="-99"/>
          <Node pos="r" depth="2" NCoef="0" IVar="-1" Cut="0.0000000000000000e+00" cType="1" res="4.0219075162895024e-04" rms="3.9951878786087036e-01" purity="6.5238708257675171e-01" nType="-99"/>
        </Node>
      </Node>
    </BinaryTree>
    <BinaryTree type="DecisionTree" boostWeight="1.0000000000000000e+00" itree="1163">
      <Node pos="s" depth="0" NCoef="0" IVar="5" Cut="1.6088167187500000e+05" cType="1" res="5.3815281391143799e-01" rms="4.9894642829895020e-01" purity="5.3867560625076294e-01" nType="0">
        <Node pos="l" depth="1" NCoef="0" IVar="-1" Cut="0.0000000000000000e+00" cType="1" res="1.6552483430132270e-05" rms="3.8346695899963379e-01" purity="7.6240241527557373e-01" nType="-99"/>
        <Node pos="r" depth="1" NCoef="0" IVar="2" Cut="9.1879203125000000e+04" cType="1" res="4.8609653115272522e-01" rms="5.0030338764190674e-01" purity="4.8674067854881287e-01" nType="0">
          <Node pos="l" depth="2" NCoef="0" IVar="-1" Cut="0.0000000000000000e+00" cType="1" res="-5.4185740737011656e-05" rms="3.5590371489524841e-01" purity="3.9921644330024719e-01" nType="-99"/>
          <Node pos="r" depth="2" NCoef="0" IVar="-1" Cut="0.0000000000000000e+00" cType="1" res="2.1591034965240397e-05" rms="5.0684499740600586e-01" purity="6.2103956937789917e-01" nType="-99"/>
        </Node>
      </Node>
    </BinaryTree>
    <BinaryTree type="DecisionTree" boostWeight="1.0000000000000000e+00" itree="1164">
      <Node pos="s" depth="0" NCoef="0" IVar="1" Cut="1.8991192187500000e+05" cType="1" res="4.4260829687118530e-01" rms="4.9669528007507324e-01" purity="4.4260829687118530e-01" nType="0">
        <Node pos="l" depth="1" NCoef="0" IVar="-1" Cut="0.0000000000000000e+00" cType="1" res="2.8809752620873041e-05" rms="4.3981978297233582e-01" purity="7.3441016674041748e-01" nType="-99"/>
        <Node pos="r" depth="1" NCoef="0" IVar="5" Cut="4.6151765625000000e+05" cType="1" res="3.9036253094673157e-01" rms="4.8783156275749207e-01" purity="3.9036256074905396e-01" nType="0">
          <Node pos="l" depth="2" NCoef="0" IVar="-1" Cut="0.0000000000000000e+00" cType="1" res="-3.9299452328123152e-04" rms="3.5894164443016052e-01" purity="2.8776720166206360e-01" nType="-99"/>
          <Node pos="r" depth="2" NCoef="0" IVar="-1" Cut="0.0000000000000000e+00" cType="1" res="9.1101147700101137e-04" rms="3.3210709691047668e-01" purity="8.1698179244995117e-01" nType="-99"/>
        </Node>
      </Node>
    </BinaryTree>
    <BinaryTree type="DecisionTree" boostWeight="1.0000000000000000e+00" itree="1165">
      <Node pos="s" depth="0" NCoef="0" IVar="2" Cut="8.9606054687500000e+04" cType="1" res="5.8592581748962402e-01" rms="4.9283671379089355e-01" purity="5.8631944656372070e-01" nType="0">
        <Node pos="l" depth="1" NCoef="0" IVar="2" Cut="8.9252882812500000e+04" cType="1" res="8.2077813148498535e-01" rms="3.8353797793388367e-01" purity="8.2118719816207886e-01" nType="0">
          <Node pos="l" depth="2" NCoef="0" IVar="-1" Cut="0.0000000000000000e+00" cType="1" res="7.1101499088399578e-06" rms="3.5911527276039124e-01" purity="3.7082791328430176e-01" nType="-99"/>
          <Node pos="r" depth="2" NCoef="0" IVar="-1" Cut="0.0000000000000000e+00" cType="1" res="1.8342625480727293e-05" rms="2.4270182847976685e-01" purity="9.5290899276733398e-01" nType="-99"/>
        </Node>
        <Node pos="r" depth="1" NCoef="0" IVar="0" Cut="4.0000000000000000e+00" cType="1" res="3.3182415645569563e-03" rms="3.5486602783203125e-01" purity="3.8797390460968018e-01" nType="0">
          <Node pos="l" depth="2" NCoef="0" IVar="-1" Cut="0.0000000000000000e+00" cType="1" res="2.7090380172012374e-05" rms="3.6085218191146851e-01" purity="3.5283708572387695e-01" nType="-99"/>
          <Node pos="r" depth="2" NCoef="0" IVar="-1" Cut="0.0000000000000000e+00" cType="1" res="2.8116212342865765e-04" rms="2.3784129321575165e-01" purity="9.4049257040023804e-01" nType="-99"/>
        </Node>
      </Node>
    </BinaryTree>
    <BinaryTree type="DecisionTree" boostWeight="1.0000000000000000e+00" itree="1166">
      <Node pos="s" depth="0" NCoef="0" IVar="1" Cut="2.0040878125000000e+05" cType="1" res="4.5572230219841003e-01" rms="4.9822363257408142e-01" purity="4.5590957999229431e-01" nType="0">
        <Node pos="l" depth="1" NCoef="0" IVar="2" Cut="8.9636281250000000e+04" cType="1" res="5.0948178768157959e-01" rms="5.2248907089233398e-01" purity="5.7218647003173828e-01" nType="0">
          <Node pos="l" depth="2" NCoef="0" IVar="-1" Cut="0.0000000000000000e+00" cType="1" res="2.8512447897810489e-05" rms="3.9810520410537720e-01" purity="8.1544554233551025e-01" nType="-99"/>
          <Node pos="r" depth="2" NCoef="0" IVar="-1" Cut="0.0000000000000000e+00" cType="1" res="-1.2545881327241659e-04" rms="3.2688787579536438e-01" purity="2.3059348762035370e-01" nType="-99"/>
        </Node>
        <Node pos="r" depth="1" NCoef="0" IVar="4" Cut="3.7094507812500000e+04" cType="1" res="4.2233490943908691e-01" rms="4.9417519569396973e-01" purity="4.2257592082023621e-01" nType="0">
          <Node pos="l" depth="2" NCoef="0" IVar="-1" Cut="0.0000000000000000e+00" cType="1" res="1.2685600086115301e-04" rms="3.4037429094314575e-01" purity="2.9273903369903564e-01" nType="-99"/>
          <Node pos="r" depth="2" NCoef="0" IVar="-1" Cut="0.0000000000000000e+00" cType="1" res="3.9694583392702043e-04" rms="3.8847556710243225e-01" purity="7.3738169670104980e-01" nType="-99"/>
        </Node>
      </Node>
    </BinaryTree>
    <BinaryTree type="DecisionTree" boostWeight="1.0000000000000000e+00" itree="1167">
      <Node pos="s" depth="0" NCoef="0" IVar="1" Cut="2.0203215625000000e+05" cType="1" res="5.3080260753631592e-01" rms="4.9919170141220093e-01" purity="5.3094375133514404e-01" nType="0">
        <Node pos="l" depth="1" NCoef="0" IVar="2" Cut="8.9710492187500000e+04" cType="1" res="2.8161543607711792e-01" rms="4.6415969729423523e-01" purity="7.3656928539276123e-01" nType="0">
          <Node pos="l" depth="2" NCoef="0" IVar="-1" Cut="0.0000000000000000e+00" cType="1" res="1.9583394532673992e-05" rms="2.9624834656715393e-01" purity="9.0857768058776855e-01" nType="-99"/>
          <Node pos="r" depth="2" NCoef="0" IVar="-1" Cut="0.0000000000000000e+00" cType="1" res="2.1356531942728907e-04" rms="3.3183804154396057e-01" purity="2.3519819974899292e-01" nType="-99"/>
        </Node>
        <Node pos="r" depth="1" NCoef="0" IVar="4" Cut="7.8753968750000000e+04" cType="1" res="4.2091971635818481e-01" rms="4.9392595887184143e-01" purity="4.2113626003265381e-01" nType="0">
          <Node pos="l" depth="2" NCoef="0" IVar="-1" Cut="0.0000000000000000e+00" cType="1" res="1.1669689411064610e-04" rms="3.6638388037681580e-01" purity="3.7286484241485596e-01" nType="-99"/>
          <Node pos="r" depth="2" NCoef="0" IVar="-1" Cut="0.0000000000000000e+00" cType="1" res="7.3911790968850255e-04" rms="2.7332225441932678e-01" purity="9.1792505979537964e-01" nType="-99"/>
        </Node>
      </Node>
    </BinaryTree>
    <BinaryTree type="DecisionTree" boostWeight="1.0000000000000000e+00" itree="1168">
      <Node pos="s" depth="0" NCoef="0" IVar="1" Cut="2.0203215625000000e+05" cType="1" res="4.4330233335494995e-01" rms="4.9678951501846313e-01" purity="4.4350588321685791e-01" nType="0">
        <Node pos="l" depth="1" NCoef="0" IVar="2" Cut="8.9600773437500000e+04" cType="1" res="4.8553195595741272e-01" rms="5.2263814210891724e-01" purity="5.4340130090713501e-01" nType="0">
          <Node pos="l" depth="2" NCoef="0" IVar="-1" Cut="0.0000000000000000e+00" cType="1" res="2.8222475521033630e-05" rms="4.0812206268310547e-01" purity="7.9791182279586792e-01" nType="-99"/>
          <Node pos="r" depth="2" NCoef="0" IVar="-1" Cut="0.0000000000000000e+00" cType="1" res="1.0314276441931725e-03" rms="3.4069526195526123e-01" purity="2.2968980669975281e-01" nType="-99"/>
        </Node>
        <Node pos="r" depth="1" NCoef="0" IVar="4" Cut="3.6733953125000000e+04" cType="1" res="4.1154089570045471e-01" rms="4.9213209748268127e-01" purity="4.1180905699729919e-01" nType="0">
          <Node pos="l" depth="2" NCoef="0" IVar="-1" Cut="0.0000000000000000e+00" cType="1" res="-7.7452883124351501e-04" rms="3.3416587114334106e-01" purity="2.8111103177070618e-01" nType="-99"/>
          <Node pos="r" depth="2" NCoef="0" IVar="-1" Cut="0.0000000000000000e+00" cType="1" res="3.0919036362320185e-04" rms="3.9409783482551575e-01" purity="7.2441411018371582e-01" nType="-99"/>
        </Node>
      </Node>
    </BinaryTree>
    <BinaryTree type="DecisionTree" boostWeight="1.0000000000000000e+00" itree="1169">
      <Node pos="s" depth="0" NCoef="0" IVar="5" Cut="1.5914868750000000e+05" cType="1" res="4.8384824395179749e-01" rms="4.9973905086517334e-01" purity="4.8384821414947510e-01" nType="0">
        <Node pos="l" depth="1" NCoef="0" IVar="-1" Cut="0.0000000000000000e+00" cType="1" res="1.6437428712379187e-05" rms="3.7500599026679993e-01" purity="7.7723437547683716e-01" nType="-99"/>
        <Node pos="r" depth="1" NCoef="0" IVar="5" Cut="5.5129512500000000e+05" cType="1" res="4.0691804885864258e-01" rms="4.9125936627388000e-01" purity="4.0691804885864258e-01" nType="0">
          <Node pos="l" depth="2" NCoef="0" IVar="-1" Cut="0.0000000000000000e+00" cType="1" res="-4.1753562982194126e-05" rms="3.6844596266746521e-01" purity="3.3190864324569702e-01" nType="-99"/>
          <Node pos="r" depth="2" NCoef="0" IVar="-1" Cut="0.0000000000000000e+00" cType="1" res="1.0758306598290801e-03" rms="3.0778089165687561e-01" purity="8.5479259490966797e-01" nType="-99"/>
        </Node>
      </Node>
    </BinaryTree>
    <BinaryTree type="DecisionTree" boostWeight="1.0000000000000000e+00" itree="1170">
      <Node pos="s" depth="0" NCoef="0" IVar="2" Cut="9.1879203125000000e+04" cType="1" res="4.7268655896186829e-01" rms="4.9970066547393799e-01" purity="4.7323617339134216e-01" nType="0">
        <Node pos="l" depth="1" NCoef="0" IVar="0" Cut="3.0000000000000000e+00" cType="1" res="4.8591913655400276e-03" rms="3.4352844953536987e-01" purity="3.9435067772865295e-01" nType="0">
          <Node pos="l" depth="2" NCoef="0" IVar="-1" Cut="0.0000000000000000e+00" cType="1" res="-8.5272440628614277e-05" rms="3.5395014286041260e-01" purity="3.0558142066001892e-01" nType="-99"/>
          <Node pos="r" depth="2" NCoef="0" IVar="-1" Cut="0.0000000000000000e+00" cType="1" res="1.9731523934751749e-04" rms="2.7067157626152039e-01" purity="9.1870045661926270e-01" nType="-99"/>
        </Node>
        <Node pos="r" depth="1" NCoef="0" IVar="2" Cut="9.2076015625000000e+04" cType="1" res="6.0181939601898193e-01" rms="4.8952305316925049e-01" purity="6.0205417871475220e-01" nType="0">
          <Node pos="l" depth="2" NCoef="0" IVar="-1" Cut="0.0000000000000000e+00" cType="1" res="2.1811280021211132e-05" rms="3.6754640936851501e-01" purity="8.7931495904922485e-01" nType="-99"/>
          <Node pos="r" depth="2" NCoef="0" IVar="-1" Cut="0.0000000000000000e+00" cType="1" res="-8.2357204519212246e-05" rms="3.6188697814941406e-01" purity="3.8250276446342468e-01" nType="-99"/>
        </Node>
      </Node>
    </BinaryTree>
    <BinaryTree type="DecisionTree" boostWeight="1.0000000000000000e+00" itree="1171">
      <Node pos="s" depth="0" NCoef="0" IVar="1" Cut="2.0175423437500000e+05" cType="1" res="4.4154521822929382e-01" rms="4.9677094817161560e-01" purity="4.4200342893600464e-01" nType="0">
        <Node pos="l" depth="1" NCoef="0" IVar="2" Cut="8.9723593750000000e+04" cType="1" res="4.8300173878669739e-01" rms="5.1991266012191772e-01" purity="5.4190278053283691e-01" nType="0">
          <Node pos="l" depth="2" NCoef="0" IVar="-1" Cut="0.0000000000000000e+00" cType="1" res="2.8266589652048424e-05" rms="4.1463127732276917e-01" purity="7.8823196887969971e-01" nType="-99"/>
          <Node pos="r" depth="2" NCoef="0" IVar="-1" Cut="0.0000000000000000e+00" cType="1" res="-8.3670188905671239e-04" rms="3.2749712467193604e-01" purity="2.1380014717578888e-01" nType="-99"/>
        </Node>
        <Node pos="r" depth="1" NCoef="0" IVar="4" Cut="7.8737789062500000e+04" cType="1" res="4.1028815507888794e-01" rms="4.9215024709701538e-01" purity="4.1088902950286865e-01" nType="0">
          <Node pos="l" depth="2" NCoef="0" IVar="-1" Cut="0.0000000000000000e+00" cType="1" res="-8.6111584096215665e-05" rms="3.6299651861190796e-01" purity="3.6328756809234619e-01" nType="-99"/>
          <Node pos="r" depth="2" NCoef="0" IVar="-1" Cut="0.0000000000000000e+00" cType="1" res="6.8292085779830813e-04" rms="2.8072571754455566e-01" purity="9.1211080551147461e-01" nType="-99"/>
        </Node>
      </Node>
    </BinaryTree>
    <BinaryTree type="DecisionTree" boostWeight="1.0000000000000000e+00" itree="1172">
      <Node pos="s" depth="0" NCoef="0" IVar="3" Cut="8.5738875000000000e+04" cType="1" res="3.8129094243049622e-01" rms="4.8585501313209534e-01" purity="3.8154283165931702e-01" nType="0">
        <Node pos="l" depth="1" NCoef="0" IVar="4" Cut="2.6693546875000000e+04" cType="1" res="4.3961313366889954e-01" rms="4.9634003639221191e-01" purity="4.4027897715568542e-01" nType="0">
          <Node pos="l" depth="2" NCoef="0" IVar="-1" Cut="0.0000000000000000e+00" cType="1" res="-1.1448463192209601e-03" rms="3.0921551585197449e-01" purity="2.0164045691490173e-01" nType="-99"/>
          <Node pos="r" depth="2" NCoef="0" IVar="-1" Cut="0.0000000000000000e+00" cType="1" res="4.8622718895785511e-04" rms="3.8580232858657837e-01" purity="6.9032979011535645e-01" nType="-99"/>
        </Node>
        <Node pos="r" depth="1" NCoef="0" IVar="0" Cut="2.0000000000000000e+00" cType="1" res="-3.3446168527007103e-03" rms="3.5170879960060120e-01" purity="3.7055292725563049e-01" nType="0">
          <Node pos="l" depth="2" NCoef="0" IVar="-1" Cut="0.0000000000000000e+00" cType="1" res="-5.3907016990706325e-04" rms="3.4689348936080933e-01" purity="2.1317934989929199e-01" nType="-99"/>
          <Node pos="r" depth="2" NCoef="0" IVar="-1" Cut="0.0000000000000000e+00" cType="1" res="5.4116599494591355e-04" rms="3.6480444669723511e-01" purity="8.2846599817276001e-01" nType="-99"/>
        </Node>
      </Node>
    </BinaryTree>
    <BinaryTree type="DecisionTree" boostWeight="1.0000000000000000e+00" itree="1173">
      <Node pos="s" depth="0" NCoef="0" IVar="2" Cut="8.9699539062500000e+04" cType="1" res="5.6231117248535156e-01" rms="4.9610212445259094e-01" purity="5.6231117248535156e-01" nType="0">
        <Node pos="l" depth="1" NCoef="0" IVar="5" Cut="1.8128814062500000e+05" cType="1" res="7.9206329584121704e-01" rms="4.0583127737045288e-01" purity="7.9206335544586182e-01" nType="0">
          <Node pos="l" depth="2" NCoef="0" IVar="-1" Cut="0.0000000000000000e+00" cType="1" res="2.1421959900180809e-05" rms="2.6395559310913086e-01" purity="9.1261851787567139e-01" nType="-99"/>
          <Node pos="r" depth="2" NCoef="0" IVar="-1" Cut="0.0000000000000000e+00" cType="1" res="3.9281821227632463e-04" rms="3.8657769560813904e-01" purity="4.5742422342300415e-01" nType="-99"/>
        </Node>
        <Node pos="r" depth="1" NCoef="0" IVar="4" Cut="7.5291070312500000e+04" cType="1" res="3.8005393743515015e-01" rms="4.8557272553443909e-01" purity="3.8064226508140564e-01" nType="0">
          <Node pos="l" depth="2" NCoef="0" IVar="-1" Cut="0.0000000000000000e+00" cType="1" res="-6.0901558026671410e-04" rms="3.5330879688262939e-01" purity="3.2880970835685730e-01" nType="-99"/>
          <Node pos="r" depth="2" NCoef="0" IVar="-1" Cut="0.0000000000000000e+00" cType="1" res="6.8971992004662752e-04" rms="2.9534107446670532e-01" purity="8.9962577819824219e-01" nType="-99"/>
        </Node>
      </Node>
    </BinaryTree>
    <BinaryTree type="DecisionTree" boostWeight="1.0000000000000000e+00" itree="1174">
      <Node pos="s" depth="0" NCoef="0" IVar="3" Cut="8.9426546875000000e+04" cType="1" res="0.0000000000000000e+00" rms="2.4371803283691406e+02" purity="5.7251238822937012e-01" nType="0">
        <Node pos="l" depth="1" NCoef="0" IVar="3" Cut="8.8493085937500000e+04" cType="1" res="6.8187189102172852e-01" rms="4.6574953198432922e-01" purity="6.8187189102172852e-01" nType="0">
          <Node pos="l" depth="2" NCoef="0" IVar="-1" Cut="0.0000000000000000e+00" cType="1" res="7.3909228376578540e-05" rms="3.4366503357887268e-01" purity="3.9924648404121399e-01" nType="-99"/>
          <Node pos="r" depth="2" NCoef="0" IVar="-1" Cut="0.0000000000000000e+00" cType="1" res="2.3299802705878392e-05" rms="3.6051377654075623e-01" purity="8.8337457180023193e-01" nType="-99"/>
        </Node>
        <Node pos="r" depth="1" NCoef="0" IVar="1" Cut="3.1572581250000000e+05" cType="1" res="3.8396137952804565e-01" rms="4.8649150133132935e-01" purity="3.8439565896987915e-01" nType="0">
          <Node pos="l" depth="2" NCoef="0" IVar="-1" Cut="0.0000000000000000e+00" cType="1" res="5.1646336214616895e-04" rms="3.5925799608230591e-01" purity="3.2316431403160095e-01" nType="-99"/>
          <Node pos="r" depth="2" NCoef="0" IVar="-1" Cut="0.0000000000000000e+00" cType="1" res="-7.0848682662472129e-04" rms="3.6322188377380371e-01" purity="5.3085845708847046e-01" nType="-99"/>
        </Node>
      </Node>
    </BinaryTree>
    <BinaryTree type="DecisionTree" boostWeight="1.0000000000000000e+00" itree="1175">
      <Node pos="s" depth="0" NCoef="0" IVar="3" Cut="8.9426265625000000e+04" cType="1" res="5.1245534420013428e-01" rms="4.9999275803565979e-01" purity="5.1292240619659424e-01" nType="0">
        <Node pos="l" depth="1" NCoef="0" IVar="3" Cut="8.8492546875000000e+04" cType="1" res="6.1325019598007202e-01" rms="4.8709630966186523e-01" purity="6.1347961425781250e-01" nType="0">
          <Node pos="l" depth="2" NCoef="0" IVar="-1" Cut="0.0000000000000000e+00" cType="1" res="3.3586868084967136e-04" rms="3.5076099634170532e-01" purity="3.9330503344535828e-01" nType="-99"/>
          <Node pos="r" depth="2" NCoef="0" IVar="-1" Cut="0.0000000000000000e+00" cType="1" res="2.4353874323423952e-05" rms="4.1581732034683228e-01" purity="8.3280348777770996e-01" nType="-99"/>
        </Node>
        <Node pos="r" depth="1" NCoef="0" IVar="4" Cut="1.7938671875000000e+04" cType="1" res="3.6825352907180786e-01" rms="4.8277026414871216e-01" purity="3.6882808804512024e-01" nType="0">
          <Node pos="l" depth="2" NCoef="0" IVar="-1" Cut="0.0000000000000000e+00" cType="1" res="6.9081096444278955e-04" rms="2.9731866717338562e-01" purity="1.9658581912517548e-01" nType="-99"/>
          <Node pos="r" depth="2" NCoef="0" IVar="-1" Cut="0.0000000000000000e+00" cType="1" res="-5.7676079450175166e-04" rms="3.9181715250015259e-01" purity="4.8673835396766663e-01" nType="-99"/>
        </Node>
      </Node>
    </BinaryTree>
    <BinaryTree type="DecisionTree" boostWeight="1.0000000000000000e+00" itree="1176">
      <Node pos="s" depth="0" NCoef="0" IVar="2" Cut="9.1863054687500000e+04" cType="1" res="4.7688245773315430e-01" rms="4.9946528673171997e-01" purity="4.7688242793083191e-01" nType="0">
        <Node pos="l" depth="1" NCoef="0" IVar="4" Cut="7.3299085937500000e+04" cType="1" res="3.9226156473159790e-01" rms="4.8825445771217346e-01" purity="3.9226159453392029e-01" nType="0">
          <Node pos="l" depth="2" NCoef="0" IVar="-1" Cut="0.0000000000000000e+00" cType="1" res="3.7722868000855669e-05" rms="3.5307395458221436e-01" purity="3.3660528063774109e-01" nType="-99"/>
          <Node pos="r" depth="2" NCoef="0" IVar="-1" Cut="0.0000000000000000e+00" cType="1" res="7.4548769043758512e-04" rms="2.8482052683830261e-01" purity="9.0735787153244019e-01" nType="-99"/>
        </Node>
        <Node pos="r" depth="1" NCoef="0" IVar="2" Cut="9.2060210937500000e+04" cType="1" res="6.0872542858123779e-01" rms="4.8851245641708374e-01" purity="6.0942083597183228e-01" nType="0">
          <Node pos="l" depth="2" NCoef="0" IVar="-1" Cut="0.0000000000000000e+00" cType="1" res="2.1580959582934156e-05" rms="3.7442484498023987e-01" purity="8.7593716382980347e-01" nType="-99"/>
          <Node pos="r" depth="2" NCoef="0" IVar="-1" Cut="0.0000000000000000e+00" cType="1" res="1.4694752462673932e-04" rms="3.5232597589492798e-01" purity="4.0918049216270447e-01" nType="-99"/>
        </Node>
      </Node>
    </BinaryTree>
    <BinaryTree type="DecisionTree" boostWeight="1.0000000000000000e+00" itree="1177">
      <Node pos="s" depth="0" NCoef="0" IVar="3" Cut="9.5950960937500000e+04" cType="1" res="4.8683312535285950e-01" rms="4.9998500943183899e-01" purity="4.8730823397636414e-01" nType="0">
        <Node pos="l" depth="1" NCoef="0" IVar="3" Cut="9.5218617187500000e+04" cType="1" res="3.8986045122146606e-01" rms="4.8793664574623108e-01" purity="3.9041167497634888e-01" nType="0">
          <Node pos="l" depth="2" NCoef="0" IVar="-1" Cut="0.0000000000000000e+00" cType="1" res="1.1030942550860345e-04" rms="3.4998115897178650e-01" purity="3.8804000616073608e-01" nType="-99"/>
          <Node pos="r" depth="2" NCoef="0" IVar="-1" Cut="0.0000000000000000e+00" cType="1" res="3.1531574204564095e-03" rms="4.2752462625503540e-01" purity="4.4143372774124146e-01" nType="-99"/>
        </Node>
        <Node pos="r" depth="1" NCoef="0" IVar="3" Cut="9.6695718750000000e+04" cType="1" res="7.6868981122970581e-01" rms="4.2167025804519653e-01" purity="7.6894372701644897e-01" nType="0">
          <Node pos="l" depth="2" NCoef="0" IVar="-1" Cut="0.0000000000000000e+00" cType="1" res="1.6403268091380596e-05" rms="3.1723016500473022e-01" purity="9.1601109504699707e-01" nType="-99"/>
          <Node pos="r" depth="2" NCoef="0" IVar="-1" Cut="0.0000000000000000e+00" cType="1" res="-1.1095218360424042e-04" rms="3.7202700972557068e-01" purity="4.2365336418151855e-01" nType="-99"/>
        </Node>
      </Node>
    </BinaryTree>
    <BinaryTree type="DecisionTree" boostWeight="1.0000000000000000e+00" itree="1178">
      <Node pos="s" depth="0" NCoef="0" IVar="2" Cut="8.9620179687500000e+04" cType="1" res="5.6334787607192993e-01" rms="4.9597081542015076e-01" purity="5.6334787607192993e-01" nType="0">
        <Node pos="l" depth="1" NCoef="0" IVar="2" Cut="8.9266468750000000e+04" cType="1" res="7.9711949825286865e-01" rms="4.0214425325393677e-01" purity="7.9711943864822388e-01" nType="0">
          <Node pos="l" depth="2" NCoef="0" IVar="-1" Cut="0.0000000000000000e+00" cType="1" res="1.8184907094109803e-04" rms="3.5836696624755859e-01" purity="3.8789030909538269e-01" nType="-99"/>
          <Node pos="r" depth="2" NCoef="0" IVar="-1" Cut="0.0000000000000000e+00" cType="1" res="2.1498681235243566e-05" rms="2.6863002777099609e-01" purity="9.4077187776565552e-01" nType="-99"/>
        </Node>
        <Node pos="r" depth="1" NCoef="0" IVar="3" Cut="8.4180398437500000e+04" cType="1" res="3.8254398107528687e-01" rms="4.8624807596206665e-01" purity="3.8331240415573120e-01" nType="0">
          <Node pos="l" depth="2" NCoef="0" IVar="-1" Cut="0.0000000000000000e+00" cType="1" res="3.4718008828349411e-04" rms="3.5487854480743408e-01" purity="5.1250326633453369e-01" nType="-99"/>
          <Node pos="r" depth="2" NCoef="0" IVar="-1" Cut="0.0000000000000000e+00" cType="1" res="-1.3930174463894218e-04" rms="3.5377761721611023e-01" purity="3.7384608387947083e-01" nType="-99"/>
        </Node>
      </Node>
    </BinaryTree>
    <BinaryTree type="DecisionTree" boostWeight="1.0000000000000000e+00" itree="1179">
      <Node pos="s" depth="0" NCoef="0" IVar="5" Cut="1.6863592187500000e+05" cType="1" res="4.8417726159095764e-01" rms="4.9990308284759521e-01" purity="4.8439195752143860e-01" nType="0">
        <Node pos="l" depth="1" NCoef="0" IVar="4" Cut="2.0093990234375000e+04" cType="1" res="6.7520177364349365e-01" rms="4.6829941868782043e-01" purity="6.7520177364349365e-01" nType="0">
          <Node pos="l" depth="2" NCoef="0" IVar="-1" Cut="0.0000000000000000e+00" cType="1" res="2.6067318394780159e-03" rms="1.7464886605739594e-01" purity="3.1446099281311035e-02" nType="-99"/>
          <Node pos="r" depth="2" NCoef="0" IVar="-1" Cut="0.0000000000000000e+00" cType="1" res="1.6565465557505377e-05" rms="3.3289501070976257e-01" purity="8.6894404888153076e-01" nType="-99"/>
        </Node>
        <Node pos="r" depth="1" NCoef="0" IVar="0" Cut="4.0000000000000000e+00" cType="1" res="3.0614293646067381e-03" rms="3.6056220531463623e-01" purity="4.2322242259979248e-01" nType="0">
          <Node pos="l" depth="2" NCoef="0" IVar="-1" Cut="0.0000000000000000e+00" cType="1" res="-6.5343541791662574e-05" rms="3.6885476112365723e-01" purity="3.8262549042701721e-01" nType="-99"/>
          <Node pos="r" depth="2" NCoef="0" IVar="-1" Cut="0.0000000000000000e+00" cType="1" res="2.5909914984367788e-04" rms="2.1830739080905914e-01" purity="9.5089060068130493e-01" nType="-99"/>
        </Node>
      </Node>
    </BinaryTree>
    <BinaryTree type="DecisionTree" boostWeight="1.0000000000000000e+00" itree="1180">
      <Node pos="s" depth="0" NCoef="0" IVar="2" Cut="9.1779687500000000e+04" cType="1" res="5.3430789709091187e-01" rms="4.9896913766860962e-01" purity="5.3479617834091187e-01" nType="0">
        <Node pos="l" depth="1" NCoef="0" IVar="5" Cut="2.0632582812500000e+05" cType="1" res="3.8834860920906067e-01" rms="4.8749530315399170e-01" purity="3.8846629858016968e-01" nType="0">
          <Node pos="l" depth="2" NCoef="0" IVar="-1" Cut="0.0000000000000000e+00" cType="1" res="-1.6407618531957269e-03" rms="2.6580730080604553e-01" purity="9.8401308059692383e-02" nType="-99"/>
          <Node pos="r" depth="2" NCoef="0" IVar="-1" Cut="0.0000000000000000e+00" cType="1" res="3.4284984576515853e-04" rms="3.8650831580162048e-01" purity="5.2889102697372437e-01" nType="-99"/>
        </Node>
        <Node pos="r" depth="1" NCoef="0" IVar="2" Cut="9.1978570312500000e+04" cType="1" res="6.9335186481475830e-01" rms="4.6211379766464233e-01" purity="6.9428592920303345e-01" nType="0">
          <Node pos="l" depth="2" NCoef="0" IVar="-1" Cut="0.0000000000000000e+00" cType="1" res="2.1695412215194665e-05" rms="2.9178500175476074e-01" purity="9.2867892980575562e-01" nType="-99"/>
          <Node pos="r" depth="2" NCoef="0" IVar="-1" Cut="0.0000000000000000e+00" cType="1" res="4.6313554776133969e-05" rms="3.6735048890113831e-01" purity="3.8099133968353271e-01" nType="-99"/>
        </Node>
      </Node>
    </BinaryTree>
    <BinaryTree type="DecisionTree" boostWeight="1.0000000000000000e+00" itree="1181">
      <Node pos="s" depth="0" NCoef="0" IVar="2" Cut="9.1779687500000000e+04" cType="1" res="5.3069925308227539e-01" rms="4.9929246306419373e-01" purity="5.3108638525009155e-01" nType="0">
        <Node pos="l" depth="1" NCoef="0" IVar="0" Cut="3.0000000000000000e+00" cType="1" res="2.7987243811367080e-05" rms="3.4913435578346252e-01" purity="3.8258481025695801e-01" nType="0">
          <Node pos="l" depth="2" NCoef="0" IVar="-1" Cut="0.0000000000000000e+00" cType="1" res="-2.1010836644563824e-04" rms="3.5732805728912354e-01" purity="3.0471518635749817e-01" nType="-99"/>
          <Node pos="r" depth="2" NCoef="0" IVar="-1" Cut="0.0000000000000000e+00" cType="1" res="3.1740686972625554e-04" rms="2.8564172983169556e-01" purity="9.0894156694412231e-01" nType="-99"/>
        </Node>
        <Node pos="r" depth="1" NCoef="0" IVar="2" Cut="9.1978601562500000e+04" cType="1" res="6.9529014825820923e-01" rms="4.6061059832572937e-01" purity="6.9575923681259155e-01" nType="0">
          <Node pos="l" depth="2" NCoef="0" IVar="-1" Cut="0.0000000000000000e+00" cType="1" res="2.1697165720979683e-05" rms="2.9630193114280701e-01" purity="9.2857164144515991e-01" nType="-99"/>
          <Node pos="r" depth="2" NCoef="0" IVar="-1" Cut="0.0000000000000000e+00" cType="1" res="-3.8986155414022505e-04" rms="3.5640451312065125e-01" purity="3.7599152326583862e-01" nType="-99"/>
        </Node>
      </Node>
    </BinaryTree>
    <BinaryTree type="DecisionTree" boostWeight="1.0000000000000000e+00" itree="1182">
      <Node pos="s" depth="0" NCoef="0" IVar="0" Cut="1.0000000000000000e+00" cType="1" res="2.6912456750869751e-01" rms="4.8839184641838074e-01" purity="5.8173358440399170e-01" nType="0">
        <Node pos="l" depth="1" NCoef="0" IVar="4" Cut="1.9618507812500000e+04" cType="1" res="5.7573354244232178e-01" rms="4.9423113465309143e-01" purity="5.7573360204696655e-01" nType="0">
          <Node pos="l" depth="2" NCoef="0" IVar="-1" Cut="0.0000000000000000e+00" cType="1" res="6.9454102776944637e-04" rms="2.0170657336711884e-01" purity="4.2451430112123489e-02" nType="-99"/>
          <Node pos="r" depth="2" NCoef="0" IVar="-1" Cut="0.0000000000000000e+00" cType="1" res="2.0255611161701381e-05" rms="4.4804322719573975e-01" purity="7.7852177619934082e-01" nType="-99"/>
        </Node>
        <Node pos="r" depth="1" NCoef="0" IVar="0" Cut="4.0000000000000000e+00" cType="1" res="6.0542384162545204e-03" rms="3.9547851681709290e-01" purity="5.9220737218856812e-01" nType="0">
          <Node pos="l" depth="2" NCoef="0" IVar="-1" Cut="0.0000000000000000e+00" cType="1" res="4.7175162762869149e-06" rms="4.1181507706642151e-01" purity="5.4702055454254150e-01" nType="-99"/>
          <Node pos="r" depth="2" NCoef="0" IVar="-1" Cut="0.0000000000000000e+00" cType="1" res="3.8241408765316010e-04" rms="2.2448369860649109e-01" purity="9.4709414243698120e-01" nType="-99"/>
        </Node>
      </Node>
    </BinaryTree>
    <BinaryTree type="DecisionTree" boostWeight="1.0000000000000000e+00" itree="1183">
      <Node pos="s" depth="0" NCoef="0" IVar="1" Cut="2.0340862500000000e+05" cType="1" res="4.4525134563446045e-01" rms="4.9737700819969177e-01" purity="4.4570294022560120e-01" nType="0">
        <Node pos="l" depth="1" NCoef="0" IVar="2" Cut="8.9620320312500000e+04" cType="1" res="4.8842072486877441e-01" rms="5.1754003763198853e-01" purity="5.4385763406753540e-01" nType="0">
          <Node pos="l" depth="2" NCoef="0" IVar="-1" Cut="0.0000000000000000e+00" cType="1" res="2.8599135475815274e-05" rms="4.0851455926895142e-01" purity="7.9924219846725464e-01" nType="-99"/>
          <Node pos="r" depth="2" NCoef="0" IVar="-1" Cut="0.0000000000000000e+00" cType="1" res="6.0270383255556226e-04" rms="3.2471075654029846e-01" purity="2.4880239367485046e-01" nType="-99"/>
        </Node>
        <Node pos="r" depth="1" NCoef="0" IVar="4" Cut="3.2448195312500000e+04" cType="1" res="4.1228973865509033e-01" rms="4.9276331067085266e-01" purity="4.1289228200912476e-01" nType="0">
          <Node pos="l" depth="2" NCoef="0" IVar="-1" Cut="0.0000000000000000e+00" cType="1" res="-1.1345017701387405e-03" rms="3.2650104165077209e-01" purity="2.6602455973625183e-01" nType="-99"/>
          <Node pos="r" depth="2" NCoef="0" IVar="-1" Cut="0.0000000000000000e+00" cType="1" res="5.2401056746020913e-04" rms="3.9655911922454834e-01" purity="6.8983525037765503e-01" nType="-99"/>
        </Node>
      </Node>
    </BinaryTree>
    <BinaryTree type="DecisionTree" boostWeight="1.0000000000000000e+00" itree="1184">
      <Node pos="s" depth="0" NCoef="0" IVar="3" Cut="8.4603906250000000e+04" cType="1" res="3.9352560043334961e-01" rms="4.8856422305107117e-01" purity="3.9366155862808228e-01" nType="0">
        <Node pos="l" depth="1" NCoef="0" IVar="4" Cut="2.8539111328125000e+04" cType="1" res="5.1160800457000732e-01" rms="5.0016003847122192e-01" purity="5.1286864280700684e-01" nType="0">
          <Node pos="l" depth="2" NCoef="0" IVar="-1" Cut="0.0000000000000000e+00" cType="1" res="-1.3770478835795075e-04" rms="3.2989302277565002e-01" purity="2.2484858334064484e-01" nType="-99"/>
          <Node pos="r" depth="2" NCoef="0" IVar="-1" Cut="0.0000000000000000e+00" cType="1" res="3.3257892937399447e-04" rms="3.4798896312713623e-01" purity="7.7408164739608765e-01" nType="-99"/>
        </Node>
        <Node pos="r" depth="1" NCoef="0" IVar="3" Cut="9.8961226562500000e+04" cType="1" res="3.7924838066101074e-01" rms="4.8520001769065857e-01" purity="3.7924841046333313e-01" nType="0">
          <Node pos="l" depth="2" NCoef="0" IVar="-1" Cut="0.0000000000000000e+00" cType="1" res="-6.7643086367752403e-05" rms="3.5051259398460388e-01" purity="3.7386801838874817e-01" nType="-99"/>
          <Node pos="r" depth="2" NCoef="0" IVar="-1" Cut="0.0000000000000000e+00" cType="1" res="1.1766924289986491e-03" rms="4.1223990917205811e-01" purity="5.0274968147277832e-01" nType="-99"/>
        </Node>
      </Node>
    </BinaryTree>
    <BinaryTree type="DecisionTree" boostWeight="1.0000000000000000e+00" itree="1185">
      <Node pos="s" depth="0" NCoef="0" IVar="0" Cut="4.0000000000000000e+00" cType="1" res="-4.0512969717383385e-03" rms="3.4552502632141113e-01" purity="3.8315683603286743e-01" nType="0">
        <Node pos="l" depth="1" NCoef="0" IVar="4" Cut="7.5835773437500000e+04" cType="1" res="3.4333872795104980e-01" rms="4.7482338547706604e-01" purity="3.4345123171806335e-01" nType="0">
          <Node pos="l" depth="2" NCoef="0" IVar="-1" Cut="0.0000000000000000e+00" cType="1" res="-7.5195718090981245e-04" rms="3.5555186867713928e-01" purity="2.9837650060653687e-01" nType="-99"/>
          <Node pos="r" depth="2" NCoef="0" IVar="-1" Cut="0.0000000000000000e+00" cType="1" res="6.0752249555662274e-04" rms="3.0428054928779602e-01" purity="8.9434772729873657e-01" nType="-99"/>
        </Node>
        <Node pos="r" depth="1" NCoef="0" IVar="-1" Cut="0.0000000000000000e+00" cType="1" res="2.4997768923640251e-04" rms="2.2054444253444672e-01" purity="9.4973504543304443e-01" nType="-99"/>
      </Node>
    </BinaryTree>
    <BinaryTree type="DecisionTree" boostWeight="1.0000000000000000e+00" itree="1186">
      <Node pos="s" depth="0" NCoef="0" IVar="3" Cut="9.5950507812500000e+04" cType="1" res="4.8226588964462280e-01" rms="4.9968540668487549e-01" purity="4.8226588964462280e-01" nType="0">
        <Node pos="l" depth="1" NCoef="0" IVar="1" Cut="2.1424251562500000e+05" cType="1" res="3.8301938772201538e-01" rms="4.8612296581268311e-01" purity="3.8301938772201538e-01" nType="0">
          <Node pos="l" depth="2" NCoef="0" IVar="-1" Cut="0.0000000000000000e+00" cType="1" res="-1.6236330848187208e-03" rms="3.1902313232421875e-01" purity="2.2419004142284393e-01" nType="-99"/>
          <Node pos="r" depth="2" NCoef="0" IVar="-1" Cut="0.0000000000000000e+00" cType="1" res="4.7834345605224371e-04" rms="3.5872760415077209e-01" purity="4.3905186653137207e-01" nType="-99"/>
        </Node>
        <Node pos="r" depth="1" NCoef="0" IVar="2" Cut="8.9290359375000000e+04" cType="1" res="7.6651066541671753e-01" rms="4.2327302694320679e-01" purity="7.6695376634597778e-01" nType="0">
          <Node pos="l" depth="2" NCoef="0" IVar="-1" Cut="0.0000000000000000e+00" cType="1" res="1.6793987015262246e-05" rms="3.3224749565124512e-01" purity="9.1128748655319214e-01" nType="-99"/>
          <Node pos="r" depth="2" NCoef="0" IVar="-1" Cut="0.0000000000000000e+00" cType="1" res="-1.9828439690172672e-03" rms="3.4808501601219177e-01" purity="3.7399443984031677e-01" nType="-99"/>
        </Node>
      </Node>
    </BinaryTree>
    <BinaryTree type="DecisionTree" boostWeight="1.0000000000000000e+00" itree="1187">
      <Node pos="s" depth="0" NCoef="0" IVar="3" Cut="9.5950960937500000e+04" cType="1" res="5.4981458187103271e-01" rms="4.9751231074333191e-01" purity="5.4981458187103271e-01" nType="0">
        <Node pos="l" depth="1" NCoef="0" IVar="0" Cut="4.0000000000000000e+00" cType="1" res="1.0328637436032295e-03" rms="3.5119083523750305e-01" purity="3.7612670660018921e-01" nType="0">
          <Node pos="l" depth="2" NCoef="0" IVar="-1" Cut="0.0000000000000000e+00" cType="1" res="-8.3424536569509655e-05" rms="3.5651224851608276e-01" purity="3.4167179465293884e-01" nType="-99"/>
          <Node pos="r" depth="2" NCoef="0" IVar="-1" Cut="0.0000000000000000e+00" cType="1" res="2.8694487991742790e-04" rms="2.4515667557716370e-01" purity="9.3604439496994019e-01" nType="-99"/>
        </Node>
        <Node pos="r" depth="1" NCoef="0" IVar="3" Cut="9.6732937500000000e+04" cType="1" res="8.5920846462249756e-01" rms="3.4780639410018921e-01" purity="8.5952347517013550e-01" nType="0">
          <Node pos="l" depth="2" NCoef="0" IVar="-1" Cut="0.0000000000000000e+00" cType="1" res="1.6548978237551637e-05" rms="2.4596129357814789e-01" purity="9.5372402667999268e-01" nType="-99"/>
          <Node pos="r" depth="2" NCoef="0" IVar="-1" Cut="0.0000000000000000e+00" cType="1" res="-8.9787630713544786e-05" rms="3.6578151583671570e-01" purity="4.2782080173492432e-01" nType="-99"/>
        </Node>
      </Node>
    </BinaryTree>
    <BinaryTree type="DecisionTree" boostWeight="1.0000000000000000e+00" itree="1188">
      <Node pos="s" depth="0" NCoef="0" IVar="1" Cut="2.0203215625000000e+05" cType="1" res="5.2760082483291626e-01" rms="4.9928024411201477e-01" purity="5.2764338254928589e-01" nType="0">
        <Node pos="l" depth="1" NCoef="0" IVar="2" Cut="8.9658648437500000e+04" cType="1" res="2.7926367521286011e-01" rms="4.6490383148193359e-01" purity="7.3530238866806030e-01" nType="0">
          <Node pos="l" depth="2" NCoef="0" IVar="-1" Cut="0.0000000000000000e+00" cType="1" res="1.9704779333551414e-05" rms="2.9753857851028442e-01" purity="9.0818274021148682e-01" nType="-99"/>
          <Node pos="r" depth="2" NCoef="0" IVar="-1" Cut="0.0000000000000000e+00" cType="1" res="8.6364150047302246e-04" rms="3.3913898468017578e-01" purity="2.2979918122291565e-01" nType="-99"/>
        </Node>
        <Node pos="r" depth="1" NCoef="0" IVar="3" Cut="8.3327625000000000e+04" cType="1" res="4.1626337170600891e-01" rms="4.9300464987754822e-01" purity="4.1632875800132751e-01" nType="0">
          <Node pos="l" depth="2" NCoef="0" IVar="-1" Cut="0.0000000000000000e+00" cType="1" res="2.1178506722208112e-04" rms="3.1548801064491272e-01" purity="6.1809271574020386e-01" nType="-99"/>
          <Node pos="r" depth="2" NCoef="0" IVar="-1" Cut="0.0000000000000000e+00" cType="1" res="1.2252856686245650e-04" rms="3.6309447884559631e-01" purity="4.0330547094345093e-01" nType="-99"/>
        </Node>
      </Node>
    </BinaryTree>
    <BinaryTree type="DecisionTree" boostWeight="1.0000000000000000e+00" itree="1189">
      <Node pos="s" depth="0" NCoef="0" IVar="2" Cut="9.1762843750000000e+04" cType="1" res="4.7337913513183594e-01" rms="4.9945682287216187e-01" purity="4.7354492545127869e-01" nType="0">
        <Node pos="l" depth="1" NCoef="0" IVar="3" Cut="9.5950742187500000e+04" cType="1" res="3.9132753014564514e-01" rms="4.8845240473747253e-01" purity="3.9186662435531616e-01" nType="0">
          <Node pos="l" depth="2" NCoef="0" IVar="-1" Cut="0.0000000000000000e+00" cType="1" res="-2.0397071693878388e-06" rms="3.4972661733627319e-01" purity="3.8062828779220581e-01" nType="-99"/>
          <Node pos="r" depth="2" NCoef="0" IVar="-1" Cut="0.0000000000000000e+00" cType="1" res="1.3513189041987062e-03" rms="3.9401605725288391e-01" purity="4.6958354115486145e-01" nType="-99"/>
        </Node>
        <Node pos="r" depth="1" NCoef="0" IVar="2" Cut="9.1956023437500000e+04" cType="1" res="5.9222400188446045e-01" rms="4.9183556437492371e-01" purity="5.9263151884078979e-01" nType="0">
          <Node pos="l" depth="2" NCoef="0" IVar="-1" Cut="0.0000000000000000e+00" cType="1" res="2.1701736841350794e-05" rms="3.8024204969406128e-01" purity="8.6961382627487183e-01" nType="-99"/>
          <Node pos="r" depth="2" NCoef="0" IVar="-1" Cut="0.0000000000000000e+00" cType="1" res="1.5972089022397995e-04" rms="3.5360941290855408e-01" purity="3.9174127578735352e-01" nType="-99"/>
        </Node>
      </Node>
    </BinaryTree>
    <BinaryTree type="DecisionTree" boostWeight="1.0000000000000000e+00" itree="1190">
      <Node pos="s" depth="0" NCoef="0" IVar="5" Cut="1.6601217187500000e+05" cType="1" res="5.5067443847656250e-01" rms="4.9742546677589417e-01" purity="5.5067443847656250e-01" nType="0">
        <Node pos="l" depth="1" NCoef="0" IVar="4" Cut="1.8059576171875000e+04" cType="1" res="8.2434064149856567e-01" rms="3.8053011894226074e-01" purity="8.2434058189392090e-01" nType="0">
          <Node pos="l" depth="2" NCoef="0" IVar="-1" Cut="0.0000000000000000e+00" cType="1" res="-1.0839932365342975e-03" rms="1.5133970975875854e-01" purity="2.3352442309260368e-02" nType="-99"/>
          <Node pos="r" depth="2" NCoef="0" IVar="-1" Cut="0.0000000000000000e+00" cType="1" res="1.6503146980539896e-05" rms="2.5121015310287476e-01" purity="9.2811596393585205e-01" nType="-99"/>
        </Node>
        <Node pos="r" depth="1" NCoef="0" IVar="4" Cut="3.7094507812500000e+04" cType="1" res="4.1291260719299316e-01" rms="4.9235737323760986e-01" purity="4.1291260719299316e-01" nType="0">
          <Node pos="l" depth="2" NCoef="0" IVar="-1" Cut="0.0000000000000000e+00" cType="1" res="-3.6729490966536105e-04" rms="3.4063321352005005e-01" purity="2.9256203770637512e-01" nType="-99"/>
          <Node pos="r" depth="2" NCoef="0" IVar="-1" Cut="0.0000000000000000e+00" cType="1" res="4.6994833974167705e-04" rms="4.0536201000213623e-01" purity="7.1698534488677979e-01" nType="-99"/>
        </Node>
      </Node>
    </BinaryTree>
    <BinaryTree type="DecisionTree" boostWeight="1.0000000000000000e+00" itree="1191">
      <Node pos="s" depth="0" NCoef="0" IVar="1" Cut="1.9097787500000000e+05" cType="1" res="4.4072127342224121e-01" rms="4.9647361040115356e-01" purity="4.4072124361991882e-01" nType="0">
        <Node pos="l" depth="1" NCoef="0" IVar="4" Cut="2.1293898437500000e+04" cType="1" res="3.4025765955448151e-02" rms="2.2254483401775360e-01" purity="7.0473569631576538e-01" nType="0">
          <Node pos="l" depth="2" NCoef="0" IVar="-1" Cut="0.0000000000000000e+00" cType="1" res="3.3499408164061606e-04" rms="2.4247044324874878e-01" purity="1.2057381123304367e-01" nType="-99"/>
          <Node pos="r" depth="2" NCoef="0" IVar="-1" Cut="0.0000000000000000e+00" cType="1" res="2.8515058147604577e-05" rms="3.8890480995178223e-01" purity="8.6602807044982910e-01" nType="-99"/>
        </Node>
        <Node pos="r" depth="1" NCoef="0" IVar="4" Cut="8.0294023437500000e+04" cType="1" res="3.9050784707069397e-01" rms="4.8786419630050659e-01" purity="3.9050784707069397e-01" nType="0">
          <Node pos="l" depth="2" NCoef="0" IVar="-1" Cut="0.0000000000000000e+00" cType="1" res="-5.6673050858080387e-04" rms="3.5523512959480286e-01" purity="3.4197115898132324e-01" nType="-99"/>
          <Node pos="r" depth="2" NCoef="0" IVar="-1" Cut="0.0000000000000000e+00" cType="1" res="7.3703355155885220e-04" rms="2.7782678604125977e-01" purity="9.1411793231964111e-01" nType="-99"/>
        </Node>
      </Node>
    </BinaryTree>
    <BinaryTree type="DecisionTree" boostWeight="1.0000000000000000e+00" itree="1192">
      <Node pos="s" depth="0" NCoef="0" IVar="1" Cut="2.0340862500000000e+05" cType="1" res="0.0000000000000000e+00" rms="0.0000000000000000e+00" purity="4.4651433825492859e-01" nType="0">
        <Node pos="l" depth="1" NCoef="0" IVar="2" Cut="8.9632320312500000e+04" cType="1" res="4.7305512428283691e-01" rms="5.1801520586013794e-01" purity="5.3132027387619019e-01" nType="0">
          <Node pos="l" depth="2" NCoef="0" IVar="-1" Cut="0.0000000000000000e+00" cType="1" res="2.8727205062750727e-05" rms="4.1577744483947754e-01" purity="7.9294490814208984e-01" nType="-99"/>
          <Node pos="r" depth="2" NCoef="0" IVar="-1" Cut="0.0000000000000000e+00" cType="1" res="-2.5358214043080807e-04" rms="3.1995025277137756e-01" purity="2.3012331128120422e-01" nType="-99"/>
        </Node>
        <Node pos="r" depth="1" NCoef="0" IVar="2" Cut="8.8949125000000000e+04" cType="1" res="2.1406718353018521e+32" rms="0.0000000000000000e+00" purity="4.1778296232223511e-01" nType="0">
          <Node pos="l" depth="2" NCoef="0" IVar="-1" Cut="0.0000000000000000e+00" cType="1" res="-1.2292581377550960e-03" rms="3.5033100843429565e-01" purity="3.7654536962509155e-01" nType="-99"/>
          <Node pos="r" depth="2" NCoef="0" IVar="-1" Cut="0.0000000000000000e+00" cType="1" res="3.9474313962273300e-04" rms="3.6355480551719666e-01" purity="4.2290648818016052e-01" nType="-99"/>
        </Node>
      </Node>
    </BinaryTree>
    <BinaryTree type="DecisionTree" boostWeight="1.0000000000000000e+00" itree="1193">
      <Node pos="s" depth="0" NCoef="0" IVar="3" Cut="8.9426570312500000e+04" cType="1" res="5.1962500810623169e-01" rms="4.9961471557617188e-01" purity="5.1962500810623169e-01" nType="0">
        <Node pos="l" depth="1" NCoef="0" IVar="3" Cut="8.8493039062500000e+04" cType="1" res="0.0000000000000000e+00" rms="3.9380068878006616e+19" purity="6.1455088853836060e-01" nType="0">
          <Node pos="l" depth="2" NCoef="0" IVar="-1" Cut="0.0000000000000000e+00" cType="1" res="2.1507323253899813e-04" rms="3.4615197777748108e-01" purity="4.0030431747436523e-01" nType="-99"/>
          <Node pos="r" depth="2" NCoef="0" IVar="-1" Cut="0.0000000000000000e+00" cType="1" res="2.4342865799553692e-05" rms="4.1615265607833862e-01" purity="8.3399772644042969e-01" nType="-99"/>
        </Node>
        <Node pos="r" depth="1" NCoef="0" IVar="0" Cut="3.0000000000000000e+00" cType="1" res="-4.7664964222349226e-04" rms="3.5220637917518616e-01" purity="3.8648432493209839e-01" nType="0">
          <Node pos="l" depth="2" NCoef="0" IVar="-1" Cut="0.0000000000000000e+00" cType="1" res="-2.3149217304307967e-04" rms="3.6172935366630554e-01" purity="3.0683815479278564e-01" nType="-99"/>
          <Node pos="r" depth="2" NCoef="0" IVar="-1" Cut="0.0000000000000000e+00" cType="1" res="1.2391677591949701e-03" rms="2.8012725710868835e-01" purity="9.1127699613571167e-01" nType="-99"/>
        </Node>
      </Node>
    </BinaryTree>
    <BinaryTree type="DecisionTree" boostWeight="1.0000000000000000e+00" itree="1194">
      <Node pos="s" depth="0" NCoef="0" IVar="4" Cut="8.2745929687500000e+04" cType="1" res="3.8146832585334778e-01" rms="4.8608899116516113e-01" purity="3.8180056214332581e-01" nType="0">
        <Node pos="l" depth="1" NCoef="0" IVar="0" Cut="3.0000000000000000e+00" cType="1" res="-6.7579583264887333e-03" rms="3.5434353351593018e-01" purity="3.3578020334243774e-01" nType="0">
          <Node pos="l" depth="2" NCoef="0" IVar="-1" Cut="0.0000000000000000e+00" cType="1" res="-6.4316223142668605e-04" rms="3.5993212461471558e-01" purity="2.6461863517761230e-01" nType="-99"/>
          <Node pos="r" depth="2" NCoef="0" IVar="-1" Cut="0.0000000000000000e+00" cType="1" res="9.6748420037329197e-04" rms="3.0563852190971375e-01" purity="8.9273083209991455e-01" nType="-99"/>
        </Node>
        <Node pos="r" depth="1" NCoef="0" IVar="-1" Cut="0.0000000000000000e+00" cType="1" res="7.7054242137819529e-04" rms="2.7291476726531982e-01" purity="9.1793435811996460e-01" nType="-99"/>
      </Node>
    </BinaryTree>
    <BinaryTree type="DecisionTree" boostWeight="1.0000000000000000e+00" itree="1195">
      <Node pos="s" depth="0" NCoef="0" IVar="2" Cut="9.1873148437500000e+04" cType="1" res="5.3684282302856445e-01" rms="4.9864074587821960e-01" purity="5.3684282302856445e-01" nType="0">
        <Node pos="l" depth="1" NCoef="0" IVar="3" Cut="9.6092335937500000e+04" cType="1" res="3.9203619956970215e-01" rms="4.8820468783378601e-01" purity="3.9203622937202454e-01" nType="0">
          <Node pos="l" depth="2" NCoef="0" IVar="-1" Cut="0.0000000000000000e+00" cType="1" res="3.4449003578629345e-05" rms="3.4380233287811279e-01" purity="3.8256105780601501e-01" nType="-99"/>
          <Node pos="r" depth="2" NCoef="0" IVar="-1" Cut="0.0000000000000000e+00" cType="1" res="8.1573775969445705e-04" rms="3.6825302243232727e-01" purity="4.6628394722938538e-01" nType="-99"/>
        </Node>
        <Node pos="r" depth="1" NCoef="0" IVar="2" Cut="9.2058906250000000e+04" cType="1" res="7.0561629533767700e-01" rms="4.5588251948356628e-01" purity="7.0606410503387451e-01" nType="0">
          <Node pos="l" depth="2" NCoef="0" IVar="-1" Cut="0.0000000000000000e+00" cType="1" res="2.1900026695220731e-05" rms="2.8403827548027039e-01" purity="9.3538707494735718e-01" nType="-99"/>
          <Node pos="r" depth="2" NCoef="0" IVar="-1" Cut="0.0000000000000000e+00" cType="1" res="-2.3027934730635025e-05" rms="3.5900145769119263e-01" purity="3.8840451836585999e-01" nType="-99"/>
        </Node>
      </Node>
    </BinaryTree>
    <BinaryTree type="DecisionTree" boostWeight="1.0000000000000000e+00" itree="1196">
      <Node pos="s" depth="0" NCoef="0" IVar="4" Cut="8.2526921875000000e+04" cType="1" res="3.7857717275619507e-01" rms="4.8544412851333618e-01" purity="3.7913420796394348e-01" nType="0">
        <Node pos="l" depth="1" NCoef="0" IVar="5" Cut="2.6272696875000000e+05" cType="1" res="3.3981510996818542e-01" rms="4.7402527928352356e-01" purity="3.4017431735992432e-01" nType="0">
          <Node pos="l" depth="2" NCoef="0" IVar="-1" Cut="0.0000000000000000e+00" cType="1" res="5.3317617857828736e-04" rms="3.2628348469734192e-01" purity="1.5881671011447906e-01" nType="-99"/>
          <Node pos="r" depth="2" NCoef="0" IVar="-1" Cut="0.0000000000000000e+00" cType="1" res="-6.9957820232957602e-04" rms="4.0056017041206360e-01" purity="5.8293962478637695e-01" nType="-99"/>
        </Node>
        <Node pos="r" depth="1" NCoef="0" IVar="-1" Cut="0.0000000000000000e+00" cType="1" res="6.4681092044338584e-04" rms="2.8650659322738647e-01" purity="9.0656381845474243e-01" nType="-99"/>
      </Node>
    </BinaryTree>
    <BinaryTree type="DecisionTree" boostWeight="1.0000000000000000e+00" itree="1197">
      <Node pos="s" depth="0" NCoef="0" IVar="3" Cut="9.8929703125000000e+04" cType="1" res="inf" rms="0.0000000000000000e+00" purity="3.8929131627082825e-01" nType="0">
        <Node pos="l" depth="1" NCoef="0" IVar="0" Cut="1.0000000000000000e+00" cType="1" res="5.5627748370170593e-03" rms="3.5424432158470154e-01" purity="3.8427197933197021e-01" nType="0">
          <Node pos="l" depth="2" NCoef="0" IVar="-1" Cut="0.0000000000000000e+00" cType="1" res="-7.4576860060915351e-04" rms="2.8869870305061340e-01" purity="1.3751858472824097e-01" nType="-99"/>
          <Node pos="r" depth="2" NCoef="0" IVar="-1" Cut="0.0000000000000000e+00" cType="1" res="4.2738602496683598e-04" rms="4.0162560343742371e-01" purity="5.9574943780899048e-01" nType="-99"/>
        </Node>
        <Node pos="r" depth="1" NCoef="0" IVar="-1" Cut="0.0000000000000000e+00" cType="1" res="1.1969509068876505e-03" rms="4.0565404295921326e-01" purity="5.1101034879684448e-01" nType="-99"/>
      </Node>
    </BinaryTree>
    <BinaryTree type="DecisionTree" boostWeight="1.0000000000000000e+00" itree="1198">
      <Node pos="s" depth="0" NCoef="0" IVar="0" Cut="4.0000000000000000e+00" cType="1" res="4.6773403882980347e-03" rms="3.5080757737159729e-01" purity="3.9521062374114990e-01" nType="0">
        <Node pos="l" depth="1" NCoef="0" IVar="4" Cut="7.5835773437500000e+04" cType="1" res="3.5867610573768616e-01" rms="4.7961187362670898e-01" purity="3.5878592729568481e-01" nType="0">
          <Node pos="l" depth="2" NCoef="0" IVar="-1" Cut="0.0000000000000000e+00" cType="1" res="-1.0721306171035394e-04" rms="3.6145707964897156e-01" purity="3.0856379866600037e-01" nType="-99"/>
          <Node pos="r" depth="2" NCoef="0" IVar="-1" Cut="0.0000000000000000e+00" cType="1" res="5.3338473662734032e-04" rms="3.0605342984199524e-01" purity="8.9077883958816528e-01" nType="-99"/>
        </Node>
        <Node pos="r" depth="1" NCoef="0" IVar="-1" Cut="0.0000000000000000e+00" cType="1" res="2.2866965446155518e-04" rms="2.2824211418628693e-01" purity="9.4574755430221558e-01" nType="-99"/>
      </Node>
    </BinaryTree>
    <BinaryTree type="DecisionTree" boostWeight="1.0000000000000000e+00" itree="1199">
      <Node pos="s" depth="0" NCoef="0" IVar="1" Cut="2.0309048437500000e+05" cType="1" res="5.3118449449539185e-01" rms="4.9915480613708496e-01" purity="5.3131246566772461e-01" nType="0">
        <Node pos="l" depth="1" NCoef="0" IVar="2" Cut="8.9609945312500000e+04" cType="1" res="2.8333866596221924e-01" rms="4.6582046151161194e-01" purity="7.2786182165145874e-01" nType="0">
          <Node pos="l" depth="2" NCoef="0" IVar="-1" Cut="0.0000000000000000e+00" cType="1" res="1.9736553440452553e-05" rms="2.9983973503112793e-01" purity="9.0740817785263062e-01" nType="-99"/>
          <Node pos="r" depth="2" NCoef="0" IVar="-1" Cut="0.0000000000000000e+00" cType="1" res="4.2353678145445883e-04" rms="3.2928252220153809e-01" purity="2.3835356533527374e-01" nType="-99"/>
        </Node>
        <Node pos="r" depth="1" NCoef="0" IVar="3" Cut="8.5171539062500000e+04" cType="1" res="4.2234337329864502e-01" rms="4.9413388967514038e-01" purity="4.2254218459129333e-01" nType="0">
          <Node pos="l" depth="2" NCoef="0" IVar="-1" Cut="0.0000000000000000e+00" cType="1" res="9.7580201691016555e-04" rms="3.6738055944442749e-01" purity="5.0401496887207031e-01" nType="-99"/>
          <Node pos="r" depth="2" NCoef="0" IVar="-1" Cut="0.0000000000000000e+00" cType="1" res="-1.2585893273353577e-04" rms="3.5482764244079590e-01" purity="4.1193822026252747e-01" nType="-99"/>
        </Node>
      </Node>
    </BinaryTree>
    <BinaryTree type="DecisionTree" boostWeight="1.0000000000000000e+00" itree="1200">
      <Node pos="s" depth="0" NCoef="0" IVar="0" Cut="1.0000000000000000e+00" cType="1" res="3.8108521699905396e-01" rms="4.9534991383552551e-01" purity="6.5862822532653809e-01" nType="0">
        <Node pos="l" depth="1" NCoef="0" IVar="4" Cut="1.9615392578125000e+04" cType="1" res="6.8569862842559814e-01" rms="4.6423703432083130e-01" purity="6.8569862842559814e-01" nType="0">
          <Node pos="l" depth="2" NCoef="0" IVar="-1" Cut="0.0000000000000000e+00" cType="1" res="3.7385858595371246e-03" rms="2.1975335478782654e-01" purity="5.1399227231740952e-02" nType="-99"/>
          <Node pos="r" depth="2" NCoef="0" IVar="-1" Cut="0.0000000000000000e+00" cType="1" res="1.9560478904168122e-05" rms="3.8796460628509521e-01" purity="8.4973514080047607e-01" nType="-99"/>
        </Node>
        <Node pos="r" depth="1" NCoef="0" IVar="2" Cut="9.2139484375000000e+04" cType="1" res="5.9455233812332153e-01" rms="4.9097847938537598e-01" purity="5.9455233812332153e-01" nType="0">
          <Node pos="l" depth="2" NCoef="0" IVar="-1" Cut="0.0000000000000000e+00" cType="1" res="7.5528846355155110e-04" rms="4.0586358308792114e-01" purity="5.9956640005111694e-01" nType="-99"/>
          <Node pos="r" depth="2" NCoef="0" IVar="-1" Cut="0.0000000000000000e+00" cType="1" res="-2.5357824051752687e-04" rms="3.9665418863296509e-01" purity="5.7802176475524902e-01" nType="-99"/>
        </Node>
      </Node>
    </BinaryTree>
    <BinaryTree type="DecisionTree" boostWeight="1.0000000000000000e+00" itree="1201">
      <Node pos="s" depth="0" NCoef="0" IVar="2" Cut="8.9637539062500000e+04" cType="1" res="6.6236144304275513e-01" rms="4.7308054566383362e-01" purity="6.6268098354339600e-01" nType="0">
        <Node pos="l" depth="1" NCoef="0" IVar="2" Cut="8.9227101562500000e+04" cType="1" res="8.5487496852874756e-01" rms="3.5222685337066650e-01" purity="8.5496437549591064e-01" nType="0">
          <Node pos="l" depth="2" NCoef="0" IVar="-1" Cut="0.0000000000000000e+00" cType="1" res="2.0502673578448594e-04" rms="3.7445247173309326e-01" purity="3.6032471060752869e-01" nType="-99"/>
          <Node pos="r" depth="2" NCoef="0" IVar="-1" Cut="0.0000000000000000e+00" cType="1" res="1.7828277123044245e-05" rms="2.3179569840431213e-01" purity="9.5711356401443481e-01" nType="-99"/>
        </Node>
        <Node pos="r" depth="1" NCoef="0" IVar="1" Cut="2.8936459375000000e+05" cType="1" res="4.8733574151992798e-01" rms="5.0015729665756226e-01" purity="4.8786446452140808e-01" nType="0">
          <Node pos="l" depth="2" NCoef="0" IVar="-1" Cut="0.0000000000000000e+00" cType="1" res="1.1350263957865536e-04" rms="3.4508645534515381e-01" purity="3.1746408343315125e-01" nType="-99"/>
          <Node pos="r" depth="2" NCoef="0" IVar="-1" Cut="0.0000000000000000e+00" cType="1" res="2.1419205950223841e-05" rms="5.0748831033706665e-01" purity="6.8599611520767212e-01" nType="-99"/>
        </Node>
      </Node>
    </BinaryTree>
    <BinaryTree type="DecisionTree" boostWeight="1.0000000000000000e+00" itree="1202">
      <Node pos="s" depth="0" NCoef="0" IVar="1" Cut="2.0040878125000000e+05" cType="1" res="4.9741598963737488e-01" rms="5.0025629997253418e-01" purity="4.9786996841430664e-01" nType="0">
        <Node pos="l" depth="1" NCoef="0" IVar="2" Cut="8.9674507812500000e+04" cType="1" res="6.5888082981109619e-01" rms="4.8944896459579468e-01" purity="7.0399171113967896e-01" nType="0">
          <Node pos="l" depth="2" NCoef="0" IVar="-1" Cut="0.0000000000000000e+00" cType="1" res="2.9047001589788124e-05" rms="3.1457003951072693e-01" purity="8.9558672904968262e-01" nType="-99"/>
          <Node pos="r" depth="2" NCoef="0" IVar="-1" Cut="0.0000000000000000e+00" cType="1" res="-1.6362157475668937e-04" rms="3.2539263367652893e-01" purity="2.3113967478275299e-01" nType="-99"/>
        </Node>
        <Node pos="r" depth="1" NCoef="0" IVar="4" Cut="7.7985195312500000e+04" cType="1" res="4.0866708755493164e-01" rms="4.9202755093574524e-01" purity="4.0931606292724609e-01" nType="0">
          <Node pos="l" depth="2" NCoef="0" IVar="-1" Cut="0.0000000000000000e+00" cType="1" res="-9.1020527179352939e-05" rms="3.6203664541244507e-01" purity="3.5913583636283875e-01" nType="-99"/>
          <Node pos="r" depth="2" NCoef="0" IVar="-1" Cut="0.0000000000000000e+00" cType="1" res="7.5653538806363940e-04" rms="2.7544713020324707e-01" purity="9.1668009757995605e-01" nType="-99"/>
        </Node>
      </Node>
    </BinaryTree>
    <BinaryTree type="DecisionTree" boostWeight="1.0000000000000000e+00" itree="1203">
      <Node pos="s" depth="0" NCoef="0" IVar="2" Cut="8.9603554687500000e+04" cType="1" res="5.3271573781967163e-01" rms="4.9892854690551758e-01" purity="5.3271573781967163e-01" nType="0">
        <Node pos="l" depth="1" NCoef="0" IVar="2" Cut="8.9260750000000000e+04" cType="1" res="7.5453799962997437e-01" rms="4.3036079406738281e-01" purity="7.5453799962997437e-01" nType="0">
          <Node pos="l" depth="2" NCoef="0" IVar="-1" Cut="0.0000000000000000e+00" cType="1" res="2.2673750936519355e-04" rms="3.5929867625236511e-01" purity="3.8450914621353149e-01" nType="-99"/>
          <Node pos="r" depth="2" NCoef="0" IVar="-1" Cut="0.0000000000000000e+00" cType="1" res="1.9761162548093125e-05" rms="3.0026772618293762e-01" purity="9.2528569698333740e-01" nType="-99"/>
        </Node>
        <Node pos="r" depth="1" NCoef="0" IVar="0" Cut="4.0000000000000000e+00" cType="1" res="7.9453382641077042e-03" rms="3.5250303149223328e-01" purity="3.9702302217483521e-01" nType="0">
          <Node pos="l" depth="2" NCoef="0" IVar="-1" Cut="0.0000000000000000e+00" cType="1" res="2.5526547688059509e-04" rms="3.5900890827178955e-01" purity="3.6155617237091064e-01" nType="-99"/>
          <Node pos="r" depth="2" NCoef="0" IVar="-1" Cut="0.0000000000000000e+00" cType="1" res="3.3112079836428165e-04" rms="2.2403815388679504e-01" purity="9.4779545068740845e-01" nType="-99"/>
        </Node>
      </Node>
    </BinaryTree>
    <BinaryTree type="DecisionTree" boostWeight="1.0000000000000000e+00" itree="1204">
      <Node pos="s" depth="0" NCoef="0" IVar="1" Cut="2.0175423437500000e+05" cType="1" res="4.4757747650146484e-01" rms="4.9741902947425842e-01" purity="4.4782140851020813e-01" nType="0">
        <Node pos="l" depth="1" NCoef="0" IVar="2" Cut="8.9654062500000000e+04" cType="1" res="4.7715425491333008e-01" rms="5.2394521236419678e-01" purity="5.5471354722976685e-01" nType="0">
          <Node pos="l" depth="2" NCoef="0" IVar="-1" Cut="0.0000000000000000e+00" cType="1" res="2.8801330699934624e-05" rms="4.0648591518402100e-01" purity="7.9683411121368408e-01" nType="-99"/>
          <Node pos="r" depth="2" NCoef="0" IVar="-1" Cut="0.0000000000000000e+00" cType="1" res="5.3153041517361999e-04" rms="3.3397036790847778e-01" purity="2.5058180093765259e-01" nType="-99"/>
        </Node>
        <Node pos="r" depth="1" NCoef="0" IVar="4" Cut="5.3544507812500000e+04" cType="1" res="4.1364929080009460e-01" rms="4.9271938204765320e-01" purity="4.1397044062614441e-01" nType="0">
          <Node pos="l" depth="2" NCoef="0" IVar="-1" Cut="0.0000000000000000e+00" cType="1" res="-3.7127796531422064e-05" rms="3.5950770974159241e-01" purity="3.2498979568481445e-01" nType="-99"/>
          <Node pos="r" depth="2" NCoef="0" IVar="-1" Cut="0.0000000000000000e+00" cType="1" res="6.5117276972159743e-04" rms="3.4609544277191162e-01" purity="8.4516507387161255e-01" nType="-99"/>
        </Node>
      </Node>
    </BinaryTree>
    <BinaryTree type="DecisionTree" boostWeight="1.0000000000000000e+00" itree="1205">
      <Node pos="s" depth="0" NCoef="0" IVar="1" Cut="1.9097787500000000e+05" cType="1" res="4.4529983401298523e-01" rms="4.9699887633323669e-01" purity="4.4529983401298523e-01" nType="0">
        <Node pos="l" depth="1" NCoef="0" IVar="4" Cut="2.1023498046875000e+04" cType="1" res="3.4710653126239777e-02" rms="2.2747093439102173e-01" purity="7.1032255887985229e-01" nType="0">
          <Node pos="l" depth="2" NCoef="0" IVar="-1" Cut="0.0000000000000000e+00" cType="1" res="1.6836205031722784e-03" rms="2.6526728272438049e-01" purity="1.0613837838172913e-01" nType="-99"/>
          <Node pos="r" depth="2" NCoef="0" IVar="-1" Cut="0.0000000000000000e+00" cType="1" res="2.8924869184265845e-05" rms="3.8728535175323486e-01" purity="8.6985379457473755e-01" nType="-99"/>
        </Node>
        <Node pos="r" depth="1" NCoef="0" IVar="4" Cut="3.6703898437500000e+04" cType="1" res="3.9495295286178589e-01" rms="4.8884057998657227e-01" purity="3.9495295286178589e-01" nType="0">
          <Node pos="l" depth="2" NCoef="0" IVar="-1" Cut="0.0000000000000000e+00" cType="1" res="-7.5581471901386976e-04" rms="3.3039382100105286e-01" purity="2.6701602339744568e-01" nType="-99"/>
          <Node pos="r" depth="2" NCoef="0" IVar="-1" Cut="0.0000000000000000e+00" cType="1" res="3.8323857006616890e-04" rms="3.9893054962158203e-01" purity="7.1306502819061279e-01" nType="-99"/>
        </Node>
      </Node>
    </BinaryTree>
    <BinaryTree type="DecisionTree" boostWeight="1.0000000000000000e+00" itree="1206">
      <Node pos="s" depth="0" NCoef="0" IVar="2" Cut="8.9687210937500000e+04" cType="1" res="5.8986991643905640e-01" rms="4.9185708165168762e-01" purity="5.8986991643905640e-01" nType="0">
        <Node pos="l" depth="1" NCoef="0" IVar="2" Cut="8.9278531250000000e+04" cType="1" res="8.1530791521072388e-01" rms="3.8804754614830017e-01" purity="8.1530791521072388e-01" nType="0">
          <Node pos="l" depth="2" NCoef="0" IVar="-1" Cut="0.0000000000000000e+00" cType="1" res="-5.9740594588220119e-04" rms="3.3929583430290222e-01" purity="3.7039467692375183e-01" nType="-99"/>
          <Node pos="r" depth="2" NCoef="0" IVar="-1" Cut="0.0000000000000000e+00" cType="1" res="1.8467238987796009e-05" rms="2.8259748220443726e-01" purity="9.4075161218643188e-01" nType="-99"/>
        </Node>
        <Node pos="r" depth="1" NCoef="0" IVar="3" Cut="9.7794812500000000e+04" cType="1" res="3.9037716388702393e-01" rms="4.8839661478996277e-01" purity="3.9099529385566711e-01" nType="0">
          <Node pos="l" depth="2" NCoef="0" IVar="-1" Cut="0.0000000000000000e+00" cType="1" res="8.6911146354395896e-05" rms="3.5142618417739868e-01" purity="3.8781580328941345e-01" nType="-99"/>
          <Node pos="r" depth="2" NCoef="0" IVar="-1" Cut="0.0000000000000000e+00" cType="1" res="1.1908711167052388e-03" rms="3.9561474323272705e-01" purity="4.5091810822486877e-01" nType="-99"/>
        </Node>
      </Node>
    </BinaryTree>
    <BinaryTree type="DecisionTree" boostWeight="1.0000000000000000e+00" itree="1207">
      <Node pos="s" depth="0" NCoef="0" IVar="0" Cut="4.0000000000000000e+00" cType="1" res="1.6493471339344978e-03" rms="3.5059207677841187e-01" purity="3.8724681735038757e-01" nType="0">
        <Node pos="l" depth="1" NCoef="0" IVar="2" Cut="9.2159414062500000e+04" cType="1" res="3.5141441226005554e-01" rms="4.7741210460662842e-01" purity="3.5141441226005554e-01" nType="0">
          <Node pos="l" depth="2" NCoef="0" IVar="-1" Cut="0.0000000000000000e+00" cType="1" res="2.5809693033806980e-04" rms="3.5953092575073242e-01" purity="3.5428258776664734e-01" nType="-99"/>
          <Node pos="r" depth="2" NCoef="0" IVar="-1" Cut="0.0000000000000000e+00" cType="1" res="-1.3109791325405240e-03" rms="3.4667783975601196e-01" purity="3.4200003743171692e-01" nType="-99"/>
        </Node>
        <Node pos="r" depth="1" NCoef="0" IVar="-1" Cut="0.0000000000000000e+00" cType="1" res="3.6125184851698577e-04" rms="2.2853016853332520e-01" purity="9.4518256187438965e-01" nType="-99"/>
      </Node>
    </BinaryTree>
    <BinaryTree type="DecisionTree" boostWeight="1.0000000000000000e+00" itree="1208">
      <Node pos="s" depth="0" NCoef="0" IVar="1" Cut="2.0208595312500000e+05" cType="1" res="4.9736630916595459e-01" rms="5.0036978721618652e-01" purity="4.9789345264434814e-01" nType="0">
        <Node pos="l" depth="1" NCoef="0" IVar="2" Cut="8.9653828125000000e+04" cType="1" res="6.4659106731414795e-01" rms="4.9168384075164795e-01" purity="6.8447256088256836e-01" nType="0">
          <Node pos="l" depth="2" NCoef="0" IVar="-1" Cut="0.0000000000000000e+00" cType="1" res="2.8940661650267430e-05" rms="3.2664373517036438e-01" purity="8.8703387975692749e-01" nType="-99"/>
          <Node pos="r" depth="2" NCoef="0" IVar="-1" Cut="0.0000000000000000e+00" cType="1" res="-7.8172248322516680e-04" rms="3.3353626728057861e-01" purity="2.1903370320796967e-01" nType="-99"/>
        </Node>
        <Node pos="r" depth="1" NCoef="0" IVar="4" Cut="3.6721250000000000e+04" cType="1" res="4.1410049796104431e-01" rms="4.9296832084655762e-01" purity="4.1471421718597412e-01" nType="0">
          <Node pos="l" depth="2" NCoef="0" IVar="-1" Cut="0.0000000000000000e+00" cType="1" res="-2.8421403840184212e-04" rms="3.4037011861801147e-01" purity="2.7882269024848938e-01" nType="-99"/>
          <Node pos="r" depth="2" NCoef="0" IVar="-1" Cut="0.0000000000000000e+00" cType="1" res="5.2395462989807129e-04" rms="3.9512631297111511e-01" purity="7.2762846946716309e-01" nType="-99"/>
        </Node>
      </Node>
    </BinaryTree>
    <BinaryTree type="DecisionTree" boostWeight="1.0000000000000000e+00" itree="1209">
      <Node pos="s" depth="0" NCoef="0" IVar="1" Cut="2.0256015625000000e+05" cType="1" res="0.0000000000000000e+00" rms="0.0000000000000000e+00" purity="5.6523054838180542e-01" nType="0">
        <Node pos="l" depth="1" NCoef="0" IVar="2" Cut="8.9600773437500000e+04" cType="1" res="4.2028263211250305e-01" rms="5.0639367103576660e-01" purity="7.8160583972930908e-01" nType="0">
          <Node pos="l" depth="2" NCoef="0" IVar="-1" Cut="0.0000000000000000e+00" cType="1" res="2.1567781004705466e-05" rms="2.5682461261749268e-01" purity="9.3296515941619873e-01" nType="-99"/>
          <Node pos="r" depth="2" NCoef="0" IVar="-1" Cut="0.0000000000000000e+00" cType="1" res="9.8108808742836118e-05" rms="3.2953187823295593e-01" purity="2.3218847811222076e-01" nType="-99"/>
        </Node>
        <Node pos="r" depth="1" NCoef="0" IVar="4" Cut="7.7944625000000000e+04" cType="1" res="4.1789695620536804e-01" rms="4.9387744069099426e-01" purity="4.1855278611183167e-01" nType="0">
          <Node pos="l" depth="2" NCoef="0" IVar="-1" Cut="0.0000000000000000e+00" cType="1" res="8.6853353423066437e-05" rms="3.6588776111602783e-01" purity="3.6762586236000061e-01" nType="-99"/>
          <Node pos="r" depth="2" NCoef="0" IVar="-1" Cut="0.0000000000000000e+00" cType="1" res="6.9883029209449887e-04" rms="2.7804508805274963e-01" purity="9.1357368230819702e-01" nType="-99"/>
        </Node>
      </Node>
    </BinaryTree>
    <BinaryTree type="DecisionTree" boostWeight="1.0000000000000000e+00" itree="1210">
      <Node pos="s" depth="0" NCoef="0" IVar="1" Cut="2.0337760937500000e+05" cType="1" res="5.3327882289886475e-01" rms="4.9911659955978394e-01" purity="5.3350371122360229e-01" nType="0">
        <Node pos="l" depth="1" NCoef="0" IVar="2" Cut="8.9595960937500000e+04" cType="1" res="2.7777132391929626e-01" rms="4.6758228540420532e-01" purity="7.2346144914627075e-01" nType="0">
          <Node pos="l" depth="2" NCoef="0" IVar="-1" Cut="0.0000000000000000e+00" cType="1" res="1.9699988115462475e-05" rms="2.9506143927574158e-01" purity="9.1010814905166626e-01" nType="-99"/>
          <Node pos="r" depth="2" NCoef="0" IVar="-1" Cut="0.0000000000000000e+00" cType="1" res="3.5339608439244330e-04" rms="3.3530497550964355e-01" purity="2.4529209733009338e-01" nType="-99"/>
        </Node>
        <Node pos="r" depth="1" NCoef="0" IVar="2" Cut="8.9246664062500000e+04" cType="1" res="4.2616435885429382e-01" rms="4.9487355351448059e-01" purity="4.2651590704917908e-01" nType="0">
          <Node pos="l" depth="2" NCoef="0" IVar="-1" Cut="0.0000000000000000e+00" cType="1" res="-9.9640886764973402e-04" rms="3.5006567835807800e-01" purity="3.9321130514144897e-01" nType="-99"/>
          <Node pos="r" depth="2" NCoef="0" IVar="-1" Cut="0.0000000000000000e+00" cType="1" res="6.4376048976555467e-04" rms="3.6235058307647705e-01" purity="4.3190577626228333e-01" nType="-99"/>
        </Node>
      </Node>
    </BinaryTree>
    <BinaryTree type="DecisionTree" boostWeight="1.0000000000000000e+00" itree="1211">
      <Node pos="s" depth="0" NCoef="0" IVar="0" Cut="1.0000000000000000e+00" cType="1" res="2.8600800037384033e-01" rms="4.9557086825370789e-01" purity="5.8790284395217896e-01" nType="0">
        <Node pos="l" depth="1" NCoef="0" IVar="4" Cut="1.9616960937500000e+04" cType="1" res="5.9284675121307373e-01" rms="4.9130386114120483e-01" purity="5.9284675121307373e-01" nType="0">
          <Node pos="l" depth="2" NCoef="0" IVar="-1" Cut="0.0000000000000000e+00" cType="1" res="1.2668090639635921e-03" rms="2.0387497544288635e-01" purity="4.4198658317327499e-02" nType="-99"/>
          <Node pos="r" depth="2" NCoef="0" IVar="-1" Cut="0.0000000000000000e+00" cType="1" res="1.9448905732133426e-05" rms="4.3895822763442993e-01" purity="7.9136955738067627e-01" nType="-99"/>
        </Node>
        <Node pos="r" depth="1" NCoef="0" IVar="5" Cut="2.3217467187500000e+05" cType="1" res="5.7876807451248169e-01" rms="4.9375659227371216e-01" purity="5.7876807451248169e-01" nType="0">
          <Node pos="l" depth="2" NCoef="0" IVar="-1" Cut="0.0000000000000000e+00" cType="1" res="-6.2918132171034813e-03" rms="3.7047240138053894e-01" purity="1.7142739892005920e-01" nType="-99"/>
          <Node pos="r" depth="2" NCoef="0" IVar="-1" Cut="0.0000000000000000e+00" cType="1" res="3.0358598451130092e-04" rms="4.0645581483840942e-01" purity="6.5136599540710449e-01" nType="-99"/>
        </Node>
      </Node>
    </BinaryTree>
    <BinaryTree type="DecisionTree" boostWeight="1.0000000000000000e+00" itree="1212">
      <Node pos="s" depth="0" NCoef="0" IVar="1" Cut="2.0341365625000000e+05" cType="1" res="4.4816607236862183e-01" rms="4.9738654494285583e-01" purity="4.4824621081352234e-01" nType="0">
        <Node pos="l" depth="1" NCoef="0" IVar="2" Cut="8.9600773437500000e+04" cType="1" res="4.6749696135520935e-01" rms="5.1614159345626831e-01" purity="5.3209680318832397e-01" nType="0">
          <Node pos="l" depth="2" NCoef="0" IVar="-1" Cut="0.0000000000000000e+00" cType="1" res="2.8769285563612357e-05" rms="4.1315987706184387e-01" purity="7.9594880342483521e-01" nType="-99"/>
          <Node pos="r" depth="2" NCoef="0" IVar="-1" Cut="0.0000000000000000e+00" cType="1" res="-4.6065391506999731e-04" rms="3.2376134395599365e-01" purity="2.2416231036186218e-01" nType="-99"/>
        </Node>
        <Node pos="r" depth="1" NCoef="0" IVar="0" Cut="4.0000000000000000e+00" cType="1" res="4.1614295914769173e-03" rms="3.5988840460777283e-01" purity="4.1990867257118225e-01" nType="0">
          <Node pos="l" depth="2" NCoef="0" IVar="-1" Cut="0.0000000000000000e+00" cType="1" res="3.0806138965999708e-05" rms="3.6797136068344116e-01" purity="3.8033995032310486e-01" nType="-99"/>
          <Node pos="r" depth="2" NCoef="0" IVar="-1" Cut="0.0000000000000000e+00" cType="1" res="3.5600180854089558e-04" rms="2.2035510838031769e-01" purity="9.4913929700851440e-01" nType="-99"/>
        </Node>
      </Node>
    </BinaryTree>
    <BinaryTree type="DecisionTree" boostWeight="1.0000000000000000e+00" itree="1213">
      <Node pos="s" depth="0" NCoef="0" IVar="1" Cut="1.8991192187500000e+05" cType="1" res="4.6015384793281555e-01" rms="4.9840974807739258e-01" purity="4.6015384793281555e-01" nType="0">
        <Node pos="l" depth="1" NCoef="0" IVar="-1" Cut="0.0000000000000000e+00" cType="1" res="2.8947297323611565e-05" rms="4.4172990322113037e-01" purity="7.3819941282272339e-01" nType="-99"/>
        <Node pos="r" depth="1" NCoef="0" IVar="4" Cut="3.5519035156250000e+04" cType="1" res="4.1097980737686157e-01" rms="4.9201157689094543e-01" purity="4.1097977757453918e-01" nType="0">
          <Node pos="l" depth="2" NCoef="0" IVar="-1" Cut="0.0000000000000000e+00" cType="1" res="1.1450124293332919e-04" rms="3.4077644348144531e-01" purity="2.6636880636215210e-01" nType="-99"/>
          <Node pos="r" depth="2" NCoef="0" IVar="-1" Cut="0.0000000000000000e+00" cType="1" res="4.2980239959433675e-04" rms="3.8923749327659607e-01" purity="7.2486835718154907e-01" nType="-99"/>
        </Node>
      </Node>
    </BinaryTree>
    <BinaryTree type="DecisionTree" boostWeight="1.0000000000000000e+00" itree="1214">
      <Node pos="s" depth="0" NCoef="0" IVar="4" Cut="7.0948406250000000e+04" cType="1" res="3.8837906718254089e-01" rms="4.8785150051116943e-01" purity="3.8901311159133911e-01" nType="0">
        <Node pos="l" depth="1" NCoef="0" IVar="4" Cut="3.7767371093750000e+04" cType="1" res="3.2863280177116394e-01" rms="4.6992054581642151e-01" purity="3.2882484793663025e-01" nType="0">
          <Node pos="l" depth="2" NCoef="0" IVar="-1" Cut="0.0000000000000000e+00" cType="1" res="-5.2854965906590223e-04" rms="3.3157095313072205e-01" purity="2.5851485133171082e-01" nType="-99"/>
          <Node pos="r" depth="2" NCoef="0" IVar="-1" Cut="0.0000000000000000e+00" cType="1" res="5.9133570175617933e-04" rms="4.4870975613594055e-01" purity="6.1944615840911865e-01" nType="-99"/>
        </Node>
        <Node pos="r" depth="1" NCoef="0" IVar="-1" Cut="0.0000000000000000e+00" cType="1" res="7.3758972575888038e-04" rms="2.8953951597213745e-01" purity="9.0401381254196167e-01" nType="-99"/>
      </Node>
    </BinaryTree>
    <BinaryTree type="DecisionTree" boostWeight="1.0000000000000000e+00" itree="1215">
      <Node pos="s" depth="0" NCoef="0" IVar="0" Cut="1.0000000000000000e+00" cType="1" res="1.8238213658332825e-01" rms="4.6957650780677795e-01" purity="5.1472473144531250e-01" nType="0">
        <Node pos="l" depth="1" NCoef="0" IVar="4" Cut="1.9682429687500000e+04" cType="1" res="4.6483358740806580e-01" rms="4.9876180291175842e-01" purity="4.6483355760574341e-01" nType="0">
          <Node pos="l" depth="2" NCoef="0" IVar="-1" Cut="0.0000000000000000e+00" cType="1" res="2.6092813350260258e-03" rms="2.1499073505401611e-01" purity="4.9425419420003891e-02" nType="-99"/>
          <Node pos="r" depth="2" NCoef="0" IVar="-1" Cut="0.0000000000000000e+00" cType="1" res="2.4225893866969272e-05" rms="4.9267059564590454e-01" purity="6.8904352188110352e-01" nType="-99"/>
        </Node>
        <Node pos="r" depth="1" NCoef="0" IVar="3" Cut="9.7085648437500000e+04" cType="1" res="5.8404308557510376e-01" rms="4.9288615584373474e-01" purity="5.8404302597045898e-01" nType="0">
          <Node pos="l" depth="2" NCoef="0" IVar="-1" Cut="0.0000000000000000e+00" cType="1" res="1.3932594447396696e-04" rms="3.9781486988067627e-01" purity="5.8620524406433105e-01" nType="-99"/>
          <Node pos="r" depth="2" NCoef="0" IVar="-1" Cut="0.0000000000000000e+00" cType="1" res="-2.5715010706335306e-03" rms="4.0476167201995850e-01" purity="5.5623733997344971e-01" nType="-99"/>
        </Node>
      </Node>
    </BinaryTree>
    <BinaryTree type="DecisionTree" boostWeight="1.0000000000000000e+00" itree="1216">
      <Node pos="s" depth="0" NCoef="0" IVar="5" Cut="1.8177712500000000e+05" cType="1" res="5.2227246761322021e-01" rms="4.9955353140830994e-01" purity="5.2236521244049072e-01" nType="0">
        <Node pos="l" depth="1" NCoef="0" IVar="2" Cut="8.9600671875000000e+04" cType="1" res="6.4880454540252686e-01" rms="4.7734391689300537e-01" purity="6.4880454540252686e-01" nType="0">
          <Node pos="l" depth="2" NCoef="0" IVar="-1" Cut="0.0000000000000000e+00" cType="1" res="1.9675440853461623e-05" rms="2.9732704162597656e-01" purity="8.8365626335144043e-01" nType="-99"/>
          <Node pos="r" depth="2" NCoef="0" IVar="-1" Cut="0.0000000000000000e+00" cType="1" res="4.1798272286541760e-04" rms="2.6391890645027161e-01" purity="9.0972676873207092e-02" nType="-99"/>
        </Node>
        <Node pos="r" depth="1" NCoef="0" IVar="2" Cut="8.8631773437500000e+04" cType="1" res="4.4633474946022034e-01" rms="4.9719181656837463e-01" purity="4.4648313522338867e-01" nType="0">
          <Node pos="l" depth="2" NCoef="0" IVar="-1" Cut="0.0000000000000000e+00" cType="1" res="1.4932124176993966e-03" rms="4.2476415634155273e-01" purity="4.6882927417755127e-01" nType="-99"/>
          <Node pos="r" depth="2" NCoef="0" IVar="-1" Cut="0.0000000000000000e+00" cType="1" res="-3.1667426810599864e-05" rms="3.6948931217193604e-01" purity="4.4412186741828918e-01" nType="-99"/>
        </Node>
      </Node>
    </BinaryTree>
    <BinaryTree type="DecisionTree" boostWeight="1.0000000000000000e+00" itree="1217">
      <Node pos="s" depth="0" NCoef="0" IVar="4" Cut="8.9619843750000000e+03" cType="1" res="3.8639074563980103e-01" rms="4.8728820681571960e-01" purity="3.8704764842987061e-01" nType="0">
        <Node pos="l" depth="1" NCoef="0" IVar="5" Cut="2.3687242187500000e+05" cType="1" res="1.2580105662345886e-01" rms="3.3162501454353333e-01" purity="1.2670372426509857e-01" nType="0">
          <Node pos="l" depth="2" NCoef="0" IVar="-1" Cut="0.0000000000000000e+00" cType="1" res="-5.2358317188918591e-03" rms="1.7333933711051941e-01" purity="3.2817397266626358e-02" nType="-99"/>
          <Node pos="r" depth="2" NCoef="0" IVar="-1" Cut="0.0000000000000000e+00" cType="1" res="-4.4125192798674107e-03" rms="3.3392229676246643e-01" purity="3.0945497751235962e-01" nType="-99"/>
        </Node>
        <Node pos="r" depth="1" NCoef="0" IVar="5" Cut="1.8902551562500000e+05" cType="1" res="4.3343955278396606e-01" rms="4.9581047892570496e-01" purity="4.3405207991600037e-01" nType="0">
          <Node pos="l" depth="2" NCoef="0" IVar="-1" Cut="0.0000000000000000e+00" cType="1" res="-1.4676573919132352e-03" rms="2.7667403221130371e-01" purity="1.0686690360307693e-01" nType="-99"/>
          <Node pos="r" depth="2" NCoef="0" IVar="-1" Cut="0.0000000000000000e+00" cType="1" res="4.5862179831601679e-04" rms="3.9215296506881714e-01" purity="5.1767277717590332e-01" nType="-99"/>
        </Node>
      </Node>
    </BinaryTree>
    <BinaryTree type="DecisionTree" boostWeight="1.0000000000000000e+00" itree="1218">
      <Node pos="s" depth="0" NCoef="0" IVar="2" Cut="9.1773078125000000e+04" cType="1" res="4.6149668097496033e-01" rms="4.9881878495216370e-01" purity="4.6179935336112976e-01" nType="0">
        <Node pos="l" depth="1" NCoef="0" IVar="5" Cut="2.1196645312500000e+05" cType="1" res="3.7326329946517944e-01" rms="4.8382425308227539e-01" purity="3.7365660071372986e-01" nType="0">
          <Node pos="l" depth="2" NCoef="0" IVar="-1" Cut="0.0000000000000000e+00" cType="1" res="-2.7883220463991165e-03" rms="2.6673233509063721e-01" purity="9.2036761343479156e-02" nType="-99"/>
          <Node pos="r" depth="2" NCoef="0" IVar="-1" Cut="0.0000000000000000e+00" cType="1" res="2.9390255804173648e-04" rms="3.9203143119812012e-01" purity="5.3175896406173706e-01" nType="-99"/>
        </Node>
        <Node pos="r" depth="1" NCoef="0" IVar="2" Cut="9.1967843750000000e+04" cType="1" res="5.8751970529556274e-01" rms="4.9267154932022095e-01" purity="5.8790463209152222e-01" nType="0">
          <Node pos="l" depth="2" NCoef="0" IVar="-1" Cut="0.0000000000000000e+00" cType="1" res="2.1923224267084152e-05" rms="3.7853980064392090e-01" purity="8.7219905853271484e-01" nType="-99"/>
          <Node pos="r" depth="2" NCoef="0" IVar="-1" Cut="0.0000000000000000e+00" cType="1" res="-3.6852346966043115e-04" rms="3.5459643602371216e-01" purity="3.7866204977035522e-01" nType="-99"/>
        </Node>
      </Node>
    </BinaryTree>
    <BinaryTree type="DecisionTree" boostWeight="1.0000000000000000e+00" itree="1219">
      <Node pos="s" depth="0" NCoef="0" IVar="0" Cut="1.0000000000000000e+00" cType="1" res="2.6931247115135193e-01" rms="4.8757478594779968e-01" purity="5.8314639329910278e-01" nType="0">
        <Node pos="l" depth="1" NCoef="0" IVar="4" Cut="1.9319617187500000e+04" cType="1" res="5.7579493522644043e-01" rms="4.9422174692153931e-01" purity="5.7579493522644043e-01" nType="0">
          <Node pos="l" depth="2" NCoef="0" IVar="-1" Cut="0.0000000000000000e+00" cType="1" res="3.5586520098149776e-03" rms="2.1401388943195343e-01" purity="4.8391364514827728e-02" nType="-99"/>
          <Node pos="r" depth="2" NCoef="0" IVar="-1" Cut="0.0000000000000000e+00" cType="1" res="2.0478639271459542e-05" rms="4.4752737879753113e-01" purity="7.7752214670181274e-01" nType="-99"/>
        </Node>
        <Node pos="r" depth="1" NCoef="0" IVar="2" Cut="9.2197625000000000e+04" cType="1" res="5.9565424919128418e-01" rms="4.9076497554779053e-01" purity="5.9565424919128418e-01" nType="0">
          <Node pos="l" depth="2" NCoef="0" IVar="-1" Cut="0.0000000000000000e+00" cType="1" res="3.5994962672702968e-04" rms="3.9546209573745728e-01" purity="6.0377746820449829e-01" nType="-99"/>
          <Node pos="r" depth="2" NCoef="0" IVar="-1" Cut="0.0000000000000000e+00" cType="1" res="-7.3135423008352518e-04" rms="3.9241293072700500e-01" purity="5.6586939096450806e-01" nType="-99"/>
        </Node>
      </Node>
    </BinaryTree>
    <BinaryTree type="DecisionTree" boostWeight="1.0000000000000000e+00" itree="1220">
      <Node pos="s" depth="0" NCoef="0" IVar="1" Cut="2.0309048437500000e+05" cType="1" res="5.8409297466278076e-01" rms="4.9322384595870972e-01" purity="5.8453953266143799e-01" nType="0">
        <Node pos="l" depth="1" NCoef="0" IVar="2" Cut="8.9723593750000000e+04" cType="1" res="2.0386734604835510e-01" rms="4.1977304220199585e-01" purity="8.0551111698150635e-01" nType="0">
          <Node pos="l" depth="2" NCoef="0" IVar="-1" Cut="0.0000000000000000e+00" cType="1" res="1.8553513655206189e-05" rms="2.4954889714717865e-01" purity="9.3710112571716309e-01" nType="-99"/>
          <Node pos="r" depth="2" NCoef="0" IVar="-1" Cut="0.0000000000000000e+00" cType="1" res="1.9494794541969895e-03" rms="3.4964910149574280e-01" purity="2.5899252295494080e-01" nType="-99"/>
        </Node>
        <Node pos="r" depth="1" NCoef="0" IVar="0" Cut="4.0000000000000000e+00" cType="1" res="8.8452867930755019e-04" rms="3.5878002643585205e-01" purity="4.0829664468765259e-01" nType="0">
          <Node pos="l" depth="2" NCoef="0" IVar="-1" Cut="0.0000000000000000e+00" cType="1" res="-1.1297042510705069e-04" rms="3.6576914787292480e-01" purity="3.7157392501831055e-01" nType="-99"/>
          <Node pos="r" depth="2" NCoef="0" IVar="-1" Cut="0.0000000000000000e+00" cType="1" res="3.2517389627173543e-04" rms="2.2853958606719971e-01" purity="9.4530278444290161e-01" nType="-99"/>
        </Node>
      </Node>
    </BinaryTree>
    <BinaryTree type="DecisionTree" boostWeight="1.0000000000000000e+00" itree="1221">
      <Node pos="s" depth="0" NCoef="0" IVar="5" Cut="1.6699128125000000e+05" cType="1" res="5.4415512084960938e-01" rms="4.9857029318809509e-01" purity="5.4467719793319702e-01" nType="0">
        <Node pos="l" depth="1" NCoef="0" IVar="4" Cut="1.8041974609375000e+04" cType="1" res="6.9814354181289673e-01" rms="4.5906332135200500e-01" purity="6.9814360141754150e-01" nType="0">
          <Node pos="l" depth="2" NCoef="0" IVar="-1" Cut="0.0000000000000000e+00" cType="1" res="-3.5404625814408064e-03" rms="1.4386853575706482e-01" purity="2.1022588014602661e-02" nType="-99"/>
          <Node pos="r" depth="2" NCoef="0" IVar="-1" Cut="0.0000000000000000e+00" cType="1" res="1.6680796761647798e-05" rms="3.3171364665031433e-01" purity="8.6560922861099243e-01" nType="-99"/>
        </Node>
        <Node pos="r" depth="1" NCoef="0" IVar="2" Cut="9.1773078125000000e+04" cType="1" res="5.0408512353897095e-01" rms="5.0064074993133545e-01" purity="5.0474298000335693e-01" nType="0">
          <Node pos="l" depth="2" NCoef="0" IVar="-1" Cut="0.0000000000000000e+00" cType="1" res="1.1586149776121601e-04" rms="3.6114111542701721e-01" purity="4.1930583119392395e-01" nType="-99"/>
          <Node pos="r" depth="2" NCoef="0" IVar="-1" Cut="0.0000000000000000e+00" cType="1" res="2.2232503397390246e-05" rms="5.0596994161605835e-01" purity="6.2313288450241089e-01" nType="-99"/>
        </Node>
      </Node>
    </BinaryTree>
    <BinaryTree type="DecisionTree" boostWeight="1.0000000000000000e+00" itree="1222">
      <Node pos="s" depth="0" NCoef="0" IVar="2" Cut="9.1862039062500000e+04" cType="1" res="0.0000000000000000e+00" rms="0.0000000000000000e+00" purity="4.7099453210830688e-01" nType="0">
        <Node pos="l" depth="1" NCoef="0" IVar="5" Cut="1.8177712500000000e+05" cType="1" res="3.8309794664382935e-01" rms="4.8638394474983215e-01" purity="3.8365235924720764e-01" nType="0">
          <Node pos="l" depth="2" NCoef="0" IVar="-1" Cut="0.0000000000000000e+00" cType="1" res="-4.5950277708470821e-03" rms="2.2545534372329712e-01" purity="6.4845219254493713e-02" nType="-99"/>
          <Node pos="r" depth="2" NCoef="0" IVar="-1" Cut="0.0000000000000000e+00" cType="1" res="3.9301801007241011e-04" rms="3.7304699420928955e-01" purity="4.5460581779479980e-01" nType="-99"/>
        </Node>
        <Node pos="r" depth="1" NCoef="0" IVar="2" Cut="9.2052507812500000e+04" cType="1" res="0.0000000000000000e+00" rms="7.7816903591156006e-01" purity="6.0617077350616455e-01" nType="0">
          <Node pos="l" depth="2" NCoef="0" IVar="-1" Cut="0.0000000000000000e+00" cType="1" res="2.1891630240133964e-05" rms="3.6650434136390686e-01" purity="8.8096648454666138e-01" nType="-99"/>
          <Node pos="r" depth="2" NCoef="0" IVar="-1" Cut="0.0000000000000000e+00" cType="1" res="-1.8158562306780368e-04" rms="3.4609249234199524e-01" purity="3.9813515543937683e-01" nType="-99"/>
        </Node>
      </Node>
    </BinaryTree>
    <BinaryTree type="DecisionTree" boostWeight="1.0000000000000000e+00" itree="1223">
      <Node pos="s" depth="0" NCoef="0" IVar="4" Cut="8.0294023437500000e+04" cType="1" res="3.7924486398696899e-01" rms="4.8544576764106750e-01" purity="3.7961342930793762e-01" nType="0">
        <Node pos="l" depth="1" NCoef="0" IVar="0" Cut="1.0000000000000000e+00" cType="1" res="-4.1212900541722775e-03" rms="3.5491269826889038e-01" purity="3.3808618783950806e-01" nType="0">
          <Node pos="l" depth="2" NCoef="0" IVar="-1" Cut="0.0000000000000000e+00" cType="1" res="-1.6395128332078457e-03" rms="2.8171420097351074e-01" purity="1.0250966995954514e-01" nType="-99"/>
          <Node pos="r" depth="2" NCoef="0" IVar="-1" Cut="0.0000000000000000e+00" cType="1" res="2.7765159029513597e-04" rms="4.1004514694213867e-01" purity="5.5263078212738037e-01" nType="-99"/>
        </Node>
        <Node pos="r" depth="1" NCoef="0" IVar="-1" Cut="0.0000000000000000e+00" cType="1" res="5.6110444711521268e-04" rms="2.9587900638580322e-01" purity="9.0126740932464600e-01" nType="-99"/>
      </Node>
    </BinaryTree>
    <BinaryTree type="DecisionTree" boostWeight="1.0000000000000000e+00" itree="1224">
      <Node pos="s" depth="0" NCoef="0" IVar="3" Cut="9.5950398437500000e+04" cType="1" res="4.8503252863883972e-01" rms="4.9988716840744019e-01" purity="4.8526835441589355e-01" nType="0">
        <Node pos="l" depth="1" NCoef="0" IVar="4" Cut="7.8737789062500000e+04" cType="1" res="3.8148584961891174e-01" rms="4.8618876934051514e-01" purity="3.8206434249877930e-01" nType="0">
          <Node pos="l" depth="2" NCoef="0" IVar="-1" Cut="0.0000000000000000e+00" cType="1" res="-7.5765557994600385e-05" rms="3.5281220078468323e-01" purity="3.3768871426582336e-01" nType="-99"/>
          <Node pos="r" depth="2" NCoef="0" IVar="-1" Cut="0.0000000000000000e+00" cType="1" res="7.0675386814400554e-04" rms="2.8671175241470337e-01" purity="9.0668547153472900e-01" nType="-99"/>
        </Node>
        <Node pos="r" depth="1" NCoef="0" IVar="3" Cut="9.6694757812500000e+04" cType="1" res="7.7669161558151245e-01" rms="4.1646337509155273e-01" purity="7.7694022655487061e-01" nType="0">
          <Node pos="l" depth="2" NCoef="0" IVar="-1" Cut="0.0000000000000000e+00" cType="1" res="1.6794669136288576e-05" rms="3.1893387436866760e-01" purity="9.1716772317886353e-01" nType="-99"/>
          <Node pos="r" depth="2" NCoef="0" IVar="-1" Cut="0.0000000000000000e+00" cType="1" res="1.0560565860942006e-03" rms="3.9303001761436462e-01" purity="4.7186404466629028e-01" nType="-99"/>
        </Node>
      </Node>
    </BinaryTree>
    <BinaryTree type="DecisionTree" boostWeight="1.0000000000000000e+00" itree="1225">
      <Node pos="s" depth="0" NCoef="0" IVar="2" Cut="8.9637539062500000e+04" cType="1" res="6.2115412950515747e-01" rms="4.8530071973800659e-01" purity="6.2139797210693359e-01" nType="0">
        <Node pos="l" depth="1" NCoef="0" IVar="2" Cut="8.9227101562500000e+04" cType="1" res="8.4887897968292236e-01" rms="3.5816681385040283e-01" purity="8.4897625446319580e-01" nType="0">
          <Node pos="l" depth="2" NCoef="0" IVar="-1" Cut="0.0000000000000000e+00" cType="1" res="4.4673462980426848e-04" rms="3.5798734426498413e-01" purity="4.0017125010490417e-01" nType="-99"/>
          <Node pos="r" depth="2" NCoef="0" IVar="-1" Cut="0.0000000000000000e+00" cType="1" res="2.0140783817623742e-05" rms="2.4253556132316589e-01" purity="9.5561993122100830e-01" nType="-99"/>
        </Node>
        <Node pos="r" depth="1" NCoef="0" IVar="4" Cut="6.9479867187500000e+04" cType="1" res="3.9289328455924988e-01" rms="4.8879325389862061e-01" purity="3.9328399300575256e-01" nType="0">
          <Node pos="l" depth="2" NCoef="0" IVar="-1" Cut="0.0000000000000000e+00" cType="1" res="2.0226600463502109e-04" rms="3.6311653256416321e-01" purity="3.3747836947441101e-01" nType="-99"/>
          <Node pos="r" depth="2" NCoef="0" IVar="-1" Cut="0.0000000000000000e+00" cType="1" res="5.6962744565680623e-04" rms="3.0200514197349548e-01" purity="8.9267605543136597e-01" nType="-99"/>
        </Node>
      </Node>
    </BinaryTree>
    <BinaryTree type="DecisionTree" boostWeight="1.0000000000000000e+00" itree="1226">
      <Node pos="s" depth="0" NCoef="0" IVar="1" Cut="2.0208595312500000e+05" cType="1" res="4.9264416098594666e-01" rms="5.0011992454528809e-01" purity="4.9299159646034241e-01" nType="0">
        <Node pos="l" depth="1" NCoef="0" IVar="2" Cut="8.9655093750000000e+04" cType="1" res="6.3789749145507812e-01" rms="4.9674132466316223e-01" purity="6.7889344692230225e-01" nType="0">
          <Node pos="l" depth="2" NCoef="0" IVar="-1" Cut="0.0000000000000000e+00" cType="1" res="2.9446278858813457e-05" rms="3.3501607179641724e-01" purity="8.8210964202880859e-01" nType="-99"/>
          <Node pos="r" depth="2" NCoef="0" IVar="-1" Cut="0.0000000000000000e+00" cType="1" res="7.7741453424096107e-04" rms="3.3212473988533020e-01" purity="2.2994270920753479e-01" nType="-99"/>
        </Node>
        <Node pos="r" depth="1" NCoef="0" IVar="0" Cut="3.0000000000000000e+00" cType="1" res="-4.0235859341919422e-03" rms="3.5682514309883118e-01" purity="4.0682345628738403e-01" nType="0">
          <Node pos="l" depth="2" NCoef="0" IVar="-1" Cut="0.0000000000000000e+00" cType="1" res="-4.5608557411469519e-04" rms="3.6669060587882996e-01" purity="3.2625019550323486e-01" nType="-99"/>
          <Node pos="r" depth="2" NCoef="0" IVar="-1" Cut="0.0000000000000000e+00" cType="1" res="1.4230434317141771e-03" rms="2.8585267066955566e-01" purity="9.0821093320846558e-01" nType="-99"/>
        </Node>
      </Node>
    </BinaryTree>
    <BinaryTree type="DecisionTree" boostWeight="1.0000000000000000e+00" itree="1227">
      <Node pos="s" depth="0" NCoef="0" IVar="0" Cut="1.0000000000000000e+00" cType="1" res="2.6841911673545837e-01" rms="4.8945569992065430e-01" purity="5.7825678586959839e-01" nType="0">
        <Node pos="l" depth="1" NCoef="0" IVar="4" Cut="1.9321152343750000e+04" cType="1" res="5.7230061292648315e-01" rms="4.9474501609802246e-01" purity="5.7230061292648315e-01" nType="0">
          <Node pos="l" depth="2" NCoef="0" IVar="-1" Cut="0.0000000000000000e+00" cType="1" res="-2.0815423340536654e-05" rms="1.9649183750152588e-01" purity="4.0734827518463135e-02" nType="-99"/>
          <Node pos="r" depth="2" NCoef="0" IVar="-1" Cut="0.0000000000000000e+00" cType="1" res="2.0693156329798512e-05" rms="4.4928863644599915e-01" purity="7.7234870195388794e-01" nType="-99"/>
        </Node>
        <Node pos="r" depth="1" NCoef="0" IVar="5" Cut="4.3223931250000000e+05" cType="1" res="0.0000000000000000e+00" rms="7.6618587970733643e-01" purity="5.8847451210021973e-01" nType="0">
          <Node pos="l" depth="2" NCoef="0" IVar="-1" Cut="0.0000000000000000e+00" cType="1" res="-9.5519775641150773e-05" rms="4.2887201905250549e-01" purity="4.4890451431274414e-01" nType="-99"/>
          <Node pos="r" depth="2" NCoef="0" IVar="-1" Cut="0.0000000000000000e+00" cType="1" res="9.6842407947406173e-04" rms="3.3634755015373230e-01" purity="8.3829325437545776e-01" nType="-99"/>
        </Node>
      </Node>
    </BinaryTree>
    <BinaryTree type="DecisionTree" boostWeight="1.0000000000000000e+00" itree="1228">
      <Node pos="s" depth="0" NCoef="0" IVar="3" Cut="8.9426242187500000e+04" cType="1" res="5.2528220415115356e-01" rms="4.9936041235923767e-01" purity="5.2528220415115356e-01" nType="0">
        <Node pos="l" depth="1" NCoef="0" IVar="3" Cut="8.8492710937500000e+04" cType="1" res="6.1571991443634033e-01" rms="4.8642462491989136e-01" purity="6.1571985483169556e-01" nType="0">
          <Node pos="l" depth="2" NCoef="0" IVar="-1" Cut="0.0000000000000000e+00" cType="1" res="1.2321092071942985e-04" rms="3.4255883097648621e-01" purity="4.0102177858352661e-01" nType="-99"/>
          <Node pos="r" depth="2" NCoef="0" IVar="-1" Cut="0.0000000000000000e+00" cType="1" res="2.4673570806044154e-05" rms="4.1873624920845032e-01" purity="8.3064728975296021e-01" nType="-99"/>
        </Node>
        <Node pos="r" depth="1" NCoef="0" IVar="3" Cut="9.8943859375000000e+04" cType="1" res="4.0103006362915039e-01" rms="4.9063935875892639e-01" purity="4.0155211091041565e-01" nType="0">
          <Node pos="l" depth="2" NCoef="0" IVar="-1" Cut="0.0000000000000000e+00" cType="1" res="2.6436071493662894e-04" rms="3.5335943102836609e-01" purity="3.8973855972290039e-01" nType="-99"/>
          <Node pos="r" depth="2" NCoef="0" IVar="-1" Cut="0.0000000000000000e+00" cType="1" res="1.2512722751125693e-03" rms="4.0098154544830322e-01" purity="5.4524385929107666e-01" nType="-99"/>
        </Node>
      </Node>
    </BinaryTree>
    <BinaryTree type="DecisionTree" boostWeight="1.0000000000000000e+00" itree="1229">
      <Node pos="s" depth="0" NCoef="0" IVar="3" Cut="8.9426546875000000e+04" cType="1" res="5.2085322141647339e-01" rms="4.9966225028038025e-01" purity="5.2095043659210205e-01" nType="0">
        <Node pos="l" depth="1" NCoef="0" IVar="3" Cut="8.8493062500000000e+04" cType="1" res="6.1168885231018066e-01" rms="4.8744282126426697e-01" purity="6.1176377534866333e-01" nType="0">
          <Node pos="l" depth="2" NCoef="0" IVar="-1" Cut="0.0000000000000000e+00" cType="1" res="2.0046427380293608e-04" rms="3.5319864749908447e-01" purity="3.9084970951080322e-01" nType="-99"/>
          <Node pos="r" depth="2" NCoef="0" IVar="-1" Cut="0.0000000000000000e+00" cType="1" res="2.4667100660735741e-05" rms="4.1466218233108521e-01" purity="8.3603250980377197e-01" nType="-99"/>
        </Node>
        <Node pos="r" depth="1" NCoef="0" IVar="5" Cut="2.1379004687500000e+05" cType="1" res="3.9358651638031006e-01" rms="4.8901060223579407e-01" purity="3.9417010545730591e-01" nType="0">
          <Node pos="l" depth="2" NCoef="0" IVar="-1" Cut="0.0000000000000000e+00" cType="1" res="-2.6554660871624947e-03" rms="2.5334146618843079e-01" purity="9.0241529047489166e-02" nType="-99"/>
          <Node pos="r" depth="2" NCoef="0" IVar="-1" Cut="0.0000000000000000e+00" cType="1" res="2.4889994529075921e-04" rms="3.8322263956069946e-01" purity="5.4444855451583862e-01" nType="-99"/>
        </Node>
      </Node>
    </BinaryTree>
    <BinaryTree type="DecisionTree" boostWeight="1.0000000000000000e+00" itree="1230">
      <Node pos="s" depth="0" NCoef="0" IVar="3" Cut="8.9426804687500000e+04" cType="1" res="5.2016520500183105e-01" rms="4.9959319829940796e-01" purity="5.2016520500183105e-01" nType="0">
        <Node pos="l" depth="1" NCoef="0" IVar="3" Cut="8.8493195312500000e+04" cType="1" res="6.1550414562225342e-01" rms="4.8647588491439819e-01" purity="6.1550414562225342e-01" nType="0">
          <Node pos="l" depth="2" NCoef="0" IVar="-1" Cut="0.0000000000000000e+00" cType="1" res="2.4937101989053190e-04" rms="3.4570711851119995e-01" purity="4.0109753608703613e-01" nType="-99"/>
          <Node pos="r" depth="2" NCoef="0" IVar="-1" Cut="0.0000000000000000e+00" cType="1" res="2.4730657969485037e-05" rms="4.1709715127944946e-01" purity="8.3350330591201782e-01" nType="-99"/>
        </Node>
        <Node pos="r" depth="1" NCoef="0" IVar="5" Cut="2.7551734375000000e+05" cType="1" res="3.8486900925636292e-01" rms="4.8656433820724487e-01" purity="3.8486900925636292e-01" nType="0">
          <Node pos="l" depth="2" NCoef="0" IVar="-1" Cut="0.0000000000000000e+00" cType="1" res="7.8538106754422188e-04" rms="3.3930870890617371e-01" purity="1.9209031760692596e-01" nType="-99"/>
          <Node pos="r" depth="2" NCoef="0" IVar="-1" Cut="0.0000000000000000e+00" cType="1" res="-5.1614706171676517e-04" rms="3.7977096438407898e-01" purity="6.4176100492477417e-01" nType="-99"/>
        </Node>
      </Node>
    </BinaryTree>
    <BinaryTree type="DecisionTree" boostWeight="1.0000000000000000e+00" itree="1231">
      <Node pos="s" depth="0" NCoef="0" IVar="5" Cut="2.5844129687500000e+05" cType="1" res="3.8051739335060120e-01" rms="4.8551407456398010e-01" purity="3.8051739335060120e-01" nType="0">
        <Node pos="l" depth="1" NCoef="0" IVar="5" Cut="2.4397123437500000e+05" cType="1" res="1.7457263171672821e-01" rms="3.7960115075111389e-01" purity="1.7457263171672821e-01" nType="0">
          <Node pos="l" depth="2" NCoef="0" IVar="-1" Cut="0.0000000000000000e+00" cType="1" res="3.1135758035816252e-04" rms="3.1223380565643311e-01" purity="1.5510602295398712e-01" nType="-99"/>
          <Node pos="r" depth="2" NCoef="0" IVar="-1" Cut="0.0000000000000000e+00" cType="1" res="1.9112686859443784e-03" rms="4.3919998407363892e-01" purity="3.7217763066291809e-01" nType="-99"/>
        </Node>
        <Node pos="r" depth="1" NCoef="0" IVar="0" Cut="1.0000000000000000e+00" cType="1" res="-1.2101804837584496e-02" rms="3.8480359315872192e-01" purity="6.1960268020629883e-01" nType="0">
          <Node pos="l" depth="2" NCoef="0" IVar="-1" Cut="0.0000000000000000e+00" cType="1" res="-2.3100541438907385e-03" rms="3.1389492750167847e-01" purity="2.1901424229145050e-01" nType="-99"/>
          <Node pos="r" depth="2" NCoef="0" IVar="-1" Cut="0.0000000000000000e+00" cType="1" res="9.3621047199121676e-06" rms="3.9475294947624207e-01" purity="6.9055044651031494e-01" nType="-99"/>
        </Node>
      </Node>
    </BinaryTree>
    <BinaryTree type="DecisionTree" boostWeight="1.0000000000000000e+00" itree="1232">
      <Node pos="s" depth="0" NCoef="0" IVar="1" Cut="2.0256015625000000e+05" cType="1" res="5.2209210395812988e-01" rms="4.9965786933898926e-01" purity="5.2229833602905273e-01" nType="0">
        <Node pos="l" depth="1" NCoef="0" IVar="2" Cut="8.9675773437500000e+04" cType="1" res="2.7972486615180969e-01" rms="4.6342790126800537e-01" purity="7.2469222545623779e-01" nType="0">
          <Node pos="l" depth="2" NCoef="0" IVar="-1" Cut="0.0000000000000000e+00" cType="1" res="2.0163042790954933e-05" rms="2.9633545875549316e-01" purity="9.0852296352386475e-01" nType="-99"/>
          <Node pos="r" depth="2" NCoef="0" IVar="-1" Cut="0.0000000000000000e+00" cType="1" res="-1.1683944612741470e-03" rms="3.2032352685928345e-01" purity="2.0943762362003326e-01" nType="-99"/>
        </Node>
        <Node pos="r" depth="1" NCoef="0" IVar="1" Cut="2.8647287500000000e+05" cType="1" res="4.1026535630226135e-01" rms="4.9196490645408630e-01" purity="4.1044059395790100e-01" nType="0">
          <Node pos="l" depth="2" NCoef="0" IVar="-1" Cut="0.0000000000000000e+00" cType="1" res="6.2403758056461811e-04" rms="3.5924312472343445e-01" purity="3.4897559881210327e-01" nType="-99"/>
          <Node pos="r" depth="2" NCoef="0" IVar="-1" Cut="0.0000000000000000e+00" cType="1" res="-9.1909855837002397e-04" rms="3.5691398382186890e-01" purity="4.9459686875343323e-01" nType="-99"/>
        </Node>
      </Node>
    </BinaryTree>
    <BinaryTree type="DecisionTree" boostWeight="1.0000000000000000e+00" itree="1233">
      <Node pos="s" depth="0" NCoef="0" IVar="1" Cut="1.9097787500000000e+05" cType="1" res="5.5380284786224365e-01" rms="4.9709683656692505e-01" purity="5.5380290746688843e-01" nType="0">
        <Node pos="l" depth="1" NCoef="0" IVar="4" Cut="2.1087853515625000e+04" cType="1" res="2.0552519708871841e-02" rms="1.6843737661838531e-01" purity="8.2239502668380737e-01" nType="0">
          <Node pos="l" depth="2" NCoef="0" IVar="-1" Cut="0.0000000000000000e+00" cType="1" res="6.9939473178237677e-04" rms="2.6237365603446960e-01" purity="1.0862104594707489e-01" nType="-99"/>
          <Node pos="r" depth="2" NCoef="0" IVar="-1" Cut="0.0000000000000000e+00" cType="1" res="2.9413580705295317e-05" rms="2.9472798109054565e-01" purity="9.2948335409164429e-01" nType="-99"/>
        </Node>
        <Node pos="r" depth="1" NCoef="0" IVar="2" Cut="9.1847968750000000e+04" cType="1" res="4.8345607519149780e-01" rms="4.9972623586654663e-01" purity="4.8345607519149780e-01" nType="0">
          <Node pos="l" depth="2" NCoef="0" IVar="-1" Cut="0.0000000000000000e+00" cType="1" res="8.0857120337896049e-05" rms="3.5173532366752625e-01" purity="3.9437162876129150e-01" nType="-99"/>
          <Node pos="r" depth="2" NCoef="0" IVar="-1" Cut="0.0000000000000000e+00" cType="1" res="2.2261716367211193e-05" rms="5.0410920381546021e-01" purity="6.1245948076248169e-01" nType="-99"/>
        </Node>
      </Node>
    </BinaryTree>
    <BinaryTree type="DecisionTree" boostWeight="1.0000000000000000e+00" itree="1234">
      <Node pos="s" depth="0" NCoef="0" IVar="5" Cut="2.1293137500000000e+05" cType="1" res="0.0000000000000000e+00" rms="6.2323707342147827e-01" purity="3.8842442631721497e-01" nType="0">
        <Node pos="l" depth="1" NCoef="0" IVar="3" Cut="8.7297593750000000e+04" cType="1" res="1.0213091969490051e-01" rms="3.0282038450241089e-01" purity="1.0215493291616440e-01" nType="0">
          <Node pos="l" depth="2" NCoef="0" IVar="-1" Cut="0.0000000000000000e+00" cType="1" res="-6.6481018438935280e-03" rms="2.2253757715225220e-01" purity="7.9108901321887970e-02" nType="-99"/>
          <Node pos="r" depth="2" NCoef="0" IVar="-1" Cut="0.0000000000000000e+00" cType="1" res="-3.4705834696069360e-04" rms="2.8677377104759216e-01" purity="1.1024095863103867e-01" nType="-99"/>
        </Node>
        <Node pos="r" depth="1" NCoef="0" IVar="4" Cut="9.2100839843750000e+03" cType="1" res="5.4678046703338623e-01" rms="4.9812528491020203e-01" purity="5.4709768295288086e-01" nType="0">
          <Node pos="l" depth="2" NCoef="0" IVar="-1" Cut="0.0000000000000000e+00" cType="1" res="-2.7463450096547604e-03" rms="3.1049376726150513e-01" purity="2.7811533212661743e-01" nType="-99"/>
          <Node pos="r" depth="2" NCoef="0" IVar="-1" Cut="0.0000000000000000e+00" cType="1" res="6.0123438015580177e-04" rms="3.9657118916511536e-01" purity="5.8158361911773682e-01" nType="-99"/>
        </Node>
      </Node>
    </BinaryTree>
    <BinaryTree type="DecisionTree" boostWeight="1.0000000000000000e+00" itree="1235">
      <Node pos="s" depth="0" NCoef="0" IVar="2" Cut="9.1849609375000000e+04" cType="1" res="5.3441596031188965e-01" rms="4.9898433685302734e-01" purity="5.3458583354949951e-01" nType="0">
        <Node pos="l" depth="1" NCoef="0" IVar="0" Cut="1.0000000000000000e+00" cType="1" res="4.8758452758193016e-03" rms="3.5323324799537659e-01" purity="3.8482204079627991e-01" nType="0">
          <Node pos="l" depth="2" NCoef="0" IVar="-1" Cut="0.0000000000000000e+00" cType="1" res="-4.8028209130279720e-04" rms="2.8324094414710999e-01" purity="1.4131887257099152e-01" nType="-99"/>
          <Node pos="r" depth="2" NCoef="0" IVar="-1" Cut="0.0000000000000000e+00" cType="1" res="5.4532859940081835e-04" rms="4.0340518951416016e-01" purity="5.9366858005523682e-01" nType="-99"/>
        </Node>
        <Node pos="r" depth="1" NCoef="0" IVar="2" Cut="9.2047007812500000e+04" cType="1" res="0.0000000000000000e+00" rms="0.0000000000000000e+00" purity="7.0454967021942139e-01" nType="0">
          <Node pos="l" depth="2" NCoef="0" IVar="-1" Cut="0.0000000000000000e+00" cType="1" res="2.2036874725017697e-05" rms="2.9424762725830078e-01" purity="9.3029785156250000e-01" nType="-99"/>
          <Node pos="r" depth="2" NCoef="0" IVar="-1" Cut="0.0000000000000000e+00" cType="1" res="1.5399866970255971e-04" rms="3.6719542741775513e-01" purity="3.9406985044479370e-01" nType="-99"/>
        </Node>
      </Node>
    </BinaryTree>
    <BinaryTree type="DecisionTree" boostWeight="1.0000000000000000e+00" itree="1236">
      <Node pos="s" depth="0" NCoef="0" IVar="3" Cut="9.5950390625000000e+04" cType="1" res="4.7951909899711609e-01" rms="4.9975371360778809e-01" purity="4.7969236969947815e-01" nType="0">
        <Node pos="l" depth="1" NCoef="0" IVar="0" Cut="1.0000000000000000e+00" cType="1" res="-2.2875478025525808e-03" rms="3.4427508711814880e-01" purity="3.7749603390693665e-01" nType="0">
          <Node pos="l" depth="2" NCoef="0" IVar="-1" Cut="0.0000000000000000e+00" cType="1" res="-1.0611037723720074e-03" rms="2.7311438322067261e-01" purity="1.3420777022838593e-01" nType="-99"/>
          <Node pos="r" depth="2" NCoef="0" IVar="-1" Cut="0.0000000000000000e+00" cType="1" res="2.7663397486321628e-04" rms="3.9611226320266724e-01" purity="5.9219348430633545e-01" nType="-99"/>
        </Node>
        <Node pos="r" depth="1" NCoef="0" IVar="3" Cut="9.6731968750000000e+04" cType="1" res="7.6747757196426392e-01" rms="4.2273521423339844e-01" purity="7.6772689819335938e-01" nType="0">
          <Node pos="l" depth="2" NCoef="0" IVar="-1" Cut="0.0000000000000000e+00" cType="1" res="1.6929465346038342e-05" rms="3.1869575381278992e-01" purity="9.1572630405426025e-01" nType="-99"/>
          <Node pos="r" depth="2" NCoef="0" IVar="-1" Cut="0.0000000000000000e+00" cType="1" res="2.2620141680818051e-04" rms="3.7704047560691833e-01" purity="4.3734669685363770e-01" nType="-99"/>
        </Node>
      </Node>
    </BinaryTree>
    <BinaryTree type="DecisionTree" boostWeight="1.0000000000000000e+00" itree="1237">
      <Node pos="s" depth="0" NCoef="0" IVar="1" Cut="1.8991192187500000e+05" cType="1" res="4.4837936758995056e-01" rms="4.9732816219329834e-01" purity="4.4837933778762817e-01" nType="0">
        <Node pos="l" depth="1" NCoef="0" IVar="-1" Cut="0.0000000000000000e+00" cType="1" res="2.9507193175959401e-05" rms="4.4591104984283447e-01" purity="7.3023581504821777e-01" nType="-99"/>
        <Node pos="r" depth="1" NCoef="0" IVar="5" Cut="2.5816342187500000e+05" cType="1" res="3.9752677083015442e-01" rms="4.8938658833503723e-01" purity="3.9752677083015442e-01" nType="0">
          <Node pos="l" depth="2" NCoef="0" IVar="-1" Cut="0.0000000000000000e+00" cType="1" res="1.2349447933956981e-03" rms="3.3919927477836609e-01" purity="1.8207466602325439e-01" nType="-99"/>
          <Node pos="r" depth="2" NCoef="0" IVar="-1" Cut="0.0000000000000000e+00" cType="1" res="-1.4799305063206702e-04" rms="3.8288474082946777e-01" purity="6.2725782394409180e-01" nType="-99"/>
        </Node>
      </Node>
    </BinaryTree>
    <BinaryTree type="DecisionTree" boostWeight="1.0000000000000000e+00" itree="1238">
      <Node pos="s" depth="0" NCoef="0" IVar="0" Cut="1.0000000000000000e+00" cType="1" res="2.2179652750492096e-01" rms="4.7942334413528442e-01" purity="5.4550069570541382e-01" nType="0">
        <Node pos="l" depth="1" NCoef="0" IVar="4" Cut="1.9116910156250000e+04" cType="1" res="5.1737809181213379e-01" rms="4.9969792366027832e-01" purity="5.1737803220748901e-01" nType="0">
          <Node pos="l" depth="2" NCoef="0" IVar="-1" Cut="0.0000000000000000e+00" cType="1" res="3.4281632397323847e-03" rms="2.1457272768020630e-01" purity="4.8741858452558517e-02" nType="-99"/>
          <Node pos="r" depth="2" NCoef="0" IVar="-1" Cut="0.0000000000000000e+00" cType="1" res="1.8885359168052673e-05" rms="4.7463056445121765e-01" purity="7.2498118877410889e-01" nType="-99"/>
        </Node>
        <Node pos="r" depth="1" NCoef="0" IVar="5" Cut="5.6681450000000000e+05" cType="1" res="5.8824127912521362e-01" rms="4.9251386523246765e-01" purity="5.8859771490097046e-01" nType="0">
          <Node pos="l" depth="2" NCoef="0" IVar="-1" Cut="0.0000000000000000e+00" cType="1" res="-6.7058252170681953e-05" rms="4.1964134573936462e-01" purity="5.0758725404739380e-01" nType="-99"/>
          <Node pos="r" depth="2" NCoef="0" IVar="-1" Cut="0.0000000000000000e+00" cType="1" res="1.2216570321470499e-03" rms="3.0928531289100647e-01" purity="8.7670630216598511e-01" nType="-99"/>
        </Node>
      </Node>
    </BinaryTree>
    <BinaryTree type="DecisionTree" boostWeight="1.0000000000000000e+00" itree="1239">
      <Node pos="s" depth="0" NCoef="0" IVar="0" Cut="1.0000000000000000e+00" cType="1" res="2.8591507673263550e-01" rms="4.9463263154029846e-01" purity="5.8850955963134766e-01" nType="0">
        <Node pos="l" depth="1" NCoef="0" IVar="4" Cut="1.9318060546875000e+04" cType="1" res="5.9005045890808105e-01" rms="4.9182406067848206e-01" purity="5.9005045890808105e-01" nType="0">
          <Node pos="l" depth="2" NCoef="0" IVar="-1" Cut="0.0000000000000000e+00" cType="1" res="-3.5305260098539293e-04" rms="1.9524678587913513e-01" purity="3.9905853569507599e-02" nType="-99"/>
          <Node pos="r" depth="2" NCoef="0" IVar="-1" Cut="0.0000000000000000e+00" cType="1" res="1.9753122614929453e-05" rms="4.4122856855392456e-01" purity="7.8586328029632568e-01" nType="-99"/>
        </Node>
        <Node pos="r" depth="1" NCoef="0" IVar="5" Cut="3.6238493750000000e+05" cType="1" res="5.8525991439819336e-01" rms="4.9296230077743530e-01" purity="5.8573567867279053e-01" nType="0">
          <Node pos="l" depth="2" NCoef="0" IVar="-1" Cut="0.0000000000000000e+00" cType="1" res="-4.2219768511131406e-04" rms="4.2895522713661194e-01" purity="3.9581242203712463e-01" nType="-99"/>
          <Node pos="r" depth="2" NCoef="0" IVar="-1" Cut="0.0000000000000000e+00" cType="1" res="6.5201683901250362e-04" rms="3.5743519663810730e-01" purity="8.0018949508666992e-01" nType="-99"/>
        </Node>
      </Node>
    </BinaryTree>
    <BinaryTree type="DecisionTree" boostWeight="1.0000000000000000e+00" itree="1240">
      <Node pos="s" depth="0" NCoef="0" IVar="0" Cut="4.0000000000000000e+00" cType="1" res="9.4924047589302063e-03" rms="3.5769343376159668e-01" purity="3.9666211605072021e-01" nType="0">
        <Node pos="l" depth="1" NCoef="0" IVar="5" Cut="2.5316768750000000e+05" cType="1" res="3.5873058438301086e-01" rms="4.7962793707847595e-01" purity="3.5873058438301086e-01" nType="0">
          <Node pos="l" depth="2" NCoef="0" IVar="-1" Cut="0.0000000000000000e+00" cType="1" res="8.8666245574131608e-04" rms="3.2621160149574280e-01" purity="1.7496056854724884e-01" nType="-99"/>
          <Node pos="r" depth="2" NCoef="0" IVar="-1" Cut="0.0000000000000000e+00" cType="1" res="-1.5285590779967606e-04" rms="4.0671443939208984e-01" purity="5.8361542224884033e-01" nType="-99"/>
        </Node>
        <Node pos="r" depth="1" NCoef="0" IVar="-1" Cut="0.0000000000000000e+00" cType="1" res="2.3537536617368460e-04" rms="2.2818268835544586e-01" purity="9.4580394029617310e-01" nType="-99"/>
      </Node>
    </BinaryTree>
    <BinaryTree type="DecisionTree" boostWeight="1.0000000000000000e+00" itree="1241">
      <Node pos="s" depth="0" NCoef="0" IVar="2" Cut="9.1787367187500000e+04" cType="1" res="5.3438097238540649e-01" rms="4.9886262416839600e-01" purity="5.3442692756652832e-01" nType="0">
        <Node pos="l" depth="1" NCoef="0" IVar="5" Cut="3.1295487500000000e+05" cType="1" res="3.8867112994194031e-01" rms="4.8744833469390869e-01" purity="3.8867112994194031e-01" nType="0">
          <Node pos="l" depth="2" NCoef="0" IVar="-1" Cut="0.0000000000000000e+00" cType="1" res="-1.9838011940009892e-04" rms="3.4049907326698303e-01" purity="1.9908882677555084e-01" nType="-99"/>
          <Node pos="r" depth="2" NCoef="0" IVar="-1" Cut="0.0000000000000000e+00" cType="1" res="3.7789272028021514e-04" rms="3.6476063728332520e-01" purity="7.3327255249023438e-01" nType="-99"/>
        </Node>
        <Node pos="r" depth="1" NCoef="0" IVar="2" Cut="9.1981835937500000e+04" cType="1" res="6.9610887765884399e-01" rms="4.6004164218902588e-01" purity="6.9620585441589355e-01" nType="0">
          <Node pos="l" depth="2" NCoef="0" IVar="-1" Cut="0.0000000000000000e+00" cType="1" res="2.2173326215124689e-05" rms="2.9041561484336853e-01" purity="9.2993003129959106e-01" nType="-99"/>
          <Node pos="r" depth="2" NCoef="0" IVar="-1" Cut="0.0000000000000000e+00" cType="1" res="-6.9778502620465588e-06" rms="3.6650350689888000e-01" purity="3.7789487838745117e-01" nType="-99"/>
        </Node>
      </Node>
    </BinaryTree>
    <BinaryTree type="DecisionTree" boostWeight="1.0000000000000000e+00" itree="1242">
      <Node pos="s" depth="0" NCoef="0" IVar="3" Cut="9.8928929687500000e+04" cType="1" res="3.8591435551643372e-01" rms="4.8686748743057251e-01" purity="3.8596981763839722e-01" nType="0">
        <Node pos="l" depth="1" NCoef="0" IVar="3" Cut="8.4594773437500000e+04" cType="1" res="3.8103303313255310e-01" rms="4.8570013046264648e-01" purity="3.8109081983566284e-01" nType="0">
          <Node pos="l" depth="2" NCoef="0" IVar="-1" Cut="0.0000000000000000e+00" cType="1" res="9.1620348393917084e-04" rms="3.5932388901710510e-01" purity="4.4059944152832031e-01" nType="-99"/>
          <Node pos="r" depth="2" NCoef="0" IVar="-1" Cut="0.0000000000000000e+00" cType="1" res="-3.1270342878997326e-04" rms="3.4755280613899231e-01" purity="3.7455821037292480e-01" nType="-99"/>
        </Node>
        <Node pos="r" depth="1" NCoef="0" IVar="-1" Cut="0.0000000000000000e+00" cType="1" res="1.6197428340092301e-03" rms="4.2506593465805054e-01" purity="5.0405788421630859e-01" nType="-99"/>
      </Node>
    </BinaryTree>
    <BinaryTree type="DecisionTree" boostWeight="1.0000000000000000e+00" itree="1243">
      <Node pos="s" depth="0" NCoef="0" IVar="0" Cut="1.0000000000000000e+00" cType="1" res="4.2472146451473236e-03" rms="3.5110849142074585e-01" purity="3.8886737823486328e-01" nType="0">
        <Node pos="l" depth="1" NCoef="0" IVar="5" Cut="2.7162837500000000e+05" cType="1" res="1.4322519302368164e-01" rms="3.5030236840248108e-01" purity="1.4322520792484283e-01" nType="0">
          <Node pos="l" depth="2" NCoef="0" IVar="-1" Cut="0.0000000000000000e+00" cType="1" res="2.0529757603071630e-04" rms="2.8195807337760925e-01" purity="1.2806539237499237e-01" nType="-99"/>
          <Node pos="r" depth="2" NCoef="0" IVar="-1" Cut="0.0000000000000000e+00" cType="1" res="-3.7876102142035961e-03" rms="3.2753631472587585e-01" purity="2.5022715330123901e-01" nType="-99"/>
        </Node>
        <Node pos="r" depth="1" NCoef="0" IVar="5" Cut="2.5583776562500000e+05" cType="1" res="5.9918034076690674e-01" rms="4.9092921614646912e-01" purity="6.0013127326965332e-01" nType="0">
          <Node pos="l" depth="2" NCoef="0" IVar="-1" Cut="0.0000000000000000e+00" cType="1" res="1.0406180517747998e-03" rms="4.0403583645820618e-01" purity="3.2520031929016113e-01" nType="-99"/>
          <Node pos="r" depth="2" NCoef="0" IVar="-1" Cut="0.0000000000000000e+00" cType="1" res="2.9301256290636957e-04" rms="3.9356347918510437e-01" purity="6.9523346424102783e-01" nType="-99"/>
        </Node>
      </Node>
    </BinaryTree>
    <BinaryTree type="DecisionTree" boostWeight="1.0000000000000000e+00" itree="1244">
      <Node pos="s" depth="0" NCoef="0" IVar="5" Cut="2.1196645312500000e+05" cType="1" res="3.7145769596099854e-01" rms="4.8332375288009644e-01" purity="3.7158268690109253e-01" nType="0">
        <Node pos="l" depth="1" NCoef="0" IVar="4" Cut="1.8639609375000000e+04" cType="1" res="1.0224286466836929e-01" rms="3.0296742916107178e-01" purity="1.0224286466836929e-01" nType="0">
          <Node pos="l" depth="2" NCoef="0" IVar="-1" Cut="0.0000000000000000e+00" cType="1" res="-2.1241561044007540e-03" rms="1.7704553902149200e-01" purity="3.2650731503963470e-02" nType="-99"/>
          <Node pos="r" depth="2" NCoef="0" IVar="-1" Cut="0.0000000000000000e+00" cType="1" res="-1.6980165382847190e-03" rms="3.3620169758796692e-01" purity="1.9242338836193085e-01" nType="-99"/>
        </Node>
        <Node pos="r" depth="1" NCoef="0" IVar="2" Cut="9.3960195312500000e+04" cType="1" res="5.2325671911239624e-01" rms="4.9965444207191467e-01" purity="5.2345216274261475e-01" nType="0">
          <Node pos="l" depth="2" NCoef="0" IVar="-1" Cut="0.0000000000000000e+00" cType="1" res="8.0145306128542870e-05" rms="3.8886648416519165e-01" purity="5.2054494619369507e-01" nType="-99"/>
          <Node pos="r" depth="2" NCoef="0" IVar="-1" Cut="0.0000000000000000e+00" cType="1" res="1.6442281194031239e-03" rms="4.2300081253051758e-01" purity="5.6595766544342041e-01" nType="-99"/>
        </Node>
      </Node>
    </BinaryTree>
    <BinaryTree type="DecisionTree" boostWeight="1.0000000000000000e+00" itree="1245">
      <Node pos="s" depth="0" NCoef="0" IVar="3" Cut="8.9426328125000000e+04" cType="1" res="5.1667416095733643e-01" rms="4.9972188472747803e-01" purity="5.1667422056198120e-01" nType="0">
        <Node pos="l" depth="1" NCoef="0" IVar="3" Cut="8.8492710937500000e+04" cType="1" res="6.0807359218597412e-01" rms="4.8818039894104004e-01" purity="6.0807365179061890e-01" nType="0">
          <Node pos="l" depth="2" NCoef="0" IVar="-1" Cut="0.0000000000000000e+00" cType="1" res="2.1650386042892933e-04" rms="3.4591275453567505e-01" purity="3.9080113172531128e-01" nType="-99"/>
          <Node pos="r" depth="2" NCoef="0" IVar="-1" Cut="0.0000000000000000e+00" cType="1" res="2.4705810574232601e-05" rms="4.2069041728973389e-01" purity="8.2702744007110596e-01" nType="-99"/>
        </Node>
        <Node pos="r" depth="1" NCoef="0" IVar="1" Cut="2.9816606250000000e+05" cType="1" res="3.8623002171516418e-01" rms="4.8716357350349426e-01" purity="3.8696306943893433e-01" nType="0">
          <Node pos="l" depth="2" NCoef="0" IVar="-1" Cut="0.0000000000000000e+00" cType="1" res="5.0420756451785564e-04" rms="3.4863597154617310e-01" purity="3.2279399037361145e-01" nType="-99"/>
          <Node pos="r" depth="2" NCoef="0" IVar="-1" Cut="0.0000000000000000e+00" cType="1" res="-7.1135966572910547e-04" rms="3.5663482546806335e-01" purity="5.1191323995590210e-01" nType="-99"/>
        </Node>
      </Node>
    </BinaryTree>
    <BinaryTree type="DecisionTree" boostWeight="1.0000000000000000e+00" itree="1246">
      <Node pos="s" depth="0" NCoef="0" IVar="0" Cut="1.0000000000000000e+00" cType="1" res="3.1045696139335632e-01" rms="4.9653080105781555e-01" purity="6.0674250125885010e-01" nType="0">
        <Node pos="l" depth="1" NCoef="0" IVar="4" Cut="1.9616960937500000e+04" cType="1" res="6.1784142255783081e-01" rms="4.8591500520706177e-01" purity="6.1784142255783081e-01" nType="0">
          <Node pos="l" depth="2" NCoef="0" IVar="-1" Cut="0.0000000000000000e+00" cType="1" res="2.1998659940436482e-04" rms="1.9931113719940186e-01" purity="4.1682384908199310e-02" nType="-99"/>
          <Node pos="r" depth="2" NCoef="0" IVar="-1" Cut="0.0000000000000000e+00" cType="1" res="2.2005824575899169e-05" rms="4.2659020423889160e-01" purity="8.0634200572967529e-01" nType="-99"/>
        </Node>
        <Node pos="r" depth="1" NCoef="0" IVar="3" Cut="9.5667742187500000e+04" cType="1" res="5.8491253852844238e-01" rms="4.9273711442947388e-01" purity="5.8491253852844238e-01" nType="0">
          <Node pos="l" depth="2" NCoef="0" IVar="-1" Cut="0.0000000000000000e+00" cType="1" res="2.2172064927872270e-04" rms="3.9765784144401550e-01" purity="5.8967059850692749e-01" nType="-99"/>
          <Node pos="r" depth="2" NCoef="0" IVar="-1" Cut="0.0000000000000000e+00" cType="1" res="-2.5256087537854910e-03" rms="4.0232917666435242e-01" purity="5.5068105459213257e-01" nType="-99"/>
        </Node>
      </Node>
    </BinaryTree>
    <BinaryTree type="DecisionTree" boostWeight="1.0000000000000000e+00" itree="1247">
      <Node pos="s" depth="0" NCoef="0" IVar="4" Cut="8.0321812500000000e+04" cType="1" res="3.8668394088745117e-01" rms="4.8721385002136230e-01" purity="3.8705694675445557e-01" nType="0">
        <Node pos="l" depth="1" NCoef="0" IVar="5" Cut="2.8853246875000000e+05" cType="1" res="3.4266418218612671e-01" rms="4.7475343942642212e-01" purity="3.4290039539337158e-01" nType="0">
          <Node pos="l" depth="2" NCoef="0" IVar="-1" Cut="0.0000000000000000e+00" cType="1" res="6.9761584745720029e-04" rms="3.4151479601860046e-01" purity="1.8193125724792480e-01" nType="-99"/>
          <Node pos="r" depth="2" NCoef="0" IVar="-1" Cut="0.0000000000000000e+00" cType="1" res="-3.5329055390320718e-04" rms="3.9592820405960083e-01" purity="6.3087266683578491e-01" nType="-99"/>
        </Node>
        <Node pos="r" depth="1" NCoef="0" IVar="-1" Cut="0.0000000000000000e+00" cType="1" res="7.3248741682618856e-04" rms="2.8330498933792114e-01" purity="9.1109651327133179e-01" nType="-99"/>
      </Node>
    </BinaryTree>
    <BinaryTree type="DecisionTree" boostWeight="1.0000000000000000e+00" itree="1248">
      <Node pos="s" depth="0" NCoef="0" IVar="1" Cut="2.0020804687500000e+05" cType="1" res="4.4857025146484375e-01" rms="4.9758630990982056e-01" purity="4.4880741834640503e-01" nType="0">
        <Node pos="l" depth="1" NCoef="0" IVar="2" Cut="8.9690085937500000e+04" cType="1" res="5.1709544658660889e-01" rms="5.1730781793594360e-01" purity="5.7090801000595093e-01" nType="0">
          <Node pos="l" depth="2" NCoef="0" IVar="-1" Cut="0.0000000000000000e+00" cType="1" res="2.9580420232377946e-05" rms="3.9693284034729004e-01" purity="8.1159353256225586e-01" nType="-99"/>
          <Node pos="r" depth="2" NCoef="0" IVar="-1" Cut="0.0000000000000000e+00" cType="1" res="1.1748829856514931e-03" rms="3.4667047858238220e-01" purity="2.4050138890743256e-01" nType="-99"/>
        </Node>
        <Node pos="r" depth="1" NCoef="0" IVar="3" Cut="8.5171421875000000e+04" cType="1" res="4.1260907053947449e-01" rms="4.9244818091392517e-01" purity="4.1275146603584290e-01" nType="0">
          <Node pos="l" depth="2" NCoef="0" IVar="-1" Cut="0.0000000000000000e+00" cType="1" res="8.5853954078629613e-04" rms="3.5684791207313538e-01" purity="4.8208603262901306e-01" nType="-99"/>
          <Node pos="r" depth="2" NCoef="0" IVar="-1" Cut="0.0000000000000000e+00" cType="1" res="-3.5997665690956637e-05" rms="3.5757613182067871e-01" purity="4.0407714247703552e-01" nType="-99"/>
        </Node>
      </Node>
    </BinaryTree>
    <BinaryTree type="DecisionTree" boostWeight="1.0000000000000000e+00" itree="1249">
      <Node pos="s" depth="0" NCoef="0" IVar="2" Cut="8.9710273437500000e+04" cType="1" res="5.6117433309555054e-01" rms="4.9624359607696533e-01" purity="5.6117433309555054e-01" nType="0">
        <Node pos="l" depth="1" NCoef="0" IVar="5" Cut="1.8934189062500000e+05" cType="1" res="7.8791397809982300e-01" rms="4.0878543257713318e-01" purity="7.8791397809982300e-01" nType="0">
          <Node pos="l" depth="2" NCoef="0" IVar="-1" Cut="0.0000000000000000e+00" cType="1" res="2.1969135559629649e-05" rms="2.8962841629981995e-01" purity="8.9163988828659058e-01" nType="-99"/>
          <Node pos="r" depth="2" NCoef="0" IVar="-1" Cut="0.0000000000000000e+00" cType="1" res="8.7414708104915917e-05" rms="3.8023778796195984e-01" purity="4.8809137940406799e-01" nType="-99"/>
        </Node>
        <Node pos="r" depth="1" NCoef="0" IVar="5" Cut="2.6272696875000000e+05" cType="1" res="3.8179764151573181e-01" rms="4.8599106073379517e-01" purity="3.8195672631263733e-01" nType="0">
          <Node pos="l" depth="2" NCoef="0" IVar="-1" Cut="0.0000000000000000e+00" cType="1" res="9.3149387976154685e-04" rms="3.3000937104225159e-01" purity="1.8035210669040680e-01" nType="-99"/>
          <Node pos="r" depth="2" NCoef="0" IVar="-1" Cut="0.0000000000000000e+00" cType="1" res="-5.6012923596426845e-04" rms="3.8774985074996948e-01" purity="6.2158805131912231e-01" nType="-99"/>
        </Node>
      </Node>
    </BinaryTree>
    <BinaryTree type="DecisionTree" boostWeight="1.0000000000000000e+00" itree="1250">
      <Node pos="s" depth="0" NCoef="0" IVar="2" Cut="9.1865859375000000e+04" cType="1" res="4.6988487243652344e-01" rms="4.9952071905136108e-01" purity="4.7040358185768127e-01" nType="0">
        <Node pos="l" depth="1" NCoef="0" IVar="3" Cut="9.8077953125000000e+04" cType="1" res="3.8606253266334534e-01" rms="4.8747172951698303e-01" purity="3.8667294383049011e-01" nType="0">
          <Node pos="l" depth="2" NCoef="0" IVar="-1" Cut="0.0000000000000000e+00" cType="1" res="1.5274604083970189e-04" rms="3.4929114580154419e-01" purity="3.7848773598670959e-01" nType="-99"/>
          <Node pos="r" depth="2" NCoef="0" IVar="-1" Cut="0.0000000000000000e+00" cType="1" res="9.9415588192641735e-04" rms="3.8160216808319092e-01" purity="5.2549111843109131e-01" nType="-99"/>
        </Node>
        <Node pos="r" depth="1" NCoef="0" IVar="2" Cut="9.2056851562500000e+04" cType="1" res="5.9967988729476929e-01" rms="4.9011132121086121e-01" purity="6.0005658864974976e-01" nType="0">
          <Node pos="l" depth="2" NCoef="0" IVar="-1" Cut="0.0000000000000000e+00" cType="1" res="2.2072419596952386e-05" rms="3.7122818827629089e-01" purity="8.7535351514816284e-01" nType="-99"/>
          <Node pos="r" depth="2" NCoef="0" IVar="-1" Cut="0.0000000000000000e+00" cType="1" res="1.6242300262092613e-05" rms="3.5982632637023926e-01" purity="3.8806867599487305e-01" nType="-99"/>
        </Node>
      </Node>
    </BinaryTree>
    <BinaryTree type="DecisionTree" boostWeight="1.0000000000000000e+00" itree="1251">
      <Node pos="s" depth="0" NCoef="0" IVar="3" Cut="8.9426531250000000e+04" cType="1" res="0.0000000000000000e+00" rms="0.0000000000000000e+00" purity="5.5176633596420288e-01" nType="0">
        <Node pos="l" depth="1" NCoef="0" IVar="3" Cut="8.8492898437500000e+04" cType="1" res="6.5583473443984985e-01" rms="4.7530108690261841e-01" purity="6.5604925155639648e-01" nType="0">
          <Node pos="l" depth="2" NCoef="0" IVar="-1" Cut="0.0000000000000000e+00" cType="1" res="-7.1258407842833549e-05" rms="3.4844499826431274e-01" purity="3.7525385618209839e-01" nType="-99"/>
          <Node pos="r" depth="2" NCoef="0" IVar="-1" Cut="0.0000000000000000e+00" cType="1" res="2.5926328817149624e-05" rms="3.8153263926506042e-01" purity="8.6839878559112549e-01" nType="-99"/>
        </Node>
        <Node pos="r" depth="1" NCoef="0" IVar="4" Cut="2.2336742187500000e+04" cType="1" res="3.8353034853935242e-01" rms="4.8672491312026978e-01" purity="3.8492387533187866e-01" nType="0">
          <Node pos="l" depth="2" NCoef="0" IVar="-1" Cut="0.0000000000000000e+00" cType="1" res="1.0854051215574145e-03" rms="3.0722343921661377e-01" purity="2.2268973290920258e-01" nType="-99"/>
          <Node pos="r" depth="2" NCoef="0" IVar="-1" Cut="0.0000000000000000e+00" cType="1" res="-3.4544090158306062e-04" rms="3.9543318748474121e-01" purity="5.5190289020538330e-01" nType="-99"/>
        </Node>
      </Node>
    </BinaryTree>
    <BinaryTree type="DecisionTree" boostWeight="1.0000000000000000e+00" itree="1252">
      <Node pos="s" depth="0" NCoef="0" IVar="4" Cut="8.2762492187500000e+04" cType="1" res="3.8961645960807800e-01" rms="4.8771965503692627e-01" purity="3.8974863290786743e-01" nType="0">
        <Node pos="l" depth="1" NCoef="0" IVar="0" Cut="1.0000000000000000e+00" cType="1" res="3.3814393100328743e-04" rms="3.5823303461074829e-01" purity="3.4618997573852539e-01" nType="0">
          <Node pos="l" depth="2" NCoef="0" IVar="-1" Cut="0.0000000000000000e+00" cType="1" res="-1.2912367237731814e-03" rms="2.8578165173530579e-01" purity="1.1053978651762009e-01" nType="-99"/>
          <Node pos="r" depth="2" NCoef="0" IVar="-1" Cut="0.0000000000000000e+00" cType="1" res="2.8565240791067481e-04" rms="4.1230031847953796e-01" purity="5.5784314870834351e-01" nType="-99"/>
        </Node>
        <Node pos="r" depth="1" NCoef="0" IVar="-1" Cut="0.0000000000000000e+00" cType="1" res="6.7825795849785209e-04" rms="2.7629795670509338e-01" purity="9.1682440042495728e-01" nType="-99"/>
      </Node>
    </BinaryTree>
    <BinaryTree type="DecisionTree" boostWeight="1.0000000000000000e+00" itree="1253">
      <Node pos="s" depth="0" NCoef="0" IVar="1" Cut="2.0203215625000000e+05" cType="1" res="4.4554573297500610e-01" rms="4.9702587723731995e-01" purity="4.4564017653465271e-01" nType="0">
        <Node pos="l" depth="1" NCoef="0" IVar="2" Cut="8.9715734375000000e+04" cType="1" res="4.8723736405372620e-01" rms="5.1582229137420654e-01" purity="5.5024534463882446e-01" nType="0">
          <Node pos="l" depth="2" NCoef="0" IVar="-1" Cut="0.0000000000000000e+00" cType="1" res="2.9534685381804593e-05" rms="4.1075444221496582e-01" purity="7.9575955867767334e-01" nType="-99"/>
          <Node pos="r" depth="2" NCoef="0" IVar="-1" Cut="0.0000000000000000e+00" cType="1" res="1.8102460308000445e-04" rms="3.2854336500167847e-01" purity="2.3561926186084747e-01" nType="-99"/>
        </Node>
        <Node pos="r" depth="1" NCoef="0" IVar="1" Cut="2.7118918750000000e+05" cType="1" res="4.1199558973312378e-01" rms="4.9219429492950439e-01" purity="4.1212028264999390e-01" nType="0">
          <Node pos="l" depth="2" NCoef="0" IVar="-1" Cut="0.0000000000000000e+00" cType="1" res="4.8932532081380486e-04" rms="3.4783506393432617e-01" purity="3.3671995997428894e-01" nType="-99"/>
          <Node pos="r" depth="2" NCoef="0" IVar="-1" Cut="0.0000000000000000e+00" cType="1" res="-4.6724101412110031e-04" rms="3.6184012889862061e-01" purity="4.9011206626892090e-01" nType="-99"/>
        </Node>
      </Node>
    </BinaryTree>
    <BinaryTree type="DecisionTree" boostWeight="1.0000000000000000e+00" itree="1254">
      <Node pos="s" depth="0" NCoef="0" IVar="2" Cut="9.1879203125000000e+04" cType="1" res="4.7465062141418457e-01" rms="4.9970334768295288e-01" purity="4.7507727146148682e-01" nType="0">
        <Node pos="l" depth="1" NCoef="0" IVar="5" Cut="2.2346950000000000e+05" cType="1" res="3.8901847600936890e-01" rms="4.8799917101860046e-01" purity="3.9017963409423828e-01" nType="0">
          <Node pos="l" depth="2" NCoef="0" IVar="-1" Cut="0.0000000000000000e+00" cType="1" res="-2.2530839778482914e-03" rms="2.7732411026954651e-01" purity="1.0599347203969955e-01" nType="-99"/>
          <Node pos="r" depth="2" NCoef="0" IVar="-1" Cut="0.0000000000000000e+00" cType="1" res="2.8612976893782616e-04" rms="3.8672807812690735e-01" purity="5.7531100511550903e-01" nType="-99"/>
        </Node>
        <Node pos="r" depth="1" NCoef="0" IVar="2" Cut="9.2075945312500000e+04" cType="1" res="6.0708642005920410e-01" rms="4.8839789628982544e-01" purity="6.0708636045455933e-01" nType="0">
          <Node pos="l" depth="2" NCoef="0" IVar="-1" Cut="0.0000000000000000e+00" cType="1" res="2.2505884771817364e-05" rms="3.6874356865882874e-01" purity="8.8375157117843628e-01" nType="-99"/>
          <Node pos="r" depth="2" NCoef="0" IVar="-1" Cut="0.0000000000000000e+00" cType="1" res="-2.8731269412674010e-04" rms="3.4908482432365417e-01" purity="3.9159426093101501e-01" nType="-99"/>
        </Node>
      </Node>
    </BinaryTree>
    <BinaryTree type="DecisionTree" boostWeight="1.0000000000000000e+00" itree="1255">
      <Node pos="s" depth="0" NCoef="0" IVar="3" Cut="8.9426570312500000e+04" cType="1" res="5.5184739828109741e-01" rms="4.9738532304763794e-01" purity="5.5200350284576416e-01" nType="0">
        <Node pos="l" depth="1" NCoef="0" IVar="3" Cut="8.8493054687500000e+04" cType="1" res="6.5857672691345215e-01" rms="4.7432398796081543e-01" purity="6.5882903337478638e-01" nType="0">
          <Node pos="l" depth="2" NCoef="0" IVar="-1" Cut="0.0000000000000000e+00" cType="1" res="-9.6326002676505595e-06" rms="3.4600535035133362e-01" purity="3.8688313961029053e-01" nType="-99"/>
          <Node pos="r" depth="2" NCoef="0" IVar="-1" Cut="0.0000000000000000e+00" cType="1" res="2.6135083317058161e-05" rms="3.7874782085418701e-01" purity="8.6954027414321899e-01" nType="-99"/>
        </Node>
        <Node pos="r" depth="1" NCoef="0" IVar="3" Cut="9.8944585937500000e+04" cType="1" res="3.7867099046707153e-01" rms="4.8505595326423645e-01" purity="3.7867099046707153e-01" nType="0">
          <Node pos="l" depth="2" NCoef="0" IVar="-1" Cut="0.0000000000000000e+00" cType="1" res="-5.9459381736814976e-04" rms="3.4619322419166565e-01" purity="3.6907669901847839e-01" nType="-99"/>
          <Node pos="r" depth="2" NCoef="0" IVar="-1" Cut="0.0000000000000000e+00" cType="1" res="1.2985853245481849e-03" rms="4.0470099449157715e-01" purity="5.0052356719970703e-01" nType="-99"/>
        </Node>
      </Node>
    </BinaryTree>
    <BinaryTree type="DecisionTree" boostWeight="1.0000000000000000e+00" itree="1256">
      <Node pos="s" depth="0" NCoef="0" IVar="1" Cut="2.0203215625000000e+05" cType="1" res="5.3241747617721558e-01" rms="4.9912253022193909e-01" purity="5.3267192840576172e-01" nType="0">
        <Node pos="l" depth="1" NCoef="0" IVar="2" Cut="8.9670617187500000e+04" cType="1" res="2.8074347972869873e-01" rms="4.6733674407005310e-01" purity="7.3394709825515747e-01" nType="0">
          <Node pos="l" depth="2" NCoef="0" IVar="-1" Cut="0.0000000000000000e+00" cType="1" res="2.0248000510036945e-05" rms="2.9009065032005310e-01" purity="9.1367840766906738e-01" nType="-99"/>
          <Node pos="r" depth="2" NCoef="0" IVar="-1" Cut="0.0000000000000000e+00" cType="1" res="1.2434350792318583e-03" rms="3.4558606147766113e-01" purity="2.3105226457118988e-01" nType="-99"/>
        </Node>
        <Node pos="r" depth="1" NCoef="0" IVar="0" Cut="4.0000000000000000e+00" cType="1" res="2.1783607080578804e-03" rms="3.5365772247314453e-01" purity="4.2446878552436829e-01" nType="0">
          <Node pos="l" depth="2" NCoef="0" IVar="-1" Cut="0.0000000000000000e+00" cType="1" res="-6.4581887272652239e-05" rms="3.6130321025848389e-01" purity="3.8550537824630737e-01" nType="-99"/>
          <Node pos="r" depth="2" NCoef="0" IVar="-1" Cut="0.0000000000000000e+00" cType="1" res="3.8351688999682665e-04" rms="2.2103555500507355e-01" purity="9.4910454750061035e-01" nType="-99"/>
        </Node>
      </Node>
    </BinaryTree>
    <BinaryTree type="DecisionTree" boostWeight="1.0000000000000000e+00" itree="1257">
      <Node pos="s" depth="0" NCoef="0" IVar="0" Cut="4.0000000000000000e+00" cType="1" res="-2.6251151575706899e-04" rms="3.4878960251808167e-01" purity="3.8694024085998535e-01" nType="0">
        <Node pos="l" depth="1" NCoef="0" IVar="4" Cut="6.0984042968750000e+04" cType="1" res="3.4923624992370605e-01" rms="4.7672873735427856e-01" purity="3.4923624992370605e-01" nType="0">
          <Node pos="l" depth="2" NCoef="0" IVar="-1" Cut="0.0000000000000000e+00" cType="1" res="-4.7564023407176137e-04" rms="3.5502561926841736e-01" purity="2.8611093759536743e-01" nType="-99"/>
          <Node pos="r" depth="2" NCoef="0" IVar="-1" Cut="0.0000000000000000e+00" cType="1" res="3.8594412035308778e-04" rms="3.5582825541496277e-01" purity="8.3962064981460571e-01" nType="-99"/>
        </Node>
        <Node pos="r" depth="1" NCoef="0" IVar="-1" Cut="0.0000000000000000e+00" cType="1" res="2.3104654974304140e-04" rms="2.2543205320835114e-01" purity="9.4722431898117065e-01" nType="-99"/>
      </Node>
    </BinaryTree>
    <BinaryTree type="DecisionTree" boostWeight="1.0000000000000000e+00" itree="1258">
      <Node pos="s" depth="0" NCoef="0" IVar="3" Cut="8.9427195312500000e+04" cType="1" res="5.1265627145767212e-01" rms="5.0009578466415405e-01" purity="5.1291221380233765e-01" nType="0">
        <Node pos="l" depth="1" NCoef="0" IVar="3" Cut="8.8493750000000000e+04" cType="1" res="6.0711902379989624e-01" rms="4.8855760693550110e-01" purity="6.0728204250335693e-01" nType="0">
          <Node pos="l" depth="2" NCoef="0" IVar="-1" Cut="0.0000000000000000e+00" cType="1" res="9.5630814030300826e-05" rms="3.5267475247383118e-01" purity="3.8044944405555725e-01" nType="-99"/>
          <Node pos="r" depth="2" NCoef="0" IVar="-1" Cut="0.0000000000000000e+00" cType="1" res="2.5007599106174894e-05" rms="4.2015174031257629e-01" purity="8.2994997501373291e-01" nType="-99"/>
        </Node>
        <Node pos="r" depth="1" NCoef="0" IVar="4" Cut="1.7933849609375000e+04" cType="1" res="3.7985128164291382e-01" rms="4.8574778437614441e-01" purity="3.8023790717124939e-01" nType="0">
          <Node pos="l" depth="2" NCoef="0" IVar="-1" Cut="0.0000000000000000e+00" cType="1" res="1.7814917955547571e-03" rms="3.0721026659011841e-01" purity="2.0762127637863159e-01" nType="-99"/>
          <Node pos="r" depth="2" NCoef="0" IVar="-1" Cut="0.0000000000000000e+00" cType="1" res="-3.9986916817724705e-04" rms="3.8372647762298584e-01" purity="4.9915143847465515e-01" nType="-99"/>
        </Node>
      </Node>
    </BinaryTree>
    <BinaryTree type="DecisionTree" boostWeight="1.0000000000000000e+00" itree="1259">
      <Node pos="s" depth="0" NCoef="0" IVar="0" Cut="1.0000000000000000e+00" cType="1" res="3.2919135689735413e-01" rms="4.9791300296783447e-01" purity="6.2091350555419922e-01" nType="0">
        <Node pos="l" depth="1" NCoef="0" IVar="4" Cut="1.9435326171875000e+04" cType="1" res="6.3535499572753906e-01" rms="4.8133048415184021e-01" purity="6.3535499572753906e-01" nType="0">
          <Node pos="l" depth="2" NCoef="0" IVar="-1" Cut="0.0000000000000000e+00" cType="1" res="4.8442995175719261e-03" rms="2.2796145081520081e-01" purity="5.5751111358404160e-02" nType="-99"/>
          <Node pos="r" depth="2" NCoef="0" IVar="-1" Cut="0.0000000000000000e+00" cType="1" res="2.1206289602559991e-05" rms="4.1796129941940308e-01" purity="8.1800025701522827e-01" nType="-99"/>
        </Node>
        <Node pos="r" depth="1" NCoef="0" IVar="3" Cut="8.4038242187500000e+04" cType="1" res="5.9144020080566406e-01" rms="4.9156758189201355e-01" purity="5.9144020080566406e-01" nType="0">
          <Node pos="l" depth="2" NCoef="0" IVar="-1" Cut="0.0000000000000000e+00" cType="1" res="3.1943951034918427e-04" rms="3.7946021556854248e-01" purity="6.8463075160980225e-01" nType="-99"/>
          <Node pos="r" depth="2" NCoef="0" IVar="-1" Cut="0.0000000000000000e+00" cType="1" res="1.3108761049807072e-04" rms="4.0251198410987854e-01" purity="5.8271574974060059e-01" nType="-99"/>
        </Node>
      </Node>
    </BinaryTree>
    <BinaryTree type="DecisionTree" boostWeight="1.0000000000000000e+00" itree="1260">
      <Node pos="s" depth="0" NCoef="0" IVar="0" Cut="3.0000000000000000e+00" cType="1" res="8.4838643670082092e-04" rms="3.5455456376075745e-01" purity="3.8157320022583008e-01" nType="0">
        <Node pos="l" depth="1" NCoef="0" IVar="2" Cut="9.3969687500000000e+04" cType="1" res="3.0464345216751099e-01" rms="4.6038654446601868e-01" purity="3.0476337671279907e-01" nType="0">
          <Node pos="l" depth="2" NCoef="0" IVar="-1" Cut="0.0000000000000000e+00" cType="1" res="-3.3417411032132804e-04" rms="3.6121520400047302e-01" purity="2.9837003350257874e-01" nType="-99"/>
          <Node pos="r" depth="2" NCoef="0" IVar="-1" Cut="0.0000000000000000e+00" cType="1" res="1.0460623307153583e-03" rms="3.8138419389724731e-01" purity="4.0268611907958984e-01" nType="-99"/>
        </Node>
        <Node pos="r" depth="1" NCoef="0" IVar="1" Cut="2.7729653125000000e+05" cType="1" res="9.0250635147094727e-01" rms="2.9740414023399353e-01" purity="9.0449929237365723e-01" nType="0">
          <Node pos="l" depth="2" NCoef="0" IVar="-1" Cut="0.0000000000000000e+00" cType="1" res="3.1145682442001998e-04" rms="3.3732116222381592e-01" purity="8.6758953332901001e-01" nType="-99"/>
          <Node pos="r" depth="2" NCoef="0" IVar="-1" Cut="0.0000000000000000e+00" cType="1" res="3.8765140925534070e-04" rms="2.6040720939636230e-01" purity="9.2641019821166992e-01" nType="-99"/>
        </Node>
      </Node>
    </BinaryTree>
    <BinaryTree type="DecisionTree" boostWeight="1.0000000000000000e+00" itree="1261">
      <Node pos="s" depth="0" NCoef="0" IVar="0" Cut="1.0000000000000000e+00" cType="1" res="2.6614785194396973e-01" rms="4.9077507853507996e-01" purity="5.7824945449829102e-01" nType="0">
        <Node pos="l" depth="1" NCoef="0" IVar="4" Cut="1.9435326171875000e+04" cType="1" res="5.7100898027420044e-01" rms="4.9493202567100525e-01" purity="5.7100898027420044e-01" nType="0">
          <Node pos="l" depth="2" NCoef="0" IVar="-1" Cut="0.0000000000000000e+00" cType="1" res="1.1034955969080329e-03" rms="2.0411634445190430e-01" purity="4.3780706822872162e-02" nType="-99"/>
          <Node pos="r" depth="2" NCoef="0" IVar="-1" Cut="0.0000000000000000e+00" cType="1" res="2.0836672774748877e-05" rms="4.5004037022590637e-01" purity="7.7443170547485352e-01" nType="-99"/>
        </Node>
        <Node pos="r" depth="1" NCoef="0" IVar="2" Cut="8.9597226562500000e+04" cType="1" res="5.8987581729888916e-01" rms="4.9222508072853088e-01" purity="5.9045934677124023e-01" nType="0">
          <Node pos="l" depth="2" NCoef="0" IVar="-1" Cut="0.0000000000000000e+00" cType="1" res="8.2493841182440519e-04" rms="4.1620177030563354e-01" purity="6.1704361438751221e-01" nType="-99"/>
          <Node pos="r" depth="2" NCoef="0" IVar="-1" Cut="0.0000000000000000e+00" cType="1" res="-6.7648077674675733e-05" rms="3.9427372813224792e-01" purity="5.8379775285720825e-01" nType="-99"/>
        </Node>
      </Node>
    </BinaryTree>
    <BinaryTree type="DecisionTree" boostWeight="1.0000000000000000e+00" itree="1262">
      <Node pos="s" depth="0" NCoef="0" IVar="2" Cut="9.1878492187500000e+04" cType="1" res="4.7055435180664062e-01" rms="4.9913218617439270e-01" purity="4.7055435180664062e-01" nType="0">
        <Node pos="l" depth="1" NCoef="0" IVar="1" Cut="2.8172840625000000e+05" cType="1" res="3.7902677059173584e-01" rms="4.8514479398727417e-01" purity="3.7902677059173584e-01" nType="0">
          <Node pos="l" depth="2" NCoef="0" IVar="-1" Cut="0.0000000000000000e+00" cType="1" res="5.5718969088047743e-04" rms="3.4117794036865234e-01" purity="3.1280428171157837e-01" nType="-99"/>
          <Node pos="r" depth="2" NCoef="0" IVar="-1" Cut="0.0000000000000000e+00" cType="1" res="-6.4822280546650290e-04" rms="3.6014506220817566e-01" purity="4.9445885419845581e-01" nType="-99"/>
        </Node>
        <Node pos="r" depth="1" NCoef="0" IVar="2" Cut="9.2071062500000000e+04" cType="1" res="6.1118751764297485e-01" rms="4.8748061060905457e-01" purity="6.1141961812973022e-01" nType="0">
          <Node pos="l" depth="2" NCoef="0" IVar="-1" Cut="0.0000000000000000e+00" cType="1" res="2.2260830519371666e-05" rms="3.7099727988243103e-01" purity="8.7920665740966797e-01" nType="-99"/>
          <Node pos="r" depth="2" NCoef="0" IVar="-1" Cut="0.0000000000000000e+00" cType="1" res="3.5518762888386846e-04" rms="3.5590958595275879e-01" purity="4.0262541174888611e-01" nType="-99"/>
        </Node>
      </Node>
    </BinaryTree>
    <BinaryTree type="DecisionTree" boostWeight="1.0000000000000000e+00" itree="1263">
      <Node pos="s" depth="0" NCoef="0" IVar="1" Cut="2.0102762500000000e+05" cType="1" res="4.4172504544258118e-01" rms="4.9668672680854797e-01" purity="4.4198411703109741e-01" nType="0">
        <Node pos="l" depth="1" NCoef="0" IVar="2" Cut="8.9715734375000000e+04" cType="1" res="4.7949752211570740e-01" rms="5.2576798200607300e-01" purity="5.5551165342330933e-01" nType="0">
          <Node pos="l" depth="2" NCoef="0" IVar="-1" Cut="0.0000000000000000e+00" cType="1" res="2.9458980861818418e-05" rms="4.1099900007247925e-01" purity="7.9505944252014160e-01" nType="-99"/>
          <Node pos="r" depth="2" NCoef="0" IVar="-1" Cut="0.0000000000000000e+00" cType="1" res="5.1096751121804118e-04" rms="3.2728135585784912e-01" purity="2.3503738641738892e-01" nType="-99"/>
        </Node>
        <Node pos="r" depth="1" NCoef="0" IVar="5" Cut="2.5747637500000000e+05" cType="1" res="4.0641003847122192e-01" rms="4.9128776788711548e-01" purity="4.0674948692321777e-01" nType="0">
          <Node pos="l" depth="2" NCoef="0" IVar="-1" Cut="0.0000000000000000e+00" cType="1" res="1.0549820726737380e-03" rms="3.3543881773948669e-01" purity="1.9185969233512878e-01" nType="-99"/>
          <Node pos="r" depth="2" NCoef="0" IVar="-1" Cut="0.0000000000000000e+00" cType="1" res="-5.3544243564829230e-04" rms="3.8774237036705017e-01" purity="6.1258488893508911e-01" nType="-99"/>
        </Node>
      </Node>
    </BinaryTree>
    <BinaryTree type="DecisionTree" boostWeight="1.0000000000000000e+00" itree="1264">
      <Node pos="s" depth="0" NCoef="0" IVar="2" Cut="9.1879203125000000e+04" cType="1" res="4.6900644898414612e-01" rms="4.9928879737854004e-01" purity="4.6937930583953857e-01" nType="0">
        <Node pos="l" depth="1" NCoef="0" IVar="3" Cut="9.7936117187500000e+04" cType="1" res="3.8520556688308716e-01" rms="4.8682907223701477e-01" purity="3.8575685024261475e-01" nType="0">
          <Node pos="l" depth="2" NCoef="0" IVar="-1" Cut="0.0000000000000000e+00" cType="1" res="6.2884791987016797e-05" rms="3.5135927796363831e-01" purity="3.8141620159149170e-01" nType="-99"/>
          <Node pos="r" depth="2" NCoef="0" IVar="-1" Cut="0.0000000000000000e+00" cType="1" res="1.6744356835260987e-03" rms="4.3156459927558899e-01" purity="4.6081608533859253e-01" nType="-99"/>
        </Node>
        <Node pos="r" depth="1" NCoef="0" IVar="2" Cut="9.2075976562500000e+04" cType="1" res="6.0013151168823242e-01" rms="4.9001988768577576e-01" purity="6.0027730464935303e-01" nType="0">
          <Node pos="l" depth="2" NCoef="0" IVar="-1" Cut="0.0000000000000000e+00" cType="1" res="2.2100233763922006e-05" rms="3.7375700473785400e-01" purity="8.7384909391403198e-01" nType="-99"/>
          <Node pos="r" depth="2" NCoef="0" IVar="-1" Cut="0.0000000000000000e+00" cType="1" res="2.5148769054794684e-05" rms="3.5259497165679932e-01" purity="3.8899967074394226e-01" nType="-99"/>
        </Node>
      </Node>
    </BinaryTree>
    <BinaryTree type="DecisionTree" boostWeight="1.0000000000000000e+00" itree="1265">
      <Node pos="s" depth="0" NCoef="0" IVar="0" Cut="1.0000000000000000e+00" cType="1" res="2.1776132285594940e-01" rms="4.7882363200187683e-01" purity="5.4074233770370483e-01" nType="0">
        <Node pos="l" depth="1" NCoef="0" IVar="4" Cut="1.9342033203125000e+04" cType="1" res="5.1067292690277100e-01" rms="4.9988606572151184e-01" purity="5.1067286729812622e-01" nType="0">
          <Node pos="l" depth="2" NCoef="0" IVar="-1" Cut="0.0000000000000000e+00" cType="1" res="-2.0809599664062262e-03" rms="1.9036287069320679e-01" purity="3.7227693945169449e-02" nType="-99"/>
          <Node pos="r" depth="2" NCoef="0" IVar="-1" Cut="0.0000000000000000e+00" cType="1" res="1.8909066056949086e-05" rms="4.7541794180870056e-01" purity="7.2633707523345947e-01" nType="-99"/>
        </Node>
        <Node pos="r" depth="1" NCoef="0" IVar="3" Cut="8.8150453125000000e+04" cType="1" res="5.8582949638366699e-01" rms="4.9282300472259521e-01" purity="5.8655947446823120e-01" nType="0">
          <Node pos="l" depth="2" NCoef="0" IVar="-1" Cut="0.0000000000000000e+00" cType="1" res="3.3184816129505634e-04" rms="3.8739079236984253e-01" purity="6.2017011642456055e-01" nType="-99"/>
          <Node pos="r" depth="2" NCoef="0" IVar="-1" Cut="0.0000000000000000e+00" cType="1" res="-4.0128451655618846e-04" rms="4.0060284733772278e-01" purity="5.6774336099624634e-01" nType="-99"/>
        </Node>
      </Node>
    </BinaryTree>
    <BinaryTree type="DecisionTree" boostWeight="1.0000000000000000e+00" itree="1266">
      <Node pos="s" depth="0" NCoef="0" IVar="0" Cut="3.0000000000000000e+00" cType="1" res="-3.6432533524930477e-03" rms="3.5076856613159180e-01" purity="3.7396630644798279e-01" nType="0">
        <Node pos="l" depth="1" NCoef="0" IVar="1" Cut="2.7047396875000000e+05" cType="1" res="2.9874256253242493e-01" rms="4.5783960819244385e-01" purity="2.9886424541473389e-01" nType="0">
          <Node pos="l" depth="2" NCoef="0" IVar="-1" Cut="0.0000000000000000e+00" cType="1" res="1.9412567780818790e-04" rms="3.4671589732170105e-01" purity="2.4344933032989502e-01" nType="-99"/>
          <Node pos="r" depth="2" NCoef="0" IVar="-1" Cut="0.0000000000000000e+00" cType="1" res="-1.0500850621610880e-03" rms="3.7429347634315491e-01" purity="3.8515785336494446e-01" nType="-99"/>
        </Node>
        <Node pos="r" depth="1" NCoef="0" IVar="1" Cut="3.7698421875000000e+05" cType="1" res="9.0285235643386841e-01" rms="2.9615873098373413e-01" purity="9.0298318862915039e-01" nType="0">
          <Node pos="l" depth="2" NCoef="0" IVar="-1" Cut="0.0000000000000000e+00" cType="1" res="6.6518923267722130e-04" rms="3.1529983878135681e-01" purity="8.8564008474349976e-01" nType="-99"/>
          <Node pos="r" depth="2" NCoef="0" IVar="-1" Cut="0.0000000000000000e+00" cType="1" res="1.8822809215635061e-03" rms="2.4918279051780701e-01" purity="9.3345588445663452e-01" nType="-99"/>
        </Node>
      </Node>
    </BinaryTree>
    <BinaryTree type="DecisionTree" boostWeight="1.0000000000000000e+00" itree="1267">
      <Node pos="s" depth="0" NCoef="0" IVar="5" Cut="1.6313576562500000e+05" cType="1" res="0.0000000000000000e+00" rms="3.2186627558066495e+22" purity="4.8605194687843323e-01" nType="0">
        <Node pos="l" depth="1" NCoef="0" IVar="2" Cut="9.0816859375000000e+04" cType="1" res="7.4171233177185059e-01" rms="4.3769297003746033e-01" purity="7.4171239137649536e-01" nType="0">
          <Node pos="l" depth="2" NCoef="0" IVar="-1" Cut="0.0000000000000000e+00" cType="1" res="1.7073489289032295e-05" rms="3.1827336549758911e-01" purity="8.5525798797607422e-01" nType="-99"/>
          <Node pos="r" depth="2" NCoef="0" IVar="-1" Cut="0.0000000000000000e+00" cType="1" res="-1.5486561460420489e-03" rms="2.2617475688457489e-01" purity="5.6177180260419846e-02" nType="-99"/>
        </Node>
        <Node pos="r" depth="1" NCoef="0" IVar="3" Cut="9.8787101562500000e+04" cType="1" res="4.1398563981056213e-01" rms="4.9300098419189453e-01" purity="4.1465973854064941e-01" nType="0">
          <Node pos="l" depth="2" NCoef="0" IVar="-1" Cut="0.0000000000000000e+00" cType="1" res="1.4835677575320005e-04" rms="3.6183351278305054e-01" purity="4.0895277261734009e-01" nType="-99"/>
          <Node pos="r" depth="2" NCoef="0" IVar="-1" Cut="0.0000000000000000e+00" cType="1" res="1.5653353184461594e-03" rms="4.2317956686019897e-01" purity="5.4037517309188843e-01" nType="-99"/>
        </Node>
      </Node>
    </BinaryTree>
    <BinaryTree type="DecisionTree" boostWeight="1.0000000000000000e+00" itree="1268">
      <Node pos="s" depth="0" NCoef="0" IVar="1" Cut="2.0203215625000000e+05" cType="1" res="6.2884694337844849e-01" rms="4.8338291049003601e-01" purity="6.2910753488540649e-01" nType="0">
        <Node pos="l" depth="1" NCoef="0" IVar="2" Cut="8.9653828125000000e+04" cType="1" res="1.5532651543617249e-01" rms="3.7287822365760803e-01" purity="8.5342139005661011e-01" nType="0">
          <Node pos="l" depth="2" NCoef="0" IVar="-1" Cut="0.0000000000000000e+00" cType="1" res="1.8291879314347170e-05" rms="2.0669163763523102e-01" purity="9.5802956819534302e-01" nType="-99"/>
          <Node pos="r" depth="2" NCoef="0" IVar="-1" Cut="0.0000000000000000e+00" cType="1" res="-1.6798014257801697e-05" rms="3.2983317971229553e-01" purity="2.2764216363430023e-01" nType="-99"/>
        </Node>
        <Node pos="r" depth="1" NCoef="0" IVar="4" Cut="7.6838750000000000e+04" cType="1" res="4.0773305296897888e-01" rms="4.9193894863128662e-01" purity="4.0825018286705017e-01" nType="0">
          <Node pos="l" depth="2" NCoef="0" IVar="-1" Cut="0.0000000000000000e+00" cType="1" res="-3.1445498461835086e-04" rms="3.5945418477058411e-01" purity="3.5538989305496216e-01" nType="-99"/>
          <Node pos="r" depth="2" NCoef="0" IVar="-1" Cut="0.0000000000000000e+00" cType="1" res="6.9001544034108520e-04" rms="2.8075897693634033e-01" purity="9.1324639320373535e-01" nType="-99"/>
        </Node>
      </Node>
    </BinaryTree>
    <BinaryTree type="DecisionTree" boostWeight="1.0000000000000000e+00" itree="1269">
      <Node pos="s" depth="0" NCoef="0" IVar="5" Cut="1.6699128125000000e+05" cType="1" res="5.4925662279129028e-01" rms="4.9770370125770569e-01" purity="5.4939180612564087e-01" nType="0">
        <Node pos="l" depth="1" NCoef="0" IVar="4" Cut="1.8974667968750000e+04" cType="1" res="8.1752687692642212e-01" rms="3.8623395562171936e-01" purity="8.1752687692642212e-01" nType="0">
          <Node pos="l" depth="2" NCoef="0" IVar="-1" Cut="0.0000000000000000e+00" cType="1" res="1.6707431059330702e-03" rms="1.6495369374752045e-01" purity="2.8224842622876167e-02" nType="-99"/>
          <Node pos="r" depth="2" NCoef="0" IVar="-1" Cut="0.0000000000000000e+00" cType="1" res="1.6975172911770642e-05" rms="2.4634325504302979e-01" purity="9.3166005611419678e-01" nType="-99"/>
        </Node>
        <Node pos="r" depth="1" NCoef="0" IVar="3" Cut="9.8787039062500000e+04" cType="1" res="4.1190370917320251e-01" rms="4.9238550662994385e-01" purity="4.1210815310478210e-01" nType="0">
          <Node pos="l" depth="2" NCoef="0" IVar="-1" Cut="0.0000000000000000e+00" cType="1" res="-1.5812518540769815e-04" rms="3.5861799120903015e-01" purity="4.0673813223838806e-01" nType="-99"/>
          <Node pos="r" depth="2" NCoef="0" IVar="-1" Cut="0.0000000000000000e+00" cType="1" res="1.4142849249765277e-03" rms="4.0214589238166809e-01" purity="5.3330707550048828e-01" nType="-99"/>
        </Node>
      </Node>
    </BinaryTree>
    <BinaryTree type="DecisionTree" boostWeight="1.0000000000000000e+00" itree="1270">
      <Node pos="s" depth="0" NCoef="0" IVar="3" Cut="9.5950890625000000e+04" cType="1" res="4.7797989845275879e-01" rms="4.9951487779617310e-01" purity="4.7797989845275879e-01" nType="0">
        <Node pos="l" depth="1" NCoef="0" IVar="2" Cut="8.7707960937500000e+04" cType="1" res="3.7538537383079529e-01" rms="4.8422226309776306e-01" purity="3.7538537383079529e-01" nType="0">
          <Node pos="l" depth="2" NCoef="0" IVar="-1" Cut="0.0000000000000000e+00" cType="1" res="1.1235816637054086e-03" rms="3.7295907735824585e-01" purity="4.0987300872802734e-01" nType="-99"/>
          <Node pos="r" depth="2" NCoef="0" IVar="-1" Cut="0.0000000000000000e+00" cType="1" res="-3.1482293707085773e-05" rms="3.4812036156654358e-01" purity="3.7381216883659363e-01" nType="-99"/>
        </Node>
        <Node pos="r" depth="1" NCoef="0" IVar="3" Cut="9.6732921875000000e+04" cType="1" res="7.6842230558395386e-01" rms="4.2213979363441467e-01" purity="7.6867485046386719e-01" nType="0">
          <Node pos="l" depth="2" NCoef="0" IVar="-1" Cut="0.0000000000000000e+00" cType="1" res="1.6948351913015358e-05" rms="3.2413005828857422e-01" purity="9.1434991359710693e-01" nType="-99"/>
          <Node pos="r" depth="2" NCoef="0" IVar="-1" Cut="0.0000000000000000e+00" cType="1" res="-1.2303030234761536e-04" rms="3.6675101518630981e-01" purity="4.1852235794067383e-01" nType="-99"/>
        </Node>
      </Node>
    </BinaryTree>
    <BinaryTree type="DecisionTree" boostWeight="1.0000000000000000e+00" itree="1271">
      <Node pos="s" depth="0" NCoef="0" IVar="2" Cut="9.1857468750000000e+04" cType="1" res="4.6792629361152649e-01" rms="4.9897021055221558e-01" purity="4.6792629361152649e-01" nType="0">
        <Node pos="l" depth="1" NCoef="0" IVar="2" Cut="8.9226109375000000e+04" cType="1" res="3.8213878870010376e-01" rms="4.8591020703315735e-01" purity="3.8213878870010376e-01" nType="0">
          <Node pos="l" depth="2" NCoef="0" IVar="-1" Cut="0.0000000000000000e+00" cType="1" res="-7.1464211214333773e-04" rms="3.4159046411514282e-01" purity="3.4999680519104004e-01" nType="-99"/>
          <Node pos="r" depth="2" NCoef="0" IVar="-1" Cut="0.0000000000000000e+00" cType="1" res="2.5959598133340478e-04" rms="3.5164877772331238e-01" purity="3.9074090123176575e-01" nType="-99"/>
        </Node>
        <Node pos="r" depth="1" NCoef="0" IVar="2" Cut="9.2050453125000000e+04" cType="1" res="5.9939819574356079e-01" rms="4.9002039432525635e-01" purity="5.9939825534820557e-01" nType="0">
          <Node pos="l" depth="2" NCoef="0" IVar="-1" Cut="0.0000000000000000e+00" cType="1" res="2.2315194655675441e-05" rms="3.6948844790458679e-01" purity="8.8146167993545532e-01" nType="-99"/>
          <Node pos="r" depth="2" NCoef="0" IVar="-1" Cut="0.0000000000000000e+00" cType="1" res="-4.2794676119228825e-05" rms="3.5437712073326111e-01" purity="3.8562172651290894e-01" nType="-99"/>
        </Node>
      </Node>
    </BinaryTree>
    <BinaryTree type="DecisionTree" boostWeight="1.0000000000000000e+00" itree="1272">
      <Node pos="s" depth="0" NCoef="0" IVar="2" Cut="9.1879929687500000e+04" cType="1" res="4.7299149632453918e-01" rms="4.9939072132110596e-01" purity="4.7320127487182617e-01" nType="0">
        <Node pos="l" depth="1" NCoef="0" IVar="3" Cut="9.8077953125000000e+04" cType="1" res="3.8738915324211121e-01" rms="4.8725163936614990e-01" purity="3.8748449087142944e-01" nType="0">
          <Node pos="l" depth="2" NCoef="0" IVar="-1" Cut="0.0000000000000000e+00" cType="1" res="1.4108848699834198e-04" rms="3.4763851761817932e-01" purity="3.8126853108406067e-01" nType="-99"/>
          <Node pos="r" depth="2" NCoef="0" IVar="-1" Cut="0.0000000000000000e+00" cType="1" res="1.0644604917615652e-03" rms="3.9873579144477844e-01" purity="4.9899321794509888e-01" nType="-99"/>
        </Node>
        <Node pos="r" depth="1" NCoef="0" IVar="2" Cut="9.2070617187500000e+04" cType="1" res="6.0642868280410767e-01" rms="4.8854163289070129e-01" purity="6.0681688785552979e-01" nType="0">
          <Node pos="l" depth="2" NCoef="0" IVar="-1" Cut="0.0000000000000000e+00" cType="1" res="2.2604561308980919e-05" rms="3.6597260832786560e-01" purity="8.8261115550994873e-01" nType="-99"/>
          <Node pos="r" depth="2" NCoef="0" IVar="-1" Cut="0.0000000000000000e+00" cType="1" res="-3.1900864996714517e-05" rms="3.5215753316879272e-01" purity="3.9432930946350098e-01" nType="-99"/>
        </Node>
      </Node>
    </BinaryTree>
    <BinaryTree type="DecisionTree" boostWeight="1.0000000000000000e+00" itree="1273">
      <Node pos="s" depth="0" NCoef="0" IVar="0" Cut="1.0000000000000000e+00" cType="1" res="3.4732821583747864e-01" rms="4.9796512722969055e-01" purity="6.3561910390853882e-01" nType="0">
        <Node pos="l" depth="1" NCoef="0" IVar="4" Cut="1.9615392578125000e+04" cType="1" res="6.5629005432128906e-01" rms="4.7494569420814514e-01" purity="6.5629005432128906e-01" nType="0">
          <Node pos="l" depth="2" NCoef="0" IVar="-1" Cut="0.0000000000000000e+00" cType="1" res="-4.1294023394584656e-03" rms="1.8196105957031250e-01" purity="3.4360282123088837e-02" nType="-99"/>
          <Node pos="r" depth="2" NCoef="0" IVar="-1" Cut="0.0000000000000000e+00" cType="1" res="1.8981349057867192e-05" rms="4.0637192130088806e-01" purity="8.3152359724044800e-01" nType="-99"/>
        </Node>
        <Node pos="r" depth="1" NCoef="0" IVar="2" Cut="8.9554046875000000e+04" cType="1" res="inf" rms="0.0000000000000000e+00" purity="5.9099411964416504e-01" nType="0">
          <Node pos="l" depth="2" NCoef="0" IVar="-1" Cut="0.0000000000000000e+00" cType="1" res="8.4937002975493670e-04" rms="3.9796653389930725e-01" purity="6.2205791473388672e-01" nType="-99"/>
          <Node pos="r" depth="2" NCoef="0" IVar="-1" Cut="0.0000000000000000e+00" cType="1" res="-4.1772753320401534e-05" rms="3.9689248800277710e-01" purity="5.8345776796340942e-01" nType="-99"/>
        </Node>
      </Node>
    </BinaryTree>
    <BinaryTree type="DecisionTree" boostWeight="1.0000000000000000e+00" itree="1274">
      <Node pos="s" depth="0" NCoef="0" IVar="2" Cut="8.9692742187500000e+04" cType="1" res="5.1815605163574219e-01" rms="4.9967023730278015e-01" purity="5.1815605163574219e-01" nType="0">
        <Node pos="l" depth="1" NCoef="0" IVar="5" Cut="1.8374878125000000e+05" cType="1" res="7.3924177885055542e-01" rms="4.3904826045036316e-01" purity="7.3924177885055542e-01" nType="0">
          <Node pos="l" depth="2" NCoef="0" IVar="-1" Cut="0.0000000000000000e+00" cType="1" res="2.0157462131464854e-05" rms="3.0740007758140564e-01" purity="8.7427008152008057e-01" nType="-99"/>
          <Node pos="r" depth="2" NCoef="0" IVar="-1" Cut="0.0000000000000000e+00" cType="1" res="-2.8964070952497423e-04" rms="3.6542311310768127e-01" purity="4.5197260379791260e-01" nType="-99"/>
        </Node>
        <Node pos="r" depth="1" NCoef="0" IVar="5" Cut="8.2076375000000000e+05" cType="1" res="3.7319236993789673e-01" rms="4.8435050249099731e-01" purity="3.7386795878410339e-01" nType="0">
          <Node pos="l" depth="2" NCoef="0" IVar="-1" Cut="0.0000000000000000e+00" cType="1" res="-1.6804337792564183e-04" rms="3.5791945457458496e-01" purity="3.4260407090187073e-01" nType="-99"/>
          <Node pos="r" depth="2" NCoef="0" IVar="-1" Cut="0.0000000000000000e+00" cType="1" res="1.9427416846156120e-03" rms="2.6934105157852173e-01" purity="9.0352189540863037e-01" nType="-99"/>
        </Node>
      </Node>
    </BinaryTree>
    <BinaryTree type="DecisionTree" boostWeight="1.0000000000000000e+00" itree="1275">
      <Node pos="s" depth="0" NCoef="0" IVar="2" Cut="8.9630000000000000e+04" cType="1" res="6.6930437088012695e-01" rms="4.7056892514228821e-01" purity="6.6951656341552734e-01" nType="0">
        <Node pos="l" depth="1" NCoef="0" IVar="2" Cut="8.9231132812500000e+04" cType="1" res="8.6146235466003418e-01" rms="3.4546342492103577e-01" purity="8.6163276433944702e-01" nType="0">
          <Node pos="l" depth="2" NCoef="0" IVar="-1" Cut="0.0000000000000000e+00" cType="1" res="-2.4184858193621039e-04" rms="3.5363420844078064e-01" purity="3.7702125310897827e-01" nType="-99"/>
          <Node pos="r" depth="2" NCoef="0" IVar="-1" Cut="0.0000000000000000e+00" cType="1" res="2.1341889805626124e-05" rms="2.2948150336742401e-01" purity="9.5962780714035034e-01" nType="-99"/>
        </Node>
        <Node pos="r" depth="1" NCoef="0" IVar="1" Cut="2.8793446875000000e+05" cType="1" res="4.8517420887947083e-01" rms="4.9997425079345703e-01" purity="4.8542645573616028e-01" nType="0">
          <Node pos="l" depth="2" NCoef="0" IVar="-1" Cut="0.0000000000000000e+00" cType="1" res="-7.5660529546439648e-04" rms="3.3559364080429077e-01" purity="2.9136365652084351e-01" nType="-99"/>
          <Node pos="r" depth="2" NCoef="0" IVar="-1" Cut="0.0000000000000000e+00" cType="1" res="2.2693169739795849e-05" rms="5.0194454193115234e-01" purity="6.9568228721618652e-01" nType="-99"/>
        </Node>
      </Node>
    </BinaryTree>
    <BinaryTree type="DecisionTree" boostWeight="1.0000000000000000e+00" itree="1276">
      <Node pos="s" depth="0" NCoef="0" IVar="3" Cut="8.9426328125000000e+04" cType="1" res="5.1740050315856934e-01" rms="4.9995428323745728e-01" purity="5.1779299974441528e-01" nType="0">
        <Node pos="l" depth="1" NCoef="0" IVar="3" Cut="8.8492710937500000e+04" cType="1" res="6.1122643947601318e-01" rms="4.8774901032447815e-01" purity="6.1163717508316040e-01" nType="0">
          <Node pos="l" depth="2" NCoef="0" IVar="-1" Cut="0.0000000000000000e+00" cType="1" res="1.3105336984153837e-04" rms="3.4956550598144531e-01" purity="3.9576256275177002e-01" nType="-99"/>
          <Node pos="r" depth="2" NCoef="0" IVar="-1" Cut="0.0000000000000000e+00" cType="1" res="2.4897844923543744e-05" rms="4.1719859838485718e-01" purity="8.3164584636688232e-01" nType="-99"/>
        </Node>
        <Node pos="r" depth="1" NCoef="0" IVar="3" Cut="9.8860539062500000e+04" cType="1" res="3.8525182008743286e-01" rms="4.8710760474205017e-01" purity="3.8582125306129456e-01" nType="0">
          <Node pos="l" depth="2" NCoef="0" IVar="-1" Cut="0.0000000000000000e+00" cType="1" res="-1.9230274483561516e-04" rms="3.5216236114501953e-01" purity="3.7392091751098633e-01" nType="-99"/>
          <Node pos="r" depth="2" NCoef="0" IVar="-1" Cut="0.0000000000000000e+00" cType="1" res="1.1039564851671457e-03" rms="3.9267718791961670e-01" purity="5.2585995197296143e-01" nType="-99"/>
        </Node>
      </Node>
    </BinaryTree>
    <BinaryTree type="DecisionTree" boostWeight="1.0000000000000000e+00" itree="1277">
      <Node pos="s" depth="0" NCoef="0" IVar="4" Cut="7.7960796875000000e+04" cType="1" res="3.7743869423866272e-01" rms="4.8474603891372681e-01" purity="3.7743866443634033e-01" nType="0">
        <Node pos="l" depth="1" NCoef="0" IVar="0" Cut="3.0000000000000000e+00" cType="1" res="-6.8012485280632973e-03" rms="3.5584372282028198e-01" purity="3.3198797702789307e-01" nType="0">
          <Node pos="l" depth="2" NCoef="0" IVar="-1" Cut="0.0000000000000000e+00" cType="1" res="-6.2275334494188428e-04" rms="3.6148768663406372e-01" purity="2.6077863574028015e-01" nType="-99"/>
          <Node pos="r" depth="2" NCoef="0" IVar="-1" Cut="0.0000000000000000e+00" cType="1" res="9.6831971313804388e-04" rms="3.0644789338111877e-01" purity="8.9277023077011108e-01" nType="-99"/>
        </Node>
        <Node pos="r" depth="1" NCoef="0" IVar="-1" Cut="0.0000000000000000e+00" cType="1" res="5.4597348207607865e-04" rms="3.0026870965957642e-01" purity="8.9813613891601562e-01" nType="-99"/>
      </Node>
    </BinaryTree>
    <BinaryTree type="DecisionTree" boostWeight="1.0000000000000000e+00" itree="1278">
      <Node pos="s" depth="0" NCoef="0" IVar="1" Cut="1.9914971875000000e+05" cType="1" res="4.4888177514076233e-01" rms="4.9787223339080811e-01" purity="4.4963839650154114e-01" nType="0">
        <Node pos="l" depth="1" NCoef="0" IVar="2" Cut="8.9653953125000000e+04" cType="1" res="5.2157956361770630e-01" rms="5.1716434955596924e-01" purity="5.8032733201980591e-01" nType="0">
          <Node pos="l" depth="2" NCoef="0" IVar="-1" Cut="0.0000000000000000e+00" cType="1" res="2.9636668841703795e-05" rms="3.9337641000747681e-01" purity="8.1874591112136841e-01" nType="-99"/>
          <Node pos="r" depth="2" NCoef="0" IVar="-1" Cut="0.0000000000000000e+00" cType="1" res="5.8656267356127501e-04" rms="3.3343842625617981e-01" purity="2.3256249725818634e-01" nType="-99"/>
        </Node>
        <Node pos="r" depth="1" NCoef="0" IVar="3" Cut="9.8929515625000000e+04" cType="1" res="4.1226586699485779e-01" rms="4.9287828803062439e-01" purity="4.1323330998420715e-01" nType="0">
          <Node pos="l" depth="2" NCoef="0" IVar="-1" Cut="0.0000000000000000e+00" cType="1" res="-8.9681867393665016e-05" rms="3.5099142789840698e-01" purity="4.0556165575981140e-01" nType="-99"/>
          <Node pos="r" depth="2" NCoef="0" IVar="-1" Cut="0.0000000000000000e+00" cType="1" res="1.1831878218799829e-03" rms="4.0038210153579712e-01" purity="5.6593257188796997e-01" nType="-99"/>
        </Node>
      </Node>
    </BinaryTree>
    <BinaryTree type="DecisionTree" boostWeight="1.0000000000000000e+00" itree="1279">
      <Node pos="s" depth="0" NCoef="0" IVar="2" Cut="9.1847968750000000e+04" cType="1" res="4.7437608242034912e-01" rms="4.9947130680084229e-01" purity="4.7459408640861511e-01" nType="0">
        <Node pos="l" depth="1" NCoef="0" IVar="2" Cut="8.7241203125000000e+04" cType="1" res="3.8933724164962769e-01" rms="4.8781615495681763e-01" purity="3.8954809308052063e-01" nType="0">
          <Node pos="l" depth="2" NCoef="0" IVar="-1" Cut="0.0000000000000000e+00" cType="1" res="1.5604638028889894e-03" rms="3.9455634355545044e-01" purity="4.4124546647071838e-01" nType="-99"/>
          <Node pos="r" depth="2" NCoef="0" IVar="-1" Cut="0.0000000000000000e+00" cType="1" res="-3.4901422623079270e-05" rms="3.4563061594963074e-01" purity="3.8667294383049011e-01" nType="-99"/>
        </Node>
        <Node pos="r" depth="1" NCoef="0" IVar="2" Cut="9.2038664062500000e+04" cType="1" res="6.0608863830566406e-01" rms="4.8876264691352844e-01" purity="6.0646146535873413e-01" nType="0">
          <Node pos="l" depth="2" NCoef="0" IVar="-1" Cut="0.0000000000000000e+00" cType="1" res="2.2583088139072061e-05" rms="3.6874410510063171e-01" purity="8.7892556190490723e-01" nType="-99"/>
          <Node pos="r" depth="2" NCoef="0" IVar="-1" Cut="0.0000000000000000e+00" cType="1" res="2.6903886464424431e-04" rms="3.5965085029602051e-01" purity="3.9824053645133972e-01" nType="-99"/>
        </Node>
      </Node>
    </BinaryTree>
    <BinaryTree type="DecisionTree" boostWeight="1.0000000000000000e+00" itree="1280">
      <Node pos="s" depth="0" NCoef="0" IVar="5" Cut="1.6215667187500000e+05" cType="1" res="5.4895478487014771e-01" rms="4.9769452214241028e-01" purity="5.4916703701019287e-01" nType="0">
        <Node pos="l" depth="1" NCoef="0" IVar="-1" Cut="0.0000000000000000e+00" cType="1" res="1.7020294762915000e-05" rms="3.2485711574554443e-01" purity="8.5010451078414917e-01" nType="-99"/>
        <Node pos="r" depth="1" NCoef="0" IVar="4" Cut="8.2745929687500000e+04" cType="1" res="4.0544232726097107e-01" rms="4.9112236499786377e-01" purity="4.0575575828552246e-01" nType="0">
          <Node pos="l" depth="2" NCoef="0" IVar="-1" Cut="0.0000000000000000e+00" cType="1" res="-2.4104217300191522e-04" rms="3.6483001708984375e-01" purity="3.6150392889976501e-01" nType="-99"/>
          <Node pos="r" depth="2" NCoef="0" IVar="-1" Cut="0.0000000000000000e+00" cType="1" res="6.9460889790207148e-04" rms="2.8187844157218933e-01" purity="9.1297435760498047e-01" nType="-99"/>
        </Node>
      </Node>
    </BinaryTree>
    <BinaryTree type="DecisionTree" boostWeight="1.0000000000000000e+00" itree="1281">
      <Node pos="s" depth="0" NCoef="0" IVar="1" Cut="1.9996939062500000e+05" cType="1" res="4.9882677197456360e-01" rms="5.0024253129959106e-01" purity="4.9907073378562927e-01" nType="0">
        <Node pos="l" depth="1" NCoef="0" IVar="2" Cut="8.9633867187500000e+04" cType="1" res="6.5153652429580688e-01" rms="4.9237596988677979e-01" purity="7.0036703348159790e-01" nType="0">
          <Node pos="l" depth="2" NCoef="0" IVar="-1" Cut="0.0000000000000000e+00" cType="1" res="2.9642131266882643e-05" rms="3.1386974453926086e-01" purity="8.9478105306625366e-01" nType="-99"/>
          <Node pos="r" depth="2" NCoef="0" IVar="-1" Cut="0.0000000000000000e+00" cType="1" res="-5.1180613809265196e-05" rms="3.3419001102447510e-01" purity="2.2356922924518585e-01" nType="-99"/>
        </Node>
        <Node pos="r" depth="1" NCoef="0" IVar="4" Cut="7.7944625000000000e+04" cType="1" res="4.1566643118858337e-01" rms="4.9318602681159973e-01" purity="4.1601106524467468e-01" nType="0">
          <Node pos="l" depth="2" NCoef="0" IVar="-1" Cut="0.0000000000000000e+00" cType="1" res="-1.9499724658089690e-05" rms="3.5969963669776917e-01" purity="3.6659398674964905e-01" nType="-99"/>
          <Node pos="r" depth="2" NCoef="0" IVar="-1" Cut="0.0000000000000000e+00" cType="1" res="7.2471087332814932e-04" rms="2.8233548998832703e-01" purity="9.1260677576065063e-01" nType="-99"/>
        </Node>
      </Node>
    </BinaryTree>
    <BinaryTree type="DecisionTree" boostWeight="1.0000000000000000e+00" itree="1282">
      <Node pos="s" depth="0" NCoef="0" IVar="2" Cut="9.1802585937500000e+04" cType="1" res="4.6686324477195740e-01" rms="4.9898216128349304e-01" purity="4.6694445610046387e-01" nType="0">
        <Node pos="l" depth="1" NCoef="0" IVar="5" Cut="2.2346950000000000e+05" cType="1" res="3.8290342688560486e-01" rms="4.8623496294021606e-01" purity="3.8303941488265991e-01" nType="0">
          <Node pos="l" depth="2" NCoef="0" IVar="-1" Cut="0.0000000000000000e+00" cType="1" res="-2.2707285825163126e-03" rms="2.7159228920936584e-01" purity="1.0452710837125778e-01" nType="-99"/>
          <Node pos="r" depth="2" NCoef="0" IVar="-1" Cut="0.0000000000000000e+00" cType="1" res="3.1034409767016768e-04" rms="3.9333263039588928e-01" purity="5.7056224346160889e-01" nType="-99"/>
        </Node>
        <Node pos="r" depth="1" NCoef="0" IVar="2" Cut="9.1993554687500000e+04" cType="1" res="5.9052568674087524e-01" rms="4.9255079030990601e-01" purity="5.9132689237594604e-01" nType="0">
          <Node pos="l" depth="2" NCoef="0" IVar="-1" Cut="0.0000000000000000e+00" cType="1" res="2.2342521333484910e-05" rms="3.7677314877510071e-01" purity="8.7463104724884033e-01" nType="-99"/>
          <Node pos="r" depth="2" NCoef="0" IVar="-1" Cut="0.0000000000000000e+00" cType="1" res="-1.6658302047289908e-04" rms="3.5709112882614136e-01" purity="3.8087102770805359e-01" nType="-99"/>
        </Node>
      </Node>
    </BinaryTree>
    <BinaryTree type="DecisionTree" boostWeight="1.0000000000000000e+00" itree="1283">
      <Node pos="s" depth="0" NCoef="0" IVar="0" Cut="1.0000000000000000e+00" cType="1" res="3.7617829442024231e-01" rms="4.9647942185401917e-01" purity="6.5819245576858521e-01" nType="0">
        <Node pos="l" depth="1" NCoef="0" IVar="4" Cut="1.9682429687500000e+04" cType="1" res="6.8362253904342651e-01" rms="4.6506211161613464e-01" purity="6.8362253904342651e-01" nType="0">
          <Node pos="l" depth="2" NCoef="0" IVar="-1" Cut="0.0000000000000000e+00" cType="1" res="-3.4114989102818072e-04" rms="1.9701384007930756e-01" purity="4.0539126843214035e-02" nType="-99"/>
          <Node pos="r" depth="2" NCoef="0" IVar="-1" Cut="0.0000000000000000e+00" cType="1" res="2.1474257664522156e-05" rms="3.8779383897781372e-01" purity="8.5301780700683594e-01" nType="-99"/>
        </Node>
        <Node pos="r" depth="1" NCoef="0" IVar="2" Cut="8.9970117187500000e+04" cType="1" res="5.9896361827850342e-01" rms="4.9067908525466919e-01" purity="5.9971767663955688e-01" nType="0">
          <Node pos="l" depth="2" NCoef="0" IVar="-1" Cut="0.0000000000000000e+00" cType="1" res="4.4828449608758092e-04" rms="3.9866718649864197e-01" purity="6.3243633508682251e-01" nType="-99"/>
          <Node pos="r" depth="2" NCoef="0" IVar="-1" Cut="0.0000000000000000e+00" cType="1" res="7.7068056270945817e-05" rms="3.9376950263977051e-01" purity="5.8774185180664062e-01" nType="-99"/>
        </Node>
      </Node>
    </BinaryTree>
    <BinaryTree type="DecisionTree" boostWeight="1.0000000000000000e+00" itree="1284">
      <Node pos="s" depth="0" NCoef="0" IVar="2" Cut="8.9600773437500000e+04" cType="1" res="5.2820771932601929e-01" rms="4.9941271543502808e-01" purity="5.2841645479202271e-01" nType="0">
        <Node pos="l" depth="1" NCoef="0" IVar="5" Cut="1.8231276562500000e+05" cType="1" res="7.5594300031661987e-01" rms="4.2976367473602295e-01" purity="7.5614666938781738e-01" nType="0">
          <Node pos="l" depth="2" NCoef="0" IVar="-1" Cut="0.0000000000000000e+00" cType="1" res="2.0345714801806025e-05" rms="2.9295241832733154e-01" purity="8.8827961683273315e-01" nType="-99"/>
          <Node pos="r" depth="2" NCoef="0" IVar="-1" Cut="0.0000000000000000e+00" cType="1" res="2.7971540112048388e-04" rms="3.8057851791381836e-01" purity="4.6465882658958435e-01" nType="-99"/>
        </Node>
        <Node pos="r" depth="1" NCoef="0" IVar="1" Cut="2.5259195312500000e+05" cType="1" res="3.8895395398139954e-01" rms="4.8773008584976196e-01" purity="3.8916581869125366e-01" nType="0">
          <Node pos="l" depth="2" NCoef="0" IVar="-1" Cut="0.0000000000000000e+00" cType="1" res="-8.3994638407602906e-04" rms="3.3066746592521667e-01" purity="2.7056273818016052e-01" nType="-99"/>
          <Node pos="r" depth="2" NCoef="0" IVar="-1" Cut="0.0000000000000000e+00" cType="1" res="2.5133733288384974e-04" rms="3.6430484056472778e-01" purity="4.9665728211402893e-01" nType="-99"/>
        </Node>
      </Node>
    </BinaryTree>
    <BinaryTree type="DecisionTree" boostWeight="1.0000000000000000e+00" itree="1285">
      <Node pos="s" depth="0" NCoef="0" IVar="0" Cut="1.0000000000000000e+00" cType="1" res="2.6645991206169128e-01" rms="4.9144801497459412e-01" purity="5.7720053195953369e-01" nType="0">
        <Node pos="l" depth="1" NCoef="0" IVar="4" Cut="1.9618507812500000e+04" cType="1" res="5.7037264108657837e-01" rms="4.9502292275428772e-01" purity="5.7037258148193359e-01" nType="0">
          <Node pos="l" depth="2" NCoef="0" IVar="-1" Cut="0.0000000000000000e+00" cType="1" res="6.7397434031590819e-04" rms="2.0215341448783875e-01" purity="4.2997013777494431e-02" nType="-99"/>
          <Node pos="r" depth="2" NCoef="0" IVar="-1" Cut="0.0000000000000000e+00" cType="1" res="2.0815412426600233e-05" rms="4.5233404636383057e-01" purity="7.7334934473037720e-01" nType="-99"/>
        </Node>
        <Node pos="r" depth="1" NCoef="0" IVar="3" Cut="9.2405101562500000e+04" cType="1" res="5.8884799480438232e-01" rms="4.9204272031784058e-01" purity="5.8884799480438232e-01" nType="0">
          <Node pos="l" depth="2" NCoef="0" IVar="-1" Cut="0.0000000000000000e+00" cType="1" res="5.2562914788722992e-04" rms="4.0192371606826782e-01" purity="5.9396797418594360e-01" nType="-99"/>
          <Node pos="r" depth="2" NCoef="0" IVar="-1" Cut="0.0000000000000000e+00" cType="1" res="-3.1077166204340756e-04" rms="3.9732509851455688e-01" purity="5.8002054691314697e-01" nType="-99"/>
        </Node>
      </Node>
    </BinaryTree>
    <BinaryTree type="DecisionTree" boostWeight="1.0000000000000000e+00" itree="1286">
      <Node pos="s" depth="0" NCoef="0" IVar="5" Cut="1.6601217187500000e+05" cType="1" res="5.4828095436096191e-01" rms="4.9783498048782349e-01" purity="5.4852789640426636e-01" nType="0">
        <Node pos="l" depth="1" NCoef="0" IVar="4" Cut="1.8402080078125000e+04" cType="1" res="8.2433414459228516e-01" rms="3.8053560256958008e-01" purity="8.2433414459228516e-01" nType="0">
          <Node pos="l" depth="2" NCoef="0" IVar="-1" Cut="0.0000000000000000e+00" cType="1" res="5.4811956360936165e-03" rms="1.7121560871601105e-01" purity="3.0098600313067436e-02" nType="-99"/>
          <Node pos="r" depth="2" NCoef="0" IVar="-1" Cut="0.0000000000000000e+00" cType="1" res="1.7119762560469098e-05" rms="2.5529858469963074e-01" purity="9.2750066518783569e-01" nType="-99"/>
        </Node>
        <Node pos="r" depth="1" NCoef="0" IVar="3" Cut="8.3185875000000000e+04" cType="1" res="4.0778586268424988e-01" rms="4.9168503284454346e-01" purity="4.0815845131874084e-01" nType="0">
          <Node pos="l" depth="2" NCoef="0" IVar="-1" Cut="0.0000000000000000e+00" cType="1" res="2.8042594203725457e-04" rms="3.4123775362968445e-01" purity="5.6854248046875000e-01" nType="-99"/>
          <Node pos="r" depth="2" NCoef="0" IVar="-1" Cut="0.0000000000000000e+00" cType="1" res="-1.2107803922845051e-04" rms="3.6131432652473450e-01" purity="3.9954927563667297e-01" nType="-99"/>
        </Node>
      </Node>
    </BinaryTree>
    <BinaryTree type="DecisionTree" boostWeight="1.0000000000000000e+00" itree="1287">
      <Node pos="s" depth="0" NCoef="0" IVar="5" Cut="1.6601217187500000e+05" cType="1" res="5.5598580837249756e-01" rms="4.9690526723861694e-01" purity="5.5611068010330200e-01" nType="0">
        <Node pos="l" depth="1" NCoef="0" IVar="3" Cut="8.9710539062500000e+04" cType="1" res="8.2680165767669678e-01" rms="3.7841865420341492e-01" purity="8.2680165767669678e-01" nType="0">
          <Node pos="l" depth="2" NCoef="0" IVar="-1" Cut="0.0000000000000000e+00" cType="1" res="-2.7838841197080910e-04" rms="2.2607639431953430e-01" purity="7.9149894416332245e-02" nType="-99"/>
          <Node pos="r" depth="2" NCoef="0" IVar="-1" Cut="0.0000000000000000e+00" cType="1" res="1.7126571037806571e-05" rms="2.4694932997226715e-01" purity="9.2092573642730713e-01" nType="-99"/>
        </Node>
        <Node pos="r" depth="1" NCoef="0" IVar="0" Cut="1.0000000000000000e+00" cType="1" res="4.2955125682055950e-03" rms="3.5985714197158813e-01" purity="4.2023086547851562e-01" nType="0">
          <Node pos="l" depth="2" NCoef="0" IVar="-1" Cut="0.0000000000000000e+00" cType="1" res="-5.6437589228153229e-04" rms="2.9559233784675598e-01" purity="1.6581851243972778e-01" nType="-99"/>
          <Node pos="r" depth="2" NCoef="0" IVar="-1" Cut="0.0000000000000000e+00" cType="1" res="5.0602859118953347e-04" rms="3.9917421340942383e-01" purity="6.0201483964920044e-01" nType="-99"/>
        </Node>
      </Node>
    </BinaryTree>
    <BinaryTree type="DecisionTree" boostWeight="1.0000000000000000e+00" itree="1288">
      <Node pos="s" depth="0" NCoef="0" IVar="3" Cut="9.5809070312500000e+04" cType="1" res="3.7940973043441772e-01" rms="4.8524013161659241e-01" purity="3.7940970063209534e-01" nType="0">
        <Node pos="l" depth="1" NCoef="0" IVar="3" Cut="9.5187078125000000e+04" cType="1" res="3.7873598933219910e-01" rms="4.8507219552993774e-01" purity="3.7873595952987671e-01" nType="0">
          <Node pos="l" depth="2" NCoef="0" IVar="-1" Cut="0.0000000000000000e+00" cType="1" res="1.7594218661542982e-04" rms="3.5252556204795837e-01" purity="3.7474113702774048e-01" nType="-99"/>
          <Node pos="r" depth="2" NCoef="0" IVar="-1" Cut="0.0000000000000000e+00" cType="1" res="1.5176994493231177e-03" rms="3.9547240734100342e-01" purity="4.6785631775856018e-01" nType="-99"/>
        </Node>
        <Node pos="r" depth="1" NCoef="0" IVar="1" Cut="3.0062850000000000e+05" cType="1" res="3.8174957036972046e-01" rms="4.8628458380699158e-01" purity="3.8406091928482056e-01" nType="0">
          <Node pos="l" depth="2" NCoef="0" IVar="-1" Cut="0.0000000000000000e+00" cType="1" res="3.8056023186072707e-05" rms="3.6331099271774292e-01" purity="3.3833149075508118e-01" nType="-99"/>
          <Node pos="r" depth="2" NCoef="0" IVar="-1" Cut="0.0000000000000000e+00" cType="1" res="-4.5268996618688107e-03" rms="3.4955799579620361e-01" purity="4.7575846314430237e-01" nType="-99"/>
        </Node>
      </Node>
    </BinaryTree>
    <BinaryTree type="DecisionTree" boostWeight="1.0000000000000000e+00" itree="1289">
      <Node pos="s" depth="0" NCoef="0" IVar="3" Cut="9.8787656250000000e+04" cType="1" res="3.9510324597358704e-01" rms="4.8887285590171814e-01" purity="3.9510321617126465e-01" nType="0">
        <Node pos="l" depth="1" NCoef="0" IVar="0" Cut="1.0000000000000000e+00" cType="1" res="4.7921338118612766e-03" rms="3.5185739398002625e-01" purity="3.8958406448364258e-01" nType="0">
          <Node pos="l" depth="2" NCoef="0" IVar="-1" Cut="0.0000000000000000e+00" cType="1" res="-5.0286675104871392e-04" rms="2.8917258977890015e-01" purity="1.4240345358848572e-01" nType="-99"/>
          <Node pos="r" depth="2" NCoef="0" IVar="-1" Cut="0.0000000000000000e+00" cType="1" res="3.4007939393632114e-04" rms="3.9682754874229431e-01" purity="5.9798324108123779e-01" nType="-99"/>
        </Node>
        <Node pos="r" depth="1" NCoef="0" IVar="-1" Cut="0.0000000000000000e+00" cType="1" res="9.6627190941944718e-04" rms="3.8411742448806763e-01" purity="5.2188628911972046e-01" nType="-99"/>
      </Node>
    </BinaryTree>
    <BinaryTree type="DecisionTree" boostWeight="1.0000000000000000e+00" itree="1290">
      <Node pos="s" depth="0" NCoef="0" IVar="2" Cut="9.1774695312500000e+04" cType="1" res="5.3332519531250000e-01" rms="4.9888819456100464e-01" purity="5.3332513570785522e-01" nType="0">
        <Node pos="l" depth="1" NCoef="0" IVar="1" Cut="5.3517543750000000e+05" cType="1" res="3.8156929612159729e-01" rms="4.8577171564102173e-01" purity="3.8156929612159729e-01" nType="0">
          <Node pos="l" depth="2" NCoef="0" IVar="-1" Cut="0.0000000000000000e+00" cType="1" res="2.6479226653464139e-04" rms="3.5267564654350281e-01" purity="3.6465948820114136e-01" nType="-99"/>
          <Node pos="r" depth="2" NCoef="0" IVar="-1" Cut="0.0000000000000000e+00" cType="1" res="-8.5397937800735235e-04" rms="3.4614071249961853e-01" purity="6.2438148260116577e-01" nType="-99"/>
        </Node>
        <Node pos="r" depth="1" NCoef="0" IVar="2" Cut="9.1973664062500000e+04" cType="1" res="6.9546741247177124e-01" rms="4.6066200733184814e-01" purity="6.9588434696197510e-01" nType="0">
          <Node pos="l" depth="2" NCoef="0" IVar="-1" Cut="0.0000000000000000e+00" cType="1" res="2.2386409909813665e-05" rms="3.0000782012939453e-01" purity="9.2761051654815674e-01" nType="-99"/>
          <Node pos="r" depth="2" NCoef="0" IVar="-1" Cut="0.0000000000000000e+00" cType="1" res="2.2820870799478143e-04" rms="3.5901686549186707e-01" purity="3.8925242424011230e-01" nType="-99"/>
        </Node>
      </Node>
    </BinaryTree>
    <BinaryTree type="DecisionTree" boostWeight="1.0000000000000000e+00" itree="1291">
      <Node pos="s" depth="0" NCoef="0" IVar="3" Cut="9.5951070312500000e+04" cType="1" res="5.5846935510635376e-01" rms="4.9672320485115051e-01" purity="5.5869656801223755e-01" nType="0">
        <Node pos="l" depth="1" NCoef="0" IVar="3" Cut="9.5218382812500000e+04" cType="1" res="3.9319464564323425e-01" rms="4.8881661891937256e-01" purity="3.9375901222229004e-01" nType="0">
          <Node pos="l" depth="2" NCoef="0" IVar="-1" Cut="0.0000000000000000e+00" cType="1" res="1.4439338701777160e-04" rms="3.4853723645210266e-01" purity="3.9149087667465210e-01" nType="-99"/>
          <Node pos="r" depth="2" NCoef="0" IVar="-1" Cut="0.0000000000000000e+00" cType="1" res="2.9545885045081377e-03" rms="4.4413891434669495e-01" purity="4.4042062759399414e-01" nType="-99"/>
        </Node>
        <Node pos="r" depth="1" NCoef="0" IVar="3" Cut="9.6695726562500000e+04" cType="1" res="8.5505533218383789e-01" rms="3.5204502940177917e-01" purity="8.5505533218383789e-01" nType="0">
          <Node pos="l" depth="2" NCoef="0" IVar="-1" Cut="0.0000000000000000e+00" cType="1" res="1.7058338926290162e-05" rms="2.4477180838584900e-01" purity="9.5453935861587524e-01" nType="-99"/>
          <Node pos="r" depth="2" NCoef="0" IVar="-1" Cut="0.0000000000000000e+00" cType="1" res="-8.7119908130262047e-05" rms="3.5149663686752319e-01" purity="4.4053789973258972e-01" nType="-99"/>
        </Node>
      </Node>
    </BinaryTree>
    <BinaryTree type="DecisionTree" boostWeight="1.0000000000000000e+00" itree="1292">
      <Node pos="s" depth="0" NCoef="0" IVar="1" Cut="1.9224478125000000e+05" cType="1" res="4.9555006623268127e-01" rms="4.9998021125793457e-01" purity="4.9555006623268127e-01" nType="0">
        <Node pos="l" depth="1" NCoef="0" IVar="1" Cut="1.8817753125000000e+05" cType="1" res="2.0767766982316971e-02" rms="1.5882343053817749e-01" purity="8.0249905586242676e-01" nType="0">
          <Node pos="l" depth="2" NCoef="0" IVar="-1" Cut="0.0000000000000000e+00" cType="1" res="-4.4936616905033588e-03" rms="2.7876955270767212e-01" purity="1.7142206430435181e-01" nType="-99"/>
          <Node pos="r" depth="2" NCoef="0" IVar="-1" Cut="0.0000000000000000e+00" cType="1" res="2.9861917937523685e-05" rms="2.9777684807777405e-01" purity="9.0812098979949951e-01" nType="-99"/>
        </Node>
        <Node pos="r" depth="1" NCoef="0" IVar="3" Cut="9.8929492187500000e+04" cType="1" res="3.9888316392898560e-01" rms="4.8966863751411438e-01" purity="3.9888316392898560e-01" nType="0">
          <Node pos="l" depth="2" NCoef="0" IVar="-1" Cut="0.0000000000000000e+00" cType="1" res="9.6909890999086201e-05" rms="3.5504841804504395e-01" purity="3.9535218477249146e-01" nType="-99"/>
          <Node pos="r" depth="2" NCoef="0" IVar="-1" Cut="0.0000000000000000e+00" cType="1" res="1.3811537064611912e-03" rms="4.3077045679092407e-01" purity="4.7993680834770203e-01" nType="-99"/>
        </Node>
      </Node>
    </BinaryTree>
    <BinaryTree type="DecisionTree" boostWeight="1.0000000000000000e+00" itree="1293">
      <Node pos="s" depth="0" NCoef="0" IVar="2" Cut="9.1813062500000000e+04" cType="1" res="4.6660482883453369e-01" rms="4.9888351559638977e-01" purity="4.6660482883453369e-01" nType="0">
        <Node pos="l" depth="1" NCoef="0" IVar="1" Cut="1.9097787500000000e+05" cType="1" res="3.7544128298759460e-01" rms="4.8423662781715393e-01" purity="3.7544128298759460e-01" nType="0">
          <Node pos="l" depth="2" NCoef="0" IVar="-1" Cut="0.0000000000000000e+00" cType="1" res="-5.6207883171737194e-03" rms="2.8293302655220032e-01" purity="1.6081656515598297e-01" nType="-99"/>
          <Node pos="r" depth="2" NCoef="0" IVar="-1" Cut="0.0000000000000000e+00" cType="1" res="1.3114380999468267e-04" rms="3.5621598362922668e-01" purity="3.9087387919425964e-01" nType="-99"/>
        </Node>
        <Node pos="r" depth="1" NCoef="0" IVar="2" Cut="9.2007164062500000e+04" cType="1" res="5.9733319282531738e-01" rms="4.9072346091270447e-01" purity="5.9783828258514404e-01" nType="0">
          <Node pos="l" depth="2" NCoef="0" IVar="-1" Cut="0.0000000000000000e+00" cType="1" res="2.2327638362185098e-05" rms="3.7210363149642944e-01" purity="8.7448877096176147e-01" nType="-99"/>
          <Node pos="r" depth="2" NCoef="0" IVar="-1" Cut="0.0000000000000000e+00" cType="1" res="6.9213187089189887e-04" rms="3.7310370802879333e-01" purity="3.9903241395950317e-01" nType="-99"/>
        </Node>
      </Node>
    </BinaryTree>
    <BinaryTree type="DecisionTree" boostWeight="1.0000000000000000e+00" itree="1294">
      <Node pos="s" depth="0" NCoef="0" IVar="2" Cut="9.1849609375000000e+04" cType="1" res="4.6943202614784241e-01" rms="4.9906471371650696e-01" purity="4.6943202614784241e-01" nType="0">
        <Node pos="l" depth="1" NCoef="0" IVar="3" Cut="9.5099515625000000e+04" cType="1" res="3.7957394123077393e-01" rms="4.8528090119361877e-01" purity="3.7957394123077393e-01" nType="0">
          <Node pos="l" depth="2" NCoef="0" IVar="-1" Cut="0.0000000000000000e+00" cType="1" res="-6.5272513893432915e-05" rms="3.4581223130226135e-01" purity="3.6842340230941772e-01" nType="-99"/>
          <Node pos="r" depth="2" NCoef="0" IVar="-1" Cut="0.0000000000000000e+00" cType="1" res="8.0972880823537707e-04" rms="3.7334045767784119e-01" purity="4.3613210320472717e-01" nType="-99"/>
        </Node>
        <Node pos="r" depth="1" NCoef="0" IVar="2" Cut="9.2047007812500000e+04" cType="1" res="6.0417950153350830e-01" rms="4.8960939049720764e-01" purity="6.0475027561187744e-01" nType="0">
          <Node pos="l" depth="2" NCoef="0" IVar="-1" Cut="0.0000000000000000e+00" cType="1" res="2.2618363800575025e-05" rms="3.6819639801979065e-01" purity="8.8114351034164429e-01" nType="-99"/>
          <Node pos="r" depth="2" NCoef="0" IVar="-1" Cut="0.0000000000000000e+00" cType="1" res="4.7188397729769349e-04" rms="3.6705437302589417e-01" purity="3.9603307843208313e-01" nType="-99"/>
        </Node>
      </Node>
    </BinaryTree>
    <BinaryTree type="DecisionTree" boostWeight="1.0000000000000000e+00" itree="1295">
      <Node pos="s" depth="0" NCoef="0" IVar="2" Cut="9.1865859375000000e+04" cType="1" res="4.7466233372688293e-01" rms="4.9935758113861084e-01" purity="4.7466233372688293e-01" nType="0">
        <Node pos="l" depth="1" NCoef="0" IVar="4" Cut="8.2443242187500000e+03" cType="1" res="3.9285984635353088e-01" rms="4.8838609457015991e-01" purity="3.9285987615585327e-01" nType="0">
          <Node pos="l" depth="2" NCoef="0" IVar="-1" Cut="0.0000000000000000e+00" cType="1" res="-5.9789419174194336e-03" rms="2.3327340185642242e-01" purity="1.1916804313659668e-01" nType="-99"/>
          <Node pos="r" depth="2" NCoef="0" IVar="-1" Cut="0.0000000000000000e+00" cType="1" res="4.1929297731257975e-04" rms="3.6582207679748535e-01" purity="4.3454504013061523e-01" nType="-99"/>
        </Node>
        <Node pos="r" depth="1" NCoef="0" IVar="2" Cut="9.2056960937500000e+04" cType="1" res="6.0113698244094849e-01" rms="4.9016278982162476e-01" purity="6.0162526369094849e-01" nType="0">
          <Node pos="l" depth="2" NCoef="0" IVar="-1" Cut="0.0000000000000000e+00" cType="1" res="2.2464086214313284e-05" rms="3.6922800540924072e-01" purity="8.7739950418472290e-01" nType="-99"/>
          <Node pos="r" depth="2" NCoef="0" IVar="-1" Cut="0.0000000000000000e+00" cType="1" res="-2.1689906134270132e-04" rms="3.5438677668571472e-01" purity="3.8582453131675720e-01" nType="-99"/>
        </Node>
      </Node>
    </BinaryTree>
    <BinaryTree type="DecisionTree" boostWeight="1.0000000000000000e+00" itree="1296">
      <Node pos="s" depth="0" NCoef="0" IVar="5" Cut="1.7639929687500000e+05" cType="1" res="5.3306704759597778e-01" rms="4.9947971105575562e-01" purity="5.3380084037780762e-01" nType="0">
        <Node pos="l" depth="1" NCoef="0" IVar="4" Cut="2.3986222656250000e+04" cType="1" res="7.0291930437088013e-01" rms="4.5697239041328430e-01" purity="7.0291924476623535e-01" nType="0">
          <Node pos="l" depth="2" NCoef="0" IVar="-1" Cut="0.0000000000000000e+00" cType="1" res="2.4151047691702843e-03" rms="2.0510935783386230e-01" purity="4.7268059104681015e-02" nType="-99"/>
          <Node pos="r" depth="2" NCoef="0" IVar="-1" Cut="0.0000000000000000e+00" cType="1" res="2.0256724383216351e-05" rms="2.9305469989776611e-01" purity="9.1325068473815918e-01" nType="-99"/>
        </Node>
        <Node pos="r" depth="1" NCoef="0" IVar="2" Cut="8.8937015625000000e+04" cType="1" res="4.4663459062576294e-01" rms="4.9801337718963623e-01" purity="4.4774174690246582e-01" nType="0">
          <Node pos="l" depth="2" NCoef="0" IVar="-1" Cut="0.0000000000000000e+00" cType="1" res="-9.6824887441471219e-04" rms="3.6178568005561829e-01" purity="4.2634624242782593e-01" nType="-99"/>
          <Node pos="r" depth="2" NCoef="0" IVar="-1" Cut="0.0000000000000000e+00" cType="1" res="3.8399742334149778e-04" rms="3.6649408936500549e-01" purity="4.5037698745727539e-01" nType="-99"/>
        </Node>
      </Node>
    </BinaryTree>
    <BinaryTree type="DecisionTree" boostWeight="1.0000000000000000e+00" itree="1297">
      <Node pos="s" depth="0" NCoef="0" IVar="3" Cut="9.8928867187500000e+04" cType="1" res="3.7824288010597229e-01" rms="4.8494866490364075e-01" purity="3.7824288010597229e-01" nType="0">
        <Node pos="l" depth="1" NCoef="0" IVar="4" Cut="7.6838750000000000e+04" cType="1" res="3.7165090441703796e-01" rms="4.8324581980705261e-01" purity="3.7165090441703796e-01" nType="0">
          <Node pos="l" depth="2" NCoef="0" IVar="-1" Cut="0.0000000000000000e+00" cType="1" res="-6.4603431383147836e-04" rms="3.5131868720054626e-01" purity="3.2404959201812744e-01" nType="-99"/>
          <Node pos="r" depth="2" NCoef="0" IVar="-1" Cut="0.0000000000000000e+00" cType="1" res="6.0953339561820030e-04" rms="2.9467198252677917e-01" purity="8.9940106868743896e-01" nType="-99"/>
        </Node>
        <Node pos="r" depth="1" NCoef="0" IVar="-1" Cut="0.0000000000000000e+00" cType="1" res="1.3785035116598010e-03" rms="4.0773874521255493e-01" purity="5.3461003303527832e-01" nType="-99"/>
      </Node>
    </BinaryTree>
    <BinaryTree type="DecisionTree" boostWeight="1.0000000000000000e+00" itree="1298">
      <Node pos="s" depth="0" NCoef="0" IVar="2" Cut="9.1813062500000000e+04" cType="1" res="4.7298115491867065e-01" rms="4.9952253699302673e-01" purity="4.7336763143539429e-01" nType="0">
        <Node pos="l" depth="1" NCoef="0" IVar="4" Cut="6.0238652343750000e+04" cType="1" res="3.8847085833549500e-01" rms="4.8764535784721375e-01" purity="3.8893094658851624e-01" nType="0">
          <Node pos="l" depth="2" NCoef="0" IVar="-1" Cut="0.0000000000000000e+00" cType="1" res="-2.5182493845932186e-04" rms="3.4886336326599121e-01" purity="3.1353446841239929e-01" nType="-99"/>
          <Node pos="r" depth="2" NCoef="0" IVar="-1" Cut="0.0000000000000000e+00" cType="1" res="4.6997904428280890e-04" rms="3.2949739694595337e-01" purity="8.6553949117660522e-01" nType="-99"/>
        </Node>
        <Node pos="r" depth="1" NCoef="0" IVar="2" Cut="9.2007031250000000e+04" cType="1" res="5.9915077686309814e-01" rms="4.9020230770111084e-01" purity="5.9927994012832642e-01" nType="0">
          <Node pos="l" depth="2" NCoef="0" IVar="-1" Cut="0.0000000000000000e+00" cType="1" res="2.2348009224515408e-05" rms="3.7523618340492249e-01" purity="8.7516850233078003e-01" nType="-99"/>
          <Node pos="r" depth="2" NCoef="0" IVar="-1" Cut="0.0000000000000000e+00" cType="1" res="3.8951323949731886e-04" rms="3.7161067128181458e-01" purity="3.9579206705093384e-01" nType="-99"/>
        </Node>
      </Node>
    </BinaryTree>
    <BinaryTree type="DecisionTree" boostWeight="1.0000000000000000e+00" itree="1299">
      <Node pos="s" depth="0" NCoef="0" IVar="3" Cut="8.9426570312500000e+04" cType="1" res="5.1140028238296509e-01" rms="4.9987000226974487e-01" purity="5.1140028238296509e-01" nType="0">
        <Node pos="l" depth="1" NCoef="0" IVar="3" Cut="8.8493054687500000e+04" cType="1" res="6.0510015487670898e-01" rms="4.8882916569709778e-01" purity="6.0510015487670898e-01" nType="0">
          <Node pos="l" depth="2" NCoef="0" IVar="-1" Cut="0.0000000000000000e+00" cType="1" res="-6.7958062572870404e-05" rms="3.4903863072395325e-01" purity="3.7549749016761780e-01" nType="-99"/>
          <Node pos="r" depth="2" NCoef="0" IVar="-1" Cut="0.0000000000000000e+00" cType="1" res="2.5057637685677037e-05" rms="4.1829040646553040e-01" purity="8.2949119806289673e-01" nType="-99"/>
        </Node>
        <Node pos="r" depth="1" NCoef="0" IVar="4" Cut="2.2336742187500000e+04" cType="1" res="3.8120016455650330e-01" rms="4.8595911264419556e-01" purity="3.8146984577178955e-01" nType="0">
          <Node pos="l" depth="2" NCoef="0" IVar="-1" Cut="0.0000000000000000e+00" cType="1" res="1.4751907438039780e-03" rms="3.1805071234703064e-01" purity="2.2718116641044617e-01" nType="-99"/>
          <Node pos="r" depth="2" NCoef="0" IVar="-1" Cut="0.0000000000000000e+00" cType="1" res="-4.6337427920661867e-04" rms="3.9430400729179382e-01" purity="5.4178100824356079e-01" nType="-99"/>
        </Node>
      </Node>
    </BinaryTree>
    <BinaryTree type="DecisionTree" boostWeight="1.0000000000000000e+00" itree="1300">
      <Node pos="s" depth="0" NCoef="0" IVar="4" Cut="3.7077156250000000e+04" cType="1" res="3.8951057195663452e-01" rms="4.8803842067718506e-01" purity="3.8989996910095215e-01" nType="0">
        <Node pos="l" depth="1" NCoef="0" IVar="0" Cut="1.0000000000000000e+00" cType="1" res="-5.9289457276463509e-03" rms="3.3155152201652527e-01" purity="2.6070877909660339e-01" nType="0">
          <Node pos="l" depth="2" NCoef="0" IVar="-1" Cut="0.0000000000000000e+00" cType="1" res="-3.6419874522835016e-03" rms="2.3523034155368805e-01" purity="6.1734862625598907e-02" nType="-99"/>
          <Node pos="r" depth="2" NCoef="0" IVar="-1" Cut="0.0000000000000000e+00" cType="1" res="2.9321017791517079e-04" rms="4.1181460022926331e-01" purity="4.7917366027832031e-01" nType="-99"/>
        </Node>
        <Node pos="r" depth="1" NCoef="0" IVar="5" Cut="2.7801887500000000e+05" cType="1" res="7.1855235099792480e-01" rms="4.5095530152320862e-01" purity="7.1967810392379761e-01" nType="0">
          <Node pos="l" depth="2" NCoef="0" IVar="-1" Cut="0.0000000000000000e+00" cType="1" res="1.2007877230644226e-03" rms="4.6899068355560303e-01" purity="5.6231892108917236e-01" nType="-99"/>
          <Node pos="r" depth="2" NCoef="0" IVar="-1" Cut="0.0000000000000000e+00" cType="1" res="1.2124900240451097e-04" rms="3.4912496805191040e-01" purity="8.2216858863830566e-01" nType="-99"/>
        </Node>
      </Node>
    </BinaryTree>
    <BinaryTree type="DecisionTree" boostWeight="1.0000000000000000e+00" itree="1301">
      <Node pos="s" depth="0" NCoef="0" IVar="2" Cut="8.9600773437500000e+04" cType="1" res="5.2694392204284668e-01" rms="4.9961796402931213e-01" purity="5.2728801965713501e-01" nType="0">
        <Node pos="l" depth="1" NCoef="0" IVar="2" Cut="8.9247875000000000e+04" cType="1" res="7.5241953134536743e-01" rms="4.3160673975944519e-01" purity="7.5305652618408203e-01" nType="0">
          <Node pos="l" depth="2" NCoef="0" IVar="-1" Cut="0.0000000000000000e+00" cType="1" res="4.5721506467089057e-04" rms="3.6523374915122986e-01" purity="3.8674604892730713e-01" nType="-99"/>
          <Node pos="r" depth="2" NCoef="0" IVar="-1" Cut="0.0000000000000000e+00" cType="1" res="2.0627667254302651e-05" rms="3.0151939392089844e-01" purity="9.2410296201705933e-01" nType="-99"/>
        </Node>
        <Node pos="r" depth="1" NCoef="0" IVar="5" Cut="3.7553265625000000e+05" cType="1" res="3.8588955998420715e-01" rms="4.8696988821029663e-01" purity="3.8605043292045593e-01" nType="0">
          <Node pos="l" depth="2" NCoef="0" IVar="-1" Cut="0.0000000000000000e+00" cType="1" res="-4.6380839194171131e-05" rms="3.5260197520256042e-01" purity="2.4586415290832520e-01" nType="-99"/>
          <Node pos="r" depth="2" NCoef="0" IVar="-1" Cut="0.0000000000000000e+00" cType="1" res="7.3291303124278784e-04" rms="3.5608750581741333e-01" purity="7.7126002311706543e-01" nType="-99"/>
        </Node>
      </Node>
    </BinaryTree>
    <BinaryTree type="DecisionTree" boostWeight="1.0000000000000000e+00" itree="1302">
      <Node pos="s" depth="0" NCoef="0" IVar="1" Cut="2.0341365625000000e+05" cType="1" res="5.8854115009307861e-01" rms="4.9219688773155212e-01" purity="5.8870822191238403e-01" nType="0">
        <Node pos="l" depth="1" NCoef="0" IVar="2" Cut="8.9611593750000000e+04" cType="1" res="1.9977428019046783e-01" rms="4.1308200359344482e-01" purity="8.0377590656280518e-01" nType="0">
          <Node pos="l" depth="2" NCoef="0" IVar="-1" Cut="0.0000000000000000e+00" cType="1" res="1.9045877706957981e-05" rms="2.4396164715290070e-01" purity="9.4101923704147339e-01" nType="-99"/>
          <Node pos="r" depth="2" NCoef="0" IVar="-1" Cut="0.0000000000000000e+00" cType="1" res="8.2986464258283377e-04" rms="3.4093427658081055e-01" purity="2.4092406034469604e-01" nType="-99"/>
        </Node>
        <Node pos="r" depth="1" NCoef="0" IVar="0" Cut="4.0000000000000000e+00" cType="1" res="5.2280100062489510e-03" rms="3.5709580779075623e-01" purity="4.2335250973701477e-01" nType="0">
          <Node pos="l" depth="2" NCoef="0" IVar="-1" Cut="0.0000000000000000e+00" cType="1" res="5.2995554142398760e-05" rms="3.6550697684288025e-01" purity="3.8160178065299988e-01" nType="-99"/>
          <Node pos="r" depth="2" NCoef="0" IVar="-1" Cut="0.0000000000000000e+00" cType="1" res="2.2846460342407227e-04" rms="2.1945770084857941e-01" purity="9.5031940937042236e-01" nType="-99"/>
        </Node>
      </Node>
    </BinaryTree>
    <BinaryTree type="DecisionTree" boostWeight="1.0000000000000000e+00" itree="1303">
      <Node pos="s" depth="0" NCoef="0" IVar="0" Cut="1.0000000000000000e+00" cType="1" res="1.8243096768856049e-01" rms="4.6995365619659424e-01" purity="5.1402878761291504e-01" nType="0">
        <Node pos="l" depth="1" NCoef="0" IVar="4" Cut="1.9615392578125000e+04" cType="1" res="4.6223667263984680e-01" rms="4.9857190251350403e-01" purity="4.6223664283752441e-01" nType="0">
          <Node pos="l" depth="2" NCoef="0" IVar="-1" Cut="0.0000000000000000e+00" cType="1" res="4.0701637044548988e-04" rms="1.9922219216823578e-01" purity="4.2116049677133560e-02" nType="-99"/>
          <Node pos="r" depth="2" NCoef="0" IVar="-1" Cut="0.0000000000000000e+00" cType="1" res="2.4985101845231839e-05" rms="4.9473029375076294e-01" purity="6.9027847051620483e-01" nType="-99"/>
        </Node>
        <Node pos="r" depth="1" NCoef="0" IVar="5" Cut="2.2829090625000000e+05" cType="1" res="6.0126554589444791e+34" rms="0.0000000000000000e+00" purity="5.8518218994140625e-01" nType="0">
          <Node pos="l" depth="2" NCoef="0" IVar="-1" Cut="0.0000000000000000e+00" cType="1" res="-2.4458749685436487e-03" rms="3.5940709710121155e-01" purity="1.9159239530563354e-01" nType="-99"/>
          <Node pos="r" depth="2" NCoef="0" IVar="-1" Cut="0.0000000000000000e+00" cType="1" res="2.6939940289594233e-04" rms="4.0151894092559814e-01" purity="6.4933061599731445e-01" nType="-99"/>
        </Node>
      </Node>
    </BinaryTree>
    <BinaryTree type="DecisionTree" boostWeight="1.0000000000000000e+00" itree="1304">
      <Node pos="s" depth="0" NCoef="0" IVar="1" Cut="2.0240409375000000e+05" cType="1" res="5.2244138717651367e-01" rms="4.9956515431404114e-01" purity="5.2265143394470215e-01" nType="0">
        <Node pos="l" depth="1" NCoef="0" IVar="2" Cut="8.9672687500000000e+04" cType="1" res="2.8082066774368286e-01" rms="4.6906617283821106e-01" purity="7.3104059696197510e-01" nType="0">
          <Node pos="l" depth="2" NCoef="0" IVar="-1" Cut="0.0000000000000000e+00" cType="1" res="2.0457586288102902e-05" rms="2.9348799586296082e-01" purity="9.1112422943115234e-01" nType="-99"/>
          <Node pos="r" depth="2" NCoef="0" IVar="-1" Cut="0.0000000000000000e+00" cType="1" res="3.8089160807430744e-04" rms="3.3740070462226868e-01" purity="2.3789532482624054e-01" nType="-99"/>
        </Node>
        <Node pos="r" depth="1" NCoef="0" IVar="4" Cut="7.8737789062500000e+04" cType="1" res="4.0781992673873901e-01" rms="4.9153810739517212e-01" purity="4.0814536809921265e-01" nType="0">
          <Node pos="l" depth="2" NCoef="0" IVar="-1" Cut="0.0000000000000000e+00" cType="1" res="-3.6692747380584478e-04" rms="3.6086851358413696e-01" purity="3.5886776447296143e-01" nType="-99"/>
          <Node pos="r" depth="2" NCoef="0" IVar="-1" Cut="0.0000000000000000e+00" cType="1" res="6.1166629893705249e-04" rms="2.8771212697029114e-01" purity="9.0809762477874756e-01" nType="-99"/>
        </Node>
      </Node>
    </BinaryTree>
    <BinaryTree type="DecisionTree" boostWeight="1.0000000000000000e+00" itree="1305">
      <Node pos="s" depth="0" NCoef="0" IVar="1" Cut="2.0356470312500000e+05" cType="1" res="4.4547826051712036e-01" rms="4.9730274081230164e-01" purity="4.4601863622665405e-01" nType="0">
        <Node pos="l" depth="1" NCoef="0" IVar="2" Cut="8.9636281250000000e+04" cType="1" res="4.7562196850776672e-01" rms="5.2224588394165039e-01" purity="5.3906106948852539e-01" nType="0">
          <Node pos="l" depth="2" NCoef="0" IVar="-1" Cut="0.0000000000000000e+00" cType="1" res="3.0473382139462046e-05" rms="4.1802936792373657e-01" purity="7.9009169340133667e-01" nType="-99"/>
          <Node pos="r" depth="2" NCoef="0" IVar="-1" Cut="0.0000000000000000e+00" cType="1" res="6.9439731305465102e-04" rms="3.4113210439682007e-01" purity="2.3915752768516541e-01" nType="-99"/>
        </Node>
        <Node pos="r" depth="1" NCoef="0" IVar="4" Cut="3.2726113281250000e+04" cType="1" res="4.1363003849983215e-01" rms="4.9286815524101257e-01" purity="4.1435426473617554e-01" nType="0">
          <Node pos="l" depth="2" NCoef="0" IVar="-1" Cut="0.0000000000000000e+00" cType="1" res="-4.6476550051011145e-04" rms="3.3797246217727661e-01" purity="2.6622939109802246e-01" nType="-99"/>
          <Node pos="r" depth="2" NCoef="0" IVar="-1" Cut="0.0000000000000000e+00" cType="1" res="2.9519884265027940e-04" rms="3.9126741886138916e-01" purity="6.9351327419281006e-01" nType="-99"/>
        </Node>
      </Node>
    </BinaryTree>
    <BinaryTree type="DecisionTree" boostWeight="1.0000000000000000e+00" itree="1306">
      <Node pos="s" depth="0" NCoef="0" IVar="3" Cut="9.8787656250000000e+04" cType="1" res="3.8227140903472900e-01" rms="4.8614367842674255e-01" purity="3.8286164402961731e-01" nType="0">
        <Node pos="l" depth="1" NCoef="0" IVar="3" Cut="9.6167960937500000e+04" cType="1" res="3.7808364629745483e-01" rms="4.8511910438537598e-01" purity="3.7845516204833984e-01" nType="0">
          <Node pos="l" depth="2" NCoef="0" IVar="-1" Cut="0.0000000000000000e+00" cType="1" res="4.3411520891822875e-04" rms="3.5740557312965393e-01" purity="3.8072538375854492e-01" nType="-99"/>
          <Node pos="r" depth="2" NCoef="0" IVar="-1" Cut="0.0000000000000000e+00" cType="1" res="-3.2914481125771999e-03" rms="3.4392678737640381e-01" purity="3.4851431846618652e-01" nType="-99"/>
        </Node>
        <Node pos="r" depth="1" NCoef="0" IVar="-1" Cut="0.0000000000000000e+00" cType="1" res="1.1875600321218371e-03" rms="4.2051920294761658e-01" purity="4.8515439033508301e-01" nType="-99"/>
      </Node>
    </BinaryTree>
    <BinaryTree type="DecisionTree" boostWeight="1.0000000000000000e+00" itree="1307">
      <Node pos="s" depth="0" NCoef="0" IVar="3" Cut="8.9426585937500000e+04" cType="1" res="5.6936860084533691e-01" rms="4.9550998210906982e-01" purity="5.6978428363800049e-01" nType="0">
        <Node pos="l" depth="1" NCoef="0" IVar="3" Cut="8.8493062500000000e+04" cType="1" res="6.8043363094329834e-01" rms="4.6662512421607971e-01" purity="6.8094217777252197e-01" nType="0">
          <Node pos="l" depth="2" NCoef="0" IVar="-1" Cut="0.0000000000000000e+00" cType="1" res="1.9203955889679492e-04" rms="3.4699636697769165e-01" purity="3.9402735233306885e-01" nType="-99"/>
          <Node pos="r" depth="2" NCoef="0" IVar="-1" Cut="0.0000000000000000e+00" cType="1" res="2.4115344785968773e-05" rms="3.6523914337158203e-01" purity="8.8309109210968018e-01" nType="-99"/>
        </Node>
        <Node pos="r" depth="1" NCoef="0" IVar="3" Cut="9.2432265625000000e+04" cType="1" res="3.7811565399169922e-01" rms="4.8518019914627075e-01" purity="3.7837126851081848e-01" nType="0">
          <Node pos="l" depth="2" NCoef="0" IVar="-1" Cut="0.0000000000000000e+00" cType="1" res="5.8226613327860832e-04" rms="3.5479941964149475e-01" purity="3.8383212685585022e-01" nType="-99"/>
          <Node pos="r" depth="2" NCoef="0" IVar="-1" Cut="0.0000000000000000e+00" cType="1" res="-5.9978623175993562e-04" rms="3.4859174489974976e-01" purity="3.7597095966339111e-01" nType="-99"/>
        </Node>
      </Node>
    </BinaryTree>
    <BinaryTree type="DecisionTree" boostWeight="1.0000000000000000e+00" itree="1308">
      <Node pos="s" depth="0" NCoef="0" IVar="5" Cut="1.8316615625000000e+05" cType="1" res="5.2761906385421753e-01" rms="4.9923661351203918e-01" purity="5.2761900424957275e-01" nType="0">
        <Node pos="l" depth="1" NCoef="0" IVar="2" Cut="8.9598351562500000e+04" cType="1" res="6.4262044429779053e-01" rms="4.7922793030738831e-01" purity="6.4262044429779053e-01" nType="0">
          <Node pos="l" depth="2" NCoef="0" IVar="-1" Cut="0.0000000000000000e+00" cType="1" res="2.0387684344314039e-05" rms="3.0107867717742920e-01" purity="8.8140511512756348e-01" nType="-99"/>
          <Node pos="r" depth="2" NCoef="0" IVar="-1" Cut="0.0000000000000000e+00" cType="1" res="-3.0107036582194269e-04" rms="2.5051620602607727e-01" purity="8.2356154918670654e-02" nType="-99"/>
        </Node>
        <Node pos="r" depth="1" NCoef="0" IVar="2" Cut="8.8256406250000000e+04" cType="1" res="4.5765349268913269e-01" rms="4.9820354580879211e-01" purity="4.5765349268913269e-01" nType="0">
          <Node pos="l" depth="2" NCoef="0" IVar="-1" Cut="0.0000000000000000e+00" cType="1" res="-2.1730868611484766e-03" rms="3.6692094802856445e-01" purity="4.0691971778869629e-01" nType="-99"/>
          <Node pos="r" depth="2" NCoef="0" IVar="-1" Cut="0.0000000000000000e+00" cType="1" res="3.0496527324430645e-04" rms="3.7714508175849915e-01" purity="4.6096324920654297e-01" nType="-99"/>
        </Node>
      </Node>
    </BinaryTree>
    <BinaryTree type="DecisionTree" boostWeight="1.0000000000000000e+00" itree="1309">
      <Node pos="s" depth="0" NCoef="0" IVar="5" Cut="1.6215667187500000e+05" cType="1" res="4.7186598181724548e-01" rms="4.9920785427093506e-01" purity="4.7195532917976379e-01" nType="0">
        <Node pos="l" depth="1" NCoef="0" IVar="-1" Cut="0.0000000000000000e+00" cType="1" res="1.7205402400577441e-05" rms="3.9554136991500854e-01" purity="7.4719631671905518e-01" nType="-99"/>
        <Node pos="r" depth="1" NCoef="0" IVar="2" Cut="8.8147375000000000e+04" cType="1" res="3.9448785781860352e-01" rms="4.8874041438102722e-01" purity="3.9460232853889465e-01" nType="0">
          <Node pos="l" depth="2" NCoef="0" IVar="-1" Cut="0.0000000000000000e+00" cType="1" res="-2.3343893699347973e-03" rms="3.4947741031646729e-01" purity="3.4023594856262207e-01" nType="-99"/>
          <Node pos="r" depth="2" NCoef="0" IVar="-1" Cut="0.0000000000000000e+00" cType="1" res="-9.4375172920990735e-05" rms="3.6195811629295349e-01" purity="3.9815703034400940e-01" nType="-99"/>
        </Node>
      </Node>
    </BinaryTree>
    <BinaryTree type="DecisionTree" boostWeight="1.0000000000000000e+00" itree="1310">
      <Node pos="s" depth="0" NCoef="0" IVar="0" Cut="1.0000000000000000e+00" cType="1" res="2.2130444645881653e-01" rms="4.8139113187789917e-01" purity="5.4105716943740845e-01" nType="0">
        <Node pos="l" depth="1" NCoef="0" IVar="4" Cut="2.1010888671875000e+04" cType="1" res="5.1507073640823364e-01" rms="4.9977281689643860e-01" purity="5.1507067680358887e-01" nType="0">
          <Node pos="l" depth="2" NCoef="0" IVar="-1" Cut="0.0000000000000000e+00" cType="1" res="1.8321553943678737e-03" rms="2.1689352393150330e-01" purity="5.0431508570909500e-02" nType="-99"/>
          <Node pos="r" depth="2" NCoef="0" IVar="-1" Cut="0.0000000000000000e+00" cType="1" res="1.9218834495404735e-05" rms="4.7253647446632385e-01" purity="7.4791407585144043e-01" nType="-99"/>
        </Node>
        <Node pos="r" depth="1" NCoef="0" IVar="4" Cut="1.1901308593750000e+04" cType="1" res="5.8178544044494629e-01" rms="4.9326577782630920e-01" purity="5.8178550004959106e-01" nType="0">
          <Node pos="l" depth="2" NCoef="0" IVar="-1" Cut="0.0000000000000000e+00" cType="1" res="-2.4088618811219931e-03" rms="3.7374183535575867e-01" purity="3.4011358022689819e-01" nType="-99"/>
          <Node pos="r" depth="2" NCoef="0" IVar="-1" Cut="0.0000000000000000e+00" cType="1" res="2.2199169325176626e-04" rms="4.0233492851257324e-01" purity="6.2618243694305420e-01" nType="-99"/>
        </Node>
      </Node>
    </BinaryTree>
    <BinaryTree type="DecisionTree" boostWeight="1.0000000000000000e+00" itree="1311">
      <Node pos="s" depth="0" NCoef="0" IVar="0" Cut="1.0000000000000000e+00" cType="1" res="3.3536052703857422e-01" rms="4.9819654226303101e-01" purity="6.2731444835662842e-01" nType="0">
        <Node pos="l" depth="1" NCoef="0" IVar="4" Cut="2.1010888671875000e+04" cType="1" res="6.4704203605651855e-01" rms="4.7788977622985840e-01" purity="6.4704203605651855e-01" nType="0">
          <Node pos="l" depth="2" NCoef="0" IVar="-1" Cut="0.0000000000000000e+00" cType="1" res="-6.5592525061219931e-04" rms="2.0068006217479706e-01" purity="4.2477879673242569e-02" nType="-99"/>
          <Node pos="r" depth="2" NCoef="0" IVar="-1" Cut="0.0000000000000000e+00" cType="1" res="1.9882681954186410e-05" rms="4.0083986520767212e-01" purity="8.4245723485946655e-01" nType="-99"/>
        </Node>
        <Node pos="r" depth="1" NCoef="0" IVar="2" Cut="9.0351289062500000e+04" cType="1" res="5.8634346723556519e-01" rms="4.9248838424682617e-01" purity="5.8634346723556519e-01" nType="0">
          <Node pos="l" depth="2" NCoef="0" IVar="-1" Cut="0.0000000000000000e+00" cType="1" res="2.6603750302456319e-04" rms="4.0072202682495117e-01" purity="6.1060971021652222e-01" nType="-99"/>
          <Node pos="r" depth="2" NCoef="0" IVar="-1" Cut="0.0000000000000000e+00" cType="1" res="-4.5468343887478113e-04" rms="3.9367651939392090e-01" purity="5.7368314266204834e-01" nType="-99"/>
        </Node>
      </Node>
    </BinaryTree>
    <BinaryTree type="DecisionTree" boostWeight="1.0000000000000000e+00" itree="1312">
      <Node pos="s" depth="0" NCoef="0" IVar="5" Cut="1.6699128125000000e+05" cType="1" res="4.7528836131095886e-01" rms="4.9938896298408508e-01" purity="4.7528836131095886e-01" nType="0">
        <Node pos="l" depth="1" NCoef="0" IVar="4" Cut="1.8952580078125000e+04" cType="1" res="6.9547086954116821e-01" rms="4.6020770072937012e-01" purity="6.9547086954116821e-01" nType="0">
          <Node pos="l" depth="2" NCoef="0" IVar="-1" Cut="0.0000000000000000e+00" cType="1" res="3.0483324080705643e-03" rms="1.6798023879528046e-01" purity="2.9405808076262474e-02" nType="-99"/>
          <Node pos="r" depth="2" NCoef="0" IVar="-1" Cut="0.0000000000000000e+00" cType="1" res="1.7162314179586247e-05" rms="3.3124661445617676e-01" purity="8.6709523200988770e-01" nType="-99"/>
        </Node>
        <Node pos="r" depth="1" NCoef="0" IVar="0" Cut="3.0000000000000000e+00" cType="1" res="-3.6671720445156097e-03" rms="3.6335554718971252e-01" purity="4.0641850233078003e-01" nType="0">
          <Node pos="l" depth="2" NCoef="0" IVar="-1" Cut="0.0000000000000000e+00" cType="1" res="-3.9185018977150321e-04" rms="3.7367120385169983e-01" purity="3.2584851980209351e-01" nType="-99"/>
          <Node pos="r" depth="2" NCoef="0" IVar="-1" Cut="0.0000000000000000e+00" cType="1" res="9.4456860097125173e-04" rms="2.9007500410079956e-01" purity="9.0489029884338379e-01" nType="-99"/>
        </Node>
      </Node>
    </BinaryTree>
    <BinaryTree type="DecisionTree" boostWeight="1.0000000000000000e+00" itree="1313">
      <Node pos="s" depth="0" NCoef="0" IVar="2" Cut="9.3776187500000000e+04" cType="1" res="2.0896011915284019e+34" rms="0.0000000000000000e+00" purity="3.8870227336883545e-01" nType="0">
        <Node pos="l" depth="1" NCoef="0" IVar="5" Cut="6.2986906250000000e+05" cType="1" res="3.8223323225975037e-01" rms="4.8610502481460571e-01" purity="3.8240036368370056e-01" nType="0">
          <Node pos="l" depth="2" NCoef="0" IVar="-1" Cut="0.0000000000000000e+00" cType="1" res="-1.7789762932807207e-04" rms="3.5734337568283081e-01" purity="3.2366469502449036e-01" nType="-99"/>
          <Node pos="r" depth="2" NCoef="0" IVar="-1" Cut="0.0000000000000000e+00" cType="1" res="1.1559153208509088e-03" rms="2.8902539610862732e-01" purity="8.8190370798110962e-01" nType="-99"/>
        </Node>
        <Node pos="r" depth="1" NCoef="0" IVar="-1" Cut="0.0000000000000000e+00" cType="1" res="1.0173280024901032e-03" rms="3.7348327040672302e-01" purity="4.6936926245689392e-01" nType="-99"/>
      </Node>
    </BinaryTree>
    <BinaryTree type="DecisionTree" boostWeight="1.0000000000000000e+00" itree="1314">
      <Node pos="s" depth="0" NCoef="0" IVar="5" Cut="1.6770807812500000e+05" cType="1" res="6.0589849948883057e-01" rms="4.8865684866905212e-01" purity="6.0589849948883057e-01" nType="0">
        <Node pos="l" depth="1" NCoef="0" IVar="4" Cut="1.9082564453125000e+04" cType="1" res="8.6534595489501953e-01" rms="3.4135365486145020e-01" purity="8.6534595489501953e-01" nType="0">
          <Node pos="l" depth="2" NCoef="0" IVar="-1" Cut="0.0000000000000000e+00" cType="1" res="-2.5321652647107840e-03" rms="1.5317434072494507e-01" purity="2.3985831066966057e-02" nType="-99"/>
          <Node pos="r" depth="2" NCoef="0" IVar="-1" Cut="0.0000000000000000e+00" cType="1" res="1.7218620996573009e-05" rms="2.1358388662338257e-01" purity="9.5086842775344849e-01" nType="-99"/>
        </Node>
        <Node pos="r" depth="1" NCoef="0" IVar="3" Cut="9.0277765625000000e+04" cType="1" res="4.1489535570144653e-01" rms="4.9270397424697876e-01" purity="4.1489532589912415e-01" nType="0">
          <Node pos="l" depth="2" NCoef="0" IVar="-1" Cut="0.0000000000000000e+00" cType="1" res="-2.2650111350230873e-04" rms="3.6000764369964600e-01" purity="4.0743732452392578e-01" nType="-99"/>
          <Node pos="r" depth="2" NCoef="0" IVar="-1" Cut="0.0000000000000000e+00" cType="1" res="5.8700377121567726e-04" rms="3.7526214122772217e-01" purity="4.2330384254455566e-01" nType="-99"/>
        </Node>
      </Node>
    </BinaryTree>
    <BinaryTree type="DecisionTree" boostWeight="1.0000000000000000e+00" itree="1315">
      <Node pos="s" depth="0" NCoef="0" IVar="3" Cut="9.8929539062500000e+04" cType="1" res="3.8684245944023132e-01" rms="4.8736372590065002e-01" purity="3.8724842667579651e-01" nType="0">
        <Node pos="l" depth="1" NCoef="0" IVar="0" Cut="4.0000000000000000e+00" cType="1" res="-4.3303958955220878e-04" rms="3.4867650270462036e-01" purity="3.8141578435897827e-01" nType="0">
          <Node pos="l" depth="2" NCoef="0" IVar="-1" Cut="0.0000000000000000e+00" cType="1" res="-1.9922477076761425e-04" rms="3.5542234778404236e-01" purity="3.4194788336753845e-01" nType="-99"/>
          <Node pos="r" depth="2" NCoef="0" IVar="-1" Cut="0.0000000000000000e+00" cType="1" res="2.1872222714591771e-04" rms="2.2493913769721985e-01" purity="9.4716572761535645e-01" nType="-99"/>
        </Node>
        <Node pos="r" depth="1" NCoef="0" IVar="-1" Cut="0.0000000000000000e+00" cType="1" res="1.4233062975108624e-03" rms="4.1272744536399841e-01" purity="5.2762144804000854e-01" nType="-99"/>
      </Node>
    </BinaryTree>
    <BinaryTree type="DecisionTree" boostWeight="1.0000000000000000e+00" itree="1316">
      <Node pos="s" depth="0" NCoef="0" IVar="2" Cut="9.1774695312500000e+04" cType="1" res="0.0000000000000000e+00" rms="0.0000000000000000e+00" purity="4.6871107816696167e-01" nType="0">
        <Node pos="l" depth="1" NCoef="0" IVar="5" Cut="6.3243893750000000e+05" cType="1" res="3.7497669458389282e-01" rms="4.8475131392478943e-01" purity="3.7602156400680542e-01" nType="0">
          <Node pos="l" depth="2" NCoef="0" IVar="-1" Cut="0.0000000000000000e+00" cType="1" res="-2.2669421741738915e-04" rms="3.4990987181663513e-01" purity="3.2135102152824402e-01" nType="-99"/>
          <Node pos="r" depth="2" NCoef="0" IVar="-1" Cut="0.0000000000000000e+00" cType="1" res="1.2842518044635653e-03" rms="3.0668130517005920e-01" purity="8.7527513504028320e-01" nType="-99"/>
        </Node>
        <Node pos="r" depth="1" NCoef="0" IVar="2" Cut="9.1973750000000000e+04" cType="1" res="0.0000000000000000e+00" rms="2.0166189368381786e+38" purity="6.0017806291580200e-01" nType="0">
          <Node pos="l" depth="2" NCoef="0" IVar="-1" Cut="0.0000000000000000e+00" cType="1" res="2.2576174160349183e-05" rms="3.8200259208679199e-01" purity="8.7247645854949951e-01" nType="-99"/>
          <Node pos="r" depth="2" NCoef="0" IVar="-1" Cut="0.0000000000000000e+00" cType="1" res="3.4893056727014482e-04" rms="3.6145997047424316e-01" purity="4.0702807903289795e-01" nType="-99"/>
        </Node>
      </Node>
    </BinaryTree>
    <BinaryTree type="DecisionTree" boostWeight="1.0000000000000000e+00" itree="1317">
      <Node pos="s" depth="0" NCoef="0" IVar="1" Cut="2.0337760937500000e+05" cType="1" res="4.4231328368186951e-01" rms="4.9703145027160645e-01" purity="4.4275110960006714e-01" nType="0">
        <Node pos="l" depth="1" NCoef="0" IVar="2" Cut="8.9636281250000000e+04" cType="1" res="4.6821451187133789e-01" rms="5.2138096094131470e-01" purity="5.4131972789764404e-01" nType="0">
          <Node pos="l" depth="2" NCoef="0" IVar="-1" Cut="0.0000000000000000e+00" cType="1" res="3.0731978768017143e-05" rms="4.1532111167907715e-01" purity="7.9637950658798218e-01" nType="-99"/>
          <Node pos="r" depth="2" NCoef="0" IVar="-1" Cut="0.0000000000000000e+00" cType="1" res="3.7628196878358722e-04" rms="3.3590933680534363e-01" purity="2.3973266780376434e-01" nType="-99"/>
        </Node>
        <Node pos="r" depth="1" NCoef="0" IVar="3" Cut="9.8787570312500000e+04" cType="1" res="4.0846660733222961e-01" rms="4.9205228686332703e-01" purity="4.0905410051345825e-01" nType="0">
          <Node pos="l" depth="2" NCoef="0" IVar="-1" Cut="0.0000000000000000e+00" cType="1" res="-1.1890321184182540e-04" rms="3.5618087649345398e-01" purity="4.0408590435981750e-01" nType="-99"/>
          <Node pos="r" depth="2" NCoef="0" IVar="-1" Cut="0.0000000000000000e+00" cType="1" res="1.0740571888163686e-03" rms="4.1058319807052612e-01" purity="5.0994646549224854e-01" nType="-99"/>
        </Node>
      </Node>
    </BinaryTree>
    <BinaryTree type="DecisionTree" boostWeight="1.0000000000000000e+00" itree="1318">
      <Node pos="s" depth="0" NCoef="0" IVar="0" Cut="1.0000000000000000e+00" cType="1" res="2.2414501011371613e-01" rms="4.8220869898796082e-01" purity="5.4887884855270386e-01" nType="0">
        <Node pos="l" depth="1" NCoef="0" IVar="4" Cut="2.1009341796875000e+04" cType="1" res="5.1631867885589600e-01" rms="4.9973362684249878e-01" purity="5.1631873846054077e-01" nType="0">
          <Node pos="l" depth="2" NCoef="0" IVar="-1" Cut="0.0000000000000000e+00" cType="1" res="5.7008485309779644e-03" rms="2.4234123528003693e-01" purity="6.3663579523563385e-02" nType="-99"/>
          <Node pos="r" depth="2" NCoef="0" IVar="-1" Cut="0.0000000000000000e+00" cType="1" res="1.9124830942018889e-05" rms="4.7086924314498901e-01" purity="7.4876070022583008e-01" nType="-99"/>
        </Node>
        <Node pos="r" depth="1" NCoef="0" IVar="2" Cut="8.9761023437500000e+04" cType="1" res="5.9626662731170654e-01" rms="4.9150690436363220e-01" purity="5.9721487760543823e-01" nType="0">
          <Node pos="l" depth="2" NCoef="0" IVar="-1" Cut="0.0000000000000000e+00" cType="1" res="3.5765042412094772e-04" rms="4.0809878706932068e-01" purity="6.1824595928192139e-01" nType="-99"/>
          <Node pos="r" depth="2" NCoef="0" IVar="-1" Cut="0.0000000000000000e+00" cType="1" res="1.1770080163842067e-04" rms="3.9818164706230164e-01" purity="5.9108084440231323e-01" nType="-99"/>
        </Node>
      </Node>
    </BinaryTree>
    <BinaryTree type="DecisionTree" boostWeight="1.0000000000000000e+00" itree="1319">
      <Node pos="s" depth="0" NCoef="0" IVar="3" Cut="9.8787703125000000e+04" cType="1" res="3.9063066244125366e-01" rms="4.8811817169189453e-01" purity="3.9085164666175842e-01" nType="0">
        <Node pos="l" depth="1" NCoef="0" IVar="3" Cut="9.7041125000000000e+04" cType="1" res="3.8726788759231567e-01" rms="4.8727914690971375e-01" purity="3.8741737604141235e-01" nType="0">
          <Node pos="l" depth="2" NCoef="0" IVar="-1" Cut="0.0000000000000000e+00" cType="1" res="2.5252738851122558e-04" rms="3.5319834947586060e-01" purity="3.8790568709373474e-01" nType="-99"/>
          <Node pos="r" depth="2" NCoef="0" IVar="-1" Cut="0.0000000000000000e+00" cType="1" res="-1.9350466318428516e-03" rms="3.3054056763648987e-01" purity="3.7670382857322693e-01" nType="-99"/>
        </Node>
        <Node pos="r" depth="1" NCoef="0" IVar="-1" Cut="0.0000000000000000e+00" cType="1" res="1.2512942776083946e-03" rms="4.1972011327743530e-01" purity="4.7603365778923035e-01" nType="-99"/>
      </Node>
    </BinaryTree>
    <BinaryTree type="DecisionTree" boostWeight="1.0000000000000000e+00" itree="1320">
      <Node pos="s" depth="0" NCoef="0" IVar="1" Cut="2.0203215625000000e+05" cType="1" res="4.5221698284149170e-01" rms="4.9831724166870117e-01" purity="4.5291417837142944e-01" nType="0">
        <Node pos="l" depth="1" NCoef="0" IVar="2" Cut="8.9610320312500000e+04" cType="1" res="4.8558440804481506e-01" rms="5.2125346660614014e-01" purity="5.5127578973770142e-01" nType="0">
          <Node pos="l" depth="2" NCoef="0" IVar="-1" Cut="0.0000000000000000e+00" cType="1" res="3.0091654480202124e-05" rms="4.0630212426185608e-01" purity="8.0464661121368408e-01" nType="-99"/>
          <Node pos="r" depth="2" NCoef="0" IVar="-1" Cut="0.0000000000000000e+00" cType="1" res="-2.6476403581909835e-04" rms="3.2205465435981750e-01" purity="2.2729972004890442e-01" nType="-99"/>
        </Node>
        <Node pos="r" depth="1" NCoef="0" IVar="4" Cut="7.5890242187500000e+04" cType="1" res="4.2184296250343323e-01" rms="4.9465113878250122e-01" purity="4.2275390028953552e-01" nType="0">
          <Node pos="l" depth="2" NCoef="0" IVar="-1" Cut="0.0000000000000000e+00" cType="1" res="9.8322881967760623e-05" rms="3.6266684532165527e-01" purity="3.7173527479171753e-01" nType="-99"/>
          <Node pos="r" depth="2" NCoef="0" IVar="-1" Cut="0.0000000000000000e+00" cType="1" res="6.8878236925229430e-04" rms="2.8155741095542908e-01" purity="9.1141831874847412e-01" nType="-99"/>
        </Node>
      </Node>
    </BinaryTree>
    <BinaryTree type="DecisionTree" boostWeight="1.0000000000000000e+00" itree="1321">
      <Node pos="s" depth="0" NCoef="0" IVar="5" Cut="1.8174545312500000e+05" cType="1" res="5.2256417274475098e-01" rms="4.9949058890342712e-01" purity="5.2256417274475098e-01" nType="0">
        <Node pos="l" depth="1" NCoef="0" IVar="4" Cut="2.4632158203125000e+04" cType="1" res="6.5088218450546265e-01" rms="4.7669127583503723e-01" purity="6.5088218450546265e-01" nType="0">
          <Node pos="l" depth="2" NCoef="0" IVar="-1" Cut="0.0000000000000000e+00" cType="1" res="-6.7381164990365505e-03" rms="1.6634823381900787e-01" purity="2.8647031635046005e-02" nType="-99"/>
          <Node pos="r" depth="2" NCoef="0" IVar="-1" Cut="0.0000000000000000e+00" cType="1" res="2.0573304936988279e-05" rms="3.2276019454002380e-01" purity="8.9489918947219849e-01" nType="-99"/>
        </Node>
        <Node pos="r" depth="1" NCoef="0" IVar="3" Cut="9.3114359375000000e+04" cType="1" res="4.4563677906990051e-01" rms="4.9703586101531982e-01" purity="4.4563680887222290e-01" nType="0">
          <Node pos="l" depth="2" NCoef="0" IVar="-1" Cut="0.0000000000000000e+00" cType="1" res="4.6678612125106156e-04" rms="3.7688574194908142e-01" purity="4.5509719848632812e-01" nType="-99"/>
          <Node pos="r" depth="2" NCoef="0" IVar="-1" Cut="0.0000000000000000e+00" cType="1" res="-8.5842813132330775e-04" rms="3.5978391766548157e-01" purity="4.2518684267997742e-01" nType="-99"/>
        </Node>
      </Node>
    </BinaryTree>
    <BinaryTree type="DecisionTree" boostWeight="1.0000000000000000e+00" itree="1322">
      <Node pos="s" depth="0" NCoef="0" IVar="2" Cut="9.3255687500000000e+04" cType="1" res="3.8794219493865967e-01" rms="4.8728129267692566e-01" purity="3.8794216513633728e-01" nType="0">
        <Node pos="l" depth="1" NCoef="0" IVar="3" Cut="9.4390734375000000e+04" cType="1" res="3.8952422142028809e-01" rms="4.8764240741729736e-01" purity="3.8952422142028809e-01" nType="0">
          <Node pos="l" depth="2" NCoef="0" IVar="-1" Cut="0.0000000000000000e+00" cType="1" res="1.1089057807112113e-04" rms="3.4962874650955200e-01" purity="3.8086757063865662e-01" nType="-99"/>
          <Node pos="r" depth="2" NCoef="0" IVar="-1" Cut="0.0000000000000000e+00" cType="1" res="8.0418103607371449e-04" rms="3.7408101558685303e-01" purity="4.2358174920082092e-01" nType="-99"/>
        </Node>
        <Node pos="r" depth="1" NCoef="0" IVar="2" Cut="9.3898679687500000e+04" cType="1" res="3.7303403019905090e-01" rms="4.8361104726791382e-01" purity="3.7303400039672852e-01" nType="0">
          <Node pos="l" depth="2" NCoef="0" IVar="-1" Cut="0.0000000000000000e+00" cType="1" res="-3.8649386260658503e-03" rms="3.1935980916023254e-01" purity="3.2743069529533386e-01" nType="-99"/>
          <Node pos="r" depth="2" NCoef="0" IVar="-1" Cut="0.0000000000000000e+00" cType="1" res="-1.3426497753243893e-04" rms="3.6178669333457947e-01" purity="4.0264236927032471e-01" nType="-99"/>
        </Node>
      </Node>
    </BinaryTree>
    <BinaryTree type="DecisionTree" boostWeight="1.0000000000000000e+00" itree="1323">
      <Node pos="s" depth="0" NCoef="0" IVar="1" Cut="1.8991192187500000e+05" cType="1" res="5.0048208236694336e-01" rms="4.9999976158142090e-01" purity="5.0048208236694336e-01" nType="0">
        <Node pos="l" depth="1" NCoef="0" IVar="-1" Cut="0.0000000000000000e+00" cType="1" res="3.0413941203732975e-05" rms="3.6792910099029541e-01" purity="8.4339177608489990e-01" nType="-99"/>
        <Node pos="r" depth="1" NCoef="0" IVar="2" Cut="8.8476351562500000e+04" cType="1" res="3.9935752749443054e-01" rms="4.8976635932922363e-01" purity="3.9935752749443054e-01" nType="0">
          <Node pos="l" depth="2" NCoef="0" IVar="-1" Cut="0.0000000000000000e+00" cType="1" res="9.9762156605720520e-04" rms="3.8358363509178162e-01" purity="4.2386820912361145e-01" nType="-99"/>
          <Node pos="r" depth="2" NCoef="0" IVar="-1" Cut="0.0000000000000000e+00" cType="1" res="2.0404045244504232e-06" rms="3.5165688395500183e-01" purity="3.9697152376174927e-01" nType="-99"/>
        </Node>
      </Node>
    </BinaryTree>
    <BinaryTree type="DecisionTree" boostWeight="1.0000000000000000e+00" itree="1324">
      <Node pos="s" depth="0" NCoef="0" IVar="4" Cut="8.2542968750000000e+04" cType="1" res="3.8038998842239380e-01" rms="4.8548269271850586e-01" purity="3.8038998842239380e-01" nType="0">
        <Node pos="l" depth="1" NCoef="0" IVar="4" Cut="4.8606894531250000e+04" cType="1" res="3.3824220299720764e-01" rms="4.7311142086982727e-01" purity="3.3824220299720764e-01" nType="0">
          <Node pos="l" depth="2" NCoef="0" IVar="-1" Cut="0.0000000000000000e+00" cType="1" res="-1.8029933562502265e-04" rms="3.4569659829139709e-01" purity="2.9056304693222046e-01" nType="-99"/>
          <Node pos="r" depth="2" NCoef="0" IVar="-1" Cut="0.0000000000000000e+00" cType="1" res="-7.8094424679875374e-04" rms="4.2328810691833496e-01" purity="6.8982601165771484e-01" nType="-99"/>
        </Node>
        <Node pos="r" depth="1" NCoef="0" IVar="-1" Cut="0.0000000000000000e+00" cType="1" res="6.6423352109268308e-04" rms="2.7820482850074768e-01" purity="9.1385853290557861e-01" nType="-99"/>
      </Node>
    </BinaryTree>
    <BinaryTree type="DecisionTree" boostWeight="1.0000000000000000e+00" itree="1325">
      <Node pos="s" depth="0" NCoef="0" IVar="4" Cut="8.2526921875000000e+04" cType="1" res="0.0000000000000000e+00" rms="6.2405931949615479e-01" purity="3.8945007324218750e-01" nType="0">
        <Node pos="l" depth="1" NCoef="0" IVar="0" Cut="4.0000000000000000e+00" cType="1" res="-1.7139420378953218e-03" rms="3.5478097200393677e-01" purity="3.4901186823844910e-01" nType="0">
          <Node pos="l" depth="2" NCoef="0" IVar="-1" Cut="0.0000000000000000e+00" cType="1" res="-2.2156295017339289e-04" rms="3.5998237133026123e-01" purity="3.1485271453857422e-01" nType="-99"/>
          <Node pos="r" depth="2" NCoef="0" IVar="-1" Cut="0.0000000000000000e+00" cType="1" res="3.0762219103053212e-04" rms="2.4407500028610229e-01" purity="9.3679952621459961e-01" nType="-99"/>
        </Node>
        <Node pos="r" depth="1" NCoef="0" IVar="-1" Cut="0.0000000000000000e+00" cType="1" res="7.6804106356576085e-04" rms="2.7062618732452393e-01" purity="9.1892021894454956e-01" nType="-99"/>
      </Node>
    </BinaryTree>
    <BinaryTree type="DecisionTree" boostWeight="1.0000000000000000e+00" itree="1326">
      <Node pos="s" depth="0" NCoef="0" IVar="1" Cut="1.9129831250000000e+05" cType="1" res="4.5016697049140930e-01" rms="4.9751046299934387e-01" purity="4.5016700029373169e-01" nType="0">
        <Node pos="l" depth="1" NCoef="0" IVar="1" Cut="1.8722935937500000e+05" cType="1" res="3.5442862659692764e-02" rms="2.1661992371082306e-01" purity="7.0327365398406982e-01" nType="0">
          <Node pos="l" depth="2" NCoef="0" IVar="-1" Cut="0.0000000000000000e+00" cType="1" res="-1.9669572066050023e-04" rms="3.1830096244812012e-01" purity="1.9967508316040039e-01" nType="-99"/>
          <Node pos="r" depth="2" NCoef="0" IVar="-1" Cut="0.0000000000000000e+00" cType="1" res="3.0358873118530028e-05" rms="3.7582805752754211e-01" purity="8.3787059783935547e-01" nType="-99"/>
        </Node>
        <Node pos="r" depth="1" NCoef="0" IVar="3" Cut="9.8929617187500000e+04" cType="1" res="4.0238204598426819e-01" rms="4.9037814140319824e-01" purity="4.0238201618194580e-01" nType="0">
          <Node pos="l" depth="2" NCoef="0" IVar="-1" Cut="0.0000000000000000e+00" cType="1" res="3.6494329106062651e-04" rms="3.5875710844993591e-01" purity="3.9791804552078247e-01" nType="-99"/>
          <Node pos="r" depth="2" NCoef="0" IVar="-1" Cut="0.0000000000000000e+00" cType="1" res="1.1741967173293233e-03" rms="4.1958239674568176e-01" purity="5.0863438844680786e-01" nType="-99"/>
        </Node>
      </Node>
    </BinaryTree>
    <BinaryTree type="DecisionTree" boostWeight="1.0000000000000000e+00" itree="1327">
      <Node pos="s" depth="0" NCoef="0" IVar="0" Cut="1.0000000000000000e+00" cType="1" res="2.1950782835483551e-01" rms="4.8025619983673096e-01" purity="5.4276889562606812e-01" nType="0">
        <Node pos="l" depth="1" NCoef="0" IVar="4" Cut="2.1009341796875000e+04" cType="1" res="5.0825738906860352e-01" rms="4.9993181228637695e-01" purity="5.0825732946395874e-01" nType="0">
          <Node pos="l" depth="2" NCoef="0" IVar="-1" Cut="0.0000000000000000e+00" cType="1" res="-2.5290434714406729e-03" rms="1.9284300506114960e-01" purity="3.8885496556758881e-02" nType="-99"/>
          <Node pos="r" depth="2" NCoef="0" IVar="-1" Cut="0.0000000000000000e+00" cType="1" res="1.8918253772426397e-05" rms="4.7590643167495728e-01" purity="7.4385356903076172e-01" nType="-99"/>
        </Node>
        <Node pos="r" depth="1" NCoef="0" IVar="3" Cut="8.4603593750000000e+04" cType="1" res="5.9425497055053711e-01" rms="4.9133041501045227e-01" purity="5.9454458951950073e-01" nType="0">
          <Node pos="l" depth="2" NCoef="0" IVar="-1" Cut="0.0000000000000000e+00" cType="1" res="2.8803799068555236e-04" rms="3.7979033589363098e-01" purity="6.5138095617294312e-01" nType="-99"/>
          <Node pos="r" depth="2" NCoef="0" IVar="-1" Cut="0.0000000000000000e+00" cType="1" res="3.2460727379657328e-04" rms="4.0359055995941162e-01" purity="5.8813661336898804e-01" nType="-99"/>
        </Node>
      </Node>
    </BinaryTree>
    <BinaryTree type="DecisionTree" boostWeight="1.0000000000000000e+00" itree="1328">
      <Node pos="s" depth="0" NCoef="0" IVar="5" Cut="1.6215667187500000e+05" cType="1" res="4.7612375020980835e-01" rms="4.9948057532310486e-01" purity="4.7652775049209595e-01" nType="0">
        <Node pos="l" depth="1" NCoef="0" IVar="-1" Cut="0.0000000000000000e+00" cType="1" res="1.7177171685034409e-05" rms="3.9545422792434692e-01" purity="7.4621075391769409e-01" nType="-99"/>
        <Node pos="r" depth="1" NCoef="0" IVar="5" Cut="6.2528850000000000e+05" cType="1" res="4.0123090147972107e-01" rms="4.9021393060684204e-01" purity="4.0174689888954163e-01" nType="0">
          <Node pos="l" depth="2" NCoef="0" IVar="-1" Cut="0.0000000000000000e+00" cType="1" res="-4.0547529351897538e-04" rms="3.6178785562515259e-01" purity="3.4510204195976257e-01" nType="-99"/>
          <Node pos="r" depth="2" NCoef="0" IVar="-1" Cut="0.0000000000000000e+00" cType="1" res="1.2071763630956411e-03" rms="3.0201098322868347e-01" purity="8.6987441778182983e-01" nType="-99"/>
        </Node>
      </Node>
    </BinaryTree>
    <BinaryTree type="DecisionTree" boostWeight="1.0000000000000000e+00" itree="1329">
      <Node pos="s" depth="0" NCoef="0" IVar="0" Cut="4.0000000000000000e+00" cType="1" res="2.6047686114907265e-03" rms="3.5255163908004761e-01" purity="3.8547977805137634e-01" nType="0">
        <Node pos="l" depth="1" NCoef="0" IVar="4" Cut="2.3734361328125000e+04" cType="1" res="3.4694752097129822e-01" rms="4.7599887847900391e-01" purity="3.4694752097129822e-01" nType="0">
          <Node pos="l" depth="2" NCoef="0" IVar="-1" Cut="0.0000000000000000e+00" cType="1" res="1.0139385703951120e-03" rms="3.1386440992355347e-01" purity="2.0194070041179657e-01" nType="-99"/>
          <Node pos="r" depth="2" NCoef="0" IVar="-1" Cut="0.0000000000000000e+00" cType="1" res="-3.5387848038226366e-04" rms="4.0823021531105042e-01" purity="5.2286058664321899e-01" nType="-99"/>
        </Node>
        <Node pos="r" depth="1" NCoef="0" IVar="-1" Cut="0.0000000000000000e+00" cType="1" res="2.5222034309990704e-04" rms="2.1318976581096649e-01" purity="9.5316469669342041e-01" nType="-99"/>
      </Node>
    </BinaryTree>
    <BinaryTree type="DecisionTree" boostWeight="1.0000000000000000e+00" itree="1330">
      <Node pos="s" depth="0" NCoef="0" IVar="3" Cut="9.8928804687500000e+04" cType="1" res="3.9634290337562561e-01" rms="4.8913720250129700e-01" purity="3.9634290337562561e-01" nType="0">
        <Node pos="l" depth="1" NCoef="0" IVar="0" Cut="4.0000000000000000e+00" cType="1" res="5.1843770779669285e-03" rms="3.5292848944664001e-01" purity="3.8913884758949280e-01" nType="0">
          <Node pos="l" depth="2" NCoef="0" IVar="-1" Cut="0.0000000000000000e+00" cType="1" res="1.2080461601726711e-04" rms="3.5906478762626648e-01" purity="3.5507255792617798e-01" nType="-99"/>
          <Node pos="r" depth="2" NCoef="0" IVar="-1" Cut="0.0000000000000000e+00" cType="1" res="3.5391873097978532e-04" rms="2.2586958110332489e-01" purity="9.4659346342086792e-01" nType="-99"/>
        </Node>
        <Node pos="r" depth="1" NCoef="0" IVar="-1" Cut="0.0000000000000000e+00" cType="1" res="1.4248416991904378e-03" rms="4.1430133581161499e-01" purity="5.6515699625015259e-01" nType="-99"/>
      </Node>
    </BinaryTree>
    <BinaryTree type="DecisionTree" boostWeight="1.0000000000000000e+00" itree="1331">
      <Node pos="s" depth="0" NCoef="0" IVar="1" Cut="1.8991192187500000e+05" cType="1" res="4.4570285081863403e-01" rms="4.9704307317733765e-01" purity="4.4570288062095642e-01" nType="0">
        <Node pos="l" depth="1" NCoef="0" IVar="-1" Cut="0.0000000000000000e+00" cType="1" res="3.0135395718389191e-05" rms="4.4201529026031494e-01" purity="7.3705655336380005e-01" nType="-99"/>
        <Node pos="r" depth="1" NCoef="0" IVar="3" Cut="9.8928804687500000e+04" cType="1" res="3.9473846554756165e-01" rms="4.8879444599151611e-01" purity="3.9473846554756165e-01" nType="0">
          <Node pos="l" depth="2" NCoef="0" IVar="-1" Cut="0.0000000000000000e+00" cType="1" res="7.5730248738636874e-08" rms="3.5483619570732117e-01" purity="3.8800811767578125e-01" nType="-99"/>
          <Node pos="r" depth="2" NCoef="0" IVar="-1" Cut="0.0000000000000000e+00" cType="1" res="1.3926704414188862e-03" rms="4.2220020294189453e-01" purity="5.4459655284881592e-01" nType="-99"/>
        </Node>
      </Node>
    </BinaryTree>
    <BinaryTree type="DecisionTree" boostWeight="1.0000000000000000e+00" itree="1332">
      <Node pos="s" depth="0" NCoef="0" IVar="5" Cut="1.6770807812500000e+05" cType="1" res="4.8341271281242371e-01" rms="4.9972477555274963e-01" purity="4.8341274261474609e-01" nType="0">
        <Node pos="l" depth="1" NCoef="0" IVar="3" Cut="8.9984507812500000e+04" cType="1" res="6.8895417451858521e-01" rms="4.6292150020599365e-01" purity="6.8895417451858521e-01" nType="0">
          <Node pos="l" depth="2" NCoef="0" IVar="-1" Cut="0.0000000000000000e+00" cType="1" res="-5.5367453023791313e-03" rms="1.9113883376121521e-01" purity="4.7309383749961853e-02" nType="-99"/>
          <Node pos="r" depth="2" NCoef="0" IVar="-1" Cut="0.0000000000000000e+00" cType="1" res="1.7236985513591208e-05" rms="3.2496622204780579e-01" purity="8.5122680664062500e-01" nType="-99"/>
        </Node>
        <Node pos="r" depth="1" NCoef="0" IVar="3" Cut="9.8787789062500000e+04" cType="1" res="4.2003849148750305e-01" rms="4.9356475472450256e-01" purity="4.2003849148750305e-01" nType="0">
          <Node pos="l" depth="2" NCoef="0" IVar="-1" Cut="0.0000000000000000e+00" cType="1" res="-9.2239330115262419e-05" rms="3.5665306448936462e-01" purity="4.1603499650955200e-01" nType="-99"/>
          <Node pos="r" depth="2" NCoef="0" IVar="-1" Cut="0.0000000000000000e+00" cType="1" res="1.3845866778865457e-03" rms="4.2509981989860535e-01" purity="5.1144671440124512e-01" nType="-99"/>
        </Node>
      </Node>
    </BinaryTree>
    <BinaryTree type="DecisionTree" boostWeight="1.0000000000000000e+00" itree="1333">
      <Node pos="s" depth="0" NCoef="0" IVar="0" Cut="1.0000000000000000e+00" cType="1" res="2.2248902916908264e-01" rms="4.7907629609107971e-01" purity="5.4611450433731079e-01" nType="0">
        <Node pos="l" depth="1" NCoef="0" IVar="4" Cut="1.9682429687500000e+04" cType="1" res="5.1986956596374512e-01" rms="4.9960505962371826e-01" purity="5.1986956596374512e-01" nType="0">
          <Node pos="l" depth="2" NCoef="0" IVar="-1" Cut="0.0000000000000000e+00" cType="1" res="-1.0656316298991442e-03" rms="1.9188222289085388e-01" purity="3.8584172725677490e-02" nType="-99"/>
          <Node pos="r" depth="2" NCoef="0" IVar="-1" Cut="0.0000000000000000e+00" cType="1" res="1.9351680748513900e-05" rms="4.7098824381828308e-01" purity="7.3671501874923706e-01" nType="-99"/>
        </Node>
        <Node pos="r" depth="1" NCoef="0" IVar="5" Cut="2.2995871875000000e+05" cType="1" res="5.8472067117691040e-01" rms="4.9364265799522400e-01" purity="5.8629804849624634e-01" nType="0">
          <Node pos="l" depth="2" NCoef="0" IVar="-1" Cut="0.0000000000000000e+00" cType="1" res="-2.2286076564341784e-03" rms="3.7813571095466614e-01" purity="2.0588578283786774e-01" nType="-99"/>
          <Node pos="r" depth="2" NCoef="0" IVar="-1" Cut="0.0000000000000000e+00" cType="1" res="3.3754820469766855e-04" rms="3.9916583895683289e-01" purity="6.5308159589767456e-01" nType="-99"/>
        </Node>
      </Node>
    </BinaryTree>
    <BinaryTree type="DecisionTree" boostWeight="1.0000000000000000e+00" itree="1334">
      <Node pos="s" depth="0" NCoef="0" IVar="1" Cut="2.0203215625000000e+05" cType="1" res="4.9780556559562683e-01" rms="5.0017291307449341e-01" purity="4.9813196063041687e-01" nType="0">
        <Node pos="l" depth="1" NCoef="0" IVar="2" Cut="8.9655093750000000e+04" cType="1" res="6.3040131330490112e-01" rms="5.0222885608673096e-01" purity="6.8106645345687866e-01" nType="0">
          <Node pos="l" depth="2" NCoef="0" IVar="-1" Cut="0.0000000000000000e+00" cType="1" res="3.0459526897175238e-05" rms="3.3258080482482910e-01" purity="8.8133859634399414e-01" nType="-99"/>
          <Node pos="r" depth="2" NCoef="0" IVar="-1" Cut="0.0000000000000000e+00" cType="1" res="4.6315137296915054e-04" rms="3.3077415823936462e-01" purity="2.3256926238536835e-01" nType="-99"/>
        </Node>
        <Node pos="r" depth="1" NCoef="0" IVar="5" Cut="5.2953143750000000e+05" cType="1" res="4.1613030433654785e-01" rms="4.9317634105682373e-01" purity="4.1660216450691223e-01" nType="0">
          <Node pos="l" depth="2" NCoef="0" IVar="-1" Cut="0.0000000000000000e+00" cType="1" res="-1.7374695744365454e-04" rms="3.6367589235305786e-01" purity="3.2540890574455261e-01" nType="-99"/>
          <Node pos="r" depth="2" NCoef="0" IVar="-1" Cut="0.0000000000000000e+00" cType="1" res="1.0916037717834115e-03" rms="3.0345803499221802e-01" purity="8.5259318351745605e-01" nType="-99"/>
        </Node>
      </Node>
    </BinaryTree>
    <BinaryTree type="DecisionTree" boostWeight="1.0000000000000000e+00" itree="1335">
      <Node pos="s" depth="0" NCoef="0" IVar="3" Cut="8.4462257812500000e+04" cType="1" res="3.7041956186294556e-01" rms="4.8312687873840332e-01" purity="3.7071788311004639e-01" nType="0">
        <Node pos="l" depth="1" NCoef="0" IVar="3" Cut="8.3466882812500000e+04" cType="1" res="4.1047951579093933e-01" rms="4.9210420250892639e-01" purity="4.1065993905067444e-01" nType="0">
          <Node pos="l" depth="2" NCoef="0" IVar="-1" Cut="0.0000000000000000e+00" cType="1" res="1.6980040527414531e-04" rms="3.4348800778388977e-01" purity="3.7937706708908081e-01" nType="-99"/>
          <Node pos="r" depth="2" NCoef="0" IVar="-1" Cut="0.0000000000000000e+00" cType="1" res="2.2022703196853399e-03" rms="3.9631465077400208e-01" purity="4.5409223437309265e-01" nType="-99"/>
        </Node>
        <Node pos="r" depth="1" NCoef="0" IVar="5" Cut="2.5888671875000000e+05" cType="1" res="3.6644697189331055e-01" rms="4.8206469416618347e-01" purity="3.6675697565078735e-01" nType="0">
          <Node pos="l" depth="2" NCoef="0" IVar="-1" Cut="0.0000000000000000e+00" cType="1" res="3.9570324588567019e-04" rms="3.2103613018989563e-01" purity="1.6439412534236908e-01" nType="-99"/>
          <Node pos="r" depth="2" NCoef="0" IVar="-1" Cut="0.0000000000000000e+00" cType="1" res="-6.2125199474394321e-04" rms="3.8694745302200317e-01" purity="6.0407680273056030e-01" nType="-99"/>
        </Node>
      </Node>
    </BinaryTree>
    <BinaryTree type="DecisionTree" boostWeight="1.0000000000000000e+00" itree="1336">
      <Node pos="s" depth="0" NCoef="0" IVar="2" Cut="9.1849609375000000e+04" cType="1" res="4.6456459164619446e-01" rms="4.9874275922775269e-01" purity="4.6456456184387207e-01" nType="0">
        <Node pos="l" depth="1" NCoef="0" IVar="3" Cut="9.5099640625000000e+04" cType="1" res="3.8172763586044312e-01" rms="4.8581030964851379e-01" purity="3.8172766566276550e-01" nType="0">
          <Node pos="l" depth="2" NCoef="0" IVar="-1" Cut="0.0000000000000000e+00" cType="1" res="-1.7390552966389805e-04" rms="3.4630656242370605e-01" purity="3.7242969870567322e-01" nType="-99"/>
          <Node pos="r" depth="2" NCoef="0" IVar="-1" Cut="0.0000000000000000e+00" cType="1" res="7.8910827869549394e-04" rms="3.7207970023155212e-01" purity="4.2911133170127869e-01" nType="-99"/>
        </Node>
        <Node pos="r" depth="1" NCoef="0" IVar="2" Cut="9.2047007812500000e+04" cType="1" res="5.9292685985565186e-01" rms="4.9157455563545227e-01" purity="5.9320783615112305e-01" nType="0">
          <Node pos="l" depth="2" NCoef="0" IVar="-1" Cut="0.0000000000000000e+00" cType="1" res="2.2417731088353321e-05" rms="3.7527829408645630e-01" purity="8.7325000762939453e-01" nType="-99"/>
          <Node pos="r" depth="2" NCoef="0" IVar="-1" Cut="0.0000000000000000e+00" cType="1" res="-3.9665392250753939e-04" rms="3.5132169723510742e-01" purity="3.7487968802452087e-01" nType="-99"/>
        </Node>
      </Node>
    </BinaryTree>
    <BinaryTree type="DecisionTree" boostWeight="1.0000000000000000e+00" itree="1337">
      <Node pos="s" depth="0" NCoef="0" IVar="3" Cut="8.9426429687500000e+04" cType="1" res="5.7487910985946655e-01" rms="4.9460694193840027e-01" purity="5.7517606019973755e-01" nType="0">
        <Node pos="l" depth="1" NCoef="0" IVar="3" Cut="8.8493023437500000e+04" cType="1" res="6.8318116664886475e-01" rms="4.6535444259643555e-01" purity="6.8329125642776489e-01" nType="0">
          <Node pos="l" depth="2" NCoef="0" IVar="-1" Cut="0.0000000000000000e+00" cType="1" res="2.6887669810093939e-04" rms="3.5543423891067505e-01" purity="4.0676507353782654e-01" nType="-99"/>
          <Node pos="r" depth="2" NCoef="0" IVar="-1" Cut="0.0000000000000000e+00" cType="1" res="2.4206625312217511e-05" rms="3.6811929941177368e-01" purity="8.8251054286956787e-01" nType="-99"/>
        </Node>
        <Node pos="r" depth="1" NCoef="0" IVar="3" Cut="9.0929054687500000e+04" cType="1" res="3.8625136017799377e-01" rms="4.8724311590194702e-01" purity="3.8687366247177124e-01" nType="0">
          <Node pos="l" depth="2" NCoef="0" IVar="-1" Cut="0.0000000000000000e+00" cType="1" res="-2.2588926367461681e-03" rms="3.3446174860000610e-01" purity="3.3209455013275146e-01" nType="-99"/>
          <Node pos="r" depth="2" NCoef="0" IVar="-1" Cut="0.0000000000000000e+00" cType="1" res="2.2849431843496859e-04" rms="3.5472574830055237e-01" purity="3.9872080087661743e-01" nType="-99"/>
        </Node>
      </Node>
    </BinaryTree>
    <BinaryTree type="DecisionTree" boostWeight="1.0000000000000000e+00" itree="1338">
      <Node pos="s" depth="0" NCoef="0" IVar="2" Cut="8.9600773437500000e+04" cType="1" res="6.3307940959930420e-01" rms="4.8220616579055786e-01" purity="6.3331228494644165e-01" nType="0">
        <Node pos="l" depth="1" NCoef="0" IVar="2" Cut="8.9247882812500000e+04" cType="1" res="8.6034429073333740e-01" rms="3.4662947058677673e-01" purity="8.6036276817321777e-01" nType="0">
          <Node pos="l" depth="2" NCoef="0" IVar="-1" Cut="0.0000000000000000e+00" cType="1" res="-1.3548534479923546e-04" rms="3.5411605238914490e-01" purity="3.6723473668098450e-01" nType="-99"/>
          <Node pos="r" depth="2" NCoef="0" IVar="-1" Cut="0.0000000000000000e+00" cType="1" res="1.8492797607905231e-05" rms="2.1664634346961975e-01" purity="9.6383756399154663e-01" nType="-99"/>
        </Node>
        <Node pos="r" depth="1" NCoef="0" IVar="3" Cut="9.5950968750000000e+04" cType="1" res="3.8854688405990601e-01" rms="4.8789533972740173e-01" purity="3.8901051878929138e-01" nType="0">
          <Node pos="l" depth="2" NCoef="0" IVar="-1" Cut="0.0000000000000000e+00" cType="1" res="4.1369406972080469e-04" rms="3.5120472311973572e-01" purity="3.8969424366950989e-01" nType="-99"/>
          <Node pos="r" depth="2" NCoef="0" IVar="-1" Cut="0.0000000000000000e+00" cType="1" res="-9.1351411538198590e-04" rms="3.6218553781509399e-01" purity="3.8267582654953003e-01" nType="-99"/>
        </Node>
      </Node>
    </BinaryTree>
    <BinaryTree type="DecisionTree" boostWeight="1.0000000000000000e+00" itree="1339">
      <Node pos="s" depth="0" NCoef="0" IVar="0" Cut="1.0000000000000000e+00" cType="1" res="2.1882937848567963e-01" rms="4.8073968291282654e-01" purity="5.4132872819900513e-01" nType="0">
        <Node pos="l" depth="1" NCoef="0" IVar="4" Cut="1.9615392578125000e+04" cType="1" res="5.0945895910263062e-01" rms="4.9991053342819214e-01" purity="5.0945895910263062e-01" nType="0">
          <Node pos="l" depth="2" NCoef="0" IVar="-1" Cut="0.0000000000000000e+00" cType="1" res="-1.6237803502008319e-03" rms="1.8899500370025635e-01" purity="3.7764068692922592e-02" nType="-99"/>
          <Node pos="r" depth="2" NCoef="0" IVar="-1" Cut="0.0000000000000000e+00" cType="1" res="1.9008090021088719e-05" rms="4.7717049717903137e-01" purity="7.2649073600769043e-01" nType="-99"/>
        </Node>
        <Node pos="r" depth="1" NCoef="0" IVar="3" Cut="8.8006992187500000e+04" cType="1" res="5.8833980560302734e-01" rms="4.9224799871444702e-01" purity="5.8901947736740112e-01" nType="0">
          <Node pos="l" depth="2" NCoef="0" IVar="-1" Cut="0.0000000000000000e+00" cType="1" res="8.0016045831143856e-04" rms="4.0345442295074463e-01" purity="6.1020636558532715e-01" nType="-99"/>
          <Node pos="r" depth="2" NCoef="0" IVar="-1" Cut="0.0000000000000000e+00" cType="1" res="-1.3818015577271581e-04" rms="3.9950218796730042e-01" purity="5.7860505580902100e-01" nType="-99"/>
        </Node>
      </Node>
    </BinaryTree>
    <BinaryTree type="DecisionTree" boostWeight="1.0000000000000000e+00" itree="1340">
      <Node pos="s" depth="0" NCoef="0" IVar="5" Cut="1.6215667187500000e+05" cType="1" res="5.5082619190216064e-01" rms="4.9774354696273804e-01" purity="5.5142468214035034e-01" nType="0">
        <Node pos="l" depth="1" NCoef="0" IVar="-1" Cut="0.0000000000000000e+00" cType="1" res="1.7095346265705302e-05" rms="3.2229274511337280e-01" purity="8.5111176967620850e-01" nType="-99"/>
        <Node pos="r" depth="1" NCoef="0" IVar="5" Cut="2.1091623437500000e+05" cType="1" res="4.0793281793594360e-01" rms="4.9194872379302979e-01" purity="4.0881606936454773e-01" nType="0">
          <Node pos="l" depth="2" NCoef="0" IVar="-1" Cut="0.0000000000000000e+00" cType="1" res="-1.7290223622694612e-03" rms="2.7423599362373352e-01" purity="1.0990098863840103e-01" nType="-99"/>
          <Node pos="r" depth="2" NCoef="0" IVar="-1" Cut="0.0000000000000000e+00" cType="1" res="3.2007403206080198e-04" rms="3.9082860946655273e-01" purity="5.3465163707733154e-01" nType="-99"/>
        </Node>
      </Node>
    </BinaryTree>
    <BinaryTree type="DecisionTree" boostWeight="1.0000000000000000e+00" itree="1341">
      <Node pos="s" depth="0" NCoef="0" IVar="5" Cut="1.7155285937500000e+05" cType="1" res="5.9005290269851685e-01" rms="4.9206066131591797e-01" purity="5.9048420190811157e-01" nType="0">
        <Node pos="l" depth="1" NCoef="0" IVar="4" Cut="2.2072326171875000e+04" cType="1" res="8.2665681838989258e-01" rms="3.7854370474815369e-01" purity="8.2665675878524780e-01" nType="0">
          <Node pos="l" depth="2" NCoef="0" IVar="-1" Cut="0.0000000000000000e+00" cType="1" res="1.0660244151949883e-03" rms="1.7597322165966034e-01" purity="3.2401904463768005e-02" nType="-99"/>
          <Node pos="r" depth="2" NCoef="0" IVar="-1" Cut="0.0000000000000000e+00" cType="1" res="1.9071285350946710e-05" rms="2.3064534366130829e-01" purity="9.4574433565139771e-01" nType="-99"/>
        </Node>
        <Node pos="r" depth="1" NCoef="0" IVar="4" Cut="2.9599095703125000e+04" cType="1" res="4.3212777376174927e-01" rms="4.9576431512832642e-01" purity="4.3284690380096436e-01" nType="0">
          <Node pos="l" depth="2" NCoef="0" IVar="-1" Cut="0.0000000000000000e+00" cType="1" res="-5.1674444694072008e-04" rms="3.3530879020690918e-01" purity="2.7398857474327087e-01" nType="-99"/>
          <Node pos="r" depth="2" NCoef="0" IVar="-1" Cut="0.0000000000000000e+00" cType="1" res="2.9170190100558102e-04" rms="4.0145272016525269e-01" purity="6.6946864128112793e-01" nType="-99"/>
        </Node>
      </Node>
    </BinaryTree>
    <BinaryTree type="DecisionTree" boostWeight="1.0000000000000000e+00" itree="1342">
      <Node pos="s" depth="0" NCoef="0" IVar="2" Cut="9.1774695312500000e+04" cType="1" res="5.3133267164230347e-01" rms="4.9917429685592651e-01" purity="5.3156876564025879e-01" nType="0">
        <Node pos="l" depth="1" NCoef="0" IVar="3" Cut="9.7794117187500000e+04" cType="1" res="3.8683304190635681e-01" rms="4.8722347617149353e-01" purity="3.8702651858329773e-01" nType="0">
          <Node pos="l" depth="2" NCoef="0" IVar="-1" Cut="0.0000000000000000e+00" cType="1" res="-1.8680332868825644e-04" rms="3.4177780151367188e-01" purity="3.7867733836174011e-01" nType="-99"/>
          <Node pos="r" depth="2" NCoef="0" IVar="-1" Cut="0.0000000000000000e+00" cType="1" res="1.2331836624071002e-03" rms="3.9774772524833679e-01" purity="5.0882697105407715e-01" nType="-99"/>
        </Node>
        <Node pos="r" depth="1" NCoef="0" IVar="2" Cut="9.1973664062500000e+04" cType="1" res="6.8943303823471069e-01" rms="4.6294221282005310e-01" purity="6.8991619348526001e-01" nType="0">
          <Node pos="l" depth="2" NCoef="0" IVar="-1" Cut="0.0000000000000000e+00" cType="1" res="2.2371266823029146e-05" rms="2.9458180069923401e-01" purity="9.2783510684967041e-01" nType="-99"/>
          <Node pos="r" depth="2" NCoef="0" IVar="-1" Cut="0.0000000000000000e+00" cType="1" res="5.5522836191812530e-05" rms="3.5732266306877136e-01" purity="3.8010522723197937e-01" nType="-99"/>
        </Node>
      </Node>
    </BinaryTree>
    <BinaryTree type="DecisionTree" boostWeight="1.0000000000000000e+00" itree="1343">
      <Node pos="s" depth="0" NCoef="0" IVar="1" Cut="1.9097787500000000e+05" cType="1" res="4.4309973716735840e-01" rms="4.9675181508064270e-01" purity="4.4309970736503601e-01" nType="0">
        <Node pos="l" depth="1" NCoef="0" IVar="4" Cut="2.1087853515625000e+04" cType="1" res="3.0284769833087921e-02" rms="2.0480246841907501e-01" purity="7.1011632680892944e-01" nType="0">
          <Node pos="l" depth="2" NCoef="0" IVar="-1" Cut="0.0000000000000000e+00" cType="1" res="-5.3047086112201214e-04" rms="2.1672910451889038e-01" purity="1.1999151110649109e-01" nType="-99"/>
          <Node pos="r" depth="2" NCoef="0" IVar="-1" Cut="0.0000000000000000e+00" cType="1" res="3.0195335057214834e-05" rms="3.8962250947952271e-01" purity="8.6844021081924438e-01" nType="-99"/>
        </Node>
        <Node pos="r" depth="1" NCoef="0" IVar="0" Cut="4.0000000000000000e+00" cType="1" res="-7.8223005402833223e-04" rms="3.5103011131286621e-01" purity="3.9358729124069214e-01" nType="0">
          <Node pos="l" depth="2" NCoef="0" IVar="-1" Cut="0.0000000000000000e+00" cType="1" res="-1.5044781321194023e-04" rms="3.5693243145942688e-01" purity="3.5729768872261047e-01" nType="-99"/>
          <Node pos="r" depth="2" NCoef="0" IVar="-1" Cut="0.0000000000000000e+00" cType="1" res="2.9008288402110338e-04" rms="2.4281834065914154e-01" purity="9.3724435567855835e-01" nType="-99"/>
        </Node>
      </Node>
    </BinaryTree>
    <BinaryTree type="DecisionTree" boostWeight="1.0000000000000000e+00" itree="1344">
      <Node pos="s" depth="0" NCoef="0" IVar="3" Cut="9.5950445312500000e+04" cType="1" res="4.8611819744110107e-01" rms="4.9991589784622192e-01" purity="4.8646691441535950e-01" nType="0">
        <Node pos="l" depth="1" NCoef="0" IVar="0" Cut="4.0000000000000000e+00" cType="1" res="3.4665635321289301e-03" rms="3.4771853685379028e-01" purity="3.8602578639984131e-01" nType="0">
          <Node pos="l" depth="2" NCoef="0" IVar="-1" Cut="0.0000000000000000e+00" cType="1" res="-5.2848459745291620e-05" rms="3.5538226366043091e-01" purity="3.4372889995574951e-01" nType="-99"/>
          <Node pos="r" depth="2" NCoef="0" IVar="-1" Cut="0.0000000000000000e+00" cType="1" res="1.8475127581041306e-04" rms="2.1085885167121887e-01" purity="9.5480781793594360e-01" nType="-99"/>
        </Node>
        <Node pos="r" depth="1" NCoef="0" IVar="3" Cut="9.6732351562500000e+04" cType="1" res="7.7531039714813232e-01" rms="4.1768005490303040e-01" purity="7.7556276321411133e-01" nType="0">
          <Node pos="l" depth="2" NCoef="0" IVar="-1" Cut="0.0000000000000000e+00" cType="1" res="1.7110369299189188e-05" rms="3.1693297624588013e-01" purity="9.1903954744338989e-01" nType="-99"/>
          <Node pos="r" depth="2" NCoef="0" IVar="-1" Cut="0.0000000000000000e+00" cType="1" res="3.2436649780720472e-04" rms="3.7812113761901855e-01" purity="4.4141027331352234e-01" nType="-99"/>
        </Node>
      </Node>
    </BinaryTree>
    <BinaryTree type="DecisionTree" boostWeight="1.0000000000000000e+00" itree="1345">
      <Node pos="s" depth="0" NCoef="0" IVar="2" Cut="9.0455367187500000e+04" cType="1" res="3.8517603278160095e-01" rms="4.8663687705993652e-01" purity="3.8517603278160095e-01" nType="0">
        <Node pos="l" depth="1" NCoef="0" IVar="3" Cut="8.5312398437500000e+04" cType="1" res="3.9398723840713501e-01" rms="4.8863205313682556e-01" purity="3.9398720860481262e-01" nType="0">
          <Node pos="l" depth="2" NCoef="0" IVar="-1" Cut="0.0000000000000000e+00" cType="1" res="1.2261926895007491e-03" rms="3.6958217620849609e-01" purity="4.4085925817489624e-01" nType="-99"/>
          <Node pos="r" depth="2" NCoef="0" IVar="-1" Cut="0.0000000000000000e+00" cType="1" res="6.6305912332609296e-04" rms="3.6479550600051880e-01" purity="3.8441172242164612e-01" nType="-99"/>
        </Node>
        <Node pos="r" depth="1" NCoef="0" IVar="4" Cut="6.5353238281250000e+04" cType="1" res="3.7993991374969482e-01" rms="4.8547720909118652e-01" purity="3.8020595908164978e-01" nType="0">
          <Node pos="l" depth="2" NCoef="0" IVar="-1" Cut="0.0000000000000000e+00" cType="1" res="-4.3811966315843165e-04" rms="3.5190629959106445e-01" purity="3.1712532043457031e-01" nType="-99"/>
          <Node pos="r" depth="2" NCoef="0" IVar="-1" Cut="0.0000000000000000e+00" cType="1" res="4.9602845683693886e-04" rms="3.2386669516563416e-01" purity="8.7483489513397217e-01" nType="-99"/>
        </Node>
      </Node>
    </BinaryTree>
    <BinaryTree type="DecisionTree" boostWeight="1.0000000000000000e+00" itree="1346">
      <Node pos="s" depth="0" NCoef="0" IVar="5" Cut="4.6286578125000000e+05" cType="1" res="3.9193367958068848e-01" rms="4.8818200826644897e-01" purity="3.9193367958068848e-01" nType="0">
        <Node pos="l" depth="1" NCoef="0" IVar="3" Cut="8.5313390625000000e+04" cType="1" res="2.9107993841171265e-01" rms="4.5426028966903687e-01" purity="2.9107996821403503e-01" nType="0">
          <Node pos="l" depth="2" NCoef="0" IVar="-1" Cut="0.0000000000000000e+00" cType="1" res="2.9783736681565642e-04" rms="3.4730041027069092e-01" purity="3.7143588066101074e-01" nType="-99"/>
          <Node pos="r" depth="2" NCoef="0" IVar="-1" Cut="0.0000000000000000e+00" cType="1" res="-1.0742114682216197e-04" rms="3.6225870251655579e-01" purity="2.7846145629882812e-01" nType="-99"/>
        </Node>
        <Node pos="r" depth="1" NCoef="0" IVar="1" Cut="5.1835800000000000e+05" cType="1" res="8.2572191953659058e-01" rms="3.7934842705726624e-01" purity="8.2572191953659058e-01" nType="0">
          <Node pos="l" depth="2" NCoef="0" IVar="-1" Cut="0.0000000000000000e+00" cType="1" res="1.2129278620705009e-03" rms="3.2064554095268250e-01" purity="8.6248832941055298e-01" nType="-99"/>
          <Node pos="r" depth="2" NCoef="0" IVar="-1" Cut="0.0000000000000000e+00" cType="1" res="-5.1646202336996794e-05" rms="3.4867402911186218e-01" purity="7.3880296945571899e-01" nType="-99"/>
        </Node>
      </Node>
    </BinaryTree>
    <BinaryTree type="DecisionTree" boostWeight="1.0000000000000000e+00" itree="1347">
      <Node pos="s" depth="0" NCoef="0" IVar="2" Cut="9.1836718750000000e+04" cType="1" res="4.6548268198966980e-01" rms="4.9880713224411011e-01" purity="4.6548271179199219e-01" nType="0">
        <Node pos="l" depth="1" NCoef="0" IVar="3" Cut="9.8076773437500000e+04" cType="1" res="3.7737268209457397e-01" rms="4.8472934961318970e-01" purity="3.7737271189689636e-01" nType="0">
          <Node pos="l" depth="2" NCoef="0" IVar="-1" Cut="0.0000000000000000e+00" cType="1" res="-2.4916112306527793e-04" rms="3.4880122542381287e-01" purity="3.6763936281204224e-01" nType="-99"/>
          <Node pos="r" depth="2" NCoef="0" IVar="-1" Cut="0.0000000000000000e+00" cType="1" res="7.1653368650004268e-04" rms="3.6321979761123657e-01" purity="5.3272527456283569e-01" nType="-99"/>
        </Node>
        <Node pos="r" depth="1" NCoef="0" IVar="2" Cut="9.2028328125000000e+04" cType="1" res="5.9715026617050171e-01" rms="4.9076712131500244e-01" purity="5.9744077920913696e-01" nType="0">
          <Node pos="l" depth="2" NCoef="0" IVar="-1" Cut="0.0000000000000000e+00" cType="1" res="2.2494599761557765e-05" rms="3.7056967616081238e-01" purity="8.8356894254684448e-01" nType="-99"/>
          <Node pos="r" depth="2" NCoef="0" IVar="-1" Cut="0.0000000000000000e+00" cType="1" res="1.1092773638665676e-04" rms="3.5986518859863281e-01" purity="3.8219711184501648e-01" nType="-99"/>
        </Node>
      </Node>
    </BinaryTree>
    <BinaryTree type="DecisionTree" boostWeight="1.0000000000000000e+00" itree="1348">
      <Node pos="s" depth="0" NCoef="0" IVar="4" Cut="8.2776101562500000e+04" cType="1" res="3.8598647713661194e-01" rms="4.8682740330696106e-01" purity="3.8598647713661194e-01" nType="0">
        <Node pos="l" depth="1" NCoef="0" IVar="0" Cut="4.0000000000000000e+00" cType="1" res="-3.5918001085519791e-03" rms="3.5246279835700989e-01" purity="3.4669342637062073e-01" nType="0">
          <Node pos="l" depth="2" NCoef="0" IVar="-1" Cut="0.0000000000000000e+00" cType="1" res="-3.3908418845385313e-04" rms="3.5749256610870361e-01" purity="3.1401017308235168e-01" nType="-99"/>
          <Node pos="r" depth="2" NCoef="0" IVar="-1" Cut="0.0000000000000000e+00" cType="1" res="2.7270545251667500e-03" rms="2.4011579155921936e-01" purity="9.3817919492721558e-01" nType="-99"/>
        </Node>
        <Node pos="r" depth="1" NCoef="0" IVar="-1" Cut="0.0000000000000000e+00" cType="1" res="6.3600513385608792e-04" rms="2.9593834280967712e-01" purity="9.0469080209732056e-01" nType="-99"/>
      </Node>
    </BinaryTree>
    <BinaryTree type="DecisionTree" boostWeight="1.0000000000000000e+00" itree="1349">
      <Node pos="s" depth="0" NCoef="0" IVar="1" Cut="2.0203215625000000e+05" cType="1" res="5.2870291471481323e-01" rms="4.9956652522087097e-01" purity="5.2909344434738159e-01" nType="0">
        <Node pos="l" depth="1" NCoef="0" IVar="2" Cut="8.9697859375000000e+04" cType="1" res="2.7753993868827820e-01" rms="4.6606054902076721e-01" purity="7.3044240474700928e-01" nType="0">
          <Node pos="l" depth="2" NCoef="0" IVar="-1" Cut="0.0000000000000000e+00" cType="1" res="2.0541332560242154e-05" rms="3.0193391442298889e-01" purity="9.0563410520553589e-01" nType="-99"/>
          <Node pos="r" depth="2" NCoef="0" IVar="-1" Cut="0.0000000000000000e+00" cType="1" res="-8.7108433945104480e-04" rms="3.1898644566535950e-01" purity="2.0715887844562531e-01" nType="-99"/>
        </Node>
        <Node pos="r" depth="1" NCoef="0" IVar="4" Cut="9.3033984375000000e+03" cType="1" res="4.2071086168289185e-01" rms="4.9428018927574158e-01" purity="4.2131054401397705e-01" nType="0">
          <Node pos="l" depth="2" NCoef="0" IVar="-1" Cut="0.0000000000000000e+00" cType="1" res="-3.2564532011747360e-03" rms="2.5707459449768066e-01" purity="1.5126314759254456e-01" nType="-99"/>
          <Node pos="r" depth="2" NCoef="0" IVar="-1" Cut="0.0000000000000000e+00" cType="1" res="3.7148132105357945e-04" rms="3.7238609790802002e-01" purity="4.6945232152938843e-01" nType="-99"/>
        </Node>
      </Node>
    </BinaryTree>
    <BinaryTree type="DecisionTree" boostWeight="1.0000000000000000e+00" itree="1350">
      <Node pos="s" depth="0" NCoef="0" IVar="5" Cut="1.6215667187500000e+05" cType="1" res="4.8068749904632568e-01" rms="4.9962687492370605e-01" purity="4.8068749904632568e-01" nType="0">
        <Node pos="l" depth="1" NCoef="0" IVar="-1" Cut="0.0000000000000000e+00" cType="1" res="1.7061980543076061e-05" rms="3.9522704482078552e-01" purity="7.4541419744491577e-01" nType="-99"/>
        <Node pos="r" depth="1" NCoef="0" IVar="4" Cut="3.2139078125000000e+04" cType="1" res="4.0819969773292542e-01" rms="4.9150046706199646e-01" purity="4.0819966793060303e-01" nType="0">
          <Node pos="l" depth="2" NCoef="0" IVar="-1" Cut="0.0000000000000000e+00" cType="1" res="-1.2932413665112108e-04" rms="3.3817258477210999e-01" purity="2.6742193102836609e-01" nType="-99"/>
          <Node pos="r" depth="2" NCoef="0" IVar="-1" Cut="0.0000000000000000e+00" cType="1" res="5.1135441754013300e-04" rms="4.1067731380462646e-01" purity="6.7583644390106201e-01" nType="-99"/>
        </Node>
      </Node>
    </BinaryTree>
    <BinaryTree type="DecisionTree" boostWeight="1.0000000000000000e+00" itree="1351">
      <Node pos="s" depth="0" NCoef="0" IVar="5" Cut="1.6799046875000000e+05" cType="1" res="6.0389876365661621e-01" rms="4.8908594250679016e-01" purity="6.0389876365661621e-01" nType="0">
        <Node pos="l" depth="1" NCoef="0" IVar="3" Cut="9.0273757812500000e+04" cType="1" res="8.6615270376205444e-01" rms="3.4048819541931152e-01" purity="8.6615270376205444e-01" nType="0">
          <Node pos="l" depth="2" NCoef="0" IVar="-1" Cut="0.0000000000000000e+00" cType="1" res="-2.0515933283604681e-04" rms="2.1672007441520691e-01" purity="8.3163544535636902e-02" nType="-99"/>
          <Node pos="r" depth="2" NCoef="0" IVar="-1" Cut="0.0000000000000000e+00" cType="1" res="1.7124053556472063e-05" rms="2.0901283621788025e-01" purity="9.4507700204849243e-01" nType="-99"/>
        </Node>
        <Node pos="r" depth="1" NCoef="0" IVar="2" Cut="8.8182882812500000e+04" cType="1" res="4.1115495562553406e-01" rms="4.9204325675964355e-01" purity="4.1115495562553406e-01" nType="0">
          <Node pos="l" depth="2" NCoef="0" IVar="-1" Cut="0.0000000000000000e+00" cType="1" res="1.1144295567646623e-03" rms="4.1865506768226624e-01" purity="4.1921368241310120e-01" nType="-99"/>
          <Node pos="r" depth="2" NCoef="0" IVar="-1" Cut="0.0000000000000000e+00" cType="1" res="-2.5463633937761188e-04" rms="3.5804361104965210e-01" purity="4.1055449843406677e-01" nType="-99"/>
        </Node>
      </Node>
    </BinaryTree>
    <BinaryTree type="DecisionTree" boostWeight="1.0000000000000000e+00" itree="1352">
      <Node pos="s" depth="0" NCoef="0" IVar="2" Cut="9.1836718750000000e+04" cType="1" res="5.3684109449386597e-01" rms="4.9892482161521912e-01" purity="5.3712439537048340e-01" nType="0">
        <Node pos="l" depth="1" NCoef="0" IVar="3" Cut="9.6801453125000000e+04" cType="1" res="3.9244535565376282e-01" rms="4.8873075842857361e-01" purity="3.9311122894287109e-01" nType="0">
          <Node pos="l" depth="2" NCoef="0" IVar="-1" Cut="0.0000000000000000e+00" cType="1" res="1.7623827443458140e-04" rms="3.5019221901893616e-01" purity="3.8519704341888428e-01" nType="-99"/>
          <Node pos="r" depth="2" NCoef="0" IVar="-1" Cut="0.0000000000000000e+00" cType="1" res="1.5023656887933612e-03" rms="4.0224385261535645e-01" purity="4.7524985671043396e-01" nType="-99"/>
        </Node>
        <Node pos="r" depth="1" NCoef="0" IVar="2" Cut="9.2028312500000000e+04" cType="1" res="6.9931113719940186e-01" rms="4.5891937613487244e-01" purity="6.9964307546615601e-01" nType="0">
          <Node pos="l" depth="2" NCoef="0" IVar="-1" Cut="0.0000000000000000e+00" cType="1" res="2.2525531676365063e-05" rms="2.9119428992271423e-01" purity="9.3238079547882080e-01" nType="-99"/>
          <Node pos="r" depth="2" NCoef="0" IVar="-1" Cut="0.0000000000000000e+00" cType="1" res="-4.3559804907999933e-04" rms="3.4587767720222473e-01" purity="3.8559365272521973e-01" nType="-99"/>
        </Node>
      </Node>
    </BinaryTree>
    <BinaryTree type="DecisionTree" boostWeight="1.0000000000000000e+00" itree="1353">
      <Node pos="s" depth="0" NCoef="0" IVar="2" Cut="8.9692742187500000e+04" cType="1" res="5.2370673418045044e-01" rms="4.9949109554290771e-01" purity="5.2381676435470581e-01" nType="0">
        <Node pos="l" depth="1" NCoef="0" IVar="5" Cut="1.8374878125000000e+05" cType="1" res="7.3976027965545654e-01" rms="4.3876531720161438e-01" purity="7.3976022005081177e-01" nType="0">
          <Node pos="l" depth="2" NCoef="0" IVar="-1" Cut="0.0000000000000000e+00" cType="1" res="2.0510691683739424e-05" rms="3.1187552213668823e-01" purity="8.7067210674285889e-01" nType="-99"/>
          <Node pos="r" depth="2" NCoef="0" IVar="-1" Cut="0.0000000000000000e+00" cType="1" res="4.1358807357028127e-04" rms="3.8312137126922607e-01" purity="4.7274217009544373e-01" nType="-99"/>
        </Node>
        <Node pos="r" depth="1" NCoef="0" IVar="5" Cut="7.6838362500000000e+05" cType="1" res="3.7910112738609314e-01" rms="4.8525512218475342e-01" purity="3.7928485870361328e-01" nType="0">
          <Node pos="l" depth="2" NCoef="0" IVar="-1" Cut="0.0000000000000000e+00" cType="1" res="-2.3999212135095149e-04" rms="3.5460636019706726e-01" purity="3.3945971727371216e-01" nType="-99"/>
          <Node pos="r" depth="2" NCoef="0" IVar="-1" Cut="0.0000000000000000e+00" cType="1" res="2.1109681110829115e-03" rms="2.6281255483627319e-01" purity="9.0828424692153931e-01" nType="-99"/>
        </Node>
      </Node>
    </BinaryTree>
    <BinaryTree type="DecisionTree" boostWeight="1.0000000000000000e+00" itree="1354">
      <Node pos="s" depth="0" NCoef="0" IVar="5" Cut="1.6215667187500000e+05" cType="1" res="5.4224783182144165e-01" rms="4.9834987521171570e-01" purity="5.4254156351089478e-01" nType="0">
        <Node pos="l" depth="1" NCoef="0" IVar="-1" Cut="0.0000000000000000e+00" cType="1" res="1.7119858966907486e-05" rms="3.9335873723030090e-01" purity="7.4599105119705200e-01" nType="-99"/>
        <Node pos="r" depth="1" NCoef="0" IVar="2" Cut="9.1865859375000000e+04" cType="1" res="4.9406400322914124e-01" rms="5.0013476610183716e-01" purity="4.9442714452743530e-01" nType="0">
          <Node pos="l" depth="2" NCoef="0" IVar="-1" Cut="0.0000000000000000e+00" cType="1" res="-1.9367266213521361e-04" rms="3.5483106970787048e-01" purity="4.0072467923164368e-01" nType="-99"/>
          <Node pos="r" depth="2" NCoef="0" IVar="-1" Cut="0.0000000000000000e+00" cType="1" res="2.3034792320686392e-05" rms="5.0392645597457886e-01" purity="6.3026034832000732e-01" nType="-99"/>
        </Node>
      </Node>
    </BinaryTree>
    <BinaryTree type="DecisionTree" boostWeight="1.0000000000000000e+00" itree="1355">
      <Node pos="s" depth="0" NCoef="0" IVar="5" Cut="1.5990256250000000e+05" cType="1" res="6.7537921667098999e-01" rms="4.6823298931121826e-01" purity="6.7537921667098999e-01" nType="0">
        <Node pos="l" depth="1" NCoef="0" IVar="-1" Cut="0.0000000000000000e+00" cType="1" res="1.7102298443205655e-05" rms="2.5908055901527405e-01" purity="9.1031599044799805e-01" nType="-99"/>
        <Node pos="r" depth="1" NCoef="0" IVar="2" Cut="9.1844453125000000e+04" cType="1" res="5.5936241149902344e-01" rms="4.9646359682083130e-01" purity="5.5936235189437866e-01" nType="0">
          <Node pos="l" depth="2" NCoef="0" IVar="-1" Cut="0.0000000000000000e+00" cType="1" res="2.4091680825222284e-04" rms="3.5794690251350403e-01" purity="4.0927025675773621e-01" nType="-99"/>
          <Node pos="r" depth="2" NCoef="0" IVar="-1" Cut="0.0000000000000000e+00" cType="1" res="2.2350686776917428e-05" rms="4.9733582139015198e-01" purity="7.2317719459533691e-01" nType="-99"/>
        </Node>
      </Node>
    </BinaryTree>
    <BinaryTree type="DecisionTree" boostWeight="1.0000000000000000e+00" itree="1356">
      <Node pos="s" depth="0" NCoef="0" IVar="4" Cut="8.2762492187500000e+04" cType="1" res="3.8383525609970093e-01" rms="4.8657551407814026e-01" purity="3.8418984413146973e-01" nType="0">
        <Node pos="l" depth="1" NCoef="0" IVar="0" Cut="4.0000000000000000e+00" cType="1" res="-9.3742227181792259e-04" rms="3.5593271255493164e-01" purity="3.4429714083671570e-01" nType="0">
          <Node pos="l" depth="2" NCoef="0" IVar="-1" Cut="0.0000000000000000e+00" cType="1" res="-1.8867228936869651e-04" rms="3.6133652925491333e-01" purity="3.0940064787864685e-01" nType="-99"/>
          <Node pos="r" depth="2" NCoef="0" IVar="-1" Cut="0.0000000000000000e+00" cType="1" res="3.0039800913073123e-04" rms="2.4198831617832184e-01" purity="9.3806737661361694e-01" nType="-99"/>
        </Node>
        <Node pos="r" depth="1" NCoef="0" IVar="-1" Cut="0.0000000000000000e+00" cType="1" res="7.3453591903671622e-04" rms="2.7737897634506226e-01" purity="9.1453927755355835e-01" nType="-99"/>
      </Node>
    </BinaryTree>
    <BinaryTree type="DecisionTree" boostWeight="1.0000000000000000e+00" itree="1357">
      <Node pos="s" depth="0" NCoef="0" IVar="2" Cut="9.1879929687500000e+04" cType="1" res="4.6902555227279663e-01" rms="4.9903964996337891e-01" purity="4.6902552247047424e-01" nType="0">
        <Node pos="l" depth="1" NCoef="0" IVar="3" Cut="9.6092226562500000e+04" cType="1" res="3.8491770625114441e-01" rms="4.8657587170600891e-01" purity="3.8491770625114441e-01" nType="0">
          <Node pos="l" depth="2" NCoef="0" IVar="-1" Cut="0.0000000000000000e+00" cType="1" res="-7.1489528636448085e-05" rms="3.4524288773536682e-01" purity="3.7580659985542297e-01" nType="-99"/>
          <Node pos="r" depth="2" NCoef="0" IVar="-1" Cut="0.0000000000000000e+00" cType="1" res="1.1194518301635981e-03" rms="3.8086804747581482e-01" purity="4.5405602455139160e-01" nType="-99"/>
        </Node>
        <Node pos="r" depth="1" NCoef="0" IVar="2" Cut="9.2070640625000000e+04" cType="1" res="5.9991079568862915e-01" rms="4.9006456136703491e-01" purity="6.0005623102188110e-01" nType="0">
          <Node pos="l" depth="2" NCoef="0" IVar="-1" Cut="0.0000000000000000e+00" cType="1" res="2.2547785192728043e-05" rms="3.6614435911178589e-01" purity="8.8087660074234009e-01" nType="-99"/>
          <Node pos="r" depth="2" NCoef="0" IVar="-1" Cut="0.0000000000000000e+00" cType="1" res="5.1618539146147668e-05" rms="3.6047300696372986e-01" purity="3.8421216607093811e-01" nType="-99"/>
        </Node>
      </Node>
    </BinaryTree>
    <BinaryTree type="DecisionTree" boostWeight="1.0000000000000000e+00" itree="1358">
      <Node pos="s" depth="0" NCoef="0" IVar="1" Cut="1.9130335937500000e+05" cType="1" res="5.9280133247375488e-01" rms="4.9131244421005249e-01" purity="5.9280133247375488e-01" nType="0">
        <Node pos="l" depth="1" NCoef="0" IVar="1" Cut="1.8707242187500000e+05" cType="1" res="1.7593704164028168e-02" rms="1.5963438153266907e-01" purity="8.6734801530838013e-01" nType="0">
          <Node pos="l" depth="2" NCoef="0" IVar="-1" Cut="0.0000000000000000e+00" cType="1" res="9.4024068675935268e-04" rms="3.2603082060813904e-01" purity="2.3540373146533966e-01" nType="-99"/>
          <Node pos="r" depth="2" NCoef="0" IVar="-1" Cut="0.0000000000000000e+00" cType="1" res="3.0487251933664083e-05" rms="2.4926410615444183e-01" purity="9.3787807226181030e-01" nType="-99"/>
        </Node>
        <Node pos="r" depth="1" NCoef="0" IVar="2" Cut="9.1836718750000000e+04" cType="1" res="4.9304318428039551e-01" rms="4.9995160102844238e-01" purity="4.9304318428039551e-01" nType="0">
          <Node pos="l" depth="2" NCoef="0" IVar="-1" Cut="0.0000000000000000e+00" cType="1" res="1.6450205293949693e-04" rms="3.4938296675682068e-01" purity="4.0492662787437439e-01" nType="-99"/>
          <Node pos="r" depth="2" NCoef="0" IVar="-1" Cut="0.0000000000000000e+00" cType="1" res="2.3277609216165729e-05" rms="5.0100654363632202e-01" purity="6.2071764469146729e-01" nType="-99"/>
        </Node>
      </Node>
    </BinaryTree>
    <BinaryTree type="DecisionTree" boostWeight="1.0000000000000000e+00" itree="1359">
      <Node pos="s" depth="0" NCoef="0" IVar="3" Cut="9.5950953125000000e+04" cType="1" res="0.0000000000000000e+00" rms="0.0000000000000000e+00" purity="4.7856858372688293e-01" nType="0">
        <Node pos="l" depth="1" NCoef="0" IVar="0" Cut="4.0000000000000000e+00" cType="1" res="-2.2811375092715025e-03" rms="3.5028475522994995e-01" purity="3.7024736404418945e-01" nType="0">
          <Node pos="l" depth="2" NCoef="0" IVar="-1" Cut="0.0000000000000000e+00" cType="1" res="-3.0977663118392229e-04" rms="3.5542899370193481e-01" purity="3.3694145083427429e-01" nType="-99"/>
          <Node pos="r" depth="2" NCoef="0" IVar="-1" Cut="0.0000000000000000e+00" cType="1" res="2.7532270178198814e-04" rms="2.4197590351104736e-01" purity="9.3870174884796143e-01" nType="-99"/>
        </Node>
        <Node pos="r" depth="1" NCoef="0" IVar="2" Cut="8.9294859375000000e+04" cType="1" res="7.7439260482788086e-01" rms="4.1798168420791626e-01" purity="7.7463930845260620e-01" nType="0">
          <Node pos="l" depth="2" NCoef="0" IVar="-1" Cut="0.0000000000000000e+00" cType="1" res="1.7443624528823420e-05" rms="3.3329319953918457e-01" purity="9.1176676750183105e-01" nType="-99"/>
          <Node pos="r" depth="2" NCoef="0" IVar="-1" Cut="0.0000000000000000e+00" cType="1" res="3.4491687983972952e-05" rms="3.6580061912536621e-01" purity="4.3499416112899780e-01" nType="-99"/>
        </Node>
      </Node>
    </BinaryTree>
    <BinaryTree type="DecisionTree" boostWeight="1.0000000000000000e+00" itree="1360">
      <Node pos="s" depth="0" NCoef="0" IVar="3" Cut="9.5950742187500000e+04" cType="1" res="4.7471240162849426e-01" rms="4.9936011433601379e-01" purity="4.7471240162849426e-01" nType="0">
        <Node pos="l" depth="1" NCoef="0" IVar="3" Cut="9.5218320312500000e+04" cType="1" res="3.7083032727241516e-01" rms="4.8302710056304932e-01" purity="3.7083032727241516e-01" nType="0">
          <Node pos="l" depth="2" NCoef="0" IVar="-1" Cut="0.0000000000000000e+00" cType="1" res="-3.0408508609980345e-04" rms="3.4456190466880798e-01" purity="3.6873596906661987e-01" nType="-99"/>
          <Node pos="r" depth="2" NCoef="0" IVar="-1" Cut="0.0000000000000000e+00" cType="1" res="2.5421795435249805e-03" rms="4.1882142424583435e-01" purity="4.1497522592544556e-01" nType="-99"/>
        </Node>
        <Node pos="r" depth="1" NCoef="0" IVar="3" Cut="9.6695984375000000e+04" cType="1" res="7.6597464084625244e-01" rms="4.2338812351226807e-01" purity="7.6647871732711792e-01" nType="0">
          <Node pos="l" depth="2" NCoef="0" IVar="-1" Cut="0.0000000000000000e+00" cType="1" res="1.7129113984992728e-05" rms="3.2068449258804321e-01" purity="9.1726720333099365e-01" nType="-99"/>
          <Node pos="r" depth="2" NCoef="0" IVar="-1" Cut="0.0000000000000000e+00" cType="1" res="-1.0444652289152145e-03" rms="3.4096616506576538e-01" purity="4.0917620062828064e-01" nType="-99"/>
        </Node>
      </Node>
    </BinaryTree>
    <BinaryTree type="DecisionTree" boostWeight="1.0000000000000000e+00" itree="1361">
      <Node pos="s" depth="0" NCoef="0" IVar="1" Cut="2.0208595312500000e+05" cType="1" res="4.4589111208915710e-01" rms="4.9718895554542542e-01" purity="4.4611054658889771e-01" nType="0">
        <Node pos="l" depth="1" NCoef="0" IVar="2" Cut="8.9620320312500000e+04" cType="1" res="0.0000000000000000e+00" rms="3.3132302633021027e-05" purity="5.5244028568267822e-01" nType="0">
          <Node pos="l" depth="2" NCoef="0" IVar="-1" Cut="0.0000000000000000e+00" cType="1" res="3.0824910936644301e-05" rms="4.0897077322006226e-01" purity="8.0688595771789551e-01" nType="-99"/>
          <Node pos="r" depth="2" NCoef="0" IVar="-1" Cut="0.0000000000000000e+00" cType="1" res="8.3575243479572237e-05" rms="3.2341066002845764e-01" purity="2.2771215438842773e-01" nType="-99"/>
        </Node>
        <Node pos="r" depth="1" NCoef="0" IVar="2" Cut="8.7712476562500000e+04" cType="1" res="4.1129851341247559e-01" rms="4.9215853214263916e-01" purity="4.1151216626167297e-01" nType="0">
          <Node pos="l" depth="2" NCoef="0" IVar="-1" Cut="0.0000000000000000e+00" cType="1" res="1.3099737698212266e-03" rms="4.0273290872573853e-01" purity="4.6301206946372986e-01" nType="-99"/>
          <Node pos="r" depth="2" NCoef="0" IVar="-1" Cut="0.0000000000000000e+00" cType="1" res="1.2647158291656524e-04" rms="3.6004370450973511e-01" purity="4.0879753232002258e-01" nType="-99"/>
        </Node>
      </Node>
    </BinaryTree>
    <BinaryTree type="DecisionTree" boostWeight="1.0000000000000000e+00" itree="1362">
      <Node pos="s" depth="0" NCoef="0" IVar="5" Cut="1.6770807812500000e+05" cType="1" res="5.5268269777297974e-01" rms="4.9744912981987000e-01" purity="5.5300700664520264e-01" nType="0">
        <Node pos="l" depth="1" NCoef="0" IVar="4" Cut="1.8952580078125000e+04" cType="1" res="8.1400179862976074e-01" rms="3.8910520076751709e-01" purity="8.1400179862976074e-01" nType="0">
          <Node pos="l" depth="2" NCoef="0" IVar="-1" Cut="0.0000000000000000e+00" cType="1" res="5.1825394621118903e-04" rms="1.6133755445480347e-01" purity="2.6649605482816696e-02" nType="-99"/>
          <Node pos="r" depth="2" NCoef="0" IVar="-1" Cut="0.0000000000000000e+00" cType="1" res="1.7151887732325122e-05" rms="2.5232934951782227e-01" purity="9.2908120155334473e-01" nType="-99"/>
        </Node>
        <Node pos="r" depth="1" NCoef="0" IVar="5" Cut="1.9333507812500000e+05" cType="1" res="4.1851794719696045e-01" rms="4.9367034435272217e-01" purity="4.1900873184204102e-01" nType="0">
          <Node pos="l" depth="2" NCoef="0" IVar="-1" Cut="0.0000000000000000e+00" cType="1" res="-2.5098840706050396e-03" rms="2.6157522201538086e-01" purity="8.6723402142524719e-02" nType="-99"/>
          <Node pos="r" depth="2" NCoef="0" IVar="-1" Cut="0.0000000000000000e+00" cType="1" res="3.4912364208139479e-04" rms="3.8287067413330078e-01" purity="4.8857226967811584e-01" nType="-99"/>
        </Node>
      </Node>
    </BinaryTree>
    <BinaryTree type="DecisionTree" boostWeight="1.0000000000000000e+00" itree="1363">
      <Node pos="s" depth="0" NCoef="0" IVar="1" Cut="2.0337760937500000e+05" cType="1" res="4.4434601068496704e-01" rms="4.9701270461082458e-01" purity="4.4455945491790771e-01" nType="0">
        <Node pos="l" depth="1" NCoef="0" IVar="2" Cut="8.9723593750000000e+04" cType="1" res="4.6993690729141235e-01" rms="5.2519845962524414e-01" purity="5.3747737407684326e-01" nType="0">
          <Node pos="l" depth="2" NCoef="0" IVar="-1" Cut="0.0000000000000000e+00" cType="1" res="3.0340588637045585e-05" rms="4.2354175448417664e-01" purity="7.7895599603652954e-01" nType="-99"/>
          <Node pos="r" depth="2" NCoef="0" IVar="-1" Cut="0.0000000000000000e+00" cType="1" res="1.0468377731740475e-03" rms="3.4011471271514893e-01" purity="2.4683406949043274e-01" nType="-99"/>
        </Node>
        <Node pos="r" depth="1" NCoef="0" IVar="4" Cut="6.4867480468750000e+04" cType="1" res="4.1285309195518494e-01" rms="4.9250853061676025e-01" purity="4.1313871741294861e-01" nType="0">
          <Node pos="l" depth="2" NCoef="0" IVar="-1" Cut="0.0000000000000000e+00" cType="1" res="-2.2613267356064171e-04" rms="3.5927352309226990e-01" purity="3.4290468692779541e-01" nType="-99"/>
          <Node pos="r" depth="2" NCoef="0" IVar="-1" Cut="0.0000000000000000e+00" cType="1" res="6.6138140391558409e-04" rms="3.1423693895339966e-01" purity="8.8534027338027954e-01" nType="-99"/>
        </Node>
      </Node>
    </BinaryTree>
    <BinaryTree type="DecisionTree" boostWeight="1.0000000000000000e+00" itree="1364">
      <Node pos="s" depth="0" NCoef="0" IVar="4" Cut="3.5436074218750000e+04" cType="1" res="3.9149641990661621e-01" rms="4.8808500170707703e-01" purity="3.9149644970893860e-01" nType="0">
        <Node pos="l" depth="1" NCoef="0" IVar="1" Cut="4.7278090625000000e+05" cType="1" res="2.5753068923950195e-01" rms="4.3727409839630127e-01" purity="2.5753068923950195e-01" nType="0">
          <Node pos="l" depth="2" NCoef="0" IVar="-1" Cut="0.0000000000000000e+00" cType="1" res="-3.1115446472540498e-04" rms="3.2974526286125183e-01" purity="2.3209750652313232e-01" nType="-99"/>
          <Node pos="r" depth="2" NCoef="0" IVar="-1" Cut="0.0000000000000000e+00" cType="1" res="1.7313405405730009e-03" rms="3.7916627526283264e-01" purity="5.5741250514984131e-01" nType="-99"/>
        </Node>
        <Node pos="r" depth="1" NCoef="0" IVar="5" Cut="2.8727828125000000e+05" cType="1" res="7.0091313123703003e-01" rms="4.5785796642303467e-01" purity="7.0091319084167480e-01" nType="0">
          <Node pos="l" depth="2" NCoef="0" IVar="-1" Cut="0.0000000000000000e+00" cType="1" res="7.2624947642907500e-04" rms="4.5244717597961426e-01" purity="5.4427486658096313e-01" nType="-99"/>
          <Node pos="r" depth="2" NCoef="0" IVar="-1" Cut="0.0000000000000000e+00" cType="1" res="1.8158300372306257e-04" rms="3.4680348634719849e-01" purity="8.2055914402008057e-01" nType="-99"/>
        </Node>
      </Node>
    </BinaryTree>
    <BinaryTree type="DecisionTree" boostWeight="1.0000000000000000e+00" itree="1365">
      <Node pos="s" depth="0" NCoef="0" IVar="5" Cut="1.5990256250000000e+05" cType="1" res="5.3936845064163208e-01" rms="4.9860224127769470e-01" purity="5.3952246904373169e-01" nType="0">
        <Node pos="l" depth="1" NCoef="0" IVar="-1" Cut="0.0000000000000000e+00" cType="1" res="1.7052439943654463e-05" rms="3.7731805443763733e-01" purity="7.7616435289382935e-01" nType="-99"/>
        <Node pos="r" depth="1" NCoef="0" IVar="2" Cut="9.1773078125000000e+04" cType="1" res="4.8623096942901611e-01" rms="4.9999904632568359e-01" purity="4.8641961812973022e-01" nType="0">
          <Node pos="l" depth="2" NCoef="0" IVar="-1" Cut="0.0000000000000000e+00" cType="1" res="-3.8216654502321035e-05" rms="3.5444423556327820e-01" purity="4.0241700410842896e-01" nType="-99"/>
          <Node pos="r" depth="2" NCoef="0" IVar="-1" Cut="0.0000000000000000e+00" cType="1" res="2.2317091861623339e-05" rms="5.0812351703643799e-01" purity="6.0564607381820679e-01" nType="-99"/>
        </Node>
      </Node>
    </BinaryTree>
    <BinaryTree type="DecisionTree" boostWeight="1.0000000000000000e+00" itree="1366">
      <Node pos="s" depth="0" NCoef="0" IVar="3" Cut="8.9426585937500000e+04" cType="1" res="5.1240527629852295e-01" rms="4.9984610080718994e-01" purity="5.1240521669387817e-01" nType="0">
        <Node pos="l" depth="1" NCoef="0" IVar="3" Cut="8.8493046875000000e+04" cType="1" res="6.0710048675537109e-01" rms="4.8839479684829712e-01" purity="6.0710042715072632e-01" nType="0">
          <Node pos="l" depth="2" NCoef="0" IVar="-1" Cut="0.0000000000000000e+00" cType="1" res="8.7515436462126672e-06" rms="3.4867972135543823e-01" purity="3.7767860293388367e-01" nType="-99"/>
          <Node pos="r" depth="2" NCoef="0" IVar="-1" Cut="0.0000000000000000e+00" cType="1" res="2.5215098503394984e-05" rms="4.2298436164855957e-01" purity="8.3013957738876343e-01" nType="-99"/>
        </Node>
        <Node pos="r" depth="1" NCoef="0" IVar="4" Cut="1.0992220703125000e+04" cType="1" res="3.8412532210350037e-01" rms="4.8638775944709778e-01" purity="3.8412532210350037e-01" nType="0">
          <Node pos="l" depth="2" NCoef="0" IVar="-1" Cut="0.0000000000000000e+00" cType="1" res="-3.6562904715538025e-03" rms="2.5266301631927490e-01" purity="1.3755130767822266e-01" nType="-99"/>
          <Node pos="r" depth="2" NCoef="0" IVar="-1" Cut="0.0000000000000000e+00" cType="1" res="2.9549334431067109e-04" rms="3.7800201773643494e-01" purity="4.4988721609115601e-01" nType="-99"/>
        </Node>
      </Node>
    </BinaryTree>
    <BinaryTree type="DecisionTree" boostWeight="1.0000000000000000e+00" itree="1367">
      <Node pos="s" depth="0" NCoef="0" IVar="0" Cut="4.0000000000000000e+00" cType="1" res="2.0987472962588072e-03" rms="3.4844708442687988e-01" purity="3.8746371865272522e-01" nType="0">
        <Node pos="l" depth="1" NCoef="0" IVar="2" Cut="8.8999289062500000e+04" cType="1" res="3.4943962097167969e-01" rms="4.7679302096366882e-01" purity="3.4943959116935730e-01" nType="0">
          <Node pos="l" depth="2" NCoef="0" IVar="-1" Cut="0.0000000000000000e+00" cType="1" res="-1.9111445872113109e-03" rms="3.3979290723800659e-01" purity="2.9318824410438538e-01" nType="-99"/>
          <Node pos="r" depth="2" NCoef="0" IVar="-1" Cut="0.0000000000000000e+00" cType="1" res="1.2429358321242034e-04" rms="3.5708990693092346e-01" purity="3.5728761553764343e-01" nType="-99"/>
        </Node>
        <Node pos="r" depth="1" NCoef="0" IVar="-1" Cut="0.0000000000000000e+00" cType="1" res="2.3418279306497425e-04" rms="2.1966235339641571e-01" purity="9.5029199123382568e-01" nType="-99"/>
      </Node>
    </BinaryTree>
    <BinaryTree type="DecisionTree" boostWeight="1.0000000000000000e+00" itree="1368">
      <Node pos="s" depth="0" NCoef="0" IVar="0" Cut="1.0000000000000000e+00" cType="1" res="3.9451503753662109e-01" rms="4.9711000919342041e-01" purity="6.6973322629928589e-01" nType="0">
        <Node pos="l" depth="1" NCoef="0" IVar="4" Cut="2.1007773437500000e+04" cType="1" res="7.0043760538101196e-01" rms="4.5806634426116943e-01" purity="7.0043760538101196e-01" nType="0">
          <Node pos="l" depth="2" NCoef="0" IVar="-1" Cut="0.0000000000000000e+00" cType="1" res="2.6179165579378605e-03" rms="2.1861366927623749e-01" purity="5.0974994897842407e-02" nType="-99"/>
          <Node pos="r" depth="2" NCoef="0" IVar="-1" Cut="0.0000000000000000e+00" cType="1" res="1.9748440536204726e-05" rms="3.7305456399917603e-01" purity="8.7085545063018799e-01" nType="-99"/>
        </Node>
        <Node pos="r" depth="1" NCoef="0" IVar="3" Cut="8.4036859375000000e+04" cType="1" res="5.9435003995895386e-01" rms="4.9146014451980591e-01" purity="5.9512186050415039e-01" nType="0">
          <Node pos="l" depth="2" NCoef="0" IVar="-1" Cut="0.0000000000000000e+00" cType="1" res="9.0583291603252292e-04" rms="3.7798547744750977e-01" purity="6.6695094108581543e-01" nType="-99"/>
          <Node pos="r" depth="2" NCoef="0" IVar="-1" Cut="0.0000000000000000e+00" cType="1" res="2.8072745772078633e-04" rms="3.9956611394882202e-01" purity="5.8843022584915161e-01" nType="-99"/>
        </Node>
      </Node>
    </BinaryTree>
    <BinaryTree type="DecisionTree" boostWeight="1.0000000000000000e+00" itree="1369">
      <Node pos="s" depth="0" NCoef="0" IVar="2" Cut="9.1849609375000000e+04" cType="1" res="4.7092714905738831e-01" rms="4.9915406107902527e-01" purity="4.7092714905738831e-01" nType="0">
        <Node pos="l" depth="1" NCoef="0" IVar="0" Cut="2.0000000000000000e+00" cType="1" res="6.1381567502394319e-04" rms="3.4407454729080200e-01" purity="3.9042699337005615e-01" nType="0">
          <Node pos="l" depth="2" NCoef="0" IVar="-1" Cut="0.0000000000000000e+00" cType="1" res="-4.2342097731307149e-04" rms="3.4154164791107178e-01" purity="2.2007223963737488e-01" nType="-99"/>
          <Node pos="r" depth="2" NCoef="0" IVar="-1" Cut="0.0000000000000000e+00" cType="1" res="3.1417136779054999e-04" rms="3.5001406073570251e-01" purity="8.4359890222549438e-01" nType="-99"/>
        </Node>
        <Node pos="r" depth="1" NCoef="0" IVar="2" Cut="9.2047015625000000e+04" cType="1" res="5.9534776210784912e-01" rms="4.9097999930381775e-01" purity="5.9550034999847412e-01" nType="0">
          <Node pos="l" depth="2" NCoef="0" IVar="-1" Cut="0.0000000000000000e+00" cType="1" res="2.2506686946144328e-05" rms="3.7239885330200195e-01" purity="8.7878340482711792e-01" nType="-99"/>
          <Node pos="r" depth="2" NCoef="0" IVar="-1" Cut="0.0000000000000000e+00" cType="1" res="-5.2811467321589589e-04" rms="3.5048338770866394e-01" purity="3.7590640783309937e-01" nType="-99"/>
        </Node>
      </Node>
    </BinaryTree>
    <BinaryTree type="DecisionTree" boostWeight="1.0000000000000000e+00" itree="1370">
      <Node pos="s" depth="0" NCoef="0" IVar="3" Cut="9.5950960937500000e+04" cType="1" res="4.8569744825363159e-01" rms="4.9999698996543884e-01" purity="4.8596426844596863e-01" nType="0">
        <Node pos="l" depth="1" NCoef="0" IVar="0" Cut="4.0000000000000000e+00" cType="1" res="6.1161462217569351e-03" rms="3.5103633999824524e-01" purity="3.8567021489143372e-01" nType="0">
          <Node pos="l" depth="2" NCoef="0" IVar="-1" Cut="0.0000000000000000e+00" cType="1" res="2.2107167751528323e-04" rms="3.5653451085090637e-01" purity="3.5388779640197754e-01" nType="-99"/>
          <Node pos="r" depth="2" NCoef="0" IVar="-1" Cut="0.0000000000000000e+00" cType="1" res="2.7219899930059910e-03" rms="2.3186643421649933e-01" purity="9.4311296939849854e-01" nType="-99"/>
        </Node>
        <Node pos="r" depth="1" NCoef="0" IVar="2" Cut="8.9314257812500000e+04" cType="1" res="7.7326947450637817e-01" rms="4.1871684789657593e-01" purity="7.7352195978164673e-01" nType="0">
          <Node pos="l" depth="2" NCoef="0" IVar="-1" Cut="0.0000000000000000e+00" cType="1" res="1.7316626326646656e-05" rms="3.2914319634437561e-01" purity="9.1337251663208008e-01" nType="-99"/>
          <Node pos="r" depth="2" NCoef="0" IVar="-1" Cut="0.0000000000000000e+00" cType="1" res="-1.6796299314592034e-04" rms="3.7008979916572571e-01" purity="4.1651213169097900e-01" nType="-99"/>
        </Node>
      </Node>
    </BinaryTree>
    <BinaryTree type="DecisionTree" boostWeight="1.0000000000000000e+00" itree="1371">
      <Node pos="s" depth="0" NCoef="0" IVar="1" Cut="1.9904829687500000e+05" cType="1" res="4.4468635320663452e-01" rms="4.9725386500358582e-01" purity="4.4557473063468933e-01" nType="0">
        <Node pos="l" depth="1" NCoef="0" IVar="2" Cut="8.9715734375000000e+04" cType="1" res="5.1226335763931274e-01" rms="5.1552146673202515e-01" purity="5.8853262662887573e-01" nType="0">
          <Node pos="l" depth="2" NCoef="0" IVar="-1" Cut="0.0000000000000000e+00" cType="1" res="3.0714934837305918e-05" rms="3.9558476209640503e-01" purity="8.2093989849090576e-01" nType="-99"/>
          <Node pos="r" depth="2" NCoef="0" IVar="-1" Cut="0.0000000000000000e+00" cType="1" res="1.3384164776653051e-04" rms="3.2781466841697693e-01" purity="2.4555228650569916e-01" nType="-99"/>
        </Node>
        <Node pos="r" depth="1" NCoef="0" IVar="4" Cut="3.7077156250000000e+04" cType="1" res="4.0435186028480530e-01" rms="4.9105015397071838e-01" purity="4.0535768866539001e-01" nType="0">
          <Node pos="l" depth="2" NCoef="0" IVar="-1" Cut="0.0000000000000000e+00" cType="1" res="-9.4638060545548797e-04" rms="3.3794662356376648e-01" purity="2.6801452040672302e-01" nType="-99"/>
          <Node pos="r" depth="2" NCoef="0" IVar="-1" Cut="0.0000000000000000e+00" cType="1" res="2.9599413392134011e-04" rms="3.8812667131423950e-01" purity="7.3234105110168457e-01" nType="-99"/>
        </Node>
      </Node>
    </BinaryTree>
    <BinaryTree type="DecisionTree" boostWeight="1.0000000000000000e+00" itree="1372">
      <Node pos="s" depth="0" NCoef="0" IVar="0" Cut="1.0000000000000000e+00" cType="1" res="2.6225075125694275e-01" rms="4.9281358718872070e-01" purity="5.6845617294311523e-01" nType="0">
        <Node pos="l" depth="1" NCoef="0" IVar="4" Cut="1.9682429687500000e+04" cType="1" res="5.6208634376525879e-01" rms="4.9613031744956970e-01" purity="5.6208640336990356e-01" nType="0">
          <Node pos="l" depth="2" NCoef="0" IVar="-1" Cut="0.0000000000000000e+00" cType="1" res="4.6627032570540905e-03" rms="2.2664958238601685e-01" purity="5.5221479386091232e-02" nType="-99"/>
          <Node pos="r" depth="2" NCoef="0" IVar="-1" Cut="0.0000000000000000e+00" cType="1" res="2.4110971935442649e-05" rms="4.5644506812095642e-01" purity="7.6966416835784912e-01" nType="-99"/>
        </Node>
        <Node pos="r" depth="1" NCoef="0" IVar="5" Cut="4.8019671875000000e+05" cType="1" res="5.7906496524810791e-01" rms="4.9381524324417114e-01" purity="5.7916969060897827e-01" nType="0">
          <Node pos="l" depth="2" NCoef="0" IVar="-1" Cut="0.0000000000000000e+00" cType="1" res="-2.4929756182245910e-04" rms="4.2107897996902466e-01" purity="4.6649602055549622e-01" nType="-99"/>
          <Node pos="r" depth="2" NCoef="0" IVar="-1" Cut="0.0000000000000000e+00" cType="1" res="8.7823072681203485e-04" rms="3.3034497499465942e-01" purity="8.4965145587921143e-01" nType="-99"/>
        </Node>
      </Node>
    </BinaryTree>
    <BinaryTree type="DecisionTree" boostWeight="1.0000000000000000e+00" itree="1373">
      <Node pos="s" depth="0" NCoef="0" IVar="4" Cut="7.7944625000000000e+04" cType="1" res="3.8167101144790649e-01" rms="4.8579651117324829e-01" purity="3.8167101144790649e-01" nType="0">
        <Node pos="l" depth="1" NCoef="0" IVar="4" Cut="4.9210433593750000e+04" cType="1" res="3.3509993553161621e-01" rms="4.7209584712982178e-01" purity="3.3516645431518555e-01" nType="0">
          <Node pos="l" depth="2" NCoef="0" IVar="-1" Cut="0.0000000000000000e+00" cType="1" res="1.5744228221592493e-05" rms="3.4913167357444763e-01" purity="2.9563373327255249e-01" nType="-99"/>
          <Node pos="r" depth="2" NCoef="0" IVar="-1" Cut="0.0000000000000000e+00" cType="1" res="-1.1354909511283040e-03" rms="4.1859760880470276e-01" purity="6.8387550115585327e-01" nType="-99"/>
        </Node>
        <Node pos="r" depth="1" NCoef="0" IVar="-1" Cut="0.0000000000000000e+00" cType="1" res="5.3746934281662107e-04" rms="2.8950816392898560e-01" purity="9.0568286180496216e-01" nType="-99"/>
      </Node>
    </BinaryTree>
    <BinaryTree type="DecisionTree" boostWeight="1.0000000000000000e+00" itree="1374">
      <Node pos="s" depth="0" NCoef="0" IVar="3" Cut="8.9426328125000000e+04" cType="1" res="5.1388448476791382e-01" rms="5.0015264749526978e-01" purity="5.1429128646850586e-01" nType="0">
        <Node pos="l" depth="1" NCoef="0" IVar="3" Cut="8.8492710937500000e+04" cType="1" res="6.0805732011795044e-01" rms="4.8852965235710144e-01" purity="6.0839498043060303e-01" nType="0">
          <Node pos="l" depth="2" NCoef="0" IVar="-1" Cut="0.0000000000000000e+00" cType="1" res="1.4437704521697015e-04" rms="3.5704866051673889e-01" purity="3.8283333182334900e-01" nType="-99"/>
          <Node pos="r" depth="2" NCoef="0" IVar="-1" Cut="0.0000000000000000e+00" cType="1" res="2.5428596927667968e-05" rms="4.1911670565605164e-01" purity="8.3319175243377686e-01" nType="-99"/>
        </Node>
        <Node pos="r" depth="1" NCoef="0" IVar="4" Cut="2.6849546875000000e+04" cType="1" res="3.8248789310455322e-01" rms="4.8622909188270569e-01" purity="3.8299107551574707e-01" nType="0">
          <Node pos="l" depth="2" NCoef="0" IVar="-1" Cut="0.0000000000000000e+00" cType="1" res="9.9770480301231146e-04" rms="3.3060672879219055e-01" purity="2.4959631264209747e-01" nType="-99"/>
          <Node pos="r" depth="2" NCoef="0" IVar="-1" Cut="0.0000000000000000e+00" cType="1" res="-5.1327823894098401e-04" rms="4.0311056375503540e-01" purity="5.7997268438339233e-01" nType="-99"/>
        </Node>
      </Node>
    </BinaryTree>
    <BinaryTree type="DecisionTree" boostWeight="1.0000000000000000e+00" itree="1375">
      <Node pos="s" depth="0" NCoef="0" IVar="3" Cut="9.5950960937500000e+04" cType="1" res="4.7849699854850769e-01" rms="4.9988728761672974e-01" purity="4.7908285260200500e-01" nType="0">
        <Node pos="l" depth="1" NCoef="0" IVar="5" Cut="4.6101537500000000e+05" cType="1" res="3.7205010652542114e-01" rms="4.8377713561058044e-01" purity="3.7269431352615356e-01" nType="0">
          <Node pos="l" depth="2" NCoef="0" IVar="-1" Cut="0.0000000000000000e+00" cType="1" res="-3.7577294278889894e-04" rms="3.5431039333343506e-01" purity="2.7488055825233459e-01" nType="-99"/>
          <Node pos="r" depth="2" NCoef="0" IVar="-1" Cut="0.0000000000000000e+00" cType="1" res="7.6604372588917613e-04" rms="3.3523696660995483e-01" purity="8.1892997026443481e-01" nType="-99"/>
        </Node>
        <Node pos="r" depth="1" NCoef="0" IVar="3" Cut="9.6733460937500000e+04" cType="1" res="7.6896178722381592e-01" rms="4.2171138525009155e-01" purity="7.6938831806182861e-01" nType="0">
          <Node pos="l" depth="2" NCoef="0" IVar="-1" Cut="0.0000000000000000e+00" cType="1" res="1.7183832824230194e-05" rms="3.3116471767425537e-01" purity="9.0958815813064575e-01" nType="-99"/>
          <Node pos="r" depth="2" NCoef="0" IVar="-1" Cut="0.0000000000000000e+00" cType="1" res="3.3145624911412597e-04" rms="3.6982396245002747e-01" purity="4.4788450002670288e-01" nType="-99"/>
        </Node>
      </Node>
    </BinaryTree>
    <BinaryTree type="DecisionTree" boostWeight="1.0000000000000000e+00" itree="1376">
      <Node pos="s" depth="0" NCoef="0" IVar="1" Cut="2.0371373437500000e+05" cType="1" res="6.3253062963485718e-01" rms="4.8226121068000793e-01" purity="6.3273328542709351e-01" nType="0">
        <Node pos="l" depth="1" NCoef="0" IVar="2" Cut="8.9599460937500000e+04" cType="1" res="1.6062612831592560e-01" rms="3.7682521343231201e-01" purity="8.4363943338394165e-01" nType="0">
          <Node pos="l" depth="2" NCoef="0" IVar="-1" Cut="0.0000000000000000e+00" cType="1" res="1.8582017219159752e-05" rms="2.1154557168483734e-01" purity="9.5661991834640503e-01" nType="-99"/>
          <Node pos="r" depth="2" NCoef="0" IVar="-1" Cut="0.0000000000000000e+00" cType="1" res="-3.9480326813645661e-04" rms="3.3272457122802734e-01" purity="2.1970334649085999e-01" nType="-99"/>
        </Node>
        <Node pos="r" depth="1" NCoef="0" IVar="5" Cut="2.2444151562500000e+05" cType="1" res="4.1801267862319946e-01" rms="4.9351882934570312e-01" purity="4.1842126846313477e-01" nType="0">
          <Node pos="l" depth="2" NCoef="0" IVar="-1" Cut="0.0000000000000000e+00" cType="1" res="-1.0090168798342347e-03" rms="2.7804186940193176e-01" purity="1.1942537128925323e-01" nType="-99"/>
          <Node pos="r" depth="2" NCoef="0" IVar="-1" Cut="0.0000000000000000e+00" cType="1" res="4.2029563337564468e-04" rms="3.9061293005943298e-01" purity="5.6982928514480591e-01" nType="-99"/>
        </Node>
      </Node>
    </BinaryTree>
    <BinaryTree type="DecisionTree" boostWeight="1.0000000000000000e+00" itree="1377">
      <Node pos="s" depth="0" NCoef="0" IVar="1" Cut="2.0337760937500000e+05" cType="1" res="5.2734243869781494e-01" rms="4.9941107630729675e-01" purity="5.2758204936981201e-01" nType="0">
        <Node pos="l" depth="1" NCoef="0" IVar="2" Cut="8.9636281250000000e+04" cType="1" res="2.8045433759689331e-01" rms="4.6709460020065308e-01" purity="7.2327041625976562e-01" nType="0">
          <Node pos="l" depth="2" NCoef="0" IVar="-1" Cut="0.0000000000000000e+00" cType="1" res="2.0550234694383107e-05" rms="3.0457007884979248e-01" purity="9.0681529045104980e-01" nType="-99"/>
          <Node pos="r" depth="2" NCoef="0" IVar="-1" Cut="0.0000000000000000e+00" cType="1" res="9.7117741825059056e-04" rms="3.4273728728294373e-01" purity="2.3860351741313934e-01" nType="-99"/>
        </Node>
        <Node pos="r" depth="1" NCoef="0" IVar="3" Cut="8.4036742187500000e+04" cType="1" res="4.1617634892463684e-01" rms="4.9317628145217896e-01" purity="4.1655185818672180e-01" nType="0">
          <Node pos="l" depth="2" NCoef="0" IVar="-1" Cut="0.0000000000000000e+00" cType="1" res="1.9427845836617053e-04" rms="3.2215198874473572e-01" purity="5.7021194696426392e-01" nType="-99"/>
          <Node pos="r" depth="2" NCoef="0" IVar="-1" Cut="0.0000000000000000e+00" cType="1" res="-2.3761705961078405e-04" rms="3.5610967874526978e-01" purity="4.0283784270286560e-01" nType="-99"/>
        </Node>
      </Node>
    </BinaryTree>
    <BinaryTree type="DecisionTree" boostWeight="1.0000000000000000e+00" itree="1378">
      <Node pos="s" depth="0" NCoef="0" IVar="0" Cut="1.0000000000000000e+00" cType="1" res="-3.1226181890815496e-03" rms="3.5077184438705444e-01" purity="3.7522885203361511e-01" nType="0">
        <Node pos="l" depth="1" NCoef="0" IVar="5" Cut="2.9289581250000000e+05" cType="1" res="1.3091275095939636e-01" rms="3.3730491995811462e-01" purity="1.3091275095939636e-01" nType="0">
          <Node pos="l" depth="2" NCoef="0" IVar="-1" Cut="0.0000000000000000e+00" cType="1" res="-9.3925651162862778e-04" rms="2.7055409550666809e-01" purity="1.1566391587257385e-01" nType="-99"/>
          <Node pos="r" depth="2" NCoef="0" IVar="-1" Cut="0.0000000000000000e+00" cType="1" res="-3.7960605695843697e-03" rms="3.4724858403205872e-01" purity="2.6685059070587158e-01" nType="-99"/>
        </Node>
        <Node pos="r" depth="1" NCoef="0" IVar="3" Cut="9.2119421875000000e+04" cType="1" res="5.8561080694198608e-01" rms="4.9285972118377686e-01" purity="5.8669650554656982e-01" nType="0">
          <Node pos="l" depth="2" NCoef="0" IVar="-1" Cut="0.0000000000000000e+00" cType="1" res="6.5260782139375806e-04" rms="4.0406569838523865e-01" purity="5.9239935874938965e-01" nType="-99"/>
          <Node pos="r" depth="2" NCoef="0" IVar="-1" Cut="0.0000000000000000e+00" cType="1" res="-3.9366720011457801e-04" rms="3.9795523881912231e-01" purity="5.7778477668762207e-01" nType="-99"/>
        </Node>
      </Node>
    </BinaryTree>
    <BinaryTree type="DecisionTree" boostWeight="1.0000000000000000e+00" itree="1379">
      <Node pos="s" depth="0" NCoef="0" IVar="1" Cut="2.0344940625000000e+05" cType="1" res="4.4879525899887085e-01" rms="4.9743306636810303e-01" purity="4.4885686039924622e-01" nType="0">
        <Node pos="l" depth="1" NCoef="0" IVar="2" Cut="8.9610320312500000e+04" cType="1" res="4.7872835397720337e-01" rms="5.2021747827529907e-01" purity="5.3689372539520264e-01" nType="0">
          <Node pos="l" depth="2" NCoef="0" IVar="-1" Cut="0.0000000000000000e+00" cType="1" res="3.0563496693503112e-05" rms="4.1352236270904541e-01" purity="7.9752784967422485e-01" nType="-99"/>
          <Node pos="r" depth="2" NCoef="0" IVar="-1" Cut="0.0000000000000000e+00" cType="1" res="4.7730610822327435e-04" rms="3.3913958072662354e-01" purity="2.3401650786399841e-01" nType="-99"/>
        </Node>
        <Node pos="r" depth="1" NCoef="0" IVar="3" Cut="9.7227898437500000e+04" cType="1" res="4.1924861073493958e-01" rms="4.9351945519447327e-01" purity="4.1933083534240723e-01" nType="0">
          <Node pos="l" depth="2" NCoef="0" IVar="-1" Cut="0.0000000000000000e+00" cType="1" res="4.0540119516663253e-04" rms="3.6019307374954224e-01" purity="4.2140889167785645e-01" nType="-99"/>
          <Node pos="r" depth="2" NCoef="0" IVar="-1" Cut="0.0000000000000000e+00" cType="1" res="-1.6033087158575654e-03" rms="3.5274517536163330e-01" purity="3.9518961310386658e-01" nType="-99"/>
        </Node>
      </Node>
    </BinaryTree>
    <BinaryTree type="DecisionTree" boostWeight="1.0000000000000000e+00" itree="1380">
      <Node pos="s" depth="0" NCoef="0" IVar="1" Cut="1.9126706250000000e+05" cType="1" res="4.4545549154281616e-01" rms="4.9701598286628723e-01" purity="4.4545552134513855e-01" nType="0">
        <Node pos="l" depth="1" NCoef="0" IVar="1" Cut="1.8703604687500000e+05" cType="1" res="3.3865202218294144e-02" rms="2.1310903131961823e-01" purity="7.0827639102935791e-01" nType="0">
          <Node pos="l" depth="2" NCoef="0" IVar="-1" Cut="0.0000000000000000e+00" cType="1" res="8.8664924260228872e-04" rms="3.1051802635192871e-01" purity="2.1573178470134735e-01" nType="-99"/>
          <Node pos="r" depth="2" NCoef="0" IVar="-1" Cut="0.0000000000000000e+00" cType="1" res="3.0686609534313902e-05" rms="3.7861818075180054e-01" purity="8.3865606784820557e-01" nType="-99"/>
        </Node>
        <Node pos="r" depth="1" NCoef="0" IVar="2" Cut="8.8234843750000000e+04" cType="1" res="3.9525732398033142e-01" rms="4.8890590667724609e-01" purity="3.9525729417800903e-01" nType="0">
          <Node pos="l" depth="2" NCoef="0" IVar="-1" Cut="0.0000000000000000e+00" cType="1" res="1.9374010153114796e-03" rms="3.9864885807037354e-01" purity="4.2711165547370911e-01" nType="-99"/>
          <Node pos="r" depth="2" NCoef="0" IVar="-1" Cut="0.0000000000000000e+00" cType="1" res="-1.7980211123358458e-04" rms="3.5001170635223389e-01" purity="3.9282190799713135e-01" nType="-99"/>
        </Node>
      </Node>
    </BinaryTree>
    <BinaryTree type="DecisionTree" boostWeight="1.0000000000000000e+00" itree="1381">
      <Node pos="s" depth="0" NCoef="0" IVar="3" Cut="8.9426437500000000e+04" cType="1" res="5.1699393987655640e-01" rms="4.9986708164215088e-01" purity="5.1723265647888184e-01" nType="0">
        <Node pos="l" depth="1" NCoef="0" IVar="3" Cut="8.8492929687500000e+04" cType="1" res="1.1785750091075897e-01" rms="0.0000000000000000e+00" purity="6.1498630046844482e-01" nType="0">
          <Node pos="l" depth="2" NCoef="0" IVar="-1" Cut="0.0000000000000000e+00" cType="1" res="3.3873048960231245e-04" rms="3.5277375578880310e-01" purity="3.9453199505805969e-01" nType="-99"/>
          <Node pos="r" depth="2" NCoef="0" IVar="-1" Cut="0.0000000000000000e+00" cType="1" res="2.5546924007358029e-05" rms="4.1556650400161743e-01" purity="8.3669781684875488e-01" nType="-99"/>
        </Node>
        <Node pos="r" depth="1" NCoef="0" IVar="4" Cut="6.6919265625000000e+04" cType="1" res="3.7825077772140503e-01" rms="4.8546767234802246e-01" purity="3.7875249981880188e-01" nType="0">
          <Node pos="l" depth="2" NCoef="0" IVar="-1" Cut="0.0000000000000000e+00" cType="1" res="-5.4110295604914427e-04" rms="3.5361137986183167e-01" purity="3.1621333956718445e-01" nType="-99"/>
          <Node pos="r" depth="2" NCoef="0" IVar="-1" Cut="0.0000000000000000e+00" cType="1" res="4.4392608106136322e-04" rms="3.1786972284317017e-01" purity="8.7799662351608276e-01" nType="-99"/>
        </Node>
      </Node>
    </BinaryTree>
    <BinaryTree type="DecisionTree" boostWeight="1.0000000000000000e+00" itree="1382">
      <Node pos="s" depth="0" NCoef="0" IVar="3" Cut="9.8929492187500000e+04" cType="1" res="3.8980397582054138e-01" rms="4.8770567774772644e-01" purity="3.8980400562286377e-01" nType="0">
        <Node pos="l" depth="1" NCoef="0" IVar="0" Cut="1.0000000000000000e+00" cType="1" res="6.5908639226108789e-04" rms="3.4990623593330383e-01" purity="3.8417470455169678e-01" nType="0">
          <Node pos="l" depth="2" NCoef="0" IVar="-1" Cut="0.0000000000000000e+00" cType="1" res="-1.1894785566255450e-03" rms="2.7905389666557312e-01" purity="1.2946061789989471e-01" nType="-99"/>
          <Node pos="r" depth="2" NCoef="0" IVar="-1" Cut="0.0000000000000000e+00" cType="1" res="3.0047784093767405e-04" rms="3.9918062090873718e-01" purity="5.9670907258987427e-01" nType="-99"/>
        </Node>
        <Node pos="r" depth="1" NCoef="0" IVar="-1" Cut="0.0000000000000000e+00" cType="1" res="1.4259786112233996e-03" rms="4.0712410211563110e-01" purity="5.2562236785888672e-01" nType="-99"/>
      </Node>
    </BinaryTree>
    <BinaryTree type="DecisionTree" boostWeight="1.0000000000000000e+00" itree="1383">
      <Node pos="s" depth="0" NCoef="0" IVar="2" Cut="9.1846109375000000e+04" cType="1" res="4.7479093074798584e-01" rms="4.9955016374588013e-01" purity="4.7500434517860413e-01" nType="0">
        <Node pos="l" depth="1" NCoef="0" IVar="2" Cut="8.9156507812500000e+04" cType="1" res="3.8393753767013550e-01" rms="4.8666277527809143e-01" purity="3.8429480791091919e-01" nType="0">
          <Node pos="l" depth="2" NCoef="0" IVar="-1" Cut="0.0000000000000000e+00" cType="1" res="-8.7003392400220037e-04" rms="3.4601214528083801e-01" purity="3.4465312957763672e-01" nType="-99"/>
          <Node pos="r" depth="2" NCoef="0" IVar="-1" Cut="0.0000000000000000e+00" cType="1" res="3.0668263207189739e-04" rms="3.5339596867561340e-01" purity="3.9425107836723328e-01" nType="-99"/>
        </Node>
        <Node pos="r" depth="1" NCoef="0" IVar="2" Cut="9.2043625000000000e+04" cType="1" res="6.0945749282836914e-01" rms="4.8798984289169312e-01" purity="6.0957252979278564e-01" nType="0">
          <Node pos="l" depth="2" NCoef="0" IVar="-1" Cut="0.0000000000000000e+00" cType="1" res="2.2805306798545644e-05" rms="3.6910775303840637e-01" purity="8.8036394119262695e-01" nType="-99"/>
          <Node pos="r" depth="2" NCoef="0" IVar="-1" Cut="0.0000000000000000e+00" cType="1" res="4.5400741510093212e-04" rms="3.5716569423675537e-01" purity="4.1131708025932312e-01" nType="-99"/>
        </Node>
      </Node>
    </BinaryTree>
    <BinaryTree type="DecisionTree" boostWeight="1.0000000000000000e+00" itree="1384">
      <Node pos="s" depth="0" NCoef="0" IVar="1" Cut="1.8991192187500000e+05" cType="1" res="4.4264712929725647e-01" rms="4.9669975042343140e-01" purity="4.4264712929725647e-01" nType="0">
        <Node pos="l" depth="1" NCoef="0" IVar="-1" Cut="0.0000000000000000e+00" cType="1" res="3.1458148441743106e-05" rms="4.3923956155776978e-01" purity="7.4503982067108154e-01" nType="-99"/>
        <Node pos="r" depth="1" NCoef="0" IVar="0" Cut="4.0000000000000000e+00" cType="1" res="-6.8766544573009014e-03" rms="3.4931102395057678e-01" purity="3.8853582739830017e-01" nType="0">
          <Node pos="l" depth="2" NCoef="0" IVar="-1" Cut="0.0000000000000000e+00" cType="1" res="-5.5203167721629143e-04" rms="3.5651969909667969e-01" purity="3.4725764393806458e-01" nType="-99"/>
          <Node pos="r" depth="2" NCoef="0" IVar="-1" Cut="0.0000000000000000e+00" cType="1" res="2.3080805840436369e-04" rms="2.2195523977279663e-01" purity="9.4914144277572632e-01" nType="-99"/>
        </Node>
      </Node>
    </BinaryTree>
    <BinaryTree type="DecisionTree" boostWeight="1.0000000000000000e+00" itree="1385">
      <Node pos="s" depth="0" NCoef="0" IVar="2" Cut="8.7211375000000000e+04" cType="1" res="3.8378140330314636e-01" rms="4.8666495084762573e-01" purity="3.8425108790397644e-01" nType="0">
        <Node pos="l" depth="1" NCoef="0" IVar="-1" Cut="0.0000000000000000e+00" cType="1" res="8.8961655274033546e-04" rms="3.8639855384826660e-01" purity="4.4893977046012878e-01" nType="-99"/>
        <Node pos="r" depth="1" NCoef="0" IVar="3" Cut="8.9142882812500000e+04" cType="1" res="3.8114723563194275e-01" rms="4.8604288697242737e-01" purity="3.8163590431213379e-01" nType="0">
          <Node pos="l" depth="2" NCoef="0" IVar="-1" Cut="0.0000000000000000e+00" cType="1" res="5.3006428061053157e-04" rms="3.5286036133766174e-01" purity="3.9220803976058960e-01" nType="-99"/>
          <Node pos="r" depth="2" NCoef="0" IVar="-1" Cut="0.0000000000000000e+00" cType="1" res="-5.2768032765015960e-04" rms="3.5202285647392273e-01" purity="3.7332436442375183e-01" nType="-99"/>
        </Node>
      </Node>
    </BinaryTree>
    <BinaryTree type="DecisionTree" boostWeight="1.0000000000000000e+00" itree="1386">
      <Node pos="s" depth="0" NCoef="0" IVar="3" Cut="8.5172164062500000e+04" cType="1" res="3.8113817572593689e-01" rms="4.8627939820289612e-01" purity="3.8173398375511169e-01" nType="0">
        <Node pos="l" depth="1" NCoef="0" IVar="4" Cut="2.6652111328125000e+04" cType="1" res="4.6542897820472717e-01" rms="4.9880340695381165e-01" purity="4.6542894840240479e-01" nType="0">
          <Node pos="l" depth="2" NCoef="0" IVar="-1" Cut="0.0000000000000000e+00" cType="1" res="1.1575286771403626e-04" rms="3.1540876626968384e-01" purity="2.2351120412349701e-01" nType="-99"/>
          <Node pos="r" depth="2" NCoef="0" IVar="-1" Cut="0.0000000000000000e+00" cType="1" res="4.2963729356415570e-04" rms="3.7724912166595459e-01" purity="7.0169693231582642e-01" nType="-99"/>
        </Node>
        <Node pos="r" depth="1" NCoef="0" IVar="4" Cut="2.2945019531250000e+04" cType="1" res="3.6862549185752869e-01" rms="4.8314070701599121e-01" purity="3.6930972337722778e-01" nType="0">
          <Node pos="l" depth="2" NCoef="0" IVar="-1" Cut="0.0000000000000000e+00" cType="1" res="6.5818190341815352e-04" rms="3.0462366342544556e-01" purity="2.1384909749031067e-01" nType="-99"/>
          <Node pos="r" depth="2" NCoef="0" IVar="-1" Cut="0.0000000000000000e+00" cType="1" res="-5.3203536663204432e-04" rms="3.9784142374992371e-01" purity="5.4222065210342407e-01" nType="-99"/>
        </Node>
      </Node>
    </BinaryTree>
    <BinaryTree type="DecisionTree" boostWeight="1.0000000000000000e+00" itree="1387">
      <Node pos="s" depth="0" NCoef="0" IVar="5" Cut="1.5962442187500000e+05" cType="1" res="5.9923458099365234e-01" rms="4.9005356431007385e-01" purity="5.9923458099365234e-01" nType="0">
        <Node pos="l" depth="1" NCoef="0" IVar="-1" Cut="0.0000000000000000e+00" cType="1" res="1.7328260582871735e-05" rms="3.0175554752349854e-01" purity="8.7262874841690063e-01" nType="-99"/>
        <Node pos="r" depth="1" NCoef="0" IVar="2" Cut="9.1849609375000000e+04" cType="1" res="4.9154016375541687e-01" rms="4.9992841482162476e-01" purity="4.9154016375541687e-01" nType="0">
          <Node pos="l" depth="2" NCoef="0" IVar="-1" Cut="0.0000000000000000e+00" cType="1" res="1.2563120435515884e-05" rms="3.5557797551155090e-01" purity="4.0427300333976746e-01" nType="-99"/>
          <Node pos="r" depth="2" NCoef="0" IVar="-1" Cut="0.0000000000000000e+00" cType="1" res="2.2711761630489491e-05" rms="5.0774341821670532e-01" purity="6.2043499946594238e-01" nType="-99"/>
        </Node>
      </Node>
    </BinaryTree>
    <BinaryTree type="DecisionTree" boostWeight="1.0000000000000000e+00" itree="1388">
      <Node pos="s" depth="0" NCoef="0" IVar="3" Cut="9.5950960937500000e+04" cType="1" res="4.9121943116188049e-01" rms="5.0006544589996338e-01" purity="4.9136197566986084e-01" nType="0">
        <Node pos="l" depth="1" NCoef="0" IVar="2" Cut="8.8951859375000000e+04" cType="1" res="3.9368262887001038e-01" rms="4.8858416080474854e-01" purity="3.9370051026344299e-01" nType="0">
          <Node pos="l" depth="2" NCoef="0" IVar="-1" Cut="0.0000000000000000e+00" cType="1" res="-1.8627103418111801e-03" rms="3.3329614996910095e-01" purity="3.2349425554275513e-01" nType="-99"/>
          <Node pos="r" depth="2" NCoef="0" IVar="-1" Cut="0.0000000000000000e+00" cType="1" res="3.9594192639924586e-04" rms="3.5341185331344604e-01" purity="4.0155577659606934e-01" nType="-99"/>
        </Node>
        <Node pos="r" depth="1" NCoef="0" IVar="3" Cut="9.6732937500000000e+04" cType="1" res="7.7175635099411011e-01" rms="4.1970047354698181e-01" purity="7.7225750684738159e-01" nType="0">
          <Node pos="l" depth="2" NCoef="0" IVar="-1" Cut="0.0000000000000000e+00" cType="1" res="1.7368223780067638e-05" rms="3.1600904464721680e-01" purity="9.1704231500625610e-01" nType="-99"/>
          <Node pos="r" depth="2" NCoef="0" IVar="-1" Cut="0.0000000000000000e+00" cType="1" res="3.4278209204785526e-04" rms="3.7305912375450134e-01" purity="4.3577790260314941e-01" nType="-99"/>
        </Node>
      </Node>
    </BinaryTree>
    <BinaryTree type="DecisionTree" boostWeight="1.0000000000000000e+00" itree="1389">
      <Node pos="s" depth="0" NCoef="0" IVar="5" Cut="1.5917245312500000e+05" cType="1" res="4.8487532138824463e-01" rms="4.9983227252960205e-01" purity="4.8493638634681702e-01" nType="0">
        <Node pos="l" depth="1" NCoef="0" IVar="-1" Cut="0.0000000000000000e+00" cType="1" res="1.7322950952802785e-05" rms="3.7658655643463135e-01" purity="7.7872484922409058e-01" nType="-99"/>
        <Node pos="r" depth="1" NCoef="0" IVar="4" Cut="8.0076195312500000e+04" cType="1" res="4.0859803557395935e-01" rms="4.9165293574333191e-01" purity="4.0867495536804199e-01" nType="0">
